#version: 0.2 - Trained by `huggingface/tokenizers`
à ¸
à ¹
à¸ ²
à¸ Ļ
à¸² à¸
à¸ £
à¸ Ń
à¹ Ģ
à¹ Ī
à¸ ģ
à¸ ±
à¸ ĩ
à¹Ģ à¸
à¹ ī
à¸ µ
à¸ ¡
à¸ ¥
à¸Ļ à¸
à¸ ´
à¸ ¢
à¸ §
à¸ Ķ
à¸ °
à¸ ª
à¸ ķ
à¸ Ĺ
à¸ ļ
à¹ ģ
à¸ «
à¸ Ħ
à¹ ĥ
à¹ Į
à¸ Ī
à¸²à¸ £
à¸ Ľ
à¸Ń à¸ĩ
à¸ ·
à¹ Ħ
à¸ ŀ
à¸ ¸
à¸µ à¹Ī
à¹ ĩ
à¸ ¹
à¹ Ĥ
à¸£ à¸°
à¸ Ĥ
à¸ Ĭ
à¸ģ à¸²à¸£
à¸ ³
à¹Ģà¸ Ľ
à¸²à¸ ¢
à¸²à¸ ĩ
à¹ģ à¸¥
à¸ ¶
à¸ ¨
à¸²à¸ ģ
à¹ģà¸¥ à¸°
à¸²à¸ ¡
à¸· à¹Ī
à¸± à¹ī
à¹Ħ à¸Ķ
à¸ ĸ
à¹ĥ à¸Ļà¸
à¸Ĥ à¸Ńà¸ĩ
à¸ ĭ
à¸Ļà¸ Ĺ
Ġ à¹Ģà¸
à¸² à¸Ļ
à¸ ©
à¸Ń à¸¢
à¹ĥ à¸«
à¹Ģ à¸£
Ġ 2
à¸ ĵ
à¹ĥ à¸Ļ
Ġ à¹ģà¸¥à¸°
à¸Ľ à¸£à¸°
à¸ į
à¸Ń à¸ģ
à¸ ľ
à¸²à¸ §
à¸ ł
à¸ģ à¸£
à¸ ĺ
à¹Ģ à¸ģ
à¹Ĥ à¸Ķ
à¹Ģà¸ ¡
Ġ à¸ŀ
à¸²à¸ Ĭ
à¸Ħ à¸£
à¸Ń à¸£
Ġ (
à¹Ģà¸ Ķ
à¸Ļà¸ ķ
Ġ 1
à¹Ģà¸ ¥
à¸¶ à¹Ī
à¹Ģà¸ Ĥ
à¸Ī à¸²à¸ģ
à¸Ń à¸Ļ
à¹Ĥà¸Ķ à¸¢
à¸¹ à¹ī
à¸Ħ à¸§
à¹Ģà¸ Ĺ
à¸ģ à¸¥
à¸ķ à¸£
à¸ Ł
à¸¹ à¹Ī
à¹Ģà¸ ŀ
à¸« à¸¥
à¹Ħ à¸Ľ
à¸ŀ à¸£à¸°
à¸²à¸ Ħ
Ġ à¸Ħ
à¸µ à¹ī
à¸²à¸ ª
à¸« à¸Ļ
à¸§ à¸¢
à¸Ħà¸§ à¸²à¸¡
à¸² à¸Ļà¸
à¹ģ à¸ķ
Ġ à¸¡
Ġ à¸Ĺ
Ġ à¸ª
à¹Ħ à¸¡
à¸Ń à¸¡
à¸£ à¸£
à¹Ģà¸ «
à¸Ī à¸°
à¸²à¸ ¥
à¸²à¸ Ī
à¸§ à¸ĩ
à¸²à¸ Ĺ
à¹Ģà¸ ª
à¸Ļà¸ ª
à¸« à¸£
à¹Ģà¸ Ī
à¸Ĺ à¸¢
à¸Ń à¸ļ
à¸²à¸ ķ
à¸ģ à¸©
Ġ à¹Ģà¸Ľ
à¸ Ĳ
à¸²à¸ ŀ
à¸ļ à¸£
à¸Ļà¸ §
à¸£ à¸ĩ
à¹Ģà¸ §
Ġ "
à¸¥ à¸ĩ
Ġ à¸ĭ
Ġ à¸Ń
à¸Ļà¸ Ķ
à¸´ à¹Ī
à¸ª à¸¡
Ġ à¸ģ
Ġ2 5
à¹ĥ à¸Ĭ
à¸± à¹Ī
à¹Ģ à¸Ļ
à¹Ģ à¸Ń
Ġ à¸Ī
à¸¢ à¸ĩ
Ġ à¹Ĥà¸Ķà¸¢
à¸£ à¸²à¸Ĭ
à¸§ à¸¡
à¹Ģà¸ Ĭ
Ġ à¸ķ
à¸Ĺ à¸³
à¹Ģà¸ Ħ
à¸Ľ à¸£
à¸¶ à¹ī
à¸ĩ à¸ª
à¸ļ à¸ļ
à¸¸ à¹Ī
à¸²à¸ Ķ
à¸« à¸¡
à¸Ļà¸ Ħ
à¸¢ à¸§
à¹ Ĩ
à¹ĥà¸Ļà¸ Ľ
à¸Ń à¸Ķ
à¸Ļ à¸¡
à¸ģ à¸§
à¹Ģà¸Ĺ à¸¨
Ġ à¸Ļ
Ġ à¹ģ
à¸« à¸§
à¸²à¸ «
à¸Ļ à¸Ļ
à¹Ģà¸ ķ
à¸Ń à¸Ńà¸ģ
Ĥ à¸Ńà¸ĩ
à¸· à¹ī
à¸Ļà¸ «
à¸Ĺ à¸²à¸ĩ
Ġ à¸£
à¸ĩ à¸ģ
à¸²à¸ ¨
à¸¢ à¸Ļ
à¸ ®
à¹Ģà¸ ĭ
à¸£ à¸ģ
à¸Ļà¸ Ī
à¸£ à¸¡
à¸ĵ à¸°
0 0
à¸ ¤
à¸²à¸Ħ à¸¡
à¸ł à¸²à¸ŀ
à¸²à¸ °
à¹Ĥ à¸¥
à¸Ń à¸ª
à¸Ń à¸¥
à¸²à¸ Ń
à¸ĩ à¸Ħ
à¸Ļà¸ ŀ
à¸Ńà¸ĩ à¸Ħ
Ġ à¹ģà¸ķ
à¸²à¸ ļ
à¸Ń à¸§
à¸Ļà¸ ĺ
à¹ģ à¸«
Ġ à¹Ħà¸Ķ
à¸Ļ à¸ģ
Ġ à¸Ľ
à¸ĩ à¸Ĺ
à¸ª à¸³
Ġà¹Ģà¸ ¡
à¸Ĺ à¸ĺ
à¸²à¸ ĵ
à¸¢ à¸¡
à¹Ģà¸ ļ
o n
à¸§ à¸Ļ
à¹ģ à¸ģ
à¸Ī à¸³
â Ģ
à¸ Ŀ
à¸Ļ à¸Ń
à¸Ĺ à¸£
à¹ģ à¸ª
à¹Ħ à¸Ĺà¸¢
à¸ĩ à¸¡
à¹ģ à¸ļà¸ļ
Ġ 3
à¸Ļà¸ķ à¸£
à¸Ľà¸£à¸° à¹Ģà¸Ĺà¸¨
à¸ĩ à¹Ģà¸Ľ
Ġ à¸Ķ
Ġ à¹Ĥ
à¸²à¸¡ à¸²à¸£
à¹ĥà¸Ļ à¸ģà¸²à¸£
à¸Ļà¸ ³
Ġ à¹ĥà¸Ļà¸
à¸Ħ à¸¥
Ġ à¸Ĭ
: :
à¸ľ à¸¥
à¸Ļà¸ Ľ
à¸²à¸¡à¸²à¸£ à¸ĸ
à¸ĩ à¸Ĥ
à¹ģ à¸¡
à¸ª à¸£
Ġ à¹Ĩ
à¸¥ à¸°
à¸ģ à¸£à¸°
à¹ģ à¸£à¸ģ
à¸¡ à¸²à¸ģ
à¸« à¸²à¸£
à¸Ķ à¸ĩ
à¸ļ à¸ģà¸²à¸£
à¸¢ à¸ģ
à¸ ı
e r
Ġ à¸§
à¸Ľ à¸¥
à¸Ļà¸ Ĭ
t i
Ġ à¸«à¸£
à¸²à¸ ©
à¸Ļà¸ ¢
Ġà¹Ģà¸ ŀ
à¸ķ à¸²à¸¡
à¹ĥà¸« à¸į
Ġ1 9
à¹ĥ à¸Ī
à¸ĩ à¸Ļ
à¸ģà¸£ à¸£à¸¡
à¸¨ à¸²à¸ª
à¸¡ à¸²
Ġ à¸ļ
à¹Ĥ à¸£
à¸²à¸ Ľ
à¸Ļ à¸£
à¹ģ à¸Ĥ
à¸²à¸¢ à¸Ļ
à¸ĩ à¸²à¸Ļ
à¸¡ à¸«
à¸ŀ à¸¥
à¸Ń à¸ķ
à¸Ļà¸ ľ
Ġà¸ŀ à¸£à¸°
à¸Ļà¸ ļ
à¹Ģà¸« à¸¥
a n
à¸ļ à¸ª
Ġ à¸ģà¸²à¸£
à¸ İ
à¸ģ à¸ª
à¸£à¸£ à¸¡
à¸ĩ à¸ķ
à¸ ī
à¸ļ à¸Ĺ
à¸ģ à¸ķ
à¸²à¸ģ à¸²à¸£
à¸Ķ à¸Ĺ
à¹Ģà¸Ħ à¸£
à¸²à¸ ĺ
i n
Ġ à¹ĥà¸Ļ
à¸Ļà¸ °
à¸´ à¹ī
à¸Ļ à¸ģà¸²à¸£
à¸Ľà¸£à¸° à¸ģ
à¹Ģà¸ ¢
à¸ģ à¸³
à¸Ļà¸ Ĥà¸Ńà¸ĩ
à¹Ģà¸ŀ à¸¥à¸ĩ
Ġ à¸¥
à¸Ļ à¹ģ
à¸² à¹Ģà¸Ľ
à¸¡ à¸ŀ
à¸Ĭ à¸²à¸ķ
à¸ Ĵ
Ġ2 0
à¹Ģà¸§ à¸¥
Ġ 4
à¸¤ à¸©
à¸ª à¸ķ
à¸Ī à¸Ī
à¹Ĥà¸¥ à¸ģ
à¹Ģà¸ ĺ
à¸¢à¸§ à¸ģ
à¸¡ à¸Ļ
à¸Ńà¸ĩ à¸Ĺ
à¸ª à¸²à¸¡à¸²à¸£à¸ĸ
à¹Ģà¸ ¨
à¹ĥà¸Ļà¸ ª
à¸ŀ à¸£
à¹ģà¸ª à¸Ķà¸ĩ
à¹ĥà¸« à¸¡
à¹ģ à¸Ĺ
à¹Ħ à¸§
à¹Ģà¸ ł
à¸Ķ à¸ª
à¸§ à¸ģ
Ġà¹Ģà¸ Ĥ
à¸ģ à¸Ķ
Ġ25 5
à¸Ļ à¹Ģà¸Ľ
à¸Ļà¸Ĺ à¸²à¸ĩ
à¸į à¸į
à¸Ļà¸« à¸Ļ
à¹Ĥ à¸¡
à¸ĩ à¸«à¸§
à¸£à¸° à¸«à¸§
à¸ĩ à¸Īà¸²à¸ģ
à¹Ģà¸ ī
à¸Ħ à¸Ļ
à¹ĥ à¸ķ
à¹Ĥ à¸£à¸ĩ
o r
à¸«à¸¡ à¸²à¸¢
à¸¨à¸²à¸ª à¸ķà¸£
à¸Ļà¸Ħ à¸£
Ġ 5
Ġ à¸ľ
a r
à¸Ĺà¸¢ à¸²à¸¥
à¸ķ à¸³
Ġà¹Ģà¸ Ĭ
Ġ2 4
à¸ª à¸ĸ
Ġ à¸ĸ
e n
à¸ĩ à¸²à¸Ļà¸
à¸Ļ à¸²à¸¡
à¸¥ à¸²à¸¢
ti on
Ġ à¸Ĥ
à¸²à¸ Ĥà¸Ńà¸ĩ
à¸Ĭ à¸²à¸§
à¹Ĥ à¸ķ
à¸Ĭ à¸Ļ
à¸§ à¸£à¸£
à¸ģ à¸Ħà¸£
à¸Ľà¸£à¸° à¸Ĭ
Ġ à¸Ĥà¸Ńà¸ĩ
à¸«à¸¥ à¸²à¸¢
à¸Ķ à¸ķ
a l
à¸ĺ à¸£à¸£à¸¡
à¸ĩ à¹Ħà¸Ķ
à¸Ļ à¸²
à¸° à¸§
à¸Ń à¸³
à¸ŀà¸£à¸° à¸£à¸²à¸Ĭ
à¸´ à¹Į
à¸²à¸ Ĥ
Ġ à¸¢
à¹Ģà¸Ĥ à¸²
à¸Ħ à¸³
à¸¢ à¸£
Ġ S
à¸ĩ à¹ģà¸ķ
à¸ĩ à¸ģà¸²à¸£
à¸Ń à¸Ĺ
e c
à¸¥ à¸¥
à¸²à¸Ī à¸²à¸ģ
à¸Ļ à¹Ħà¸Ķ
à¹Ģà¸ķ à¸Ńà¸£
à¸ŀ à¸¢
à¸² à¸Ļà¸Ĺ
à¸ļ à¸¥
à¸Ľà¸£à¸° à¸ª
à¸£à¸° à¸Ķ
à¸Ĺà¸³ à¹ĥà¸«
à¸ģà¸¥ à¸²à¸ĩ
à¸£ à¸²à¸¢
à¸ł à¸²à¸©
Ġ à¸Īà¸²à¸ģ
à¸Ĺ à¸£à¸ĩ
à¹Ħ à¸Ł
à¸Ļà¸ ĸ
à¸Ń à¹Ģà¸¡
à¹ĥà¸Ļà¸ §
à¸ŀ à¸£à¸£
à¹Ģ à¸Ńà¸ĩ
à¹Ģà¸Ľ à¸¥
à¸ģ à¸Ĺ
à¸Ķ à¸³
à¸ģ à¸²
à¸ŀ à¸ļ
à¹ĥà¸Ļà¸ Ĭ
Ġ20 1
à¸ł à¸²à¸¢
à¸Ļà¸ Ĥ
à¸ĩ à¸Ń
à¸§à¸ĩ à¸¨
à¸¡ à¸²à¸ĵ
Ġ à¸«à¸¥
à¹Ĥ à¸Ń
Ġà¸Ĺ à¸³
à¹ Ĭ
à¸ĩ à¸Ĥà¸Ńà¸ĩ
Ġ C
à¸Ļ à¹Ģà¸Ķ
à¸Ķ à¸Ĥ
à¸ĩ à¸Ħà¸£
à¸Ļ à¸²à¸Ķ
à¸Ļà¸ŀ à¸£à¸°
à¹Ģà¸« à¸Ļ
Ġ à¹Ģà¸£
à¸¡ à¸ķ
à¹ģ à¸«à¸Ļ
à¸¢ à¸Ļà¸ķà¸£
à¸Ļà¸Ĺ à¸£
e s
à¸²à¸ĩ à¸§
à¸²à¸ģ à¸²à¸¨
à¸¡ à¸Ĺ
à¸¢ à¸ļ
à¸ģà¸© à¸²
à¸ļ à¸²à¸¥
Ġ 6
à¸Ī à¸£
à¸ł à¸²à¸Ħ
à¹ģ à¸ŀ
à¸Ń à¸Ľ
à¸ĩ à¸£
à¸²à¸ ĭ
à¸ļ à¸Ħ
à¸ ĳ
à¹Ģà¸« à¸ķ
à¸¥ à¸ļ
à¹Ģ à¸Ńà¸ģ
à¸Ľà¸£à¸°à¸ģ à¸Ńà¸ļ
à¹ģ à¸ľ
à¸ķ à¸Ļ
à¸Ńà¸¡ à¸²
à¸Ī à¸ŀà¸£à¸°
à¸¢ à¸°
à¸Ĭ à¸²à¸¢
à¹Ģ à¸ĩ
à¸§ à¸²à¸¡
à¸Ļà¸ ł
à¸Ńà¸ĩ à¸ģ
à¸² à¹Ĥ
à¸¡ à¸Ľ
à¸§ à¸£
Ġ âĢ
à¹Ģà¸ĺ à¸Ń
à¸Ļà¸Ľ à¸£à¸°
à¹Ģà¸Ĥ à¸ķ
à¹Ĥà¸£à¸ĩ à¹Ģà¸£
à¸Ļà¸ ĭ
à¸ļ à¸Ļ
Ġ à¹ĥà¸Ļà¸Ľ
à¸Ľ à¸ı
à¸ģ à¸ģ
h e
à¸«à¸¡ à¸Ķ
Ġ25 4
à¸Ńà¸ģ à¸Īà¸²à¸ģ
à¸£ à¸²à¸°
à¸ķ à¸¢
à¸Ń à¸Ń
à¸ģ à¸²à¸¥
à¸ĩ à¸Ńà¸¢
à¸Ńà¸ĩ à¸Īà¸²à¸ģ
à¸ĵ à¸ĳ
à¸£à¸° à¸ļà¸ļ
Ġ 7
à¸²à¸ĩ à¸ģ
Ġ M
Ġ à¹Ģà¸ģ
Ġ A
à¸ĩ à¹ģ
Ġ à¸«
à¸ª à¸²à¸£
à¸¨ à¸£
à¸ķ à¸§
à¸ª à¸Ļ
à¸Ļ à¸Ńà¸¢
Ġ à¸ģà¸£
Ġà¹Ģà¸ Ī
à¸ĩ à¸ģà¸¥
à¸§ à¸Ķ
à¸ĩà¸ģ à¸¤à¸©
à¸Ļ à¹Ĥ
à¸Ķ à¸ģà¸²à¸£
à¸¡ à¸²à¸£
Ġ2 00
Ġà¸Ħ à¸Ļ
à¸²à¸Ī à¸°
à¸ªà¸¡ à¹Ģà¸Ķ
à¸²à¸ ĸ
à¸¥ à¸³
à¹Ħ à¸£
à¸Ļ à¹Ħà¸Ľ
à¸§ à¸Ī
à¹ĥà¸Ļà¸ Ĺ
à¸£ à¸§à¸¡
à¸Ńà¹Ģà¸¡ à¸£
ec tion
à¸ Ĩ
à¸ĩ à¹Ģà¸ģ
Ħ à¸£
à¸ļ à¸Ńà¸¥
à¸¥ à¸Ľ
à¹Ģà¸« à¸¡
à¸ĩà¸Ħà¸£ à¸²à¸¡
à¸Īà¸° à¸¡
à¸²à¸ģ à¸£
Ġà¹Ģà¸ Ķ
Ġ T
à¸ģ à¸ĭ
Ġà¸Ĺà¸³ à¹ĥà¸«
à¸¥à¸° à¸Ħà¸£
à¸ļ à¸Ķ
à¸Ļ à¹ģà¸¥à¸°
à¸ĩ à¸«
à¸²à¸ĩ à¸ª
à¸Ń à¸°
à¸© à¸Ĳ
à¸¡ à¸ª
à¸ļ à¸Ħà¸§à¸²à¸¡
à¸Ļ à¹Ģà¸¡
à¸Ľà¸£à¸° à¸¡à¸²à¸ĵ
à¸Ń à¸Ļà¸Ĺ
i c
Ġ à¸Ńà¸¢
i s
à¸Ń à¸²à¸ģà¸²à¸¨
à¸ģà¸© à¸ĵà¸°
à¸£à¸° à¹Ģà¸Ĺà¸¨
Ġ 8
:: ::
à¹ģ à¸Ľ
à¸ĩ à¸«à¸¡à¸Ķ
Ġ à¸Ħà¸£
à¸ŀà¸£à¸° à¸Ńà¸ĩà¸Ħ
S ection
Â ł
à¸ĩ à¸Ĭ
Ġ à¹Ħà¸¡
a t
à¸Ń à¹Ģà¸Ľ
à¸ķ à¸°à¸§
à¹Ĥ à¸ģ
à¸²à¸£ à¸ĵ
à¸Ļà¸Ī à¸°
à¸ ¬
à¸Ļ à¸²à¸¢
à¸ģ à¸İ
à¸ĩ à¹ģà¸£à¸ģ
à¸Ń à¸ģà¸²à¸£
à¸«à¸¥ à¸§à¸ĩ
à¸ªà¸³ à¸«à¸£
à¸²à¸ ľ
à¸ĩ à¸§
Ġà¸£ à¸§à¸¡
à¸Ńà¸ĩ à¸ª
Ġ à¹Ģà¸Ń
à¹Ģà¸§ à¸ĵ
à¸ªà¸³ à¸Ħ
à¹Ĥ à¸ĭ
à¸²à¸Ń à¸¢
à¸ĩ à¸Ľ
à¸Ļ à¸Ńà¸Ńà¸ģ
à¸ķà¸³ à¹ģà¸«à¸Ļ
à¸Ĵ à¸Ļ
à¸²à¸ ł
à¸ģà¸²à¸£ à¸ª
à¸Ķ à¸Ļ
à¸Ń à¸«
à¸łà¸²à¸ŀ à¸¢à¸Ļà¸ķà¸£
Ġ1 8
Ġ B
à¸Ń à¸²à¸Ī
à¸ŀ à¸²à¸°
à¹ĥà¸Ļ à¸£
à¸ļ à¸²à¸Ĺ
à¹Ģà¸Ĺ à¸ŀ
à¸¸ à¹ī
à¹ģ à¸ļ
à¸ĩ à¸ļ
à¸¥ à¸Ķ
à¸Ĥ à¸Ļà¸²à¸Ķ
Ġà¸ª à¸¡
Ġ -
à¸ģà¸²à¸£ à¸ĵ
à¹Ĥ à¸Ļ
à¹Ģà¸ī à¸ŀà¸²à¸°
Ġ1 0
à¸¨ à¸Ļ
Ġ à¸Īà¸°
à¸ģà¸²à¸£ à¸Ĺ
à¹Ģà¸ Ł
à¸¡ à¸Ń
à¸Ķ à¸ģ
Ġ P
à¹Ĥ à¸Ħà¸£
à¹Ĥ à¸Ľà¸£
à¸Īà¸³ à¸Ļà¸§
à¹ģ à¸Ļà¸§
à¸¡ à¸²à¸Īà¸²à¸ģ
à¸ģà¸³ à¸¥
à¸Ļà¸¡ à¸²à¸ģ
à¸²à¸« à¸²à¸£
à¸Ĳ à¸¡
Ġ 9
à¸¢ à¸²à¸¢
à¹Ĥ à¸Ħ
à¸ģà¸£ à¸ĵ
âĢ Ŀ
à¹Ģà¸ª à¸£
Ġ t
Ġ à¹Ģà¸Ļ
à¸¡ à¸²à¸¢
à¹Ģà¸ ľ
à¸¢ à¸²
Ġà¹Ĥà¸Ķà¸¢ à¸¡
l e
à¸¢ à¸Ĭ
à¸§à¸¡ à¸ģ
à¸ļ à¸Ń
à¹Ģà¸ģ à¸¥
Ġ à¹Ħ
à¸Ľ à¸ģà¸Ħà¸£
ĠâĢ ľ
à¸ª à¸Ńà¸ĩ
à¸¡à¸« à¸²à¸§
à¹Ĥ à¸Ĺà¸£
à¸ª à¸ģ
r o
i t
à¸§ à¹Ħà¸Ľ
Ġ à¸Ľà¸£à¸°
à¸Ĳ à¸ļà¸²à¸¥
à¸² à¹Ħà¸Ķ
à¸Ńà¸ģà¸Īà¸²à¸ģ à¸Ļ
à¸ķ à¸ļà¸Ńà¸¥
à¸Ļ à¸¥
a s
à¸ĩ à¸Ī
à¸²à¸ģ à¸ı
à¸Ń à¸²à¸ĵ
à¸Ń à¹Ģà¸£
à¸¢ à¸ģà¸§
Ġà¹ģà¸¥à¸° à¸¡
à¹ĥà¸Ļà¸Ľ à¸£à¸°à¹Ģà¸Ĺà¸¨
à¸²à¸« à¸¥
à¸Ļ à¹ĥà¸Ļ
à¸© à¸¢
à¸Ńà¸ĩ à¸£
Ġ à¸ģà¸¥
à¸ŀà¸£à¸° à¹Ģà¸Ī
à¸ļ à¸ģ
r e
à¸Ļà¸ ¨
à¸ļ à¸ķ
00 0
à¸Ń à¸Ĥà¸Ńà¸ĩ
à¸ĩ à¸Ķ
à¸ĩ à¸ĸ
à¸ģ à¸Ĥà¸Ńà¸ĩ
à¸²à¸Ļà¸ °
à¸ģ à¸Ħ
à¸ŀ à¸§à¸ģ
Ġà¹ģ à¸¡
à¹Ħ à¸Ĥ
à¸ļ à¸¡
à¹ģà¸¥ à¸Ļà¸Ķ
Ġ25 3
à¸ļ à¸§
à¹Ĥ à¸Ĺ
à¹ ĭ
à¸£ à¸ĸ
à¸Ķ à¸Ń
à¸¡ à¸¡
Ġ à¸Ł
à¸Ľà¸£à¸°à¸ģ à¸²à¸¨
à¸§ à¸²à¸ĩ
à¸²à¸¢ à¸Ĺ
à¸£ à¸ĵ
à¸²à¸Ħ à¸²à¸£
à¸Ķ à¸Ĥà¸Ńà¸ĩ
à¸³ à¸Ļà¸§
à¸ĩ à¸¢
u s
à¸Ķ à¸²
à¸Ķ à¸¡
à¹Ĥ à¸¢
à¸ªà¸³ à¹Ģà¸£
à¸Ļ à¹Ģà¸ŀ
Ġ à¸Ħà¸§à¸²à¸¡
à¹ĥà¸Ļà¸ ŀ
Ġ à¸ĵ
à¸Ļ à¹Ģà¸£
Ġ à¸ĺ
à¸Ľà¸£ à¸²à¸ģà¸ı
à¸ĩ à¹Ħà¸¡
à¸« à¸į
à¸³ à¸Ļ
à¸¥ à¸Ńà¸Ķ
à¸£à¸° à¸ļ
à¹Ģà¸Ħ à¸¥
à¸« à¸²à¸§
à¸Ń à¹ĥà¸«
à¸° à¹Ģà¸¥
à¸¸ à¹Į
à¸Ļà¸Ī à¸²à¸ģ
a m
à¸² à¹Ģà¸£
à¸ļ à¸²à¸ĩ
à¸Ħ à¸ĵà¸°
à¸Ńà¸ģ à¸ķ
a c
à¸ĩ à¹Ģà¸¨
à¸ģà¸²à¸£ à¸ķ
à¸ķ à¸ª
o l
à¸Ķ à¸£
Ġ D
à¸²à¸ķ à¸£
à¸²à¸¢ à¹Ģà¸Ľ
à¹ĥà¸Ļà¸ ķ
à¹Ĥ à¸Ī
à¸ ¯
à¹ĥà¸Ļà¸ «
Ġà¹ģà¸¥à¸° à¹Ħà¸Ķ
Ġ R
à¸ĺ à¸²à¸Ļ
à¸ļ à¸£à¸£
à¹Ģà¸§à¸¥ à¸²
à¸²à¸ŀ à¸£à¸°
à¸Ńà¸ĩ à¸ģà¸²à¸£
à¸Ń à¸Ħ
à¸Ĭ à¸¡à¸Ľ
à¸²à¸ Ł
à¹ģ à¸Ħ
Ġ à¸Ľà¸£à¸°à¹Ģà¸Ĺà¸¨
à¹Ģà¸Ħ à¸¢
e l
Ġ1 5
à¸ĩ à¹ĥà¸Ļ
Ġ à¹ĥà¸«
à¸Ĳà¸¡ à¸Ļà¸ķà¸£
à¸ª à¸«à¸£
à¸²à¸ª à¸ķà¸£
à¸£à¸° à¸¢à¸°
à¸§à¸£à¸£ à¸©
à¸Ľà¸ģà¸Ħà¸£ à¸Ńà¸ĩ
à¸Ļ à¹Ħà¸¡
à¸²à¸ĩ à¸Ĺ
à¸« à¸Ļà¸Ķ
à¸Ļà¸« à¸¥
à¸ģà¸²à¸£ à¸¨
à¸ķ à¸ķ
à¸³ à¸«à¸£
à¸¢ à¸²à¸§
Ġ G
Ġ1 2
à¹Ģà¸ ®
à¹Ģà¸¡ à¸ķà¸£
à¸ģ à¸¡
à¹ĥà¸Ļà¸ ł
à¸² à¹ģà¸¥à¸°
Ġà¹Ģà¸ ª
à¸Ħà¸§à¸²à¸¡ à¸£
à¹Ģà¸¨ à¸©
Ġ L
à¸²à¸ĩ à¹Ĩ
Ġ o
à¸Ń à¹Ħà¸Ľ
à¸Ńà¸³ à¹Ģà¸ł
Ġ à¸®
à¸Ļ à¸²à¸ĩ
à¸¢ à¸Ķ
à¸ĩà¹Ģà¸¨ à¸ª
à¸ģ à¸Ĥ
à¸ĵà¸° à¸Ĺ
à¸Ľ à¹ģà¸ļà¸ļ
à¸Ń à¸²à¸£
à¸²à¸Ļà¸ ª
à¹Ħ à¸ĭ
Ġ à¸ļà¸£
à¸Ļ à¸²à¸Ļ
à¹ģà¸Ľ à¸¥à¸ĩ
Ġà¹Ģà¸ Ĺ
à¸¥ à¸²
à¸ªà¸ĸ à¸²à¸Ļ
à¹Ħ à¸¥
Ġ à¹ģà¸¥
à¹Ĥà¸£ à¸Ħ
Ġà¹ģà¸¥à¸° à¹Ģà¸Ľ
à¸²à¸ģ à¸¥
à¸Ķà¸³ à¹Ģà¸Ļ
à¸Ĭ à¸Ļà¸°
Ġ W
à¸ģ à¸Ļ
à¸Ń à¸Ł
à¸Ńà¸ĩ à¸Ļ
à¸Ļ à¸²à¸Ī
Ġ F
Ġà¹ģ à¸«
à¸ª à¸²à¸¡
à¸² à¹ģ
à¸Ļà¸ª à¸¡
à¸ģ à¹Ģà¸£
à¸ĩ à¸Ĭà¸²à¸ķ
à¹ĥà¸Ļà¸ ļ
à¸Ŀ à¸£
Ġ1 6
à¹Ģà¸¥ à¸Ĥ
à¹Į "
Ġ H
à¸¤ à¸Ķ
à¸Ńà¸²à¸ĵ à¸²à¸Ī
à¸²à¸Ľ à¸£à¸°
Ġ à¸¨
à¹ĥ à¸ģà¸¥
à¸² à¹Ħà¸Ľ
Ġ I
à¸¡ à¸Ĥ
à¸²à¸¨ à¸²à¸ªà¸ķà¸£
à¸§ à¸¥
i l
Ġà¹Ģà¸ŀ à¸£à¸²à¸°
à¸ģà¸£à¸£à¸¡ à¸ģà¸²à¸£
Ġà¸Ļ à¸Ńà¸ģà¸Īà¸²à¸ģà¸Ļ
à¸Ľà¸£à¸° à¸Īà¸³
à¸Ļ à¹Ģà¸Ĺ
à¸¢ à¸ª
à¸²à¸£ à¸¢
o m
à¸Ń à¸ŀ
à¸² à¸Ļà¸ķ
à¸Ń à¸Ĥ
à¸§à¸Ļ à¹ĥà¸«à¸į
à¹Ĥà¸Ĺà¸£ à¸Ĺ
à¸Ńà¸³ à¸Ļà¸²à¸Ī
à¹Ģà¸ģ à¸¡
à¸Ńà¸Ļ à¸ģ
à¸²à¸Ļà¸ «
à¸Ľà¸£à¸°à¸Ĭ à¸²à¸Ĭ
à¸²à¸ į
à¹Ģà¸¢ à¸Ńà¸£
à¹Ģà¸ģ à¸²à¸°
Ġo f
à¹Ģà¸ķ à¸£
à¸Īà¸²à¸ģ à¸ģà¸²à¸£
à¸ŀà¸£à¸£ à¸Ħ
à¸ªà¸³ à¸Ļ
à¸¢ à¸Ńà¸Ķ
Ġà¸ķ à¸²à¸¡
Ġ1 1
à¸§ à¸ª
in g
âĢ ĵ
à¸ĩ à¸«à¸Ļ
à¸Īà¸° à¹Ģà¸Ľ
à¸ģà¸²à¸£ à¹Ģà¸¡
à¸ªà¸¡ à¸²à¸Ĭ
à¸ĩ à¸ŀ
à¸Ī à¸Ļ
à¸ļà¸ª à¸Ļ
à¸Ń à¸Ļà¸ķ
à¸ľ à¸¥à¸ĩ
à¸Ń à¸Ļà¸Ķ
à¹Ĥà¸¡ à¸ªà¸£
à¸Ń à¸Ĭ
à¸³ à¹Ģà¸ł
à¹ĥ à¸ļ
à¸Ļà¸ Ł
Ġà¹Ģà¸ §
à¸Ń à¹Ģà¸ª
à¸ĩ à¸¨
à¸Ńà¸ĩ à¸ķ
à¸ŀà¸£à¸£ à¸Ķ
à¸ĩ à¹ĥà¸«
à¸ģ à¸ļ
à¸ģà¸£ à¸ŀà¸£à¸£à¸Ķ
à¸¡ à¸Ĭ
Ġ s
à¸ķ à¸ĸ
Ġà¹Ģà¸ «
à¸Ħà¸§à¸²à¸¡ à¸ª
à¸¥ à¸¢
à¸Ķ à¸²à¸§
u l
u r
à¸ģà¸²à¸£ à¸Ī
à¸ªà¸¡ à¸ļ
Ġà¸Ļ à¸²à¸¢
Ġà¹Ģà¸ ¥
à¸ĩ à¹Ģà¸£
à¸¥ à¸Ńà¸ĩ
à¸²à¸£ à¸°
à¹ĥà¸Ļà¸ Ħ
à¸į à¸«
e t
Ġ1 7
à¸£à¸° à¸Ĺ
à¸ª à¹Ģà¸ĭ
à¸Ĳ à¸Ńà¹Ģà¸¡à¸£
à¸ĩ à¹Ģà¸Ķ
à¸Ĥà¸Ńà¸ĩ à¸ª
à¹Ģà¸§ à¸Ńà¸£
à¸ģà¸£ à¸¡
à¸Ń à¸²à¸¢
à¹Ģà¸ł à¸Ĺ
Ġ à¹
à¸Ńà¸ĩ à¸¡
à¸Ļ à¹Ģà¸Ī
Ġ E
Ġà¸ŀà¸£à¸° à¸Ńà¸ĩà¸Ħ
à¸ģà¸© à¸ĵ
Ġ à¸«à¸Ļ
à¹ĥà¸Ļ à¸Ń
Ġ1 4
à¸Ķ à¸Ħ
à¸Ĺ à¸«à¸²à¸£
Ġ25 2
à¹Ħà¸Ł à¸Ł
à¸Ħ à¸Ħà¸¥
u n
Ġ c
à¹ģ à¸¢à¸ģ
Ġà¹Ģà¸ ĭ
Ġ25 6
à¸¥ à¸²à¸Ħà¸¡
à¸£ à¸Ńà¸ļ
e d
à¸¢ à¸²à¸¡
à¸Ļ à¸²à¸Ħà¸¡
à¸ł à¸²à¸Ħà¸¡
à¸¨ à¸Ī
i d
à¸ģ à¸Ńà¸ĩà¸Ĺ
à¹Ģà¸¨ à¸£
à¸Ĭ à¸²
Ġà¹Ģà¸ Ħ
à¹ģ à¸£à¸ĩ
à¹Ģà¸¥ à¸¢
à¸ĩ à¹ģà¸¥à¸°
à¸²à¸ĩ à¹Ģà¸Ľ
à¸²à¸ĩ à¸Ĥ
à¸Ļà¸ķ à¸ģ
à¸Ī à¸²à¸£à¸ĵ
1 9
à¸Ķ à¸§
an d
Ġ1 3
à¸¤à¸© à¸łà¸²à¸Ħà¸¡
à¸ĩ à¹Ģà¸Ĺà¸ŀ
à¹Į ,
Ġ2 3
à¸§ à¸Ĺ
à¸Ļà¸§ à¸²à¸Ħà¸¡
à¹ĥ à¸Ķ
à¸£à¸²à¸¢ à¸ģà¸²à¸£
à¸²à¸Ļà¸ Ĥà¸Ńà¸ĩ
à¸²à¸ĩ à¹Ħ
à¹Į )
à¸¡ à¸£
à¸Ńà¸ª à¸£
à¸ģà¸£ à¸²à¸Ħà¸¡
à¸§ à¸«à¸Ļ
Ġà¸Ń à¸Ńà¸ģ
Ġ N
à¸Ļ à¹Ĩ
à¸£ à¸§à¸Ī
à¸° à¹ģ
à¸Ĺà¸£ à¸§à¸ĩ
t er
Ġ ,
à¸¥ à¸²à¸Ķ
à¸Ļà¸¡ à¸²
à¸ģà¸³ à¸«à¸Ļà¸Ķ
à¸£à¸£ à¸Ħ
à¸ª à¸ĩà¸Ħà¸£à¸²à¸¡
à¸ª à¸§
Ġ19 9
à¹Ħà¸Ľ à¸¢
Ġà¸Ń à¸³à¹Ģà¸ł
à¹ĥ à¸ª
à¸ĩ à¸¥
à¸ª à¸¥
à¸ļà¸²à¸Ĺ à¸ªà¸¡à¹Ģà¸Ķ
à¸ģ à¸Ń
à¸ģà¸²à¸£ à¸Ħ
à¸³ à¸ģ
Ġà¹Ģà¸ ĺ
à¸ļ à¸ľ
à¸Ļà¸¢ à¸²à¸¢à¸Ļ
à¸ĩà¸« à¸²à¸Ħà¸¡
à¸© à¸²à¸¢à¸Ļ
à¹Ĥà¸£ à¸Ľ
à¸Ńà¸ĩ à¸ļ
à¸²à¸Ļà¸ Ħ
à¹ģà¸ŀ à¸Ĺà¸¢
à¸³ à¸ļà¸¥
à¸ģ à¸Ī
à¹ĥà¸Ļà¸ ¢
à¸ģà¸İ à¸²à¸Ħà¸¡
Ġà¸ŀ à¸£
à¸ª à¸°
à¸Ħà¸§ à¸ļà¸Ħ
à¸« à¸¢
à¸Ĺà¸¢ à¸²à¸¨à¸²à¸ªà¸ķà¸£
à¸Ļ à¸²à¸¢à¸Ļ
à¸£à¸²à¸Ĭ à¸§à¸ĩà¸¨
à¸¡ à¸°
à¸ĩà¸ª à¸Ńà¸ĩ
à¸Ľà¸£à¸°à¸ģà¸Ńà¸ļ à¸Ķ
2 5
à¸Ħà¸£ à¸Ńà¸ĩ
à¸ķ à¸²à¸¥
à¸Ķ à¸Ĭ
à¹ĥà¸Ļà¸ª à¸¡
à¸ļà¸£ à¸¡
Ġà¸Ĺ à¸²à¸ĩ
à¸¤ à¸¨à¸Ī
à¸¢ à¸Ĺ
à¸Ļ à¹Ģà¸ª
à¸§ à¸Ńà¸¢
à¸ģà¸¥ à¸²à¸¢à¹Ģà¸Ľ
à¸ģà¸²à¸£ à¹ģà¸Ĥ
à¸²à¸¢ à¸ģ
à¸ļ à¸Ĭ
à¹Ģà¸ŀ à¸£à¸²à¸°
Ġà¸Ĺ à¸£à¸ĩ
à¸Ľà¸£à¸° à¸Ĺ
Ġ f
à¸ģ à¸Ĭ
à¸ģ à¸²à¸¢à¸Ļ
à¹Ģà¸ĭ à¸Ńà¸£
à¹ģ à¸Ķà¸ĩ
à¹ģ à¸ŀà¸£
à¸§à¸£à¸£à¸© à¸Ĺ
à¸ļ à¸Ľà¸£
à¸² à¹Ģà¸Ī
à¸Ńà¸¡ à¸ģ
à¸¡ à¹Ģà¸Ľ
à¸Ľà¸£à¸°à¹Ģà¸Ĺà¸¨ à¹Ħà¸Ĺà¸¢
à¸² à¹Ģà¸¡
à¸ª à¸²à¸¢
à¸Ķ à¹Ģà¸Ľ
à¸Ļà¸Ħ à¸§à¸²à¸¡
à¸Ĭ à¸²à¸ģà¸²à¸£
à¸²à¸« à¸Ļ
a tion
à¸²à¸© à¸İ
à¸Ļ à¹Ħ
à¸ģ à¸ŀ
à¸ĩà¸Ħ à¸¡
à¸ª à¸Ķ
à¸¥ à¸Ĺ
à¹Ģà¸ģ à¸©
à¸Ļ à¹ĥà¸«
à¸ģà¸© à¸£
à¸Ń à¸²à¸«à¸²à¸£
à¸Ĭ à¸£
à¸²à¸ĺ à¸²à¸£à¸ĵ
à¸¢ à¸Ńà¸¡
à¸Ĳ à¸²à¸Ļ
à¸£à¸° à¸ģ
à¸²à¸§ à¸°
à¸²à¸Ļà¸ ŀ
2 0
à¸Ńà¸ĩ à¸ĸ
c h
à¸ģà¸²à¸£ à¸£
à¸Ń à¸Ī
à¹Ģ à¸ģà¸£
à¸ĩ à¸ľ
à¹ģà¸¥à¸° à¸ª
à¸Ļ à¹ĥà¸Ī
à¹ģà¸ķ à¸ģà¸ķ
à¹ģ à¸Ł
) ,
à¸« à¸²à¸¢
à¸ĩ à¸Īà¸°
à¸ĩ à¹Ģà¸¡
o s
à¸Ļà¸ĺ à¸£à¸£à¸¡
Ġ à¸łà¸²à¸¢
à¸¡ à¸łà¸²à¸ŀ
à¹Ģà¸Ī à¸£
à¸¥ à¸ª
a d
à¸§à¸¢ à¸ģ
à¸²à¸Ļà¸ Ħà¸£
à¹Ĥ à¸Ńà¸£
à¸Īà¸³ à¸«à¸Ļ
à¸¢ à¸ķ
à¸Ń à¸²à¸¨
à¹Ģà¸Ń à¹Ģà¸Ĭ
Ġà¸¡ à¸«à¸²à¸§
à¸²à¸©à¸İ à¸£
à¸²à¸ĩ à¸Ľà¸£à¸°à¹Ģà¸Ĺà¸¨
à¸²à¸ĩà¹Ħ à¸£à¸ģ
à¸Ļà¸ł à¸²à¸ŀ
à¸Ļ à¹Ĥà¸Ķ
à¸Ļ à¹Ĥà¸Ķà¸¢
à¸¢ à¸Ļà¸ķ
à¸«à¸¡à¸²à¸¢ à¸ĸ
à¸²à¸¢ à¸Ĥà¸Ńà¸ĩ
Ġ à¸«à¸¡
à¸ª à¸ł
à¹Ģà¸¨à¸£ à¸©à¸Ĳ
à¹ĥà¸Ļà¸ Ĥ
à¹Ĥ à¸Ĭ
à¸²à¸ĩ à¸ķ
à¸¥à¸³ à¸Ķ
à¹Ĥ à¸Ńà¸ģ
à¸Ńà¸ĩ à¸Ĥà¸Ńà¸ĩ
. .
en t
à¸Ķ à¹Ģà¸¡
âĢ ĭ
à¸Ń à¸Ļà¸ª
à¸² à¹Ģà¸¥
Ġà¸ŀ à¸¤à¸©à¸łà¸²à¸Ħà¸¡
à¸ģà¸²à¸£ à¸ļ
à¸¡à¸²à¸ģ à¸ģà¸§
Ġà¹ĥà¸Ļà¸ Ĭ
à¸Ńà¸Ńà¸ģ à¸Īà¸²à¸ģ
Ġ25 1
à¸Ļà¸ģ à¸£à¸°à¸Ĺ
à¸Ķ à¸Ķ
à¸Ń à¸ľ
Ġt he
à¸¡ à¸Ĥà¸Ńà¸ĩ
à¸²à¸ª à¸¡
à¸§ à¸ķ
Ġ p
à¸Ļ à¸ģà¸¥
à¸ĩà¸Īà¸²à¸ģ à¸Ļ
à¸ģ à¹ģà¸ªà¸Ķà¸ĩ
Ġà¸¡ à¸ģà¸£à¸²à¸Ħà¸¡
à¸ĸ à¸²à¸Ļ
à¸Ľà¸£à¸° à¸§
à¹ĥà¸Ļ à¹Ģà¸Ķ
à¸²à¸Ļà¸ ļ
à¸³ à¹ģà¸«à¸Ļ
à¹Ģà¸ª à¸Ķ
à¸²à¸° à¸«
à¹Ģà¸§ à¸Ĺ
à¸ģ à¸Ľ
Ġà¹ģà¸¥à¸° à¸¢
à¸Ļ à¹Ģà¸ģ
à¹Ĥà¸¥ à¹Ģà¸¡à¸ķà¸£
à¸£ à¸ª
à¸ĩ à¸ĭ
à¹ģ à¸Ī
Ġà¹Ģà¸¡ à¸©à¸²à¸¢à¸Ļ
à¸²à¸Ļà¸ §
à¸Ĺà¸³ à¸ĩà¸²à¸Ļ
à¸Ń à¸Ħà¸§à¸²à¸¡
à¸²à¸ļ à¸²à¸¥
à¸²à¸Ī à¸²à¸£à¸¢
à¸Ńà¸ĩ à¸Ķ
Ġ à¹ĥà¸Ĭ
à¸²à¸Ĭ à¸²à¸¢
à¸Ń à¸ĸ
à¸ģ à¹Ģà¸Ľ
à¸£à¸° à¹Ģà¸ļ
à¸ļà¸£ à¸²à¸ĵ
à¸ĺ à¸¢à¸¡
à¸¢à¸Ļ à¹ģà¸Ľà¸¥à¸ĩ
Ġà¸ģà¸£ à¸ģà¸İà¸²à¸Ħà¸¡
à¸ģà¸£à¸° à¸Ī
à¸Ļ à¹Ģà¸Ĭ
à¸ķ à¸§à¸£à¸£à¸©à¸Ĺ
à¹ģ à¸ĭ
Ġà¹ĥà¸Ļà¸ §
à¹Ĥ à¸£à¸¡
à¸²à¸ĩ à¸£
à¹Ĥ à¸Ľ
i g
Ġ K
Ġà¸Īà¸²à¸ģ à¸Ļ
à¸Ļà¸ Ĳ
à¸Ļà¸ Ŀ
à¸²à¸¢ à¸²à¸¡
à¹ģà¸¥à¸° à¸¡
à¸ º
à¸Īà¸° à¸ķ
à¸Ĺà¸³ à¸ģà¸²à¸£
à¸²à¸ĩ à¸¡à¸²à¸ģ
Ġ3 0
à¸ļ à¸ŀ
Ġà¹Ĥ à¸£à¸ĩ
à¸Ńà¸Ļ à¸¡
à¸§à¸¢ à¸ģà¸²à¸£
à¹Ģà¸Ħà¸£ à¸²à¸°à¸«
à¸§ à¸Ĥà¸Ńà¸ĩ
à¸ģà¸£à¸° à¸Ĺà¸£à¸§à¸ĩ
Ġ O
à¸Ļ à¹Ģà¸Ĥ
à¸ĩ à¸Ħà¸§à¸²à¸¡
à¸Ĵ à¸Ļà¸²
à¸Ńà¸ļ à¸Ħà¸£
à¸£à¸ĩ à¸ķà¸³à¹ģà¸«à¸Ļ
à¸Ħ à¸Ńà¸¡
Ġà¸ŀ à¸¤à¸¨à¸Ī
à¸¢ à¸Ļà¸Ĭ
à¸²à¸« à¸į
Ġ2 1
à¹Ĥà¸Ńà¸£ à¸ª
à¸¡ à¸ģ
à¸²à¸ĩ à¸Ń
à¸ģ à¸²à¸¢
à¸§ à¹Ģà¸Ńà¸ĩ
à¸ĵà¸° à¸Ļ
à¸ŀà¸¢ à¸²à¸¢à¸²à¸¡
Ġ à¹ĥà¸Ļà¸ģà¸²à¸£
à¸²à¸Ħ à¸§à¸²à¸¡
à¸²à¸ģ à¸©
Ġ d
à¹Ģà¸Ľ à¸Ńà¸£
à¸Ń à¹Ħà¸Ķ
Ĳ à¸²à¸Ļà¸°
Ġà¸ª à¸³à¸«à¸£
à¸²à¸ĩ à¸Ħ
à¹Ĥà¸¥ à¸¢
u m
à¸Ĭ à¸Ļà¸¡
Ġà¹ģà¸¥à¸° à¸ķ
à¸Ħ à¹Ĥà¸Ļ
i r
à¸²à¸ĩ à¸Ļ
à¸ģ à¸Ńà¸¢
a g
Ġ m
à¸²à¸Ĺ à¸³
à¸ī à¸ļ
à¸¤ à¸ķ
à¸Ħà¹Ĥà¸Ļ à¹Ĥà¸¥à¸¢
à¸Ńà¸ĩ à¸Ń
à¸²à¸Ļà¸ Ķ
o t
à¸Ń à¹Ģà¸¥
à¸ģ à¸°
à¸Ķ à¸¥
à¹Ģà¸ī à¸¥
Ġà¹Ģà¸ ļ
à¹Ĥ à¸ŀ
à¸Ļà¸³ à¹Ħà¸Ľ
à¸ĩà¸ª à¸£
à¸ļ à¸Ľ
à¸Ķ à¸Ľ
à¸ĩ à¸ĩà¸²à¸Ļ
Ġà¹Ģà¸¡ à¸ķà¸£
à¸ī à¸²à¸¢
à¸ļ à¸§à¸Ļ
à¸Ķ à¹Ģà¸Ķ
à¸¢ à¸Ļà¸Ĺ
Ġà¸£à¸§à¸¡ à¸Ĺ
à¸Ń à¸Īà¸²à¸ģ
à¸ķà¸³ à¸ļà¸¥
à¹Ĥà¸Ńà¸ģ à¸²à¸ª
à¹Ģà¸Ń à¸ª
à¸Ń à¹Ģà¸Ķ
à¸ĩ à¸Ńà¸Ńà¸ģ
à¸ķ à¸Ĺ
à¸³ à¸¥
Ġà¸Ń à¸Ķ
Ġà¹ĥà¸Ļà¸ ª
à¸¢à¸£ à¸ķ
à¸² à¹Ħà¸¡
v e
à¸²à¸ĩ à¸Īà¸²à¸ģ
à¸¡à¸² à¹Ģà¸Ľ
à¸³ à¸Ĺ
à¹Ħ à¸Ĺ
à¸ķà¸£ à¸§à¸Ī
à¸¢ à¸Ńà¸¢
à¸Ńà¸¥ à¸¥
à¸²à¸§ à¸§
à¸ļ à¹Ģà¸Ľ
à¹ģ à¸ĸ
à¹ģ à¸Ķ
à¸§à¸£à¸£ à¸Ħ
à¸ģà¸İ à¸«à¸¡à¸²à¸¢
à¹Ĥà¸Ħà¸£ à¸ĩà¸ģà¸²à¸£
à¸°à¹ģ à¸Ļà¸Ļ
à¸Ĥà¸Ńà¸ĩ à¸Ń
à¸³ à¹Ģà¸Ļ
à¸¨à¸²à¸ª à¸Ļ
Ġà¹ģà¸¥à¸° à¸ª
à¸ģ à¹ģà¸¥à¸°
Ġ à¸ł
à¸¢ à¸Ļà¸ª
à¸ļ à¹Ģà¸¥
à¸Ĵ à¸Ļà¸ĺà¸£à¸£à¸¡
à¸²à¸¢ à¸ģà¸²à¸£
o d
à¸ļ à¸Ĥ
à¹ģ à¸«à¸¥
à¸¢ à¸²à¸Ļ
à¹Ģà¸ģ à¸²à¸«à¸¥
à¹ĥà¸Ļà¸ŀ à¸£à¸°
Ġ19 8
à¸§ à¸Ļà¸«à¸Ļ
à¸²à¸¢ à¸ª
à¸ŀ à¸Ĺ
Ġ à¸ľà¸¥
à¸²à¸Ļà¸ Ĭ
à¹ģ à¸¢
à¸Ķ à¹Ģà¸¥
à¹Ģà¸ª à¸Ļà¸Ń
à¸²à¸Ļà¸ Ľ
à¸²à¸Ļ à¸ģà¸²à¸£
à¹Ħà¸Ľ à¸Ķ
à¸ķ à¸Ńà¸Ļ
à¹Ĥ à¸ļà¸£à¸²à¸ĵ
à¸Ń à¸ĺ
à¸ĩà¸Īà¸²à¸ģ à¸Ĺ
à¸° à¸Ĺ
à¸³ à¸Ħ
à¸ļ à¸Ī
à¸Ļ à¹ģà¸ļà¸ļ
Ġà¸ª à¸²à¸¡à¸²à¸£à¸ĸ
à¸ģ à¸Īà¸°
à¸Ĥ à¸²à¸§
à¸ļ à¸ĸ
à¸Ĺà¸¢ à¸²
à¸Ł à¸£
à¸įà¸į à¸²à¸ĵ
à¸į à¸²à¸ķ
à¸ŀà¸£à¸°à¸£à¸²à¸Ĭ à¸Ĺ
à¸ģ à¸¢
à¹ģà¸¥à¸° à¸ģà¸²à¸£
Ġà¹ĥà¸Ļà¸ Ĥ
à¸Ńà¸Ńà¸ģ à¹ģà¸ļà¸ļ
à¸ļ à¸«à¸Ļ
Ġ à¹Ħà¸Ľ
à¸¢à¸§ à¸Ĥ
e m
à¸³ à¸£
Ġ25 0
à¸²à¸Ħ à¸£
à¸¨ à¸§
à¸Ļ à¹Ģà¸Ńà¸ĩ
à¸Ľà¸¥ à¸²à¸¢
Ġà¸ķ à¸³à¸ļà¸¥
à¹Ģà¸ĭ à¸¥à¸¥
à¸ĩ à¸²à¸¡
à¸§ à¸Ļà¸Ĺ
à¸ļ à¸Ńà¸ģ
à¸¨ à¸ķà¸§à¸£à¸£à¸©à¸Ĺ
à¸Ħà¸³ à¸§
à¸§ à¸¥à¸°à¸Ħà¸£
à¹Ģà¸Ń à¸¥
à¸Ľ à¸Ķ
à¸ģà¸£à¸° à¸Ķ
à¹Ģà¸Ĥà¸² à¹Ħà¸Ķ
à¹Ĥà¸¢ à¸Ĭà¸Ļ
Ġà¸£à¸§à¸¡ à¸ĸ
Ġ2 2
à¸§ à¸Ļà¸ķ
à¸¢ à¸¨
à¸¡ à¸Ķ
à¸Ľà¸£à¸° à¸ķ
Ġ J
à¸²à¸Ļà¸ Ī
à¸Ń à¹Ħà¸¡
à¸²à¸£ à¸²à¸Ĭ
à¸Ī à¸Ńà¸¡
à¹Ģà¸ģà¸© à¸ķà¸£
à¸Ł à¸Ńà¸£
à¸¡ à¸§
à¸ģ à¹Ģà¸ģ
o p
à¹Ģà¸ŀ à¸¥
à¹Ģà¸ļ à¸Ńà¸£
Ġà¹ģà¸¥à¸° à¸Ń
à¸Ļà¸Ī à¸³à¸Ļà¸§
à¸ĩ à¹Ģà¸Ĥ
à¸¢ à¸į
à¸Ļà¹ģ à¸£à¸ĩ
à¸Ľà¸£à¸° à¹Ģà¸łà¸Ĺ
à¸§ à¹Ĥà¸¥à¸ģ
à¸Ķ à¹ĥà¸Ļ
à¸§à¸¢ à¹Ģà¸«à¸¥
à¸¤à¸© à¸İ
i a
à¸Ľ à¸Ľ
à¸§ à¸Ń
à¸ģ à¸¨
à¸ŀ à¸Ń
à¸ģ à¸ĸ
à¸ļ à¸²à¸¢
Ġ24 9
à¸Ĥ à¸¢à¸²à¸¢
à¸ģà¸²à¸£ à¹Ģà¸¥
à¸Ń à¸²à¸Ĭ
à¸Ħà¸§ à¸£
à¸ĩ à¹Ħà¸Ľ
à¹ĥà¸Ļà¸Ľà¸£à¸°à¹Ģà¸Ĺà¸¨ à¹Ħà¸Ĺà¸¢
a y
à¸ĩ à¸²à¸Ļà¸Ĺ
à¸Ń à¹Ģà¸Ļ
à¸ŀà¸¢ à¸²à¸ļà¸²à¸¥
à¸Ķ à¸Īà¸²à¸ģ
à¸Ńà¸ª à¹Ģà¸ķà¸£
à¸Ĥà¸Ļà¸²à¸Ķ à¹ĥà¸«à¸į
à¸¥ à¹Ģà¸¥
à¸ĩ à¸ľà¸¥
à¸Īà¸° à¹Ħà¸Ķ
à¸ŀà¸£à¸° à¸ŀ
à¸ģà¸²à¸£ à¹ĥà¸Ĭ
à¹Ģà¸¨à¸£à¸©à¸Ĳ à¸ģ
à¸° à¸ģ
à¸Ń à¸ł
à¸¡à¸« à¸²à¸Ļà¸Ħà¸£
à¸Ļà¸ł à¸²à¸©
à¸² à¹Ģà¸Ĥ
o c
Ġ V
à¸¡ à¸Ĭà¸²à¸ķ
u t
à¸Ĥ à¸²à¸¢
à¹Ģà¸ŀ à¸¨
à¸²à¸« à¸£
à¸§à¸£à¸£ à¸ĵ
à¸²à¸ĩ à¸Ĥà¸Ńà¸ĩ
à¸²à¸ ®
Ġ b
à¸Ī à¸ŀà¸£à¸°à¸£à¸²à¸Ĭ
à¸§à¸£à¸£ à¸Ķ
à¹ĥà¸Ļà¸ Ħà¸£
à¸ģà¸£ à¸§à¸£à¸£à¸Ķ
à¹Ħ à¸ķ
à¸Ķ à¸Ļà¸ķà¸£
à¸Ńà¸Ļ à¸Ļ
à¸ļà¸£ à¸²à¸ĩà¸§
à¸ľà¸¥à¸ĩ à¸²à¸Ļ
Ġà¹Ģà¸ŀ à¸¥à¸ĩ
r i
à¹ģà¸ª à¸Ķ
à¸¥ à¸Ļ
à¸ģà¸²à¸£ à¸Ľà¸ģà¸Ħà¸£à¸Ńà¸ĩ
à¸¡ à¸ĵ
à¸įà¸į à¸²
à¸²à¸¢ à¹Ħà¸Ľ
à¸ļ à¸ĭ
à¸ļà¸£à¸¡ à¸£à¸²à¸Ĭ
à¸ļ à¸Ĥà¸Ńà¸ĩ
à¹ģà¸Ĺ à¸Ļà¸£
Ġ à¸£à¸°à¸«à¸§
à¸ĩ à¸Ĺà¸³à¹ĥà¸«
à¸ŀà¸ļ à¸ģ
à¸¥à¸Ľ à¸°
à¸ģà¸£à¸° à¸Ĺ
à¸Ńà¸ĩ à¸§
à¹ĥà¸Ļà¸ Ī
à¸Ńà¸Ńà¸ģ à¸Ńà¸²à¸ģà¸²à¸¨
à¸¢ à¸Ĥà¸Ńà¸ĩ
à¸Ļà¸ªà¸¡ à¸²à¸Ĭ
à¸²à¸ĩ à¸«à¸Ļ
¤ à¸Ķ
à¸³ à¸¡
à¸ķ à¸Ĥà¸Ńà¸ĩ
a p
à¸Ĺ à¸§
à¸²à¸ ¯
Ġà¹Ĥà¸Ķà¸¢ à¸Ĺ
à¸ģà¸²à¸£ à¸ŀ
à¹Ģà¸Ĺ à¸Ħà¹Ĥà¸Ļà¹Ĥà¸¥à¸¢
à¹Ģà¸ľ à¸¢
à¸ªà¸ĸ à¸²à¸Ľ
Ġà¸ŀà¸£à¸° à¹Ģà¸Ī
à¸ĩ à¸Ĩ
Ġà¹Ĥà¸Ķà¸¢ à¹Ģà¸īà¸ŀà¸²à¸°
à¸ķ à¸Ńà¸ļ
Ġà¸Ħ à¸ĵà¸°
à¸²à¸ĺà¸²à¸£à¸ĵ à¸£
à¸Ķ à¸«à¸Ļ
à¸Ĭ à¸¡
à¸Ļ à¹Ģà¸Ļ
à¸Ī à¸Ļà¸ĸ
à¸Ķ à¹ĥà¸«
Ġà¸ŀ à¸¥
à¹Ģà¸« à¸£
à¹ģà¸£à¸ģ à¸Ĥà¸Ńà¸ĩ
à¸ĩà¹Ģà¸Ĺà¸ŀ à¸¡à¸«à¸²à¸Ļà¸Ħà¸£
à¸ª à¸²à¸§
) .
à¸Ĺà¸³ à¸¥à¸²à¸¢
à¸Ķ à¹Ģà¸Ĭ
à¸Ĺà¸²à¸ĩ à¸Ĺ
à¹Ħ à¸®
à¸Ĺ à¸Ńà¸ĩ
à¸Ļ à¹ĥà¸Ļà¸Ľ
à¹ĥ à¸Ħà¸£
à¸© à¸ĵ
o w
à¸¡à¸²à¸ģ à¸Ĺ
à¹Ģà¸¢à¸Ńà¸£ à¸¡
Ġà¸ŀà¸£à¸° à¸£à¸²à¸Ĭ
à¸Ļ à¸Ńà¸ģ
à¸Ľà¸Ķ à¸²à¸«
à¸Ķ à¸ŀ
à¸ķà¸Ļ à¹Ģà¸Ńà¸ĩ
à¸Ľ à¸ķ
à¸ģ à¸Ńà¸ĩ
à¸ģà¸ª à¸ł
à¸Ħ à¸²à¸£
Ġà¸Ĭ à¸²à¸§
à¸ģà¸²à¸¥ à¸Ĺ
à¸§ à¸²à¸¢
à¸Ķ à¸Ħà¸§à¸²à¸¡
Ġ :
à¸£à¸ĸ à¹Ħà¸Ł
à¸Ľà¸£à¸° à¸Ķ
à¸ķà¸ª à¸²à¸«
à¸§à¸¢ à¸Ħà¸§à¸²à¸¡
à¸Ń à¸ĭ
à¸² à¹Ģà¸Ķ
à¸Ń à¸Ļà¸«à¸Ļ
à¸Ļà¸Ĺà¸²à¸ĩ à¸ģà¸²à¸£
Ġà¸¡ à¸²à¸£
à¸Ķ à¸Ī
à¸Ĭ à¸¢
à¹ĥà¸Ļà¸ Ķ
à¸²à¸ĩ à¸Ķ
à¸² à¹Ģà¸ģ
à¸³ à¸«à¸Ļ
à¸Ľà¸£à¸°à¸Ĭ à¸²à¸ģà¸£
à¸§ à¹Ģà¸¡
à¸ŀà¸£à¸° à¸ļà¸²à¸Ĺà¸ªà¸¡à¹Ģà¸Ķ
Ġà¸ªà¸¡ à¹Ģà¸Ķ
Ġà¸ģ à¸£à¸°
à¹Ħ à¸«à¸¥
Ġà¸Ī à¸³à¸Ļà¸§
1 0
à¸ĺà¸£à¸£à¸¡ à¸Ĭà¸²à¸ķ
à¹ģ à¸Ľà¸¥
à¸ģ à¹Ģà¸Ĥ
à¸Ńà¸ĩ à¸Ī
3 0
à¸Ńà¸Ńà¸ģ à¹Ħà¸Ľ
v er
à¸¥ à¸ķ
à¸ĩà¸²à¸Ļà¸ Ĥà¸Ńà¸ĩ
à¸²à¸Ļà¸ Ĥ
à¸ķ à¸ģ
s t
à¹ģà¸Ĺ à¸Ļ
à¸ĩ à¸ģà¸£
à¸¢ à¹ģà¸¥à¸°
à¸ļà¸Ħà¸§à¸²à¸¡ à¸ªà¸³à¹Ģà¸£
à¸ĸ à¸²à¸Ļà¸Ĺ
à¸Ľ à¸²à¸ģ
à¸Ļ à¹Ģà¸ķ
à¸Ķ à¸²à¸£
à¹ĥà¸Ļà¸ Ĳà¸²à¸Ļà¸°
Ġà¸ª à¸²à¸Ĥ
Ġ 0
à¸¡à¸²à¸ģ à¸Ĥ
ĠâĢ ĵ
à¹Ģà¸¢à¸Ńà¸£ à¸¡à¸Ļ
à¸Ļà¹ģ à¸Ķ
à¹ģ à¸Ļ
à¸£ à¸²à¸ĩà¸§
à¹ģà¸Ĺà¸Ļà¸£ à¸²à¸©à¸İà¸£
à¸ģà¸³ à¸ģ
à¸¡ à¸ł
à¹Ģà¸Ķ à¸Ńà¸°
Ġ19 7
à¸² à¹ĥà¸Ī
à¸Īà¸ŀà¸£à¸° à¹Ģà¸Ī
à¸Ľà¸£à¸° à¹Ĥà¸¢à¸Ĭà¸Ļ
à¸į à¸¥
à¸łà¸²à¸¢ à¹ĥà¸ķ
à¸Ħ à¸Ķ
à¸¡ à¸²à¸ķà¸£
à¸ķ à¸¥à¸Ńà¸Ķ
à¹Ĥà¸Ĺ à¸©
à¸ļ à¹Ħà¸Ľ
à¸¡ à¸²à¸ķ
à¸²à¸¡ à¸²
à¸Ļ à¹Ģà¸¥
à¸ķ à¸²
à¸Ń à¸Ļà¸ŀ
à¸Ń à¹Ģà¸Ĥ
à¹Ģà¸ĺ à¸Ńà¸£
à¹Ģà¸Ķ à¸Ńà¸£
Ġà¹Ģà¸Ĥ à¸²à¹Ħà¸Ķ
à¸Ľ à¸ģà¸£à¸ĵ
à¸Ńà¸ĩ à¹Ģà¸Ĺ
à¸£à¸²à¸Ĭ à¸ģà¸²à¸£
à¸¥ à¸¡
à¸§à¸ĩ à¸Ĺ
Ġ U
à¹Ģà¸ ĸ
à¸Ĥà¸Ńà¸ĩ à¸£
à¹Ĥ à¸®
à¹Ĥà¸Ī à¸¡à¸ķ
i m
à¸¢ à¸²à¸ģ
T he
à¸łà¸²à¸© à¸²
à¸¢ à¸ģà¸²à¸£
à¸²à¸§ à¸Ļ
à¸ľ à¸ªà¸¡
Ġ à¸Ļà¸³
à¸Ńà¸³ à¸Ļà¸§
à¸¨ à¸²à¸¥
à¸ļà¸ļ à¸Ĺ
à¸Ń à¸«à¸Ļ
à¸Ń à¸Ļà¸Ĥ
à¸ª à¸Ļà¸²à¸¡
à¸ļà¸£ à¸²à¸Ĭ
Ġ1 00
à¸Ľà¸£à¸°à¸ª à¸²à¸Ĺ
Ġà¹ģà¸¥à¸° à¸ģà¸²à¸£
à¸ķà¸ªà¸²à¸« à¸ģà¸£à¸£à¸¡
à¹ģ à¸£
Ġ à¸Ľà¸£
à¸¡ à¸ļ
5 0
à¸Ķ à¸Ńà¸¢
Ġ24 8
à¸Ļà¸Ĭ à¸²à¸§
à¹ĥà¸Ļ à¸£à¸°à¸Ķ
à¸Ķà¸³ à¸£à¸ĩà¸ķà¸³à¹ģà¸«à¸Ļ
à¹Ģà¸ª à¸Ļ
à¸¨à¸²à¸ª à¸Ļà¸²
à¸Ńà¸ĩà¸£ à¸²à¸§
à¸Ń à¸Ļà¸Īà¸°
à¸ĸ à¸Ļ
Ġà¸ª à¸£
à¸Ļ à¹Ģà¸ŀà¸¥à¸ĩ
or m
c e
à¸Ħ à¸Ļà¸Ĺ
à¸ĺà¸¢à¸¡ à¸¨
à¸ĭ à¸²
à¸ļà¸Ĺ à¸ļà¸²à¸Ĺ
à¸¥ à¸Ń
Ġà¹Ģà¸ Ħà¸£
Ġ19 4
à¸¢à¸ĩ à¹ĥà¸«à¸¡
à¸ĩ à¹ģà¸¡
à¸Ĥà¸Ńà¸ĩ à¸Ĺ
à¸§ à¸Ļà¸Ĥà¸Ńà¸ĩ
à¸ª à¸Ĺ
à¸Ľà¸£à¸° à¸ĺà¸²à¸Ļ
à¹ģà¸£à¸ģ à¸Ĺ
à¸²à¸Ĭ à¸Ļà¸°
à¸łà¸²à¸© à¸²à¸Ń
à¸ģà¸© à¸²à¸ķ
Ġà¹ģà¸¥à¸° à¸Ļ
à¸Īà¸° à¸ĸ
à¸ĩ à¹Ĥà¸Ķà¸¢
à¸²à¸Ĭ à¸Ńà¸²à¸ĵà¸²à¸Ī
à¸ª à¹Ģà¸ķà¸Ńà¸£
à¸Ļà¸« à¸£
à¹Ģà¸Ĺà¸¨ à¸ļà¸²à¸¥
à¸¡ à¸ľ
à¸Ńà¸ģ à¸¥
à¸²à¸ĩ à¸¢
à¸ĩ à¹Ģà¸ŀ
à¹Į -
Ġà¸ŀ à¸§à¸ģ
à¸¢à¸Ńà¸¡ à¸£
à¸Ħà¸§à¸²à¸¡ à¹Ģà¸Ľ
t h
à¸Ľà¸£à¸°à¸ª à¸ĩà¸Ħ
à¸Ī à¸ģà¸£à¸£à¸¡
à¸ Į
à¸¬ à¸²
à¸Ń à¸²à¸ģà¸²à¸£
à¸ª à¸ª
à¸į à¸Ĭ
Ġà¸Ī à¸³à¸ģ
à¸¥ à¸ģ
à¸Ļ à¸ģà¸§
à¸²à¸¢ à¸ķ
Ġ2 6
à¹ģ à¸Ĭà¸¡à¸Ľ
à¸£ à¸²à¸ļ
à¸Ķ à¹ģà¸¥à¸°
à¸Ķ à¸¢
Ġà¸Ī à¸Ļà¸ģà¸£à¸°à¸Ĺ
à¸ĩà¸ª à¸²à¸¡à¸²à¸£à¸ĸ
Ġà¹Ĥà¸£à¸ĩ à¹Ģà¸£
Ġà¹Ĥ à¸£
à¸ķ à¸°
à¸ĩ à¹ĥà¸Ĭ
à¸Ńà¸Ńà¸ģ à¸¡à¸²
à¸Ľà¸£à¸° à¸ŀ
à¸Ļà¸Ĺ à¸³
à¸ªà¸¡ à¸²à¸Ħà¸¡
à¹Ģà¸«à¸¡ à¸²à¸°
à¸ŀ à¸¡
à¸²à¸ĩ à¸Ĭ
à¹Ħ à¸Ń
à¸Ĥà¸Ńà¸ĩ à¸Ī
à¸£ à¸²
Ġà¹ĥà¸Ļà¸Ĥ à¸ĵà¸°à¸Ĺ
i on
à¹ĥà¸Ļ à¸Ļ
à¸Ľà¸£à¸°à¸ª à¸ļà¸Ħà¸§à¸²à¸¡à¸ªà¸³à¹Ģà¸£
à¸Ľà¸£à¸°à¸Ĭ à¸²à¸ĺ
à¹Ģà¸¢ à¸²à¸§
à¸ģà¸¡ à¸§à¸¢
à¸Ļà¸ľ à¸¥
à¸Ńà¸ĩ à¸ŀ
Ġ n
à¸ĩà¸Ħ à¸¥
à¸µ )
à¸ªà¸ĸ à¸²à¸ļ
à¸ģ à¸ĩà¸²à¸Ļ
" ,
à¸łà¸²à¸¢ à¹ĥà¸Ļ
à¸Ńà¸ĩ à¸Ĥ
à¸Ľ à¹Ħ
à¸ģ à¹Ģà¸ª
à¸Ļà¸ļ à¸Ĺ
à¸Ķ à¹Ģà¸Ī
à¸Īà¸° à¹Ħà¸¡
à¸ª à¹Ģà¸ķ
à¸Ĺà¸²à¸ĩ à¸Ķ
à¹Ģà¸Ń à¸Ł
ĠS t
à¸Ħ à¸°à¹ģà¸Ļà¸Ļ
à¸ª à¸£à¸°
r a
à¸« à¸²à¸ģ
à¸ª à¸Ńà¸ļ
Ġ19 6
à¸Ľà¹Ħ à¸ķà¸¢
à¸¡ à¸¢
à¸ĺà¸£à¸£à¸¡ à¸Ļ
à¸²à¸§ à¸ĸ
à¸ĵ à¸«
à¸ķà¸³ à¸£à¸§à¸Ī
à¸ª à¸ĭ
à¸Ĥà¸Ńà¸ĩ à¸ķ
à¸Ļ à¹Ģà¸Ħà¸£
à¸² à¹ģà¸Ĥ
à¸¢à¸Ķ à¸Ļà¸²à¸¡
à¸Ļà¸ļ à¸£
à¸ļà¸ª à¸ĸ
à¸Ń à¹ģà¸¥à¸°
à¸ĩà¹ģ à¸Ĭà¸¡à¸Ľ
à¹Ħ à¸«à¸§
à¸²à¸ĩ à¸¡
à¸²à¸ª à¸²à¸Ĺ
à¸ĺ à¸²à¸ķ
Ġ255 4
à¸Ĺ à¸°à¹Ģà¸¥
ar d
ĠC h
à¸¨ à¸ķà¸°à¸§
à¸Ĺà¸£ à¸²à¸ļ
à¸Ħà¸§à¸²à¸¡ à¸ªà¸²à¸¡à¸²à¸£à¸ĸ
à¹Ģà¸Ľ à¸£
à¸ģà¸²à¸£ à¸ģ
à¸ĵà¸ĳ à¸¥
à¸²à¸Ĺ à¸²à¸ĩ
à¸Ħà¸£ à¸Ńà¸ļà¸Ħà¸£
à¸ĩ à¸«à¸¥
ĠT he
à¸Ħà¸³ à¸ª
à¸Ĺà¸³ à¸«à¸Ļ
à¸¢ à¸Ļà¸¡
à¸ĩ à¸ŀà¸£à¸°
à¸ªà¸Ļ à¹ĥà¸Ī
à¸²à¸Ĭ à¸²à¸ķ
à¸« à¸łà¸²à¸ŀ
à¸²à¸ĩ à¹Ģà¸Ĭ
Ġà¸Ń à¸²à¸£
Ġà¹ĥà¸Ļ à¸£
à¸Ĥà¸Ńà¸ĩ à¸Ļ
à¸¢à¸Ļ à¸£
Ġà¸Ī à¸Ļà¸ĸ
à¸¥ à¸Ħ
à¸²à¸Ļ à¸ģ
à¸ĩ à¸«à¸²à¸£
à¸Ľ à¸ģà¸ķ
à¸ĩ à¸ģà¸§
à¸Ķ à¸²à¸Ĥà¸Ńà¸ĩ
à¹Ĥà¸Ķà¸¢ à¸Ĺ
Ġ24 7
à¸Ńà¸¡à¸² à¹Ħà¸Ķ
à¸²à¸Ļ à¸Ļ
à¸Īà¸³ à¹Ģà¸Ľ
à¸ķ à¸²à¸£
à¸Ķ à¸§à¸ĩ
à¸§ à¹ĥà¸Ī
à¸¢à¸ĩ à¸ģ
à¸¢ à¸Ń
à¸¡ à¸²à¸ª
à¹Ģà¸Ħ à¸¡
Ġ and
à¸²à¸¥ à¸ĩ
à¸ģ à¹Ģà¸¥
à¸Ļà¸ķ à¸²à¸¡
à¸ĩà¸²à¸Ļà¸ §
à¸Ī à¸ģà¸²à¸£
à¸¡à¸²à¸ģ à¸¡à¸²à¸¢
Ġà¹ģà¸¥à¸° à¸Ĺ
à¸Ĭ à¸Ńà¸ļ
à¸Ķ à¹Ħà¸Ķ
Ġ à¸Ŀ
à¸µ "
à¸Ķ à¹Ģà¸ģà¸¥
à¸§ à¸Ĥ
ĠI n
à¸Ńà¸Ļ à¸£
Ġ2 7
à¹Ħà¸Ľ à¸ĸ
à¸§ à¸²
à¸²à¸£ à¸ģ
o g
Ġà¸Ń à¸²à¸Ī
1 5
à¹Ĥà¸ĭ à¹Ģà¸§
Ġà¸ģà¸£ à¸¡
à¸ļ à¸ŀà¸£à¸°
Ġà¹ģà¸¥à¸° à¸£
à¸§ à¹Ģà¸ķà¸Ńà¸£
à¸²à¸Ļà¸« à¸Ļ
à¸Ńà¸ĩ à¹Ģà¸ŀà¸¥à¸ĩ
à¸ĩ à¹ĥà¸«à¸į
Ġ2 8
à¸²à¸Ń à¸Ńà¸ģ
Ġà¸Ħ à¸³
Ġ255 0
à¹ģ à¸®
à¸Ļà¸Ńà¸Ńà¸ģ à¹Ģà¸ī
à¸Ļ à¹Ģà¸ķà¸Ńà¸£
à¸§ à¸§
à¸²à¸§ à¸£
à¹ģ à¸ģà¸£
à¸ģà¸£ à¸²à¸Ĭ
à¸ģà¸ªà¸ł à¸²à¸ľ
à¹ģà¸¥à¸° à¸Ļ
Ġà¸« à¸²à¸ģ
à¸Ĥà¸Ńà¸ĩ à¸ģà¸²à¸£
à¸§à¸¡ à¸¡
à¸ª à¹Ģà¸Ľ
à¸ĩ à¸Ĺà¸²à¸ĩ
à¸²à¸ Ŀ
à¸Ńà¸Ł à¸£
à¸ļ à¹Ģà¸ļ
à¸Ķ à¸ļ
à¹Ĥ à¸Ĥ
à¸Īà¸³à¸Ļà¸§ à¸Ļ
à¸ĩ à¹ĥà¸Ī
à¸Ń à¸Ńà¸¢
à¸ª à¸§à¸£à¸£à¸Ħ
a b
à¸Īà¸³ à¸ģ
à¸Ľà¸£à¸° à¸¡
à¸ģ à¸Ńà¸ļ
à¹ĥà¸Ļ à¹Ģà¸£
à¹Ĥà¸Ħà¸£ à¸ĩà¸ªà¸£
à¸ļà¸ģà¸²à¸£ à¸¨
à¸Ĭ à¸²à¸£
à¸Ńà¸¡ à¸ķ
à¸²à¸ĩà¸ģ à¸²à¸¢
à¸²à¸ŀ à¸¢à¸Ļà¸ķà¸£
à¸¡à¸« à¸²à¸ģà¸©
à¸Ļ à¹ģà¸¥
1 8
à¸Ńà¸¢ à¸Ĺ
Ġ à¸Ńà¸ĩà¸Ħ
à¸£à¸£ à¸¢
à¹Ĥ à¸Ńà¸¥
à¸Ļà¸ŀà¸£à¸° à¸£à¸²à¸Ĭ
à¸² à¸Ļà¸Ĺà¸²à¸ĩ
à¸ł à¸²à¸§à¸°
à¸¢ à¸ģà¸£
à¸Ķ à¸ĸ
es s
à¸ĩà¸Ĺ à¸£à¸ĩ
à¸ģ à¸ľ
à¸¡ à¸Ħ
à¸ĺ à¸¢à¸²
Ġ Y
à¸ģ à¸ĩà¸²à¸Ļà¸
à¹Ĥà¸¥à¸ģ à¸Ħà¸£
à¸ģ à¸ģà¸²à¸£
à¸Ĳ à¸ĺà¸£à¸£à¸¡à¸Ļ
à¸²à¸ĩ à¸Ħà¸£
à¸² à¹Ģà¸«à¸ķ
in e
à¸Ĥà¸Ńà¸ĩ à¸Ľà¸£à¸°à¹Ģà¸Ĺà¸¨
à¸²à¸¢ à¸ŀ
à¸Ļà¸ ®
à¸ģ à¸²à¸¨
à¸ķ à¸Ĭ
à¸ĩ à¹ģà¸ģ
à¸«à¸²à¸£ à¸²à¸Ĭ
Ġ à¸«à¸¡à¸²à¸¢à¸ĸ
à¸Ń à¸ŀà¸£à¸°
à¸Ń à¹Ģà¸ŀ
Ġà¸Ĥ à¸ĵà¸°à¸Ĺ
à¸ĸ à¸²à¸ļ
à¸ģ à¹Ħà¸Ķ
à¸ĩ à¹Ģà¸ª
à¸²à¸ĩ à¸Ľ
a k
es t
à¸ļà¸§à¸Ļ à¸ģà¸²à¸£
Ġ in
à¹Ģà¸« à¸¢
à¸²à¸Ļ à¸¡
à¸Ļà¸ĺ à¸¡
à¸ļ à¸¢
à¸£ à¸ªà¸ģ
à¸ĩ à¹Ģà¸¥
Ġà¹ĥà¸Ļà¸ Ĺ
à¸ª à¹Ĥà¸¡à¸ªà¸£
à¸Ĥà¸Ļà¸²à¸Ķ à¹Ģà¸¥
à¸¡ à¸¥
à¸ļ à¹ģà¸ķ
à¸Ħà¸§à¸²à¸¡ à¸Ħ
à¸ļ à¹Ħà¸Ķ
à¸ĺ à¸Ļ
à¸Ńà¸ĩ à¹Ģà¸Ľ
à¸Ħ à¸Ńà¸Ļ
à¸ģ à¸ªà¸¡
à¸ĩ à¹Ģà¸ªà¸£
à¸Īà¸Ńà¸¡ à¹Ģà¸ģà¸¥
à¸£ à¸§
à¹ĥà¸Ļ à¹Ģà¸Ĥà¸ķ
à¸²à¸ģ à¸«à¸¥à¸²à¸¢
Ġ2 9
à¸Ń à¸Ļà¸§
à¸ķà¸£ à¸ĩà¸ģ
an g
à¸Ĳ à¸²à¸Ļà¸°
à¸Ļ à¸Ńà¸Ļ
à¸²à¸Ļà¸ ĭ
à¸Ĥà¸Ńà¸ĩ à¸ľ
à¸Ļà¸łà¸²à¸ŀ à¸¢à¸Ļà¸ķà¸£
à¸ĩ à¸©
à¸Ļà¸Ľ à¸¥
à¸ķà¸£ à¸ĩ
à¹ģà¸¥à¸° à¹Ģà¸Ľ
ti c
à¹Ĥà¸ķ à¸°
à¸¢à¸Ļ à¹Ģà¸Ľ
Ĵ à¹
Ġ255 1
l i
Ġà¸¥ à¸³
à¸² à¹Ģà¸ª
à¸¨ à¸ŀ
à¸° à¸Ļ
à¸ģà¸© à¸²à¸Ĺ
à¸ĩ à¹ĥà¸Ļà¸Ľ
à¸§ à¹Ģà¸Ľ
à¸ģà¸£à¸° à¸Ĺà¸³
à¸§à¸¢ à¸§
à¸Ľà¸£à¸° à¸ģà¸§
Ġ à¸Ľà¸£à¸°à¸ģà¸Ńà¸ļà¸Ķ
à¸Ńà¸³à¹Ģà¸ł à¸Ń
à¸ģ à¸Ł
à¸ļà¸£ à¸§à¸¡
Ġà¹Ĥà¸Ķà¸¢ à¹Ģà¸Ľ
1 2
à¸² à¹Ģà¸ĭ
à¸Ļ à¸£à¸°à¸«à¸§
à¸²à¸Ļ à¹Ħà¸Ķ
à¸Ńà¸ĩ à¸Ĭ
à¸Ĭ à¸Ĭ
Ġ à¹Ħà¸£
à¸²à¸Īà¸° à¹Ģà¸Ľ
a e
à¸ļ à¹Ĥà¸ķ
à¸Ī à¸ī
à¹ģà¸¥à¸° à¸£
à¸Ń à¹ĥà¸Ĭ
Ġà¹ģ à¸Ĺ
à¸§à¸Ķ à¸¥
à¹ĥà¸Ļà¸ļ à¸£
Ġ5 0
à¹ģà¸¥à¸° à¸Ń
Ġà¹Ĥà¸Ķà¸¢ à¹Ħà¸Ķ
à¸§ à¸ļ
à¸Ńà¸ĩ à¹Ģà¸£
à¹ģà¸¥à¸° à¸ķ
à¸ģ à¹ĥà¸Ĭ
à¸£ à¸²à¸§
à¸£à¸£ à¸ĵ
e p
Ġà¹Ģà¸ ®
à¹Ģà¸¥ à¸Ńà¸£
à¹ģà¸¡ à¸Ļ
à¸Ļ à¹ĥà¸«à¸¡
à¸£ à¸ļ
à¸Ń à¸Ļà¸Ĥà¸Ńà¸ĩ
Ġ255 3
à¸¡à¸² à¹ĥà¸Ĭ
à¹ĥà¸Ļ à¹Ģà¸¡
à¹Ĥà¸£à¸ĩ à¸ŀà¸¢à¸²à¸ļà¸²à¸¥
à¸Ĥà¸Ńà¸ĩ à¸ŀà¸£à¸°
à¸Ńà¸ĩ à¸¥
à¸ķà¸¢ à¸ªà¸²à¸£
à¸£à¸° à¸§
à¸¢ à¸¥
à¸Ħà¸§à¸²à¸¡ à¸ķ
à¸ķà¸¢ à¸ģà¸£à¸£à¸¡
à¸Ĥ à¸²à¸Ķ
à¸¡ à¹Ģà¸ķ
à¹Ĥà¸¥ à¸«
Ġ w
à¸ŀà¸ļ à¸§
à¹ģà¸ªà¸Ķà¸ĩ à¹Ĥà¸Ķà¸¢
à¸Ĵà¸Ļ à¸²à¸ģà¸²à¸£
.. .
à¸Īà¸³à¸Ļà¸§ à¸Ļà¸¡à¸²à¸ģ
it y
à¹Ģà¸ ©
à¸į à¸Ĭà¸²à¸ģà¸²à¸£
Ġà¹Ĥà¸Ķà¸¢ à¹ĥà¸Ĭ
à¸Ńà¸¢ à¸¥à¸°
à¸Ń à¸Ńà¸Ļ
n g
à¹Ĥ à¸Ħà¸¥
à¸Ľà¸£à¸° à¸«à¸²à¸£
à¸¤ à¸Ĺà¸ĺ
à¹Ģ à¸Ńà¸Ļ
à¸Ļà¸Ĳ à¸²à¸Ļ
à¸Ńà¸ĩ à¸¨
à¹Ģà¸Ĥ à¸²à¸ģ
1 6
à¸ģ à¸«à¸Ļ
à¸ĩ à¸Ľà¸£à¸°à¹Ģà¸Ĺà¸¨à¹Ħà¸Ĺà¸¢
à¸§ à¸Ĭ
à¸¥à¸° à¹Ģà¸Ń
à¸² à¹ĥà¸«
à¸²à¸ģ à¸ģà¸§
à¸§ à¸Ļà¸ª
à¸Ķ à¸ķà¸²à¸¡
h i
à¹ģ à¸Ń
Ġà¹ģ à¸ª
u p
à¸ģ à¸«
Ġà¸Ĭ à¸Ļ
à¸° à¹Ģà¸ļ
à¸ģà¸£à¸° à¹ģà¸ª
à¹Ģà¸Ń à¸²
à¸Ļ à¹Ģà¸§à¸¥
à¹Ħà¸Ľ à¸Ĺ
à¸Ń à¸²à¸Ħà¸²à¸£
Ġ254 9
à¸ļ à¸Ńà¸¢
à¸¡ à¸²à¸Ļ
b r
Ġà¸Īà¸³à¸Ļà¸§ à¸Ļ
à¸Ķ à¸¥à¸Ńà¸ĩ
à¹Ħ à¸ģà¸¥
à¸ģà¸²à¸£ à¹Ģà¸Ľ
à¸Ħ à¸Ĺ
à¹Ģà¸ŀ à¸Ĭà¸£
à¸Ħà¸§à¸²à¸¡ à¸«à¸¡à¸²à¸¢
à¸Ľ à¸Ĺ
à¸ļ à¹Ģà¸Ĭ
à¸Ļà¸ ī
à¹Ĥ à¸ł
à¸£à¸²à¸Ĭ à¸Ńà¸²à¸ĵà¸²à¸Ī
à¹Ģà¸¡ à¸Ńà¸£
à¹Ĥà¸Ľà¸£ à¸ķ
à¸²à¸« à¸¡à¸²à¸¢
à¸Ķ à¹Ģà¸£
à¸ª à¸łà¸²à¸ŀ
à¸Ļ à¹ĥà¸«à¸į
à¸łà¸²à¸¢ à¸«à¸¥
à¸Ĭ à¸ģà¸²à¸¥à¸Ĺ
à¸Ĭ à¸Ĺ
Ġ255 7
Ġ255 5
à¸ŀà¸£à¸°à¸£à¸²à¸Ĭ à¸ļ
à¸¥à¸³ à¸ķ
à¸µ ,
Ġ à¸¢à¸ģ
à¸² à¹Ģà¸Ĺ
à¹Ģà¸ª à¸¡à¸Ń
Ġ255 2
Ġà¹Ģà¸Ĥ à¸ķ
à¸į à¸Ĺ
Ġà¸£ à¸Ńà¸ļ
Ġ à¸ī
à¸ļ à¸«
à¸§à¸Ķ à¹Ģà¸£
Ġà¹ģà¸¥à¸° à¸ĸ
à¸Ļ à¹ģà¸¡
à¸Ļ à¸Ńà¸ģà¸Īà¸²à¸ģà¸Ļ
à¸Ńà¸ªà¹Ģà¸ķà¸£ à¹Ģà¸¥
à¸Ńà¸ĩ à¸£à¸²à¸Ĭ
à¸Ńà¸¡ à¸Ĺ
Ġ256 0
à¸² à¹Ĥà¸£
à¸ļ à¸²à¸£
Ġà¹ģà¸¥à¸° à¸Ī
à¸³ à¸ķà¸²à¸¥
à¸ļ à¸Ńà¸Ļ
à¹ģ à¸Ļà¸°
à¹Ĥà¸Ķà¸¢ à¸ªà¸²à¸£
à¸Ļà¸ŀà¸£à¸° à¸Ĭà¸Ļà¸¡
à¸Ńà¸ĩ à¸ĭ
à¸²à¸Ļà¸ ¢
à¸¥ à¸²à¸§
à¹ĥà¸Ļà¸ª à¸«à¸£
à¸¸ à¹Ĭ
à¹Ĥ à¸Ĩ
à¸¢à¸ĩ à¸Ĺ
Ġà¹ĥà¸Ļà¸ ł
à¸² à¹ģà¸ģ
à¸²à¸Ĭ à¸Ļ
Ġ à¸Īà¸°à¸¡
à¹ģ à¸Ħà¸¥
1 4
à¸¡ à¸Ńà¸ĩ
à¹Ģà¸ľà¸¢ à¹ģà¸ŀà¸£
à¸¡ à¸¨
à¸Ļ à¸²à¸ĸ
à¸° à¸ķ
à¸²à¸ª à¸Ļ
à¹ĥà¸Ļà¸Ħ à¸§à¸²à¸¡
Ġà¸Ń à¸²à¸Ĺ
à¹ĥà¸Ļà¸Ĥ à¸ĵà¸°à¸Ļ
à¸Ńà¸¢ à¸ģà¸§
à¹Ģà¸ģ à¸Ńà¸£
à¸Ķ à¸Ńà¸ģ
Ġà¸Ķ à¸£
à¸Ļà¸Ń à¸²à¸«à¸²à¸£
à¹Ģà¸Ń à¸²à¸Ĭà¸Ļà¸°
à¹ĥà¸Ļà¸« à¸Ļ
Ġà¸ļ à¸²à¸Ĺ
à¹ģ à¸Ńà¸¥
à¸³ à¹Ģà¸£
à¹Ĥà¸Ķà¸¢ à¹Ħà¸¡
à¸ģ à¹ģà¸«
à¸¡ à¹Ħà¸Ķ
à¸Ĥà¸Ńà¸ĩ à¹Ģà¸Ĥà¸²
à¸²à¸£à¸° à¸Ķ
à¸ĵà¸« à¸ł
à¸²à¸Ķ à¹Ģà¸Ī
à¹ģà¸¥à¸° à¸§
à¸Ļà¸Ī à¸£
Ġà¹ĥà¸Ļ à¹Ģà¸Ķ
à¸ĩà¸Ń à¸²à¸Ī
à¸ĩ à¹Ģà¸Ĭ
à¹ģ à¸Ĭ
à¸Ń à¹ģà¸¡
à¸§ à¹Ĥà¸¡
à¸§ à¸Ħà¸£
à¸¥à¸ĩ à¸Ĺ
à¸¢ à¸Ļà¸§
Ġà¸Ľ à¸¥
à¸ĩ à¹ģà¸¥
u b
à¹Ģà¸Ķ à¸Ĭ
à¸¢ à¹Ħà¸Ķ
ul a
à¸«à¸¥ à¸²à¸ģà¸«à¸¥à¸²à¸¢
à¸Īà¸° à¹ĥà¸Ĭ
à¸²à¸¢ à¸£
à¸ķ à¸Ń
à¸Ļà¸ª à¸²à¸¡à¸²à¸£à¸ĸ
à¸¨ à¸§à¸£à¸£à¸©
Ġ l
à¸Ĭà¸²à¸§ à¸Ń
al l
à¹Ģà¸«à¸¡à¸²à¸° à¸ªà¸¡
2 00
à¸Ń à¹Ģà¸Ĺ
Ġ255 6
1 1
à¸²à¸ ¬
à¸Ľà¸¥ à¸Ńà¸Ķ
u c
Ġà¹Ģà¸ĭ à¸Ļà¸ķ
à¸Ļà¸¡ à¸²à¸£
Ġ" "
à¸Īà¸ŀà¸£à¸° à¸Ī
à¸²à¸¥à¸ĩ à¸ģà¸£à¸ĵ
Ġ4 0
h a
Ġà¹Ĥ à¸Ľà¸£
Ġ g
à¸į à¸Ĥà¸Ńà¸ĩ
à¸Ļà¸Ħ à¸³
à¸° à¸ŀ
à¸£à¸²à¸Ĭ à¸ļ
à¸Ńà¸³à¸Ļà¸§ à¸¢à¸ģà¸²à¸£
Ġ /
à¸² à¹Ģà¸Ĭ
à¸Ńà¸ĩ à¹ģà¸¥à¸°
à¸Ļ à¸²à¸£
à¸ģà¸²à¸£ à¸ļà¸£
à¸Ńà¸Ļ à¹Ħà¸«à¸§
à¸²à¸Ļà¸« à¸¥
à¸ģ à¹Ĩ
à¸ģà¸²à¸£ à¹Ģà¸Ľà¸¥
à¸² à¹ĥà¸Ĭ
à¸Ń à¸²à¸Ĺ
à¸§ à¹ģà¸Ĺ
à¹ĥà¸Ļà¸ł à¸²à¸©
Ġ255 8
à¸ķ à¸²à¸¢
à¸Ļ à¹ĥà¸Ļà¸Ĭ
à¸Ń à¹Ģà¸ģ
à¸Ĭà¸Ļà¸° à¹Ģà¸¥
à¸² à¹Ģà¸Ļ
à¸³ à¸«à¸Ļà¸Ķ
à¸ģ à¸Ĳ
à¸¢ à¸«à¸²à¸¢
à¸¢ à¸Ļà¸Ļ
à¸ģà¸²à¸£ à¸Ĺà¸³
à¹ĥà¸Ļà¸ ¨
Ġ255 9
ig h
à¸Ļ à¹Ģà¸ĭ
à¸²à¸Ļà¸ ¨
à¹ģ à¸Ńà¸Łà¸£
à¸ªà¸ĸ à¸²à¸Ļà¸Ĺ
Ġ à¸łà¸²à¸©
à¸Ĭ à¸ªà¸¡
à¸ŀà¸£à¸°à¸£à¸²à¸Ĭà¸Ĺ à¸²à¸Ļ
à¹Ĥà¸Ķà¸¢ à¸¡
à¸¢à¸ĩ à¹Ģà¸«à¸Ļ
Ġà¹ģ à¸ľ
à¸²à¸Ń à¸²à¸ģà¸²à¸¨
à¸¢à¸ĩ à¹ĥà¸ķ
à¹Ģà¸ª à¸ĺ
Ġà¹ģ à¸ģ
à¸Ńà¸Ń à¸Ł
à¸² à¹Ģà¸ŀ
Ġà¹Ģà¸§ à¸¥à¸²
à¸ģ à¸Ŀ
à¸Ńà¸ĩ à¸«à¸¥à¸§à¸ĩ
à¸ģà¸²à¸£ à¸§
à¸Ļ à¹Ģà¸Ń
at e
à¸Ńà¸ĩ à¸«
à¸Ļà¸Īà¸³à¸Ļà¸§ à¸Ļà¸¡à¸²à¸ģ
à¹ģà¸Ļà¸§ à¸Ħ
à¹ģ à¸Ńà¸Ļ
à¸Ħ à¸¡
à¸¢à¸ļ à¹Ģà¸Ĺ
à¸Ļ à¹ģà¸«
à¸Ļ à¹Ģà¸Ńà¸ģ
à¹Ħà¸ĭ à¸ķ
Ġ à¸łà¸²à¸Ħ
à¸£ à¸²à¸¡
à¸² à¹Ħ
à¹Ĥà¸ģ à¸°
à¸ģ à¹ģà¸ķ
Ġà¹Ģà¸ ķ
à¸Ńà¸Ńà¸ģ à¹Ģà¸Ľ
Ġ a
Ġ256 1
à¸Ļ à¹ģà¸ķ
à¸Ń à¸Ħà¸£
à¸° à¸¥
à¸ļà¸Ħà¸§à¸²à¸¡ à¸Ļ
à¸Ĺà¸²à¸ĩ à¸ģà¸²à¸£à¹Ģà¸¡
à¸¤ à¸ģà¸©
à¸ģà¸³ à¹Ģà¸Ļ
à¸£à¸²à¸¢ à¹Ħà¸Ķ
à¸§à¸¡ à¸Ĺ
à¸Ľà¸£à¸°à¸ĺà¸²à¸Ļ à¸²à¸ĺ
à¸Ł à¸¥
Ġà¸ķ à¸¥à¸Ńà¸Ķ
à¸Ħà¸§à¸²à¸¡ à¸¢à¸²à¸§
à¸ĩ à¹Ģà¸ŀà¸¥à¸ĩ
à¸Ĥ à¸łà¸²à¸ŀ
à¸¡ à¸Ī
à¸§à¸¢ à¸ª
à¸ļ à¹ĥà¸«
1 7
à¸ģ à¸Ļà¸³
à¸ŀà¸£à¸° à¸Ĭà¸Ļà¸¡
à¸¢à¸§ à¸Ĺ
à¸Ńà¸ª à¸²à¸£
à¸ļ à¹ĥà¸Ĭ
à¹ĥà¸Ļà¸ ¤à¸Ķ
à¸²à¸Ļ à¸Ń
Ġà¸ķ à¸²à¸£
à¸§à¸ĩ à¹Ģà¸§à¸¥
à¸²à¸Ľ à¸£
à¸ļ à¸Īà¸²à¸ģ
à¸¢ à¹Ģà¸Ľ
à¸ŀà¸£à¸° à¸ª
à¸Ńà¸²à¸Ī à¸²à¸£à¸¢
à¸Ńà¸¢ à¸Ķ
à¸Ńà¸ļ à¸ª
à¸Ľ à¸ª
à¸Ļà¸« à¸¡
el l
à¸Ļ à¹ģà¸£à¸ģ
à¹Ĥ à¸ļà¸ªà¸ĸ
t r
à¸ģ à¸«à¸¥à¸²à¸¢
à¸Ķ à¹ģà¸¢
à¸Ĭ à¸į
Ġ201 2
à¸§à¸ĩ à¸ķ
à¸Ĥà¸Ńà¸ĩ à¸ŀà¸£à¸°à¸Ńà¸ĩà¸Ħ
à¹Ĥ à¸ģà¸¥
à¸²à¸ĩ à¸Ħà¸§à¸²à¸¡
à¹Ģà¸§ à¸¢
Ġ24 6
à¸µ .
à¸Ńà¸ģ à¸ĭ
Ġà¹ĥà¸Ļà¸ ļ
à¸Ħ à¸Ħ
à¸Ńà¸ģ à¸§
Ġ201 4
à¸Ķ à¸ĭ
Ġà¸łà¸²à¸¢ à¸«à¸¥
à¸¡à¸² à¹Ģà¸¥
à¸²à¸¢ à¹ģà¸ŀ
à¸§à¸¢ à¸Ĺ
à¸ŀà¸§à¸ģ à¹Ģà¸Ĥ
à¸ª à¸²à¸Ĥ
à¸Ńà¸ĩ à¸Ľ
à¹Ģà¸Ļ à¸Ńà¸£
Ġà¸ª à¸«à¸£
à¸µ -
à¸Ńà¸ļ à¸Ĺ
à¸Ńà¸ĩ à¹ĥà¸Ĭ
à¸§ à¹Ģà¸£
à¸§ à¹Ģà¸Ħà¸¥
à¸²à¸ģà¸²à¸£ à¸ģà¸£à¸°à¸Ĺà¸£à¸§à¸ĩ
Ġ201 0
à¹Ģà¸Ī à¸Ńà¸£
à¸Ń à¸²à¸§
Ġ201 6
à¸¢à¸Ńà¸Ķ à¹Ģà¸¢
Ġà¹ģà¸¥à¸° à¹Ģà¸¡
à¸Ĥ à¸§
à¸ŀà¸£à¸£ à¸ĵ
à¸£à¸§à¸¡ à¸Ĺ
2 4
à¸Ķ à¸«
à¸Ńà¸Ńà¸ģ à¸¡
orm ula
à¸ķ à¸ł
à¹Ģà¸ļ à¸¥
à¸§ à¸ĭ
à¸Ļà¸Ļ à¸²à¸ĩ
1 3
à¸²à¸¢ à¸¡
à¸Ĥ à¸Ļà¸ª
à¹Ģà¸¡ à¸£
à¸Ľà¸¥à¸Ńà¸Ķ à¸ł
à¸® à¸²à¸£
Ġ à¸¨à¸£
à¹ĥà¸Ļ à¸ģà¸¥
o u
Ġ254 8
à¹ģà¸Ļà¸° à¸Ļà¸³
à¸Ńà¸§ à¸ģà¸²à¸¨
à¸¢à¸ļ à¸ģ
à¹Ģà¸Ĺ à¸Ńà¸£
à¸ķ à¸Ńà¸¢
à¸§ à¸²à¸£
à¹ģà¸¥à¸° à¹Ħà¸Ķ
à¸¬ à¸²à¸¥à¸ĩà¸ģà¸£à¸ĵ
Ġ256 2
à¸¡ à¸Ļà¸ķà¸£
à¸įà¸į à¸²à¸ķà¸£
à¹ĥà¸Ļà¸ģà¸²à¸£ à¹ģà¸Ĥ
à¸Ńà¸ĩ à¹ĥà¸«
à¸ĩ à¹ĥà¸Ļà¸ª
à¸Ńà¸Ļ à¸²à¸Ħ
à¸ļ à¹Ģà¸£
à¸²à¹Ĥ à¸Ľà¸£
à¸Ĥà¸Ńà¸ĩ à¸¡
à¸ĩà¸¡ à¸²à¸ģ
à¸Ĺà¸²à¸ĩ à¸ģà¸²à¸£
" "
t e
à¸Ī à¸ģà¸²à¸£à¸¨
à¸Ľà¸£ à¸²à¸ļ
à¹ģ à¸ģà¸£à¸¡
Ġà¹ Ĵà¹
Ġà¹ģà¸¥à¸° à¸§
à¸¡ à¸Īà¸²à¸ģ
à¸²à¸¢ à¸«à¸¥
à¸§ à¸ľ
à¹Ħà¸¥ à¸Ļ
à¸ªà¸³ à¸£à¸§à¸Ī
à¸Ļ à¹ĥà¸Ļà¸§
à¸Ħà¸§à¸²à¸¡ à¸ªà¸³à¸Ħ
à¸Ļ à¸²à¸Ĺ
à¹ģà¸ª à¸ĩ
Ġà¸Ĭ à¸Ļà¸°
à¸²à¸ĩ à¹Ģà¸Ķ
à¸Ńà¸¥à¸¥ à¸²à¸£
Ġ à¸¤à¸Ķ
Ġà¸Ħ à¸¥
à¸Ńà¸¡à¸² à¹ĥà¸Ļà¸Ľ
à¹Ģà¸ŀ à¸²à¸°
à¹ģà¸Ĺ à¸Ļà¸Ĺ
à¸ĩ à¹Ģà¸Ī
à¸ķ à¸ĭ
à¸© à¸²
à¸²à¸ĩ à¸ĸ
à¹Ĥà¸Ķà¸¢ à¹Ģà¸īà¸ŀà¸²à¸°
à¸²à¸ ī
à¸ļ à¸ķà¸³à¹ģà¸«à¸Ļ
à¹ģ à¸ļà¸£
à¸Ĭà¸²à¸§ à¹Ħà¸Ĺà¸¢
à¸§ à¸°
à¸²à¸Ķ à¸²
Ġ h
à¸ŀ à¸²à¸¢
à¹Ĥà¸Ķà¸¢ à¹ĥà¸Ĭ
à¸² à¹ģà¸«
à¹ĥà¸Ļ à¹Ģà¸§à¸¥
Ġ201 5
à¹Ģà¸ļ à¸£
n e
à¸¡ à¹Ģà¸Ĥ
Ġà¸Ľà¸£à¸° à¸ķ
à¹Ĥà¸Ķà¸¢ à¸ģà¸²à¸£
à¸Ńà¸ĩ à¸«à¸Ļ
Ġ19 3
à¸ĸ à¸²à¸¡
à¸Ĺ à¸Ĺ
er s
à¸ĵ à¸łà¸²à¸ŀ
à¸ĩ à¸«à¸¥à¸²à¸¢
Ġà¹Ģà¸ Ł
Ġà¹ģà¸¥à¸° à¹Ģà¸£
o k
Ġà¸£ à¸²à¸¢
Ġ à¸§à¸ĩ
à¸²à¸¢ à¸²à¸Ĺ
à¸° à¸Ķ
à¹ĥà¸Ļ à¸¥
à¸Ļ à¹Ģà¸«à¸ķ
à¸ļ à¹Ģà¸Ī
à¸ģ à¸ķà¸£
à¸ļ à¸ģà¸¥
à¸Ńà¸ļ à¸£
à¸²à¸§ à¸Ĺ
Ġà¹ģ à¸ļ
à¸Ļà¹Ĥà¸Ķ à¸Ļ
à¸ĸ à¸²à¸Ľ
à¹ģà¸¥à¸° à¸Ĺ
à¸Ńà¸ª à¸²à¸¢
à¸Ńà¸ĩ à¸«à¸¥
u e
à¸¡ à¸ĵà¸ĳà¸¥
Ġà¸Ńà¸Ńà¸ģ à¸Ńà¸²à¸ģà¸²à¸¨
à¸ķà¸£à¸§à¸Ī à¸ªà¸Ńà¸ļ
Ġ3 1
à¸İ à¸«à¸¡à¸²à¸¢
u d
à¸¢ à¸ĺà¸£à¸£à¸¡
à¹Ħ à¸ķà¸£
à¸ŀ à¸Ļ
Ġà¹ģà¸¥à¸° à¸ľ
à¹ĥà¸Ļ à¸ģà¸£
à¸ģ à¸ģà¸¥
à¸ĩà¸ľà¸¥ à¹ĥà¸«
o b
à¹ģ à¸Ħà¸§
à¸Ħ à¸²à¸Ķ
à¸Ĥà¸Ńà¸ĩ à¸§
à¸Ķ à¸¥à¸ĩ
Ġà¹Ģà¸« à¸¥
à¹ģ à¸Ľà¸£
à¸§à¸¢ à¸ĩà¸²à¸¡
à¸ĩ à¹Ģà¸Ĺ
à¸ļ à¹Ģà¸Ĥ
à¸ŀà¸£à¸° à¸Ļà¸²à¸¡
à¸ĺ à¸ł
Ġà¸ª à¸³à¸Ļ
à¹Ħ à¸Ļà¹Ģà¸ķ
Ġ19 5
' s
à¸ĵà¸° à¸ģà¸£à¸£à¸¡à¸ģà¸²à¸£
à¸Ļà¹Ĥ à¸¢à¸ļ
à¸ŀ à¸²à¸ģà¸©
à¸Ńà¸Ļ à¹Ģà¸¡
à¸Ńà¸ĩ à¹Ģà¸¥
à¸²à¸£à¸²à¸Ĭ à¸ģà¸²à¸£
à¸ģ à¸Ħà¸Ļ
Ġ à¸Ńà¸ĩà¸¨
à¸Ļà¸« à¸¥à¸²à¸¢
à¸Ħ à¸ķ
à¸¡ à¹ģà¸¥à¸°
à¸²à¸ļ à¸£à¸¡
à¹ģ à¸£à¸¡
à¸²à¸ĩ à¹Ħà¸¡
à¸²à¸¡ à¹Ģà¸Ļ
à¸ŀà¸¢ à¸ŀ
Ġ201 3
Ġà¸¡ à¸«
à¹Ģà¸Ħà¸¢ à¹Ģà¸Ľ
à¸Ķ à¸ŀà¸£à¸°
à¸į à¹Ģà¸ª
à¸ģà¸£à¸°à¸Ī à¸²à¸¢
Ġà¸łà¸²à¸¢ à¹ĥà¸ķ
Ġ200 8
à¸Ħà¸ĵà¸° à¸ģà¸£à¸£à¸¡à¸ģà¸²à¸£
à¸²à¸ł à¸£à¸ĵ
à¸Ħà¸£ à¸Ńà¸ļ
à¸Ĺà¸²à¸ĩ à¸§
Ġf ormula
à¸ģ à¸Ĺà¸£
à¸ĩà¹Ģà¸ģ à¸ķ
à¸Ļà¸Ľ à¸£
à¸ģà¸²à¸£ à¹Ģà¸£
à¸Ńà¸ĩ à¹Ħà¸Ķ
à¸²à¸¡ à¸²à¸ģ
Ġ à¸£à¸°à¸ļà¸ļ
à¸ļ à¸²à¸ĩà¸ª
Ġà¹ģ à¸ļà¸ļ
à¸² à¹Ģà¸Ń
il l
à¸§ à¹ģà¸¥à¸°
à¸£à¸ĩ à¸Ħ
à¸§à¸ĩ à¸Ľ
à¸ĩà¸ª à¸²à¸¡
Ġà¹Ĥ à¸Ī
à¸Ļ à¸Ńà¸ĩà¸Ħ
à¸ļ à¸¡à¸²
à¸Ķà¸ª à¸Ńà¸ļ
à¸Ļà¸Ĺà¸³ à¹ĥà¸«
Ġà¹ģà¸¥à¸° à¸ŀ
à¹Ģà¸Ĺ à¸Ħà¸Ļ
à¸ģà¸© à¸²à¸£à¸°à¸Ķ
Ġà¹Ĥ à¸ĭ
à¸¡ à¸Ĭà¸Ļ
à¸ī à¸²à¸ģ
à¸ļà¸£à¸£ à¸Ī
o ur
à¹Ģà¸ŀ à¸ĵ
à¸Ļà¸Ĺ à¸Ļ
Ġ à¸¯
n i
à¸ĩ à¸«à¸¡
à¸° à¸Ľ
à¸ģà¸²à¸£ à¸Ļà¸³
Ġà¸ģ à¸Ńà¸ĩà¸Ĺ
à¸Ńà¹Ħà¸Ľ à¸Ļ
à¸²à¸Ļà¸ŀ à¸£à¸°
Ġà¹ĥà¸Ļà¸ ŀ
à¹Ģà¸ĺà¸Ń à¹Ħà¸Ķ
à¸¨à¸§ à¸ģà¸£à¸£à¸¡
Ġà¹Ĥ à¸Ħ
à¸¡ à¸Ńà¸ļ
à¸ķà¸£ à¸Ĭà¸²à¸¢
à¸Ľà¸£ à¸²à¸ªà¸²à¸Ĺ
à¸Ľà¸£à¸°à¹Ģà¸Ĺà¸¨ à¸Ń
Ġ201 7
à¸Ļ à¹ĥà¸Ļà¸ģà¸²à¸£
à¸ģà¸²à¸£ à¹ģà¸ªà¸Ķà¸ĩ
Ġà¹ ĳ
à¸Ļà¹ģ à¸ľ
à¹Ĥà¸Ĩ à¸©à¸ĵ
à¸²à¸ĩ à¸ŀ
à¸Ĺà¸²à¸ĩ à¸«à¸¥à¸§à¸ĩ
à¹ĥà¸Ļà¸« à¸¡
à¸«à¸¡à¸²à¸¢ à¹Ģà¸¥à¸Ĥ
à¸Ĳ à¸ªà¸ł
à¹Ģ à¸Ļà¸ª
à¸ģà¸²à¸£ à¸ªà¸£
à¸Ļà¸Ħ à¸¥
à¸² à¹Ģà¸Ĥà¸ķ
Ġ à¸łà¸²à¸ŀà¸¢à¸Ļà¸ķà¸£
à¸£à¸²à¸Ĭ à¸ģ
à¹Ģà¸Ł à¸Ńà¸£
à¸Ħà¸Ńà¸¡ à¸ŀ
Ġà¹ģ à¸ŀ
à¸ª à¸²à¸ļ
à¸ŀà¸§à¸ģ à¹Ģà¸Ĥà¸²
à¸Ĥà¸Ńà¸ĩ à¹Ģà¸Ĥ
Ġà¹ĥà¸Ļà¸ ķ
Ġ201 1
Ġà¹Ģà¸Ķ à¸Ńà¸°
à¹Ĥ à¸ļ
Ġà¸ª à¸ĸà¸²à¸Ļ
à¹Ģà¸ĭ à¸Ļà¸ķ
o un
à¸ĩ à¸ļà¸£
ec t
à¸§à¸Ļ à¸£
à¸²à¸¢ à¸ģà¸£
à¸²à¸ĵ à¸²à¸Ī
à¸£à¸²à¸¢ à¸Ĭ
à¹Ħ à¸ŀ
à¸Ļà¹Ħà¸Ľ à¹Ħà¸Ķ
à¸ĩ à¹Ģà¸Ń
à¸Ľà¸£à¸²à¸ģà¸ı à¸ķ
Ġà¸ŀà¸£à¸° à¸ļà¸²à¸Ĺà¸ªà¸¡à¹Ģà¸Ķ
à¸²à¸Ļ à¸¥
à¸Ļà¹Ģà¸Ĺ à¸Ńà¸£
à¸Ĥà¸Ńà¸ĩ à¸Ħ
à¸²à¸ĩà¸£ à¸§à¸Ķà¹Ģà¸£
à¸¥à¸Ķ à¸¥à¸ĩ
à¸ķ à¸£à¸°à¸ģ
à¹ĥà¸Ļà¸ł à¸²à¸Ħ
à¸ģà¸²à¸£ à¸Ĭ
à¸Ī à¸Ĺ
à¸Ĺ à¸Ļ
à¸Ķ à¸Ĺà¸³
Ġ201 8
à¸Ļà¸²à¸¢ à¸ģà¸£
à¸Ķà¸Ĭ à¸Ńà¸ļ
à¸Ħà¸Ħà¸¥ à¸Ĺ
à¸ĩ à¹Ģà¸Ļ
à¸Ńà¸¢ à¸ķ
à¹Ĥ à¸ī
à¸²à¸ļ à¸£
à¸Ń à¸Ļà¸Ħà¸£
à¸¨à¸²à¸ªà¸ķà¸£ à¸²à¸Īà¸²à¸£à¸¢
Ġ à¸¥à¸ĩ
à¸Ńà¸ĩà¸Ħ à¸³
à¸Ļà¸Ľà¸£à¸° à¹Ģà¸Ĺà¸¨
à¸¥ à¸§
à¸Īà¸° à¸ª
à¸§à¸¢ à¹ĥà¸«
à¹ģà¸¥à¸° à¸ľ
à¸ĩà¸²à¸Ļà¸ ª
à¸Ľà¸£à¸° à¸Ī
à¸ģà¸© à¸²à¸ĺ
à¸²à¸Ļ à¹Ģà¸Ĥ
à¸²à¸ª à¸²à¸¡à¸²à¸£à¸ĸ
à¸ģà¸£à¸° à¸ķ
is t
à¸¡à¸« à¸²à¸ªà¸¡
Ġ254 7
à¸Ļ à¸Ńà¸£
à¸£à¸°à¸¢à¸° à¹Ģà¸§à¸¥
à¸ļ à¹Ĥà¸Ķà¸¢
à¸ļ à¹Ħà¸ĭà¸ķ
à¸ª à¸ķà¸£
à¸²à¸¢ à¸Ń
à¸²à¸Ļ à¸£
à¹Ĥà¸Ĭ à¸§
à¸¢à¸ģ à¸¢
à¸¥ à¸Īà¸Ńà¸¡à¹Ģà¸ģà¸¥
à¸Ħà¸§à¸²à¸¡ à¹Ģà¸Ĭ
à¸ĩà¸Ńà¸Ńà¸ģ à¹Ģà¸Ľ
à¸²à¸ĩ à¸Ī
à¸ķà¸²à¸¡ à¸Ĺ
à¸ģ à¸Ĭà¸²à¸¢
à¸Ľà¸¥ à¸§
Ġà¸ļ à¸Ĺ
Ġ24 5
à¸ģ à¸«à¸¥
à¸²à¸¢à¸Ļ à¸Ńà¸ģ
à¸§ à¸Ħ
à¹ģà¸¥à¸° à¸ŀ
à¸ĩ à¹Ģà¸«à¸¥
à¸²à¸£ à¸²à¸¡
à¸§ à¸²à¸¥
à¸Ńà¸ĩ à¸¢à¸Ļà¸ķ
à¸Ļ à¸ģà¸¥à¸²à¸ĩ
Ġ '
à¸¢ à¸Ī
p h
à¸ģ à¸¤à¸ķ
à¸£ à¸²à¸Ħ
à¸ŀà¸£à¸° à¸Ń
à¸¡ à¹Ģà¸ļ
à¸Ķ à¸«à¸¡à¸²à¸¢
ac k
à¸ĩ à¸Ĺà¸³
à¸¡ à¸ĭ
à¸£à¸£ à¸ŀ
Ġà¹ģà¸¥à¸° à¸Ĭ
à¹ģà¸¥à¸° à¸Ī
à¸Ľà¸¥ à¸Ķ
à¸ª à¸Ľ
à¸²à¸Ļ à¹Ģà¸¡
Ġ200 9
à¸£à¸£ à¸Ķ
ar t
e g
à¸Ħà¸Ńà¸¡ à¸¡
Ġà¸ķ à¸Ńà¸Ļ
Ġt o
à¸²à¸ĺ à¸²à¸£
Ġà¸ª à¸²à¸¢
à¸²à¸ŀ à¸£
en d
à¸Ļ à¹Ģà¸§à¸¥à¸²
à¸ŀà¸£à¸°à¸£à¸²à¸Ĭ à¸§
à¸ļ à¸«à¸¥
à¸²à¸Ļà¸ ł
à¸Ńà¸Ļà¸Ķ à¸Ńà¸Ļ
à¸Ļ à¹Ĥà¸£à¸ĩà¹Ģà¸£
à¸Ļ à¸²à¸§
à¸Ļà¸Ĺà¸²à¸ĩ à¹Ħà¸Ľ
à¸Ńà¸ĩ à¸ľ
à¹ĥà¸Ļà¸£ à¸Ńà¸ļ
à¸ģà¸²à¸£ à¸Ń
à¸Ľà¸£à¸°à¸Ĭà¸²à¸Ĭ à¸Ļ
à¸Ķ à¹ģà¸Ľà¸¥à¸ĩ
Ġà¹Ģà¸ ¢
à¸²à¸Īà¸° à¸¡
à¹ģ à¸Ħà¸Ļ
à¸¡ à¸²à¸¥
à¸ģà¸²à¸£ à¸ĸ
à¸²à¸§ à¸Ķ
à¸Ńà¸° à¹Ħà¸£
Ġ à¹Ģ
6 0
à¸Ĺà¸²à¸ĩ à¸ķà¸°à¸§
à¸¥à¸°à¸Ħà¸£ à¹Ĥà¸Ĺà¸£à¸Ĺ
à¸¢à¸Ĭ à¸Ļà¸°
à¸¢à¸Ļ à¸ģà¸²à¸£à¸ª
à¸²à¸ŀà¸£à¸° à¸Ńà¸ĩà¸Ħ
à¸Ļà¸Ĭ à¸Ńà¸ļ
à¸ģà¸²à¸£ à¹Ģà¸Ĥ
à¹ĥà¸Ļà¸ ľ
on g
à¹ģà¸¥à¸° à¸¢
à¸² à¹ģà¸¥
à¸¤ à¸«
à¸³ à¸Ī
à¸į à¸Ī
à¸²à¸« à¸¥à¸²à¸¢
Ġ200 7
à¸Ĺà¸²à¸ĩ à¸Ĭ
à¸§ à¹Ħà¸Ķ
à¸Ļà¹ģ à¸«à¸¥
à¸Ļà¸ŀ à¸¥
à¹Ĥ à¸ģà¸ª
a in
à¹Ģà¸¡ à¸°
à¸łà¸²à¸ŀ à¸Ĺ
Ġà¹ģà¸¥à¸° à¹Ħà¸¡
à¸ŀà¸¢ à¸²à¸ģà¸£
à¸ĵ à¸ªà¸¡à¸ļ
à¹Ĥà¸Ķ à¸Ķà¹Ģà¸Ķ
à¸ģà¸¥ à¸¡
à¸Ļà¸Ľ à¸¥à¸²à¸¢
à¸Ĺà¸ĺ à¹Ģà¸Ī
à¸Ļà¸³à¹Ħà¸Ľ à¸ª
i an
à¸ĩ à¹Ħ
à¸Ļà¸Ľà¸£à¸° à¸Īà¸³
à¸Ńà¸ĩ à¹Ĥà¸Ķà¸¢
à¸ģà¸²à¸£ à¸¢
à¹Ĥà¸Ķ à¸£
à¸ģà¸© à¸²à¸Ľ
à¸¢ à¸Ļà¸Ī
4 0
à¸´ à¹Ĭ
à¸Ļà¸Ľà¸£à¸° à¸ģà¸Ńà¸ļ
à¸ļ à¸¨
à¹Ģà¸ģ à¸¡à¸ª
à¸ģà¸£à¸° à¸ļà¸§à¸Ļà¸ģà¸²à¸£
à¹Ĥ à¸ķà¸£
Ġ à¸£à¸°à¸Ķ
à¸Ĥà¸Ńà¸ĩ à¸ŀ
Ġà¹ģà¸¥à¸° à¹ĥà¸Ļà¸Ľ
à¸ĩ à¸ķà¸²à¸¡
à¸ĩ à¹ģà¸«
à¹ģà¸¥à¸° à¸Ħà¸§à¸²à¸¡
à¸ģ à¹Ģà¸Ľà¸¥
à¸ª à¸²à¸Ļ
Ġà¸ªà¸¡ à¸²à¸Ĭ
à¸«à¸łà¸²à¸ŀ à¹Ĥà¸ĭà¹Ģà¸§
à¹ģà¸¥à¸° à¸Ħ
Ġ à¸Ńà¸Ļ
à¸² à¹ĥà¸Ļ
à¸Īà¸²à¸ģ à¸Ļ
à¸ĩà¹ģ à¸§à¸Ķà¸¥
à¸£à¸£ à¸²à¸Ĭ
à¹Ĥ à¸Ł
à¸²à¸¢à¸Ĺ à¸Ńà¸Ķ
à¸¡ à¹Ģà¸«à¸¥
à¹Ĥà¸¥ à¸ģà¸£
à¸Ĺ à¸²à¸Ļ
à¹Ĥà¸ł à¸Ħ
f f
à¸ķ à¸¥à¸²à¸Ķ
à¸Ĺà¸¢ à¸²à¸Ļ
à¹ĥà¸Ļà¸ ĭ
à¸ĩ à¹ĥà¸«à¸¡
à¸¥à¸ĩ à¹Ħà¸Ľ
à¸Ļà¸ª à¸ĸà¸²à¸Ļà¸Ĺ
à¸³ à¸£à¸ĩà¸ķà¸³à¹ģà¸«à¸Ļ
Ġà¸ģ à¸³à¸ģ
ac e
à¸ªà¸ĸà¸²à¸Ľ à¸Ļ
à¸²à¸§ à¸²à¸ª
à¸£ à¸ł
Ġà¸ŀ à¸£à¸£
à¸Ńà¸ĩ à¸¢
à¸¡ à¹Ģà¸«
à¸¢ à¸Ħ
à¸³ à¸£à¸§à¸Ī
à¹Ģà¸§à¸ĵ à¸Ĺ
à¸Ļ à¸ģà¸£
à¸Ĺà¸ĺ à¸£
à¸ĩ à¸«à¸£
) "
à¸Ļ à¸Ļà¸³
à¸ģ à¸ªà¸£
Ġà¹Ĥ à¸Ħà¸£
à¸ļ à¸§à¸ĩ
Ġà¸ģ à¸§
à¸Ļà¸£ à¸ĸ
Ġ6 0
à¸³ à¸ļ
à¸ªà¸ķ à¸²à¸£
à¸ĩà¸Ħà¸£à¸²à¸¡ à¹Ĥà¸¥à¸ģà¸Ħà¸£
Ġ à¸ķà¸£
à¸Ĭ à¸²à¸į
à¸ł à¸ŀ
à¸¡ à¹Ģà¸Ķ
à¸Ļà¹ģ à¸Ļà¸§
u re
à¸¥ à¸²à¸ģ
à¸¢à¸ģ à¹Ģà¸¥
à¹ĥà¸Ļà¸ł à¸²à¸ŀà¸¢à¸Ļà¸ķà¸£
Ġà¸ŀ à¸£à¸£à¸Ħ
Ġ200 6
à¸Ļà¸²à¸Ļ à¸²à¸Ĭà¸²à¸ķ
à¸Ńà¸ĩ à¹Ģà¸Ķ
à¸«à¸Ļ à¸²à¸§
r an
à¸µ à¹ĭ
à¸Ļà¸« à¸¡à¸²à¸¢
à¸ļ à¹Ģà¸Ķ
à¸Ń à¸Ļà¸¢
à¸£ à¸Ńà¸¢
à¸²à¸¢ à¸§
à¸Ń à¸²
à¸ģ à¹ĥà¸Ļ
à¸ª à¸²à¸ģà¸¥
à¸§à¸¢ à¸Ńà¸£
on e
à¸ĩà¸Ĭ à¸Ļà¸°
à¸² à¹Ģà¸Ńà¸¥
à¹Ħà¸Ĺà¸¢ à¸Ĺ
à¹ģ à¸§à¸£
à¸ķ à¸¨à¸²à¸ªà¸ķà¸£
à¹Ģà¸¥ à¸ģ
à¸Ńà¸Ļ à¹Ģà¸ª
à¸Ķà¸¡ à¸¨
Ġà¸Ľà¸£à¸° à¸Īà¸³
à¸²à¸¢ à¸łà¸²à¸ŀ
à¸Ĭà¸²à¸¢ à¸Ŀ
en s
Ġà¸Ĥ à¸ĵà¸°
à¸Ń à¸Ńà¸£
à¸Ļà¸§ à¸Ļ
à¸ĩ à¹Ħà¸§
à¹Ģà¸Ńà¸ģ à¸ªà¸²à¸£
a v
Ġà¸Ĺ à¸§
Ġà¹ģà¸¥à¸° à¸ģ
à¹Ģà¸¡ à¸¥
ķ à¹
à¸ĭ à¸²à¸ģ
à¸¡ à¸ĸ
à¸Ķà¸³ à¸£à¸ĩ
Ġà¹ģà¸¥à¸° à¸Ħ
à¸Ļà¸ŀà¸£à¸° à¸Ńà¸ĩà¸Ħ
Ġ v
à¸ķ à¹Ĥà¸Ķà¸¢
à¸Ļ à¹ģà¸ģ
à¹Ĥ à¸Ńà¸Ļ
à¸Ń à¸Ļà¸Ī
à¹Ĥ à¸Ļà¸°
à¸§à¸¢ à¸Ń
à¸²à¸¢ à¹Ħà¸Ķ
à¸ĭ à¸²à¸£
à¸²à¸Ļà¸ļ à¸²à¸Ĺ
à¸ª à¸«
h y
à¸ªà¸¥ à¸²à¸¡
à¸Ķà¸Ľ à¸ģà¸ķ
à¸¢ à¸ķà¸°à¸§
à¸£ à¸Ńà¸Ķ
e w
à¸ģ à¸ģà¸§
à¸²à¸¢ à¸Ķ
à¹ģ à¸Ńà¸Ļà¸Ķ
à¸¢à¸ĩ à¸ķ
à¹Ĥà¸ŀ à¸ĺ
à¸ĩ à¸¨à¸£
à¸¢à¸ĩ à¸Ķ
2 3
à¸ļ à¹Ģà¸ª
à¸¥à¸ĩ à¹Ģà¸¥
à¸Ĭ à¸²à¸Ĭ
à¸Ĥà¸Ńà¸ĩ à¹Ģà¸ĺà¸Ń
à¸Ńà¸ĩ à¹Ģà¸ģ
Ġ X
à¸²à¸ĺà¸²à¸£ à¸ĵà¸°
à¸ŀà¸£à¸° à¸Ļà¸²à¸ĩ
à¸Ĺ à¸ģ
à¹ģ à¸Ķà¸Ļ
à¸Ļ à¸ĩà¸²à¸Ļ
à¸Ħà¸§à¸²à¸¡ à¹Ģà¸£
q u
à¸² à¹ģà¸¡
à¹Ĥ à¸ª
à¸ģà¸²à¸£ à¸Ľà¸ı
or d
à¸¢à¸ĩ à¸ª
à¹Ģà¸Ł à¸£
à¸³ à¸ª
à¸¢ à¸ŀ
g e
à¸Ĺ à¸¨à¸§à¸£à¸£à¸©
à¹Ģà¸ª à¸¡
à¸ĩà¸ļ à¸Ľà¸£à¸°à¸¡à¸²à¸ĵ
à¸ŀ à¹Ģà¸£
à¸Ńà¸ĩ à¸Ńà¸¢
à¹ĥà¸Ļà¸ķ à¸³à¹ģà¸«à¸Ļ
à¸§ à¸Ļà¸¡à¸²à¸ģ
à¸°à¹ģ à¸Ļ
à¸Ħà¸§à¸²à¸¡ à¸ľ
à¸ĩà¸ģ à¸£à¸°
Ġà¹ģà¸¥à¸° à¸Ľ
à¸§à¸ĩ à¸Ļ
Ġ254 6
à¸ģ à¹Ģà¸ŀ
à¸¢ à¹ĥà¸«à¸¡
à¸²à¸Ħ à¸ĵà¸°
Ġ8 0
Ġà¸ª à¹Ĥà¸¡à¸ªà¸£
à¸ĩ à¸²à¸Ļà¸ķ
e x
à¸Ń à¸Ļà¸ļ
à¸Ńà¸Ļ à¹ģà¸ģ
Ġà¸Ħ à¸²à¸£
à¸²à¸Ĺ à¸£à¸ĩ
à¸Ļà¸ŀ à¸ļ
as s
à¸¡ à¸²à¸Ķ
à¸ĩà¹ģà¸£à¸ģ à¹Ģà¸¡
à¸Ĥà¸Ńà¸ĩ à¸Ĭ
à¸ģà¸²à¸£ à¸Ķ
à¸ĩ à¸ªà¸¡
à¸²à¸Ļ à¹Ģà¸Ľ
à¸£à¸°à¸¢à¸° à¸Ĺà¸²à¸ĩ
à¸Ļà¸Ħà¸£ à¸¨à¸£
igh t
à¹Ģà¸Ńà¸² à¹Ħà¸§
à¸£ à¸Ńà¸ĩ
à¹Ģà¸Ń à¸Ĭ
l y
à¹Ģà¸ŀà¸¥à¸ĩ à¸Ĺ
à¸Ń à¸¨
à¸ª à¸ĩà¸Ĩ
à¸²à¸¡ à¸ģ
Ġà¸Ľà¸£à¸°à¹Ģà¸Ĺà¸¨ à¸Ń
à¸įà¸²à¸ķ à¹ĥà¸«
à¸Īà¸° à¹ĥà¸«
à¸Ľà¸£à¸° à¹Ģà¸¡
à¸§à¸²à¸ĩ à¹ģà¸ľ
à¹ĥà¸Ļà¸ģà¸²à¸£ à¹Ģà¸¥
m ent
à¸³ à¸Ķ
à¸²à¸ĩ à¸ļ
Ġ =
à¸Ńà¸ģ à¸Ĺ
à¸ŀà¸£à¸° à¸¢
Ġ r
à¸Īà¸° à¹Ģà¸ģ
Ġ254 4
à¹ĥà¸Ļà¸« à¸¥à¸²à¸¢
à¸ª à¸¢
à¸ª à¸¢à¸²à¸¡
à¹ģ à¸Ńà¸£
à¸Ńà¸Ńà¸ģ à¸ĭ
à¸Ĺà¸£ à¸§à¸ĩà¸¨
à¸ĩà¸²à¸Ļà¸ Ľ
à¸¥ à¸Ĥà¸Ńà¸ĩ
à¸Ńà¸¢ à¹Ĩ
an t
à¸Ĭà¸²à¸§ à¸Ńà¹Ģà¸¡à¸£
Ġà¹ĥà¸Ļà¸Ľ à¸£à¸°à¹Ģà¸Ĺà¸¨
à¸° à¸Ń
à¸£ à¸²à¸ģ
à¹Ħ à¸ŀà¸£
Ġà¸Ļ à¸²à¸Ĺ
à¹ĥà¸Ļ à¸Ńà¸Ķ
à¸Ń à¹Ģà¸Ī
à¸ģ à¹Ħà¸Ľ
Ġ à¸Ľà¸£à¸°à¸ģà¸Ńà¸ļ
à¸Ķ à¹Ģà¸§
à¸²à¸« à¸¡
à¸²à¸§ à¸ģ
à¸Ń à¸«à¸¥
à¸¥ à¸ĭ
à¸²à¸ĩ à¹Ģà¸Ĥ
à¸Ħà¸§à¸²à¸¡ à¸§
à¸¥à¸°à¸Ħà¸£ à¹Ģà¸£
à¹Ħ à¸ģ
à¸Īà¸° à¹Ģà¸£
2 2
à¸Ń à¸Ļà¸Ĭ
à¸§à¸¢ à¹Ģà¸«à¸ķ
à¸ģà¸© à¸²à¸Īà¸²à¸ģ
à¸Ľà¸£à¸°à¸Ĭà¸²à¸Ĭ à¸²à¸ķ
à¸²à¸Ļà¸ ľ
à¹Ĥ à¸Ļà¸¡
à¸ļà¸ģà¸²à¸£ à¸ĵ
à¸£à¸§à¸¡ à¸ģ
à¸§à¹Ĥà¸¡ à¸ĩ
à¸¢ à¸¢
à¸ŀà¸ļ à¹Ħà¸Ķ
à¸²à¸¢ à¸Ĺà¸³
à¹ĥà¸Ļ à¸£à¸°à¸«à¸§
à¸²à¸Ļà¸ ĸ
à¸ĩ à¹Ģà¸Ħà¸£à¸²à¸°à¸«
à¸ģà¸³ à¹ģà¸ŀ
Ġà¹ģà¸¥à¸° à¸Ķ
à¹Į .
i k
à¸ĸ à¸§à¸²à¸¢
à¸Ńà¸¡ à¸Ķ
à¸Ńà¸¥ à¹Ģà¸¥à¸¢
à¸§ à¹Ģà¸Ĥ
à¸²à¸Ń à¸Ńà¸ģà¸Īà¸²à¸ģ
à¸ŀà¸£à¸° à¸ģà¸£
à¸Ļà¸Ħ à¸Ļ
à¸ģà¸²à¸£ à¸ľà¸¥
à¸ļ à¸Ľà¸£à¸°à¸Ĺ
à¸ģà¸©à¸ĵà¸° à¹Ģà¸Ľ
à¸¥ à¸Ł
Ġ à¸Ľà¸£à¸°à¸ª
à¸Ń à¸ªà¸¡
à¸Ķ à¸Īà¸²à¸ģà¸ģà¸²à¸£
à¸Ńà¸¡ à¸ŀ
à¸²à¸ł à¸²à¸ŀ
Ġà¸Ļà¸³ à¹ģà¸ªà¸Ķà¸ĩà¹Ĥà¸Ķà¸¢
à¸¢à¸¡ à¸Ĺ
à¹Ģà¸ģ à¸ª
à¸Ļà¹Ģà¸Ķ à¸Ńà¸£
Ġ à¸īà¸ļ
à¸Ļà¸ģ à¸£à¸°
e v
à¸Ī à¸ļ
à¸²à¸Ī à¸£
à¸¥ à¹Ģà¸Ķ
Ġ à¹Ħà¸§
à¹ģà¸ŀà¸Ĺà¸¢ à¸¨à¸²à¸ªà¸ķà¸£
à¸¡à¸« à¸²à¸Ķ
à¸Ļà¸ł à¸²à¸Ħ
à¸²à¸ĩ à¸¥
à¸²à¸ŀà¸£à¸° à¸¢
à¹ĥà¸Ļ à¹ģà¸ķ
Ġ254 2
à¸ĩà¸Ĭà¸Ļà¸° à¹Ģà¸¥
à¹Ģà¸ Ŀ
à¸Ńà¸ģ à¹ĥà¸«
à¸Ńà¸¡ à¸²à¸ģ
Ġà¹ģà¸¥à¸° à¸Ĥ
à¸ļ à¹Ħà¸¡
à¸Ļà¸ª à¸²à¸¡
à¹ĥà¸Ļà¸ģà¸²à¸£ à¸ķ
4 5
à¸Īà¸° à¸Ĺà¸³à¹ĥà¸«
à¸Ļà¸£ à¸²à¸¢à¸ģà¸²à¸£
à¸ģ à¹Ħà¸¡
as t
à¸ŀ à¸¤à¸ķ
à¸³ à¸ģà¸§
à¸Ńà¸¢ à¸²à¸ģ
Ġà¹ģà¸ª à¸Ķà¸ĩ
à¸Ľ à¸ģ
à¸Ĥ à¸ª
à¸ļ à¹Ģà¸¡
à¹Ģà¸Ĭ à¸©à¸Ĳ
à¸Ļà¸ķà¸ģ à¹Ģà¸ī
à¸§à¸¢ à¸ķ
à¸ĩ à¸®
à¸Ľà¸£à¸° à¸¢
à¸Īà¸° à¹Ģà¸Ĥ
Ġ à¹ĥà¸ļ
à¸Ļà¸²à¸Ķ à¹ĥà¸«à¸į
à¸Ĺà¸ĺ à¸¨à¸²à¸ªà¸Ļà¸²
à¸Ľà¸£à¸²à¸ģà¸ı à¸§
à¸ŀ à¸ĩà¸©
à¸Ħà¸Ļ à¹Ģà¸Ķ
Ġ [
Ġà¸ª à¸§
à¸ļ à¸ł
à¸° à¸£
à¸²à¸¢ à¸Ħ
à¸²à¹Ĥ à¸Ĺ
à¸Ľ à¸ĸ
Ġà¸Ĺ à¸£
à¸²à¸ĩà¸Ĥ à¸§à¸²à¸ĩ
Âł Âł
à¸Ħ à¸ĭ
à¸¡ à¸§à¸¥
à¸ķ à¸ģà¸¥
b er
à¸ĩ à¸Ł
à¸Ļà¸ŀ à¸£
Ġà¸Ľà¸£à¸° à¹Ģà¸łà¸Ĺ
ation al
à¸²à¸ķ à¸°à¸§
à¸Ļà¸ª à¸³à¸Ħ
à¸Ķ à¹Ģà¸ģ
à¸ĩà¸²à¸Ļà¸ ¨
Ġà¹ĥà¸Ļà¸ Ħ
à¸Ķ à¸ľ
à¸Ńà¸ĩ à¹Ģà¸Ĭ
à¸° à¸¡
à¸²à¸ĩ à¸ģà¸§
à¸Ħà¸§à¸²à¸¡ à¹Ģà¸ª
à¸ĸ à¸Ļà¸Ļ
à¸²à¸Ļ à¸Ļà¸Ĺ
à¸²à¸§ à¸Ń
Ġà¹ģà¸¥à¸° à¹Ģà¸Ĥ
à¸ģà¸²à¸£ à¸Ľà¸£
à¸ģ à¹Ģà¸ķ
à¸Ńà¸¡ à¹Ģà¸Ī
à¹Ĥà¸Ľà¸£ à¹ģà¸ģà¸£à¸¡
Ġ254 5
à¸¡à¸²à¸£ à¸Ķ
Ġà¹Ģà¸« à¸¡
à¸ĩ à¹Ĥà¸ķ
à¸ļ à¹Ģà¸ŀ
à¸²à¸ģ à¸§
à¸Ńà¸Ļ à¹Ģà¸Ľ
à¸ĩ à¸ªà¸¡à¸²à¸Ĭ
Ġ à¹Ħà¸Ĺà¸¢
à¸ĺ à¸Ļà¸ļ
Ġà¸ª à¸ķ
Ġ254 0
à¸Ĥà¸Ńà¸ĩ à¸ŀà¸£à¸°à¹Ģà¸Ī
à¸²à¸¢ à¹ĥà¸Ļ
à¹Ģà¸ĺ à¸Ńà¸ģ
Ġ253 5
ver s
i f
à¸Ķ à¹Ħà¸Ľ
à¸Ľà¸£à¸° à¸ĺ
Ġà¸¡ à¸²à¸Īà¸²à¸ģ
à¸¥ à¸¯
à¸«à¸¥ à¸Ńà¸Ķ
à¸¢ à¸ļà¸£
h er
à¸¢à¸Ļ à¹Ħà¸Ľ
à¸ģà¸© à¸²à¸Ħà¸§à¸²à¸¡
Ġà¸£ à¸²à¸ĩà¸§
à¸Ńà¸Ļ à¸ģà¸£
Ġà¹Ĥà¸Ķà¸¢ à¹Ģà¸£
8 0
p er
à¸ŀ à¸ĺ
à¸ĩà¸Ħ à¹Ĥà¸Ľà¸£
à¸ļà¸Ĺ à¸Ńà¸Ķ
à¸£à¸²à¸Ĭ à¸§
Ġà¸Ńà¸³à¹Ģà¸ł à¸Ńà¹Ģà¸¡
à¸Ħà¸§à¸²à¸¡ à¸Ĭ
Ġà¸£ à¸ĸ
à¸ļà¸£ à¸ĸ
à¸Ĺà¸ĺ à¸¨
à¹ģà¸Ĺ à¸£à¸ģ
Ġ253 9
à¸Ĥ à¸Ńà¸ļ
W E
à¸£à¸²à¸Ĭ à¸ªà¸³à¸Ļ
à¸Ķ à¸Ħà¸£à¸Ńà¸ĩ
à¸Ńà¸²à¸ĵ à¸²à¹Ģà¸Ĥà¸ķ
à¹ĥà¸Ļà¸Ĺ à¸²à¸ĩ
à¹ģà¸ķ à¸ģ
à¸ŀ à¸ĩà¸¨
l d
à¸²à¸Ļ à¸²à¸Ļ
e ar
à¸ļ à¸ľà¸¥
à¸²à¸§ à¸Ħ
à¸ģ à¸Ĳà¸²à¸Ļ
à¸Īà¸²à¸ģ à¸Ĺ
Ġà¸Ńà¸³à¹Ģà¸ł à¸Ń
à¸Ķ à¸¡à¸²
à¸ł à¸²à¸¢à¸Ļà¸Ńà¸ģ
à¸¢à¸§ à¸Ĭà¸²à¸į
Ġ à¸Ľà¸£à¸°à¸¡à¸²à¸ĵ
à¸Ńà¸²à¸£ à¸¡à¸ĵ
à¸ª à¸²à¸ĺà¸²à¸£à¸ĵà¸£
à¹Ĥà¸¢ à¸ĺ
Ġà¸Ń à¸²à¸Ħà¸²à¸£
Ġà¹Ģà¸Ľ à¸¥
à¸²à¸Ĺ à¸Ńà¸¥
à¸Ĺà¸³ à¹Ħà¸Ķ
à¸Ł à¸Ł
à¸Ħ à¸Ń
à¸²à¸ª à¸ķ
à¸ĩà¸²à¸Ļ à¸ģ
à¸į à¸ģ
à¸¡à¹Ģà¸« à¸ª
ar y
à¸Ĥà¸Ńà¸ĩ à¸Ĭà¸²à¸§
à¸Ļà¸Ľà¸£à¸° à¸ĺà¸²à¸Ļ
Ġà¸Ī à¸Ńà¸«
à¸¡ à¸ĩà¸Ħà¸¥
à¸ŀ à¸ķ
à¸ĺ à¸£
à¸į à¸ŀ
à¸§à¸¢ à¸£
a ti
à¸ļ à¹Ģà¸Ħà¸£
à¸Īà¸° à¸£
à¸¡ à¹ģà¸£à¸ģ
à¸²à¹ģ à¸Ļ
à¸Ńà¸Ļà¸²à¸Ħ à¸ķ
à¹Ģà¸Ķ à¸Ļ
Ġà¹Ģà¸Ń à¸Ł
à¸Ńà¸Ń à¸²à¸¢
Ġà¸£ à¸²à¸¢à¸ģà¸²à¸£
à¸£à¸£à¸²à¸Ĭ à¸ª
à¹Ģà¸ĭ à¸¥
à¸¡ à¸§à¸¢
à¸Ļ à¸£à¸°à¸ļà¸ļ
à¹Ĥ à¸«à¸¥
Ġà¸ŀ à¸ļ
Ġà¹ĥà¸Ļà¸ Ĳà¸²à¸Ļà¸°
à¸§ à¸²à¸Ķ
à¸ĩ à¹Ģà¸§
Ġà¹Ģà¸Ĥ à¸²à¹Ģà¸Ľ
à¸° à¸®
à¸Ļà¹ģ à¸Ĺ
à¸Ĺ à¸ª
à¸ŀà¸¥ à¸Ńà¸Ķ
à¸Ńà¸ĩ à¸ģà¸¥
à¸ķà¸£ à¸Ĥà¸Ńà¸ĩ
à¸Ļà¸Ľà¸£à¸° à¸Ĭ
à¸Ńà¸Ļ à¹ģà¸¥à¸°
à¸ĩ à¸ĩ
à¸²à¸ļà¸£à¸¡ à¸§à¸ĩà¸¨
à¸²à¸Ļ à¹Ģà¸ģ
à¸²à¸§ à¸«à¸Ļ
à¹Ģà¸Ĺ à¸§
à¸ģà¸²à¸£à¸Ĺ à¸«à¸²à¸£
à¹ Ĳ
à¸ļà¸ģà¸²à¸£ à¹Ģà¸¥
à¸Ńà¸ĩ à¸ģà¸³à¸¥
à¸Ļà¸ª à¸³à¸«à¸£
o us
à¸ĩà¸ĩà¸²à¸Ļ à¸ģ
à¸Ļà¹ģ à¸Ĭà¸¡à¸Ľ
à¸ĵ à¸²à¹Ĥà¸Ľà¸£
à¸ļ à¸Ńà¸£
à¸ĩà¹ģ à¸£à¸ĩ
à¸£à¸§à¸¡ à¸ĸ
à¸²à¸Ī à¸Ļà¸ĸ
Ġà¹Ģà¸Ķ à¸Ń
Ġà¹ģ à¸Ĥ
Ġà¹ģ à¸Ľà¸¥à¸§
à¸²à¸Ļ à¸¡à¸²
Ġà¸¯ à¸¥à¸¯
à¸²à¸Ļ à¹Ħà¸Ľ
à¸´ à¹ĭ
à¸ļà¸ģà¸²à¸£ à¸£
à¸¡ à¸²à¸ĸ
i e
Ġà¸Ķ à¸Ńà¸ģ
à¸ķ à¹ĥà¸Ī
à¸ŀà¸£à¸° à¸Ĺ
à¸ļ à¹Ģà¸ģ
à¸Ļ à¹ĥà¸Ļà¸Ĺ
2 8
Ġà¹ģ à¸Ī
à¸ĩà¸Īà¸²à¸ģ à¸ģà¸²à¸£
or y
2 1
à¸ī à¸¥à¸Ńà¸ĩ
Ġ200 5
Ġà¹ĥà¸Ļ à¸Ń
à¸³ à¸ķ
à¹ĥà¸Ļ à¸¡
à¸Īà¸° à¸¢
à¸¢ à¸Ļà¸ļà¸Ĺ
à¸Ľà¸£à¸° à¹Ģà¸ŀà¸ĵ
à¸²à¸§ à¸ª
à¸¡à¸Ļ à¸²à¸Ħà¸¡
Ġà¹ģ à¸Ļà¸§
Ġà¸Ĥ à¸Ļà¸²à¸Ķ
Ġà¸¡ à¸²à¸ģ
ter n
à¸Ļ à¹Ĥà¸£à¸Ħ
à¸į à¸²à¸ĵ
Ġà¹Ģà¸ª à¸Ķ
à¸²à¸ ı
à¹ĥà¸Ļà¸§ à¸ĩà¸¨
à¸§ à¸ĸ
à¸ĺ à¸¢
r y
à¸Ļà¸Ķ à¸²à¸¥
à¹ĥà¸Ļà¸ģà¸²à¸£ à¸£
à¸Ħà¸§à¸²à¸¡ à¸¡
à¸ªà¸§à¸£à¸£à¸Ħ à¸ķ
Ġ254 3
à¸²à¸ĩ à¸ģà¸²à¸£
à¸ķà¸£ à¸§
à¸Ń à¹ģà¸ģ
à¸«à¸¥à¸²à¸¢ à¸Ħà¸£
à¸§à¸Ħà¸£ à¸²à¸§
à¸Ħà¸³ à¸Ļà¸§
à¸¡ à¸²à¸Ĺ
Ġà¹Ģà¸ĺ à¸Ńà¹Ħà¸Ķ
on d
à¸£ à¸²à¸©à¸İà¸£
à¸§à¸²à¸ĩ à¸Īà¸³à¸«à¸Ļ
4 8
à¹Ģ à¸Ļà¸Ĭ
à¸Ķà¸ģà¸²à¸£ à¹ģà¸Ĥ
à¸± à¹ĭ
à¸ĺà¸Ļ à¸²à¸Ħà¸²à¸£
Ġà¸ľ à¸¥à¸ĩ
à¸Ļà¸Ń à¸²à¸Ī
à¸Ļà¹ģ à¸Ķà¸Ļ
à¸Ĺà¸²à¸ĩ à¸ª
Ġà¹Ģà¸ ī
à¸§à¸¢ à¸Ļ
Ġ à¸ĩà¸²à¸Ļ
à¸ĵà¸²à¹Ĥà¸Ľà¸£ à¸Ķà¹Ģà¸ģà¸¥
à¸ĩà¸£ à¸§à¸¡
à¹ģà¸Ľ à¸ĭ
à¹Ģà¸ĭ à¸Ļ
à¸¢ à¸ĭ
à¹Ģà¸Ħ à¸¢à¸¡
à¸Ļà¸Ħ à¸£à¸£à¸²à¸Ĭà¸ª
à¸Ńà¸¢ à¸Ħà¸£
à¸¢à¸ģ à¸ģ
ĠA l
i al
Ġà¹ģà¸¥à¸° à¸ļ
à¹Ħà¸§ à¸£
à¸£à¸°à¸ļ à¸Ńà¸ļ
i p
à¸Ļà¸Ĺ à¸ļ
à¸Ń à¹Ģà¸ŀà¸¥à¸ĩ
à¸Ī à¸ª
à¸¨ à¸²à¸Ī
à¸¢ à¸Ļà¸Ĥà¸Ńà¸ĩ
à¸ĩà¸²à¸Ļà¸ Ī
à¸¡à¸« à¸²à¸Ĭà¸Ļ
à¹Ĥà¸Ĥ à¸Ĺ
à¹Ĥà¸¥à¸ģ à¸Ĺ
2 7
à¸ĩ à¸ŀà¸¥
à¸Ļà¸Ħ à¸Ļà¸Ĺ
à¸ĩà¸²à¸Ļà¸ Ķ
à¸ģ à¸Ľà¸¥
à¸ļ à¸ļà¸£
à¸²à¸¢ à¸Ħà¸¥
o y
à¸Ńà¸ĩ à¹Ģà¸ª
à¸§à¸Ļ à¸Ń
à¸£ à¸©
à¸Ķ à¸ŀà¸¥
à¸Ļà¸ķ à¸°à¸Ľ
à¹Ģ à¸Ńà¸¡
à¸Ļà¸ķ à¸ģà¸Ĥà¸Ńà¸ĩ
à¸ģà¸²à¸£ à¸Ļ
or t
ĠS h
à¸Ī à¸Ļà¸ģà¸£à¸°à¸Ĺ
à¸Ń à¸Ļà¸ĺ
à¸¡ à¸Ńà¸¢
2 6
Ġ Z
à¸§ à¸Ļà¸Ļ
Ġà¸Ļ à¸²à¸ĩ
à¹ģà¸ªà¸Ķà¸ĩ à¹ĥà¸«
à¸ł à¸²à¸£à¸ģ
à¸¢à¸Ļ à¹Ħà¸Ķ
à¹Ĥà¸Ľ à¹ģà¸¥à¸Ļà¸Ķ
à¸Ħ à¸ĵ
ĠA r
à¸Ħà¸§à¸²à¸¡ à¹Ģà¸«
ĠP ro
à¸¢ à¹Ģà¸Ķ
à¸ļ à¹Ħà¸¥
à¹Ģà¸ĭ à¸Ł
à¹Ĥà¸Ľà¸£ à¸Ķ
à¹Ģà¸Ĭ à¸Ńà¸£
à¸Ļà¸ķà¸°à¸Ľ à¸²à¸Ľ
Ġà¹ģ à¸®
à¸²à¹ģ à¸Ĭà¸¡à¸Ľ
Ġ à¸łà¸²à¸ŀ
à¸ģà¸£à¸° à¸ļ
à¸¡ à¸«à¸Ļ
à¸Ńà¸ĩ à¸Ĭà¸²à¸¢
Ġà¹ĥà¸Ļà¸ «
à¹ģà¸ľ à¸Ļà¸ģà¸²à¸£
à¸įà¸« à¸²
2 9
o v
à¹ģà¸¥à¸° à¸Ĭ
à¸¡ à¹Ģà¸¥
Ġà¹ĥà¸Ļà¸ª à¸¡
à¸ĸ à¸¡à¸¨
à¸Ńà¸ģ à¹Ģà¸Ĥ
à¸¢à¸Ļ à¸ģ
à¸ģ à¹Ģà¸¡
à¸²à¸§ à¹Ħà¸Ķ
Ġà¹Ģà¸« à¸ķ
à¸ģà¸²à¸£ à¸Ĥ
à¹Ħà¸Ľ à¸ª
à¸ģà¸³ à¸Ī
à¸Ĥà¸Ńà¸ĩ à¸¢
Ġà¸Ł à¸£
à¸¢à¸ģ à¸ķ
à¹ģà¸¥à¸° à¸Ĥ
à¸Ļà¸Ħà¸£ à¸Ńà¸ĩà¸£à¸²à¸Ĭ
à¸Ńà¸Ļà¸¡ à¸ģà¸£à¸²à¸Ħà¸¡
à¸ļ à¸ŀà¸¥
à¸Ļ à¹ĥà¸Ĭ
à¸ķà¸£ à¸Ķ
Ġà¸Ħà¸³ à¸§
Ġà¹Ĥ à¸Ĺ
à¸ļà¸ģà¸²à¸£ à¸ķ
à¸Ĥà¸Ńà¸ĩ à¸ļ
à¹Ģà¸Ńà¸ģ à¸£à¸²à¸Ĭ
à¸Ļà¸²à¸¡ à¸§
à¹Ģà¸ŀà¸¥à¸ĩ à¸Ļ
à¸²à¸ĩ à¹Ĥà¸Ķà¸¢
à¸ªà¸«à¸£ à¸²à¸Ĭà¸Ńà¸²à¸ĵà¸²à¸Ī
à¸¢à¸ĩ à¹ģà¸Ħ
in d
à¸² à¹Ģà¸ķ
à¸¡ à¸łà¸²à¸©
à¸Ĳ à¸Ľà¸£à¸°à¸«à¸²à¸£
Ġà¹Ĥà¸Ķà¸¢ à¹Ħà¸¡
à¸«à¸²à¸£ à¸ª
à¸Ĺà¸£à¸ĩ à¹Ģà¸Ľ
à¹Ħà¸ĭ à¸Ķ
à¹Ģà¸Ľ à¸Ļ
à¹Ħ à¸Ńà¸£
à¹Ĥ à¸ģà¸£
à¹Ģà¸Ĺà¸¨ à¸ģà¸²à¸¥
Ġ253 8
à¸ĩà¹Ģà¸Ĺà¸ŀ à¸¯
à¸ķà¸£ à¸²à¸ģà¸²à¸£
Ġ200 4
à¸²à¸Ĥ à¸²à¸§
à¸ļà¸£à¸£ à¸¢à¸²à¸¢
à¸Ļà¸³ à¸¡
Ġ201 9
id e
à¹Ħà¸Ľ à¸£
à¸Ľà¸£à¸° à¸ģà¸²à¸£
à¸¡à¸² à¹ģà¸¥
à¸Īà¸ŀà¸£à¸° à¸ª
à¸Ļ à¸Ńà¸Ķ
à¸Ĥà¸Ńà¸ĩ à¹Ģà¸Ī
à¸ĭà¸² à¹Ģà¸ļ
Ġà¸ŀà¸§à¸ģ à¹Ģà¸Ĥ
à¸§à¸ĩ à¸ģà¸²à¸£
à¸ŀ à¸²à¸£
à¹Ĥà¸Ľà¸£ à¸Ķà¹Ģà¸ģà¸¥
à¹ĥà¸Ļà¸Ĥ à¸ĵà¸°à¸Ĺ
à¸ģà¸© à¸²à¸Ķ
3 5
à¸Ļà¸ģà¸²à¸£ à¹ģà¸Ĥ
à¹Ģà¸¢à¸²à¸§ à¸Ĭ
à¸« à¸²
à¹Ģà¸© à¸ģà¸ªà¸¡
à¸ļà¸£à¸²à¸Ĭ à¸ģà¸²à¸£
n d
à¹Ĥà¸¥ à¸§
à¹Ĥà¸¥à¸« à¸°
à¸¢à¸ĩ à¸Ħ
à¸Ĭà¸²à¸§ à¸ļ
à¸Ńà¸ĩà¸Īà¸²à¸ģ à¸¡
à¸Ķ à¹ģà¸«
à¸Ńà¸¡ à¹Ĥ
à¸²à¸¢ à¹Ģà¸¡
à¸ģà¸£ à¸§à¸²à¸¥
Ġà¹ģà¸¥à¸° à¹ĥà¸Ĭ
ĠC om
à¸Ļà¸ī à¸ļ
à¸Ķà¹ĥà¸Ļ à¹Ĥà¸¥à¸ģ
à¸ĩ à¹Ģà¸Ħà¸£
à¸¡ à¸²à¸Ĥà¸Ńà¸ĩ
à¸Ń à¸Ļà¸Ħ
à¹ĥà¸Ļà¸Ľ à¸£à¸°à¸§
Ġà¸Ļ à¸Ńà¸ģà¸Īà¸²à¸ģ
à¸ģà¸²à¸£ à¸Ľ
à¹Ħ à¸ķà¸Ļ
à¸Ńà¸¡ à¸£
à¸² à¹Ħà¸Ĺà¸¢
à¹Ģà¸ģà¸£ à¸²à¸°
Ġà¸ģà¸²à¸£ à¸Ĺ
à¸Ķà¹Ģà¸Ī à¸Ļ
à¸ļà¸§ à¸Ĭ
19 9
à¹Ģà¸Ī à¸Ļ
à¸¡à¸«à¸²à¸Ķ à¹Ħà¸Ĺà¸¢
à¸Ĥà¸Ńà¸ĩ à¸¥
à¸Ħà¸³à¸Ļà¸§ à¸ĵ
à¸ķ à¸¥
à¸ĩ à¹Ģà¸Ĥà¸ķ
à¸ļ à¸łà¸²à¸ŀà¸¢à¸Ļà¸ķà¸£
à¸²à¸ģ à¸¢
à¸ķà¸£ à¸ĩà¸Ĥ
à¸Ļà¸Ķ à¸£
à¸¡à¸²à¹Ģà¸¥ à¹Ģà¸ĭ
à¸Ħà¸§à¸²à¸¡ à¹ģà¸ķà¸ģà¸ķ
à¸Ń à¸ķà¸²à¸¡
à¸¨ à¸¥
à¸²à¸Ľ à¸ı
à¸´ "
à¹Ħà¸Ľ à¸Ńà¸¢
à¸Īà¸° à¸Ī
à¸ģ à¸Ĭà¸Ļ
à¸²à¸ĩ à¸Ĭà¸²à¸ķ
à¸ªà¸²à¸¡à¸²à¸£à¸ĸ à¹ĥà¸Ĭ
à¸²à¸Ļà¸Ķ à¸Ńà¸¥à¸¥à¸²à¸£
à¹ĥà¸Ļ à¸£à¸°à¸ļà¸ļ
à¸ļà¸ģà¸²à¸£ à¸Ī
à¸Ļ à¹ĥà¸Ļà¸ª
à¸£à¸²à¸Ĭ à¸ĺà¸²à¸Ļ
à¹ģà¸¥à¸° à¹Ħà¸¡
Ġà¹ģà¸¥à¸° à¸¥
Ġ7 0
Ġà¸ļ à¸²à¸ĩ
Ġà¹Ģà¸Ĥ à¸²à¸¢
à¸ª à¸ĩà¸ļ
à¸²à¸ĺà¸²à¸£à¸ĵ à¸ª
à¸ļ à¸Ħà¸³
à¸Ńà¸Ļà¸ŀ à¸¤à¸©à¸łà¸²à¸Ħà¸¡
à¸ĩ à¹ĥà¸Ļà¸ģà¸²à¸£
à¸£à¸°à¸ļ à¸§à¸Ļ
à¸Ļà¸Īà¸° à¸¡
Ġ à¸«à¸¥à¸²à¸¢
à¸Ħ à¸ģ
à¸¢ à¸Ļà¸ļ
à¹Ħ à¸«
à¸²à¸ĩ à¹Ģà¸¡
à¸¨ à¸¡
Ġà¹ģ à¸ĭ
Ġà¸ŀà¸£à¸£ à¸©à¸²
à¸Ĺà¸³ à¸Ļ
à¸Ķ à¸«à¸¥
à¹ģà¸¥à¸° à¸¥
à¸Ľ à¸²à¸£
à¹Ģà¸Ĺ à¸Ļà¹Ģà¸¡
Ġ3 5
à¸ŀ à¸Īà¸Ļ
à¹Ģà¸Ħ à¸²à¸£
à¸¡ à¸ĩà¸ģ
à¸Ħ à¸Ńà¸£
à¸²à¸Ń à¸²à¸§à¸²à¸ª
à¹Ħà¸Ľ à¹ģà¸¥
Ġà¸ª à¸¢à¸²à¸¡
Ġà¸ĸ à¸Ļ
à¸ŀà¸Ń à¹ĥà¸Ī
à¹Ħà¸Ľ à¹Ħà¸Ķ
à¸ĩ à¹Ĩ
Ġà¹ģà¸¥à¸° à¸ģà¸¥
à¸Ļ à¹Ģà¸§
à¸§ à¸²à¸ª
Ġà¸Ħ à¸Ļà¸Ĺ
à¸§ à¸Ļà¸ģ
à¸¨ à¹Ģà¸«à¸Ļ
Ġ re
à¸Ļà¹Ħ à¸«à¸§
à¸ģ à¸Īà¸²à¸ģ
à¸²à¸Ļ à¹Ģà¸£
à¸Ĳ à¸Ń
Ġà¸ª à¸Ļà¸²à¸¡
it h
à¸ļà¸ļà¸Ĺ à¹Ģà¸Ľ
à¸Ļà¸ķ à¸£à¸ĩ
à¸²à¸ª à¸²à¸£
à¸ķà¸£ à¸²
à¸ģà¸² à¹ĥà¸ķ
Ġ200 0
Ġà¸ļ à¸²à¸£
à¸Ļà¹Ģà¸ŀ à¸£à¸²à¸°
Ġà¸ģà¸£à¸° à¸Ĺà¸£à¸§à¸ĩ
7 0
à¸ķ à¹ģà¸¥à¸°
à¸ŀà¸£ à¸«à¸¡
à¸ģà¸Ńà¸ĩ à¸ģà¸³à¸¥
à¸ļ à¸Ľà¸£à¸°à¹Ģà¸Ĺà¸¨
à¸įà¸į à¸²à¸ģ
à¸Ńà¸¡ à¸¡
à¸Īà¸³ à¸¥à¸Ńà¸ĩ
Ġ19 0
à¸² à¹Ĥà¸¡
à¸Ķ à¹Ģà¸Ĺ
à¸²à¸ĩ à¹Ħà¸£
à¸ķà¸³ à¸«à¸Ļ
à¸²à¸Ńà¸²à¸ģà¸²à¸¨ à¸¢à¸²à¸Ļ
à¸ĩ à¸Ľà¸£
à¸ªà¸£ à¸²à¹Ģà¸Ńà¸¥
à¸¡ à¹Ģà¸ŀ
à¸Ńà¸¡à¸² à¹Ģà¸¡
à¸« à¸²à¸Ķ
à¸Ħà¸§à¸²à¸¡ à¸Ļ
à¸Ľà¸£à¸°à¸ª à¸ļà¸ģà¸²à¸£à¸ĵ
Ġf or
à¸ķ à¹Ħà¸Ķ
à¹Ħà¸Ľ à¹Ģà¸Ľ
à¸²à¸ķ à¸²à¸¡
à¸Ļà¹Ĥ à¸Ħà¸£
à¹ĥà¸Ļà¸Ĺ à¸§
à¸Ľà¸£à¸°à¸ģà¸²à¸¨ à¸§
à¸³à¸Ļ à¸²à¸Ī
w ard
à¸£à¸§ à¸ļà¸£à¸§à¸¡
à¸ģà¸ª à¸²à¸§
à¹Ģà¸® à¸Ļà¸£
à¸Ń à¸²à¸Ļ
à¸Ķ à¸¢à¸Ńà¸Ķ
à¸§à¸¢ à¸ĩà¸²à¸Ļ
à¸Ńà¸ĩ à¸«à¸¡à¸²à¸¢
à¸Ħ à¸Ļà¸Ń
à¸Ļ à¹Ģà¸«à¸¥
à¸ģ à¸¤à¸Ķ
à¸ĩ à¹ģà¸ļà¸ļ
à¸²à¸ª à¸£
à¸Ļ à¹Ģà¸ģà¸¡
à¸²à¸ģ à¸£à¸¡
Ġà¹ĥà¸Ļà¸ ¢
i z
à¸¡ à¹Ģà¸Ń
Ġà¸ª à¸ĸà¸²à¸ļ
à¸Ħà¸¥ à¸Ńà¸ĩ
à¸Ħà¸ĵà¸° à¸£
à¸Ń à¸ŀà¸¢à¸ŀ
à¸Ķ à¹ģà¸£à¸ģ
Ġà¸ª à¸ģ
à¸§à¸¢ à¸Ĭ
à¸²à¸Ļà¸Ħ à¸§à¸²à¸¡
à¸¡à¸° à¹Ģà¸£
à¸Ĩ à¸²à¸ķ
à¸¥à¸° à¸ķ
à¹ĥà¸Ļ à¸£à¸°à¸¢à¸°
à¸²à¸¢ à¸Ĥ
Ġà¹Ĥà¸Ķà¸¢ à¸ķ
à¸ĩà¸Ħ à¸²à¸£
Ġà¹Ģà¸Ħ à¸¢
à¹ģà¸¥à¸° à¸ĸ
à¸ļà¸ª à¹Ĥà¸¡à¸ªà¸£
à¸Ļà¸Ĺ à¸£à¸ĩ
à¸¢à¸ĩ à¹Ģà¸Ľ
25 5
Ã ©
à¸Ńà¸¢ à¸ª
à¸Ĭ à¸Ļà¸Ļ
à¸Ļà¸Ķ à¸²
à¸Ļà¸ģ à¸³à¹Ģà¸Ļ
à¸Ľà¸£à¸°à¸¡ à¸§à¸¥
à¸Ńà¸ĩ à¹Ģà¸Ĥ
à¸Ń à¹Ģà¸Ĭ
à¸³ à¹Ģà¸ĩ
Ġà¹ĥà¸Ļ à¸Ļ
or ld
à¸ªà¸ĸ à¸²à¸Ļà¸°
à¸ĺà¸£à¸£à¸¡ à¸£à¸²à¸Ĭ
à¸²à¸ĩà¸ª à¸£à¸£à¸Ħ
Ġà¹ģ à¸Ł
Ġà¸ķà¸¥à¸Ńà¸Ķ à¸Ī
à¸¢ à¸Ļà¸Ķ
à¸ŀ à¸Ļà¸ĺ
Ġà¸Īà¸° à¹Ħà¸Ķ
à¸Ķà¸³ à¸£
à¸ģà¸£ à¸Ĺ
ic e
Ġà¹Ĥà¸Ķà¸¢ à¸ľ
à¸Ń à¹Ģà¸ŀà¸¥
Ġà¸ķà¸²à¸£ à¸²à¸ĩà¸ģ
à¸ĩ à¸Ľà¸£à¸°à¹Ģà¸Ĺà¸¨
à¹ģà¸¥à¸° à¸ģ
Ġà¸ģà¸²à¸£ à¸ª
à¸Ńà¸ĩà¸ģ à¸ĩ
Ġ à¸§à¸ĩà¸¨
à¸Ļà¸ķ à¸³à¹ģà¸«à¸Ļ
à¹Ģà¸§ à¸Ĭ
à¸£ à¸ĵà¸°
à¹ĥà¸Ļà¸ģà¸²à¸£ à¸Ī
am p
Ġà¹ĥà¸Ļà¸ł à¸²à¸©
à¸£à¸° à¸¥
à¸£ à¸ŀ
à¸ĩà¸ª à¸«à¸£
a i
à¸ļ à¹Ģà¸Ń
à¸ªà¸° à¸ŀ
à¹Ģà¸Ńà¸ģ à¸ĭ
à¸Ńà¸ĩ à¸Ľà¸ı
à¸²à¸¡ à¸«à¸²à¸§
à¸Ĺà¸²à¸ĩ à¸ķà¸Ńà¸Ļ
à¸³ à¹ģà¸Ĥ
à¸Ļ à¹Ģà¸ĩ
à¸Ī à¸Ńà¸«
à¸Ķ à¹Ģà¸ª
à¸Ľ à¸Ļ
Ġà¹Ĥ à¸®
à¹Ģà¸ªà¸Ļà¸Ń à¸Ĭ
ag e
à¸Ķ à¹ĥà¸«à¸¡
à¹Ģà¸¡ à¸Ļà¸ķ
à¸Īà¸²à¸ģ à¸Ń
à¸²à¸«à¸¥ à¸§à¸ĩ
à¸²à¸Ļà¸ķ à¸°à¸§
à¹Ħ à¸ª
à¸¡ à¸ģà¸²à¸£
à¸Ī à¸²à¸£
à¸¥à¸° à¸¥à¸²à¸¢
à¸Ķ à¹Ģà¸«à¸ķ
à¸ģ à¸ł
à¸ŀ à¸Ļà¸¡
à¸Ńà¸ĩ à¸Ł
à¸¥à¸ĩ à¸Ļà¸²à¸¡
à¸Ńà¸Ļà¸ŀ à¸¤à¸¨à¸Ī
à¸Ń à¹Ģà¸¢
à¸Ĺà¸³ à¸£
à¸£à¸²à¸¢ à¸¥à¸°à¹Ģà¸Ń
is s
à¸«à¸¥à¸§à¸ĩ à¸ŀ
Ġà¸Ķ à¸²à¸§
à¸ģà¸£à¸° à¸ª
à¸Ļ à¸ĩ
à¸į à¸Ĭà¸²à¸ķ
à¸ĩà¹ģà¸£à¸ģ à¸Ĺ
à¸¢à¸ĩ à¸Ĥà¸Ńà¸ĩ
Ġ24 4
à¸¢ à¸Ļà¸Ĥ
à¸ķ à¹Ģà¸Ľ
à¹Ħà¸Ľ à¸ģ
à¹Ģà¸ľ à¸Ĭ
à¸ģà¸ļ à¸ı
à¸ģà¸³à¸«à¸Ļà¸Ķ à¹ĥà¸«
à¸Ļ à¹Ĥà¸ķ
à¸Ńà¸Ł à¸ķ
Ġà¹ģà¸¥à¸° à¹ĥà¸«
à¸Ļà¸ª à¸²à¸£
à¸²à¸Ļ à¸²à¸Ĭà¸²à¸ķ
Ġà¹Ĥà¸Ķà¸¢ à¸ª
à¸Ļà¸«à¸¡à¸²à¸¢ à¹Ģà¸¥à¸Ĥ
Ġà¹Ĥà¸Ķà¸¢ à¹ĥà¸«
à¸ļà¸Ħà¸§à¸²à¸¡ à¸£
à¸§ à¸Ľà¸£à¸°à¹Ģà¸Ĺà¸¨
à¸²à¸ĩ à¸Ńà¸¢
o ve
à¸¢ à¸Ĥ
à¹Ħ à¸«à¸Ļ
à¸Ļ à¸Ńà¸ģà¸Īà¸²à¸ģ
Ġd e
à¸Ķ à¸ŀà¸£à¸£à¸Ħ
à¸Ĺà¸¢à¸² à¹Ģà¸Ĥà¸ķ
à¸Ńà¸³à¸Ļà¸§ à¸¢
à¸ĩ à¸Ļà¸³
à¸Ĺà¸¢à¸²à¸Ļ à¹ģà¸«
Ġà¸Ń à¸²à¸¢
à¸²à¸ŀ à¸£à¸£à¸Ħ
à¸Ľà¸¥ à¸²
id ae
à¸«à¸¥ à¸²à¸Ķ
à¹ģà¸ģà¸£ à¸Ļà¸Ķ
à¹Ģà¸Ķ à¸¥
à¸įà¸į à¸²à¹Ĥà¸Ĺ
a w
à¸ĩ à¸Ŀ
à¸§ à¹Ģà¸¥à¸Ĥ
à¸ģ à¹Ħà¸§
à¸Ńà¸ª à¸ķ
à¸Ļà¸ķà¸£ à¸²à¸¢
ĠW WE
à¹Ĥ à¸£à¸°
à¹Ĥ à¸¢à¸ļ
à¸ģà¸£ à¸Ńà¸ļ
à¸Ńà¸²à¸Ī à¸¡
Ġ254 1
à¸²à¸Ĭ à¸²à¸§
à¸ģà¸² à¹Ģà¸«à¸Ļ
Ġà¸Īà¸° à¸ķ
à¸¢à¸Ļ à¸Ń
Ġ199 0
u g
à¹ĥà¸Ļà¸ģà¸²à¸£ à¸ª
à¹ģà¸¥à¸° à¸ļ
Ġà¸Ķ à¸¢
à¸²à¸¢ à¸«à¸Ļ
à¸Ļà¸£ à¸²à¸ĩà¸§
à¸Ļà¸ ¤à¸Ķ
à¸Ħ à¸ª
à¸²à¸¢ à¸¡à¸²à¹Ģà¸Ľ
à¸¨ à¹ĥà¸ķ
à¸Ľà¸£à¸²à¸ģà¸ı à¸ģà¸²à¸£à¸ĵ
à¸£à¸²à¸Ĭ à¸ª
on t
Ġà¸Īà¸° à¹Ģà¸Ľ
à¸¡à¸²à¸£ à¸Ķà¸²
à¸Ļà¸ª à¸ĸà¸²à¸Ļ
à¸Īà¸ŀà¸£à¸° à¸ŀ
Ġà¸ªà¸²à¸Ĥ à¸²à¸§
à¸¨ à¸Ĺà¸²à¸ĩ
Ġà¸¢ à¸²à¸§
Ġà¸ŀà¸£à¸° à¸Ļà¸²à¸ĩ
à¸Ľà¸£à¸°à¸ģà¸§ à¸Ķ
Ġà¹ģà¸¥à¸° à¹Ģà¸ŀ
à¹ģà¸ªà¸Ķ à¸ĩà¸Ĺ
à¸Ĥà¸Ńà¸ĩ à¸ķà¸Ļ
Ġà¹ģ à¸ģà¸£
Ġà¹ģà¸¥à¸° à¸«à¸¥
à¸ģà¸© à¸°
à¸²à¸ģ à¸Ĺ
Ġà¸ª à¸²à¸£
à¸¡ à¹ĥà¸«
à¹Ĥ à¸«
à¹ĥà¸Ļ à¸ģ
à¸²à¸Ľà¸£à¸° à¸¡à¸²à¸ĵ
à¸¥ à¸Ńà¸¢
à¸Ĥ à¸Ļ
à¸¢à¸ĩ à¸£à¸²à¸¢
Ġà¹Ĥ à¸Ĭ
oc k
à¸Ļà¸« à¸¢
or e
à¸ŀà¸£à¸° à¹Ģà¸ģ
à¸¡à¸ŀ à¸£
à¹ĥà¸Ļà¸§ à¸ĩà¸ģà¸²à¸£
à¸²à¸¡ à¸§
à¹ģà¸Ĥ à¸§à¸ĩ
à¸²à¸ļ à¸Ĺ
à¸ķ à¸¡
à¸£à¸²à¸Ĭ à¸¢
Ġ9 0
à¸Ķ à¹Ģà¸Ĥ
à¸° à¸ªà¸¡
Ġ253 7
à¸§ à¹ĥà¸«
Ġ à¹Ĥà¸Ķ
Ġà¹ģà¸¥à¸° à¸«
à¸§à¸¡ à¸ģà¸²à¸£à¹ģà¸Ĥ
à¸Ľ à¸¢
à¸ģà¸©à¸ĵà¸° à¸Ĺ
à¸ķ à¸ľ
à¸Ľà¸£ à¸¡
à¸²à¸Ľ à¸¥
à¹Ĥà¸£à¸ĩ à¹ģà¸£à¸¡
à¸Īà¸° à¸Ĺà¸³
à¸Ļ à¹Ħà¸Ĺà¸¢
à¸£à¸© à¸°
à¸Ļ à¹Ħà¸§
à¸Ļà¸ģà¸²à¸£ à¸Ĺ
à¸²à¸Ļ à¸Ńà¸¢
Ġà¸¨ à¸²à¸¥
à¸ĩ à¸§à¸ĩ
à¹Ģà¸Ĥ à¸²à¹Ģà¸Ľ
à¸ĩ à¸Īà¸°à¸¡
à¸ĩ à¹ĥà¸Ļà¸Ĭ
à¸§ à¸Ļà¸ľ
à¸²à¸ĺ à¸£à¸£à¸¡
à¸Ħ à¸Ńà¸¢
à¸Ħà¸§à¸²à¸¡ à¹Ģà¸Ĥ
à¸ģ à¹ĥà¸«
à¸Ĺ à¸¤à¸©à¸İ
Ġs t
à¸ļ à¸ªà¸¡
à¸²à¸ª à¸ª
à¹Ģà¸Ĺà¸¨à¸ļà¸²à¸¥ à¸ķà¸³à¸ļà¸¥
à¸Ħà¸§à¸²à¸¡ à¸Ķ
à¹Ģà¸« à¸§
Ġà¸ģà¸²à¸£ à¸ķ
à¸ļ à¹ģà¸¡
à¸Ħ à¸Ĭ
à¸ĩ à¹Ģà¸ķ
à¸§à¸ĩ à¸ªà¸ĩà¸Ħà¸£à¸²à¸¡
ar k
à¸Ļà¸Ľà¸£à¸° à¸ª
à¹Ģà¸Ī à¸Ķ
à¹Ģà¸¢ à¸ĭ
un d
à¸łà¸²à¸©à¸² à¹Ħà¸Ĺà¸¢
à¸Ńà¸Ļà¸ģà¸£ à¸ģà¸İà¸²à¸Ħà¸¡
à¸Ĥ à¸Ń
à¸Ĥà¸Ńà¸ĩ à¸ĭ
à¸²à¸Ļà¸Ľ à¸£à¸°
m e
à¸ģ à¸Ĺà¸³à¸¥à¸²à¸¢
à¸ģà¸¥à¸²à¸ĩ à¹Ģà¸¡
à¸ļ à¹Ģà¸ĩ
à¸Ńà¸Ļ à¸Ńà¸¢
à¸Ĭà¸Ĺ à¸²à¸¢à¸²à¸Ĺ
à¸ļ à¹Ģà¸Ľà¸¥
à¸¢ à¸£à¸²à¸Ĭ
à¸«à¸Ļ à¸²à¹ģà¸Ļ
à¸¢à¸ĩ à¸Ī
à¹ģ à¸ļà¸Ħ
à¸Ħ à¸°à¹ģà¸Ļ
à¸² à¹ģà¸ķ
à¸¡ à¸Ŀ
à¸²à¸Ľà¸£à¸° à¸Īà¸³
à¸ģà¸£ à¸Ķ
à¸ĩà¸ķ à¸°à¸§
à¹Ĥà¸Ĺà¸£ à¸¨
9 0
à¹Ģà¸Ĺ à¸£
à¸¢à¸ģ à¸Ĺ
à¸Ļà¸Ķ à¸²à¸§
à¸Ļ à¸¥à¸ĩ
h n
à¸ª à¸Ńà¸Ķ
à¹Ģà¸¥à¸Ĥ à¸²à¸ĺ
à¹Ģà¸Ļ à¹Ģà¸ĺà¸Ńà¸£
à¸ĩà¸Ĺ à¸«à¸²à¸£
à¸Ĥà¸Ńà¸ĩ à¹Ģà¸¡
à¸¢à¸ĩ à¸£
à¸Ńà¸Ļ à¹Ģà¸Ķ
à¹Ģà¸§à¸¥ à¸²à¸Ĺ
à¸Īà¸° à¸Ńà¸¢
à¸ªà¸£ à¸ĵ
à¸ļà¸ģà¸²à¸£ à¹ģà¸ķ
à¸Ńà¸ķ à¹ģà¸¥à¸Ļà¸Ķ
à¸ļà¸²à¸ĩ à¸Ħà¸£
Ġà¸ģà¸²à¸£ à¸Ī
à¹ģà¸ªà¸Ķà¸ĩ à¸§
en ce
i es
à¸Ĺà¸²à¸ĩ à¹Ģà¸ŀà¸¨
Ġà¹ģà¸¥à¸° à¸ªà¸²à¸¡à¸²à¸£à¸ĸ
à¸Ńà¸Ńà¸ģ à¹Ģà¸ª
à¸ŀà¸£à¸° à¸¡à¸«à¸²à¸ģà¸©
Ġà¸ļ à¸²à¸ĩà¸Ħà¸£
à¸Ńà¸¡ à¸Ļ
à¹ģà¸ªà¸Ķ à¸ĩà¸ª
à¸ķà¸ļà¸Ńà¸¥ à¹Ĥà¸¥à¸ģ
à¸Ĥà¸Ńà¸ĩ à¸Ľ
à¸Ń à¸®
à¸²à¸ļ à¸Ķ
à¸Ļà¸ į
à¸Ľà¸£ à¸²à¸¡
à¸ĵà¸° à¹Ģà¸Ķ
as e
s s
à¸ª à¸Ħ
Ġ253 4
à¸¨ à¸ģ
Ġ à¸Ħà¸§
à¹ģ à¸ĩ
à¸Ĥà¸Ńà¸ĩ à¹Ģà¸£
Ġà¹Ģà¸ģ à¸²à¸°
à¸Ńà¸ĩà¸ª à¸²à¸§
à¸²à¸Ī à¸Ńà¸¡
à¸³ à¹Ģà¸ŀ
à¸²à¸ĩ à¹ģà¸¥à¸°
à¸ª à¸Ļà¸ĺ
à¹Ĥà¸ĭ à¸Ļ
à¸Ī à¸Ńà¸£
à¸Ľà¸£ à¸²à¸ģà¸²à¸£
à¸ļ à¹ģà¸¥à¸°
à¸Ī à¸²à¸Ħ
à¸Ĭ à¸ģà¸²à¸¥
à¸¢à¸ĺà¸£à¸£à¸¡ à¸¨à¸²à¸ªà¸ķà¸£
à¸²à¸ģ à¸£à¸£à¸¡
à¸ĩà¹ģ à¸ģà¸£
à¸Ĥà¸Ńà¸ĩ à¸ģ
à¸ģà¸²à¸£à¸Ĺ à¸Ķà¸¥à¸Ńà¸ĩ
à¹Ħ à¸Ĭ
à¸Ķà¸ģà¸²à¸£ à¸Ĺ
âĢ Ļ
à¸¡ à¹ģà¸¡
à¸§ à¹Ģà¸¥
à¸Ńà¸ķ à¸ģà¸¥
à¸Ħà¸Ļ à¹ģà¸£à¸ģ
à¸§ à¸Ļà¸ļ
à¸Ļà¹ģ à¸Ļà¸¥
à¸Ĺà¸£à¸ĩ à¸¡
à¸Ļà¸Ĺ à¸«à¸²à¸£
à¸Ń à¸Ĺà¸³
à¸ķà¸£ à¸ģà¸£à¸£à¸¡
à¸ļà¸£ à¸Ńà¸ļ
Ġà¹Ĥà¸Ķà¸¢ à¸ģà¸²à¸£
à¸ŀà¸¥ à¹Ģà¸£
à¸Ķà¸²à¸§ à¸Ļ
à¸Ľà¸£à¸°à¸ª à¸²à¸Ļ
à¸¡ à¹Ģà¸£
Ġà¹Ģà¸Ĥ à¸²à¸ģ
à¸¢à¸ļ à¹Ģà¸£
à¸Ľ à¸°
à¸¢à¸ĩ à¸Ĥ
à¸§ à¸²à¸Ļ
à¸ģà¸©à¸ĵà¸° à¸Ħà¸¥
Ġà¸Ń à¸°
à¸£à¸²à¸Ĭ à¸Ĺ
Ġà¸ŀà¸£à¸° à¸ŀ
à¹Ħ à¸«à¸¡
à¸² à¹Ģà¸ļ
à¸Ńà¸Ļ à¹Ħà¸Ķ
à¸ľà¸¥ à¸Ĺ
à¸Ńà¸Ļà¹Ģà¸¡ à¸©à¸²à¸¢à¸Ļ
à¸ķ à¹Ĥà¸Ļà¸¡
m an
à¸ģ à¹Ģà¸Ĭ
à¸ķ à¸Ķ
à¸Ńà¸ĩ à¸¡à¸²à¸Īà¸²à¸ģ
à¸ģà¸© à¸²à¸ª
à¸²à¸Ń à¸ĩà¸Ħ
à¹ĥà¸Ķ à¹Ĩ
r ic
à¹Ĥà¸¡ à¹Ģà¸¥à¸ģ
à¸¢à¸§ à¸ļ
i v
à¸ª à¸Ń
à¸ļ à¸²à¸ģ
à¸Ļà¸¡ à¸²à¸Īà¸²à¸ģ
à¸Ļà¸Ķà¸²à¸¥ à¹ĥà¸Ī
à¸Ķ à¹Ĥà¸Ķà¸¢
à¸³ à¸ŀ
à¸Ħ à¸¡à¸Ļà¸²à¸Ħà¸¡
à¹Ĥ à¸Īà¸£
Ġ3 2
à¹Ĥà¸ĭ à¸¥
à¹Ĥ à¸ŀà¸¥
à¸¢ à¸¢à¸¨
Ġ5 00
à¸ģ à¹Ģà¸ļ
Ġà¸ŀà¸£à¸° à¸ļà¸£à¸¡à¸£à¸²à¸Ĭ
à¸¢ à¸Ļà¸Ħ
à¸²à¸¨ à¸²à¸¥
à¸ķà¸£ à¸²à¸ª
à¸Ļà¸Ħà¸£à¸Ńà¸ĩà¸£à¸²à¸Ĭ à¸¢
à¸Ļà¸ģà¸²à¸£ à¸¨
à¸²à¸ĩ à¹Ħà¸Ķ
à¹Ħà¸Ĥ à¸¡
à¸ģà¸Ĺà¸£ à¸Ńà¸Ļ
à¸Ļ à¹ĥ
à¸Ļ à¸ģà¸©
à¸£à¸§à¸¡ à¸ķ
à¸ģà¹Ģà¸ģ à¸Ńà¸£
à¸Ńà¸ĩ à¹ĥà¸Ļ
à¸§ à¸Ļà¸³
à¸¢à¸ĩ à¸ŀ
à¸Ļà¹Ħà¸Ľ à¸ķà¸²à¸¡
à¸¡à¸Ńà¸ĩ à¹Ģà¸«
à¸Ńà¸ĩ à¸Ļà¸³
Ġà¹ĥà¸Ļ à¸£à¸°à¸«à¸§
à¸ļà¸£à¸£ à¸Ķ
à¸ĩà¹ģà¸£à¸ģ à¹ĥà¸Ļà¸Ľ
Ġà¸Ľà¸£à¸° à¸ĺà¸²à¸Ļ
à¸¥ à¸ŀ
à¸ķ à¸ļ
à¸Ńà¸Ļ à¹Ħà¸Ĥ
à¸ļà¸ģà¸²à¸£ à¸ŀ
à¸¢ à¹ģà¸«
à¹Ģà¸§ à¸Ļ
m er
à¸Ħ à¸²à¸¡
Ġà¸ģà¸²à¸£ à¹ĥà¸Ĭ
à¸ģà¸© à¸²à¸§
à¸Ľ à¸ģà¸Ľ
à¸Ńà¸ĩà¸ģà¸²à¸£ à¹ĥà¸«
à¸Ľ à¹Ģà¸Ľ
à¸²à¸ĩ à¹Ģà¸£
à¹Ħà¸Ł à¸¥
à¸²à¸£à¸° à¸«à¸§
à¹Ħ à¸Ĺà¸£
à¸²à¸« à¸²à¸ģ
à¸Ĥà¸Ńà¸ĩ à¸ģà¸¥
à¸¢à¸Ńà¸Ķ à¸Ĥà¸²à¸¢
à¸± à¹Ĭ
5 00
à¸Ļà¸ª à¸£
à¸ľà¸¥ à¸ķ
à¸ĺ à¸Ĺ
à¸¡ à¹Ģà¸¡
à¸¢à¸ĩ à¸¥
Ġ &
à¸Ļà¸Ń à¸²à¸Ĺ
Ġ253 6
à¸Ĳà¸²à¸Ļà¸° à¹Ģà¸Ľ
. "
à¸¡ à¸ŀà¸¥
à¹ĥà¸Ļ à¸£à¸²à¸¢à¸ģà¸²à¸£
à¸Ń à¹Ħà¸Ĺà¸¢
à¸Ļà¸ķ à¸Ńà¸Ļ
à¸ŀà¸£à¸° à¸ļ
Ġà¸Ħ à¸°à¹ģà¸Ļà¸Ļ
à¸Ļà¸Ĭ à¸Ļ
à¸Ľ à¸Ĳà¸¡
Ġà¹Ĥà¸Ķà¸¢ à¸£
à¹ģà¸«à¸¥ à¸¡
i o
Ġ200 2
à¸Ķ à¸Ńà¸Ńà¸ģ
à¸²à¸Ľ à¸£à¸°à¹Ģà¸Ĺà¸¨
à¹Ģà¸Ńà¸ĩ à¸ģ
à¸£à¸²à¸Ĭ à¸ªà¸¡à¸ļ
à¸¡ à¸Ńà¸£
à¸ļ à¸ŀà¸£à¸°à¸£à¸²à¸Ĭà¸Ĺ
à¸¢à¸¡ à¸«
Ġ24 3
ĠS p
à¸ģà¸© à¸²à¸ģà¸²à¸£
à¸Ń à¸Ĺà¸²à¸ĩ
à¹ģà¸¢à¸ģ à¸ķ
Ġ200 3
à¸ª à¹Ħà¸Ķ
à¸§à¸ĩ à¹ģà¸£à¸ģ
à¸Ļà¹Ĥà¸¢à¸ļ à¸²à¸¢
à¸Ķ à¹Ģà¸ŀ
à¸ĩà¹Ģà¸Ľ à¸¥
à¸Ļà¸ľ à¸¥à¸ĩ
à¸Ī à¸Ķ
à¸ļà¸Ńà¸ģ à¸§
à¹ģà¸® à¸£
à¸Ħà¸Ńà¸Ļ à¹Ģà¸ª
à¸Ħ à¸Ļà¸«à¸Ļ
à¹Ģà¸Ī à¸²à¸°
à¸²à¸¨ à¸£
Ġ à¸į
à¸ĩ à¸£à¸°à¸«à¸§
à¸« à¸Ľà¸£à¸°à¸Ĭà¸²à¸Ĭà¸²à¸ķ
à¸ĩà¸£ à¸²à¸ĩà¸§
Ġà¸£à¸§à¸¡ à¹Ħà¸Ľà¸ĸ
à¸Ļà¸ģ à¸³à¸¥
C h
à¸´ )
à¸¢à¸į à¸Ĺà¸Ńà¸ĩ
à¸Ħ à¸²
à¸§ à¸ŀ
à¸ķà¸£ à¸ģà¸£
à¸Ļà¸Īà¸° à¸ķ
a h
à¹Į âĢĿ
à¸Ń à¹Ģà¸ķ
à¹ģ à¸§
à¹ģ à¸Ńà¸ļ
à¸Ļà¸£ à¸Ńà¸ļ
à¸ģà¸Ķ à¸Ļà¸ķà¸£
à¸¥ à¹Ħà¸Ķ
ni vers
à¸Ń à¸Ļà¸ĭ
à¸ŀ à¸Ńà¸²à¸ģà¸²à¸¨
à¸³ à¹Ģà¸Ľ
à¸Ħà¸£ à¸ļ
à¸Ļ à¹Ģà¸Ħ
à¸Ńà¸¢ à¸¡
à¸ļ à¸Ł
à¸Ĳ à¸Ĺ
à¸§à¸ĩ à¸Ľà¸¥à¸²à¸¢
à¸²à¸Ń à¸²à¸Ī
à¸²à¸¡ à¸«
Ġà¸Ľ à¸ı
Ġà¸ķà¸²à¸¡ à¸¥à¸³à¸Ķ
à¸Ļà¸Ħ à¸§
à¸Ļà¸ł à¸²à¸¢
à¸ª à¹Ĥà¸ķ
à¸Ļà¸¢ à¸Ńà¸Ķ
à¸²à¸¢ à¸Ĭ
à¹ĥà¸Ļà¸ª à¸ĩà¸Ħà¸£à¸²à¸¡
à¸²à¸ĩà¸Ń à¸²à¸Ħà¸²à¸£
à¸ļ à¸«à¸¡
à¸²à¸Ħ à¸¥
à¸Ļà¸« à¸į
à¸£ à¸«
à¸Ļà¸Ń à¸²à¸Ħà¸²à¸£
à¸ªà¸¡ à¸£à¸ª
Ġà¸Ī à¸ļà¸ģà¸²à¸£à¸¨
à¹ģà¸Ħà¸Ļ à¸²à¸Ķà¸²
à¸Īà¸° à¸ŀ
à¸Ħà¸£à¸Ńà¸ļ à¸Ħà¸¥
à¸Ľà¸¥à¸Ķ à¸Ľà¸¥
à¸¢ à¹Ģà¸£
à¸Ńà¸Ļ à¹ĥà¸«
à¸ģà¸ĭ à¸²à¸Ļ
à¹ģà¸ĸ à¸¥à¸ĩ
à¸ģà¸²à¸£ à¹Ģà¸Ķ
Ġ253 3
Ġà¹Ĥ à¸Ń
r in
Ġ à¸Ľà¸£à¸°à¸ģà¸²à¸¨
à¹ĥà¸Ļ à¹Ģà¸Ħà¸£
à¹Ģà¸Ī à¸Ńà¸ģ
à¹Ģà¸§à¸ĵ à¸Ļ
à¸į à¹ĥà¸Ļà¸ģà¸²à¸£
à¸Ľà¸£à¸° à¸«à¸¥à¸²à¸Ķ
à¸Ń à¸Ļà¸³
à¸Ń à¸Ļà¸Ľà¸¥à¸²à¸¢
9 9
à¸ĩ à¹Ģà¸ļ
à¹ģ à¸«à¸§
à¸²à¸ĩ à¸ĭ
à¸Ľà¸ģà¸Ħà¸£ à¸Ńà¸ĩà¸ª
à¹Ģà¸ģ à¸ĵà¸ĳ
à¸ģ à¹Ģà¸Ĺ
an ce
à¹Ħ à¸ģà¸£
à¹ģà¸¥ à¸ģà¹Ģà¸Ľà¸¥
à¸«à¸¥ à¸²à¸ļ
à¹Ģà¸Īà¸£ à¸Ī
à¹Ģ à¸Ļà¸ķ
à¸Ńà¸¢ à¸¥à¸ĩ
à¸Īà¸²à¸ģ à¸ª
à¸Ń à¸Ļà¸«à¸¥
à¸łà¸²à¸ŀ à¸Ĥà¸Ńà¸ĩ
à¹ģà¸ļà¸ļ à¸Ĺ
à¸Ńà¸° à¸ķ
à¸ĩà¸Ħ à¸ĩà¸¡
Ġà¹Ĥà¸Ķà¸¢à¹Ģà¸īà¸ŀà¸²à¸° à¸Ńà¸¢
à¸ĩ à¸£à¸²à¸Ĭà¸§à¸ĩà¸¨
ti ng
à¸ļà¸²à¸ĩ à¸Ńà¸¢
à¸Ī à¸į
à¸ģà¸© à¸²à¸Ĥà¸Ńà¸ĩ
à¸ŀà¸£à¸° à¹Ĥà¸Ńà¸£à¸ª
à¸§ à¸«
à¸Ļà¹Ģà¸ª à¸²à¸£
Ġà¸ª à¸³à¹Ģà¸£
à¸° à¸ª
à¸Ńà¸ģ à¹Ģà¸Ľ
Ġà¹Ģà¸ ¨
à¸Ł à¸§
à¸Ķ à¸Ħà¸£
à¸° à¹Ģà¸£
Ġà¸Ĭ à¸²à¸£
r am
à¸Ń à¸Ľà¸£à¸°à¸¡à¸²à¸ĵ
à¸²à¸§ à¸¥
à¸Ńà¸ķ à¸ķ
ar e
à¹ĥà¸Ļà¸Ľà¸£à¸°à¹Ģà¸Ĺà¸¨ à¸Ń
à¹Ģà¸ŀà¸Ĭà¸£ à¸ļ
à¸ļ à¹ĥà¸Ī
à¸¡à¸²à¸ķà¸£ à¸Ĳà¸²à¸Ļ
à¸ļ à¸Ŀ
à¸§à¸¢ à¸Ĥ
à¹ģà¸ľ à¸Ļà¸Ĺ
à¸¥ à¸²à¸Ļ
à¸ļ à¸²à¸Ķà¹Ģà¸Ī
à¸© à¸İ
à¸Ļ à¹Ģà¸ļ
N A
à¸Ļà¸ģà¸²à¸£ à¸ª
Ġà¹ĥà¸Ļà¸ Ī
à¸Ļà¸²à¸Ķ à¹Ģà¸¥
à¸Ļà¸ª à¸Ļ
à¸ĵ à¸Ħ
Ġà¸ª à¸Ľ
à¸Ļà¸ĺ à¸£
ti n
à¸¢à¸¡ à¸Ń
à¸²à¸ŀ à¸§à¸ģ
à¸ŀà¸¥ à¹Ģà¸Ńà¸ģ
Ġ k
à¸į à¸ķ
à¹Ħà¸Ľ à¸ķ
à¸Ń à¸²à¸ª
à¸²à¸Ļ à¸Ńà¸²à¸«à¸²à¸£
à¸Ńà¸Ķ à¸Ĺ
ac t
à¸¨ à¸§à¸£
à¸ĭ à¸²à¸Ļ
à¸ģà¸¥à¸²à¸ĩ à¸Ĥà¸Ńà¸ĩ
à¸Ľà¸£à¸°à¸ģà¸Ńà¸ļ à¹Ħà¸Ľà¸Ķ
à¹Ģà¸® à¸¥
à¹ĥà¸Ļà¹Ģà¸§à¸¥ à¸²à¸ķ
à¸ªà¸ł à¸²
à¸Ļ à¸£à¸²à¸Ĭ
à¸Ķ à¹Ģà¸ľà¸¢
à¹ģ à¸Ļà¸ģ
à¸Ļà¸ª à¸²à¸¢
à¸Ĳ à¸²à¸Ļà¸Ĺ
Ġà¹Ģà¸Ĥ à¸²à¸Ī
à¸Ńà¸¢ à¸ģ
à¸ļà¸ģà¸²à¸£ à¸ªà¸Ļ
Ġ198 0
à¸ļ à¹Ģà¸Ļ
à¸¢à¸¡ à¸ģ
à¸²à¸Ļà¸Ī à¸²à¸ģ
à¸į à¹Ģà¸Ĭ
à¸§ à¸Ļà¸Ľà¸£à¸°à¸ģà¸Ńà¸ļ
à¹ģà¸ļà¸ļ à¸Ļ
à¸¢ à¸²à¸łà¸£à¸ĵ
à¹Ħ à¸Ĭà¸¢
à¹ĥà¸Ļà¸ Ł
à¸Īà¸° à¸Ĭ
à¸Ļà¸ªà¸¡ à¹Ģà¸Ķ
os t
à¸¨ à¸§à¸£à¸£à¸©à¸Ĺ
Ġ3 6
a z
o x
à¸ģ à¸²à¸Ļ
o od
à¸ģ à¹Ģà¸Ķ
Ġà¸ģà¸¥ à¸²à¸¢à¹Ģà¸Ľ
Ġ à¸ģà¸©
à¸Ń à¸Ļà¸ĸ
à¹ģà¸Ĭ à¸¡à¹Ģà¸Ľ
Ġà¹Ĵà¹ ķà¹
à¸²à¸Ħ à¸§
à¹Ģà¸¢à¸²à¸§ à¸Ĭà¸Ļ
à¸Ĺà¸£ à¸²à¸¢
à¸Ĭà¸²à¸§ à¸Ī
à¸²à¸ľ à¸¥
à¸Ļà¸Ĭ à¸²à¸¢
it e
à¸Ļ à¹ĥà¸Ļà¸£
à¸²à¸ĩ à¹Ģà¸ķ
à¹ģà¸ª à¸§à¸ĩ
à¸Ńà¸ģà¸²à¸£ à¸£
o ol
à¸ģ à¸Ľà¸£
Ġà¸Ľà¸£à¸°à¸Īà¸³ à¸Ľ
à¹Ģà¸« à¸ĩ
ĠB l
Ġà¸¢à¸ģ à¹Ģà¸§
à¸²à¸ĩ à¹ĥà¸Ķ
4 7
à¸Ļ à¹Ģà¸Ĥà¸ķ
à¸Ļ à¹Ģà¸«à¸¡
à¸ķ à¸Īà¸²à¸ģ
à¸²à¸§ à¹Ģà¸Ľ
à¹Ģà¸Ĥ à¸¡à¸£
à¸Ļà¸Ń à¸³à¹Ģà¸ł
à¸¥à¸¥ à¸²
on s
à¸Ńà¸³à¹Ģà¸ł à¸Ńà¹Ģà¸¡
à¸į à¹Ģà¸ķ
à¸ļà¸£ à¸²à¸ĭ
à¸©à¸Ĳ à¸²à¸Ļà¸§
ic al
à¸ķ à¹Ģà¸¡
à¸Ļà¹Ģà¸¡ à¸£
Ġ253 1
à¹ĥà¸Ļà¸ªà¸¡ à¹Ģà¸Ķ
à¸²à¸¡ à¸Ĺ
à¸Ńà¸Ńà¸ģ à¸Ń
à¸² à¹Ĥà¸¥
à¸ĩà¸²à¸Ļà¸ «
à¸¡à¸² à¹Ħà¸Ķ
à¸²à¸Ļà¸Ħ à¸Ļ
Ġà¹ģ à¸Ħ
à¹ģ à¸Ńà¸ķ
à¹Ģà¸Ńà¸ģ à¸Ĭà¸Ļ
à¸ģ à¸ģà¸²à¸£à¹Ģà¸¡
à¸¡ à¹Ħà¸Ľà¸Ķ
ĠA c
à¹ĥà¸ļ à¹Ħà¸¡
à¹Ģà¸Ī à¸¥
à¸ļ à¸łà¸²à¸©
à¹Ģà¸ŀ à¸¥à¸¢
Ġà¸ŀ à¸ļà¸§
I n
à¸Ķ à¸°
à¸ª à¹ģà¸«
à¸ķ à¸Ī
à¹Ĥà¸Ķà¸¢ à¸ª
à¸Ļà¸ŀà¸£à¸° à¸¡à¸«à¸²à¸ģà¸©
e y
à¸« à¸ŀ
à¹ģà¸¥à¸° à¸Ķ
Ġà¸£ à¸Ńà¸ĩ
à¸Ĺ à¸¡
à¸Ńà¸ĩ à¹Ħà¸Ĺà¸¢
à¸ŀ à¸ŀ
à¹Ģà¸Ĥ à¸²à¸¡
ĠT h
à¸Ńà¸Ń à¸²à¸Ī
à¸Ĭ à¹Ģà¸Ĭ
Ġà¸Ĺ à¸«à¸²à¸£
à¸Ĥà¸Ńà¸ĩ à¹Ĥà¸¥à¸ģ
à¸«à¸¥à¸Ńà¸Ķ à¹Ģà¸¥
Ķ à¹
à¸£à¸ĸ à¸¢à¸Ļà¸ķ
à¸ĩà¸ª à¸§
Ġà¹Ĥ à¸¡
à¸¥à¸³ à¸ŀ
à¸ķ à¹Ģà¸ķà¸Ńà¸£
à¸ł à¸²
Ġà¸ģà¸²à¸£ à¸£
à¸Ļà¸ª à¸Ļà¸²à¸¡
à¸Ńà¸ª à¸ģà¸²à¸£
à¸Ļà¸Ń à¸²à¸¢
à¹Ĥà¸¢ à¸Ħ
à¹ĥà¸Ļà¸ł à¸²à¸¢à¸«à¸¥
à¹ į
à¸ļ à¹Ħà¸§
à¸Ĭ à¸¡à¹Ģà¸Ľ
à¸¡ à¹ĥà¸Ĭ
à¸Ļà¸³à¹Ħà¸Ľ à¹ĥà¸Ĭ
S t
à¸Ļà¸Ľà¸£à¸° à¸¡à¸²à¸ĵ
à¸¢à¸Ļà¸ģà¸²à¸£à¸ª à¸Ńà¸Ļ
à¸¢à¸ĩ à¸§
à¸¥ à¸Ĭ
Ġà¸ķ à¸³à¹ģà¸«à¸Ļ
à¸Ļà¸ģà¸²à¸£ à¸ķ
ĠS c
u k
à¸²à¸ĩ à¸«
à¸Ķ à¸ģà¸¥
à¸ķ à¹Ģà¸¥à¸Ńà¸£
à¸²à¸¢ à¸Ī
à¸ĩà¸Ħ à¸ĩ
à¸Ķ à¸ªà¸¡
à¸§à¸ĩ à¸Ī
à¸ģà¸£à¸£à¸¡ à¸Ĺ
à¸Ķà¸ģà¸²à¸£ à¹Ģà¸£
Ġà¸Ńà¸ĩà¸¨ à¸²à¸ķà¸°à¸§
à¸ŀ à¸į
à¸Ħà¸§à¸²à¸¡ à¸ĸ
à¹Ģà¸¨à¸£à¸©à¸Ĳ à¸¨à¸²à¸ªà¸ķà¸£
à¹Ħà¸ĭ à¸¡
à¸ª à¸ļà¸Ķ
à¹ĥà¸Ļà¸ Ŀ
à¸§à¸¢ à¸¡
à¸Ļà¸Ĳ à¸²à¸Ļà¸Ĥà¸Ńà¸ĩ
à¸¡ à¸«à¸²à¸£à¸²à¸Ĭ
à¸ªà¸ĸà¸²à¸Ļ à¸ģà¸²à¸£à¸ĵ
à¸Ĭ à¸Į
à¸Ķ à¸Ļà¸Ħà¸£
à¸Ńà¸ĩ à¹Ħà¸¡
à¸Ńà¸ĩ à¸Ĺà¸²à¸ĩ
à¹Ģà¸¡ à¸Ĭ
à¸§à¸ĩ à¸«à¸Ļ
à¸ģà¸²à¸£ à¹Ģà¸ŀ
à¸Īà¸° à¸ªà¸£
à¹Ģà¸Ķ à¸£
à¸ķ à¸£à¸°
à¸²à¸£ à¸Ńà¸ļ
à¸ĸ à¸²à¸Ļà¸°
à¸ªà¸Ļ à¹Ģà¸Ĺà¸¨
à¸Ĥà¸Ńà¸ĩ à¸§à¸ĩ
à¸¡à¹Ģà¸«à¸¥ à¸§
à¸ĩà¸²à¸Ļà¸ ŀ
à¸Ļà¹Ĥ à¸Ľà¸£
Ġ4 5
à¸Ľ à¸Ńà¹Ģà¸¡à¸£
à¸ļà¸ģà¸²à¸£ à¸ª
à¸²à¸ĩ à¹Ģà¸Ħ
à¸¡ à¹Ħà¸¡
à¸Ī à¸ªà¸§à¸£à¸£à¸Ħà¸ķ
à¸¥ à¹Ģà¸ļ
à¸Ńà¸ĩ à¸ªà¸¡
à¸ģà¸²à¸£ à¸¥
à¸²à¸§ à¸¡
à¸Ļà¸ª à¸ģ
à¹ģ à¸Ħà¸£
à¸£à¸ĸ à¹Ħà¸Łà¸Ł
à¸ļà¸£à¸£ à¸ŀ
Ġà¹ģ à¸ĸ
à¹Ģà¸ł à¸ª
à¸ļ à¸Ĺà¸²à¸ĩ
à¸Ī à¸¡
à¸Ńà¸ģ à¸ª
ti ve
ro p
à¹ĥà¸Ļà¸ª à¸ģ
à¸Ń à¸Ľà¸£
à¸¥ à¸£
à¸§ à¸ģà¸¥
à¸ķ à¹Ģà¸ĭà¸Ńà¸£
à¸İ à¸£à¸²à¸Ĭà¸ģ
à¸³à¸Ĺ à¸°à¹Ģà¸¥
à¹Ī "
à¸łà¸²à¸Ħ à¸ķà¸°à¸§
à¸Ķ à¸²à¸ļ
à¸Ńà¸ĩ à¹ĥà¸«à¸¡
à¸£à¸° à¸Ļ
à¸Ļà¸Ħ à¸²à¸Ĺà¸Ńà¸¥
à¸¢à¸Ļ à¹Ģà¸£
à¸°à¸Ķ à¸§à¸ģ
Ġ à¸Ńà¸£
à¸²à¸ĩ à¹Ģà¸ģ
à¸²à¸ĩ à¸Ĺà¸²à¸ĩ
à¸Īà¸ŀà¸£à¸°à¸£à¸²à¸Ĭ à¸Ķà¸³à¹Ģà¸Ļ
à¸Ħà¸§à¸²à¸¡ à¸ªà¸Ļà¹ĥà¸Ī
à¸§ à¸ļà¸£à¸§à¸¡
à¸ĩà¸Ħ à¸¡à¸Ļ
à¸ªà¹Ģà¸Ľ à¸Ļ
à¸²à¸ļ à¸ªà¸¡
à¸Ļà¸Ĭ à¸²à¸ķ
à¸Ķà¸ŀà¸¥ à¸²à¸Ķ
à¸Ńà¸Ļ à¸Ń
à¸²à¸Ĺ à¸£
à¸¥ à¹Ģà¸¡
i ve
à¹Ģà¸ĺà¸Ń à¹Ģà¸Ľ
à¸«à¸²à¸¢ à¹Ħà¸Ľ
à¸¡à¸łà¸²à¸© à¸ĵ
ĠA ward
Ġà¸Ħà¸§à¸²à¸¡ à¸£
à¹ĥà¸Ļ à¹ģà¸Ļà¸§
à¸ĩà¸ª à¸³à¸Ħ
Ġ3 3
à¹ģà¸¥ à¸Ļà¸ķ
à¹ĥà¸Ļà¸ģà¸²à¸£ à¸Ĺà¸³
âĢ ľ
à¸²à¸Ħ à¸²
à¸Ļà¸Ń à¸²à¸Īà¸²à¸£à¸¢
à¸ļ à¹Ģà¸Ħà¸¥
à¸« à¸²à¸ĩ
Ġà¹ĳ à¹
Ġà¸ģ à¸³à¸«à¸Ļà¸Ķ
Ġà¸Ī à¸Ļà¹Ħà¸Ķ
à¸ģà¸ĩà¸²à¸Ļà¸ Ħ
à¸²à¹Ĥà¸£ à¸«
7 5
à¸ģ à¸Ľà¸£à¸°à¸§
à¹Ĥà¸Ķà¸¢ à¸Ļ
an n
à¸Ļà¹Ĥ à¸ĭ
à¸Ń à¸«à¸¡
à¸²à¸Ń à¸Ļ
à¸Ķ à¸Īà¸³à¸«à¸Ļ
à¸ļ à¸¡à¸²à¸£
à¸£à¸²à¸¢ à¸ĩà¸²à¸Ļ
à¸Ī à¹Ģà¸Ī
à¹ĥà¸Ļ à¸ĩà¸²à¸Ļ
Ġ à¸Ļà¸Ħà¸£
à¸ĩ à¹Ĥà¸£à¸ĩà¹Ģà¸£
à¸Ńà¸¡ à¸²à¹Ģà¸Ľ
à¸Ļà¸ŀ à¸§à¸ģ
à¸¢ à¸Ļà¸łà¸²à¸ŀ
à¸į à¸Ħ
à¸Ń à¹Ģà¸Ń
à¸ģà¸£ à¸²à¸Ł
à¸Ńà¸Ńà¸ģ à¸īà¸²à¸¢
à¸Ļà¸²à¸¢ à¸ģ
Ġà¸ª à¸ł
à¸¢ à¸Ļà¸«à¸Ļ
à¸ģà¸© à¸²à¸Ĥ
à¸²à¸Ĥ à¸²à¸¢
à¸Ļà¸Ĺ à¸£à¸¡
Ġà¹Ĥà¸Ķà¸¢ à¸Ń
à¹ĥà¸Ļà¸ģà¸²à¸£ à¸ŀ
à¸ģà¸²à¸£ à¹Ģà¸ģ
à¸Ļà¸ģà¸²à¸£ à¸Ī
à¹Ĥà¸Ń à¸Ń
à¸²à¸¢à¸Ĺ à¸«à¸²à¸£
à¸ªà¸ķ à¸ģà¸²à¸¥
à¸Ļà¸Ľà¸¥ à¸²à¸Ĺ
à¸ļà¸¥ à¸£à¸²à¸Ĭà¸ĺà¸²à¸Ļ
à¸²à¸£ à¸¡à¸ĵ
à¸²à¸Ŀ à¸£
Ġ3 00
à¸ļ à¸ı
à¸Ľ à¸Ĺà¸£à¸ĩ
à¸Ļà¸¡ à¸«à¸²à¸§
à¸²à¹Ĥ à¸Ńà¸¥
à¸²à¸Ļ à¸²à¸¢
à¹ĥà¸Ļà¸ģà¸²à¸£ à¸ªà¸£
à¸ŀà¸¥ à¸ķ
à¸Ķà¸Ĺ à¸°à¹Ģà¸ļ
à¹Ĥà¸Ħ à¸Īà¸£
à¸Ĥà¸Ńà¸ĩ à¸ļà¸£
à¸Ĳ à¸§
à¸¢à¸ģ à¸Ĭ
à¸Ī à¸£à¸²à¸Ĭà¸ģà¸²à¸£
or k
à¸ĩ à¸Ŀà¸£
à¸Ħà¸£ à¹Ģà¸¥
à¸ļà¸ļ à¸²à¸Ķà¹Ģà¸Ī
à¸ĩà¸Ĺ à¸°à¹Ģà¸¥
à¸ŀà¸£à¸°à¸£à¸²à¸Ĭ à¹Ĥà¸Ńà¸£à¸ª
à¹Ģ à¸Ńà¸ĩà¸Ĺ
à¸¥ à¹Ģà¸Ľ
à¸Ķ à¸Ĺà¸²à¸ĩ
à¸ļ à¹Ĥà¸¥à¸ģ
à¸ķà¸£ à¸Ĺ
à¸ªà¸ķ à¸Ī
à¸§à¸ĩ à¸ª
à¸ĩà¸Ħ à¸ĵà¸°
Ġà¸Īà¸²à¸ģ à¸ģà¸²à¸£
Ġà¹ģ à¸£à¸ĩ
à¹Ĥà¸Ń à¸°
c om
à¹ģà¸£à¸ĩ à¸ļ
à¸Ĺ à¸ĭ
Ġ251 8
à¹Ĥà¸Ķà¸¢ à¸Ń
Ġà¹Ģà¸Ĥ à¸²à¸¡
à¸Ħà¸§à¸²à¸¡ à¸Īà¸£
à¸¢ à¸«
à¸ª à¹ģà¸ķ
à¸Ļà¹ģ à¸ļ
à¸Ħà¸Ļ à¹Ħà¸Ĥ
Ġ253 2
à¸¡ à¸Ħà¸£
à¸Ķà¸Ĥ à¸§à¸²à¸ĩ
à¸³ à¸Ń
à¸¢à¸ĩ à¹ģà¸ķ
à¸ĩà¸Ĥ à¸¥à¸²
à¸ŀà¸£à¸° à¸ļà¸£à¸¡à¸£à¸²à¸Ĭ
à¸§à¸ĩ à¸§
à¸Ļà¸Ľ à¸ı
à¸ģ à¸¡à¸²à¸ģ
à¸ģ à¸Īà¸°à¸¡
à¸Ķ à¹Ģà¸«
ĠM us
à¸ģà¸©à¸ĵà¸° à¸Ĥà¸Ńà¸ĩ
Ġà¹ĥà¸Ļà¸ŀ à¸£à¸°
à¸Ń à¸¨à¸²à¸ªà¸Ļ
à¸²à¸ģ à¸£à¸°
s p
à¸Ķ à¸«à¸£
à¸³ à¸£à¸ĩ
Ġà¸ª à¸²à¸¡
à¸łà¸²à¸Ħ à¹ĥà¸ķ
à¹Ħà¸® à¹Ĥà¸Ķà¸£
à¹Ģ à¸Ļà¸ķà¸£
à¸ĩ à¸Ľà¸¥
à¸Ļà¸Ĭ à¸²à¸£
Ġà¹ģà¸¥à¸° à¸Ĺà¸£à¸ĩ
à¹ģà¸ļà¸Ħ à¸Ĺ
à¸Ī à¸ķ
ĠA n
Ġ200 1
à¹Ģà¸Ĥ à¸²à¸Ĺ
à¸²à¹Ĥ à¸Ī
à¸ªà¸° à¸Ĺ
Ġ252 9
à¸ĸà¸²à¸Ľ à¸Ļ
à¹ĥà¸Ļ à¸ģà¸£à¸ĵ
à¹ģà¸Ľà¸¥ à¸§
à¸Īà¸£ à¸²à¸Īà¸£
à¸¥à¸¢ à¹Ģà¸Ķà¸Ĭ
à¹Ģà¸ģ à¸°
à¹Ģà¸® à¸Ńà¸£
à¸Ľ à¸ĭ
à¸£à¸£à¸ĵ à¸ģà¸£à¸£à¸¡
Ġà¸ģ à¸³à¸¥
l l
Ġ à¹Ģà¸ģà¸£
à¸§ à¹Ģà¸ĭà¸Ńà¸£
à¸¡à¸ª à¸¥à¸²à¸¢
Ġà¸® à¸²à¸£
à¸Ħà¸§à¸²à¸¡ à¸Ĥ
à¸Īà¸° à¸ªà¸²à¸¡à¸²à¸£à¸ĸ
à¸Ńà¸Ļ à¸ģà¸¥
à¸ģà¸© à¸²à¸ŀ
à¸ģ à¸ĺ
à¸ģ à¹Ģà¸ĭ
à¸¢ à¹Ģà¸ģà¸©à¸ķà¸£
à¸ļ à¸³à¸£
à¸ĩà¸«à¸§ à¸°
ĠS ch
à¸Ļà¸²à¸ĩ à¹Ģà¸Ī
à¸Ń à¸ľà¸¥
à¸£à¸£ à¸Ī
à¸ĩà¸Ħ à¸ĩà¹Ģà¸Ľ
Ġà¹Ģà¸« à¸£
Ġ à¸ķà¸£à¸ĩà¸ģ
à¸§ à¸Ļà¸«
à¸ĩ à¸«à¸¡à¸²à¸¢
à¹ī "
à¸§ à¹Ģà¸Ķ
à¸ŀ à¸²à¸ĵ
à¸³ à¹Ħà¸Ķ
à¸¢à¸ĩ à¹Ħà¸¡
à¸Ļ à¸¥à¸°à¸Ħà¸£
à¸ķ à¸ªà¸¡à¸²à¸Ĭ
à¹Ĥ à¸Ńà¸Ķ
à¸Ļà¸ŀà¸£à¸° à¹Ģà¸Ī
ĠC l
à¸Ńà¸ĩ à¹ģà¸£à¸ģ
à¸ŀà¸£à¸°à¸£à¸²à¸Ĭ à¸ŀ
à¹Ģà¸ļà¸¥ à¹Ģà¸¢
à¸Ń à¸Īà¸£
à¸ĩà¹ģ à¸¢à¸ģ
à¸¡ à¸Ħà¸£à¸Ńà¸ĩ
à¸Ńà¸ĩ à¸Ħà¸£
à¹Ģà¸ª à¸ĸ
à¸²à¹Ĥ à¸ģ
à¸²à¸į à¸Ī
Ġà¹ģà¸¥à¸° à¸ĭ
à¸¡ à¸Ł
à¸Ľà¸£à¸°à¹Ģà¸Ĺà¸¨ à¸į
i b
à¸Ľ à¹Ģà¸Ľà¸Ńà¸£
à¹Ĥ à¸¡à¸Ļ
à¸ŀ à¸Ĥà¸Ńà¸ĩ
Ġ â
Ġ à¹ĥà¸ģà¸¥
Ġà¸Ľ à¸¥à¸²à¸¢
à¸ĩ à¹Ģà¸ĩ
à¸«à¸¥à¸²à¸¢ à¸Ńà¸¢
à¹ĥà¸Ļà¸ļ à¸Ĺ
à¸²à¸ĩ à¸ģà¸¥
à¸ĩà¸Ľ à¸²à¸£
ac h
à¹ģ à¸§à¸Ķà¸¥
à¸ģà¸£à¸° à¸Ĺà¸£à¸§à¸ĩà¸¨
à¸²à¹Ĥ à¸«à¸¡
à¸ļ à¸²à¸ķ
Ġà¹ģà¸¥à¸° à¹Ģà¸Ī
à¹Ħà¸ķ à¸¥
à¸§à¸¢ à¸ľ
is m
à¸² à¹Ĥà¸ķ
I I
à¸Ļà¸ ©
à¸¢ à¹Ģà¸ŀ
à¸Ī à¸Ńà¸¢
à¸Ķ à¸¨
à¸Ĭà¸²à¸§ à¸¢
Ġà¸¢ à¸Ńà¸Ķ
à¹Ħà¸Ĺà¸¢ à¸£
Ġà¸Ĺà¸²à¸ĩ à¸Ĭ
à¹ģà¸ĸ à¸ļ
à¸§à¸¢ à¸Ħ
à¸§à¸¢ à¹Ģà¸Ĭ
Ġ18 6
à¸ĩ à¹Ĥà¸£à¸¡
à¸§à¸ĩ à¹Ģà¸Ķ
à¸£à¸°à¸¢à¸° à¹Ģà¸§à¸¥à¸²
8 5
à¸Ķ à¹ĥà¸«à¸į
à¸²à¸§ à¸ķ
à¹Ģà¸Ĥ à¸²à¸¢
à¸ģà¸© à¸²à¸Ĭ
à¸ĺà¸£à¸£à¸¡ à¸Ķà¸²
ol d
à¸ªà¹Ĥà¸¡à¸ªà¸£ à¸Ł
à¸ĩ à¸£à¸°à¸Ķ
ro m
ĠW orld
à¸§à¸¢ à¹Ĥà¸£à¸Ħ
à¸ĵ à¸«à¸į
Ġà¸Ķ à¸²à¸£
à¹Ģà¸¥ à¸Ļ
Ġà¸ª à¸ĩà¸Ħà¸£à¸²à¸¡
à¸Ĳ à¸¨à¸²à¸ªà¸ķà¸£
Ġà¹Ĥà¸Ķà¸¢ à¸Ī
à¸¡ à¹ĥà¸«à¸į
à¸Ķ à¹Ħà¸¡
à¹ģà¸ľ à¸Ļà¸ģ
à¸Ľà¸£à¸²à¸ļ à¸Ľà¸£à¸²à¸¡
à¸´ ,
Ġ Q
à¹ģà¸ģ à¸Ļ
à¸ĩà¸¡ à¸²à¸Īà¸²à¸ģ
Ġ253 0
à¸² à¹Ģà¸«à¸¥
à¸Ń à¹Ģà¸ļ
à¸§à¸ĩ à¸ŀ
à¸ļà¸£ à¸Ńà¸ĩ
à¸Ńà¸¡ à¸ª
à¸² à¹Ħà¸£
à¸Ĭ à¸ģ
à¹Ģà¸ª à¸ģà¸ªà¸¡
à¸Ļà¸³ à¸Ĺ
à¸ļà¸ģà¸²à¸£ à¸¢à¸Ńà¸¡à¸£
Ġà¸¥à¸³ à¸ķ
à¸ķà¸£ à¸ªà¸²à¸§
à¸Īà¸° à¸Ĥ
Ġ Âł
à¸Ķ à¹Ģà¸ľ
à¸Ľ à¸²à¸ĩ
à¸²à¸ª à¸²à¸¡
Ġ252 2
à¸Ńà¸Ļ à¸¥
8 9
à¸²à¸ĩ à¸ľ
à¸Ńà¸¡ à¸£à¸²à¸Ĭà¸§à¸ĩà¸¨
ic h
à¹Ĥà¸Ī à¸§
Ġà¹Ģà¸ĺ à¸Ń
à¸Ľ à¸§
à¸ĺ à¸²à¸£
à¸ģà¸²à¸£ à¹ĥà¸«
à¹ĥà¸ļ à¸«à¸Ļ
à¸Ľà¸£à¸°à¸«à¸²à¸£ à¸Ĭ
à¹ĥà¸Ļà¸ ĺ
à¹ĥà¸Ļà¸Ĺ à¸°à¹Ģà¸¥
Ġ à¹Ĥà¸¥
à¸¢à¸ĩ à¸Ń
à¸²à¸¥ à¸ª
à¸ļ à¸Ħà¸£
à¸²à¸§ à¸Ĥ
Â °
à¸ŀ à¸²à¸Ĺ
à¸° à¸ĭ
à¹Ĥ à¸§
à¸Ń à¹Ĥà¸£
à¸ªà¸¡ à¸£à¸ªà¸ģ
à¸Ńà¸¢ à¸Ļ
à¹Ģà¸ļ à¸ķ
à¸²à¸ŀ à¸¥
à¸¥à¸Ľ à¸²à¸ģà¸£
is h
à¸Ľà¸£à¸°à¸Īà¸³ à¸Ľ
à¸Ńà¸ĩ à¹Ģà¸ŀ
à¹ģà¸¥à¸° à¹Ģà¸£
à¸¡à¸²à¸ģ à¸Ļ
à¹Ģà¸¥à¸Ĥ à¸Ĺ
à¸Ńà¸ĩà¸Ķ à¸Ļà¸ķà¸£
à¸Ĺà¸²à¸ĩ à¹Ģà¸¨à¸£à¸©à¸Ĳà¸ģ
Ġà¸Ĺà¸£à¸ĩ à¹Ģà¸Ľ
à¸Ķ à¸ªà¸£
à¸²à¸£ à¸ĸ
à¸²à¸ĩ à¹Ģà¸ŀ
Ġ15 0
ĠU nivers
à¸ķà¸ļà¸Ńà¸¥ à¸Ĺ
Ġà¸Ń à¸ł
à¸Ń à¸Ŀ
à¸Ńà¸³à¹Ģà¸ł à¸Ńà¸ļ
at t
Ġà¹Ĥà¸Ķà¸¢ à¸Ļ
à¸Ĺà¸ĺ à¸¨à¸²à¸ªà¸Ļ
ol og
à¸¥à¹Ģà¸¥ à¸Ńà¸£
à¸Ļà¸Ľà¸£à¸°à¸Ĭ à¸²à¸ģà¸£
à¸Ńà¸°à¸ķ à¸Ńà¸¡
à¹ģà¸¥à¸° à¸Ľ
à¸¢à¸¡ à¸ª
à¹Ħà¸Ĺà¸¢ à¹Ģà¸Ľ
à¸Ļ à¸¥à¸°à¸Ħà¸£à¹Ĥà¸Ĺà¸£à¸Ĺ
à¸Ń à¸Ļà¸«
à¸Ńà¸ģ à¸ģ
à¸ŀà¸£à¸°à¸Ĭà¸Ļà¸¡ à¸²à¸¢
à¸¥à¸° à¸Ĺ
à¹Ħà¸Ľ à¸ķà¸²à¸¡
à¸Ļà¸Īà¸³à¸Ļà¸§ à¸Ļ
à¹Ħ à¸ļ
à¸Ļà¸¢ à¸Ļà¸ķ
Ġ197 0
à¹ī )
à¸Ĥà¸Ńà¸ĩ à¸Ĥ
à¸Ĺà¸¢ à¸²à¸ģà¸²à¸£
à¸Ħà¸³ à¸Ļ
4 3
f t
à¹ĥà¸Ļ à¸Ļà¸²à¸¡
à¸²à¸ª à¸Ļà¹ĥà¸Ī
ĠH e
à¸Ń à¸ŀà¸£à¸°à¹Ģà¸Ī
à¹Ģà¸Ħ à¸Ńà¸£
à¹Ģà¸Ĺà¸¨à¸ļà¸²à¸¥ à¹Ģà¸¡
à¹Ĥ à¸Ńà¸ĩà¸ģà¸²à¸£
Ġà¸« à¸į
à¸Ĺà¸²à¸ĩà¸«à¸¥à¸§à¸ĩ à¹ģà¸ľ
à¸ķ à¸Ńà¸Ļà¸Ĺ
à¸ģà¸²à¸£ à¸Ķà¸³à¹Ģà¸Ļ
à¸²à¸Īà¸° à¹Ħà¸Ķ
à¸Ħà¸§à¸²à¸¡ à¸¥
à¸ĩ à¸Ńà¸ĩà¸Ħ
à¸²à¸¢ à¸ĭ
à¸Ĳ à¸²à¸Ļà¸Ĥà¸Ńà¸ĩ
à¸ģ à¹Ģà¸ī
à¸§ à¹Ħà¸¡
à¸ģà¸²à¸£ à¹Ħà¸Ķ
Ġ18 9
à¸Ļà¹ģ à¸Ħ
à¸Ļà¸Ńà¸Ńà¸ģ à¸Ĥà¸Ńà¸ĩ
à¹Ħà¸¥ à¸Ĺ
à¸Ļ à¹Ĥà¸£
à¹ģà¸¥à¸° à¹Ģà¸Ĺà¸Ħà¹Ĥà¸Ļà¹Ĥà¸¥à¸¢
Ġà¸Ń à¸²à¸Īà¸²à¸£à¸¢
à¸Ļà¸³ à¹Ģà¸ªà¸Ļà¸Ń
à¸ķà¸Ļ à¹Ĥà¸ģà¸ª
à¸ªà¸Ńà¸ĩ à¸Ļ
Ġ25 19
à¸¥à¸ļ à¸Ńà¸£
à¸§à¸¢ à¸ŀ
Ġ à¸ĩ
à¸§ à¸Ľ
à¸ģà¸²à¸£ à¹Ģà¸Ħà¸¥
à¸ĩà¸ģ à¸Ńà¸ĩà¸Ĺ
à¸ªà¸³ à¹Ģà¸Ļ
à¸Īà¸³ à¹ģà¸Ļà¸ģ
à¸¢à¸ģ à¹Ģà¸§
à¹Ĥà¸ķ à¹Ģà¸ģ
à¸ģà¸²à¸£ à¹ģà¸ķ
à¸Ķ à¹ĥà¸Ļà¸Ľ
à¸Ńà¸ĩ à¹ģà¸ķ
à¹Ĥà¸Ķà¸¢ à¸ķà¸£à¸ĩ
à¸ĩ à¹Ģà¸«
à¹ģ à¸Ńà¸Ļà¸ķ
à¸Ł à¸ķ
à¸Ļà¸¡ à¸«
à¸Ńà¸²à¸Ī à¹Ģà¸Ľ
à¸¡ à¸²à¸Ĭ
à¸Ńà¸ĩ à¸Ĺà¸³
à¸ªà¸¡ à¸Ĺ
Ġà¹Ģà¸¥ à¸Ĥ
à¸ĩ à¹ĥà¸Ļà¸§
à¸¡ à¸ŀà¸£à¸°à¹Ģà¸ģ
à¸ķà¸Ńà¸ļ à¸£
à¸ģ à¹ģà¸ļ
à¸ľà¸¥ à¸ģà¸£à¸°à¸Ĺ
à¸£à¸°à¸ļ à¸²à¸Ķ
à¸Ĺà¸²à¸ĩ à¹ĥà¸ķ
à¸Ļà¸Ĺà¸²à¸ĩ à¸Ĺ
Ġà¹Ħ à¸Ń
à¸ĩà¸ģ à¸²à¸¢
à¸Ħà¸¥ à¸²à¸ģà¸£
Ġà¹Ĥà¸Ħà¸£ à¸ĩà¸ģà¸²à¸£
à¸ģ à¸Ħà¸¥
à¸ĩ à¹Ģà¸«à¸ķ
à¸³ à¸§
à¸Ķà¸ĩ à¸²à¸¡
y n
Ġà¸§ à¸²à¸ĩ
à¸Ĥà¸Ńà¸ĩ à¸¡à¸Ļ
à¸¢ à¸ł
à¹Ģà¸¡ à¸Ķ
ĠM ar
à¸Ńà¸²à¸Ī à¸Īà¸°
à¸ģà¸²à¸£ à¸Ľà¸£à¸°à¸Ĭ
Ġà¸ģ à¸£à¸°à¸Ĺ
à¹Ģà¸Ĥà¸² à¹Ħà¸¡
Ġ252 8
à¸Ĳ à¸¯
à¸ªà¸¡ à¸Ńà¸ĩ
à¸¢à¸§ à¸Ļ
4 9
à¸ªà¸²à¸¡à¸²à¸£à¸ĸ à¸£
à¸²à¸Īà¸° à¹Ħà¸¡
at h
à¸Ńà¸²à¸ĵ à¸²à¸Ļ
à¹ģà¸ªà¸Ķà¸ĩ à¸ĸ
à¹ģà¸£à¸ĩ à¸Ķ
à¸¥à¸³ à¸ļà¸²à¸ģ
à¸Ń à¸²à¸¥
à¹Ħ à¸Ħ
à¸Ńà¸Ńà¸ģ à¸¡à¸²à¸Īà¸²à¸ģ
à¸¢à¸Ļ à¹ģà¸ļà¸ļ
à¸²à¸ł à¸²à¸©
Ġà¹Ģà¸Ĺ à¸ŀ
ig n
à¹Ģà¸ĺ à¸Ńà¸¡
s e
à¸Ķà¸§à¸ĩ à¸Ńà¸²à¸Ĺ
à¸¥ à¸²à¸¡
à¸Ľà¸£à¸° à¹Ģà¸Ķ
à¸§à¸¡ à¸ĩà¸²à¸Ļà¸ģ
à¸ĩà¹ĥà¸Ļ à¸Ļ
à¸ª à¹Ĥà¸ģ
ol l
Ġ à¸£à¸²à¸Ĭ
à¸³ à¸£à¸°
à¸Īà¸ŀà¸£à¸° à¸Ļà¸²à¸ĩà¹Ģà¸Ī
à¸Ļà¹Ģà¸Ĥ à¸ķà¸£
à¸¡ à¹Ģà¸¨à¸£
à¸ģ à¸«à¸£
à¹Ģà¸ ĵ
à¹ģà¸¥à¸° à¸«
à¸Ńà¸ĩà¸Īà¸²à¸ģ à¹Ģà¸Ľ
à¸²à¸ķà¸£ à¸Ĳà¸²à¸Ļ
à¸ģ à¹ĥà¸Ļà¸Ĭ
à¸ģà¸²à¸£ à¸Ľà¸£à¸°à¸ģà¸²à¸¨
à¹ĥà¸Ļ à¹Ĥà¸¥à¸ģ
à¸§à¸¢ à¸Ķ
à¸ĩ à¸¥à¸ĩ
Ġà¹ģà¸¥à¸° à¸ŀà¸£à¸°
à¸Ĺà¸³ à¸Ľà¸£à¸°à¸ķ
ul ar
à¸£ à¸¢
à¸¢ à¸ŀà¸£à¸°à¸ļà¸²à¸Ĺà¸ªà¸¡à¹Ģà¸Ķ
à¸Ħ à¸Ńà¸¥
à¸¢à¸¡ à¹ĥà¸Ĭ
Ġà¹Ħ à¸®
à¸¢ à¸Ľ
à¸¢ à¹Ģà¸¡
à¸§à¸ĩ à¸Ħà¸£
à¸Ńà¸Ļ à¸²à¸¡
à¸ķà¸³ à¸Ļà¸²à¸Ļ
à¸¢ à¸ĸ
à¸Ĥ à¸Ļà¸²à¸Ļ
à¸ģà¸²à¸£ à¸ªà¸Ļ
4 6
Ġ .
à¸¢à¸ĩ à¸Ńà¸¢
Ġà¹Ħà¸¡ à¸¥
à¸ĸà¸²à¸Ļ à¸ģà¸²à¸£à¸ĵ
à¸² à¹Ģà¸§
Ġà¹ģà¸¥à¸° à¸Ľà¸£
à¸ļà¸Ĺ à¸Ħà¸§à¸²à¸¡
Ġ à¹Ģà¸ĩ
à¸¢à¸§ à¸°
à¸ĩà¸²à¸Ļà¸ ļ
à¸Ļà¸Ĺà¸£à¸¡ à¸«
e am
à¸Ľà¸£à¸°à¹Ģà¸Ĺà¸¨ à¸Ĺ
5 5
à¸Ļà¸Ļ à¸²à¸¢à¸ģà¸£
à¸® à¸Ńà¸¥
à¸£ à¸Ķà¸ģ
Ġà¹Ģà¸ ľ
à¸§à¸¢ à¸Ľ
Ġà¹Ģà¸Ĺ à¸¨
à¸Ļà¸Ħà¸§à¸²à¸¡ à¸£
à¸Ļà¸ŀà¸£à¸°à¸£à¸²à¸Ĭ à¹Ĥà¸Ńà¸£à¸ª
à¹Ģà¸Ń à¸°
à¸¢ à¹ĥà¸«
à¸¢ à¹Ģà¸Ĺà¸Ħà¹Ĥà¸Ļà¹Ĥà¸¥à¸¢
à¸ķ à¸Ĥ
à¹Ģà¸ª à¸²à¸£
à¹ģà¸¡ à¸£
à¹Ģà¸§à¸¥ à¸ª
à¸¢à¸£à¸²à¸Ĭ à¸ł
Ġà¹ģà¸¥à¸° à¸Ĺà¸³à¹ĥà¸«
s h
à¸£à¸£ à¸¢à¸²
à¹ĥà¸Ļà¸ķ à¸Ńà¸Ļ
à¸Ķ à¸²à¸Ļ
à¸ª à¸²à¹Ģà¸«à¸ķ
à¸²à¸¢ à¸ĵ
à¸Ļà¸Ľà¸£à¸° à¸ĺ
à¹Ģà¸ģà¸©à¸ķà¸£ à¸ģà¸£à¸£à¸¡
hi p
à¸Ń à¸Ńà¸ªà¹Ģà¸ķà¸£à¹Ģà¸¥
à¸Ļà¸ķ à¸Ńà¸Ļà¸§
à¹ĥà¸Ļà¸« à¸¥
à¸ĩ à¸Ľà¸£à¸°à¸ķ
à¸§ à¸²à¸Ĺ
Ġà¹ĥà¸Ļà¸ Ħà¸£
Ġà¹Ħ à¸ĭ
3 1
à¹Ħà¸Ľ à¸Īà¸²à¸ģ
à¸ļà¸£à¸£ à¸Ĺ
à¸¢ à¸²à¸ĩ
à¹Ħà¸Ĺà¸¢ à¹ģà¸¥à¸Ļà¸Ķ
o ut
à¸Ļà¹Ģà¸Ĭ à¸ªà¹Ģà¸ķà¸Ńà¸£
à¸ķà¸Ńà¸ļ à¸ªà¸Ļ
à¸ģ à¸Ńà¸Ńà¸ģà¹ģà¸ļà¸ļ
à¸²à¸Ļ à¸Ļà¸²
Ġ on
à¸¥ à¸Ńà¸£
ĠE n
à¸¡ à¸Ļà¸ķ
à¸Ļà¸¡ à¸²à¹Ģà¸Ľ
à¸¡à¸² à¹Ģà¸£
à¸ģ à¹Ĥà¸Ĺà¸©
à¸²à¸¡ à¸ķ
à¹Ģà¸Ń à¸Ńà¸£
à¸¬ à¸²à¹Ĥà¸Ńà¸¥
à¸ģà¸ĭà¸²à¸Ļ à¹Ģà¸Ķà¸Ńà¸£
à¸ĩ à¹Ĥ
à¸ģà¸¥ à¸²à¹Ĥà¸«à¸¡
à¸Īà¸° à¸ģà¸¥
ĠP l
à¸§à¹ģà¸Ĺ à¸Ļà¸Ĥà¸Ńà¸ĩ
à¹Ī )
à¸Ńà¸¡ à¸£à¸Ńà¸ļ
à¸Ļà¸Ķ à¸²à¸£
e b
à¸Ļà¸ģà¸²à¸£ à¸£
à¸Ĥà¸¢à¸²à¸¢ à¸ķ
à¸Ń à¸²à¸į
à¸ķ à¸Ńà¸¥
à¸Ĭ à¸²à¸Ĺ
à¸ģà¸Ħà¸£ à¸Ńà¸ĩ
à¸Ļà¹Ĥ à¸Ľ
Ġ252 5
a x
à¸Ĥà¸Ńà¸ĩ à¸ķà¸Ļà¹Ģà¸Ńà¸ĩ
à¸ĩ à¸°
à¸ĩ à¸Ľà¸£à¸°à¸ģà¸Ńà¸ļà¸Ķ
à¸¥ à¸²à¸Ńà¸Ńà¸ģà¸Īà¸²à¸ģ
Ġà¸Ķ à¸³à¸£à¸ĩà¸ķà¸³à¹ģà¸«à¸Ļ
à¹ģà¸¥à¸° à¸ŀà¸£à¸°
à¸Ńà¸ª à¸ĭ
Ġà¸Ļà¸²à¸¢ à¸ģà¸£
à¸łà¸²à¸Ħ à¸Ĺ
à¸ģà¸£à¸°à¸Ī à¸²à¸¢à¸ŀ
à¸ģ à¸¡à¸²à¸ģà¸¡à¸²à¸¢
Ġà¹ĥà¸Ļ à¹Ģà¸¡
à¸«à¸§ à¸²à¸Ļ
à¸ªà¸²à¸£ à¸ªà¸Ļà¹Ģà¸Ĺà¸¨
à¹Ģà¸Ħà¸²à¸£ à¸ŀ
à¸Ń à¹Ĥ
à¸Ĥà¸Ńà¸ĩ à¸Ł
à¹Ģà¸Ĥ à¸²à¸ķ
à¸¢ à¹Ģà¸Ĭ
Ġà¸Ķ à¸³à¹Ģà¸Ļ
Ġà¸ģà¸²à¸£ à¸¨
y p
3 9
à¸Ķ à¹ĥà¸Ĭ
à¸Ļà¸Ĺà¸²à¸ĩ à¸ģà¸¥
à¸Īà¸ŀà¸£à¸° à¸¡à¸ĩà¸ģ
8 8
à¸ĩ à¸Ĭà¸²à¸§
Ġà¸¡ à¸²à¹Ģà¸Ľ
ro w
à¹ĥà¸Ļà¸ŀà¸£à¸° à¹Ģà¸Ī
Ġà¸ģ à¸¡
p le
à¸Ļ à¸¥à¸³à¸Ķ
à¸§ à¸Ńà¸£
à¸Ĳ à¸Ļ
à¸¢à¸Ļ à¹Ĥà¸Ķà¸¢
à¸§ à¸ģà¸§
à¸ģà¸²à¸£ à¸Ħà¸§à¸ļà¸Ħ
à¹Ģ à¸Ńà¸£
à¸¥à¸²à¸¢ à¹Ģà¸Ľ
Ġ18 0
Ġà¸ª à¸²à¸ĺà¸²à¸£à¸ĵà¸£
à¸Ľ à¸°à¸Ĺ
à¸Ķ à¹ģà¸ªà¸Ķà¸ĩ
Ġà¸ª à¸²à¸§
à¸Ħà¸³ à¸ĸà¸²à¸¡
à¸ģà¸¡à¸§à¸¢ à¸Ľà¸¥
à¸¡ à¸Ńà¸Ļ
3 7
à¸²à¸¡ à¸ģà¸¥à¸²à¸ĩ
à¸²à¸Ļà¸ Ł
à¸§ à¹Ģà¸ªà¸£
Ġà¸Ļ à¸Ńà¸ģ
Ġà¸ĸ à¸Ļà¸Ļ
à¸§à¸¡ à¸£
à¸² à¹ģà¸ļà¸ļ
à¸² à¹Ħà¸§
à¸İ à¹Ģà¸ģà¸¥
à¸Ļà¹Ģà¸Ī à¸Ńà¸£
tern ational
Ġà¸¡ à¸²à¸ģà¸ģà¸§
à¸²à¸ķ à¸°
à¸Ļ à¹Ģà¸ģà¸²à¸°
à¸ģ à¹Ģà¸ķà¸Ńà¸£
à¸µ à¹Ĭ
à¸Ńà¸ģ à¸£à¸°
à¹Ģà¸Ħà¸¢ à¹Ħà¸Ķ
à¹ģà¸¡ à¸ķà¸Ĭ
à¸Ļà¸¡à¸²à¸ģ à¸ģà¸§
8 6
à¸§à¸¡ à¹ģà¸Ĥ
à¸Ĺà¸£à¸²à¸ļ à¸§
à¸§ à¸¨
à¸ĩà¸ģ à¸³à¸¥
à¸³à¸Ļ à¸²à¸į
y st
Ġ252 3
à¹Ĥà¸¡ à¸£
à¸Ķ à¸Ľà¸£à¸°à¸ªà¸ĩà¸Ħ
Ġ199 9
Ġ à¹Ģà¸Ńà¸ģ
à¸Ń à¹Ģà¸Ħà¸£
Ġà¹Ĥà¸£ à¸Ħ
à¸Ĭ à¸¥
à¸ģà¸²à¸£ à¸Ľà¸¥
à¸²à¸¢ à¸Ĭà¸Ļà¸°
à¸¡à¸²à¸ķà¸£ à¸²
3 6
à¸ª à¸§à¸¢à¸ĩà¸²à¸¡
à¸²à¸ĩ à¸ªà¸¡
Ġà¸Ī à¸Ļ
à¸²à¸ŀà¸£à¸° à¸¢à¸²
p l
à¸Ń à¹ĥà¸Ļ
à¸ª à¹Ħà¸ķà¸Ļ
à¸¹ -
à¸²à¸ĩ à¸«à¸¥
à¸Ń à¸£à¸°à¸«à¸§
à¸ļ à¸£à¸°à¸ļà¸ļ
Ġà¸ŀà¸£à¸° à¸¢
Ġà¹Ĥà¸£à¸ĩ à¸ŀà¸¢à¸²à¸ļà¸²à¸¥
à¸ķà¸Ļ à¸£à¸²à¸Ĭà¸ª
Ġt h
à¸ªà¸³ à¸£
à¸Ļà¸ŀà¸£à¸° à¸ŀ
à¸ļà¸£à¸£ à¸¥
à¹ĥà¸Ļà¸ł à¸²à¸ŀ
à¸ĩ à¸ł
à¹ģà¸£à¸ĩ à¸ĩà¸²à¸Ļ
à¸Ħà¸£à¸Ńà¸ĩ à¸£à¸²à¸Ĭà¸¢
à¸ĩà¸²à¸Ļà¸ Ħ
à¸ĩà¸Ĥà¸Ńà¸ĩ à¸Ī
à¹Ģà¸Ńà¸Ł à¹Ģà¸Ń
r ess
à¹Ģà¸£ à¸¢
à¸Ń à¹ģà¸ķ
à¸¥ à¹Ģà¸ĭ
à¹Ħ à¸ľ
à¹ģà¸ģ à¸°
à¸ªà¸° à¸ªà¸¡
à¸ĩ à¹ĥà¸Ļà¸£
à¸Ħà¸£ à¸£
à¸²à¸ĩ à¹ĥà¸«
à¸ķà¸£ à¸ģ
à¸ĩà¸¡ à¸²à¸£
à¸ŀà¸§à¸ģ à¸¡
Ġà¹ ĵ
à¹ģ à¸Ńà¸¡
à¸ģà¸© à¸²à¸Ń
à¸Ń à¸Ļà¸Ľ
à¹ģ à¸Ŀ
Ġ199 8
à¸¡ à¹Ĥà¸Ķà¸¢
Ġà¹ģ à¸Ńà¸Ļ
à¹Ĥà¸Ĭ à¸ģ
à¸ŀà¸¢à¸²à¸¢à¸²à¸¡ à¸Ĺ
à¹Ĥà¸£ à¸Īà¸Ļ
à¹ĥà¸Ļ à¹Ģà¸ģà¸¡
à¸Ĥà¸Ńà¸ĩ à¸ªà¸«à¸£
Ġà¸ª à¸Ļ
Ġà¸Ī à¸Ńà¸£
à¸Ľà¹ģà¸ļà¸ļ à¸Ĥà¸Ńà¸ĩ
Ġ à¸£à¸°à¸ļ
à¸Ĳ à¸ª
à¸§à¸ĩ à¸ģ
à¸Ĺà¸£ à¹ģà¸Ľà¸ĭ
à¸ģ à¹Ħà¸Ĺà¸¢
à¸Ĭ à¸ķ
à¹Ģà¸ĭ à¹Ĥà¸¥
Ġà¹Ĥ à¸ķ
à¸Ľà¸ª à¸£à¸£à¸Ħ
Ġ +
à¸Ļ à¸£à¸°à¸Ķ
à¹Ģà¸Ķ à¸Ļà¸¡à¸²à¸£
à¸Ļà¸¨ à¸²à¸ªà¸ķà¸£
Ġà¸ĭ à¸¡
Ġà¸Ń à¸²à¸«à¸²à¸£
e e
à¸£à¸° à¸¡
à¸²à¸Ķ à¸£
à¸Ńà¸ģ à¸£
à¸ªà¸²à¸¡à¸²à¸£à¸ĸ à¹Ģà¸Ĥ
à¸§ à¸Ļà¸Ħ
Ġà¸Ħ à¸Ńà¸£
Ġ à¸Ŀà¸£
à¸² à¹Ĥà¸Ķà¸¢
à¸ĩ à¸ĺà¸Ļà¸ļ
à¸ģà¸²à¸£ à¹ģà¸ļ
à¸į à¸ª
à¸į à¸¨
à¸Ī à¸ģ
à¹ģà¸¥à¸° à¸ģà¸¥
à¸ļà¸Ĺà¸ļà¸²à¸Ĺ à¸ªà¸³à¸Ħ
à¸Ńà¸ģ à¹Ħà¸¡
à¸²à¸« à¸¡à¸ĵ
à¸¢à¸Ļ à¸Ńà¸¢
à¸łà¸²à¸Ħ à¹Ģà¸«à¸Ļ
à¸Ĵà¸Ļ à¸²à¸Ĥ
à¸Ļà¸ķ à¸°à¸§
à¸² à¹ĥà¸«à¸¡
à¸Ħ à¹ģà¸«
à¸²à¸¡ à¸Ļ
à¸įà¸« à¸²à¸Ĺ
Ġ à¸ģà¸£à¸£à¸¡à¸ģà¸²à¸£
à¸¹ "
à¹Ģà¸Ńà¸Ļ à¹Ħà¸ĭà¸¡
à¸Ĺà¸ĺ à¸¨à¸²à¸ªà¸ķà¸£
à¸ģà¸¡à¸§à¸¢ à¸ªà¸²à¸ģà¸¥
Ġ e
à¸ļ à¸Ľà¸¥
à¸¢à¸²à¸¢ à¸²à¸¡
Ġà¸Ħà¸§à¸²à¸¡ à¸ª
à¸§ à¸Ļà¸Ī
à¸Ńà¸ĩ à¹Ħà¸Ľ
Ġà¸ªà¸¡ à¸²à¸Ħà¸¡
Ġà¸Ħà¸ĵà¸° à¸ģà¸£à¸£à¸¡à¸ģà¸²à¸£
à¸ģà¸§ à¸²à¸Ķ
à¸įà¸Ĭà¸²à¸ģà¸²à¸£ à¸Ĺà¸«à¸²à¸£
à¸ģ à¸¤à¸©à¸İ
à¸ª à¸²à¸ĺà¸²à¸£à¸ĵà¸ª
à¸ļà¸ģà¸²à¸£ à¸Ħ
Ġp ro
à¸£à¸£ à¸Ĺ
Ġ196 0
à¸Ķà¸ª à¸Ńà¸Ļ
à¸£à¸²à¸¢ à¸ĩà¸²à¸Ļà¸§
8 7
à¸Ĺ à¸¥
à¸ģà¸²à¸£ à¹ģà¸ŀà¸Ĺà¸¢
à¸Ļà¸Ĺ à¸°à¹Ģà¸¥
à¸«à¸¥ à¸ļà¸«à¸Ļ
à¸ģà¸ĩà¸²à¸Ļà¸Ħ à¸ĵà¸°à¸ģà¸£à¸£à¸¡à¸ģà¸²à¸£
à¸¢à¹Ģà¸ģà¸©à¸ķà¸£ à¸¨à¸²à¸ªà¸ķà¸£
à¸Ĥ à¸ĵà¸°
à¸§à¸Ķ à¸¥à¸²à¸¢
à¸²à¸Ńà¸²à¸ģà¸²à¸¨ à¸¢
Ġ à¹Ħà¸Ł
à¸¥ à¹Ģà¸ģ
à¸¥ à¸Īà¸²à¸ģ
à¸Ńà¸ļ à¸ªà¸Ļ
oun d
Ġà¸ªà¸¡ à¸£à¸ªà¸ģ
à¹Ģ à¸Ļà¸Ľ
à¸ģ à¸®
à¸§à¸¡ à¸ªà¸¡
Ġ251 6
à¸Ļà¹Ģà¸Ļ à¸Ńà¸£
à¹Ģà¸ŀ à¸Ńà¸£
à¸Ļà¸Ļ à¸²à¸¢
an s
à¸§ à¸Ļà¸Ĭ
à¹Ĥ à¸«à¸§
à¸ļà¸ģà¸²à¸£ à¹Ģà¸ªà¸Ļà¸Ńà¸Ĭ
à¸ļ à¸®
à¹Ĥà¸ķ à¸¡
Ġ252 7
à¸Ńà¸ĩ à¸ŀà¸£à¸°
Ġà¹ģà¸¥à¸° à¸Ħà¸§à¸²à¸¡
à¹Ĥà¸Ĺ à¸Ļ
à¸£à¸£ à¸ĸ
à¸Ļà¸Īà¸° à¹Ģà¸Ľ
à¸Ń à¸Īà¸°
Ġà¸Ń à¸ĺ
Ġ252 6
Ġà¹ģà¸¥à¸° à¸«à¸Ļ
Ġ252 4
à¸ªà¸° à¸Ķ
à¸¢ à¸«à¸¥
à¸ļà¸£à¸£ à¸ĵ
à¸² à¹Ģà¸ĺà¸Ń
à¸²à¸¢ à¸ĸ
à¹ĥà¸Ļà¸ į
à¸¢à¸ĩ à¸Ļ
à¹ģà¸ª à¸Ļ
à¸Ļà¹ģà¸¥à¸° à¸ģ
à¸²à¸ĵ à¸²à¸Ļ
am e
à¸¢ à¸¨à¸£
à¸ĺ à¸ĩà¸Ĭà¸²à¸ķ
à¸¡ à¸ªà¸£
à¹Ģà¸Ĥ à¸ķà¸£
à¸ł à¸²à¸ľ
à¸° à¹Ģà¸¢
à¹Ĥ à¸¢à¸°
à¸ļ à¸ŀà¸£à¸£à¸Ħ
à¸Ĺ à¸Ĭ
à¸§à¸ĩ à¸Ķà¸Ļà¸ķà¸£
à¹ģà¸Ļà¸§ à¸£
à¸ĩ à¸Ľà¸£à¸²à¸ģà¸ı
à¸Ĺ à¸Ńà¸Ķ
à¸į à¸£
à¸ĩà¸Ħ à¸¡à¸Ĺ
à¹ĥà¸Ļà¸Ľà¸£à¸°à¹Ģà¸Ĺà¸¨ à¸į
à¸ĩà¸²à¸Ļà¸Ľ à¸£à¸°
à¸Ńà¸ĩ à¹Ģà¸ķ
à¸¢ à¸Ļà¸ŀ
à¸Ļà¸£ à¸²à¸¢
à¸Ļà¹Ģà¸Ľ à¸¥
à¸Ī à¸Ĥà¸Ńà¸ĩ
à¸Ĺà¸²à¸ĩ à¹Ģà¸Ķ
à¹Ģà¸Ĺà¸Ļà¹Ģà¸¡ à¸Ļà¸ķ
à¸Ńà¸ĩ à¸ķà¸²à¸¡
à¸²à¸Ĺà¸³ à¸ĩà¸²à¸Ļ
à¸²à¸Ļ à¹ģà¸¥à¸°
à¸²à¸Ķ à¸§
à¸²à¸ĩ à¸£à¸°à¸«à¸§
à¹Ģà¸Ļ à¸£
à¹Ģà¸§à¸¥ à¸²à¸ķ
Ġà¸ªà¸²à¸Ĥ à¸²
à¸¢ à¸Ńà¸ĩ
à¸ģ à¹ĥà¸Ī
à¸ģà¸£à¸° à¹Ĥà¸Ķ
Ġà¹ĥà¸Ļà¸ģà¸²à¸£ à¹ģà¸Ĥ
y l
à¸¡ à¹Ģà¸¡à¸Ńà¸£
à¸ª à¸ĩ
à¸ķà¸ļà¸Ńà¸¥ à¸Ĭ
Ġ251 7
à¸¨à¸§à¸ģà¸£à¸£à¸¡ à¸¨à¸²à¸ªà¸ķà¸£
à¸Ļà¸ķ à¸Ļ
S T
à¸¥ à¸Ī
à¸ļ à¸Ļà¸ŀ
à¸ļà¸ģà¸²à¸£ à¸¢à¸ģà¸¢
à¸£ à¸©à¸Ĳ
à¸ģ à¹ģà¸ģ
à¸¡ à¹ģà¸Ĥ
à¸§ à¹Ģà¸ģ
= "
à¸§à¸ĩ à¹Ģà¸§à¸¥à¸²
à¸ĩ à¹ĥà¸Ļà¸Ĺ
Ġc h
à¸Ķ à¸Ķà¸²
à¹Ģà¸£ à¹Ģà¸Ļ
à¹ĥà¸Ļ à¹Ģà¸Ĭ
à¸ļà¸ª à¸²à¸¡
à¸Īà¸ŀà¸£à¸°à¸£à¸²à¸Ĭ à¸²à¸ĺ
à¸ªà¸²à¸§ à¸£
Ġ à¸ĺà¸£à¸£à¸¡
à¸Ļ à¹ģà¸Ĥ
à¸¡ à¸ļà¸£
à¸į à¸Ĭà¸Ļà¸°
à¸ĩà¸ª à¸ĩà¸Ħà¸£à¸²à¸¡
à¸Ľà¸£à¸°à¸Ĭ à¸²à¸ª
à¹ĥà¸Ļà¸ģà¸²à¸£ à¹Ģà¸Ĥ
à¸Ħà¸¥ à¸²à¸ªà¸ª
à¸§à¸ĩ à¸¤à¸Ķ
à¸ĩà¸Ħà¸£ à¸£à¸ł
B C
à¸Ķ à¸ģà¸£à¸°à¸Ĺà¸£à¸§à¸ĩ
à¸ģà¸²à¸¥ à¸Ļ
à¸Ļà¸łà¸²à¸© à¸²à¸Ń
à¹ģà¸¥à¸° à¸Ľà¸£
à¸ģà¸£ à¸Ń
à¸ª à¸§à¸¡
3 3
à¸Ńà¸ĩ à¹ĥà¸«à¸į
à¸Ł à¹Ģà¸§à¸Ńà¸£
à¸Ńà¸ļ à¸Ń
à¸Ľà¹ģà¸ļà¸ļ à¸Ĺ
à¸§ à¸Īà¸£
à¸²à¸ĩ à¸ĩ
à¸į à¸Ń
en er
à¸«à¸¥à¸²à¸¢ à¸Ħà¸Ļ
à¸Ń à¹Ĥà¸ķ
à¸§à¸¢ à¹Ģà¸Ľ
à¸¡à¸« à¸²
à¸Ľà¸£à¸°à¸Ĭà¸²à¸Ĭ à¸Ļà¸Ĺ
4 4
à¸ĩ à¹Ģà¸Ħ
à¸Ĥ à¸ĵà¸°à¸Ĺ
à¸§à¸¢ à¸«
à¸ĩ à¸«à¸¡à¸²à¸¢à¸ĸ
à¸Ń à¸Ĭà¸²à¸ķ
Ġà¹ĥà¸Ļ à¹Ģà¸£
à¸ĩà¸¥ à¸Ńà¸Ļà¸Ķà¸Ńà¸Ļ
à¸Ħ à¸Ļà¸£
i um
à¸Ľ à¸¥à¸ĩ
à¹Ĥà¸¡à¸ªà¸£ à¸Ł
a u
à¸Ħà¸Ļ à¹Ĥà¸ķ
à¸įà¸įà¸² à¹Ģà¸Ńà¸ģ
à¸§ à¸łà¸²à¸ŀ
à¹Ģà¸Ĥà¸² à¹Ħà¸Ł
à¸Ńà¸¡à¸² à¹ĥà¸Ļà¸§
à¸ľ à¸¡
in al
à¹ģà¸ģà¸£ à¸¡à¸¡
à¹Ģ à¸Ļà¸°
à¸ĩ à¹ĥà¸Ļà¸ľ
à¹Ĥ à¸Łà¸£
à¸ĩ à¹ģà¸ªà¸Ķà¸ĩ
à¸Ĺà¸³ à¸ĩà¸²à¸Ļà¸Ĥà¸Ńà¸ĩ
ĠN ew
à¸ģà¸²à¸£ à¹Ģà¸Ĭ
à¸Ńà¸¢ à¸¡à¸²à¸ģ
Ġà¸ª à¸ĸà¸²à¸Ļà¸Ĺ
er t
ĠC on
Ġ252 0
à¸Ļà¸¢ à¸²à¸§
à¸Īà¸į à¸ł
à¸¥ à¸²à¸ģà¸²à¸£
à¸¢ à¸Ļà¸Īà¸²à¸ģ
à¸¢à¸ĩ à¸Ĭ
à¸²à¸Ńà¸²à¸§à¸²à¸ª à¸§
à¸§ à¹Ģà¸ŀ
à¸Ĺà¸²à¸ĩ à¸Ī
à¸Ķà¸²à¸§ à¹Ģà¸Ħà¸£à¸²à¸°à¸«
à¸ļ à¸ŀà¸£à¸°à¸£à¸²à¸Ĭà¸Ĺà¸²à¸Ļ
à¹Ģà¸Ĺà¸ŀ à¹Ģà¸Ī
à¹Ģà¸ļ à¸¨à¸£
à¸Īà¸ŀà¸£à¸° à¸Ľà¸£à¸¡
à¸Ħà¸§à¸²à¸¡ à¹Ģà¸ģ
à¸²à¸Ľà¸£à¸° à¸ª
1 00
à¸¡ à¸²à¸Ńà¸¢
Ġà¹Ģà¸Ķ à¸§
à¸ģà¹Ģà¸ª à¸ļ
à¸Ļà¸²à¸£ à¸²à¸¢à¸ĵ
7 7
à¸ļ à¹Ģà¸Ĥà¸²
Ġà¸Ķ à¸Ńà¸¥à¸¥à¸²à¸£
od e
à¸¹ à¹ĭ
à¸Ĭ à¸¡à¸ŀ
à¸Īà¸²à¸ģ à¸£
à¹Ĥà¸¡ à¸°
à¸Ħà¸§à¸²à¸¡à¸«à¸¡à¸²à¸¢ à¸§
à¸Ļ à¹ģà¸¥à¸Ļà¸Ķ
à¸Ĺ à¸Ķà¸¥à¸Ńà¸ĩ
r on
à¸Ķ à¸Ńà¸Ļ
à¸¢ à¹ĥà¸Ī
à¸ļà¸Ħà¸§à¸²à¸¡ à¸ª
R I
à¸¢à¸ĩ à¹Ģà¸¥
Ġà¸Ľ à¸²à¸ģ
à¸ĩà¹ģ à¸®
à¹Ģà¸Ĺ à¸ŀà¸£
à¸ļà¸£à¸£ à¹Ģà¸¥
à¸§ à¹ģà¸ķ
à¸ª à¸§à¸²à¸¡
à¸ļà¸ģ à¸Ńà¸ĩà¸Ĺ
à¸Ļ à¸¥à¸°
4 2
l and
Ġà¸¡ à¸²
à¸Īà¸ŀà¸£à¸° à¸Īà¸Ńà¸¡à¹Ģà¸ģà¸¥
Ġ199 7
à¸Ļ à¹Ģà¸«à¸Ļ
à¸Ĥà¸Ńà¸ĩ à¸į
à¸Ńà¸ļ à¸Ħà¸¥
Ġà¸Ń à¸²à¸¨
à¸©à¸Ĳ à¸²à¸Ļ
à¸¢ à¸ģà¸¥
à¸ļ à¸²à¸Ļ
à¸ļ à¸Ĭà¸²à¸§
à¸²à¸¡ à¸²à¹Ģà¸Ľ
à¸ģ à¹Ģà¸Ī
à¸§à¸ĩ à¸Ĭ
à¸²à¸ĩà¸ģ à¸Ńà¸ģ
us t
à¸²à¸¢ à¹ģà¸¥à¸°
à¸ĵ à¸ĺà¸£à¸£à¸¡
Ġà¸Ń à¸Ńà¸£
à¸Ĺà¸ĺ à¸ģà¸²à¸£
à¸ļà¸ģà¸²à¸£ à¹ģà¸ªà¸Ķà¸ĩà¹Ĥà¸Ķà¸¢
à¸«à¸¥à¸²à¸¢ à¹ģà¸«
à¸Ĥà¸Ńà¸ĩ à¹Ħà¸Ĺà¸¢
à¹Ĥà¸Ķà¸¢ à¸ľ
à¸Ļà¸³ à¸¡à¸²à¹ĥà¸Ĭ
à¸ª à¸§à¸Ļ
à¸Ļà¹Ĥà¸Ķ à¸§à¸ª
Ġà¹Ĥ à¸Ļà¸°
à¸ĩà¸²à¸Ļà¸ Ĭ
à¸ģ à¹ģà¸¥
à¸Ķ à¸ģà¸£
à¸Ļà¸ķ à¸²à¸ĭ
à¸Ĺà¸£à¸ĩ à¸Īà¸³
à¸Ļà¸ŀà¸£à¸° à¸Ń
à¸Ļà¸ª à¸ķ
à¸§à¸£ à¸§
à¸Ļà¹Ĥ à¸Ħ
à¸Ľ à¸ªà¸¡
à¸ĩà¸ģ à¸²
à¸Ľ à¸£à¸²à¸Ĭ
à¸²à¸ĩ à¹Ģà¸ªà¸£
à¹ĥà¸Ļà¸ ĸ
à¸ķà¸ķ à¸²à¸Ļ
c l
à¹ī ,
à¸Ńà¸ĩ à¸Ĭà¸Ļà¸°à¹Ģà¸¥
à¸³ à¹Ģà¸Ī
à¹ĥà¸Ļ à¹Ĥà¸£à¸ĩà¹Ģà¸£
à¸³ à¸Ľ
Ġà¹Ģà¸ŀà¸£à¸²à¸° à¸¡
up er
à¸Ķà¸Ĥ à¸²à¸Ķ
à¸«à¸¥à¸²à¸¢ à¸Ĭà¸Ļ
ĠE x
t or
à¸ĩ à¸£à¸°à¸ļà¸ļ
à¸Ĥà¸Ńà¸ĩ à¸Ļà¸²à¸¢
à¸Ļà¸ĸ à¸Ļ
à¹ģà¸Ńà¸ķ à¹ģà¸¥à¸Ļà¸ķ
à¸Ńà¸ĩ à¸Ŀ
à¸ģà¸¥à¸²à¸ĩ à¸Ħ
à¸²à¸Īà¸° à¸ķ
à¸§à¸Ļà¸ķ à¸³à¸ļà¸¥
à¹ģ à¸ľà¸¥
à¸Ńà¸ĩ à¹Ģà¸¡
Ġà¹ģà¸¥à¸° à¸¨
à¸ģà¸ķ à¸Ńà¹Ģà¸£
à¸ķ à¸§à¸£à¸£à¸©
à¸ŀà¸£à¸° à¸ļà¸£à¸¡
à¸²à¸« à¸Ļà¸°
à¸£à¸£à¸¢ à¸²à¸ģà¸²à¸¨
à¸²à¸ĩ à¸Ħà¸¥
à¸ĵ à¸§
à¸ŀà¸£à¸° à¸§
à¸Ļà¸Ĥà¸Ńà¸ĩ à¸ķ
à¸Ĭ à¸§
à¸¥à¸Ń à¸Ńà¸ªà¸ģà¸²à¸£
Ġà¸Ńà¸Ńà¸ģ à¸Īà¸³à¸«à¸Ļ
Ġ199 6
à¸Īà¸Ńà¸¡ à¸ŀà¸¥
m a
à¸Ļ à¸Ńà¸¥
à¸Ń à¸Ļà¸ľ
à¸ģ à¸²à¸¡
à¸ģà¸Ķ à¸Ķ
à¸Ħà¸³ à¹ģà¸«
à¸ĩ à¹Ħà¸Ľà¸¢
à¸Ļà¹ģ à¸ŀ
ĠB e
à¹ĥà¸Ļà¸Ľ à¸£à¸°
à¸Ħà¸§à¸²à¸¡ à¸Ĺ
à¸Ļà¸Ĺà¸²à¸ĩ à¹Ħà¸Ľà¸¢
à¸ĩà¸Ń à¸²à¸¢
à¸¥ à¸²à¸Ī
à¸Ńà¸¡ à¸²à¸Ī
Ġ7 5
à¸²à¸Ļà¸ ³
à¸ģà¸©à¸ĵà¸° à¹Ģà¸Ķ
re e
à¸Ļà¹Ĥà¸Ħà¸£ à¸ĩà¸ģà¸²à¸£
Ġ al
à¸ª à¸Ńà¸ĩà¸Ħ
à¸Ļà¸³ à¹Ģà¸Ĥ
à¸¡à¸« à¸²à¸Ń
Ġà¸Ľà¸£à¸° à¸ĺ
à¸Ńà¸²à¸ĵà¸²à¹Ģà¸Ĥà¸ķ à¸ķ
à¸²à¸¢ à¹ĥà¸«
Ġà¸Īà¸° à¸ĸ
i re
à¸Ńà¸¢ à¹ĥà¸«
S A
à¸¢ à¹Ģà¸ģ
à¸ķ à¸Ħ
à¸Ĥà¸Ńà¸ĩ à¹Ģà¸ª
à¸Īà¸° à¹Ģà¸¥
à¸ªà¸¡ à¸Ħà¸§à¸£
à¸Ķà¸£ à¸ĺà¸²à¸Ļ
à¸Ńà¸¡ à¸§à¸¥
ĠY ou
t on
à¸³ à¹ģà¸ŀ
à¸²à¸§ à¸Ķà¸²à¸£
à¸Ĭà¸²à¸¢ à¹ģà¸Ķ
à¸ļ à¹ģà¸£à¸ģ
à¹ĥà¸Ļ à¹Ģà¸§à¸¥à¸²
à¸Ńà¸ģ à¸³à¹Ģà¸Ļ
à¸«à¸¡à¸²à¸¢ à¹ĥà¸«
3 2
Ġ à¸£à¸²à¸Ĭà¸§à¸ĩà¸¨
à¸²à¸¢ à¸¥
à¹ĥ à¸Ķà¸Ĺ
à¸²à¸¢ à¸Ńà¸¢
Ġ25 00
à¸ģà¸£à¸£à¸¡ à¸²à¸ĺ
à¸ŀà¸¥ à¸Īà¸²à¸ģ
à¸ªà¸ª à¸²à¸§à¸°
à¸²à¸ªà¸²à¸£ à¸Ħà¸²à¸¡
à¸ĩ à¹Ģà¸ĭ
à¸²à¸Ļà¸ ĺ
à¸²à¸Ľà¸£à¸° à¸Ĭ
à¸²à¸Ĺà¸³ à¹ĥà¸«
à¸Ĺà¸²à¸ĩ à¸ªà¸ĸà¸²à¸Ļ
Ġà¹ Ĵ
à¸²à¸¡ à¸°
Ġà¸ģ à¸ģ
à¹Ģà¸© à¸ģ
à¸Ńà¸ĩà¸£à¸²à¸Ĭ à¸Ń
à¸¡ à¸«à¸£
à¸Ľ à¹Ģà¸Ńà¹Ģà¸Ĭ
à¸³ à¹Ĥà¸Ĥ
à¸Ļà¸Ĺà¸£ à¸§
Ġ <
à¸Ĺ à¸£à¸£
à¸ķà¸²à¸¡ à¸¥à¸³à¸Ķ
Ġ251 5
Ġà¹ĥà¸Ļà¸ª à¸«à¸£
à¸Ĥà¸Ńà¸ĩ à¸Ľà¸£à¸°à¹Ģà¸Ĺà¸¨à¹Ħà¸Ĺà¸¢
à¸¨à¸§ à¸ģà¸£
à¸Ľà¸£à¸°à¸Īà¸³ à¸§
à¸Ķ à¸®
à¸ģà¸¥ à¸²à¸¢à¸¡à¸²à¹Ģà¸Ľ
ic k
is e
Ġ24 0
à¸łà¸²à¸Ħ à¸ķ
Ġà¹Ģà¸ģ à¸¡
à¹Ĥà¸ģà¸£ à¸ĺ
à¸Ħà¸§à¸²à¸¡ à¹Ħà¸¡
Ġà¹ģ à¸Ńà¸Ļà¸Ķ
à¹Ĥà¸£à¸ĩ à¸ĩà¸²à¸Ļ
à¹Ģà¸Ńà¸ģ à¸¥
ĠUnivers ity
d uc
à¸Ĺ à¸Ń
Ġà¹ģà¸¥à¸° à¸ļà¸£
à¹ĥà¸Ļà¸ģà¸²à¸£ à¹ĥà¸Ĭ
à¸Ļà¸Ľà¸£à¸° à¸ĸà¸¡à¸¨
à¹ģà¸Ļà¸§ à¸Ĺà¸²à¸ĩ
Ġ à¸Ľà¸£à¸²à¸ģà¸ı
à¸Ķ à¸łà¸²à¸©
à¹ĥà¸Ļà¸ķ à¸¥à¸²à¸Ķ
à¸° à¸ļ
à¸ª à¸¥à¸°
Ġà¸ļ à¸¥
i tion
à¸ģ à¸ļà¸§à¸Ĭ
à¸į à¸²à¸ģà¸£à¸£à¸¡
à¸ļà¸£ à¸Ń
à¸ĩ à¸Ħà¸§à¸²à¸¡à¸£
à¹Ģà¸§à¸¥ à¸²à¸Ļ
à¹Ĥà¸£à¸ĩ à¸łà¸²à¸ŀà¸¢à¸Ļà¸ķà¸£
f orm
y s
ĠL ove
! "
à¸Ļ à¸²à¸Ħà¸²à¸£
à¹Ģà¸¡ à¸Ĺ
à¸§à¸¡ à¹Ģà¸Ľ
à¸«à¸²à¸£ à¸Ī
à¹Ĥà¸Ń à¸ĭ
à¹Ĥà¸Ľà¸£ à¹Ĥà¸¡
Ġà¸ģà¸£à¸° à¸Ĺà¸£à¸§à¸ĩà¸¨
à¸ľà¸ªà¸¡ à¸ŀ
à¹Ĥ à¸ĺ
at er
à¸²à¸¢ à¹ĥà¸Ļà¸§
à¸²à¸¡ à¸²à¸ķ
à¹Ģà¸Ķ à¸Ń
à¹Ģà¸§ à¸ªà¸ķ
à¸²à¸ĩ à¸łà¸²à¸ŀ
à¸²à¸ª à¸³à¸«à¸£
à¹Ģà¸Ī à¸Ļà¸ķ
à¸¥à¸Ľ à¸§
7 9
à¸ĩ à¸Ľà¸£à¸°à¸ĺà¸²à¸Ļà¸²à¸ĺ
Ġà¸ŀà¸£à¸° à¸Ń
Ġà¸Īà¸²à¸ģ à¸¡à¸«à¸²à¸§
ĠM an
à¸Ļà¸Ĺà¸£à¸¡à¸« à¸²à¸ł
à¸¢ à¸Ħà¸£
à¸ģà¸©à¸² à¹Ĥà¸£à¸Ħ
Ġ252 1
à¸Ħà¸£à¸Ńà¸ļ à¸Ħà¸£à¸Ńà¸ĩ
à¸² à¹Ģà¸®à¸Ļà¸£
à¸Ī à¸Ń
à¸Ńà¸Ńà¸ģ à¸Īà¸³à¸«à¸Ļ
Ġà¹Ģà¸Ń à¸ª
à¹ģà¸Ł à¸£
à¸£à¸£à¸¢ à¸²à¸Ĥà¸Ńà¸ĩ
à¸§ à¸Ńà¸¥à¹Ģà¸¥à¸¢
à¸³ à¸¢
à¸¢à¸¡ à¸Ńà¸¢
Ġ an
ĠO r
à¹ĥà¸Ļ à¸Ńà¸Ļà¸²à¸Ħà¸ķ
Ġà¸Ľà¸£à¸°à¹Ģà¸Ĺà¸¨ à¹Ħà¸Ĺà¸¢
à¸Ńà¸¢ à¸Ľ
à¸Ń à¹Ĥà¸£à¸Ħ
à¸ģà¸²à¸£ à¸ľ
à¸§à¸ĩ à¸£
à¸Ĺà¸²à¸ĩ à¸ŀ
à¸¥à¸° à¹Ģà¸¡
à¸Ńà¸Ĺ à¸£à¸ĩ
à¸§ à¸Ńà¸¥
à¹Ĥà¸ļà¸£à¸²à¸ĵ à¸Ħà¸Ķ
à¹ ĳ
à¸Ļà¸Ħ à¸ĵà¸°
à¸Īà¸³ à¸ŀà¸§à¸ģ
Ġà¹ĥà¸Ļà¸ ¤à¸Ķ
à¸ī à¸¥
à¸Ĵ à¸Ļà¸²à¸¡
à¸ģà¸Ļà¸³ à¸¡à¸²à¹ĥà¸Ĭ
à¸ģ à¸Īà¸°à¹Ģà¸Ľ
Ġà¹ģà¸¥à¸° à¹Ģà¸ģ
à¸ĩà¸ª à¸³à¸«à¸£
Ġà¸ģà¸²à¸£ à¹ģà¸Ĥ
à¸ģ à¹Ģà¸ĸ
à¸¡à¸²à¸£ à¸Ķà¸²à¸Ĥà¸Ńà¸ĩ
Ġà¹Ģà¸§ à¸¥
à¸Ńà¹Ģà¸ª à¸Ļà¸Ń
à¸ĩà¸ģà¸¥ à¸²à¸¢à¹Ģà¸Ľ
à¸²à¸Ľà¸£à¸° à¸ķ
à¹ĥà¸Ļà¸łà¸²à¸© à¸²à¸Ń
s ection
à¸¸ à¹ĭ
à¸įà¸« à¸²à¸ģà¸²à¸£
à¸Ļà¸ª à¸ĸà¸²à¸ļ
Ġà¸ģà¸²à¸£ à¸ŀ
à¸ģà¸²à¸£ à¸¡
à¸Ļà¹Ĥ à¸Ĺ
à¹ģà¸Ĺà¸Ļà¸£à¸²à¸©à¸İà¸£ à¸Ī
à¸² à¹Ģà¸¢
à¸§ à¹Ģà¸ķ
à¸²à¸ĩà¸ª à¸²à¸§
à¸ĩà¹ģà¸£à¸ģ à¹ĥà¸Ļ
Ġà¹Ģà¸¢ à¸Ńà¸£
A N
à¸Ļ à¹Ħà¸£
à¸ĩ à¹Ģà¸Ħà¸¢
Ġà¸ª à¸ĸ
à¸§ à¸Īà¸²à¸ģ
à¸Ķ à¸Ńà¸³à¸Ļà¸²à¸Ī
à¹ģ à¸Ńà¸Ľ
à¸Ĭ à¸Ļà¸ģ
à¸§à¸¡ à¹ģà¸ªà¸Ķà¸ĩ
à¸²à¸ª à¸ģ
Ġà¸Ĺà¸³ à¸«à¸Ļ
à¸² à¹Ģà¸ĩ
à¸²à¸¢ à¹Ģà¸ŀà¸¥à¸ĩ
à¸į à¸«à¸Ļ
à¹Ģà¸§à¸Ĺ à¸¡à¸Ļà¸ķà¸£
à¸§ à¸ķà¸£
à¸Ļà¸£ à¸Ńà¸ĩ
Ġà¹ģà¸¥à¸° à¹Ģà¸ŀà¸¥à¸ĩ
à¸Ĺà¸²à¸ĩ à¸Ĺà¸«à¸²à¸£
ir l
à¹Ģà¸ĭà¸Ļ à¸Ńà¸¥
à¸Ħ à¸Ļà¸ª
à¸§à¸¢ à¹Ħà¸¡
à¸Ļà¸¡ à¸Ļ
m p
à¸¡ à¹Ĥ
à¸ķ à¸ŀ
à¸ģà¸© à¸²à¸ģ
à¸Ľà¸£à¸°à¹Ģà¸Ĺà¸¨ à¸Ī
à¸Ļà¹Ģà¸ŀà¸¥à¸ĩ à¸Ĺ
à¸²à¸ Ĩ
à¹Ħà¸Ĺà¸¢ à¸¥
t s
à¸ŀà¸£à¸° à¸Ī
Ġà¸Ī à¸Ńà¸¡
à¸Ļà¸ŀ à¸£à¸£à¸Ħ
Ġ199 2
7 8
à¸ģà¸²à¸£ à¸ļà¸Ķ
en g
Ġà¹Ĥà¸Ķà¸¢ à¸Ĭ
à¸Ńà¸Ńà¸ģà¸¡à¸² à¹Ħà¸Ķ
3 4
à¸§ à¹ĥà¸Ļ
à¸¡ à¹Ħà¸Ľ
à¸Ķ à¸ªà¸³à¸Ļ
à¸Īà¸° à¸Ħ
à¸§à¸¥à¸°à¸Ħà¸£ à¸Ĺ
c o
à¸ĩ à¹ĥà¸Ļà¸ªà¸¡
Ġà¹ģà¸¥à¸° à¹Ģà¸ª
Ġà¸¡ à¸Ļ
à¸¡à¸Ĺ à¸«à¸²à¸£
à¹Ģà¸Ł à¸¥
à¹Ħ à¸Ńà¸Ļ
à¸ģà¸²à¸£ à¸ģà¸¥
à¸³ à¹ĥà¸«
à¸²à¸§ à¸«
Ġà¸ģà¸²à¸£ à¸Ħ
à¸ģ à¸Ĩ
à¸²à¸Ļ à¸ģà¸¥à¸²à¸ĩ
à¸ģà¸£ à¸Ľà¸ģà¸Ħà¸£à¸Ńà¸ĩà¸ª
à¸Ĥà¸Ńà¸ĩ à¸ģà¸Ńà¸ĩà¸Ĺ
à¸¢à¸ĩ à¸ŀà¸Ń
Ġ12 0
à¸ľà¸ªà¸¡ à¸ľ
6 5
à¸¡ à¸²à¸ĭ
à¸¢ à¸«à¸Ļ
à¸ģà¸²à¸£ à¹ģà¸ģ
à¸²à¸¢ à¸ļ
à¸²à¸Ī à¸³à¸Ļà¸§
Ġs p
à¸§à¸ĩà¹Ģà¸§à¸¥ à¸²à¸Ĺ
à¹Ģà¸ĵ à¸£
Ġ à¹Ħà¸Ľà¸¢
Ġà¹Ĥ à¸Ħà¸¥
à¸ģà¸©à¸²à¸ķ à¸Ńà¸Ļà¸Ľà¸¥à¸²à¸¢
à¸ģà¸©à¸²à¸Īà¸²à¸ģ à¹Ĥà¸£à¸ĩà¹Ģà¸£
à¸ªà¸Ńà¸Ķ à¸Ħà¸¥
à¸ª à¹Ģà¸Ĺ
à¸ŀà¸ļ à¹Ģà¸«
Ġà¸Ľà¸£à¸°à¹Ģà¸Ĺà¸¨ à¸į
à¸ľà¸¥à¸ĩ à¸²à¸Ļà¸Ĺ
Ġà¸Ńà¸³à¹Ģà¸ł à¸Ńà¸ļ
à¹ģà¸ļà¸ļ à¸Ń
à¸¥ à¸Ĥ
à¸ļ à¸Ĭà¸²à¸ķ
à¸Ńà¸Ķ à¹Ģà¸¢
à¸ľà¸¥ à¸ªà¸Ńà¸ĩà¸Ļ
à¸ĩà¸£ à¸ĸ
à¸Ļà¹Ģà¸Ĺ à¸Ħà¹Ĥà¸Ļà¹Ĥà¸¥à¸¢
Ġà¹ģà¸Ĺ à¸Ļà¸Ĺ
à¸Ń à¸Ľà¸¥
Ġ3 9
à¹Ĥà¸Ī à¹Ĥà¸ī
à¸ģ à¸ŀà¸£
à¸¡ à¸Ħà¸§à¸²à¸¡
à¸ĩà¸ª à¸Ńà¸ĩà¸Ħ
ow n
à¸ĭà¸²à¹Ģà¸ļ à¸ĺ
à¸Ńà¸²à¸£ à¸²à¸¡
à¸Ĳ à¸²à¸Ļà¸ª
à¸ļà¸£à¸²à¸Ĭ à¸ļ
à¸Ń à¸Ļà¸Īà¸²à¸ģ
à¹Ģà¸¡ à¸Ļ
à¸Ĺà¸³ à¸ģ
à¸¥ à¹ģà¸«
à¸ľ à¸Ļ
à¸Ńà¸Ļ à¹Ģà¸£
ion s
à¸ĩ à¸ĩà¸²à¸Ļà¸Ĺ
à¸²à¸Ļ à¸²
à¸Īà¸²à¸ģ à¸ķ
à¸Ńà¸¡ à¸²à¸Īà¸²à¸ģ
à¸Ļà¹Ħà¸Ľ à¸Ĺ
à¹ģ à¸ģà¸¥
Ġ3 4
un g
à¸§à¸£à¸£à¸ĵ à¸ģà¸£à¸£à¸¡
à¸Ļ à¸²à¸ĭ
à¸ĩ à¸£à¸²à¸Ĭà¸Ńà¸²à¸ĵà¸²à¸Ī
Ġà¸Ħà¸£ à¸Ńà¸ļà¸Ħà¸£
à¸¡ à¸²à¸Ń
à¸¡à¸Ļ à¸²à¸ĸ
ĠMus ic
3 8
à¸ŀà¸£à¸°à¸£à¸²à¸Ĭ à¸Ķà¸³à¸£
à¸ŀà¸£à¸° à¸Ļà¸Ħà¸£
à¸§à¸Ļ à¸ģà¸¥à¸²à¸ĩ
à¸¥ à¹ģà¸ģ
à¸ĩà¸²à¸Ļ à¹Ģà¸Ĥ
as h
E R
à¸ª à¸²à¸ĺà¸²à¸£à¸ĵà¸°
à¸§à¸¢ à¸Ī
à¸«à¸²à¸¢ à¹ĥà¸Ī
à¸£à¸£à¸ŀ à¸ª
à¸²à¸§ à¹Ħà¸§
u al
à¸Ĥà¸Ńà¸ĩ à¸ªà¸¡à¹Ģà¸Ķ
à¸²à¸ Ĳ
à¸¡ à¸ģà¸¥
à¸Ńà¸Ķ à¸£
à¹ģà¸Ļà¸§ à¹Ĥà¸Ļ
à¸ļ à¸¥à¸ĩ
à¸į à¹Ģà¸Ľ
à¸ļà¸ª à¸¥à¸²à¸ģ
à¹Ģà¸ĺ à¸Ńà¸¢
yst em
à¸ļ à¸³à¸ļ
à¸Ļà¸ª à¸²à¹Ģà¸«à¸ķ
à¸Ļ à¸ģà¸£à¸£à¸¡à¸ģà¸²à¸£
à¸²à¸ģ à¸°
Ġà¹Ģà¸Ń à¸Ĭ
o ok
à¸ĩ à¸£à¸°à¹Ģà¸ļ
à¸Ńà¸ĩ à¹ģà¸«
Ġà¸¡ à¸¡
à¹Ĥà¸Ń à¹Ģà¸ģà¸¡
à¸Ķ à¸Ļà¸Ħà¸£à¸£à¸²à¸Ĭà¸ª
à¸Īà¸³à¸Ļà¸§ à¸Ļà¸«à¸Ļ
à¹Ģà¸¨à¸© à¸Ĺ
à¹Ģà¸©à¸ģà¸ªà¸¡ à¸£à¸ª
à¸Ńà¸Ļ à¹Ħà¸Ľ
Ġ y
à¸Ńà¸ĩ à¸Ľà¸£
à¸²à¸¢ à¸ľ
à¹ģà¸Ľà¸¥ à¸ģ
o hn
à¸į à¸§
à¸ģà¸£ à¸²à¸Ļ
à¸Ł à¸Ĺ
à¸Ļà¸Ļ à¸²à¸Ħ
Ġà¸Ķ à¸§à¸ĩ
Ġ247 5
Ġ/ >
à¹Ĥ à¸Ħà¸Ļ
Ġà¸Ľ à¸Ńà¸Ļà¸Ķ
à¸¢ à¸§à¸ĩà¸¨
à¸²à¸ª à¹Ģà¸ģ
à¸Ńà¸ļ à¸ļ
à¹ģà¸ªà¸Ķà¸ĩ à¸Ńà¸Ńà¸ģ
à¸²à¸§ à¸Ľ
à¸§à¸Ļ à¹Ģà¸ģ
à¸ļà¸²à¸ĩ à¸Ĭà¸Ļ
à¸ĩà¸ªà¸Ńà¸ĩ à¸Ŀ
à¸¢ à¸²à¸ļà¸²à¸¥
à¸Ļà¸Ĥà¸Ńà¸ĩ à¸Ĺ
à¸Ĥ à¸ĵà¸°à¸Ļ
à¸²à¸¢ à¹ģà¸£à¸ĩ
à¸Ĥà¸Ńà¸ĩ à¸®
Ġ3 7
à¹ĥà¸Ļà¸ļ à¸£à¸£à¸Ķ
à¸¡ à¹Ģà¸Ĭ
à¸į à¸¢
à¸Ńà¸¡ à¸²à¸ĸ
à¸ŀà¸£à¸£à¸ĵ à¸ļ
à¸¹ à¹Ĭ
Ġà¸Ĥà¸Ńà¸ĩ à¸Ĺ
en e
à¸²à¸ĩà¹Ħ à¸ģà¸¥
à¸ĩ à¸Ľà¸ı
à¸¥ à¹ģà¸¥à¸°
à¸Ļà¸Ķ à¸Ļà¸ķà¸£
Ġà¹Ĥà¸Ķà¸¢ à¸ĸ
à¸²à¹Ĥ à¸Ħ
à¸Ļà¸Ľà¸£à¸° à¹Ģà¸łà¸Ĺ
à¹Ģà¸ľ à¸Ķ
à¸²à¸¥ à¸²
à¸£à¸ĩ à¸ģ
à¹Ģà¸§à¸¥ à¸¥
Ġ4 00
à¸Ńà¸Īà¸²à¸ģ à¸Ļ
à¸§à¸£à¸£à¸ĵ à¸ł
A R
à¸²à¸ģ à¸ª
à¸§à¸¢ à¸¢
à¸²à¸¥ à¸°à¸ķ
à¸Ńà¸Ļà¸ª à¸Ļ
Ġà¸Ń à¸²à¸ĵà¸²à¸Ī
à¸Ħà¸§à¸²à¸¡à¸ª à¸°à¸Ķà¸§à¸ģ
r es
à¸² à¹ģà¸ľ
à¸ļ à¹Ģà¸ŀà¸¥à¸ĩ
à¸Ľ à¸Ĥà¸Ńà¸ĩ
Ġà¸Ń à¸²à¸ģà¸²à¸£
oc i
à¸Ńà¸ģ à¸³à¸«à¸Ļà¸Ķ
à¸«à¸¡ à¸§à¸Ķ
à¸Ĺà¸ĺ à¸¨à¸ķà¸§à¸£à¸£à¸©à¸Ĺ
Ġà¸Ĥà¸Ńà¸ĩ à¹Ĥà¸¥à¸ģ
Ġà¸ŀà¸¥ à¹Ģà¸Ńà¸ģ
s c
à¸¢ à¹ĥà¸Ļ
à¸Ĳà¸ªà¸ł à¸²
à¸¢ à¸²à¸ĩà¸Ħ
à¸«à¸²à¸£ à¸ĺ
à¹Ģà¸«à¸¥ à¸§
à¹Į :
à¸Ńà¸ĩ à¸ģà¸²à¸£à¸Ĺ
à¹ģà¸¥à¸° à¹Ģà¸ŀ
à¸Ľà¸£à¸°à¸ģà¸²à¸¨ à¹ĥà¸«
à¸¡ à¸ĩ
à¸° à¸Ĭ
à¹ģà¸¡ à¸Ļà¸ķ
Ġà¹Ģà¸ļ à¸Ńà¸£
à¸²à¸¢ à¸Ľ
à¸ī à¸¥à¸²à¸Ķ
à¸Ļà¹ģà¸Ķ à¸Ļà¸Ĺ
à¸Ĺà¸²à¸ĩ à¸ģà¸²à¸¢
à¸£à¸§à¸¡ à¸ľà¸¥à¸ªà¸Ńà¸ĩà¸Ļ
à¸Ļà¹Ģà¸Ńà¸ģ à¸¥
à¸Ĺà¸²à¸ĩ à¹Ģà¸«à¸Ļ
Ġà¹Ģà¸ŀà¸£à¸²à¸° à¸§
à¸²à¸Ħà¸§à¸²à¸¡ à¸£
à¸ģ à¸²à¸Ĺ
à¸¡ à¸ĵà¸ĳ
à¸§ à¹ģà¸Ľà¸£
ĠR e
à¹ĥà¸Ļà¸ŀà¸£à¸° à¸ļà¸²à¸Ĺà¸ªà¸¡à¹Ģà¸Ķ
à¸Ħ à¸ģà¸¥à¸²à¸ĩ
à¸ģà¸£ à¸¢
Ġ251 3
9 5
ti t
à¸Ħà¸Ļ à¹Ħà¸Ĺà¸¢
à¸Īà¸ŀà¸£à¸° à¹Ģà¸Ĺà¸ŀà¸£
à¸Ļà¸¨ à¸£
à¸ķà¸ģ à¹ģà¸ķ
à¸Ĺà¸°à¹Ģà¸¥ à¸ªà¸²à¸ļ
ar a
à¹ģà¸Ńà¸Ļ à¹Ģà¸Īà¸¥
à¸Ńà¸¡ à¸²à¸£
à¸¥à¸° à¸Ħ
à¸ĺà¸£à¸£à¸¡ à¹Ģà¸Ļ
Ġ or
à¸Ķ à¸²à¸Ĺ
à¸Ńà¸ĩ à¸«à¸£
Ġà¸ģà¸²à¸£ à¸ģ
à¹ĥà¸Ļà¸Ħà¸£ à¸Ńà¸ļà¸Ħà¸£
f er
à¸¢ à¸§à¸¡
à¸Ķ à¸¨à¸£
à¸Ńà¸¢ à¸Ĥà¸Ńà¸ĩ
à¸Ħà¸²à¸Ķ à¸§
à¸Ń à¸²à¸Ķ
à¸ĩ à¸Ńà¸Ļ
à¸¥ à¸²à¸ª
à¸¢ à¸ĵ
à¸Ķ à¹ģà¸ķ
à¹Ĥ à¸ŀà¸£
à¸ģà¸© à¸²à¸¡
Ġà¹ģ à¸£
à¸Ķ à¸ļà¸£
à¸ļ à¹Ģà¸Ĺ
à¹ģà¸¥à¸° à¸ĭ
à¸¢à¸ĩ à¹Ĥà¸Ķà¸¢
Ġà¸Ĭ à¸Ńà¸ļ
Ġà¹ģ à¸Ķ
à¸Ĺà¸³à¸ĩà¸²à¸Ļ à¹Ģà¸Ľ
Ġà¹ģ à¸ļà¸£
à¸ģà¸£à¸° à¸ļà¸§à¸Ļ
á ĥ
à¹Ģ à¸Ļà¸ĭ
à¸ĩ à¸Ľà¸£à¸°à¸¡à¸²à¸ĵ
à¸ĩ à¹Ĥà¸ģ
à¸²à¸ĩ à¹ĥà¸«à¸į
à¸ģ à¸Ľà¸ı
à¸Ĺà¸£à¸ĩ à¹Ħà¸Ķ
à¸ļà¸Ļ à¹Ģà¸ģà¸²à¸°
à¸²à¸£à¸° à¸ļà¸ļ
à¸§à¸ĩà¸ªà¸ĩà¸Ħà¸£à¸²à¸¡ à¹Ĥà¸¥à¸ģà¸Ħà¸£
i x
à¸¥ à¹Ģà¸§
à¸²à¸ĭ à¸²à¸£
ĠSch ool
à¸Ķ à¹ģà¸¥
à¸ŀà¸£à¸° à¸Ħà¸£
à¸¡à¸²à¸ģ à¸£à¸£à¸¡
à¸ļà¸£à¸¡à¸£à¸²à¸Ĭ à¸ģ
à¸ŀà¸£à¸° à¸¡à¸«
à¸ĩà¸Ķ à¸Ļà¸ķà¸£
r ap
à¸² à¹Ģà¸Ħà¸£
à¸§ à¸Ļà¸¡
à¸ļ à¸ŀà¸£à¸°à¹Ģà¸Ī
à¸Ĭ à¸ª
à¸Ĥà¸Ńà¸ĩ à¸Ŀ
à¸§à¸¢ à¹Ģà¸ª
à¸Ĺà¸£ à¸Ľà¸£à¸²à¸ģà¸²à¸£
à¸Ķà¸ģà¸²à¸£ à¸ģ
Ġ199 1
à¸ĩ à¸Ĭà¸Ļ
à¸ģà¸²à¸£ à¸Ħà¸¥
à¹Ģà¸¥ à¸ķ
Ġ3 8
à¸ľà¸¥à¸ĩà¸²à¸Ļ à¹Ģà¸ŀà¸¥à¸ĩ
à¸Ľà¸ªà¸¡ à¸ļà¸Ĺ
à¸Ķ à¹Ħà¸§
à¸Ĥà¸Ńà¸ĩ à¹ģà¸ķ
Ġà¹ģà¸¥à¸° à¹ģà¸¡
à¸Ļà¸Ħ à¸ĩ
à¸ľà¸¥à¸ĩ à¸²à¸Ļà¸Ĥà¸Ńà¸ĩ
Ġà¹Ģà¸ŀà¸¥à¸ĩ à¸Ļ
à¹ĥà¸Ļà¸ªà¸«à¸£ à¸²à¸Ĭà¸Ńà¸²à¸ĵà¸²à¸Ī
Ġà¹Ĥ à¸Ľ
à¸Ļ à¹ĥà¸Ļà¸ªà¸¡
à¸ª à¸Ĭ
an c
Ġà¹Ģà¸¨ à¸£à¸©à¸Ĳ
à¸Ńà¸ª à¹ģà¸Ńà¸Ļà¹Ģà¸Īà¸¥
à¸²à¸Ĥà¸Ńà¸ĩ à¸Ĺ
Ġ199 4
à¹Ģà¸Ńà¸Ļ à¹Ģà¸ķà¸Ńà¸£
à¸ģ à¸«à¸¡
à¹Ģà¸Ī à¸¡à¸ª
Ġà¹Ĥà¸Ķà¸¢ à¸§
à¸Ńà¸ª à¸Ļ
Ġ5 5
à¸Ľà¸ģà¸Ħà¸£ à¸Ńà¸ĩà¸Ĺ
Ġ à¸Ľà¸£à¸²à¸ģà¸ıà¸§
à¸²à¸¡ à¸Ħà¸³à¹ģà¸«
à¸ĩà¸«à¸¡ à¸Ķà¸Ĺ
à¸ĩà¸ªà¸«à¸£ à¸²à¸Ĭà¸Ńà¸²à¸ĵà¸²à¸Ī
à¸ģ à¸²à¸ķ
à¸²à¸¢ à¹Ĥà¸Ķà¸¢
A n
à¸¡ à¹Ģà¸ģ
à¸¡ à¸²à¸¨
à¸į à¹ģà¸«
Ġà¸Ī à¸£
à¸¢à¸ĩ à¹Ħà¸Ķ
à¸Ļà¸¡ à¸²à¸ķ
à¸ŀà¸£à¸£à¸Ħ à¸ģà¸²à¸£à¹Ģà¸¡
à¸Ń à¸²à¸«à¸£
à¸¢ à¸²à¸Ĺ
à¸° à¹Ħà¸£
à¸²à¸¡ à¸ª
Ġà¸¡ à¸Ńà¸£
à¸²à¹Ĥ à¸ĭ
Ġ à¸«à¸§
à¸ļ à¸Ħà¸³à¸§
à¸ģ à¸łà¸²à¸ŀ
à¸§à¸¡ à¸ķ
à¸ĩ à¸ŀà¸£à¸°à¸Ńà¸ĩà¸Ħ
Ġà¹ģà¸¥à¸° à¸Ńà¸Ķ
à¸Īà¸²à¸ģ à¸Ĥ
à¸£à¸²à¸Ĭ à¸ŀ
à¸Ļà¸Ń à¸²à¸§
in a
à¸¥à¸¢ à¹Ģà¸Ķ
Ġà¸ª à¹Ģà¸ķ
à¹Ģà¸§ à¸¨
Ġà¹Ĥ à¸¢
à¸ªà¸²à¸¡à¸²à¸£à¸ĸ à¸Ĺ
à¸Ļà¸Ĺà¸²à¸ĩ à¸Ķ
à¸¬ à¸²à¸Ĺ
à¸Ļà¹ĥà¸Ļ à¹Ģà¸Ķ
Ġà¸ļà¸£ à¸¡à¸Ļà¸²à¸ĸ
à¹ģà¸¥à¸° à¹Ģà¸¡
à¸Ķà¸²à¸§ à¸¤à¸ģà¸©
Ġà¸ģà¸£à¸¡ à¸«à¸¥à¸§à¸ĩ
à¸² à¹Ģà¸Ħ
Ġà¹ģà¸¥à¸° à¹Ģà¸¥
à¸Ļà¸ķ à¸¥à¸Ńà¸Ķ
à¸Ļà¸Ľ à¸ģà¸ķ
à¹Ĥà¸¡ à¸ļ
à¸¨à¸Ī à¸£à¸£à¸¢
à¸³ à¸Ĥ
l es
à¸²à¸ĩ à¹Ģà¸ľ
à¸Ńà¸Ļ à¹Ģà¸Ĥ
à¹Ģà¸ĺ à¸Ńà¸ķ
à¸ļà¸Ħà¸§à¸²à¸¡ à¹Ģà¸ª
à¹ĥà¸Ļà¸Ħ à¸ĵà¸°
à¸Ńà¸ĩà¸£à¸²à¸§ à¸Ĥà¸Ńà¸ĩ
à¸Ń à¹ĥà¸Ī
Ġà¹Ĥà¸Ķà¸¢ à¸Īà¸°
Ġà¹ĥà¸Ļ à¸ģà¸£à¸ĵ
à¸²à¹Ģà¸Ľ à¸¥
à¸Ļà¸² à¸Ļà¸Ĺ
Ġ251 2
" .
7 6
à¸ĩ à¸ī
à¸ļ à¸Ľà¸£à¸°
à¸ŀ à¸Ī
à¸Ńà¸ļ à¸£à¸¡
à¸Ķà¸¡ à¸ªà¸¡à¸ļ
an k
Ġ4 8
Ġà¸ļà¸£à¸¡à¸Ļà¸²à¸ĸ à¸ļà¸ŀ
à¸¡ à¸²à¸Ī
à¸²à¸ģ à¸£à¸£
à¸ĸ à¸Ńà¸Ķ
à¹ĥà¸Ļà¸ª à¸²à¸Ĥ
à¸ĩà¸²à¸Ļà¸ ľ
à¸§ à¸Ļà¸Ķ
à¸¡à¸² à¹Ģà¸ŀ
à¸§à¸Ļ à¸¥
à¸ĩà¸¡ à¸«
ĠC ol
à¹Ģà¸©à¸ģà¸ªà¸¡ à¸£à¸ªà¸ģ
à¸§à¸¢ à¸¥
Ġà¸ģà¸²à¸£ à¸§
Ġà¸ģà¸²à¸£ à¹Ģà¸¥
à¸¡ à¹Ģà¸Ĺ
à¸Ĥà¸Ńà¸ĩ à¸¡à¸«à¸²à¸§
à¸Ļà¸ŀà¸£à¸° à¸Ĺ
à¸ĩ à¸ģà¸¥à¸²à¸ĩ
à¸Ńà¸Ķ à¸Ńà¸¥
7 1
à¸Ļà¸¢ à¸Ńà¸¡
à¸ļà¸²à¸¢ à¸§
Ġà¹ģà¸Ĥ à¸§à¸ĩ
A T
à¸Ń à¹ĥà¸«à¸¡
à¹ĥà¸Ļà¸ Ĥà¸Ńà¸ĩ
à¹Ģà¸£ à¸Ļ
Ġà¹ģà¸¥à¸° à¸Ńà¸¢
à¸ĩà¸§ à¸¥
Ġà¹Ģà¸ĺ à¸Ńà¹Ģà¸Ľ
à¸²à¸¢à¹Ħà¸Ľ à¸Ńà¸¢
à¸ļ à¹Ģà¸Ĥà¸ķ
à¸ĵ à¸¢
à¹Ħà¸¡ à¹Ĥà¸Ħà¸£
at a
à¸²à¸Ľà¸£à¸° à¸Ĺ
à¹ģà¸ªà¸Ķ à¸ĩà¸Ħ
à¸¡ à¸«à¸¥
à¸Ķ à¹Ģà¸ļ
à¸ªà¸²à¸¢ à¸ŀ
à¸Īà¸²à¸ģ à¸ľ
Ġà¸§ à¸£
à¸ĩà¸ķ à¸³à¹ģà¸«à¸Ļ
or n
à¸Ħà¸ĵà¸° à¸§
Ġ194 5
à¸¡ à¸²à¸ŀ
à¸²à¸ª à¸Ļà¸§
à¸Ńà¸ª à¸ģ
à¸Ļà¸³ à¹Ĥà¸Ķà¸¢
à¸łà¸²à¸Ħ à¸§
à¸Ļ à¹ĥà¸Ļà¸¢
à¸¢ à¹Ĥà¸ļà¸£à¸²à¸ĵ
à¸Ķ à¹Ģà¸«à¸¥
à¹ģ à¸ļà¸¥
à¸į à¸ĺà¸£à¸£à¸¡
à¸Ļà¸£ à¸²à¸ĺ
à¸Ĺà¸£à¸ĩ à¸ķ
à¸īà¸²à¸¢ à¸²à¸§
à¸ģ à¹ģà¸ļà¸ļ
à¸Ħ à¸ªà¸¡
à¹Ħà¸Ľ à¸Īà¸Ļà¸ĸ
à¸ĩà¸ķ à¸°
à¹Ħà¸Ł à¸Ĺ
à¸Ļà¸Īà¸° à¸ĸ
à¹ģà¸Ł à¸Ļà¸ķà¸²à¸ĭ
à¸¥à¸¢à¹Ģà¸Ķ à¸Ĭà¸¡
à¸Ĭ à¸²à¸Ļ
à¹ģà¸¥à¸° à¸¨
à¸Ĳ à¸ļ
à¸ªà¸²à¸¡à¸²à¸£à¸ĸ à¸ª
à¹ģà¸Ħ à¸ļ
à¸Ńà¸Ł à¸Ĺ
à¸¡ à¸¡à¸²à¸ģà¸Ĥ
à¸Ķà¸ĩ à¸²à¸Ļ
à¸Ħà¸³ à¹ģà¸Ļà¸°à¸Ļà¸³
Ġ à¸Į
à¸Ń à¹ģà¸¥
à¸Ļà¸ŀà¸£à¸° à¹Ĥà¸Ńà¸£à¸ª
h o
à¸¡ à¸Ĺà¸£
à¸²à¸ĩ à¹Ģà¸¥
à¸Ĥà¸Ńà¸ĩ à¸ģà¸£
à¸Ńà¸¡ à¸²à¸Ħ
à¸²à¹Ħà¸Ľ à¸¢
à¸ªà¸²à¸¡ à¹Ģà¸«à¸¥
à¸ģà¸ĩà¸²à¸Ļ à¹ĥà¸«à¸į
à¸Īà¸° à¹Ģà¸Ľà¸¥
in t
à¹Ħà¸Ĺ à¸¡
Ġà¸Ľà¸£à¸°à¸ģà¸Ńà¸ļ à¸ģ
à¸Ļ à¹ĥà¸ķ
à¸Ń à¹Ģà¸«à¸¥
à¸Ĺà¸ĺ à¸ģà¸²à¸£à¸Ĺ
ĠM e
à¸Ļà¹ģà¸¥à¸° à¸¡
à¸¢ à¹ĥà¸Ļà¸Ľ
Ġà¹ģà¸¥à¸° à¸Ļà¸²à¸¢
à¸Ńà¸ķ à¸ª
à¸¥à¸²à¸¢ à¸Ľ
Ġà¹Ģà¸Ń à¹Ģà¸Ĭ
à¹ģà¸Ł à¸Ĭ
à¹Į (
en ter
à¸ģà¸²à¸£à¸Ĺ à¸Ķà¸ªà¸Ńà¸ļ
Ġ251 4
à¸²à¸Ļà¸ļ à¸£
Ġ x
à¸ģ à¸§à¸ĩ
à¸ª à¸ģà¸²à¸£
à¸ģà¸© à¸²à¸Ńà¸¢
Ġà¹Ĥà¸Ķà¸¢ à¹ģà¸ļ
an e
à¸ķ à¹ĥà¸Ļà¸Ľ
à¸Ĥ à¸Ļà¸¡
à¸Ńà¸¢ à¸Ń
à¸Ħà¸§à¸²à¸¡ à¸¢
Ġà¹Ĥà¸Ķà¸¢ à¸¢
ĠC O
à¸ļà¸Ļ à¸²à¸Ļà¸²à¸Ĭà¸²à¸ķ
à¸ķà¸£à¸ĩ à¸ģà¸¥à¸²à¸ĩ
Ġ ac
à¸Ńà¸Ńà¸ģ à¸¡à¸²à¹Ģà¸Ľ
8 3
Ġà¹ģà¸¥à¸° à¹Ģà¸Ľà¸¥
à¸Īà¸²à¸£à¸ĵ à¸²
à¸Ń à¸Ħà¸¥
à¸Ħà¸§à¸²à¸¡ à¸ªà¸³à¹Ģà¸£
à¸ĩà¸Ĥà¸Ńà¸ĩ à¸Ĺ
à¹ĥà¸Ļà¸ļ à¸²à¸ĩ
5 3
6 6
Ġ4 2
or s
à¸²à¹Ĥ à¸Ħà¸£
à¸Ĥà¸Ńà¸ĩ à¹ģà¸¡
à¸Ļà¸Ń à¹Ģà¸¡à¸£
in s
Ġà¸« à¸¢
à¸Ľà¸£à¸°à¸ģà¸²à¸¨ à¸Ļ
à¸²à¸Ļ à¹Ģà¸Ĭ
à¸²à¸ŀà¸£à¸° à¹Ģà¸Ī
à¸§ à¸¥à¸ĩ
à¸²à¸Ħ à¸³
à¸¢à¸ĩ à¹ĥà¸«
à¸Ļà¸²à¸¡ à¸ªà¸ģ
à¸²à¹Ĥ à¸Ļ
à¹ĥà¸Ļà¸ķ à¸£à¸°à¸ģ
à¹Ģà¸ŀà¸£à¸²à¸° à¸§
7 2
Ġà¹ģ à¸«à¸¥
à¸ĩà¸Ļ à¸²à¸¢à¸ģà¸£
à¸Ļà¸Ľà¸£à¸° à¸§
à¸¥à¸³ à¸Ľà¸²à¸ĩ
Ġà¸Ĺà¸£à¸ĩ à¸ŀà¸£à¸°à¸ģà¸£
à¸ļà¸Ľ à¸§à¸Ķ
à¸ģà¸£à¸°à¸Ķ à¸²à¸©
ak e
à¸Ĥà¸Ńà¸ĩ à¸«à¸Ļ
à¸Ļà¸Ĺ à¸£à¸²à¸¢
à¸£à¸¡ à¸¢
à¸ļà¸¡ à¸Ńà¸ļ
à¹Ĥ à¸Ļà¸§
Ġà¹Ĥà¸Ķà¸¢ à¹Ģà¸Ĥ
à¸Ńà¸Ļ à¹Ĩ
à¸¢à¸§ à¹Ģà¸Ĺ
à¹ĥà¸Ļà¸ģà¸²à¸£ à¸ľà¸¥
à¸«à¸¡à¸²à¸¢ à¸Ħà¸§à¸²à¸¡à¸§
à¹Ĥà¸¢ à¸ķ
à¸Ľà¸£à¸°à¸Īà¸³ à¸ķ
Ġ199 3
à¸Ń à¹Ģà¸Ľà¸¥
à¸Ļà¹Ħ à¸ŀà¸£
à¸ĺ à¸£à¸ĵ
à¸¢à¸ĩ à¸Ħà¸Ļà¹Ģà¸Ķ
Ġà¸ªà¸¢à¸²à¸¡ à¸ļà¸£à¸¡à¸£à¸²à¸Ĭà¸ģ
à¹Ģà¸ĭ à¸¢
à¸Ķà¸ª à¸£à¸£
Ġ199 5
à¸ŀ à¸Ńà¸¥
à¸Ńà¸ª à¸²à¸¡
en c
à¸ŀ à¸£à¸¡
à¸Ń à¹Ĥà¸Ķà¸¢
à¸Ńà¸ĩ à¹ģà¸ļà¸ļ
à¸Ļà¹ģ à¸Ł
ĠIn ternational
t ain
à ¤
à¸ļ à¸§à¸£
Ġà¹ĥà¸Ļ à¹Ģà¸Ĥà¸ķ
à¸Ħà¸³ à¸ŀ
Ġ à¸łà¸²à¸©à¸²
à¸Ī à¸Ńà¸Ķ
à¸Īà¸° à¸ģ
ad e
à¸¥à¸¢à¹Ģà¸Ķà¸Ĭà¸¡ à¸«à¸²à¸£à¸²à¸Ĭ
i le
à¸¢à¸ĩ à¸«à¸Ļ
à¸Ļ à¹Ħà¸Łà¸Ł
à¸ĩ à¹Ħà¸Ĺà¸¢
Ġà¹ģà¸¥à¸° à¹ĥà¸Ļà¸§
à¸Ĭà¸²à¸§ à¸į
à¸Ļà¹Ħà¸Ľ à¸¢
à¸Ĵà¸Ļ à¸²à¸Ĺ
à¸Ļ à¸£à¸°à¸¢à¸°
8 4
à¸²à¸Ħ à¸Ļ
à¸łà¸²à¸Ħ à¸ŀ
Ġc om
à¸Ĺà¸²à¸ĩà¸ķà¸Ńà¸Ļ à¹Ģà¸«à¸Ļ
à¸ĩ à¸Īà¸°à¹Ģà¸Ľ
à¸Ńà¸ĩ à¸ŀà¸¥
à¸µà¹ī :
à¸Ķà¸ģà¸²à¸£ à¸¨
à¸¡ à¸Ńà¸Ńà¸ģà¸Ńà¸²à¸ģà¸²à¸¨
à¸° à¸¢
à¸ª à¸§à¸Ķ
Ġà¸¡ à¸²à¸ķà¸£
à¸Ļà¸ģ à¸£à¸°à¸Ķ
à¹ģà¸ªà¸Ķà¸ĩ à¸łà¸²à¸ŀà¸¢à¸Ļà¸ķà¸£
à¸Ĥà¸Ńà¸ĩ à¸Ńà¸ĩà¸Ħ
à¸Ĳ à¸Ľà¸£à¸°à¸Ĭà¸²à¸Ĭ
à¸ļà¸ģà¸²à¸£ à¹ĥà¸Ĭ
à¸ĩà¸ģà¸¤à¸© à¸Ĺ
à¸²à¸ģ à¸²à¸ģ
Ġà¹ģà¸¥à¸° à¸ªà¸£
à¸²à¸Ľà¸£à¸° à¸ģà¸Ńà¸ļ
à¸§à¸¢ à¸Ļà¸¡
à¸Ļà¸Ħ à¸Ķ
à¸Ńà¸Ńà¸ģ à¹Ħà¸ĭà¸Ķ
Ġà¸§ à¸Ńà¸£
à¹Ģà¸ĺ à¸Ńà¸Ĺ
Ġà¹Ģà¸Ī à¸¡à¸ª
Ġà¹Ģà¸ĺ à¸Ńà¸Ī
à¸Ĺà¸£à¸£ à¸¨
n ow
à¸§ à¸Ļà¸ŀà¸£à¸°à¸Ńà¸ĩà¸Ħ
à¸ª à¹ģà¸¥à¸°
à¸ĸ à¸§
à¹Ģà¸¥à¸¢ à¸Ĺ
Ġà¸Ĥ à¸§à¸ļ
ĠA d
à¸¡à¸ª à¸²à¸¡
ĠB r
à¸ªà¸° à¹Ģà¸ģà¸©
à¸Ļà¸« à¸¡à¸Ķ
à¸Īà¸ŀà¸£à¸° à¸¨à¸£
à¸ĩà¹ģ à¸ļ
Ġà¸Ńà¸Ńà¸ģ à¸īà¸²à¸¢
Ġà¸ī à¸°à¸Ļ
t o
Ġà¸Ľà¸£à¸° à¸ŀ
à¹ĥà¸Ļà¸ ī
à¹Ģà¸Ĥ à¸²à¸Ħ
à¸§à¸¢ à¸ĭ
Ġà¸Ĥ à¸ĵà¸°à¸Ļ
à¸Ńà¹Ģà¸£ à¸Ĭ
à¸ģà¸Ħ à¸²à¸¡
à¸§à¸ĩ à¸ģà¸¥à¸²à¸ĩ
Ġà¹Ĥà¸Ķà¸¢ à¸ŀ
Ġà¹ģ à¸Ńà¸¥
à¸Ļà¸Īà¸° à¹Ħà¸Ķ
4 1
à¸Ī à¸§
à¸ģà¸²à¸£ à¸Ńà¸Ńà¸ģà¹ģà¸ļà¸ļ
à¹ģà¸ª à¸ĩà¸Ń
à¸ĩà¸¡ à¸«à¸²à¸§
à¸ĩà¸Ĥ à¸Ļà¸²à¸Ķ
à¸«à¸²à¸£ à¸Ĺ
ĠC ar
ĠD e
à¹Ĥà¸ŀ à¸£à¸ĩ
à¸ĩà¸Ĩ à¸£à¸²à¸Ĭ
à¸ļ à¸§à¸ģ
à¸Ńà¸¢ à¹Ģà¸Ľ
à¸¥à¸ĩ à¸¡
à¸ĩà¸ª à¸²à¸£
à¸łà¸²à¸© à¸²à¸Ī
. ,
à¸§ à¸Ĺà¸£à¸ĩ
à¸³à¸Ļ à¸²à¸Ļ
Ġ19 50
à¸ļ à¸°
à¸Ńà¸¢ à¸ĭ
à¸Īà¸Ī à¸²à¸Ļ
à¸²à¸ĭ à¸²à¸ģ
à¸ĩà¸ģà¸¤à¸© à¹ģà¸¥à¸°
à¸Ĥà¸Ńà¸ĩ à¸Ķ
à¸Ĭà¸²à¸§ à¸Ŀà¸£
à¹Ħ à¸Ńà¸Ń
à¸Ľà¸£ à¸²à¸¨
à¸¢à¸ģ à¸Ĥ
à¸ĩà¸£à¸§à¸¡ à¸ĸ
Ġà¹Ħ à¸Ĥ
à¹Ģà¸ªà¸Ļ à¸²à¸ļà¸Ķ
à¹Ģà¸ªà¸Ļ à¸Ńà¸§
à¸ŀà¸¢à¸²à¸ģà¸£ à¸ĵ
i or
à¸¡ à¸īà¸¥à¸Ńà¸ĩ
à¸²à¸ª à¹Ģà¸ķà¸Ńà¸£
à¸Ļà¸ª à¸Ńà¸ĩ
à¸ªà¸°à¸Ķ à¸§à¸ģ
à¸ģ à¸Ļà¸²à¸¢à¸ģà¸£
à¸Ķ à¸«à¸¢
à¸ģà¸²à¸£ à¸ĭ
Ġà¹Ģà¸Ĥ à¸²
à¸§ à¹Ģà¸Ĺ
à¸§à¸¡ à¸ĩà¸²à¸Ļ
à¸Ļà¸Ĥà¸Ńà¸ĩ à¸£
à¸Ļà¸Ľà¸£à¸° à¹Ĥà¸¢à¸Ĭà¸Ļ
à¸²à¸Ńà¸²à¸ģà¸²à¸¨à¸¢à¸²à¸Ļ à¸Ļà¸²à¸Ļà¸²à¸Ĭà¸²à¸ķ
à¸Ķ à¸£à¸°à¹Ģà¸ļ
à¸Ńà¸ĩ à¸®
à¸²à¸Ĭ à¸²à¸£
à¹ģà¸Ĥ à¸Ļ
Ġà¹Ģà¸Ī à¸£
à¸£à¸ĵ à¸£à¸ĩà¸Ħ
Ġà¹ĥà¸Ļ à¸¥
al e
à¸ŀà¸£à¸£à¸Ħ à¸Ħà¸Ńà¸¡à¸¡
à¸§à¸Ļà¸ľ à¸ªà¸¡
à¹Ģ à¸Ļà¸¢
à¸ĩ à¹Ĥà¸¥à¸ģ
à¸ŀà¸£à¸° à¸Ĭ
à¸Ļà¸§ à¸¥
à¸¢à¸¡ à¸ķ
à¸¡à¸« à¸²à¸¢
à¸Ĭà¸²à¸¢ à¸Ĺ
à¸²à¸Ľà¸£à¸° à¸ģà¸§
à¸ģà¸£à¸°à¸Īà¸²à¸¢ à¹Ģà¸ª
Ġà¸Ľà¸£à¸°à¸ĺà¸²à¸Ļ à¸²à¸ĺ
à¸§ à¸Ļà¸ŀ
à¹Ģà¸Ķ à¸¢
à¹Ģà¸Ķ à¸§
à¸ģà¸© à¸²à¸Ļ
à¸Ķà¸ª à¸ĩà¸Ħà¸£à¸²à¸¡
Ġà¹Ħ à¸Ĺ
à¸Ħ à¹ģà¸£à¸ģ
à¹ĥà¸Ļ à¹Ģà¸Ńà¹Ģà¸Ĭ
à¸ķà¸ļà¸Ńà¸¥ à¸¥
à¸Ħà¸§à¸²à¸¡à¸ªà¸²à¸¡à¸²à¸£à¸ĸ à¹ĥà¸Ļà¸ģà¸²à¸£
à¸Ń à¸«à¸£
Ġà¸ģ à¸£à¸°à¸Ķ
à¸Ľà¸£à¸°à¸ģà¸Ńà¸ļ à¸łà¸²à¸ŀà¸¢à¸Ļà¸ķà¸£
il d
à¹Ģà¸ĭà¹Ĥà¸¥ à¸Ļà¸²
à¸Ńà¸¢ à¹Ģà¸Ń
à¸į à¸Ĭà¸²
i ti
à¸ļ à¸ŀà¸§à¸ģ
à¸Ħà¸£ à¸ļà¸£à¸Ńà¸ļ
à¸¡à¸² à¹ĥà¸«
Ġ4 9
à¸Ńà¸« à¸²
à¸ģ à¹Ĥà¸Ķà¸¢
à¹Ģà¸¥ à¸Ń
à¸£à¸£ à¸¨à¸Ļ
à¸įà¸į à¸²à¸§
à¸¤à¸« à¸²à¸ªà¸Ļ
5 6
à¸ŀ à¸³à¸Ļ
à¸¥à¸ĩ à¹Ĥà¸Ĺà¸©
à¸Ńà¸Ķ à¸ª
à¸²à¸ĩà¸§ à¸²
Ġà¹Ģà¸ĭ à¸Ńà¸£
à¸ĩ à¸ŀà¸£
à¸²à¸£ à¸«
à¸Ķ à¹ģà¸ľ
à¸Īà¸³ à¸Ħ
ĠU n
à¸² à¹ģà¸Ĺ
à¸Ħ à¸ŀ
à¸§à¸ĩ à¸Īà¸£
à¸Ļà¸¡à¸²à¸ģ à¸Ĥ
B A
à¸Ń à¸£à¸°à¸Ķ
à¸¡ à¸²à¸¡
à¸¢ à¸Īà¸²à¸ģ
à¸Ĺ à¸²à¸£
ĠS er
à¸²à¹Ģà¸¥ à¹Ģà¸ĭ
à¸Ķ à¸ł
à¸²à¸ĩ à¸¨
à¸¬à¸² à¹ģà¸«
à¸łà¸²à¸ŀ à¹ģà¸§à¸Ķà¸¥
à¹Ģà¸Ĥ à¸²à¸ª
à¸°à¸ŀ à¸²à¸Ļ
ã ģ
à¸¢ à¸Ļà¸ľ
à¹ģà¸¥à¸° à¹Ģà¸Ī
à¸Ľà¸£à¸° à¹Ģà¸ªà¸£
à¸¥à¸ĩ à¸ªà¸¡
à¸¥à¸³ à¹Ħà¸ª
à¹Ħà¸¥ à¸Ł
à¸ªà¸Ļà¸²à¸¡ à¸ģ
à¸²à¹Ĥà¸Ī à¸¡à¸ķ
à¸Ļ à¹Ģà¸Ł
à¸ģ à¸ľà¸¥
à¸¢ à¸§à¸¢
à¸Ķ à¸²à¸¯
an a
à¸Ļà¹Ħà¸Ľ à¸Ńà¸¢
ĠL e
à¹Ĥà¸Ĩà¸©à¸ĵ à¸²
7 3
à¹Ĥ à¸Ļà¸ļ
à¸ĩà¹Ģà¸ģ à¸¥
Ġà¸ķà¸²à¸¡ à¸Ĺ
à¸Ļà¸ķ à¸³à¸ļà¸¥
Ġà¹Ģà¸¡ à¸¥
à¸¡à¸²à¸ģ à¹Ģà¸ģ
en ti
om e
Ġà¸ªà¸«à¸£ à¸²à¸Ĭà¸Ńà¸²à¸ĵà¸²à¸Ī
à¸Ķ à¹Ĥà¸£à¸Ħ
à¸ļ à¹Ģà¸ĭ
à¸į à¹ģà¸Ī
à¸Ńà¸° à¸¡
à¸¢à¸Ńà¸Ķ à¸Ļ
Ġà¸Ĺ à¸°à¹Ģà¸¥
Ġà¸ķ à¸Ńà¸Ļà¸Ĺ
à¹Ģà¸Ħ à¸Ļ
à¸łà¸²à¸Ħ à¸Ń
à¹ģà¸ļ à¸ļà¸£
Ġ251 1
5 9
à¸Īà¸²à¸ģ à¸ģ
à¸²à¸Ħ à¸ĵ
ĠT ha
Ġà¹Ħà¸¡ à¹Ģà¸Ħ
à¸¡ à¸«à¸¡
Ġà¸Ń à¹Ģà¸¥
Ġà¸Ļ à¸²à¸¡
à¸ļ à¸łà¸²à¸ŀ
Ġà¹ĥà¸Ļà¸Ľà¸£à¸°à¹Ģà¸Ĺà¸¨ à¹Ħà¸Ĺà¸¢
6 9
à¸Ń à¹Ģà¸§à¸¥
à¸° à¸ŀà¸£
à¹ģ à¸Ĺà¸£
à¸Ī à¹Ģà¸Ľ
à¸Ļà¹Ĥ à¸ļà¸£à¸²à¸ĵ
Ġà¸Ľà¸£à¸°à¸ģà¸Ńà¸ļ à¹Ħà¸Ľà¸Ķ
à¸ĩ à¹Ģà¸Ĥà¸²
à¹ģà¸¥à¸° à¸«à¸Ļ
à¸Ńà¸£ à¸£à¸ĸ
à¸Ļà¸ª à¸ĸ
à¸²à¸ĩ à¸ŀà¸£à¸°
à¸ŀà¸¥ à¸Ńà¸¢
à¸Ļà¹ĥà¸Ī à¸Ĺ
à¸Ńà¸Ńà¸Ļ à¹Ħà¸¥à¸Ļ
à¹Ĥ à¸Ńà¸ª
à¸Ľà¸£ à¸²à¸Ħ
à¸§à¸Ļ à¹ĥà¸«
Ġ250 3
à¸Ĺà¸²à¸ĩà¸ģà¸²à¸£ à¹ģà¸ŀà¸Ĺà¸¢
ã ĥ
à¸Ĺ à¹Ģà¸Ĺ
à¹ģà¸¥à¸° à¹ĥà¸Ĭ
à¸²à¸ª à¸ĭ
à¹Ģà¸Ī à¸ģà¸ķ
Ġà¹Ĥà¸Ķà¸¢ à¸ģ
à¹ģà¸ļà¸ļ à¹Ģà¸Ķ
à¸¥à¸Ľ à¸¨à¸²à¸ªà¸ķà¸£
à¹Ĥà¸Ľà¸£ à¸Ķà¹ĥà¸«
à¸¡ à¹Ģà¸ŀà¸¥à¸ĩ
à¸ķ à¸¥à¸ĩ
à¸ļ à¸Ńà¸ĩà¸Ħ
à¸²à¸£ à¸²à¸¨à¸²à¸ªà¸ķà¸£
à¸Ľ à¹ģà¸Ńà¸Łà¸£
à¸²à¸¢ à¸¢
à¸¢à¸ĩ à¸ľ
Ġà¸ŀà¸£à¸° à¸ª
à¸Ĺà¸£à¸ĩ à¸ª
à¹Ģà¸Ńà¸ģ à¸Ĭ
à¸Ļ à¹Ĥà¸¥à¸ģ
à¸²à¸¢ à¹Ģà¸Ĥ
à¹ĥà¸Ļà¸ģà¸²à¸£ à¸ģ
à¸Ĺà¸³à¸ĩà¸²à¸Ļ à¸£
à¸Ī à¸ļà¸ģà¸²à¸£à¸¨
à¹Ĥà¸Ķà¸¢ à¸ķà¸£
à¸²à¸Ħ à¸£à¸Ńà¸ļ
à¸Ļà¹Ħ à¸Ĺà¸Ļ
à¸Ķà¸Ńà¸ģ à¹Ħà¸¡
Ġ à¸Ħà¸§à¸£
à¸ĩ à¸«à¸¥à¸§à¸ĩ
à¸¢ à¸ģà¸¥à¸²à¸ĩ
à¸²à¸Ķ à¸²à¸§
à¸ŀà¸£à¸£ à¸©
à¸ĩà¹Ģà¸Ķ à¸Ļà¸¡à¸²à¸£
à¸Ń à¸²à¸ģ
à¸Ń à¸Ńà¸ªà¹Ģà¸ķà¸£
à¸Ńà¸ĩ à¹Ĥà¸ģà¸¥
Ġà¹ģà¸¥à¸° à¹Ģà¸Ħà¸£
à¸Ńà¸Ļ à¹Ħà¸¡
à¹ĥà¸Ļà¸Ľ à¸£
Ġà¸Īà¸° à¹Ħà¸¡
Ġ Î
à¸Ļà¸ª à¸ģà¸¤à¸ķ
Ġ6 5
à¸Ħà¸ĵà¸° à¸Ļ
à¸ĩà¹Ģà¸ģà¸ķ à¸ģà¸²à¸£à¸ĵ
Ġ à¸¨à¸²à¸ªà¸ķà¸£à¸²à¸Īà¸²à¸£à¸¢
à¸Ķ à¹ĥà¸Ļà¸Ĭ
à¸ķ à¹Ģà¸ŀ
à¸²à¸£ à¸²
à¸Ĺà¸²à¸ĩ à¸Ńà¸²à¸ģà¸²à¸¨
Ġà¹Ģà¸Ĥ à¸²à¸ĸ
à¸Ńà¸¡ à¹ģà¸ĭ
à¸Ķà¸ģà¸²à¸£ à¸ª
ow er
Ġà¸ķà¸²à¸£ à¸²à¸ĩà¸§à¸²
à¸Ĭà¸į à¸²
Ġà¸ŀà¸£à¸° à¹Ĥà¸Ńà¸£à¸ª
à¸²à¹ģ à¸Ĭà¸¡à¹Ģà¸Ľ
8 1
à¸ģ à¹Ģà¸Ń
à¹Ĥ à¸ģà¸§
à¹Ĥà¸Ķà¸¢ à¸£à¸§à¸¡
à¹Ģà¸ļ à¸ª
à¸ļà¸ģà¸²à¸£ à¸Ĺ
à¸ŀà¸£à¸£à¸Ħ à¸Ľà¸£à¸°à¸Ĭà¸²à¸ĺ
à¸ģà¸Ń à¸²à¸¨
à¹ĥ à¸Ķà¸ģ
à¸²à¸£ à¸²à¸ĩ
à¹Ĥ à¸¢à¸Ļ
Ġà¹ģ à¸Ńà¸£
à¸ļà¸ģà¸²à¸£ à¸ļ
à¸¡à¸« à¸²à¸ļ
à¸ĩà¸Ń à¸²à¸ĵà¸²à¸Ī
à¸Ļ à¹Ģà¸ľ
à¸ģ à¸Ļà¸³à¹Ħà¸Ľ
à¸ª à¹ģà¸ģà¸£à¸Ļà¸Ķ
à¸ļ à¸¡à¸²à¹Ģà¸Ľ
à¸ľ à¸Ļà¸§
Ġà¸¡ à¸ĵà¸ĳà¸¥
à¸§à¸¡ à¸Ķ
à¸Ħà¸Ļ à¹ĥà¸«à¸¡
à¸ģà¹ģà¸ªà¸Ķà¸ĩ à¸Ļà¸³
à¸Ķ à¹ģà¸Ĺ
à¹Ģà¸Ĺ à¸Ļ
à¸Ńà¸Ńà¸ģ à¹Ģà¸Ķ
à¹ģà¸ļà¸ļ à¸ª
ut e
à¸Ĥ à¸²à¸ł
à¸²à¸ĩ à¸ªà¸¡à¸ļ
à¹ģà¸¥à¸° à¹Ģà¸Ĥ
à¸Ļà¸Ĥ à¸Ļà¸²à¸Ķ
à¸ªà¸« à¸ŀ
à¸°à¸Ń à¸²à¸Ķ
Ġà¹ģà¸® à¸£
8 2
à¸²à¸ĩ à¹ģà¸ŀà¸£
à¸§à¸¡ à¸ĸ
à¸¢à¸Ļ à¹Ģà¸ķà¸£
à¸® à¸Ńà¸£
à¸Ļà¸Ńà¸Ńà¸ģ à¹Ħà¸Ľ
à¸Ļà¸Ľà¸£à¸°à¸ª à¸²à¸Ĺ
à¸« à¸Ļà¸§
à¸ªà¸¡ à¸Ķ
à¸Ĺà¸³ à¸£à¸²à¸¢à¹Ħà¸Ķ
à¸Ĺà¸²à¸ĩ à¸Ń
à¸Ļà¸Ĺà¸²à¸ĩ à¸ģà¸²à¸£à¹Ģà¸¡
à¸łà¸²à¸© à¸²à¸ª
à¸§à¹Ħà¸Ľ à¹ģà¸¥
à¸²à¸Ĭà¸²à¸¢ à¹ģà¸«
à¸į à¸Ńà¸¢
Ġà¸ķ à¸£à¸°à¸ģ
Ġà¸Ĥ à¸Ńà¸ļ
E T
à¹ģ à¸Ńà¸ª
à¸§à¸ĩ à¸©
à¸¢à¸ĩ à¸Īà¸²à¸ģ
à¸Ļà¸© à¸²
à¸Ļà¹Ĥà¸Ľ à¹Ģà¸¥
à¸§ à¹Ģà¸Ļ
à¹Ĥà¸Ń à¹Ģà¸Ľ
à¸ĩà¹ģ à¸Ļà¸§
à¹Ħà¸£ à¹Ģà¸Ķà¸Ńà¸£
à¸Ļà¸¡à¸²à¸ģ à¸Ĺ
Ġ198 9
ĠCh amp
à¸ļ à¹Ģà¸«à¸¥
à¹ĥà¸Ī à¸ģ
à¸ĩà¸²à¸Ļ à¹Ħà¸Ķ
Ġà¹Ģà¸Ħ à¸¢à¹Ģà¸Ľ
à¸ļ à¸¡à¸«à¸²à¸§
Ġà¹ģà¸Ĺ à¸Ļ
à¸° à¹Ħà¸Ķ
à¸Ńà¸ĩ à¹Ĥà¸ģ
à¸²à¸¢ à¸²
à¸ĩà¸Ħ à¸³
à¸Ńà¸²à¸Ī à¸Īà¸°à¹Ģà¸Ľ
à¸Ńà¹Ħà¸Ľ à¸¢
à¸¥à¸² à¹Ģà¸§
à¹Ĥ à¸§à¸¥
à¸Ńà¸ª à¸²à¸¡à¸²à¸£à¸ĸ
à¸²à¸į à¸Īà¸Ļ
à¸ŀà¸£à¸°à¸ª à¸ĩà¸Ĩ
à¸Ĺ à¹Ħà¸Ķ
à¸²à¸ĩ à¸łà¸²à¸ŀà¸¢à¸Ļà¸ķà¸£
à¸Ĥà¸Ńà¸ĩ à¸£à¸°à¸ļà¸ļ
à¹Ĥà¸Ķ à¸¡
à¸§à¸£ à¸§à¸ĩà¸¨
r is
à¸Ĭ à¸²à¸Ķ
à¸²à¸Ļ à¹Ģà¸Ķ
à¸Īà¸° à¸Ķ
à¸¢à¸ĩ à¸ĭ
à¸ļà¸£à¸£ à¸¢
à¸ĩ à¸Ńà¸³à¸Ļà¸²à¸Ī
à¸Ĺà¸³ à¹Ģà¸Ľ
à¸¥à¸° à¸Ĭ
à¸Īà¸³à¸Ļà¸§ à¸Ļà¸Ļ
à¸ģ à¸²à¸ģ
à¸ļ à¸ķà¸²à¸¡
à¸Ī à¹Ħà¸Ľ
à¸³ à¸ĭ
à¸£à¸£à¸¡ à¸Ĭà¸²à¸ķ
à¸¥à¸²à¸¢ à¸ķ
ĠS e
à¸ģà¸©à¸² à¹Ħà¸Ķ
s on
à¸Ĺà¸£ à¸Ń
Ġà¹ĥà¸Ļ à¸Ńà¸Ķ
à¹Ģà¸¢ à¸£
à¹Ģà¸ŀà¸£à¸²à¸° à¸¡
Ġà¹Ħà¸Ľ à¸Īà¸Ļà¸ĸ
à¸¡ à¹Ģà¸ļà¸Ńà¸£
à¸ļ à¸ģà¸£à¸°
à¸²à¸Ľ à¸£à¸°à¸Ķ
à¹Ĥà¸Ĺ à¸£à¸¡
à¹Ĥà¸Ł à¸Ļ
à¸Ķ à¹Ģà¸Ń
à¸ļ à¸ĩà¸²à¸Ļ
à¸²à¸¢ à¹Ĩ
Ġà¸Ī à¸Ļà¸¡
à¸Ńà¸Ľ à¸ı
à¸Ľà¸£à¸°à¸ģà¸Ńà¸ļ à¸ŀ
à¸ģà¸Ħ à¸Ļà¸«à¸Ļ
Ġ250 5
à¹Ģà¸£ à¸²
à¸§à¸Ļ à¹Ģà¸Ľ
Ġà¹Ģà¸ª à¸£
à¸ģà¸²à¸£à¸Ĺà¸³ à¸ĩà¸²à¸Ļà¸Ĥà¸Ńà¸ĩ
ÂłÂł ÂłÂł
6 2
7 4
à¸²à¸ĩ à¹Ģà¸Ħà¸£
à¹ĥà¸Ļ à¸ģà¸Ńà¸ĩà¸Ĺ
à¸Ļà¸Ļ à¸Ńà¸ģ
à¸²à¸Ń à¸²à¸«à¸²à¸£
à¹ģà¸Ĺà¸Ļà¸£à¸²à¸©à¸İà¸£ à¹Ħà¸Ĺà¸¢à¹Ģà¸Ľ
Ã ¡
à¸§ à¹Ģà¸Ĥà¸²
Ġà¹Ĥ à¸Ĺà¸£
à¸Ļà¸ģà¸²à¸£ à¹ĥà¸Ĭ
à¸£à¸° à¸ĩ
à¸ģà¸¢ à¸łà¸²à¸ŀ
Ġ à¸łà¸²à¸©à¸²à¸Ń
Ġà¹Ĥà¸Ľà¸£ à¸Ķ
à¸² à¹Ģà¸īà¸¥
à¸Ķ à¸¡à¸«
à¸ĭ à¸ĭ
à¸§à¸ĩ à¸¢
à¸Ļà¸Ń à¸²à¸Ĭ
à¸ķà¸³ à¸Ļ
à¸ķà¸£à¸§ à¸Īà¸Ī
à¸¥ à¸®
à¸ļ à¹Ħà¸Ľà¸¢
à¹ģ à¸ļà¸Ļ
à¸¹ ,
à¸²à¸ĩ à¹ģà¸Ĺ
à¸Ĥà¸Ńà¸ĩ à¸«
à¸Ļà¸Ĺ à¸§
à¸Ł à¸²à¸£
à¹Ĥà¸£à¸¡ à¸²à¹Ģà¸Ļ
à¸ģ à¸Ľà¸£à¸°à¸¡à¸²à¸ĵ
à¸ļ à¸ģà¸£
à¸ĩà¸¡ à¸Ńà¸ļ
Ġà¹Ģà¸§ à¸Ńà¸£
Ġw ith
c ess
à¸§ à¸Ħà¸¥
à¸ĸ à¸²à¸§à¸£
Ġà¹ģà¸¥à¸° à¹Ģà¸Ļ
à¸ľà¸¥ à¸§
à¸ŀà¸£à¸£ à¸©à¸²
à¸ªà¸ĩà¸Ħà¸£à¸²à¸¡ à¸ģ
Ġ is
à¸Ĥà¸Ńà¸ĩ à¹Ĥà¸£à¸ĩà¹Ģà¸£
Ġ4 4
à¸ªà¸²à¸¡à¸²à¸£à¸ĸ à¸ķ
à¸Ĥ à¸ļà¸§à¸Ļ
à¸²à¸ĩ à¸Īà¸£
à¹ĥà¸Ļ à¹Ģà¸¥
à¹ģà¸ªà¸Ķ à¸ĩà¹Ģà¸Ľ
à¸ģà¸©à¸²à¸ķ à¸Ńà¸Ļà¸ķ
à¸Ń à¸Ńà¸¥
à¹Ĥ à¸Ńà¸ļ
à¸²à¸ĩ à¹Ģà¸ª
à¸²à¸Ļ à¸Ļà¸Ńà¸ģ
à¸Ńà¸Ħ à¸Ńà¸¢
à¸Ľà¸£à¸°à¸Ĭà¸²à¸ģà¸£ à¸Ĺ
à¸Ļ à¹Ģà¸Ĥà¸²
à¸¥ à¸²à¸Ńà¸Ńà¸ģ
à¸¢ à¹ģà¸¥
à¹Ħ à¸Ńà¸ĭ
à¸Ħà¸§à¸²à¸¡ à¸Ħà¸¥
à¸Īà¸° à¸Ļà¸³
à¸ĩà¸Ħ à¸ĩà¸Ńà¸¢
à¸²à¸ģà¸²à¸£ à¸Ĺ
à¸ģà¸Ħ à¸Ļà¸Ĺ
à¹ģà¸¡ à¸¥à¸ĩ
Ġà¸Īà¸²à¸ģ à¸Ĺ
à¹Ģà¸¥à¸Ĥ à¸²à¸Ļ
à¹Ģà¸Ńà¸Ł à¸ĭ
Ġà¹ģà¸¥à¸° à¸Ħà¸£
à¸Ľà¸£à¸°à¸ĺ à¸²à¸Ļà¸ª
olog y
Ġà¹ģà¸¥à¸° à¹Ģà¸Ĭ
Ġà¸Ĺà¸²à¸ĩ à¸Ķ
à¹Ĥà¸Ľ à¹Ģà¸ģà¸¡
S I
à¸Ń à¸£à¸°à¸ļà¸ļ
à¸¥ à¸ķà¸£
à¸²à¸Ļ à¸²à¸¡
à¸ŀà¸£à¸°à¸£à¸²à¸Ĭ à¸§à¸ĩà¸¨
à¸Ļà¸Ľà¸£à¸° à¸¡
Ġà¹Ģà¸ģ à¸¥
Ġà¹Ģà¸ª à¸Ļ
à¸£à¸°à¸ģ à¸²à¸¨
à¸³ à¹ģà¸¥à¸°
à¸²à¸ĩ à¸«à¸²à¸ģ
Ġ à¹ĥ
à¸Ħ à¸Ļà¸ķ
à¹Ģà¸Ĥ à¸²à¸ĸ
à¸ģà¸²à¸£à¸ķ à¸¥à¸²à¸Ķ
Ġà¹ģà¸ģà¸£ à¸¡à¸¡
6 1
t t
à¸ļ à¸ģà¸§
Ġ251 0
Ġ194 0
Ġ à¸¥à¸°à¸Ħà¸£
à¸ģ à¹Ģà¸ĺà¸Ń
à¸ª à¸²à¸«
à¸Ńà¸¡ à¸²à¸¡
à¸ķà¸²à¸¡ à¸«
à¸Ľà¸£à¸°à¸ģà¸Ńà¸ļ à¸ģ
Ġ249 8
Ġ à¸īà¸²à¸¢
à¸§ à¸Ļà¸°
à¸ĵ à¸¥
à¸ĩà¸Ħ à¸Ļ
à¸Ħà¸³ à¸£
à¸Ĳà¸ļà¸²à¸¥ à¸Ĺ
à¸ģà¸Ĳ à¸²à¸Ļà¸Ĺ
à¸ļ à¹Ģà¸«à¸ķ
à¸¡à¸Ĭ à¸Ļà¸ģ
à¸ģà¸ĩà¸²à¸Ļà¸ ª
à¸Ńà¸Ļ à¹Ģà¸ģ
à¸Ħà¸§à¸²à¸¡ à¸«à¸¥à¸²à¸ģà¸«à¸¥à¸²à¸¢
à¹Ģà¸ĭ à¸ķ
à¸ģà¸Ķ à¸³
ĠP h
à¸²à¹ĥà¸Ī à¸ľ
à¸ģà¸£ à¸Ļ
à¸Ĺà¸³ à¸ŀ
à¸ļà¸ģà¸²à¸£ à¸Ŀ
Ġà¸Ĥà¸ĵà¸° à¹Ģà¸Ķ
à¸¡ à¸ĺà¸²à¸Ļ
à¸¢ à¹Ħà¸¡
à¸¢ à¸Ļà¸«
Ġà¸ļ à¸£à¸£
à¸ļ à¸«à¸£
à¸ĭ à¸°
à¸Ļà¸ģà¸²à¸£ à¸ªà¸£
à¹Ĥà¸¡ à¸ª
à¸ĩ à¹ģà¸ľ
à¸§ à¸«à¸¥
à¸²à¸¢ à¹Ģà¸£
à¸²à¸§ à¸«à¸²à¸§
à¸Ļà¸²à¸Ļ à¸ģ
Ġ16 0
à¸²à¹Ģà¸¥ à¸ªà¹Ħà¸ķà¸Ļ
à¸²à¸¢ à¸Īà¸²à¸ģ
à¸ļà¸ģà¸²à¸£ à¹Ģà¸Ľ
à¸ģà¸² à¹Ģà¸£
i er
à¸¢à¸Ļ à¹ĥà¸«
à¸ŀà¸¥ à¹Ģà¸¡
à¸ģà¸ª à¸²à¸¡
Ġà¸Ľà¸£à¸° à¸Ķ
à¸ļà¸£à¸£à¸¢ à¸²à¸ģà¸²à¸¨
à¸ł à¸Ħ
à¸Ħà¸§à¸²à¸¡ à¸Ń
Ġà¹Ģà¸Ĺà¸¨ à¸ļà¸²à¸¥
à¸Ń à¹Ģà¸«à¸ķ
à¸ģ à¹ĥà¸Ļà¸Ľ
à¸Ĥà¸Ńà¸ĩ à¸¨
à¸²à¸§ à¸ªà¸²à¸£
ĠC o
Ġà¸Īà¸° à¹ĥà¸Ĭ
à¸ķà¸ļà¸Ńà¸¥ à¸Ńà¸²à¸Ĭ
à¸ĩ à¹ĥà¸Ļà¸ķ
à¸¢à¸§ à¸Ķ
Ġà¹ĥà¸Ļà¸§ à¸ĩà¸¨
à¹ĥà¸Ļà¸ ®
à¸ĵ à¸ŀ
à¸Ħà¸§à¸²à¸¡ à¸ŀà¸¢à¸²à¸¢à¸²à¸¡
à¸Ĳ à¹ģà¸Ħà¸¥
à¸Ļà¸¡à¸² à¹ĥà¸Ĭ
à¸Ľà¸£à¸°à¸¡à¸§à¸¥ à¸ľà¸¥
à¸¢ à¸ªà¸³à¸Ħ
à¸Ķ à¸Ľà¸£
à¸Ī à¸Ĥ
Ġà¹ģ à¸Ĭà¸¡à¸Ľ
à¸ļà¸ª à¸²à¸£
à¸Ńà¸ĩ à¸ģà¸¥à¸²à¸ĩ
à¸¹ )
à¸Ńà¸ģ à¸Ļ
à¸ģà¸¥ à¸Ļà¸Ħà¸£
à¹ģà¸¡ à¸Ħ
ul t
à¸²à¸Ļà¸Ľ à¸£
à¸²à¹Ģà¸ĭ à¸¥à¹Ģà¸ĭ
Ġà¹ĥà¸Ļà¸ł à¸²à¸ŀà¸¢à¸Ļà¸ķà¸£
A C
à¸ģ à¸Ĺà¸²à¸ĩ
à¹Ĥ à¸Ńà¸Ĺ
à¸²à¸ĩ à¹ĥà¸«à¸¡
Ġà¸Ħ à¸Ļà¸ª
Ġà¸Ĥà¸Ńà¸ĩ à¸£
y m
à¸ĩ à¸Īà¸£
à¸ģà¸© à¸²à¸£
ĠT r
à¸Ļà¹Ĥà¸Ķ à¸Ī
Ġà¸ŀà¸£à¸°à¸£à¸²à¸Ĭ à¸ļ
ace ae
à¸ļà¸ľà¸¥ à¸ģà¸£à¸°à¸Ĺ
Ġà¹ģà¸¥à¸° à¹ĥà¸Ļ
à¹Ħà¸Ľ à¸Ĭ
à¸¢à¸Ļ à¹Ģà¸ģà¸¡à¸ª
à¹Ģà¸Ł à¸ĭ
à¸²à¹ĥà¸Ī à¸§
à¸ģà¹Ģà¸ķ à¸°
à¸ģà¸²à¸£ à¸Ŀ
à¸£à¸²à¸Ĭ à¸²
ĠF or
à¸ĩà¸Ħà¸¡ à¸¨à¸²à¸ªà¸ķà¸£
à¸Ķà¸§à¸ĩ à¸Ī
à¸Ķ à¸²à¸¡à¸²à¸£
à¸§à¸¢ à¸ķà¸Ļà¹Ģà¸Ńà¸ĩ
à¹Ģà¸ª à¸ŀà¸ķ
à¹Ĥà¸¡ à¸ĩà¸Ħ
à¸ĩà¸ģà¸²à¸£ à¸ª
à¸ļà¸£à¸£ à¸ŀà¸ļ
w e
à¸²à¸ĩ à¸Ŀ
à¸Ľà¸£ à¸²à¸£
à¸Ĭà¸²à¸§ à¹Ģà¸¢à¸Ńà¸£à¸¡
et h
à¸ĭ à¸Ńà¸Łà¸Ĺ
à¸Ńà¸Ļ à¹Ħà¸¥à¸Ļ
à¸ģ à¸Ńà¸ĩà¸Ħ
Ġà¹ģ à¸Ħà¸¥
à¸¢à¸Ļ à¹ģà¸¥à¸°
à¸Ľà¸£à¸°à¸ªà¸²à¸Ĺ à¸ª
à¸£ à¸Ńà¸ĩà¸£
Ġ à¹ĥà¸ª
à¸Ń à¹ģà¸ļà¸ļ
à¸Ń à¹ģà¸ªà¸Ķà¸ĩ
à¸¡ à¸£à¸¡
à¸Ļà¸Ĺ à¸°à¹Ģà¸ļ
Ġà¸Ĺ à¸Ńà¸ĩ
Ġà¹Ģà¸Ľ à¸Ńà¸£
Ġà¹ģ à¸Ħà¸§
à¸Ń à¸Īà¸³à¸ģ
à¸ķ à¹ģà¸«
à¸ŀà¸£à¸°à¸Ļà¸²à¸¡ à¸§
Ġà¹ģ à¸¢à¸ģ
Ġà¹Ĥ à¸ģà¸¥
Ġà¸ģà¸²à¸£ à¸Ĺà¸³
Ġà¸Ł à¸Ńà¸£
à¸Ķ à¸ģà¸£à¸°
à¹Ĥà¸Ķ à¸Ļ
à¸Ĺà¸³ à¸Īà¸²à¸ģ
Ġ20 20
à¸¥à¸³ à¸Ļ
à¸¥à¹ģà¸ģ à¹Ģà¸£
à¸ģà¸£ à¸£
à¸¢à¸¡ à¹Ģà¸£
ar i
Ġà¸Ĥà¸Ńà¸ĩ à¸Ľà¸£à¸°à¹Ģà¸Ĺà¸¨
à¸Ļà¸Ľà¸£à¸°à¸ģà¸Ńà¸ļ à¸Ķ
à¸¡ à¸¥à¸ĩ
Ġà¹Ĥ à¸ģ
à¸ªà¸ĩà¸Ħà¸£à¸²à¸¡ à¹Ĥà¸¥à¸ģà¸Ħà¸£
à¹Ģà¸ªà¸Ļà¸Ń à¹ĥà¸«
à¸ĩ à¹ĥà¸Ļà¸Ī
à¸Ķ à¸Ħà¸¥
à¹Ģà¸Ĺà¸¨ à¸Ļ
Ġà¹ĥà¸Ļà¸ ¨
à¹Ĥà¸¡ à¹Ģà¸Ķ
à¸ĩà¹Ģà¸ģ à¸ķà¸§
à¹Ģà¸ĸ à¸£à¸°
Ġà¸ģà¸£à¸¡ à¸«à¸¡
à¹Ĥà¸Ķà¸¢ à¸£à¸Ńà¸ļ
re at
Ġà¹Ģà¸« à¸Ļ
Ġà¹Ģà¸ĭ à¸¥à¸¥
Ġà¹Ģà¸ĺ à¸Ńà¸¡
à¸ĩ à¸Ķà¸³à¹Ģà¸Ļ
à¸¢ à¸£à¸²à¸Ĭà¸§à¸ĩà¸¨
à¸«à¸¥à¸§à¸ĩ à¸Ľ
à¹Ħà¸«à¸¥ à¸ľ
à¸ĸà¸Ļ à¸Ļà¸ª
à¸Ńà¸ĩ à¹Ģà¸«
à¸Ńà¸ĩ à¸Ļà¸Ħà¸£
à¸Ńà¸¢ à¸£
Ġà¸Ļ à¸Ńà¸£
Ġà¸ŀà¸£à¸°à¸£à¸²à¸Ĭ à¸Ĺà¸²à¸Ļ
6 4
à¹Ĥà¸Ļ à¹Ģà¸ªà¸²à¸£
A r
à¸² à¹ĥà¸Ļà¸Ľ
à¸²à¸§ à¹Ģà¸§à¸Ńà¸£
à¸ģà¸£ à¸¥
à¸§à¸¢ à¸ļ
Ġà¸Ĥà¸Ńà¸ĩ à¸§
à¸Ļà¸Ł à¸£
C D
à¸Ĭ à¸Ļà¸ļà¸Ĺ
Ġ250 6
à¸Ļà¸Ńà¸ģ à¹Ģà¸«à¸Ļ
à¸Ķà¸²à¸£ à¸²à¸¨à¸²à¸ªà¸ķà¸£
à¸Ļà¸Ľà¸£à¸°à¸ĺà¸²à¸Ļ à¸²à¸ĺ
à¸²à¸ĩ à¸¢à¸²à¸§
à¸¢à¸ģ à¸Ń
à¸Īà¸ŀà¸£à¸° à¸ļà¸£
Ġ249 9
l ing
à¸Ńà¸ģ à¸²à¸ª
Ġà¸¡ à¸²à¸ķ
Ġà¸Ī à¸²à¸£
à¸§ à¹Ģà¸Ńà¸ģ
à¸Ļà¸ŀ à¸¤à¸«
à¸Ĺà¸£à¸ĩ à¸Ħ
à¸ĩà¸¨ à¸ŀ
à¹ģà¸ªà¸§à¸ĩ à¸«
à¸ĩ à¸łà¸²à¸¢à¹ĥà¸Ļ
à¸ĩà¸ª à¸²à¸§
à¸łà¸²à¸Ħ à¸Ļ
mer ic
à¸Ķ à¸²à¹Ģà¸Ľ
Ġà¸¡ à¸²à¸¥
Ġà¸Ĺ à¸¤à¸©à¸İ
à¸Ļà¸ģà¸²à¸£ à¸ģ
Ġ250 8
Ġà¸¡à¸« à¸²à¸ªà¸¡
A l
à¸Ļ à¸²à¸Ħ
à¸Ļ à¹Ģà¸¢
à¹Ī ,
à¸ķ à¸ģà¸£à¸£à¸¡
à¹Ģà¸ģ à¸¡à¸Ļ
à¸Ńà¸ķ à¹Ģà¸ķà¸Ńà¸£
à¸įà¸į à¸²à¸ļ
à¸ĩà¸²à¸Ļà¸ ł
à¸²à¸ģà¸£ à¸ĵ
à¸ķà¸Ńà¸Ļ à¹Ģà¸«à¸Ļ
Ġà¸ŀà¸£à¸°à¸£à¸²à¸Ĭ à¸§
d e
à¸¢ à¹Ħà¸Ľ
à¸ģà¸£à¸° à¸«à¸§
à¸łà¸²à¸Ħ à¸£
à¹ĥà¸Ļà¸Ĳà¸²à¸Ļà¸° à¸ľ
à¸§ à¹Ģà¸Ĭ
à¸Ħ à¸Ļà¸Ļ
Ġ248 9
a il
à¸Ľ à¹Ĥà¸Ľ
à¸¡à¸² à¹ģà¸ķ
Ġà¸Ĥà¸Ńà¸ĩ à¸Ń
ĠI I
à¸ģ à¸Ńà¸£
à¸Ķ à¹ģà¸ļà¸ļ
à¸Ńà¸¢ à¸¥
à¸Īà¸²à¸ģ à¸Ī
à¸Ł à¸ģà¸²à¸Ļ
à¸Ļà¸ŀ à¸²à¸¢
à¸Ļà¸¡à¸² à¹ĥà¸«à¸¡
Ġà¸¥à¸³ à¸Ķ
à¸ĩà¹Ģà¸Ĥà¸ķ à¸ģà¸²à¸£à¸Ľà¸ģà¸Ħà¸£à¸Ńà¸ĩ
à¹Ĥ à¸Ńà¸¡
à¸Ńà¸Ļ à¹Ĥà¸ĭ
à¸ŀà¸£à¸° à¹Ģà¸¢à¸ĭ
à¸§à¸¢ à¹ĥà¸Ļà¸ģà¸²à¸£
à¸§à¸ĩ à¸«à¸¥
à¸ģà¸² à¹ģà¸Ł
à¹Ĥà¸Ħ à¸ģ
à¸²à¸įà¸Ī à¸Ļà¸ļ
à¸ªà¹Ģà¸ķ à¸Ĭ
à¸¥ à¸Ńà¸Ļà¸Ķà¸Ńà¸Ļ
à¸Ķà¸Ĭ à¸¥à¸ļ
à¸Ľ à¸Ń
à¸²à¸ĩ à¸Ńà¸Ńà¸ģà¹Ħà¸Ľ
à¸¢à¸ģ à¸Ĳà¸²à¸Ļà¸°
à¸Ľà¸ģ à¹Ģà¸ģà¸¥
à¸Ĭ à¸Ńà¸Ľ
à¸Ńà¸²à¸ģà¸²à¸¨ à¸Ĺ
à¸Ķà¸Ń à¸²à¸ģà¸²à¸£
à¸ķ à¹Ģà¸§
à¸Ńà¸ĩ à¸Ńà¸²à¸¨
à¸į à¹ĥà¸«
à¸Ńà¸Ļ à¹ģà¸¥
à¸Ĺà¸²à¸ĩ à¹Ĥà¸Ĺà¸£à¸Ĺ
à¸Ńà¸ª à¹Ĥà¸ģ
à¹ ħ
à¸§ à¸Ļà¸Ĥ
à¸²à¸£ à¸ªà¸²à¸£
à¸²à¸¢ à¹ģà¸¥
Ġà¹ģ à¸¡à¸Ļ
à¸¢à¸Ńà¸Ķ à¸Ł
à¸Ĭà¸²à¸§ à¸ķ
à¸Ļà¸Ľà¸£ à¸²à¸ģà¸ı
à¸Ľ à¸¡
à¸§à¸ĩà¹Ģà¸§à¸¥ à¸²à¸Ļ
à¸Ń à¹Ħà¸£
à¹Ģà¸ģ à¸ķ
à¸Ļà¸Ħ à¸³à¸Ĺ
er n
à¸ķà¸²à¸¡ à¸«à¸¥
à¸§à¸£à¸£ à¸²à¸Ĭ
c on
à¸Ħà¸£ à¸£à¸²à¸Ĭà¸Ĺ
Ġà¹Ĥà¸Ķà¸¢ à¸ģà¸¥
à¸ĩà¸ª à¸³à¸Ļ
à¸ªà¸²à¸¡à¸²à¸£à¸ĸ à¸Ĺà¸³
à¸ļà¸Ħ à¸ĵà¸°
à¹Ģà¸® à¸²à¸ª
à¸ªà¸²à¸Ĥ à¸²à¸§
à¸Ļ à¹Ģà¸ĭà¸Ńà¸£
à¸§ à¸Ļà¸ł
Ġ4 6
à¹Ĥà¸Ńà¸ģà¸²à¸ª à¹ĥà¸«
Ġà¸Ĭà¸²à¸§ à¸ļ
à¸Ń à¹Ģà¸§à¸¥à¸²
à¸«à¸łà¸²à¸ŀ à¸¢
à¸¡à¸²à¸ª à¸£
à¹ģà¸Ļà¸°à¸Ļà¸³ à¹ĥà¸«
à¹ĥà¸Ļ à¹ģà¸ĩ
à¸Ħà¸§à¸²à¸¡ à¸Ī
à¸²à¸ŀ à¸¢
à¹Ĥà¸£ à¹ģà¸¡à¸Ļà¸ķ
à¸«à¸¡à¸²à¸¢ à¹Ģà¸«à¸ķ
à¸²à¸Ĥ à¸²
à¸Ļà¸ŀà¸£à¸° à¸ª
à¸²à¸ģà¸¥ à¸²à¸ĩ
à¸Ľà¸¥à¸²à¸¢ à¸Ľ
Ġà¸Ńà¸Ńà¸ģà¸Ńà¸²à¸ģà¸²à¸¨ à¸Ĺ
à¸ŀ à¸§
à¸Ĥ à¸Ńà¹ĥà¸«
à¹Ĥà¸Ķà¸¢ à¸£
à¸ģà¸¥ à¸ĩ
à¸«à¸¥à¸²à¸¢ à¸£
Ġà¸Ľà¸£à¸° à¸§
B S
à¸Ń à¸į
à¸ĩ à¸¥à¸°
à¸Ńà¸ĩ à¹Ĥà¸Ĺà¸£à¸Ĺ
Ġà¹Ģà¸Ľ à¸£
à¹ģà¸¡ à¸Ļà¹Ģà¸Ĭà¸ªà¹Ģà¸ķà¸Ńà¸£
Ġà¸§ à¸Ńà¸¥
à¸Ļà¹ģ à¸ĸ
Ġ250 1
à¸Ń à¹ģà¸«
à¸²à¸ª à¹Ģà¸ĭ
à¸Ļà¸Ħ à¸Ļà¹ģà¸£à¸ģ
à¸ģà¸³à¸«à¸Ļà¸Ķ à¹Ħà¸§
Ġà¸Ńà¸ĩà¸¨ à¸²à¹Ģà¸ĭà¸¥à¹Ģà¸ĭ
à¸Ĥà¸Ńà¸ĩ à¹Ģà¸Ħà¸£
à¸Ľà¸¥ à¸²à¸ģ
à¹Ģà¸® à¸Łà¸§
S h
Ġà¹ĥà¸Ļ à¸£à¸Ńà¸ļ
Ġà¸Ħà¸§à¸²à¸¡ à¸¢à¸²à¸§
à¸ĩà¸ªà¸Ńà¸ĩ à¸ŀà¸£à¸°à¸Ńà¸ĩà¸Ħ
à¸§à¸ķ à¸²à¸¢
à¸Ļà¸Ħà¸³ à¸§
Ġà¹Ĵà¹ Ķà¹
Ġà¸¥à¸ĩ à¸§
à¸Ĩà¸²à¸ķ à¸ģà¸£à¸£à¸¡
à¸ļ à¹ģà¸¥
à¹ģ à¸Ńà¸Ļà¸Ļ
à¹Ĥ à¸¨
à¸ŀà¸£à¸°à¸ļà¸£à¸¡à¸£à¸²à¸Ĭ à¹Ĥà¸Ńà¸ĩà¸ģà¸²à¸£
à¸ĩà¸ķà¸° à¹Ģà¸ł
w w
à¸Ĺà¸¢ à¸²à¸Ħà¸¡
Ġà¹ĥà¸Ļà¸ Ķ
at ed
à¹ĥà¸ļ à¸Ńà¸Ļ
à¸Ļ à¸ĩà¸²à¸Ļà¸Ĺ
à¸ļ à¸Ńà¸Ķ
à¸²à¸ŀ à¹Ģà¸Ī
Ġà¹ģ à¸Ĭ
à¸ģà¸² à¹ģà¸¥à¸°
à¸Ļà¸Īà¸° à¹Ħà¸¡
à¸£à¸ĸ à¸ĸ
à¸Ķ à¸¡à¸²à¸Īà¸²à¸ģ
à¸Ńà¸¢ à¸Ĭ
à¹Ĥà¸Ķ à¸°
à¸§à¸¡ à¸²à¸ģ
à¸ĩà¸¡ à¸§à¸¥
à¸¡à¸²à¸ģ à¸ĸ
à¸Ļà¸Ĳ à¸²à¸Ļà¸Ĺ
à¸Ń à¸ī
à¸Ļà¸ŀ à¸ļà¸§
à¸ļà¸ģà¸²à¸£ à¸¢
à¸²à¸Īà¸° à¸ĸ
Ġà¹Ģà¸ĺ à¸Ńà¸ģ
à¸Ĥà¸¢à¸²à¸¢ à¸ŀ
à¸¡à¸² à¹Ģà¸ģ
à¸Ĺà¸£à¸ĩ à¸£
à¸Ļà¸¨ à¸²à¸ª
5 4
à¸° à¸«
à¸Ī à¹ģà¸¥
à¹ĥà¸Ļ à¹Ģà¸Ī
à¹Ģà¸Ĥà¸ķ à¸ŀ
à¸Ńà¹Ģà¸£ à¸Ļà¸ĭ
Ġà¸ŀà¸£à¸°à¸£à¸²à¸Ĭ à¹Ĥà¸Ńà¸£à¸ª
Ġà¸ŀ à¸²à¸£
à¹Ĥà¸ģ à¸¨
Ġ198 6
à¸ķà¸¥à¸Ńà¸Ķ à¹Ģà¸§à¸¥à¸²
à¹ģà¸¥à¸° à¹ĥà¸«
à¸ĩà¸²à¸Ļà¸ Ĥ
à¸ŀà¸£à¸°à¸£à¸²à¸Ĭ à¸ģà¸¤à¸©à¸İ
ĠM y
à¹ĥà¸Ļà¸Ľà¸£à¸°à¹Ģà¸Ĺà¸¨ à¸Ī
à¸ļ à¸¤à¸Ķ
à¹Ģà¸ŀ à¸£
à¸Ńà¸¡ à¸²à¸Ĺ
à¸Ļà¹ĥà¸Ļ à¸Ń
Ġc l
à¸Ľà¸£à¸°à¸ģà¸§ à¸Ķà¸¡
à¸ģà¸©à¸²à¸Ħà¸§à¸²à¸¡ à¸ªà¸ĩà¸ļ
ã Ĥ
à¸ģ à¸¢à¸ģà¹Ģà¸¥
à¸ŀà¸£à¸°à¸£à¸²à¸Ĭ à¸ĺ
à¸ĩà¸Ħà¸§à¸²à¸¡ à¹Ģà¸Ľ
Ġ i
à¸²à¸¡ à¸²à¸Īà¸²à¸ģ
Ġà¸Ļ à¸ģ
à¸ģà¸£à¸° à¸ļà¸Ńà¸ģ
à¸§à¸ĩà¸¨ à¸²à¸Ļ
à¸Īà¸²à¸£à¸ĵ à¸²à¸§
à¸Ń à¸Ĺà¸³à¹ĥà¸«
à¸¢ à¸ľ
à¸Ī à¸¯
à¸ªà¸¡ à¸łà¸ŀ
à¸ĩà¸ª à¸Ļ
ĠâĢ Ķ
à¸Ĳà¸Ľà¸£à¸°à¸Ĭà¸²à¸Ĭ à¸Ļà¸Ī
Ġà¹ģà¸¥à¸° à¸Ļà¸²à¸ĩ
à¸Ļà¸ĸ à¸Ļà¸Ļ
à¸Ļà¹Ģà¸§à¸¥ à¸²à¸Ļà¸²à¸Ļ
9 8
T h
i el
à¸¥ à¹Ĥà¸¥
à¸ĭ à¸²à¸¡
à¸ģà¸£ à¸ģ
à¸ŀà¸£à¸° à¸ł
à¸§à¸¢ à¹Ģà¸£
à¸Īà¸³ à¸Ľ
à¸Ļà¸³ à¸ª
ti v
à¸²à¸Ľ à¸ģà¸ķ
à¹Ħà¸Ĥ à¸Ľ
Ġ249 0
à¸Ĥà¸Ńà¸ļ à¹Ģà¸Ĥà¸ķ
à¸²à¸Ļ à¸ģà¸²à¸£à¸Ħ
à¸§à¸ĩ à¸Ńà¸²à¸Ĺ
à¸¢à¸£ à¸²à¸¡à¸Ħà¸³à¹ģà¸«
à¸Ńà¸²à¸«à¸²à¸£ à¸Ĺ
Ġ198 8
à¸ģà¸ķà¸£ à¸Ńà¸Ļ
à¸¡ à¸Ĺà¸³
à¸ª à¸ŀ
à¸ª à¸Ńà¸Ļ
à¸ģà¸£à¸¡ à¸¨
Ġà¸Ńà¸Ńà¸ģ à¹ģà¸ļà¸ļ
à¸ķà¸Ńà¸Ļ à¹ĥà¸ķ
à¸² à¹Ģà¸ĺà¸Ńà¸£
à¸§ à¸Īà¸°
à¸¢à¸§ à¸Ħ
à¸Ńà¸ĩà¸Ħ à¸²à¸¢
ĠA s
à¹Ĥ à¸ļà¸£
à¸ģà¸ª à¸Ńà¸Ļ
à¹ģà¸Ĺ à¸Ļà¸ŀà¸£à¸°à¸Ńà¸ĩà¸Ħ
à¸Ļà¸ľà¸¥ à¸¡à¸²à¸Īà¸²à¸ģ
M A
à¸ĩ à¸ŀà¸ļ
à¸¥ à¸ªà¸ĩà¸Ħà¸£à¸²à¸¡
à¸Ĥà¸Ńà¸ĩ à¹Ģà¸Ń
à¹Ģà¸ģ à¸¡à¸Ĺ
à¸Ħ à¸Ńà¸Ľ
à¸ĵ à¸£à¸ĩà¸Ħ
à¸ĩà¸ļ à¸Ńà¸ģ
ĠG irl
à¹Ħà¸ķà¸£ à¸Ľ
à¸Ļ à¹Ģà¸«
à¸²à¸ĩ à¹ģà¸ľ
à¸į à¹Ħà¸Ķ
à¹Ģà¸Ń à¸Ĺ
à¸Ļà¸Ĥà¸Ńà¸ĩ à¸Ń
9 2
à¸§ à¸«à¸£
à¸ģà¸²à¸£ à¹Ģà¸ª
à¸¢à¸¡ à¸§
à¸ĩà¸Ĥ à¸ĵà¸°à¸Ļ
à¸ķà¸²à¸¡ à¹ģà¸Ļà¸§
ro up
à¹ģà¸ĸ à¸ļà¸ª
à¸Ĺà¸²à¸ĩà¸ķà¸Ńà¸Ļ à¹ĥà¸ķ
5 8
à¸ĩ à¹Ģà¸ªà¸Ķ
à¸ķ à¹ĥà¸«
à¸²à¸ķ à¸Ļà¹Ģà¸Ńà¸ĩ
à¸Ŀ à¸Ļ
à¸£à¸°à¸ļà¸ļ à¸ª
à¹Ģà¸ģà¸© à¸¡
im e
à¸ģà¸Ķà¸³ à¸ļà¸£à¸£à¸ŀ
O N
Ġ à¸£à¸°à¸¢à¸°
à¸Ļ à¸£à¸°à¸¢à¸°à¹Ģà¸§à¸¥
à¸ģ à¸Ńà¸Ļ
à¹ģ à¸ķà¸£
à¸²à¸ĩ à¹ģà¸ļà¸ļ
à¸Ĥà¸Ńà¸ĩ à¸ŀà¸§à¸ģà¹Ģà¸Ĥà¸²
Ġà¹ģà¸¥à¸° à¸Īà¸²à¸ģ
à¸Ńà¸ģà¸²à¸£ à¸Ħ
ĠI s
Ġà¹Ģà¸ĺ à¸Ńà¸¢
à¸ĩà¸ªà¸Ńà¸ĩ à¸Ĥ
à¸¥à¹Ģà¸¡ à¹Ģà¸Ļ
Ġà¸§à¸²à¸ĩ à¸Īà¸³à¸«à¸Ļ
6 8
Ġà¸ģà¸£à¸° à¸Ī
à¸Ļ à¹Ģà¸Ĺà¸ŀ
à¸¡ à¹ĥà¸Ļ
à¸¡ à¹ĥà¸«à¸¡
à¸§à¸¢ à¹Ģà¸Ħà¸£
à¸Ļà¸ª à¹Ģà¸ķà¸Ńà¸£
à¹Ģà¸ļ à¸ģà¸©à¸²
à¸ļà¸ģà¸²à¸£ à¹ģà¸Ĥ
Ġà¹ĥà¸Ļà¸Ĥ à¸ĵà¸°à¹Ģà¸Ķ
à¸£ à¸ķ
à¸§à¸¢ à¸ģà¸¥
Ġà¸Ī à¸³
à¸ķà¸²à¸¡ à¸£
à¸Ķà¸ķ à¸¥à¸Ńà¸Ķ
à¸ļà¸²à¸ĩ à¸Ħ
à¸ģà¸Ńà¸ļ à¸£à¸¡
à¸² à¹Ģà¸Ŀ
à¸²à¸Ħ à¸Ķ
à¹Ģà¸Ń à¸²à¸ķ
à¸ģà¸ķ à¸°à¸§
Ġ248 8
à¸Ķ à¸£à¸²à¸¢à¸ģà¸²à¸£
à¸Ńà¸ĩ à¹Ģà¸Ī
à¸ģà¸²à¸£ à¸ģà¸³à¸«à¸Ļà¸Ķ
à¸²à¸« à¸²à¸į
ar s
ĠâĢ Ŀ
as ter
ĵ à¹
à¸ģà¸£ à¸²à¸ļ
à¸§à¸¢ à¸Ńà¸ĩà¸Ħ
à¸¢à¸¡ à¹Ģà¸Ľ
à¸ŀà¸£ à¸²à¸«à¸¡à¸ĵ
T V
à¸Ļ à¸²à¸ģ
à¹Ĥ à¸«à¸¡à¸Ķ
à¸ĺ à¸ĩ
à¸Ńà¸¡ à¸ļ
à¸łà¸²à¸ŀ à¸ª
Ġà¹ĥà¸Ļà¸Ĥ à¸ĵà¸°à¸Ļ
à¸Īà¸ī à¸£
à¸²à¸¢ à¹ĥà¸ķ
Ġà¹Ĥà¸Ķà¸¢ à¸Ħ
à¸Ħà¸ĵà¸° à¸ªà¸ĩà¸Ĩ
à¸Ķ à¸«à¸§
à¹ĥà¸Ļà¸ģà¸²à¸£ à¹Ģà¸Ľ
à¹Ģà¸§à¸¥ à¸²à¸ģà¸¥
Ġ4 3
à¸¢à¸ĩ à¹ģà¸¥à¸°
Ġà¹Ĥ à¸Ńà¸¥
à¸ģà¸©à¸ĵà¸° à¸Ļ
Ġà¹Ģà¸Ńà¸Ł à¸ĭ
à¸ı à¸Ĳ
à¸Ńà¸Ń à¸²à¸Ĭ
Âł "
a j
à¸ĩ à¸Ħà¸§à¸²à¸¡à¸ª
à¹Ħ à¸Ħà¸£
à¸ļà¸ª à¸Ńà¸ĩ
à¹Ĥ à¸¢à¸Ĭ
à¸Ńà¸£ à¸²à¸Ĭ
à¸ľà¸¥ à¹Ħà¸¡
à¸ĩà¸Īà¸²à¸ģ à¹Ħà¸Ķ
à¸Ķà¸Ĥ à¸Ńà¸Ļà¹ģà¸ģ
à¸ģà¸²à¸£à¸Ľà¸ģà¸Ħà¸£à¸Ńà¸ĩ à¸Ĥà¸Ńà¸ĩ
à¸¢ à¸Ļà¸ĸ
à¸Ķ à¸Īà¸°
à¸²à¸¢ à¸«
à¸²à¸¢ à¹ģà¸ļà¸ļ
Ġà¸Ĥà¸Ńà¸ĩ à¸Ī
à¸Īà¸²à¸ģà¸ģà¸²à¸£ à¹Ģà¸Ľ
à¸ªà¸²à¸¢ à¸ģà¸²à¸£à¸ļ
à¸Ļà¹Ĥà¸Ķà¸¢ à¸Ĺ
Å į
à¸Ķ à¸ķà¸£
à¸° à¸Ħ
à¸Ľ à¸Ļà¸²à¸§
à¸Ńà¸ģ à¸«
à¸ł à¸²à¸§
Ġ4 1
à¸Īà¸ŀà¸£à¸°à¸ļà¸£ à¸¡à¸Ĭà¸Ļà¸ģ
à¸£à¸° à¸«à¸Ļ
à¸²à¸§ à¸¢
Ġà¸ŀ à¸Ńà¸¥
à¸§à¸²à¸ĩ à¹ĥà¸Ī
Ġà¹ Ķ
à¸ĩà¸ľà¸¥ à¸ģà¸£à¸°à¸Ĺ
à¸Ķ à¸Ł
à¸° à¹Ģà¸Ĺ
à¹ĥà¸Ļ à¹Ģà¸§
à¸²à¸ŀ à¸Ļ
à¸Ĺà¸²à¸ĩ à¸£à¸ĸà¹Ħà¸Ł
Ġà¸Ĭ à¸²à¸¢
it ed
Ġ250 2
Ġ le
à¸² à¹ĥà¸ģà¸¥
à¸Ń à¹Ģà¸ķà¸Ńà¸£
à¸ĩ à¸Ķà¸ĩà¸²à¸¡
à¸Ħ à¸Ĩ
à¸Ńà¸¡ à¹ĥà¸«
à¸ķà¸²à¸¡ à¸ĺà¸£à¸£à¸¡à¸Ĭà¸²à¸ķ
à¸¡à¸« à¸²à¸ª
Ġà¸ģà¸²à¸£ à¸ļ
à¸Ńà¸ĩà¸Ĺ à¸Ńà¸ĩ
Ġ Ã
à¸Ļ à¹Ĥà¸¥à¸«
à¹ģà¸¥à¸° à¹Ģà¸ª
à¸Ļà¸Ļ à¸ģ
à¸Ħà¸³ à¸Ĺ
à¹Ģà¸Ĥà¸ķ à¹Ģà¸¥
à¸£à¸Ńà¸Ķ à¸Ĭ
Ä ģ
à¸ĭ à¸Ńà¸Łà¸ķ
à¸Ńà¸ģ à¸ļ
à¸²à¸ĺ à¸²à¸ķ
à¹Ĥà¸£à¸ĩ à¸¥à¸°à¸Ħà¸£
ĠâĢ ĺ
ĠG u
à¸²à¸§à¸£ à¸§à¸ĩà¸¨
à¸Ńà¸¡à¹Ĥ à¸¢à¸ĩ
à¸ł à¸²à¸ª
à¹ģà¸¡ à¸Ļà¸Ī
à¸³ à¸Ńà¸²à¸Ĭ
à¹Ģà¸¥ à¸ª
à¹Ħà¸Ľ à¹Ģà¸£
Ġ249 3
à¸Ń à¹Ĥà¸£à¸ĩà¹Ģà¸£
à¸ĩ à¸łà¸²à¸¢
à¸¡ à¹Ģà¸ª
à¸§à¸ĩ à¸¥
Ġà¸Ī à¸Ļà¸Ĺà¸³à¹ĥà¸«
à¸«à¸²à¸£à¸²à¸Ĭ à¸§
à¸³ à¹Ģà¸ªà¸¡à¸Ń
à¸ªà¸§ à¸Ļà¸ª
à¸ķà¸£à¸Ĥà¸Ńà¸ĩ à¸Ļà¸²à¸¢
à¸² à¹ĥà¸Ħà¸£
à¸ķà¸£ à¸łà¸²à¸ŀ
5 1
à¸ĩ à¹ĥà¸Ļà¸¢
à¸ĩ à¸Ľà¸£à¸°à¸§
à¸¢ à¹Ĥà¸Ļ
Ġà¸ŀ à¸ĩà¸©
à¸¢à¸¡ à¹Ģà¸¥
à¸ģà¸³ à¹Ħà¸£
à¸Ľà¸£à¸°à¸ģà¸Ńà¸ļ à¸Ńà¸²à¸Ĭ
à¹Ĥà¸Ńà¸ģà¸²à¸ª à¸Ĺ
à¸£à¸Ķà¸ģ à¹Ĥà¸¥à¸ģ
à¹Ĥ à¸Ńà¸§
à¸ĸ à¸¡
à¸į à¸¡
à¸Ļà¸ķ à¸£à¸°à¸ģ
à¸ģà¸©à¸² à¹ģà¸¥à¸°
à¸¨à¸²à¸ªà¸Ļ à¸²à¸Ħà¸£
ab le
à¸ģ à¹ĥà¸Ļà¸ģà¸²à¸£
à¸²à¸Ļ à¹Ħà¸¡
à¸ŀà¸ļ à¸ģà¸Ĭ
à¸Ńà¸²à¸Ī à¹Ģà¸ģ
it al
à¸Ļà¸ŀà¸£à¸°à¸£à¸²à¸Ĭ à¸ĺ
à¸²à¸Īà¸Ńà¸¡ à¸¡à¸²à¸£à¸Ķ
à¸¢ à¸Ļà¸¢
à¸²à¸ģ à¸³à¸¥
à¸Ńà¸¡ à¹Ģà¸Ľ
à¸Ńà¸Ńà¸ģ à¸ģà¸³à¸¥
Ġ6 4
à¸ªà¸ģ à¸Ńà¸ķà¹ģà¸¥à¸Ļà¸Ķ
à¸£à¸°à¸ļà¸§à¸Ļ à¸ģà¸²à¸£
à¸¥ à¹Ģà¸Ń
à¸§ à¸Ľà¸£à¸°à¸§
à¸£à¸° à¸Ĩ
à¸Ńà¸¡ à¸Ľ
à¸ģà¸£à¸£à¸¡ à¸ģà¸²à¸£à¸ª
à¸Ńà¸ķ à¹Ĥà¸ķà¸¡
à¸ªà¸²à¸¡à¸²à¸£à¸ĸ à¸¢
6 7
à¸ĩ à¹Ĥà¸Ħ
à¹ģà¸¥ à¸£
à¸¢à¸ģ à¸ª
in k
os e
à¸ģà¸£à¸°à¸Ĺà¸£à¸§à¸ĩ à¸¡à¸«à¸²à¸Ķà¹Ħà¸Ĺà¸¢
6 3
o o
à¸Ļ à¸£à¸°à¹Ģà¸ļ
à¸ļ à¹Ģà¸§
à¸ĵ à¸¨
à¸ķà¸ķ à¸²
Ġà¸łà¸²à¸¢ à¹ĥà¸Ļ
Ġ250 9
3 00
Ġ he
Ġ à¸£à¸°à¸¢à¸°à¸Ĺà¸²à¸ĩ
à¸£à¸£à¸Ķ à¸²à¸¨
E C
à¸Ń à¸Ļà¸«à¸£
à¸ł à¸£
à¹Ģà¸Ħ à¸Ĭ
à¸²à¸Ń à¸²à¸¨
Ġ4 7
à¸ªà¸²à¸¡à¸²à¸£à¸ĸ à¸Ī
à¸ĩà¸« à¸į
à¸Ĵà¸Ļà¸² à¹Ĥà¸Ķà¸¢
Ġ250 4
Ġà¸Ħà¸ĵà¸° à¸£
à¹Ħà¸Ľà¸£ à¸©à¸ĵ
à¸ģ à¹ĥà¸«à¸¡
à¹Ħ à¸Ńà¸Ĺ
à¸Ĺà¸ĺ à¸¢à¸Ńà¸Ķà¸Ł
à¸²à¸¬ à¸ª
Ġà¸ªà¹Ĥà¸¡à¸ªà¸£ à¸Ł
Ġà¸Ļà¸Ńà¸ģ à¹Ģà¸«à¸Ļ
Ġà¸ĭ à¸²à¸£
Ġ5 2
Ġn o
à¸Ļ à¹Ģà¸ģà¸¥
à¸ļà¸£ à¸¡à¸¡
à¸ģà¸©à¸£ à¸¢
à¸¢à¸į à¸Ĺ
S p
à¸¥ à¸²à¸£
à¸Ħ à¹Ģà¸ģà¸Ńà¸£
à¸ģà¸£ à¸¢à¸²à¸Ļ
à¸²à¸Ħ à¸Ļà¸Ĺ
à¸§à¸ĩ à¸ģà¸²à¸£à¸ļ
à¸ĩà¹Ģà¸¨à¸ª à¸Ĺ
à¸Ķà¹Ģà¸ľ à¸¢à¸§
9 3
à¸ĩ à¸Ńà¸³à¹Ģà¸ł
à¸ļ à¸¡à¸²à¸¢
à¸ļà¸ģà¸²à¸£ à¸§
à¸ĩà¸£ à¸Ńà¸ļ
à¸ĩà¸Ľ à¸§à¸ĩ
à¸Ľà¸£à¸°à¸ŀ à¸¤à¸ķ
à¸²à¹Ħ à¸«à¸¡
ĠCom p
5 2
j ect
à¸Ń à¹ĥà¸Ļà¸ģà¸²à¸£
à¸Ħ à¸²à¸¥
à¸Ĥà¸Ńà¸ĩ à¹Ĥà¸£à¸Ħ
à¸Ļà¸ģà¸²à¸£ à¹Ģà¸£
à¸Ľà¸£à¸°à¸Ĭ à¸§à¸£
Ġà¸ł à¸²à¸§à¸°
à¸§à¸Ļà¸ª à¸³à¸Ħ
à¹Ģ à¸Ļà¸Ķ
à¸¢à¸§ à¸Ĥà¸Ńà¸ĩ
à¸įà¸į à¸²à¸Ĺ
ĠÂł ĠÂł
à¹Ģà¸Ļà¸£ à¹Ģà¸Ĺà¸¨
à¸² à¹Ģà¸Ĥà¸²
à¸Ńà¸¢ à¹Ħà¸Ķ
Ġà¹ģà¸¥à¸° à¸£à¸°à¸Ķ
à¹Ħà¸¡ à¹Ģà¸Ħ
à¸Ŀ à¸²à¸ģ
à¸Ħà¸³ à¸ķà¸Ńà¸ļ
à¹Ģà¸§à¸ĵ à¸Ķ
à¸Ķ à¹Ģà¸ŀà¸Ĭà¸£à¸ļ
à¹ĥ à¸¢
à¸¥à¸ĩ à¸ª
à¸Ļà¸Ĺà¸²à¸ĩ à¸ª
Ġc on
à¸ģà¹ģà¸ªà¸Ķà¸ĩ à¸«à¸į
à¸ļà¸£à¸¡à¸¡ à¸«à¸²à¸£à¸²à¸Ĭà¸§
à¸²à¸Ķ à¸³à¸£à¸ĩà¸ķà¸³à¹ģà¸«à¸Ļ
à¸Ĺà¸ĺ à¸²
Ġà¹Ģà¸ŀ à¸Ĭà¸£
à¸Ļà¸ģà¸²à¸£ à¸ŀ
à¸ģà¸Īà¸° à¸ĸ
ran s
à¸Ĭà¸Į à¸²à¸¢
Ġ ro
à¸Ĭ à¸Ķ
à¸²à¸Ļà¸« à¸£
Ġà¸ŀà¸£ à¸«à¸¡
à¸ģ à¹ģà¸Ĥ
à¸¡ à¸Ľà¸£à¸°à¸ª
à¹ģà¸¥à¸° à¹Ģà¸Ħà¸£
à¸§à¸ĩ à¸£à¸°à¸«à¸§
Ġà¸ģà¸²à¸£ à¹Ģà¸Ľà¸¥
Ġ250 7
à¹ģà¸Ħà¸Ļ à¸²à¸Ķ
à¸²à¸¡ à¸²à¸¢
Ġà¹ģà¸¥à¸° à¸ģà¸¥à¸²à¸¢à¹Ģà¸Ľ
à¸Ńà¸ģà¸²à¸£ à¸ª
Ġà¸Īà¸° à¸Ĺà¸³à¹ĥà¸«
à¸Ķà¸²à¸§ à¹Ģà¸Ĺ
à¸Ĥà¸Ńà¸ĩà¸ŀà¸£à¸° à¸Ļà¸²à¸ĩ
à¸Ĺ à¸ķ
à¸²à¸¡ à¸²à¸ª
à¸ģà¸£ à¹Ħà¸Ĺà¸¢
à¸Ļà¸ģ à¸Ńà¸ĩà¸Ĺ
à¸¥à¸° à¸Ħà¸Ļ
à¸ļà¸ģà¸²à¸£ à¸Ĭ
à¸ĩà¸Ń à¸²à¸«à¸²à¸£
at or
à¹Ĥ à¸ļà¸¥
Ġà¹Ĥà¸Ķà¸¢ à¸Īà¸°à¸¡
à¸¢à¸¡ à¸Ī
à¸ªà¸²à¸¡à¸²à¸£à¸ĸ à¸ªà¸£
à¸Ńà¸ģà¸²à¸£ à¸ŀ
à¸²à¸Ļà¸Ī à¸°
op h
à¸Ĭ à¸²à¸ģ
à¸²à¸§ à¸²à¹Ģà¸£
Ġà¸Ń à¸Ńà¸ªà¹Ģà¸ķà¸£à¹Ģà¸¥
Ġà¸ķà¸²à¸¡ à¸Ķ
à¸¡ à¸ªà¸¡
à¹Ĥ à¸Ľà¸¥
à¸§à¸¡ à¸Ĭ
Ġà¹ģà¸ŀ à¸Ĺà¸¢
k y
à¸² à¹Ģà¸«à¸¡
à¸Ń à¹Ħà¸§
à¸ĩ à¸Īà¸³à¹Ģà¸Ľ
Ġà¹ģà¸¥à¸° à¸«à¸¡
à¸į à¸ļ
à¸į à¸ģà¸£à¸£à¸¡
à¹Ĥà¸Ķà¸¢ à¹Ģà¸Ľ
à¸Ħà¸§à¸²à¸¡ à¸Ľà¸¥à¸Ńà¸Ķà¸ł
Ġà¸ģ à¸İà¸«à¸¡à¸²à¸¢
à¸Ļà¸ļ à¸²à¸Ĺ
à¸ªà¸²à¸¡à¸²à¸£à¸ĸ à¸ŀ
à¸¥à¸²à¸¢ à¹Ģà¸§à¸Ĺ
Ġ à¸Ľà¸£à¸°à¸Ĭà¸²à¸ģà¸£
à¸Ħ à¸²à¸ļ
à¸Ńà¸ª à¸³à¸«à¸£
à¸ªà¸£ à¸łà¸²à¸ŀ
à¸«à¸¥à¸²à¸¢ à¸Ľ
ol y
5 7
à¸Ķ à¸ģà¸İà¸«à¸¡à¸²à¸¢
à¹Ĥ à¸ĸ
à¸ĵ à¸²à¸ĺ
à¸²à¸Ń à¸²à¸¢
Ġà¸¡à¸« à¸²à¸ł
à¸Īà¸²à¸ģ à¸§
Ġ249 2
Ġ end
à¹Ĥà¸£ à¹Ģà¸ļ
à¹Ĥà¸£ à¸Ĵ
à¸¥à¸°à¸Ħà¸£ à¹Ģà¸§à¸Ĺ
à¸Īà¸³à¸Ļà¸§ à¸Ļà¸Ĺ
Ġ249 1
à¸Ĥà¸Ńà¸ĩ à¸Ħà¸£
à¸ģà¸£ à¸ķ
à¸²à¸ª à¸§à¸¢à¸ĩà¸²à¸¡
à¸²à¸Ļà¸ Ŀ
ĠG o
à¸¨à¸²à¸ªà¸Ļ à¸²à¸Ń
o id
à¹Ģà¸ģ à¸¡à¸Ń
à¸ŀà¸£à¸° à¸Ļ
à¸Ńà¸Ķ à¸Ħà¸¥
il li
à¸Ļà¸ķà¸Ļ à¸²à¸ģà¸²à¸£
à¸¡ à¸®
à¸Ĭ à¸°
à¸Ńà¸ģ à¸¡
à¸ĩà¸ª à¸ĩà¸Ħà¸£à¸²à¸¡à¹Ĥà¸¥à¸ģà¸Ħà¸£
à¸Ļà¸Ļ à¸²à¸¡
ik i
à¹Ģà¸Ħ à¸¢à¸£
Ġà¸Ľà¸£à¸°à¹Ģà¸Ĺà¸¨ à¸Ŀà¸£
Ġ248 4
Ġà¹ĥà¸Ļà¸ļ à¸Ĺ
à¸¡à¸²à¸Ĥà¸Ńà¸ĩ à¸Ĭ
Ġà¸Ľ à¸¥à¸²
le x
Ġ249 7
à¹Ģà¸ªà¸ģà¸ªà¸¡ à¸£à¸ªà¸ģ
9 4
à¸Ļ à¹Ģà¸Ħà¸¢
à¹Ĥà¸Ķà¸¢ à¸ķà¸¥à¸Ńà¸Ķ
à¸įà¸į à¸²à¸ª
or p
Ġà¹Ģà¸ģ à¸©
à¹ģà¸Ħ à¸Ĺ
à¸ģà¸¡à¸§à¸¢ à¹Ħà¸Ĺà¸¢
à¸ģ à¸ŀà¸£à¸£à¸Ħ
à¸¡ à¸ľà¸¥
à¸²à¸¡ à¸²à¸¡
Ġà¹ģà¸¥à¸° à¸ªà¸¡à¹Ģà¸Ķ
à¹Ģà¸Ĥ à¸²à¸£
à¸² à¹Ĥà¸Ń
à¸² à¹Ħà¸Ĺ
à¸ľ à¸Īà¸įà¸ł
à¸Īà¸° à¹Ģà¸ŀ
à¸Ĳ à¸ķ
à¸ļà¸Ļ à¸²à¸ĩ
à¸ģà¸²à¸£ à¹Ģà¸ķ
à¸²à¸ķ à¸²à¸¢
à¸ĩà¸Ĥ à¸£à¸ĵ
Ġ19 30
Ġà¹ĥà¸Ļà¸ģà¸²à¸£ à¹Ģà¸¥
Ġà¸Ļà¸³ à¹Ĥà¸Ķà¸¢
Ġà¹Ģà¸¢à¸Ńà¸£ à¸¡à¸Ļ
à¸Ļ à¸ģà¸¥à¸²à¸¢à¹Ģà¸Ľ
à¸ģ à¸«à¸į
à¸¥ à¸¨
à¸¢ à¸Ķà¸ª
à¹Ģà¸£ à¸²à¸°
à¸Ńà¸¥ à¸Ĺ
Ġà¸ģà¸²à¸£ à¸ªà¸£
à¸ĩà¸Ĥà¸Ńà¸ĩ à¸£
Ġ247 6
Ġà¸Ńà¸ĩà¸¨ à¸²
n er
Ġ j
à¸² à¹Ĥà¸Ķ
à¸ĩ à¸ķà¸£
à¸ĩ à¸ŀà¸£à¸°à¹Ģà¸Ī
à¸Ħ à¹Ģà¸ĭ
à¸²à¸¢ à¸ķà¸£à¸ĩà¸Ĥ
à¸Ńà¸Ķ à¹ģà¸Ķà¸ĩ
Ġà¹ĥà¸Ļ à¸ģà¸£
à¸łà¸²à¸© à¸²à¸Ĺ
il and
à¹Ĥà¸Ĭ à¸Ħ
à¸ĩ à¹ĥà¸ª
à¸Ļà¸ ¤
à¸Ī à¸ģà¸¥
à¸µà¹Ī "
à¹Ĥ à¸į
à¸Ńà¸ģ à¹Ĥà¸ģ
à¸²à¸§ à¸²à¸¢
à¸Ĵà¸Ļ à¸²à¸ª
à¸²à¹Ħà¸Ľ à¹ĥà¸Ļ
ĠChamp ions
9 6
à¸Ķ à¸ľà¸¥
à¸į à¸Ĺà¸²à¸ĩ
à¹ģà¸ļà¸ļ à¸Ķ
à¹ģà¸ļ à¸Ļà¸Ķ
à¸Īà¸³à¸Ļà¸§ à¸Ļà¸Ľà¸£à¸°à¸Ĭà¸²à¸ģà¸£
à¸ľà¸¥à¸ĩ à¸²à¸Ļà¸ģà¸²à¸£
Ġà¸Ĺà¸²à¸ĩ à¸ªà¸ĸà¸²à¸Ļ
a ir
Ġà¸Ľ à¸ģà¸ķ
à¸°à¸§ à¸°
à¸ª à¹ģà¸¥
à¸ļ à¹ģà¸ģ
à¸ļ à¹Ģà¸ŀà¸¥
à¹ģà¸¥à¸° à¸ļà¸£
Ġà¹ģà¸¥à¸° à¹Ģà¸Ķ
Ġà¸ª à¸łà¸²à¸ŀ
à¸ģà¸¤à¸ķ à¸ģà¸²à¸£à¸ĵ
à¸¡ à¸Ľà¸£
à¸¥ à¹Ĥà¸Ļ
Ġà¸Ľ à¸²à¸£
à¸¥à¸° à¸Ľ
Ġà¸ģà¸²à¸£ à¹Ģà¸Ĥ
à¹ĥà¸Ļà¸ª à¸Ļà¸²à¸¡
à¸ĩà¹Ģà¸ŀ à¸Ĭà¸£
à¸Īà¸ļ à¸¥à¸ĩ
Ġ ar
à¸Ļ à¹ĥà¸Ķ
à¸³ à¸ķà¸ģ
Ġà¸ª à¸ķà¸£
à¸ģà¸©à¸ĵà¸° à¹Ģà¸īà¸ŀà¸²à¸°
Ġ198 5
à¸Ķ à¹ĥà¸Ļà¸Ľà¸£à¸°à¸§
à¸Īà¸° à¸«
à¸łà¸²à¸ŀ à¸ĸ
Ġà¹ĥà¸Ļà¸ ĭ
à¸Īà¸ŀà¸£à¸° à¸ļà¸£à¸¡
à¸ľà¸¥à¸ĩà¸²à¸Ļ à¸Ń
à¸Ļà¸łà¸²à¸¢ à¹ĥà¸ķ
à¸µà¹ī "
à¸Ļà¸¢ à¸²
à¸«à¸¥à¸²à¸¢ à¸Ħ
à¹ĥà¸Ļà¸ķ à¸Ńà¸Ļà¸Ĺ
Ġà¸Ħà¸ĵà¸° à¸§
ub l
à¹Ģà¸Ļà¸Ľ à¸²à¸¥
à¸¢ à¹ģà¸Ĭà¸¡à¸Ľ
à¸Ķ à¹ĥà¸Ļà¸§
à¸²à¸ĩ à¸Ĭà¸Ļ
à¸Ĳ à¸Ī
à¸¢à¸Ļ à¹Ģà¸ģ
à¸«à¸¥à¸²à¸¢ à¹Ĩ
à¹Ĥà¸ģà¸¥ à¸Ķ
à¸£ à¸Ń
à¸ļ à¹ģà¸Ĥ
à¸Ł à¸²à¹Ĥà¸£à¸«
à¸ªà¸¡ à¸²à¸ŀ
à¸ĩà¸ģà¸²à¸£ à¸ķ
Ġ198 4
à¸Īà¸ŀà¸£à¸°à¸ļà¸£à¸¡à¸Ĭà¸Ļà¸ģ à¸²à¸ĺ
à¸ķà¸²à¸¡ à¸ģà¸İà¸«à¸¡à¸²à¸¢
à¹ĥà¸Ļà¸¨ à¸²à¸ªà¸Ļ
r est
à¸ģà¸²à¸£ à¹Ĥà¸Īà¸¡à¸ķ
à¸¢à¸ĩ à¸Ħà¸£
à¸ĩà¸ª à¸²à¸ĺà¸²à¸£à¸ĵà¸£
à¸¢à¸¡ à¸Ķ
Ġà¹ĥà¸Ļ à¸Ļà¸²à¸¡
ĠM ed
Ġp l
Ġ198 7
à¸Ń à¸Ĭà¸²à¸§
à¸Ń à¸Ľà¸£à¸°à¸Ĭ
à¸Ńà¸¢ à¸Ħà¸¥
à¸ķà¸²à¸¡ à¸ķ
à¸¢à¸ļ à¸ĩ
it t
à¸ĩ à¹ģà¸Ĺ
à¸²à¸¢ à¸ļà¸£
à¸į à¸ŀà¸£à¸°
à¸Ńà¸ģ à¹Ģà¸Ĥà¸²
à¸Ĺà¸²à¸ĩ à¹Ģà¸Ĥ
à¸¢à¸¡ à¸£
à¸ĩà¸ģà¸¤à¸© à¹Ħà¸Ķ
à¸²à¸Ł à¸£
à¹ģà¸Ĺà¸£à¸ģ à¸ĭ
I N
à¸ģ à¸²à¸ĭ
à¸ģà¸© à¸²à¸Ħ
à¸ĩà¸ª à¸ĸà¸²à¸Ļ
à¹ĥà¸Ļà¸ģà¸²à¸£ à¸Ĺ
à¸Ļà¸Ĺà¸²à¸ĩ à¹Ģà¸Ĥ
à¸Ĳà¸ļà¸²à¸¥ à¸ģà¸¥à¸²à¸ĩ
à¸Ń à¸Ńà¸ĩà¸Ħ
à¸§ à¸²à¸£à¸°
à¸Īà¸° à¹Ģà¸«
à¸Ńà¸Ļà¸ª à¹ģà¸ķ
à¸ģ à¹Ħà¸Łà¸Ł
à¸ķ à¹Ģà¸Ī
à¸Ħà¸§à¸²à¸¡ à¸ģ
à¸ī à¸°à¸Ļ
à¸¢à¸²à¸¢ à¹Ģà¸£
Ġà¹Ĥà¸£ à¹Ģà¸ļ
à¸Ń à¹Ħ
à¸Ķ à¹Ħà¸Ł
à¸Ĥ à¸ļà¸§à¸Ļà¸ģà¸²à¸£
à¸Ńà¸¡ à¸²à¸§
à¸¥à¸ĩ à¹ģà¸Ĥ
Ġà¹ĥà¸Ļ à¸£à¸²à¸¢à¸ģà¸²à¸£
à¸ģà¸² à¹ģà¸¥
à¸§à¹Ħà¸Ľ à¸Ĺ
b o
à¸£ à¸Ķ
à¸Ħ à¸Ļà¸ªà¸³à¸Ħ
à¸Ńà¸¢ à¸¡à¸²
à¸£à¸£ à¹Ģà¸ªà¸£
à¸Īà¸Ī à¸£
ĠA ss
à¸ĩà¹Ģà¸ģ à¸²à¸°
à¹Ĥà¸Ĭ à¸ķ
ĠEn ter
à¸Ń à¸Ľà¸£à¸°à¹Ģà¸Ĺà¸¨
à¸ģ à¸ļà¸£
à¸ļ à¸ªà¸¡à¹Ģà¸Ķ
à¹ģà¸Ĥ à¸§à¸Ļ
à¸Ķà¸¡ à¸ģà¸²à¸£à¸ĵ
ĠF l
à¹Ĥà¸Ńà¸ģà¸²à¸ª à¹Ħà¸Ķ
à¸¥ à¹ģà¸£à¸ģ
à¸Ńà¸Ļ à¹ģà¸Ń
à¸Ļà¸Ħ à¸ķ
à¸Ļà¸¢ à¸³
à¸²à¸ľ à¸Ļ
à¸§à¸¢à¸Ħà¸§à¸²à¸¡ à¸Ĺ
à¸ģ à¹Ģà¸«à¸¥
à¸ģ à¹Ĥà¸Īà¸¡à¸ķ
à¸¡ à¸ĩà¸²à¸Ļ
à¸ª à¸«à¸łà¸²à¸ŀà¹Ĥà¸ĭà¹Ģà¸§
à¸Īà¸³ à¸¥
Ġà¸Ķ à¸Ļà¸ķà¸£
à¸ĩà¹ĥà¸Ļ à¸Ń
à¸Ļà¹ģà¸Ķ à¸Ļà¸Ĥà¸Ńà¸ĩ
ĠCom m
r ec
à¹ģ à¸Ħà¸§à¸£
à¸Ľ à¸®
à¸Ħà¸§à¸²à¸¡ à¸«à¸Ļà¸²à¹ģà¸Ļ
à¸Ĺà¸ĺ à¸Ńà¸ĩà¸Ħ
à¸ŀà¸£à¸°à¸£à¸²à¸Ĭ à¸Ļ
Ġà¸Īà¸²à¸ģ à¸Ń
ro s
re am
Ġà¹Ģà¸Ĺ à¸Ħà¹Ĥà¸Ļà¹Ĥà¸¥à¸¢
ĠIn d
à¹ģà¸Ĺà¸£à¸ģ à¹ģà¸ĭ
Ġà¹ĥà¸Ļà¸« à¸Ļ
à¸ļà¸ªà¹Ĥà¸¡à¸ªà¸£ à¸Ł
e le
à¸Ľ à¹Ħà¸Ķ
à¸Ńà¸ĩ à¹ģà¸Ħ
Ġà¸ģà¸£ à¸ĵ
ĠR o
à¸Ń à¸ŀà¸£à¸°à¸Ńà¸ĩà¸Ħ
à¸¢ à¸Ł
à¸ģà¸© à¸²à¸ŀà¸£à¸°à¸Ńà¸ĩà¸Ħ
à¸Ĺà¸£ à¹ģà¸Ńà¸ķà¹ģà¸¥à¸Ļà¸ķ
à¸ĩà¸¡ à¸²à¸ģà¸ģà¸§
Ġà¸Ĭ à¸²à¸ķ
à¸¥à¸° à¸ª
ap p
ĠAward s
à¸ĩ à¹Ģà¸®
à¸ĩ à¹Ģà¸Ńà¹Ģà¸Ĭ
à¸¢ à¹Ģà¸Ĥ
à¸ĵ à¸ĵ
à¸Ħà¸§à¸²à¸¡ à¸ĭ
Ġ249 5
Ġ à¸Ńà¸¡
à¸Ĳ à¹ģà¸¥à¸°
à¹ģà¸ļà¸ļ à¹Ħà¸¡
à¸ĩà¸ģà¸²à¸£ à¸£
at ch
à¹Ģà¸«à¸¡à¸²à¸°à¸ªà¸¡ à¸ģ
à¸°à¹Ģà¸¢ à¸²
à¸£ à¸¨
à¸ģ à¹ģà¸Ĺà¸Ļà¸Ĺ
à¸ª à¸ļ
Ġà¹Ĥà¸Ķà¸¢ à¸Ĥ
Ġà¸Ĥà¸Ńà¸ĩ à¸Ļ
Ġà¹Ģà¸ŀà¸£à¸²à¸° à¹Ģà¸Ľ
à¸Īà¸Ļ à¹Ģà¸ģ
à¸¬à¸² à¹Ĥà¸¥à¸ģ
à¸Ħà¸°à¹ģà¸Ļà¸Ļ à¹Ģà¸ª
à¸²à¸¢ à¸ģà¸¥
Ġà¸ŀ à¸²à¸¢
à¸¡à¸Ń à¸į
à¸Īà¸³à¸Ļà¸§ à¸Ļà¸ľ
à¸Ķà¸Ń à¸²à¸§
Ġà¹ģà¸¥à¸° à¸Ĺà¸³
à¸ŀà¸£à¸° à¸ĺà¸£à¸£à¸¡
à¸²à¸Ī à¸Ńà¸£
à¸¢à¸¡ à¹ģà¸¥à¸°
à¸ī à¸°
à¸Ļà¸ŀà¸£à¸° à¸ĺ
à¸Ķà¸£ à¸²à¸¡
à¸Ħà¸£à¸Ńà¸ĩ à¸Ļà¸Ħà¸£
à¸§à¹Ĥà¸¥à¸ģ à¹Ģà¸«à¸Ļ
r al
à¸µ âĢĿ
à¸¡ à¸²à¸Ĺà¸³
à¸Ķ à¸ªà¸³à¸«à¸£
à¸° à¸£à¸°
à¸¢à¸ĩ à¸¡
à¸Ļà¸²à¸¡ à¹Ģà¸Ķ
à¸¡à¸²à¸ĵ à¸Ļ
à¸ļà¸Ķ à¸²à¸§
à¸Ńà¸²à¸Ī à¸Īà¸°à¸¡
à¸ģà¹Ģà¸ģ à¸ĵà¸ĳ
à¸Ńà¸ģ à¹ĥà¸Ĭ
à¸Ńà¸£ à¸²à¸§
à¸¢à¸² à¹Ģà¸ĺà¸Ń
à¸Ļà¹ĥà¸Ļ à¸¥
à¸ªà¹Ģà¸ĭ à¸Ńà¸£
à¸Ĺà¸²à¸ĩà¸Ĺ à¸°à¹Ģà¸¥
à¸ģ à¸Ĺà¸³à¹ĥà¸«
à¸ĩ à¹Ģà¸Ĥà¸²à¹Ħà¸Ķ
à¸²à¸ĩ à¹Ħà¸§
Ġà¸ļ à¸²à¸ĩà¸ª
Ġà¸Ħà¸£ à¸Ńà¸ļà¸Ħà¸¥
à¸²à¸Ļà¸ł à¸²à¸ŀ
à¸¢à¸£à¸²à¸¡à¸Ħà¸³à¹ģà¸« à¸ĩ
Ġ à¹ĥà¸Ī
à¸ģ à¹Ĥà¸¥à¸ģ
à¸³ à¹Ģà¸ª
à¸© à¸Ĺ
à¹Ĥà¸£ à¸§
à¸«à¸¥à¸²à¸¢ à¹Ģà¸£
à¹ĥà¸Ļà¹Ģà¸§à¸¥ à¸²à¸Ļ
C l
t he
à¸Ļ à¹Ħà¸Ĥ
à¸§ à¸Ļà¸§
à¸Ī à¸ĩ
à¸¢à¸¡ à¹ģà¸«
à¹ĥà¸Ļà¸ģà¸²à¸£ à¸¨
à¸Ńà¸ģ à¹Ģà¸¥
à¸Ł à¸²à¸Ļ
à¸²à¸ª à¸²à¸§
Ġà¹ģ à¸Ń
à¸ĩà¸Ħ à¸ĩà¹ĥà¸Ĭ
à¹ģà¸ª à¸ķ
à¸ĩà¸Īà¸° à¹Ħà¸Ķ
ot h
à¹ģà¸ĸ à¸§
à¸Ķ à¸Ŀ
à¸²à¸Ļ à¹ĥà¸«
à¸ķà¸£ à¸Ļ
er e
Ġà¸ŀà¸£à¸° à¸Ĺ
à¸Ľà¸£à¸°à¸ģà¸Ńà¸ļ à¸Ĺ
Âł (
à¹Ĥà¸£à¸Ľ à¸ķà¸°à¸§
à¸ªà¸²à¸Ĥ à¸²
à¸ŀ à¸Ńà¸Ķ
à¸²à¸Ĭ à¸¡
Ġà¸«à¸¥ à¸§à¸ĩà¸ŀ
I S
u tion
à¸ģ à¹ģà¸¡
à¸Ĺ à¸£à¸¡
à¸Ĥà¸Ńà¸ĩ à¹Ģà¸¥
à¹ĥà¸Ļ à¸¡à¸«à¸²à¸§
à¸§à¸¢ à¸«à¸Ļ
à¸ģà¸² à¹Ħà¸Ķ
à¸Ńà¸Ńà¸ģà¸Īà¸²à¸ģ à¸ģ
à¸Ńà¸ĩà¸Ĥ à¸§
à¸³ à¸Ĭ
à¹Ģà¸ļ à¸įà¸Ī
te x
a ve
à¸² à¹ģà¸ŀ
Ġà¸Ń à¹Ģà¸¡à¸£
à¸Ľà¸£à¸²à¸ģà¸ı à¸Ńà¸¢
à¸Ħà¸Ńà¸Ľ à¹Ģà¸ķà¸Ńà¸£
I T
à¸Ń à¹Ģà¸«
à¸ĩ à¹Ģà¸ļà¸Ńà¸£
à¸Ħ à¸Ľ
à¸ĭ à¸²à¹Ģà¸¥
à¸Ļà¸Ĺ à¸Ńà¸ĩ
à¹Ģà¸£ à¸ĭ
à¹Ĥà¸£ à¸Ļ
à¸Ļà¸¡à¸²à¸ģ à¸¡à¸²à¸¢
à¹Ħà¸ĭ à¸Ļ
Ġ249 6
à¸²à¸Ńà¸Ńà¸ģ à¸Ńà¸²à¸ģà¸²à¸¨
à¹Ĥà¸Ĩ à¸©
à¸ŀ à¸Ńà¸£
à¸²à¸¡ à¸²à¸Ńà¸¢
à¸ģà¸£ à¸ļ
à¸²à¸ļ à¸Ļ
un c
à¹Ĥà¸ģà¸ª à¸¥à¸²à¹Ģà¸§
à¸²à¸¡ à¹ģà¸¡
à¸Ļà¸Ļ à¸²à¸£
Ġà¹ĥà¸Ļ à¸£à¸°à¸Ķ
à¸Ļà¸Ľà¸£à¸° à¸ķ
à¹Ĥà¸¢à¸ļ à¸²à¸¢
9 7
à¸¢ à¸¥à¸¥
à¸ķ à¸ģà¹Ģà¸Ľ
à¸Ĺ à¸Ńà¸ĩà¸Ħà¸³
à¸ķà¸²à¸¡ à¸¥
à¸łà¸²à¸Ħ à¸ģà¸¥à¸²à¸ĩ
Ġà¹Ģà¸Ń à¸²à¸Ĭà¸Ļà¸°
à¸Ńà¸« à¸²à¸Ĥà¸Ńà¸ĩ
am es
ex t
Ġà¹ĥà¸Ļà¸Ī à¸³à¸Ļà¸§
à¹ģà¸ªà¸ĩà¸Ń à¸²à¸Ĺ
à¸ģ à¹Ģà¸¥à¸¢
à¸¡ à¸Ķà¸²à¸§
à¸ŀ à¹Ģà¸ŀ
à¸ģà¸²à¸£ à¸Ĥà¸Ļà¸ª
Ġà¸ŀ à¸Ńà¸ķà¹Ģà¸ķà¸Ńà¸£
à¸Ļà¸ª à¸ĩà¸Ħà¸£à¸²à¸¡
er m
à¸İ à¸ģ
à¸ĩà¸Ń à¸Ńà¸ªà¹Ģà¸ķà¸£
p t
à¸²à¸ĩ à¹ĥà¸Ļ
à¹Ħà¸Ľ à¸Ĥ
à¸§à¸ĩ à¸Ķ
à¹Ĥà¸ķ à¸Ļ
Ġ7 2
à¸¡à¸Ń à¹Ģà¸ķà¸Ńà¸£
à¸³ à¸¥à¸ĩ
à¹Ģà¸Ĥ à¸²à¸Īà¸°
à¸Ħà¸¥ à¸Ńà¸Ķ
à¸ĩà¸Ĥ à¸¥
à¸¡à¸²à¸ģ à¸£
à¸Ļà¹Ħ à¸®
à¸Ĥà¸²à¸Ķ à¹ģà¸Ħà¸¥
à¸ģ à¸ģà¸£
à¸¡ à¸²à¸Īà¸Ļà¸ĸ
à¸¢ à¸Ļà¸Ľ
à¸ĵ à¸ª
à¸²à¸§ à¸Ńà¸¢
à¸²à¸¥ à¸°
à¸Ļà¸§ à¸ĩà¸¨
à¸ªà¸¡ à¸¡à¸ķ
Ġ5 1
ĠO n
à¸ªà¸Ľ à¸Ńà¸£
à¸ļà¸Ľà¸£à¸°à¸Ĺ à¸²à¸Ļ
à¸ģ à¹Ĥà¸ĭ
à¸ģà¸²à¸£ à¸Ĥà¸Ńà¸ĩ
à¹Ģà¸§ à¸Ļà¸ķ
à¸ªà¸° à¹Ģà¸Ĺ
à¸ªà¸²à¸« à¸ģ
à¸Ń à¹ģà¸£à¸ģ
à¸¥ à¹Ģà¸ŀ
à¸ªà¸¡ à¸ģ
Ġà¹Ĥà¸Ķà¸¢ à¹ĥà¸Ļà¸Ľ
à¸ļà¸Ĺ à¸Ľà¸£à¸°à¸ŀ
à¸Ħà¸Ļ à¹ģà¸£à¸ģà¸Ĺ
Ġ6 00
ati ve
à¸¡ à¸²à¸Ħ
à¸Ĥ à¸¢
Ġà¸Ħ à¸Ļà¸ķ
à¸Ļà¸ª à¸²à¸§
à¸Ĺà¸³ à¸ĩà¸²à¸Ļà¸Ĺ
à¸Ń à¹Ģà¸ĭ
à¸ĩà¸¡ à¸²
à¸Ķà¸ª à¸Ļà¸²à¸¡
e an
à¸ķ à¸Ľà¸£à¸°à¸Īà¸³à¸§
à¸ļ à¸ªà¸¡à¸²à¸Ĭ
à¸ļ à¸Ħà¸³à¸ª
à¸²à¸¢ à¹ĥà¸Ļà¸Ľ
à¸Ħà¸§à¸²à¸¡ à¸Īà¸³
à¹Ģà¸§ à¸ķ
Ġà¹ģ à¸ļà¸¥
à¸ķà¸²à¸¡ à¸Ĥ
à¸Ļà¹ĥà¸Ļ à¸£à¸°à¸Ķ
à¹ĥà¸Ļà¸ŀ à¸£
à¸ªà¹ģà¸ķ à¸Ļà¸ķ
à¸¡ à¸²à¸ļ
Ġà¹ģà¸¥à¸° à¸Ļà¸³
à¸Ħà¸§à¸²à¸¡ à¸Īà¸³à¹Ģà¸Ľ
à¸Īà¸° à¸¥
à¸¥à¸° à¸Ń
à¹Ģà¸Ħà¸¢ à¸ĸ
ĠI t
à¸¥à¸¢ à¸²à¸ĵ
< /
à¸ĩ à¹Ģà¸Ħà¸¢à¹Ģà¸Ľ
à¹ģà¸¥ à¸Ĥà¸Ńà¸ĩ
à¸Ĺà¸²à¸ĩ à¹Ģà¸¥
à¸Ļà¹ģ à¸ļà¸£
he d
à¸Ńà¸ĩà¸Īà¸²à¸ģ à¹Ħà¸¡
Ġà¹ĥà¸Ļà¸Ĭ à¸²à¸£
Ġ à¸Ľà¸£à¸°à¸Ĭà¸²à¸Ĭ
à¸¢ à¸ŀà¸£à¸°à¹Ģà¸Ī
à¸° à¸Ī
à¸Ńà¸ĩ à¹Ħà¸§
à¸£à¸° à¹Ģà¸Ĥ
Ġà¹Ĥà¸Ķà¸¢ à¸Ľà¸ģà¸ķ
à¸ĩà¸ģ à¸³à¸«à¸Ļà¸Ķ
à¸ĩà¸Ĥà¸Ńà¸ĩ à¸Ń
à¸Ļà¸Ŀ à¸£
à¸Īà¸²à¸ģ à¸ļ
à¹Ģà¸Ļ à¸ģ
à¹ĥà¸Ī à¸Ĺ
à¸²à¸Ĥà¸Ńà¸ĩ à¸£
à¸łà¸²à¸© à¸²à¸ģà¸£
à¸Īà¸²à¸ģà¸ģà¸²à¸£ à¹ģà¸Ĥ
à¸£à¸Ńà¸ĩ à¸Ĭà¸Ļà¸°à¹Ģà¸¥
ĠChampions hip
à¸Ńà¸ĩ à¹Ģà¸Ń
à¸Ĥà¸Ńà¸ĩ à¹Ģà¸«à¸¥
à¸Ńà¸Ļ à¹Ģà¸ŀ
à¸§à¸¢ à¸Ħà¸§à¸²à¸¡à¸£
à¸ľà¸¥ à¸¥
Ġà¹ĥà¸Ļ à¹Ģà¸Ħà¸£
à¸ļà¸Ńà¸¥ à¸«à¸į
ic ation
Ġà¹ĥà¸Ļà¸ļ à¸£
à¹ģà¸ļà¸£ à¸Ļà¸Ķ
à¸ģà¸©à¸²à¸Ħà¸§à¸²à¸¡ à¸Ľà¸¥à¸Ńà¸Ķà¸ł
à¸Ńà¸ģ à¸ľ
à¸Ľà¸£à¸°à¸ģà¸²à¸¨ à¹ĥà¸Ĭ
Ġà¸Ĺà¸²à¸ĩ à¸ķà¸°à¸§
à¸Ļà¸łà¸²à¸© à¸²à¹Ħà¸Ĺà¸¢
à¸Ń à¸ªà¸¡à¹Ģà¸Ķ
à¸« à¸ģà¸£à¸ĵ
à¸¸ "
à¸¨ à¸Ļà¸²
à¸Ńà¸¡ à¸²à¸Ń
à¸¥à¸Ľ à¸ģà¸£à¸£à¸¡
à¸¢à¸Ĥ à¸Ńà¸Ļà¹ģà¸ģ
à¸ª à¸Ī
à¸ª à¸Ńà¸¢
à¸ķ à¸¥à¸ģ
à¸ģà¸²à¸£ à¸Ĺà¸³à¸ĩà¸²à¸Ļ
à¸Ńà¸ļ à¹ĥà¸«
à¹Ģà¸ŀà¸¥à¸ĩ à¸Ķ
à¸ĩà¸¢ à¸Ńà¸Ķà¹Ģà¸¢
Ġà¸Ľà¸£à¸°à¹Ģà¸Ĺà¸¨ à¸ªà¸«à¸£
à¸¨à¸²à¸ªà¸Ļ à¸²à¸ŀ
à¸Ľà¸£à¸°à¹Ģà¸łà¸Ĺ à¸Ļ
à¸¢à¸Ļà¸Ļ à¸²à¸¢à¸£
w ay
à¸Ń à¸Ńà¸ª
à¸ĩ à¹ģà¸ª
à¸ļ à¹ĥà¸Ļ
à¸ģà¸²à¸£ à¸Ł
à¸ŀà¸£à¸° à¸Ħ
à¸Ļà¸Ļ à¸²
à¸ĩà¸ŀ à¸²à¸ĵ
à¸§à¹Ĥà¸¥à¸ģ à¹ĥà¸ķ
Ġà¸¡à¸²à¸ģ à¸¡à¸²à¸¢
à¸Ń à¹Ģà¸ĺà¸Ń
à¸ļ à¹Ģà¸ĺà¸Ń
à¸Ĥà¸Ńà¸ĩ à¸£à¸²à¸Ĭà¸§à¸ĩà¸¨
Ġà¸ª à¸²à¹Ģà¸«à¸ķ
à¸¢à¸ĩ à¸¢
à¸Ĺà¸²à¸ĩ à¸Ļ
ĠG r
ĠK ing
f l
à¸¡ à¹Ģà¸Ħà¸£
à¸ļ à¸Ħà¸¥
à¸Ļà¸ģà¸²à¸£ à¸Ĭ
à¸²à¸ļà¸£à¸¡ à¸£à¸²à¸Ĭ
à¸ĩà¹Ĥà¸ķ à¹Ģà¸ģ
à¹ĥà¸Ļà¸Ŀ à¸£
à¸§ à¸Ĥà¸²à¸§
à¸²à¸§ à¸Ī
à¸ķà¸£ à¸ļ
à¸ģà¸© à¸²à¸Ľà¸£à¸°à¸ķ
à¸Ĺà¸³ à¸Ļà¸²à¸¢
à¸ĩà¸ª à¸«à¸Ľà¸£à¸°à¸Ĭà¸²à¸Ĭà¸²à¸ķ
à¸¤ à¸Ĺ
Ġà¹Ĥ à¸£à¸¡
à¸Ńà¸Ĥà¸Ńà¸ĩ à¸Ī
à¹Ħà¸Ĥ à¸ª
ĠR ec
à¹Ģà¸ªà¸¡ à¸Ńà¸ģ
à¸ĩ à¸¤à¸Ķ
à¸Ķ à¹ĥà¸Ļà¸ª
à¸§à¸Ļ à¸£à¸²à¸Ĭà¸ģà¸²à¸£
à¸Ńà¸« à¸²à¸Ĺ
à¸£à¸°à¸ļà¸Ńà¸ļ à¸Ľà¸£à¸°à¸Ĭà¸²à¸ĺ
Ġ à¸Ħà¸§à¸ļà¸Ħ
à¸Ń à¹Ģà¸Ńà¸ģ
Ġà¹ģà¸¥à¸° à¸Īà¸°
en n
à¸Ńà¸³à¹Ģà¸ł à¸Ńà¸ª
à¸ªà¸²à¸¡ à¸ģ
à¸Ńà¸ĩ à¸Ľà¸£à¸°à¸Ķ
à¸ŀ à¸²à¸Ļ
à¸ģà¸©à¸² à¹ĥà¸Ļà¸£à¸°à¸Ķ
à¸Ļà¹Ĥ à¸Ī
à¸Ļà¸²à¸¢ à¸ŀà¸¥
à¸Ľà¸£à¸°à¸ģà¸²à¸¨ à¸Ĥ
Ġà¸Ļà¸²à¸¢ à¸ª
q ue
à¹Ģà¸§ à¸£
à¹Ĥà¸¡ à¹Ĥà¸ķà¸°
à¸²à¸ĩà¸ª à¸ĩà¸Ħà¸£à¸²à¸¡
à¸Ĳà¸ļà¸²à¸¥ à¸Ń
ul l
Ġ ;
à¸ķ à¹ĥà¸Ļ
à¸Ĭ à¸²à¸ª
à¹Ĥà¸Ķà¸¢ à¸¡à¸²à¸ģ
à¹Ģà¸Ń à¸ĭ
à¹Ĥà¸Ľà¸£ à¹ģà¸ģà¸£
Ġt eam
re d
0 5
à¸Ļ à¹ĥà¸Ļà¸ķà¸³à¹ģà¸«à¸Ļ
à¸²à¸ģ à¸Ńà¸Ļ
à¸Ńà¸¡ à¸²à¸ģà¸ģà¸§
Ġà¹Ģà¸ª à¸¡à¸Ń
à¸²à¸Ľà¸£ à¸²à¸ģà¸ı
à¸Ļ à¹ĥà¸ļ
à¸Ł à¸ª
à¸Ļà¸Ĥà¸Ńà¸ĩ à¸ľ
à¸²à¸£à¸²à¸Ĭ à¸ģà¸²à¸£à¸Ī
Ġà¸£à¸Ńà¸ļ à¸Ħ
à¸ļ à¸Ħà¸£à¸Ńà¸ļà¸Ħà¸£
à¸Ĭ à¸¨à¸²à¸ªà¸ķà¸£
Ġà¸£ à¸Ńà¸¢
à¸łà¸²à¸ŀ à¸£
à¸Ħà¸Ļ à¹ģà¸£à¸ģà¸Ĥà¸Ńà¸ĩ
à¸łà¸²à¸¢ à¹ĥà¸Ļà¸Ľà¸£à¸°à¹Ģà¸Ĺà¸¨
ĠC oun
à¸ļà¸²à¸ĩ à¸Ĺ
Ġ198 2
Ġ194 1
à¸²à¸Ļà¸¢ à¸Ļà¸ķ
à¸Ļ à¹ĥà¸Ļà¸Ħà¸£
à¸ĩ à¹Ģà¸«à¸Ļ
à¸²à¸ĩ à¹Ħà¸Ľ
le y
à¸¢à¸Ńà¸¡ à¹ĥà¸«
à¸Ń à¹ģà¸ľ
à¸ļ à¸²à¸ª
à¸ļ à¸¡à¸²à¸Īà¸²à¸ģ
à¸ĩà¹ģà¸£à¸ģ à¸Ĥà¸Ńà¸ĩ
Ġ249 4
à¹ĥà¸Ļà¸ģà¸²à¸£ à¸Ħ
à¸£à¸°à¸ļ à¸ļà¸£
Ġà¸Ľà¸£à¸°à¹Ģà¸Ĺà¸¨ à¸Ī
à¸Ĥà¸Ńà¸ĩà¸ª à¸²à¸ĺà¸²à¸£à¸ĵà¸£
Ġb y
à¹ĥà¸Ļà¸Ĳà¸²à¸Ļà¸° à¸Ļ
à¸Ļà¸ľà¸¥ à¹ĥà¸«
à¸ģà¸£à¸°à¹ģà¸ª à¹Ħà¸Łà¸Ł
9 1
à¸Ļ à¸Ńà¸¡
à¸ļ à¹ģà¸ļà¸ļ
à¸Ńà¸¡ à¸«à¸¥à¸§à¸ĩ
à¸ªà¸²à¸¡à¸²à¸£à¸ĸ à¹Ģà¸¥
à¹Ģà¸Ĺà¸ŀ à¸¨
E S
à¸Ĭ à¸Ń
à¹ģà¸¥à¸° à¸«à¸¥
à¹ĥà¸Ļà¸ģà¸²à¸£ à¹Ģà¸Ķ
à¸Ļà¸Ĥà¸Ńà¸ĩ à¸ķà¸Ļà¹Ģà¸Ńà¸ĩ
Ġ197 9
à¹Ģà¸ªà¸ĺ à¸Ĺ
Ġ193 9
Ġ à¸Ļà¸ŀ
à¸Ľ à¸§à¸Ķ
Ġà¸¡ à¸²à¹Ģà¸¥à¹Ģà¸ĭ
à¸Ļà¸ª à¸³à¹Ģà¸£
à¸ļà¸ģà¸²à¸£ à¸ģ
à¸²à¸Ĥà¸Ńà¸ĩ à¸ŀà¸£à¸°à¸Ńà¸ĩà¸Ħ
à¸²à¹ģ à¸Ł
à¸Ń à¸§à¸ĩ
à¸ģà¸²à¸£ à¸Ľà¸£à¸°à¸ģà¸§à¸Ķ
à¸²à¸Ļ à¹Ģà¸ŀ
à¸§à¸¢ à¸ŀà¸£à¸°
à¸Ħà¸§à¸²à¸¡ à¸«à¸§
à¸ģà¸Ń à¸®à¸Ńà¸¥
à¸Ńà¸³à¸Ļà¸§à¸¢ à¸Ħà¸§à¸²à¸¡à¸ªà¸°à¸Ķà¸§à¸ģ
à¸²à¸¡ à¸¡
à¹Ħà¸Ľ à¹ĥà¸Ĭ
à¸¢à¸§ à¹Ĥà¸ķ
à¸Ńà¸Ńà¸ģ à¸ª
à¸Ļà¸³ à¸«à¸Ļ
à¹Ħà¸¥ à¸ķ
à¸Īà¸Ļ à¸ģà¸§
à¸¡ à¹Ģà¸Ļ
à¸²à¸ĩ à¸Ķà¸²à¸§
à¸§à¸¢ à¸Ľà¸¥
os s
à¹ĥà¸Ļà¸¨ à¸ķà¸§à¸£à¸£à¸©à¸Ĺ
à¸ĩ à¹Ģà¸«à¸¡
à¸Ħ à¸ļ
à¸ģà¸© à¸²à¸Ī
or g
Ġà¸Ńà¸²à¸Ī à¸¡
Ġà¹Ģà¸Ł à¸£
à¸Ļà¸Ľà¸£à¸°à¸Īà¸³ à¸Ĺ
à¸ĩà¸ĩ à¸°
o ul
à¸² à¹Ģà¸«à¸£
à¸³ à¸ľ
Ġà¸Ļ à¸²à¸¬
à¸Ĺà¸ĺ à¸§
A M
à¸Ńà¸ĩ à¹ģà¸¥
à¸Ĥà¸Ńà¸ĩ à¸Ŀà¸£
Ġà¸ª à¸¥
ĠA p
à¹Ħà¸®à¹Ĥà¸Ķà¸£ à¹Ģà¸Ī
o on
à¸ļ à¹Ģà¸«à¸£
à¹ĥ à¸Ŀ
à¹Ĥ à¸Ńà¸ķ
à¸ģà¸¥ à¸Ńà¸ļ
à¸Ħà¸§à¸²à¸¡ à¹Ģà¸Īà¸£
Ġà¹Ģà¸ģ à¸²à¸«à¸¥
à¸²à¸Ł à¸Ĺ
âĢĭ âĢĭ
à¸Ĺà¸³ à¸ª
à¸Ļà¸¡ à¸²à¸Ń
à¸Ĺà¸£à¸ĩ à¸ĸ
à¹ģà¸Ľ à¸£à¸£
à¸ģà¸²à¸£ à¸Ńà¸¢
à¹Ģà¸Ļ à¸¥
à¸¢à¸ĩ à¹Ħà¸®
à¸¢à¸Ļ à¹Ģà¸ŀ
à¸Ńà¸§ à¸Ńà¸£
à¸Ļà¸Ĺà¸£ à¸²à¸ļà¸£à¸¡à¸£à¸²à¸Ĭ
à¸ļà¸£à¸¡à¸£à¸²à¸Ĭ à¸²à¸Ļ
à¸ļà¹Ĥà¸ķ à¸Ĥ
à¸²à¸Ħà¸§ à¸ļà¸Ħ
à¸¢ à¸Ļà¸ĭ
à¹Ħà¸Ľ à¸Ī
à¸ļà¸Ħà¸§à¸²à¸¡ à¸ªà¸Ļà¹ĥà¸Ī
à¹Ģà¸Ńà¸Ļ à¹Ģà¸Ń
Ġà¹ĥà¸Ļà¸ķ à¸³à¹ģà¸«à¸Ļ
à¸Ńà¸Ļà¸ªà¹ģà¸ķ à¸Ļà¸ķ
à¸ģà¸© à¸²à¸ŀà¸£à¸°
Ġà¸Ń à¸²à¸¥
à¸ļà¸Ħà¸§à¸²à¸¡ à¸Ĭ
à¹Ģà¸§à¸ĵ à¹ĥà¸ģà¸¥
à¸Ĺà¸³à¸ĩà¸²à¸Ļ à¹Ħà¸Ķ
à¹Ģà¸ĸ à¸£
à¸Ļà¸Ľà¸£à¸°à¹Ģà¸Ĺà¸¨ à¸Ĺ
à¹ģà¸Ńà¸Ļà¸Ķ à¸£
à¸²à¸ĩ à¸«à¸£
à¸ģà¸£ à¸ª
à¸¤ à¹ħ
à¸²à¹ģ à¸Ŀ
à¸įà¸« à¸²à¸ª
Ġà¹Ģà¸® à¸Ļà¸£
à¸ģ à¹ĥà¸Ļà¸§
à¸¥ à¹Ģà¸Ĭ
à¸§ à¹Ģà¸Ī
à¸Ńà¸Ļ à¹Ģà¸ķ
à¸Ĳ à¸ģ
ĠE d
à¸²à¸ĩà¸Ńà¸²à¸Ħà¸²à¸£ à¹Ģà¸£
C O
à¸ģ à¸Ľà¸£à¸°à¸ģà¸²à¸£
à¸§à¸¡ à¹Ģà¸Ĥ
à¹Ĥà¸£à¸ĩ à¹Ħà¸Łà¸Ł
à¹Ģà¸Ĥà¸² à¹Ģà¸£
à¸łà¸²à¸Ħ à¹Ģà¸Ńà¹Ģà¸Ĭ
à¸Ļà¸«à¸¥ à¸§à¸ĩ
à¸ªà¸Ļà¸²à¸¡ à¸ļ
Ġ194 4
A D
à¸Ī à¹Ħà¸Ķ
à¸Ĭ à¸Ļà¸Ĭ
à¸ģà¸²à¸£ à¸«
à¸³ à¸Ļà¸¡
Ġà¸ģ à¸Ńà¸ĩà¸ģà¸³à¸¥
à¸ģà¸£à¸° à¹Ģà¸ļ
à¸ĩà¸Ń à¸ĺ
à¸Ńà¸Ľ à¸Ľ
it s
à¸įà¸įà¸²à¸ĵ à¸Ĺ
à¸²à¸¢à¹Ħà¸Ľ à¸Ĺ
à¸ĩ à¸ĩà¸²à¸Ļà¸Ī
à¸ª à¸²à¸Ħà¸£
à¸²à¸¢ à¹Ģà¸Ķ
à¹ĥà¸Ļ à¹Ĥà¸Ńà¸¥
Ġà¸Ń à¸Ńà¸ģà¸Īà¸²à¸ģ
à¸ªà¸° à¸Ńà¸²à¸Ķ
à¸ķà¸Ńà¸Ļ à¸Ļ
à¸ľà¸ªà¸¡ à¸ģ
p s
à¸ļ à¸«à¸į
Ġà¹ģà¸¥à¸° à¸Ł
à¸Ļà¸ª à¸ķà¸£
à¸Ļà¸§ à¸²à¸¢
à¸® à¸Ńà¸¥à¸¥
à¸²à¸ł à¸²à¸ŀà¸¢à¸Ļà¸ķà¸£
à¸²à¸ĩà¹Ĩ à¸Ĺ
à¹ģà¸£ à¸ģà¸§
à¸£à¸²à¸ļ à¸¥
Ġà¹Ĥà¸Ħà¸£ à¸ĩà¸ªà¸£
4 00
à¸Ī à¸Ķà¸«à¸¡à¸²à¸¢
Ġà¸¡ à¸²à¸ª
à¹Ĥà¸£ à¸ª
à¹Ģà¸Ĺà¸¨à¸ļà¸²à¸¥ à¸Ļà¸Ħà¸£
Ġ å
à¸Ī à¹ĥà¸Ļà¸Ľ
à¸Ľà¸£à¸° à¸ĵ
à¸Ńà¸ģ à¸Ńà¸ĩà¸Ĺ
Ġà¹Ĥà¸Ķà¸¢ à¹ģà¸ķ
à¹ĥà¸Ļà¸ĺ à¸£à¸£à¸¡à¸Ĭà¸²à¸ķ
à¸Ľ à¹Ħà¸Ĥ
à¸ŀ à¸¤à¸«
à¸ģà¸²à¸£ à¹Ģà¸ĩ
à¸Ļà¸Ķ à¸³à¸£à¸ĩà¸ķà¸³à¹ģà¸«à¸Ļ
à¸ķà¸³ à¸£
à¹Ģà¸Ńà¸ģ à¸Ń
à¸ªà¸²à¸£ à¸Ĺ
Ġà¸Ľà¸£ à¸²à¸ªà¸²à¸Ĺ
à¸Ķ à¹ģà¸Ĥ
à¸ģà¸²à¸£ à¸¥à¸ĩ
à¸Ļà¸ķ à¸°
à¸ŀà¸£à¸° à¸ĺà¸²à¸ķ
à¸ĩà¸Ń à¸²à¸¨
à¸ĩà¸ģà¸¤à¸© à¸§
à¸²à¸«à¸¡à¸²à¸¢ à¸Ĺ
à¸Ĭà¹Ģà¸Ĭ à¸ªà¹ģà¸«
à¹ģ à¸Ńà¸Ħ
à¸į à¸Ļ
à¸¢à¸ĩ à¹Ģà¸ŀ
à¹Ģà¸ĭ à¸²à¸Ĺ
in es
à¸Ńà¸ĩà¸Īà¸²à¸ģ à¸ķ
at es
Ġà¸ŀà¸£à¸°à¸£à¸²à¸Ĭ à¸Ĺ
à¸Ķ à¹ĥà¸Ī
à¸ļ à¹Ĥà¸£à¸ĩà¹Ģà¸£
à¸ģà¸²à¸£ à¸ķà¸£à¸§à¸Ī
à¸Ļà¸Ńà¸Ńà¸ģ à¸ģà¸¥à¸²à¸ĩ
Ġà¸Ľà¸£à¸° à¸ģà¸²à¸£
à¸ģà¸Ńà¸ĩ à¹Ģà¸£
à¸Ľà¸£à¸²à¸£ à¸ĸà¸Ļ
à¸ģ à¸ĩ
à¸ĩ à¸Ĺà¸³à¸«à¸Ļ
à¸ĩ à¹ĥà¸Ļà¸Ĥà¸ĵà¸°à¸Ļ
à¸Ļà¸ Ĩ
à¸ķ à¸«
à¸²à¸Ļ à¸ģà¸²à¸£à¸¨
à¸§à¸¢ à¹Ģà¸ŀ
à¸ĩà¸Ńà¸Ńà¸ģ à¹Ħà¸Ķ
à¸Ķ à¹Ĥà¸Ńà¸ģà¸²à¸ªà¹ĥà¸«
à¸ļ à¸¡à¸Ļ
à¸«à¸Ļ à¸Ńà¸ĩ
à¸łà¸²à¸ŀ à¹Ģà¸Ĥ
à¹ģà¸Ł à¸£à¸ĩà¸ģ
à¸£à¸²à¸ļ à¸ª
à¸Ļ à¸¥à¸²à¸¢
à¸ĩ à¹ĥà¸Ļà¸Ķ
à¸Ĥà¸Ńà¸ĩ à¹Ģà¸Ķ
à¸Īà¸²à¸ģ à¸Ħ
à¸ĩà¸ª à¸ģ
à¸ľà¸¥ à¸Ķ
à¸ģà¸£à¸° à¹Ģà¸ŀà¸²à¸°
à¸Ĭà¸Ļ à¹Ģà¸ľ
à¸Ļà¸łà¸²à¸© à¸²à¸Ĺ
à¸Ļ à¹Ģà¸¥à¸¢
à¸²à¸Ľà¸£à¸° à¸ģà¸²à¸¨
ĠE ng
à¸²à¸Ļà¸ŀ à¸²à¸«à¸Ļà¸°
à¸²à¸ĩà¸Īà¸²à¸ģ à¸ķ
à¹Ĥà¸ª à¸ĺà¸£
à¸ģà¹Ģà¸ĭ à¸¡à¹Ģà¸ļ
à¸Ķ à¸²à¸Ķ
à¸Ħ à¸²à¸Ĺà¸Ńà¸¥
à¸²à¸ģ à¸Ļ
à¸ĵ à¸Ĺ
à¹Ģà¸ķ à¸ªà¹ģà¸ķà¸Ļà¸ķ
à¸Ļà¸« à¸§
à¸Ļà¸Ľ à¸¥à¸²
Ġà¹Ģà¸Ĥ à¸²à¹Ģà¸£
à¸§à¸²à¸ĩ à¹Ħà¸Ĥ
à¸Ļà¸łà¸²à¸ŀ à¸Ĺ
Ġà¹Ģà¸ī à¸¥
Ġ ...
à¹ģà¸¥à¸° à¹Ģà¸ģ
à¸Ĥà¸Ńà¸ĩ à¸Ķà¸²à¸§
Ġà¸ŀ à¸¢
Ġà¹Ģà¸£ à¸¢
à¸Ļà¹Ħà¸Ľ à¸Ķ
Ġ8 00
à¸ªà¸ĸà¸²à¸Ľ à¸Ļà¸²
c le
à¸ĩ à¸ĩà¸²à¸Ļà¸Ĥà¸Ńà¸ĩ
à¸ķ à¸¨
Ġà¸ŀà¸£à¸° à¸¡à¸«à¸²à¸ģà¸©
à¹Ĥà¸ķ à¹Ģà¸ķ
à¸Ĵà¸Ļ à¸²à¸ķ
eg in
à¸Ķà¸³à¸£à¸ĩ à¸Ĭ
à¸ĭ à¸Ńà¸Ļ
à¸ł à¸£à¸£à¸¢
à¹Ģà¸Ĺà¸¨ à¸¡à¸Ļà¸ķà¸£
à¸¡à¸² à¹Ģà¸¢
à¸Ļà¸ģà¸²à¸£ à¸Ħ
Ġ5 7
à¸Ľà¸ģà¸Ħà¸£à¸Ńà¸ĩ à¸ķà¸Ļà¹Ģà¸Ńà¸ĩ
à¸Ńà¸Ħà¸§à¸²à¸¡ à¸Ĭ
à¸ĩ à¸Ħà¸§
à¸¥ à¹ģà¸ģà¸£à¸¡à¸¡
à¸Ķ à¹ģà¸¡
à¸ª à¸Ńà¸ĩà¸Ĺ
à¸¨ à¸Ļà¸Ħà¸ķ
Ġà¹ģà¸¥à¸° à¸ľà¸¥
à¸Ńà¸Ļ à¹ģà¸£à¸ģ
à¸ĩà¸ģ à¸³à¹Ģà¸Ļ
ĠB est
à¹Ĥà¸Ħ à¸¡
à¸ĩà¹ģà¸® à¸¡
à¸ŀ à¸Ńà¸Ĺ
à¸ģà¸²à¸£ à¹Ģà¸ģà¸©à¸ķà¸£
à¸³ à¸Ńà¸¢
à¹ģà¸¥à¸° à¸ªà¸£
à¸ĸ à¸¢à¸Ļà¸ķ
Ġà¸ģ à¸Ńà¸£
à¸£à¸²à¸Ĭ à¸į
à¹ģà¸ª à¸ĩà¸Ĺ
à¹ĥà¸Ļà¸ģà¸²à¸£ à¸ĸ
à¸Ĺà¸³à¸ĩà¸²à¸Ļ à¸Ńà¸¢
à¸Ńà¸²à¸ª à¸Ļà¸§
à¸Ń à¸Ľà¸£à¸°à¹Ĥà¸¢à¸Ĭà¸Ļ
à¸ļ à¸Ńà¸²à¸ģà¸²à¸¨
à¹Ħ à¸Ļà¸ķ
à¸Ńà¸¢ à¸Ĥ
à¸Ńà¸¢ à¹ģà¸¥
Ġà¹Ĥà¸Ķà¸¢ à¹Ģà¸¡
Ġà¸Ĥà¸Ńà¸ĩ à¸ľ
B est
à¸¢ à¹ĥà¸ķ
à¸²à¸¡ à¸²à¸ģà¸ģà¸§
à¹Ģà¸Ħ à¹Ģà¸ļ
ĠO p
Ġd is
à¸Ľà¸£à¸°à¹Ģà¸łà¸Ĺ à¸Ĺ
A S
à¸¢ à¹Ĥ
à¸ķ à¹ģà¸ŀà¸Ĺà¸¢
à¹Ģà¸Ĺ à¸²
ĠEnter tain
a f
à¸ĩ à¹Ĥà¸Ľà¸£à¸ķ
Ġà¸ŀ à¸¡
à¸ªà¸³ à¸£à¸Ńà¸ĩ
à¸¢à¸¡ à¸ľ
à¸ģà¸£à¸£à¸¡ à¸§
à¸Ļà¸Ĥ à¸Ļà¸²à¸Ķà¹ĥà¸«à¸į
Ġ198 3
à¹ĥà¸Ļà¸Ĳà¸²à¸Ļà¸° à¸Ĺ
Ġà¸łà¸²à¸Ħ à¸§
à¸Ń à¸²à¸¡
à¸¡ à¸ģà¸³à¸¥
à¸Ķ à¸Ħà¸§à¸²à¸¡à¸ª
à¸²à¸¡ à¸²à¸Ĭ
ĠR es
à¸ģà¸Īà¸° à¹ĥà¸Ĭ
à¸Ķ à¸Ħà¸§à¸²à¸¡à¸£
à¸²à¸Ļ à¸ģà¸¥
à¹Ħà¸Ľ à¸Ń
Ġà¸ķ à¸°à¸§
à¸ĩà¸Ń à¸²à¸£
Ġ9 5
il m
Ġà¹ĥà¸Ļà¸Ħ à¸§à¸²à¸¡
à¸Ļà¸ķ à¸³à¸£à¸§à¸Ī
à¸Īà¸²à¸ģ à¹Ģà¸¡
à¹Ģà¸Ĺ à¸§à¸Ķ
Ġà¸¡ à¸²à¹Ģà¸£
à¸Ľà¸£ à¸²à¸¢
à¸Ľà¸£à¸°à¹Ģà¸Ĺà¸¨ à¸ķ
à¸Ńà¸²à¸£ à¸¢à¸ĺà¸£à¸£à¸¡
à¸Ńà¸ĩà¸£à¸²à¸§ à¹Ģà¸ģ
ear ch
à¸¢ à¸Ķà¸Ĥà¸Ńà¸ĩ
à¹Ħ à¸£à¸ģ
à¸ŀ à¹Ģà¸Ľ
à¸²à¸ĩ à¹ģà¸¡
à¹ĥà¸Ļà¸ª à¸łà¸²à¸ŀ
à¹ģà¸¢à¸ģ à¸ģ
à¸ģà¸Ńà¸ĩ à¸ŀà¸¥
Ġà¸Īà¸Ńà¸¡ à¸ŀà¸¥
à¸¡ à¸¡à¸²
à¸ŀ à¹Ģà¸Ĥ
à¸Ĺà¸³ à¸Ķ
Ġà¹ģ à¸Ľà¸¥
à¹Ĥà¸¥ à¸Ļ
à¸ģà¸²à¸£à¸ª à¸Ńà¸ļ
à¸¢à¸Ļà¸ª à¸²à¸ĺ
Ġ198 1
6 00
à¸Ń à¹Ĥà¸Ħà¸£
à¸ļ à¸ĩ
à¸²à¸ĩ à¹ĥà¸ģà¸¥
à¸ļà¸ģà¸²à¸£ à¸Ķ
à¸ļà¸ģà¸²à¸£ à¸Ńà¸Ļ
Ġ5 3
à¸Ĭà¸²à¸§ à¹Ģà¸¡
à¸£à¸²à¸¢ à¸ģà¸²à¸£à¸Ĺ
à¸Ĭà¸²à¸¢ à¸²
à¸Ńà¸²à¸Ī à¸Ĺà¸³à¹ĥà¸«
à¸Ńà¸Ĥà¸Ńà¸ĩ à¸Ń
à¸ĩà¸Īà¸° à¸ĸ
Ġ248 2
à¸Ńà¸ĩà¸£à¸²à¸§ à¸Ĺ
o h
à¸Ńà¸ĩ à¹Ģà¸ľà¸Ĭ
à¸Ĥà¸Ńà¸ĩ à¸Ĭà¸²à¸ķ
Ġà¹ģà¸¥à¸° à¸ķà¸³à¸ļà¸¥
Ġà¹Ĥà¸Ķà¸¢ à¸Ńà¸²à¸¨
à¸Ļà¸ģà¸²à¸£ à¹Ģà¸¥
Ġà¹Ģà¸Ĥ à¸²à¸ķ
à¸łà¸²à¸© à¸²à¸¡
à¸Ļà¹ĥà¸Ļ à¸Ļà¸²à¸¡
à¸ĩà¹ģà¸¥à¸° à¸¡
à¸£à¸ª à¸Ĭà¸²à¸ķ
à¸ļ à¸²
à¸²à¸ĩ à¹Ģà¸«
à¸Ńà¸¢ à¸Ħ
à¸Ļà¸²à¸¢ à¸ª
à¸¢à¸² à¹Ģà¸ªà¸ŀà¸ķ
à¸Ļà¸ĺà¸£à¸£à¸¡ à¸Ĭà¸²à¸ķ
à¸Ķà¸Ľ à¸Ĺ
à¸ĩà¹Ħà¸Ľ à¸Ĺ
à¸Ľà¸ģ à¸Ħà¸¥
à¸Ńà¸ĩ à¹ģà¸ģ
à¸ĭ à¸Ńà¸£
à¹Ĩ à¸ģ
à¹Ħà¸Ĺà¸¢ à¹Ħà¸Ķ
Ġà¸¥ à¸²à¸§
à¹Ħà¸Ł à¸£
ĠE l
à¹Ģà¸ªà¸ģà¸ªà¸¡ à¸£à¸ª
m y
w ork
à¸ĩ à¹ĥà¸Ļà¸Ħ
à¸Ĭ à¸ŀ
à¸²à¸¢ à¹Ģà¸ª
à¸ļà¸ģà¸²à¸£ à¸Ńà¸Ńà¸ģà¹ģà¸ļà¸ļ
I C
Ø §
à¸Ń à¸Ħà¸§à¸²à¸¡à¸£
à¸Ħ à¹ĥà¸«à¸¡
à¸Ńà¸Ļ à¸ģà¸³à¸¥
Ġà¸Ĺ à¸²à¸ĩà¸Ĺ
Ġà¸ĭ à¸²à¸ģ
à¸¢à¸§ à¸ŀ
à¹Ģà¸ļ à¸¥à¸¥
Ġà¸ĸ à¸§à¸²à¸¢
ĠT V
à¸²à¸Ĭà¸²à¸¢ à¸Ń
E E
p ro
à¸¥ à¸Ńà¸ļ
à¸¢à¸§ à¸Ń
à¹Ģà¸Ĺà¸¨ à¸¨à¸²à¸ªà¸ķà¸£
à¸Īà¸³ à¸Ļ
à¸Ļà¸Ĥà¸Ńà¸ĩ à¸ª
à¹ģà¸Ľ à¸Ķ
à¸§à¸¢à¸ģà¸²à¸£ à¹Ģà¸Ľ
à¸²à¸Ľà¸£ à¸²à¸ªà¸²à¸Ĺ
i ence
à¸²à¸ģ à¹Ģà¸Ľ
à¹Ĥà¸Ķà¸¢ à¸¢
à¸ģà¸£à¸° à¹Ģà¸Ľ
à¸Ľà¸£à¸°à¸ª à¸ļà¸Ľ
ic s
Ġà¸¡à¸²à¸ķà¸£ à¸²
! !
0 1
à¸ļ à¸Ĺà¸£
à¸²à¸¢ à¹Ģà¸ŀ
à¹Ģà¸¡ à¸Ĩ
à¸²à¸Ķ à¸Ĺ
à¸Ļà¹ģ à¸Ļ
y le
à¸° à¸ģà¸Ķ
à¸²à¸ĭ à¸²
Ġà¸ĺ à¸Ļà¸²à¸Ħà¸²à¸£
à¹ģà¸Ħ à¸£à¸°
à¸Ī à¸Ķà¸Ĺà¸°à¹Ģà¸ļ
à¸Ńà¸ĩ à¹Ģà¸§
à¸²à¸Ļ à¹ĥà¸Ļ
à¸Ļà¸¡ à¸²à¹Ħà¸Ķ
à¸Ļà¸Ī à¸Ļà¸ĸ
an y
Ġà¸ģà¸²à¸£ à¸ĸ
Ġà¹Ħ à¸ķ
à¹Ģà¸Ńà¸¥ à¸Ł
à¸Ļà¹Ĥà¸£ à¸Ķà¸¡
à¸²à¸ķ à¸²à¸¥
on y
Ġ5 8
à¸ĩà¹ģ à¸Ľà¸¥à¸§
Ġà¹Ģà¸ļ à¸£
à¸ģ à¸ĺà¸£à¸£à¸¡
à¸ķ à¹Ħà¸Ľ
à¸£à¸²à¸Ĭ à¸²à¸Ļ
à¸²à¸Ĥà¸Ńà¸ĩ à¸Ń
à¸¢à¸ļ à¹Ħà¸Ķ
Ġà¹Ģà¸Ń à¸¥
à¸Ļà¸¨ à¸²à¸ªà¸Ļ
à¹ģà¸Ľà¸¥à¸ĩ à¸£
à¸§ à¸Ľà¸£à¸°à¸ģ
à¸Ķ à¸Ļà¸Ħà¸£à¸¨à¸£
à¸Ľ à¸ģà¸²à¸£
à¹Ĥ à¸Ļà¸£
à¸Ĳ à¸²à¸Ļà¸Ĥ
à¸Ńà¸Ķ à¸²à¸§
à¸Ńà¸ĩà¸Ħ à¸Ļ
Ġà¹Ĥ à¸ŀ
à¸Ļà¸Ĺà¸²à¸ĩ à¸«à¸¥à¸§à¸ĩ
à¹Ĥà¸Ń à¹Ģà¸§à¸Ńà¸£
à¸Ńà¸ĩà¸ª à¸²à¸¡
à¹Ģà¸īà¸ŀà¸²à¸° à¸ģ
à¸Ĥà¸Ńà¸ĩà¸ª à¹Ĥà¸¡à¸ªà¸£
à¹Ĥà¸¥à¸§ à¸²à¹Ģà¸ģ
à¸ĩ à¹ĥà¸Ļà¸ŀ
à¸ļ à¸²à¸ĩà¸ģà¸Ńà¸ģ
à¹ģ à¸ļà¸Ĺ
à¸ł à¸£à¸£à¸¢à¸²
à¸¢à¸ĩ à¹Ģà¸Ķ
à¸«à¸¡ à¸§à¸ģ
à¸¢à¸§ à¸ª
à¹Ģà¸Ħà¸£ à¸Ļ
à¸Ļà¸Ĥà¸Ńà¸ĩ à¸Ļ
à¸Īà¸ŀà¸£à¸° à¸¡à¸«
à¸ŀà¸§à¸ģ à¹Ģà¸Ĥà¸²à¹Ħà¸Ķ
à¸£à¸²à¸¢à¸ģà¸²à¸£ à¹Ĥà¸Ĺà¸£à¸Ĺ
à¸¢à¸į à¹Ģà¸ĩ
à¹Ģ à¸Ļà¸§
à¸Ī à¹ģà¸¥à¸°
à¸³ à¸«
Ġà¸Ń à¸²à¸ģ
à¸²à¸« à¸¢
Ġà¸Īà¸° à¹Ģà¸£
à¸©à¸¢ à¸¨à¸²à¸ªà¸ķà¸£
Ġà¹ģà¸Ļà¸§ à¸Ħ
à¸£ à¸²à¸ĩ
à¸²à¸ĩ à¸¥à¸ĩ
à¸Ķà¸ŀà¸£à¸° à¸Ļà¸Ħà¸£à¸¨à¸£
à¸ĩ à¸Ľà¸£à¸°à¸Ķ
à¸Ķ à¸²à¸¡
à¹ģ à¸Ńà¸Ķ
Ġà¸Ħ à¸¥à¸Ńà¸ĩ
à¸Ķ à¹ĥà¸Ļà¸ģà¸²à¸£
à¸¨ à¸Ĺ
à¸Ńà¸£ à¸Ńà¸ĩà¸£
Ġ9 9
Ġr ec
à¸Ħ à¸Ļà¸Ķ
à¸ĺ à¸¡
à¸ªà¸¡ à¸£à¸£à¸ĸ
à¸Ļà¹ĥà¸Ļ à¹Ģà¸¡
à¸ļà¸Ńà¸ģ à¸ĭ
à¸ĩ à¸ķà¸£à¸ĩà¸ģ
à¸Ķ à¸²à¸ŀà¸£à¸°à¸Ńà¸ĩà¸Ħ
à¹Ĥ à¸ĩ
à¸Ļà¸ª à¸³à¸Ļ
à¹Ħà¸§ à¸ķ
à¸§à¸¢à¸Ħà¸§à¸²à¸¡ à¸Īà¸³
à¸¢à¸²à¸ģ à¸¥à¸³à¸ļà¸²à¸ģ
à¸Ńà¸³à¸Ļà¸§à¸¢à¸ģà¸²à¸£ à¹Ĥà¸£à¸ĩà¹Ģà¸£
à¸ģà¸Ĳ à¸²à¸Ļà¸Ĺà¸²à¸ĩ
à¹Ģà¸ŀà¸²à¸° à¸Ľà¸¥
Ġ à¸Ĩ
à¸¥ à¸ľ
à¸§ à¹Ģà¸«à¸¥
à¸ļ à¸³à¹Ģà¸ŀ
à¸Ńà¸Ļ à¹Ģà¸Ĺ
à¸ŀà¸£à¸° à¹Ģà¸Ļà¸ķà¸£
Ġà¹Ģà¸Ķ à¸¥
le ge
ĠW h
à¸Ħà¸£à¸Ńà¸ĩ à¹ģà¸Ĭà¸¡à¸Ľ
à¸ĩà¸²à¸¡ à¸Ī
à¹Ģà¸ľà¸¢ à¹ģà¸ľ
à¸Ļ à¹Ģà¸§à¸Ĺ
à¸¥ à¹Ģà¸Łà¸£
à¸ª à¹Ģà¸ļ
Ġà¸Ħ à¸²à¸Ķà¸§
à¸ŀà¸ļ à¹ĥà¸Ļ
à¹Ĥà¸Ń à¹Ģà¸ŀ
à¸²à¸Ļà¸« à¸¥à¸²à¸¢
à¹Ģà¸Ńà¸ª à¹Ģà¸Ń
Ġà¹Ģ à¸Ńà¸¡
à¸²à¸ªà¹Ģà¸ģ à¸ķà¸ļà¸Ńà¸¥
b l
à¹ Ĵ
à¸Ń à¹ĥà¸Ļà¸Ľ
à¸Ń à¸Ħà¸§à¸²à¸¡à¸ª
à¸Ń à¸²à¹Ģà¸ĭ
à¸§ à¸Ļà¸¢
à¸§ à¸ļà¸Ħ
à¸ª à¹Ħà¸ķà¸¥
à¸Ľ à¸Ńà¸Ķ
à¸²à¸ģ à¸Ńà¸ĩà¸Ĺ
à¹ģà¸¥à¸° à¸Ħà¸£
à¹ģà¸¥à¸° à¹Ģà¸¥
à¹ģà¸¥à¸° à¸ģà¸²à¸£à¸ª
Ġ5 4
à¸¥à¸Ķ à¸²
em ent
à¸£à¸ļ à¸ģà¸§
à¹Ĥà¸«à¸¥ à¸Ķ
O R
à¸²à¸ ¤
à¸Ń à¸¥à¸ĩ
à¸²à¸¢ à¸Ħà¸£
à¸Īà¸²à¸ģ à¸ŀ
à¸Ĵà¸Ļ à¸²à¸§
à¸ĩà¸ļ à¸§à¸ģ
à¹ĥà¸Ļà¸ļ à¸²à¸ĩà¸Ħà¸£
à¸ģà¸Ĳ à¸²à¸Ļà¸§
iz ation
à¸¡ à¸¤à¸Ĺà¸ĺ
à¹Ħà¸¡ à¸ķà¸£
à¹Ģà¸Ī à¸ķà¸Ļ
er o
à¸²à¸ł à¸²à¸Ħ
re f
Ġà¹ĥà¸Ļà¸Ĺ à¸²à¸ĩ
à¸¥ à¸ĺà¸£à¸£à¸¡
à¸ģà¸²à¸£ à¸ģà¸£à¸°à¸Ĺà¸³
à¸Ńà¸¢ à¸¢
à¸ł à¸²à¸£
à¸ķà¸£ à¸ĺ
à¸ŀà¸£à¸° à¸ĺ
à¸²à¸Ĺ à¸Ńà¸ĩ
à¸¡à¸Ń à¸Ļà¸Ķ
à¸²à¸Ļà¸ł à¸²à¸ŀà¸¢à¸Ļà¸ķà¸£
à¸ĩ à¹ĥà¸Ļà¸Ľà¸£à¸°à¹Ģà¸Ĺà¸¨
à¸Ķ à¸²à¸Ĭ
à¸Ķ à¸²à¸ª
à¹Ħ à¸ĸ
à¹Ģà¸Ħ à¸²à¸Ļ
à¸ĩà¸ª à¸Ļà¸²à¸¡
à¸§à¹Ħà¸Ľ à¸§
à¸ĩà¸ŀà¸£à¸° à¸¨à¸ŀ
Ġà¸£ à¸²à¸§
à¸Ķà¸ª à¸ĩà¸Ĥà¸¥à¸²
à¸£à¸°à¸ļà¸ļ à¸Ļ
is ion
à¸Ńà¸Ĥ à¸¢à¸²à¸¢
à¸Ńà¸ļ à¹Ģà¸Ĥà¸ķ
à¸łà¸²à¸ŀ à¸Ļ
à¸Ļà¸£ à¸§à¸¡
à¸¢à¸° à¸Ĭ
he l
ĠW ar
à¸§à¸¢à¸Ħà¸§à¸²à¸¡ à¹Ģà¸£
à¸£à¸£à¸ĵ à¸²à¸ĺ
à¹Ĳ à¹Ĳ
à¹ģà¸Ńà¸Ľ à¹Ģà¸Ľ
à¸ĩ à¹Ģà¸ĺà¸Ń
à¸Ķ à¸£à¸²à¸Ĭà¸ļ
à¸Ńà¸¡ à¸Ń
à¸¢à¸Ļ à¹Ħà¸§
à¸«à¸¥à¸²à¸¢ à¸ķ
à¸ĩà¸«à¸¡à¸Ķ à¸Ļ
Ġà¹ ķ
à¸²à¸ªà¸¡ à¹Ģà¸Ķ
à¹Ĥà¸ŀ à¸ªà¸ķ
à¸Ļ à¹ĥà¸Ļà¸ķ
à¸¡ à¹ģà¸ķ
à¸Ķ à¸Ńà¸£
à¸Ľ à¸Ĭ
à¸²à¸¢ à¹Ģà¸ĩ
à¸Ĥà¸Ńà¸ĩ à¸«à¸¡
à¸Ħà¸§ à¸Ńà¸Ļà¸ķ
à¸ķà¸£ à¸Ĭ
à¸Ļà¸§ à¸ĩà¸ģà¸¥
à¸Ĺà¸³ à¸Ĥ
à¸Ńà¸¥ à¸ķ
à¸ļà¸²à¸ĩ à¸Ħà¸Ļ
à¸įà¸« à¸²à¸Ķ
à¸Ĥà¸Ńà¸ĩà¸ª à¸ĩà¸Ħà¸£à¸²à¸¡
à¸ĩà¸²à¸Ļà¸Ľ à¸£à¸°à¸ģà¸²à¸¨
à¸ļà¸Ľà¸£à¸° à¸ĸà¸¡à¸¨
à¹Ħ à¸§à¸Ļ
à¸ŀ à¸ģ
Ġà¸Ń à¸³à¸Ļà¸²à¸Ī
Ġà¸ģ à¸İ
Ġà¹Ĥà¸Ķà¸¢ à¸Ļà¸³
Ġà¸ģà¸²à¸£ à¸Ľà¸ı
à¸ªà¸ķ à¸²
à¸Ĺà¸£à¸ĩ à¸ŀà¸£à¸°à¸ģà¸£
à¹ģà¸Ļà¸§ à¸Ħà¸§à¸²à¸¡à¸Ħ
à¸ģà¸£à¸£à¸¡à¸ģà¸²à¸£ à¸ļà¸£
à¸¢à¸Ļà¸ª à¸ķà¸£
à¸§ à¸ģà¸¥à¸²à¸ĩ
à¸Ħ à¸°
à¹Ĥ à¸£à¸ģ
à¸²à¸Ļ à¹Ģà¸¥
à¸²à¸§ à¹Ħà¸Ĺà¸¢
à¸Ļà¸Ħ à¸§à¸£
à¸¢à¸§ à¸ĭ
à¸Ĭà¸²à¸§ à¸ŀ
à¸Ľà¸£à¸°à¸Ĭ à¸²à¸ģà¸£à¸¡
à¸ĩà¸Ĥà¸Ńà¸ĩ à¸ķ
à¸¡à¸Ńà¸ĩ à¹Ĥà¸ģà¸¥
Ġà¹ĥà¸Ļà¸łà¸²à¸© à¸²à¸Ń
à¹Ĥà¸Ľà¹Ģà¸ģà¸¡ à¸Ńà¸Ļ
P ro
à¸ķ à¸ģà¸ģ
à¹Ģà¸Ĥ à¸²à¸Ļ
à¸Ńà¸¡à¸² à¹ĥà¸Ļà¹Ģà¸Ķ
à¹ģà¸ļ à¸ķà¹Ģà¸ķà¸Ńà¸£
à¸²à¹ģ à¸£à¸ĩ
à¹ĥà¸Ļà¸ŀà¸£à¸° à¸£à¸²à¸Ĭà¸§
att le
C W
à¸ļ à¹Ĥà¸£à¸Ħ
à¸Ńà¸£ à¸«
à¸Ńà¸Ļ à¹ģ
à¸§à¸ĩ à¹Ħà¸Ķ
à¸Ńà¸Ńà¸ģ à¸¤à¸Ĺà¸ĺ
à¸Ĺà¸²à¸ĩ à¸ģà¸²à¸£à¸¨
ĠA g
à¸ļà¸¡ à¸²à¸Ń
ĠEntertain ment
B l
à¸£ à¸ļà¸ģ
à¸Ļà¸§ à¸Ńà¸¥à¹Ģà¸¥à¸¢
à¹Ħà¸£ à¸ķ
à¸Ńà¸²à¸£ à¸°à¹Ģà¸ļ
à¸ļà¸£à¸²à¸Ĭ à¸ģà¸²à¸£à¹Ģà¸Ľ
ous e
à¸¡ à¸ĩà¸Ħ
à¸łà¸²à¸ŀ à¸¥
à¹ĥà¸Ļà¸ģà¸²à¸£ à¸Ĭ
à¸Ļà¸ļ à¸£à¸£à¸¢à¸²à¸ģà¸²à¸¨
à¹Ĥà¸¡ à¹Ĥà¸ĭ
Ġà¹Ħà¸¡ à¹Ĥà¸Ħà¸£
Ġà¹Ģà¸Ł à¸Ńà¸£
à¸ŀà¸ĩà¸¨ à¸²à¸§à¸Ķà¸²à¸£
à¸Ń à¸ŀà¸£à¸°à¸ŀ
à¸ģ à¸Ľà¸£à¸°à¸ŀ
à¹Ģà¸ Ĵ
à¸¢à¸ģ à¹Ħà¸Ķ
à¸ģà¸¡ à¸Ńà¸ĩà¸§
à¸Ħà¸Ħà¸¥ à¸ªà¸³à¸Ħ
st r
à¸ľà¸ªà¸¡à¸ľ à¸ª
à¸ķ à¹Ģà¸Ĭ
à¸ĵ à¸²
à¹ĥà¸Ļ à¹ģà¸ĸ
à¸²à¸Ń à¸²à¸£
à¸Īà¸ŀà¸£à¸° à¸Ľà¸ģà¹Ģà¸ģà¸¥
à¸Ļà¹Ĥ à¸ķà¸£
Ġà¸ªà¸¡ à¸ļ
à¸Ĳà¸ļà¸²à¸¥ à¹Ħà¸Ķ
à¸ĩà¹ĥà¸Ļ à¹Ģà¸Ķ
à¸Ľà¸° à¸ģà¸²à¸£
Ġ à¹ĥà¸ķ
à¸Ķ à¹Ģà¸ģà¸²à¸°
à¸« à¸ĩà¸ª
à¸Ľ à¸ªà¸²à¸¡à¹Ģà¸«à¸¥
à¹ĥà¸Ļ à¹ģà¸ļà¸ļ
à¸Ħà¸§à¸²à¸¡ à¸ŀ
à¸¢à¸¡ à¸Ĥà¸Ńà¸ĩ
Ġ19 20
à¸Ļà¸Ĥà¸Ńà¸ĩ à¸§
Ġs c
Ġà¹Ģà¸ļ à¸¥
à¸ģà¸ģà¸²à¸£ à¸°
à¸Ļ à¹Ĥà¸¡
à¸ģ à¹Ĥà¸Ĭà¸§
à¸Ĺ à¸Ķà¸ªà¸Ńà¸ļ
à¸Īà¸²à¸ģ à¸ģà¸²à¸£à¸Ĺ
Ġà¸¡ à¸ģ
à¸Ļà¸ļ à¸²à¸ĩ
à¸įà¸į à¸²à¸Ļ
à¸ªà¸ĸ à¸²à¸Ļà¸¨
à¸Ńà¸Ľ à¸ģà¸Ľ
ro l
Ġc ell
à¹ģà¸Ńà¸Ļà¸ķ à¸²à¸£
ĠTha iland
Ī Ĵ
à¸´ -
à¸Ńà¸Ķ à¹Ģà¸¥
à¸ĩà¸Ĥà¸Ńà¸ĩ à¸§
ur g
à¸ĩà¸Īà¸° à¸ķ
Ġ197 2
à¸Ħà¸Ħ à¸Ńà¸£
à¹ģà¸ģà¸° à¸ªà¸¥
à¸ģ à¹ģà¸ľ
à¸ģ à¸¢à¸²à¸§
à¸¢ à¸«à¸£
à¸§ à¹ĥà¸Ļà¸Ľ
à¸ķ à¹Ģà¸ķ
à¸ģà¸£ à¸²à¸ģ
Ġà¸£ à¸Ńà¸ĩà¸Īà¸²à¸ģ
à¸Ŀ à¸²à¸ľà¸Ļ
ĠA m
à¸ĩà¹ĥà¸Ļà¸ª à¸²à¸¡
à¸³à¹Ĥà¸Ĥ à¸ĩ
à¸¡ à¹ģà¸£à¸ģà¸Ĥà¸Ńà¸ĩ
à¸Ķ à¸īà¸²à¸ģ
à¹ģ à¸Ķà¸Ķ
Ġà¹ģà¸¥à¸° à¹Ģà¸Ń
à¸ķà¸²à¸¡ à¹ģà¸ļà¸ļ
à¸ªà¸²à¸¡à¸²à¸£à¸ĸ à¹Ģà¸Ľ
à¸ģà¸Ķ à¸²à¸£à¸²à¸¨à¸²à¸ªà¸ķà¸£
à¸Ĭà¸²à¸§ à¸¡
Ġà¸Ĺà¸£à¸ĩ à¸¡
Ġb egin
Ġn e
à¸Ĥ à¹ģà¸«
à¸²à¸ĩ à¹ģà¸Ļ
à¸§à¸¢ à¸ĩà¸²à¸Ļà¸Ĺ
à¹Ģà¸Ĭ à¸ªà¹Ģà¸ķà¸Ńà¸£
re en
à¸¡ à¸²à¸Ĥ
âĢ ¢
à¸ķà¸²à¸¡ à¸ª
à¸Ńà¸¡à¸² à¹ĥà¸Ļ
Ġ197 5
now iki
à¸¥ à¸ģà¸£
à¸§ à¹ģà¸¡
à¸Ķ à¹Ģà¸Ļ
à¹Ħ à¸Ļà¸Ĺ
à¸ģà¸²à¸£ à¸ªà¸³à¸£à¸§à¸Ī
à¹ģà¸¥à¸° à¸ľà¸¥
Ġà¸ª à¸ķà¸²à¸£
Ġà¹ģ à¸ŀà¸£
Ġà¸ŀà¸£à¸° à¸Ħà¸£
à¸Ľà¸£à¸°à¸Ĭ à¸²à¸¡à¸ķ
à¸Ĭà¸²à¸¢ à¹ģà¸Ķà¸Ļ
Ġ248 1
Ġ ex
Ġà¹ģà¸¥à¸° à¸Ŀ
à¸Īà¸²à¸ģ à¸¡à¸«à¸²à¸§
à¸ŀà¸£à¸° à¸¢à¸²
à¸ŀà¸£à¸° à¹Ģà¸Ĭà¸©à¸Ĳ
Ġà¹Ģà¸¡ à¸Ńà¸£
à¸ľà¸¥ à¸ļ
à¸²à¸Ĥà¸Ńà¸ĩ à¸ķ
à¸Ħà¸§à¸²à¸¡à¸ª à¸°à¸Ńà¸²à¸Ķ
r en
à¸Ľ à¸Ńà¸£
Ġà¸Ń à¸¥
à¸ĩà¹Ģà¸¨à¸ª à¹Ħà¸Ķ
Ġ256 3
à¸²à¸Ħà¸§à¸²à¸¡ à¸ª
à¸²à¸¢à¸¡ à¸²à¸Ńà¸¢
à¸ļà¸£à¸£à¸Ķ à¸²à¸¨
t a
à¸Ļ à¹ĥà¸Ļà¸Ħ
à¸ģ à¸ĩà¸²à¸Ļà¸ķ
à¸· à¹Ĭ
à¸§à¸ĩ à¸Ń
à¸¢à¸§ à¸ķ
à¸ļà¸¡ à¸²à¸Ĺ
Ġb e
Ġ248 5
à¸Ńà¸ĩà¹Ĥà¸Ĺà¸£à¸Ĺ à¸£à¸£à¸¨à¸Ļ
à¸° à¸ĩ
à¸ķ à¹Ģà¸Ĺ
à¹Ħ à¸ĺ
à¸Ĭ à¸Ĭà¸²
à¹Ģà¸£ à¸Ķ
à¸²à¸ª à¸«à¸£
à¸¢à¸ĩ à¹Ģà¸£
à¸ķà¸²à¸¡ à¸Ľà¸ģà¸ķ
à¸ļà¸ª à¸²à¸¢
à¹Ģà¸ĺ à¸Ļà¸ª
à¸Ļà¹ģà¸¥à¸° à¸ª
à¸ŀà¸§à¸ģ à¹Ģà¸ĺà¸Ń
à¸Ńà¸³à¸Ļà¸§à¸¢à¸ģà¸²à¸£ à¸ªà¸£
à¸£ à¸²à¸Ł
à¸ĩ à¸ŀà¸¢à¸²à¸¢à¸²à¸¡
à¸Ķ à¸Ľà¸ı
à¹Į /
à¸ļà¸Ļ à¸²à¸¢
à¸ĩà¹ģà¸£à¸ģ à¹ĥà¸Ļà¸§
à¸Ķà¸Ļ à¸Ļà¸Ĺà¸ļ
à¸Ļà¹ĥà¸Ļ à¹Ģà¸£
à¹ģà¸Ķ à¸Ļà¸ĭ
ĠIn s
à¸¡à¸«à¸²à¸Ń à¸³à¸Ļà¸²à¸Ī
P h
t y
Ġà¹Ĥà¸Ķà¸¢ à¹Ģà¸Ļ
à¸§à¸¡ à¸ŀ
à¸Ĺà¸²à¸ĩ à¸ļ
er v
à¸ļà¸Ļ à¹Ĥà¸¥à¸ģ
à¸§à¸²à¸ĩ à¸ķ
Ġ247 8
à¸§à¸¢à¸ª à¸²à¸ģà¸¥
à¸Ķà¸Ĺà¸³ à¸ģà¸²à¸£à¸ª
S P
à¸§ à¹ģà¸Ĺà¸Ļ
à¸ģà¸¥ à¸Ńà¸ĩ
à¸ģà¸§ à¸Ļà¸Ń
à¸Īà¸£ à¸§à¸Ķ
Ġà¸Ħà¸§à¸²à¸¡ à¹Ģà¸Ľ
à¸§à¸¥à¸°à¸Ħà¸£ à¸«à¸¥
à¹ģà¸ªà¸Ķ à¸ĩà¸ģ
à¹ĥà¸Ļà¸Ī à¸³à¸Ļà¸§
à¸ĩ à¹ĥà¸Ļà¸«
à¸¢ à¹Ģà¸ª
à¸¢ à¹ģà¸£à¸ģ
à¸ķ à¸Ħà¸£
Ġà¸Ī à¸Ļà¹Ģà¸Ľ
Ġà¸¥ à¸Ńà¸£
à¸ģà¸ĩà¸²à¸Ļà¸ Ľ
à¸Ķ à¸Ĺà¸³à¸ģà¸²à¸£
à¸¢à¸ĩ à¹ģà¸«
à¸«à¸¡ à¸Ķà¸ª
à¸Ļà¸Ń à¸²à¸¨
à¸¡à¸« à¸²à¸¨à¸²à¸¥
à¸Ļà¸ģà¸²à¸£ à¹Ģà¸Ľ
à¹ĥà¸Ļà¸ª à¸ĸà¸²à¸Ļà¸Ĺ
ĠS m
à¸łà¸²à¸© à¸²à¸ķ
à¸Īà¸ŀà¸£à¸° à¸Ļ
à¸ģà¸£à¸¡ à¸§
à¸²à¸Ļà¸Ľ à¸Ńà¸Ļà¸Ķ
à¹ Ĵà¹
à¸ļ à¹ģà¸£à¸ĩà¸ļ
à¸ŀ à¸ª
à¸Ļà¸ļ à¸§à¸£
à¸ŀà¸¢à¸²à¸ģà¸£ à¸ĺà¸£à¸£à¸¡à¸Ĭà¸²à¸ķ
à¸Ļà¸Ńà¸³à¹Ģà¸ł à¸Ńà¸«à¸Ļ
à¹ģà¸¡à¸Ħ à¸Ķà¸²à¸§à¸Ļ
à¸²à¸Ļ à¹Ģà¸Ī
Ġà¹ģà¸¥à¸° à¸Ńà¸²à¸Ī
à¸ļà¸ģà¸²à¸£ à¸ģà¸¥
à¸ĩà¹ģ à¸£
à¸¡à¸Ĭ à¸Ļà¸Ĺ
Ġà¸Ńà¸³à¹Ģà¸ł à¸Ńà¸ª
à¸²à¸ĩ à¹ģà¸¥
Ġà¸ŀ à¸Ļà¸¡
à¸§à¸¢ à¹Ģà¸ŀà¸¥à¸ĩ
Ġà¸ª à¸ĸà¸²à¸Ľà¸Ļ
à¹Ģà¸§ à¸ģ
à¸Ļà¸° à¸Ļà¸³
à¸Īà¸ŀà¸£à¸° à¸Ļà¹Ģà¸£
à¹Ĥà¸Ĺà¸£ à¸Ħà¸¡à¸Ļà¸²à¸Ħà¸¡
Ġà¹Ĥà¸Ľà¸£ à¸Ķà¹Ģà¸ģà¸¥
à¹ĥà¸Ļ à¹Ĥà¸Ħà¸£à¸ĩà¸ģà¸²à¸£
à¹Ģà¸Ĥ à¸²à¸§
Ġà¹Ĥà¸Ķà¸¢ à¸«à¸¥
à¸²à¸« à¸§
à¸Ļà¸Ń à¸²à¸ĵà¸²à¸Ļ
à¸Ļà¹ģ à¸£
al k
à¸ĩà¸«à¸¡à¸Ķ à¹Ģà¸Ľ
à¸Łà¸£ à¸²à¸Ļà¸ĭ
à¸ķà¸¢à¸ģà¸£à¸£à¸¡ à¸¨à¸²à¸ªà¸ķà¸£
à¸¢à¸¢à¸¨ à¹Ģà¸Ľ
à¸Ķ à¹Ģà¸ĭ
à¸Ľà¸£à¸° à¸«à¸¢
à¸²à¸§ à¹Ģà¸Ĺ
à¹Ģà¸Ł à¸Ļ
ir st
Ġ197 4
à¸Ĺà¸²à¸ĩà¸ģà¸²à¸£ à¹Ģà¸ĩ
à¸Ħ à¸²à¸ĭ
à¸Ĵà¸Ļ à¸²à¹Ģà¸Ľ
à¸¡à¸Ń à¸²à¸ģà¸²à¸£
ri m
ow s
M ar
à¸£ à¸²à¸£
à¸Ńà¸ĩ à¸¨à¸£
Ġà¸Ħ à¸ĵ
à¸Īà¸° à¹Ħà¸Ľ
Ġà¹ģ à¸Ħà¸Ļ
à¸Ļà¸Ń à¸²à¸£
à¸¢à¸ģ à¸Ĳà¸²à¸Ļà¸°à¹Ģà¸Ľ
à¸²à¹Ĥ à¸ģà¸°
Ġà¸ķà¸³à¸ļà¸¥ à¸ļ
à¸Ļà¸Ĺà¸²à¸ĩà¸ģà¸²à¸£ à¸§
à¸ķà¸¥à¸Ńà¸Ķ à¸Ĺ
O S
à¸²à¸ĩ à¸ĩà¸²à¸Ļ
à¸Ľà¸£à¸° à¹Ĥà¸¢à¸Ħ
à¹Ģà¸Ĺ à¸ģà¸ĭ
à¹Ģà¸Ĭ à¸¥
à¹ģà¸ļà¸ļ à¸ļ
à¸Ļà¸Ħà¸£ à¸Ļ
Ġ5 6
à¸«à¸¥à¸²à¸¢ à¸Ĭ
ec h
à¸Ńà¸²à¸ģà¸²à¸¨ à¸¢à¸²à¸Ļ
Ġ8 5
à¹ģà¸Ļà¸§ à¹Ģà¸ŀà¸¥à¸ĩ
à¸Ľà¸£à¸°à¸Ĺ à¸²à¸Ļ
à¸ªà¸« à¸Ľà¸£à¸°à¸Ĭà¸²à¸Ĭà¸²à¸ķ
à¸«à¸¥à¸²à¸ļ à¸§
à¸ĩ à¸§à¸Ļ
à¸Ħ à¹Ħà¸Ķ
à¸¢à¸§ à¹Ģà¸Ľ
à¸ļà¸ģà¸²à¸£ à¸ªà¸ĸà¸²à¸Ľà¸Ļ
Ġà¸ģà¸²à¸£ à¹ģà¸ªà¸Ķà¸ĩ
Ġà¹Ģà¸Ī à¸Ńà¸£
à¸Ļà¸²à¸¢ à¸Ĺà¸«à¸²à¸£
uc le
à¹Ģà¸Ĺà¸Ļà¹Ģà¸¡ à¸Ļà¸Ĺ
à¸¥ à¸Ĭà¸Ļà¸°à¹Ģà¸¥
à¸Ļà¸ ¯
à¸¢ à¸Ķà¸Ĺ
Ġà¸ª à¹Ģà¸Ľ
à¸Ĺà¸ĺ à¸¨à¸²à¸ª
à¹ģà¸ģ à¸Ļà¸Ķ
à¸Ļà¸³ à¸ģà¸¥
Ġà¸ģà¸²à¸£ à¹Ģà¸£
à¹Ĥà¸ĭ à¹Ĥà¸Ĺ
à¹Ģà¸īà¸ŀà¸²à¸° à¸Ĺ
à¸ļà¸Ń à¸²à¸£
Ġà¸ŀà¸§à¸ģ à¹Ģà¸Ĥà¸²à¹Ħà¸Ķ
8 00
C om
o ch
à¸Ń à¹ĥà¸Ļà¸Ĭ
à¸ģ à¸Ĭà¸²à¸ķ
à¸ĩ à¸ŀà¸£à¸£à¸Ħ
à¸¡ à¹ĥà¸Ļà¸Ľ
à¹Ĥ à¸Łà¸¥
à¸²à¸Ħ à¸§à¸£
à¸²à¸ķ à¸²à¸£
à¸Ļà¸³ à¸£
à¸łà¸²à¸© à¸²à¸¥à¸°à¸ķ
à¸ģà¸©à¸² à¹Ģà¸ģ
ic a
à¹Ĥà¸Ľà¸£ à¹Ģà¸ķà¸ªà¹ģà¸ķà¸Ļà¸ķ
à¸ģà¹ģà¸ªà¸Ķà¸ĩ à¸Ĭà¸²à¸§à¹Ħà¸Ĺà¸¢
à¸ĺà¸¢à¸¡ à¸Ľà¸¥à¸²à¸¢
Ġ197 8
à¸ªà¸ĸà¸²à¸Ļà¸° à¹Ģà¸Ľ
B F
Ġ 00
à¸ļ à¹ģà¸ľ
à¸Ĥ à¸Ĺ
à¸³ à¹Ģà¸¥
à¹ĥà¸Ļ à¹Ģà¸ŀà¸¥à¸ĩ
à¹Ĥà¸Ķà¸¢ à¸§
à¸Ļà¸ļ à¸²à¸ĩà¸ª
à¸ģà¸ª à¸Ļà¸²à¸Ļ
à¸Ļà¸ģà¸²à¸£ à¹ģà¸ªà¸Ķà¸ĩ
à¸ļà¸ģ à¸ŀà¸£
à¸Ļà¸¨ à¸²à¸¥
à¸ļà¸£à¸£ à¹Ģà¸Ĺ
à¸¢à¸Ļà¹ģà¸Ľà¸¥à¸ĩ à¸ģà¸²à¸£à¸Ľà¸ģà¸Ħà¸£à¸Ńà¸ĩ
à¸ļà¸ĸ à¸Ļ
à¸Ĺà¸§ à¸²à¸£
à¸£à¸§ à¸²à¸Ĺ
à¸Ń à¸Ĺà¸³à¸ģà¸²à¸£
à¸ģ à¸Ńà¸¥
à¸¡ à¹ģà¸¥
à¸¢ à¹Ģà¸Ĺà¸Ħà¸Ļ
à¸Ĺ à¸²à¸ª
à¸²à¸¢ à¹Ģà¸«à¸Ļ
à¸²à¸Ĺ à¸«à¸²à¸£
à¸Ļà¸³ à¹Ģà¸Ń
à¹Ĥà¸Ń à¹Ģà¸ŀà¸¥à¸ĩ
à¸Ļà¸Ľà¸£à¸° à¸ģà¸²à¸¨
à¸Ķà¸Ħà¸§à¸²à¸¡ à¹Ģà¸ª
à¸Ķà¹Ģà¸Ī à¸Ļà¸§
à¸ģ à¸²à¸ª
à¸¢ à¸Ńà¸Ļ
à¸Ķ à¸£à¸²à¸Ĭ
à¸²à¸ķ à¸¥à¸Ńà¸Ķ
Ġà¸ģà¸²à¸£ à¹Ģà¸Ķ
à¸Ķà¸ģà¸²à¸£ à¸ķ
ep h
à¸²à¸ĩ à¸ŀà¸£à¸°à¸£à¸²à¸Ĭà¸ļ
à¸§à¸¢ à¸ªà¸¡à¸²à¸Ĭ
Ġà¹ģ à¸Ħà¸£
à¸Ļà¸« à¸Ńà¸¡
à¸Ĺà¸²à¸ĩ à¸¨à¸²à¸ªà¸Ļà¸²
à¸ĩà¸Ļ à¸Ńà¸£
à¸ªà¸²à¸¡à¸²à¸£à¸ĸ à¸Ĥ
à¸²à¸Ĥà¸Ńà¸ĩ à¸ľ
à¸ļà¸Ļ à¹Ģà¸§à¸Ĺ
à¸ģà¸©à¸£ à¸¨à¸²à¸ªà¸ķà¸£
à¸Ĺà¸ģ à¸ł
Ġ Â
à¸Ķ à¹Ģà¸Ľà¸¥
à¸Ńà¸ĩ à¹Ģà¸ĭ
à¸Ńà¸¡ à¸Ľà¸£à¸²à¸ģà¸²à¸£
Ġà¸£ à¸²à¸¡
à¸²à¸Ļà¸Ĺ à¸²à¸Ļ
ĠD ay
à¸Ļ à¹ĥà¸Ļà¸£à¸Ńà¸ļ
à¸Ķ à¹ĥà¸Ļà¸Ń
à¸ļ à¹Ģà¸Ħ
à¹Ĥ à¸Ļà¸Ĺ
à¸Ńà¸ģ à¹Ħà¸Ķ
à¸§à¸¢ à¹Ħà¸Ĺà¸¢
Ġà¸Ī à¸Ļà¹ĥà¸Ļà¸Ĺ
à¸Ńà¸Ńà¸ģ à¸Ĺ
Ġà¸ģà¸²à¸£ à¸¡
Ġ7 00
à¸Ńà¸° à¸¥
Ġà¸Ľà¸£à¸°à¹Ģà¸Ĺà¸¨ à¸ªà¸§
Ġà¹ ĸ
k e
k i
o le
à¸¡ à¹ģà¸ŀ
à¹Ģà¸Ń à¸ķ
à¸¢à¸¡ à¸Ļ
à¸Īà¸ŀà¸£à¸° à¸Ļà¸²à¸£à¸²à¸¢à¸ĵ
à¸Ńà¸ģà¸²à¸£ à¸ķ
à¸ģà¸Ńà¸ĩà¸Ĺ à¸«à¸²à¸£
Ġà¹Ģà¸Ħ à¸¥
ĠN et
à¸ŀà¸£à¸°à¸Ļà¸²à¸¡ à¹Ģà¸Ķ
à¹ģà¸ªà¸ķ à¸¡à¸Ľ
Ġ at
à¸ģ à¸ģà¸³à¸«à¸Ļà¸Ķ
à¸§ à¸Ńà¸Ńà¸ģà¸Īà¸²à¸ģ
à¸µà¹Ī ,
Ġà¸ª à¸Ļà¸ĺ
à¸Ĺà¸²à¸ĩ à¸Ŀ
à¸¢à¸ģ à¹ĥà¸«
à¸Ļà¸Ĺà¸²à¸ĩ à¸ķ
à¸Ľà¹ģà¸ļà¸ļ à¸«à¸Ļ
à¸Ļà¹ĥà¸Ī à¸§
à¸Ķà¸ķà¸¥à¸Ńà¸Ķ à¸ģà¸²à¸¥
à¸² à¹Ĩ
à¸ģ à¹Ħà¸¥
à¸§ à¹ĥà¸«à¸į
à¸ķà¸£ à¸Ńà¸ĩ
Ġà¸ķ à¸°
à¸ľà¸¥ à¸ľà¸¥
et er
Ġ194 2
n a
à¸ļ à¹Ģà¸ģà¸¡
à¸Ľ à¸«
à¹Ĥ à¸«à¸£
à¸£à¸° à¸¢à¸Ńà¸ĩ
à¸Ļà¸§ à¸ĩà¸Ķà¸Ļà¸ķà¸£
à¸Ńà¸« à¸²à¹Ģà¸ģ
Ġ248 0
à¸² à¹Ģà¸«à¸¢
à¸ģ à¸ŀà¸ļ
à¸¡ à¸£à¸§à¸¡
à¸Ķ à¸¡à¸²à¸ģ
à¸ª à¹Ģà¸£
à¸Īà¸²à¸ģ à¸Ĭ
à¸£à¸²à¸Ĭ à¸Ķà¸³à¹Ģà¸Ļ
à¸ģà¸£à¸£à¸¡ à¸ª
ĠS uper
à¸ĩà¹ģà¸£à¸ģ à¸ģ
à¸ŀà¸£à¸°à¸£à¸²à¸Ĭà¸Ĺ à¸²à¸Ļà¸ŀà¸£à¸°
ord er
à¸¢ à¸ªà¸¡à¹Ģà¸Ķ
à¸Ńà¸ģ à¸ļà¸ı
à¸Ńà¸Ļ à¹Ģà¸Ĭ
à¹Ĥà¸Ķà¸¢ à¹Ģà¸£
à¸ĩà¸Ĺ à¸£
à¸Ńà¸° à¸Ļ
à¸²à¸ŀà¸£à¸° à¸£à¸²à¸Ĭ
25 0
à¸ŀà¸Ń à¸ªà¸¡à¸Ħà¸§à¸£
Ġà¸«à¸²à¸ģ à¹ģà¸ķ
à¸Ļ à¹ģà¸£à¸ģà¸Ĥà¸Ńà¸ĩ
à¹ģà¸¥à¸° à¸Ŀ
Ġà¸Ń à¸²à¸§
Ġà¸ģà¸²à¸£ à¹ĥà¸«
à¸ªà¸Ńà¸ĩ à¸Ĥà¸Ńà¸ĩ
à¸Ńà¸³à¹Ģà¸ł à¸Ńà¸Ĺ
à¸ģà¸©à¸£ à¸Ī
V D
g ram
à¸ģ à¹Ĥà¸ļà¸£à¸²à¸ĵ
à¸Ńà¸ĩ à¸ªà¸³à¸Ħ
à¸Ĺà¸²à¸ĩ à¹Ģà¸Ħà¸¡
à¸Ĭà¸²à¸§ à¹Ģà¸ģà¸²à¸«à¸¥
à¸«à¸¥à¸²à¸¢ à¸ª
à¸²à¸ĺà¸²à¸£à¸ĵ à¸Ĭà¸Ļ
à¸Ļà¹Ģà¸§à¸¥ à¸²à¸«à¸¥à¸²à¸¢
Ġ à¸Ĳ
à¸Ń à¹Ģà¸Ħ
à¸ģ à¹Ģà¸Ļ
à¸¥ à¹Ģà¸§à¸Ńà¸£
à¸Ħ à¹Ģà¸ķà¸Ńà¸£
à¸Ī à¹Ĥà¸Ī
à¸ĭ à¸²à¸¥
à¹Ģà¸¡ à¸ĺ
à¸§à¸Ļ à¹Ħà¸Ķ
à¸Ļà¸ģà¸²à¸£ à¸ļ
à¸²à¸ŀà¸£à¸° à¸ŀ
à¸²à¹ģ à¸Ķà¸ĩ
à¸Łà¸¥ à¸Ńà¸£
à¸² à¹Ĥà¸£à¸ĩà¹Ģà¸£
à¸£à¸° à¸¢
à¸²à¸Ļ à¹Ģà¸«à¸£
Ġà¹ģà¸¥à¸° à¹ĥà¸Ļà¸Ĺ
à¹Ģà¸Ī à¹Ħà¸Ķ
à¸ļà¸ģà¸²à¸£ à¹Ģà¸£
à¹Ħà¸Ł à¸Ļà¸Ńà¸¥
ĠA meric
à¸Ĭà¸¡ à¸£à¸¡
à¸Ļà¹Ĥà¸Ħà¸£ à¸ĩà¸ªà¸£
m on
à¸Ńà¸ĩ à¹Ħà¸«
à¸Ĭ à¸³à¸£à¸°
à¹ĥà¸Ļ à¹ģà¸¡
à¸Īà¸° à¸ģà¸¥à¸²à¸¢à¹Ģà¸Ľ
à¸Ńà¸ļ à¸Ķ
à¸Ļà¸ģà¸²à¸£ à¸§
à¸¡à¸Ńà¸ļ à¹ĥà¸«
à¸µà¹Ī )
à¸ģà¸£ à¸ŀ
à¸Ńà¸Ķ à¸³à¸Ļ
à¹Ĥà¸£ à¸Ħà¸Ļ
Ġà¹ĥà¸Ļ à¹Ģà¸§à¸¥à¸²
à¸ĩà¸Īà¸²à¸ģ à¸¡
à¸«à¸¥à¸²à¸¢ à¸Ĺ
ĠM ag
à¸ģà¸©à¸ĵà¸° à¸ŀ
à¸£à¸ĵ à¸łà¸²à¸ŀ
Ġà¹Ģà¸Ĺ à¸£
Ġc or
à¸¡à¸£ à¸Ķà¸ģ
à¸¥à¸Ł à¸Ńà¸Ļà¹Ĥà¸ĭ
à¸¢à¸Ļà¹Ģà¸£ à¸¨à¸§à¸£
ĠCol lege
à¸ļ à¸Ľà¸£à¸°à¹Ģà¸Ĺà¸¨à¹Ħà¸Ĺà¸¢
à¸Ľ à¸Ħ
à¸Ńà¸ģ à¸Ħ
à¹Ģà¸ªà¸Ļ à¸²à¸ĺ
Ġà¹ģà¸ģà¸£ à¸Ļà¸Ķ
à¸Ķà¸Ļà¸Ħà¸£ à¸Ľà¸Ĳà¸¡
à¸ĩ à¸£à¸²à¸¢
à¹ĥà¸Ļ à¸¡à¸«à¸²à¸ªà¸¡
à¹Ĥà¸Ķà¸¢ à¹Ģà¸īà¸¥
à¸£à¸²à¸Ĭ à¸¡à¸ĩà¸Ħà¸¥
à¸Ħà¸Ļ à¹Ģà¸¥
à¸²à¸Ļà¸Ķ à¸Ļà¸ķà¸£
à¹Ģà¸ģà¸©à¸ķà¸£ à¸ģà¸£
à¹ģà¸Ńà¸¥ à¸ģà¸Ńà¸®à¸Ńà¸¥
à¸ļà¸Ĺà¸Ħà¸§à¸²à¸¡ à¸«à¸¥
à¸¡ à¸²à¸§
à¸¢ à¸Ļà¸ŀà¸£à¸°
à¸ļ à¸²à¸Ķ
à¸Ĺà¸¢ à¸²à¹ģà¸¥à¸°
à¸§à¸¡ à¹ĥà¸Ļà¸ģà¸²à¸£
à¸Ńà¸ª à¸«à¸£
à¸ªà¸²à¸¡à¸²à¸£à¸ĸ à¹Ģà¸Ńà¸²à¸Ĭà¸Ļà¸°
à¹Ĥà¸¡ à¸¢
à¸£à¸ª à¸Ĭ
à¸¡à¸Ķ à¸§à¸ĩ
à¹Ģà¸«à¸¡à¸²à¸° à¸ģ
à¸ļà¸²à¸£ à¸¡
Ġà¹Ģà¸Ńà¸Ł à¹Ģà¸Ń
b le
à¸¡ à¹Ģà¸§à¸Ĺ
à¸Ķ à¹ĥà¸ª
à¸²à¸ģ à¸Ĥ
à¸Ł à¹Ģà¸Ł
à¸Ħà¸§à¸²à¸¡ à¸Ĺà¸£à¸ĩà¸Īà¸³
à¸¢à¸§ à¹Ħà¸Ķ
ti s
Ġà¹Ģà¸ŀ à¸£
à¹Ħà¸£ à¸Ļ
Ġà¸Ł à¸¥
à¹ĥà¸Ļà¸ŀà¸£à¸° à¸ŀ
Ġ à¸ģà¸¥à¸²à¸ĩ
à¸² à¹Ģà¸Ł
à¸£ à¸Ł
à¸Ńà¸£ à¸ª
Ġà¸Ī à¸Ļà¸ķ
à¸¢à¸£ à¸łà¸²à¸ŀ
Ġà¹Ĥà¸£à¸ĩ à¹ģà¸£à¸¡
Ġ196 7
à¸Ļà¹ĥ à¸¢
à¸Ń à¸łà¸²à¸©à¸²à¸Ń
à¸¥ à¹ĥà¸«
à¸¥ à¸§à¸Ķà¸¥à¸²à¸¢
à¸§ à¸Ļà¸Ľ
à¸ª à¹Ģà¸Ń
à¹Ħ à¸ļà¹Ģà¸ļ
à¸²à¸Ļ à¸²à¸ĩ
à¸ĩà¸ģ à¸Ńà¸¥
ĠS ing
à¸¥à¸Ľ à¸°à¸Ĺ
Ġà¹Ģà¸Ħ à¸²à¸Ļà¸ķ
ĠN e
ĠJ ohn
ĠAl l
à¸¢ à¸²à¸ª
à¸Ķ à¸Ĭà¸Ļ
à¸ģà¸²à¸£ à¸Ńà¸Ńà¸ģà¸Ńà¸²à¸ģà¸²à¸¨
à¸Ńà¸¢ à¸«à¸Ļ
à¸Ńà¸ģ à¸Ń
à¸Ħà¸£ à¸Ĺ
Ġà¹Ĥ à¸ŀà¸ĺ
in i
Ġà¹ĥà¸Ļ à¹Ģà¸§à¸¥à¸²à¸ķ
à¸ªà¸²à¸£ à¸Ħà¸Ķ
ĠP ar
à¸ľà¸¥à¸ĩ à¸²à¸Ļà¸Ĭ
à¸ģà¸Ń à¸ĺ
à¸Ļà¹Ģà¸ª à¸¡
à¸£à¸²à¸ļ à¸Ĺ
tic al
à¸Ń à¹ģà¸ļà¸Ħà¸Ĺ
à¸Ń à¸Ńà¸ķà¹Ĥà¸ķà¸¡
à¹ĥà¸Ļ à¸£à¸²à¸Ĭà¸ªà¸³à¸Ļ
à¸Ļà¸ª à¸²à¸Ĥ
Ġà¸ķ à¸³à¸£à¸§à¸Ī
à¸ļà¸Ĺ à¹Ģà¸ŀà¸¥à¸ĩ
à¸ļà¸Ń à¸²à¸Ĭ
à¸ģà¸Ħ à¸ĵ
Ġà¹Ģà¸¥ à¸¢
Ġà¸ªà¸²à¸¡à¸²à¸£à¸ĸ à¹ĥà¸Ĭ
à¸Ĥà¸Ńà¸ĩà¸ķ à¸£à¸°à¸ģ
à¸Ńà¸Ńà¸Ł à¹Ģà¸Ķà¸Ńà¸°
à¸Ķ à¹Ģà¸¢
à¸ļ à¸ŀà¸£à¸°à¸£à¸²à¸Ĭ
à¸²à¸Ļ à¹Ģà¸ª
Ġà¸Ļ à¸²à¸Ħ
à¸²à¸ĩà¸ª à¸£à¸£à¸ŀà¸ª
à¸Ńà¸« à¸¢
à¹ĥà¸Ļà¸ķ à¸Ńà¸Ļà¸Ļ
ur n
ag on
à¸Ľà¸¥à¸ĩ à¸ŀà¸£à¸°à¸Ĭà¸Ļà¸¡
à¸²à¸¡ à¸£
Ġà¹ĥà¸Ļ à¸£à¸°à¸¢à¸°
re t
à¸¢à¸²à¸§ à¸Ĺ
à¸Ľà¹ģà¸ļà¸ļ à¸ķ
à¹Ģà¸ŀà¸¨ à¸ľ
à¸¡à¸ĩ à¸§à¸Ķ
à¸ģ à¹Ģà¸Ħà¸£
à¸ļ à¸Ŀà¸£
Ġà¸ģ à¸£à¸°à¸ļ
Ġà¹Ĥà¸Ķà¸¢ à¸ļà¸£
Ġà¹ĥà¸Ļ à¸ĩà¸²à¸Ļ
à¸Ļà¹ģ à¸Ĺà¸Ļ
à¸¥à¸¥ à¸Ńà¸®
ĠT o
à¸¢à¸įà¸Ĺà¸Ńà¸ĩ à¹ģà¸Ķà¸ĩ
à¹ĥà¸Ļ à¸£à¸²à¸Ĭà¸ģ
à¸Ńà¸Ķ à¸³à¹Ģà¸Ļ
à¸²à¸Ĥà¸Ńà¸ĩ à¸ª
à¸Ļà¸Īà¸²à¸ģ à¸ķà¸³à¹ģà¸«à¸Ļ
à¸įà¸« à¸²à¸Ĺà¸²à¸ĩ
à¸īà¸²à¸¢ à¸²
ord s
Ġà¹Ĥà¸Ķà¸¢ à¸Ľ
Ġà¹ģ à¸Ńà¸Łà¸£
à¸¢à¸¡ à¹Ħà¸Ķ
Ġà¸Ĥà¸Ńà¸ĩ à¸Ħ
à¸ļà¸²à¸Ĺ à¸«à¸¥à¸§à¸ĩ
à¹Ģà¸īà¸ŀà¸²à¸° à¸ķ
ĠN ational
à¹ĥà¸Ļà¸Ĥ à¸ĵà¸°à¹Ģà¸Ķ
A P
à¸§ à¸Ł
à¸Ĥ à¸Ńà¸£
à¸¢à¸ĩ à¸Ľ
à¸ļà¸ģà¸²à¸£ à¸ķà¸Ńà¸ļà¸£
à¸Ńà¸ĩà¸Ĺ à¸£à¸ĩ
à¸Ħà¸Ļ à¸¥à¸°
Ġà¸Īà¸²à¸ģ à¹Ĥà¸£à¸ĩà¹Ģà¸£
à¸ģà¸©à¸² à¹Ħà¸§
à¸Ľà¸¥à¸²à¸¢ à¸Ĺà¸²à¸ĩ
à¸£à¸ŀ à¸²
à¸Ļ à¹ģà¸£à¸ģà¸Ĺ
à¸Ħ à¸¡à¸Ĥà¸Ńà¸ĩ
à¸Ńà¸Ļ à¹ĥà¸ķ
à¸£à¸£ à¸ŀà¸ļ
à¸Īà¸° à¹Ģà¸Ķ
à¸Ĵà¸Ļ à¸²à¸Ń
à¸²à¹ģà¸¥à¸° à¸¡
ĠH igh
à¸ļà¹Ħà¸Ľ à¸Ĺ
à¹Ģà¸ĸ à¸£à¸§à¸²à¸Ĺ
à¸§ à¹Ģà¸ģà¸¡
à¸ģà¸²à¸£ à¸Ńà¸Ńà¸ģ
Ġà¹ģà¸¥à¸° à¸£à¸²à¸ĩà¸§
à¸Ħà¸§à¸²à¸¡ à¸ģà¸§
à¸Īà¸° à¸ļ
à¸Ĺà¸ĺ à¸£à¸ĵ
à¸¡à¸« à¸²à¸Ĭ
à¸Ļà¸¡à¸² à¹Ģà¸ŀ
à¸Ĥà¸²à¸¢ à¸Ķ
à¹Ģà¸ Į
à¸¢ à¸Ļà¸Ľà¸£à¸°à¸Īà¸³
à¸Ķ à¸²à¸ģ
à¸Ńà¸ĩ à¸ĩ
à¸Ĭ à¸²à¹Ģà¸Ľ
à¸«à¸¡ à¸²à¸ģ
à¸Ļà¸¡ à¸ģ
Ġà¹ĥà¸Ļ à¹ģà¸ķ
à¸Ńà¸ĩà¸Īà¸²à¸ģ à¸Ĺ
ol ar
à¸ķà¸³à¸ļà¸¥ à¸ļ
op e
v en
à¸ĩ à¸į
à¸ķ à¸²à¹Ģà¸¥
à¹ģ à¸¢à¸£
à¸Īà¸²à¸ģ à¹Ĥà¸£à¸ĩà¹Ģà¸£
à¸Ńà¸Ķ à¸Ļ
à¸Ńà¸ª à¸ª
ĠP er
am b
à¸Ļ à¹ģà¸ª
à¸ļ à¹Ģà¸Ńà¸ģà¸£à¸²à¸Ĭ
à¸²à¸Ļ à¹Ģà¸Ĺ
à¹ĥà¸Ļ à¹ģà¸ľ
à¸Ļà¸ŀ à¸²à¸£
à¸ģà¸ģ à¸İà¸«à¸¡à¸²à¸¢
ĠM od
à¸Ĳà¸ļà¸²à¸¥ à¸Ĥà¸Ńà¸ĩ
à¸¢à¸ª à¸ĩà¸Ħà¸£à¸²à¸¡
à¸Ńà¸¡à¸§à¸¥ à¸Ĭà¸Ļ
à¸Ĺà¸£à¸£à¸¨ à¸ģà¸²à¸£
r ac
à¸ĩ à¸ŀà¸ļà¸§
à¸¥à¸ĩ à¸ªà¸Ļà¸²à¸¡
à¸¢à¸ĩ à¸¥à¸³à¸Ķ
à¸ļà¸ģà¸²à¸£ à¹Ģà¸Ľà¸¥
à¹Ĥà¸£ à¸Ī
Ġà¸Ĺà¸³ à¸Ļ
à¸ģà¸©à¸² à¹ĥà¸«
Ġ14 0
ĠSt ar
Ġ196 9
... "
à¸ĩà¹ĥà¸Ļà¸ªà¸¡ à¸²à¸Ĭ
à¸Ļ à¸£à¸°à¸¢à¸°à¸Ĺà¸²à¸ĩ
à¸Ń à¸«à¸¥à¸§à¸ĩ
à¸´ .
à¹Ģà¸¡ à¸ķ
à¸Ĳ à¹Ħà¸Ķ
à¸ļà¸ģà¸²à¸£ à¹ģà¸ªà¸Ķà¸ĩ
à¸ķà¸²à¸¡ à¸Ķ
he m
Ġà¸Ł à¸Ńà¸Ļ
à¸įà¸« à¸²à¸Ļ
et y
tic s
à¸² à¹ĥ
à¸ĩ à¹ĥà¸Ķ
à¸§à¸¢ à¹Ģà¸Ī
à¹ĥà¸Ļà¸ģà¸²à¸£ à¸Ķ
à¸ļà¸ģà¸²à¸£ à¸Ľà¸¥
à¸łà¸²à¸© à¸²à¸Ŀà¸£
à¸¡à¸²à¸ķ à¸¥à¸Ńà¸Ķ
à¸£ à¸Ĭ
à¸Ĺ à¸¨à¸§à¸£à¸£à¸©à¸Ĺ
à¸²à¸ĩ à¹Ģà¸Ĺ
à¹Ģà¸£ à¸Ń
Ġà¸Ħ à¸Ļà¸Ħ
à¸Īà¸° à¸Ļ
à¸§à¸ĩ à¸Ħ
à¸Ļà¸ª à¸ĸà¸²à¸Ľ
à¸¡à¸« à¸²à¸ģ
Ġà¸ģà¸²à¸£ à¸ļà¸£
à¸ĺà¸£à¸£à¸¡ à¸Ĺ
à¸Ĭà¸²à¸¢ à¸«à¸²à¸Ķ
ĠG l
à¸Ļà¸Ħà¸§à¸²à¸¡ à¸ľ
Ġà¹Ģà¸® à¸Ńà¸£
d er
à¸ģ à¸²à¸Ī
à¸Ĥ à¸Īà¸£
à¸¢à¸§ à¸Ī
à¸²à¸¨ à¸ģ
à¸¢à¸¡ à¸¡
Ġà¹Ĥ à¸Ĩ
à¹ĥà¸Ļà¸ģà¸²à¸£ à¸ļà¸£
ĠD is
à¸¢à¸²à¸§ à¸Ļà¸²à¸Ļ
à¸£à¸Ńà¸ļ à¸Ħ
à¹Ģà¸Ļà¸ª à¹Ĥà¸ģ
à¸Ķà¸³à¸£à¸ĩ à¸Ńà¸¢
à¸Ń à¸Ńà¸Ńà¸ģ
à¸Ń à¹ģà¸Ĥ
à¹Ģ à¸Ńà¸¢
à¹Ĥà¸Ķà¸¢ à¸Ľà¸ģà¸ķ
Ġà¸¡ à¸²à¸¢
Ġ" (
à¸Ľà¸£à¸°à¹Ģà¸Ĺà¸¨ à¸Ŀà¸£
à¹ĥà¸Ļà¸ģà¸²à¸£ à¸Ľà¸ģà¸Ħà¸£à¸Ńà¸ĩ
à¸ļà¸ģà¸²à¸£ à¸ĸ
à¹Ĥà¸£ à¸Ĭ
à¸Ļà¸ŀà¸£à¸° à¸ł
à¸²à¸ĩà¸ģ à¸²à¸¢à¸Ĥà¸Ńà¸ĩ
à¸£à¸§à¸¡ à¹Ħà¸Ľà¸ĸ
à¸¡ à¹ģà¸«
à¸ļ à¸ĺ
à¹ĥà¸Ļ à¸Ńà¹Ģà¸¡à¸£
à¹Ĥà¸Ķà¸¢ à¹Ħà¸Ķ
à¸ŀà¸£à¸° à¹ģà¸¡
à¸ŀà¸£à¸° à¸¡à¹Ģà¸«à¸ª
à¸«à¸²à¸£ à¸ĩà¸²à¸Ļ
à¸²à¸Ĥà¸Ńà¸ĩ à¸§
à¸Ĭà¸Ĭ à¸²à¸Ĭ
A L
à¸į à¸¡à¸²à¸ģ
à¸ĺ à¸Ľ
à¸ģà¸¥ à¸ĩà¸Ĺ
à¸ŀà¸£à¸° à¸Ńà¸Ļ
à¸ĩà¸Ħ à¸²
à¸¥à¸° à¸¡
Ġ6 3
Ġà¸Ľà¸£à¸°à¹Ģà¸Ĺà¸¨ à¹Ģà¸¢à¸Ńà¸£à¸¡à¸Ļ
à¸ªà¸ł à¸²à¸§à¸°
à¸ģà¸° à¹Ģà¸«à¸£
ĠSt ud
à¸Ļà¸Ľà¸¥ à¸²à¸ªà¸§à¸¢à¸ĩà¸²à¸¡
à¸ļà¸Ńà¸Ļ à¹Ħà¸Ķ
à¸Ńà¸ªà¸²à¸¢ à¸Ī
à¸Ń à¹Ģà¸ķà¸£
à¸Ķ à¸²à¸Ħ
à¸Ĥà¸Ńà¸ĩ à¸Ħà¸¥
à¸ķà¸£ à¸ª
à¸²à¸ª à¸§
Ġà¸Ń à¸²à¸Ĭ
à¸Ļà¹ģà¸¥à¸° à¹Ģà¸Ľ
ation s
à¸§à¸Ħ à¸²à¸ªà¹Ģà¸ĭ
à¸Ń à¸Ļà¸ł
à¸Ķ à¹ĥà¸Ļà¸¢
à¸²à¸Ļ à¹ģà¸¥
à¹Ģà¸Ĥ à¸²à¸Ī
à¸ķà¸£ à¸Ħà¸Ļà¸Ĺ
Ġà¸¡ à¸°
Ġà¸ª à¸ĸà¸²à¸Ľ
à¸§à¸ĩ à¹Ĥà¸Ħà¸Īà¸£
à¸Ĺà¸ĺ à¸ª
à¹ĥà¸Ļà¸ģà¸²à¸£ à¸Ķà¸³à¹Ģà¸Ļ
à¸ľà¸¥ à¸Ľà¸£à¸°à¹Ĥà¸¢à¸Ĭà¸Ļ
à¸²à¸Ľ à¸²à¸£
à¸Ļà¸ªà¸¡ à¸ļ
ur a
à¸Ĵà¸Ļà¸ĺà¸£à¸£à¸¡ à¸Ĺ
Ġ à¸£à¸²à¸Ĭà¸Ńà¸²à¸ĵà¸²à¸Ī
à¸² à¹ĥà¸Ļà¸Ĭ
à¸ĩ à¹Ģà¸§à¸¥à¸ª
à¸¥ à¸²à¸Ļà¸Ļà¸Ĺ
à¸Ķ à¹Ģà¸Ħà¸£
à¸Ĭ à¹Ħà¸Ķ
à¸ŀà¸£à¸° à¹Ģà¸¢à¸²à¸§
Ġà¹Ĥà¸Ķà¸¢ à¸¡à¸²à¸ģ
à¹ģà¸ļà¸ļ à¸ķ
à¸ģà¸³ à¸Ļ
à¸Ľà¸£à¸°à¸ª à¸ļà¸ģ
à¹Ĥà¸Ľà¸£ à¹Ģà¸Īà¸ģà¸ķ
à¸Ńà¸³à¸Ļà¸²à¸Ī à¸Ĥà¸Ńà¸ĩ
à¸Ļà¹Ĥà¸Ķà¸¢ à¸¡
ang e
Ġà¸ļà¸Ĺ à¹Ĥà¸Ĺà¸£à¸Ĺ
Ġà¸ģà¸³à¸«à¸Ļà¸Ķ à¹ĥà¸«
à¸ģ à¹Ģà¸¢à¸²à¸§à¸Ĭ
à¸ļ à¸£à¸°à¸Ķ
à¸¨ à¸ķà¸§à¸£à¸£à¸©
à¸ł à¸²à¸Ļ
à¸Ļà¸ª à¹Ĥà¸¡à¸ªà¸£
à¸Ļà¸Ķ à¸²à¸¡
à¸Ļà¸Ń à¸²à¸ĵà¸²à¸Ī
à¸ļà¸ª à¸ĸà¸²à¸Ļ
ec tr
Ġà¹Ħ à¸Ĭ
à¹ĥà¸Ļà¸Ħ à¸ĵà¸°à¸ģà¸£à¸£à¸¡à¸ģà¸²à¸£
à¹ģà¸ĭ à¸Ļà¹Ħà¸Ĺà¸Ļ
à¸ĭà¸²à¸ģ à¸°
C T
Ġ à¹Ĥà¸¥à¸ģ
à¸Ń à¸Ńà¸Ķ
à¸§ à¸¥à¸³
à¸Ħà¸§à¸²à¸¡ à¹ģà¸Ĥ
à¸ļà¸ģà¸²à¸£ à¸Ľà¸£
à¸ªà¸²à¸¡à¸²à¸£à¸ĸ à¸Ħà¸§
à¹Ģà¸Ĥà¸² à¹Ģà¸Ĥ
à¹ģà¸¢à¸ģ à¹Ģà¸Ľ
à¸Ĺà¸³à¸¥à¸²à¸¢ à¸¥
à¹ģà¸® à¸¡
Ġà¹Ĥà¸Ľà¸£ à¸ķ
if e
à¸ĩ à¸Ľà¸£à¸°à¸ģà¸²à¸¨
à¸§ à¹Ģà¸ª
à¸ª à¸«à¸łà¸²à¸ŀ
à¸ļ à¸¡à¸²à¹ĥà¸Ĭ
à¸²à¸¢ à¸ģà¸§
à¸Ħà¸§à¸²à¸¡ à¸Ŀ
à¸ĩà¹ģà¸ķ à¸ģà¸ķ
à¸Ļà¹Ĥ à¸®
ic t
à¸Ńà¸ĩà¸ª à¸§
à¸Ļà¸Ħà¸§à¸²à¸¡ à¸ª
à¹Ĥà¸Ńà¸£à¸ª à¸²à¸ĺ
à¸ĩà¸ľà¸¥ à¸ķ
à¸Ń à¸ŀà¸¥
à¸¥ à¸«à¸Ļ
à¸ļ à¸Ļà¸ģ
à¸Ĥ à¸²à¸Ħà¸ĵ
à¸§à¸¡ à¹Ģà¸ŀà¸¨
à¹Ģà¸ļ à¸Ļ
à¹ĥà¸Ī à¸§
à¸¡à¸« à¸²à¸ģà¸£
ing s
Ġs h
à¸Ĥà¸Ńà¸ĩà¸ª à¸«à¸łà¸²à¸ŀà¹Ĥà¸ĭà¹Ģà¸§
Ġà¹ģ à¸ªà¸Ķ
à¸ŀà¸¥ à¸Ĥà¸Ńà¸ĩ
Ġà¹Ģà¸Ĥ à¸²à¸ģà¸¥
Ġà¸¢à¸ģ à¸ķ
Ġà¸ªà¸Ļà¸²à¸¡ à¸ģ
à¸Ļ à¸²à¸¨
à¸ķ à¹ģà¸¥
à¸ķ à¸ģà¸Ńà¸¢
à¸ĺ à¸§
à¸Ńà¸£ à¸ĸ
à¸ŀà¸£à¸° à¸£
à¸ĩà¸ª à¸ĸà¸²à¸ļ
à¸ģà¸©à¸² à¹ģà¸«
à¸Ļà¹Ĥ à¸Ńà¸¥
à¸²à¸ł à¸²
à¸¡à¸¡ à¸²à¸ª
à¸ĩà¹ĥà¸Ļ à¹Ģà¸£
à¸¡à¸²à¸ª à¹Ģà¸ķà¸Ńà¸£
à¸ĩà¸²à¸Ļà¸« à¸Ļ
à¸Ķ à¸«à¸¡
à¸Ķ à¸£à¸°à¸«à¸§
à¸ŀ à¸ģà¸¥
à¸²à¸§ à¸ģà¸£
à¸Ńà¸¡ à¹Ģà¸¡
à¸§à¸Ļ à¹Ģà¸ª
à¸¥à¸° à¸ģà¸¥
à¸łà¸²à¸© à¸²à¸į
ĠP art
à¸²à¹ģà¸¥à¸° à¸ª
à¸Ĺà¸«à¸²à¸£ à¹Ģà¸£
à¸ļà¸Ńà¸ģ à¹Ģà¸¥
à¸²à¸ı à¸¨
M S
à¸ĩ à¸ĩà¸²à¸Ļà¸ª
à¸Ńà¸¡ à¹Ģà¸ļ
à¸Īà¸° à¸Ĺ
à¸²à¸Ķ à¸°
à¸¥à¸° à¸§
à¸°à¹Ģà¸¥ à¸ªà¸²à¸ļ
ĠW rest
à¸ªà¸ł à¸ĵ
à¸¢à¸Ļà¸ª à¸§à¸Ļà¸ģ
à¹Ģà¸Ħà¸¡ à¸ļà¸£
u ch
Â Ń
à¸Ķ à¸ģà¸§
à¸Ī à¸Ļà¹Ħà¸Ķ
à¸Ļà¸Ĭ à¸¡
à¸Ĭà¸²à¸§ à¸®
Ġà¸Ħà¸§à¸²à¸¡ à¸ªà¸²à¸¡à¸²à¸£à¸ĸ
à¸ģà¸ŀ à¸²à¸ķ
à¸¤à¹ħ à¸©
Ã ¼
à¸Ļ à¸ģà¸£à¸ĵ
à¸ĩ à¸Ļà¸ģ
à¸§ à¸Ļà¸ĭ
à¸Ľ à¸Ĳ
à¸Ľ à¹Ĥà¸łà¸Ħ
à¹ĥà¸Ļ à¹Ģà¸Ļ
à¹Ĥà¸Ķ à¹Ģà¸Ļ
à¸ľà¸¥ à¹Ģà¸Ľ
Ġà¸ŀà¸£à¸° à¸ĺ
à¸ªà¸²à¸£ à¸°
à¸Ńà¸ģà¸²à¸£ à¹ĥà¸Ĭ
à¹Ģà¸§à¸ĵ à¸«à¸Ļ
à¸ªà¸²à¸¢ à¸ķ
à¸ģà¸²à¸£à¸Ľà¸ģà¸Ħà¸£à¸Ńà¸ĩ à¸Ĥ
Ġà¸Ľà¸£ à¸²à¹Ĥà¸¡
à¸Ļà¸Ĭà¸²à¸§ à¹Ħà¸Ĺà¸¢
á »
à¸ļ à¸Ħà¸Ļ
à¸Ħ à¸«à¸¥
à¸Ī à¸ªà¸¡à¸ļ
à¸Ĥà¸Ńà¸ĩ à¸Ħà¸ĵà¸°
à¸²à¸Ļ à¹ģà¸«
à¸ģà¸¥ à¸¢
à¸Ńà¸¡ à¸¥
à¸Ńà¸¥ à¹Ģà¸¥
à¸ĩà¸Ħ à¸ĩà¸£
à¸ĩà¸Ļ à¸²à¸¢
ro und
à¸£à¸£à¸ĵ à¸Ħà¸Ķ
à¸²à¸ĩà¸Ħà¸§à¸²à¸¡ à¹Ģà¸ª
à¸Īà¸ŀà¸£à¸°à¸ļà¸£à¸¡ à¹Ĥà¸Ńà¸£à¸ªà¸²à¸ĺ
à¸Ń à¸ķà¸£
à¸ģ à¸ĩà¸²à¸Ļà¸Ĺ
à¸° à¸ģà¸°
à¸Ľ à¸²à¸¥
à¸²à¸§ à¸²
à¹Ĥà¸Ķà¸¢ à¸ķ
Ġà¸£ à¸²à¸Ħ
en a
à¸²à¸Ĥ à¸²à¸Ķ
Ġà¸Ĺà¸³ à¸ĩà¸²à¸Ļ
à¸ģà¸©à¸² à¹Ģà¸ŀ
Ġ6 8
à¹Ĥà¸Ħ à¸Ī
à¸²à¸Ľà¸£à¸° à¹Ģà¸łà¸Ĺ
Ġà¹Ģà¸§ à¸Ĭà¸Ĭà¸²à¸Ĭ
à¸ķà¸³à¸£à¸§à¸Ī à¹Ģà¸Ńà¸ģ
à¸ķà¸£à¸ģà¸£à¸£à¸¡ à¸Ŀà¸²à¸ľà¸Ļ
à¸« à¸ģ
à¸ĸ à¸¥
à¹Ħà¸Ľ à¹ĥà¸Ļà¸Ĺ
Ġà¹Ĥ à¸¢à¸Ĭ
ĠâĢ ĭ
à¸ĩà¸ªà¸Ńà¸ĩ à¹Ħà¸Ķ
Ġ197 1
Ġ197 6
à¸Ń à¹Ģà¸§
à¸ĩ à¸ĺ
à¸« à¸¢à¸ģ
à¸¢à¸§ à¹ģà¸¥à¸°
à¹ĥà¸Ļà¸ģà¸²à¸£ à¸§
à¸ļà¸Ĺ à¸§
ec hn
à¸£à¸°à¸ļà¸ļ à¸Ĺ
à¸²à¸Īà¸° à¹ĥà¸Ĭ
à¸ĩà¸ģà¸£à¸° à¸Ļ
à¸ģ à¹Ĥà¸¢à¸ĺ
à¸§ à¹Ģà¸Ń
à¸Ĺ à¸ļ
à¸Ī à¹ģà¸¥à¸°à¸ª
à¹Ħ à¸ļà¸£à¸Ń
à¸²à¸¢ à¸²à¸§
à¸į à¸Ķ
à¸²à¸Ĭ à¸²à¸Ķ
à¸Ħà¸§à¸²à¸¡ à¸Ĭà¸Ńà¸ļ
à¸ĩà¸ª à¸²à¸¢
à¸Ļà¸ĺ à¸°
à¸ĩà¸ģà¸²à¸£ à¹ģà¸Ĥ
à¸Ńà¸ģà¸²à¸£ à¸¨
Ġà¸Ħà¸§à¸²à¸¡ à¸ķ
20 12
à¸Ľà¸°à¸Ĺ à¸°à¸ģ
Ġà¹Ģà¸¨à¸£à¸©à¸Ĳ à¸ģ
b it
à¸ĩ à¹ģà¸Ĥ
à¸§ à¹Ĩ
à¸Ħ à¸²à¹Ĥà¸ģ
à¸²à¸ģ à¸£à¸°à¸Ķ
à¸¢à¸§ à¸Ķà¸¢
à¸Ńà¸ª à¹Ģà¸Ļ
Ġ6 2
Ġ6 6
Ġà¹Ħ à¸ļà¸£à¸Ń
à¸ĩà¸¨ à¸²à¸¥
Ġf l
à¸Ĺà¸³à¸ĩà¸²à¸Ļ à¸ģ
à¸ļà¸²à¸¢ à¸ĸ
Ġ196 4
à¸ŀà¸£à¸°à¸ª à¸§à¸²à¸¡
à¸Ļ à¹ĥà¸Ļà¸Ķ
à¸Ńà¸ĩ à¹ģà¸¡
Ġà¹ģà¸¥à¸° à¹Ĥà¸£à¸ĩà¹Ģà¸£
à¸ģà¸£ à¸²à¸Ļà¸Ĥà¸Ńà¸ĩ
à¸ŀà¸£à¸° à¸ķà¸³à¸«à¸Ļ
à¸Ľà¸£ à¸²à¸ģà¸£
à¹ģà¸ļà¸ļ à¸¡
à¸ļà¸ģà¸²à¸£ à¸Ĥ
Ġ6 7
à¸Īà¸²à¸£à¸ĵ à¸²à¸Ħà¸Ķ
à¸Ľà¸²à¸ģ à¹ģà¸¡
à¸ĩà¸ªà¸²à¸¡à¸²à¸£à¸ĸ à¹ĥà¸Ĭ
à¸Ļà¸łà¸²à¸Ħ à¹ĥà¸ķ
à¹ ĵ
à¸Ļ à¹ĥà¸Ļà¸Ľà¸£à¸°à¹Ģà¸Ĺà¸¨
à¸Ń à¹Ģà¸ªà¸£
à¸ª à¸ĩà¸ª
à¹ĥà¸Ļ à¹Ħà¸Ĺà¸¢
à¸Ńà¸ģ à¸Ĭ
à¸Ńà¸Ļ à¸ģà¸²à¸£
à¸²à¸ª à¸Ĺ
à¸Ļà¸¡ à¸£à¸Ķà¸ģà¹Ĥà¸¥à¸ģ
Ġà¸ķà¸²à¸£ à¸²à¸ĩ
à¸Ļà¹ģà¸Ļà¸§ à¸Ħ
à¸Ľà¸£à¸°à¸¡à¸§à¸¥ à¸ģà¸İà¸«à¸¡à¸²à¸¢
à¸¢à¸ĵ à¸Ńà¸²à¸¢
y a
à¸Ļ à¹Ĥà¸Ń
à¸ķ à¸Ľ
à¸Ī à¹Ģà¸¡
à¹Ĥ à¸Ļà¸ĭ
à¸£à¸²à¸Ĭ à¸ªà¸ģ
à¸Ńà¸ª à¸ĩà¸Ħà¸£à¸²à¸¡
à¸¡à¸« à¸²à¸Ļ
ĠP e
ur al
à¸ĩà¸ĩà¸²à¸Ļ à¸Ļ
à¹Ĥà¸® à¸¥
Ġ196 8
à¸²à¸Ļà¸ł à¸²à¸©
à¸²à¸¢à¸Ĺà¸Ńà¸Ķ à¸ªà¸Ķ
à¸Ļ à¸£à¸²à¸Ĭà¸Ńà¸²à¸ĵà¸²à¸Ī
à¸¡ à¸ĺ
à¸¡ à¸Īà¸°à¸ķ
à¸ļ à¸īà¸²à¸¢à¸²à¸§
à¸²à¸¢ à¹ĥà¸Ī
à¸Ĺà¸³ à¸Ĺ
Ġà¸Ľà¸£à¸°à¹Ģà¸Ĺà¸¨ à¹Ģà¸ģà¸²à¸«à¸¥
à¸²à¹ģ à¸ĭ
Ġ248 3
Ġà¸ģà¸£à¸¡ à¸ŀà¸£à¸°
i us
à¸¡ à¸Ħà¸¥
à¹Ħ à¸Ńà¸ŀ
à¸Ĭ à¸²à¸Ń
à¸²à¸ĩ à¹ģà¸«
à¹Ģà¸¡ à¸ķà¸ķ
à¸ģà¸§ à¸²à¸ĩ
à¸ĩà¸ģ à¸£à¸°à¸Ķ
à¸¥à¸° à¹Ģà¸¥
à¸¢à¸° à¸®
à¸ģà¸ģ à¸°
à¸²à¸Īà¸° à¹Ģà¸ģ
à¸ªà¸Ńà¸ĩ à¸ķ
Ġ13 0
à¸Ķà¸¥ à¸ŀà¸ļ
u z
à¸ģ à¸¤à¸©
à¸Ķ à¹Ģà¸¥à¸¢
à¸ŀ à¸Ķ
Ġà¸Ń à¸Ńà¸Ł
à¸Ńà¸Ķ à¸Ķà¸³
à¹Ģà¸ŀà¸¥à¸ĩ à¸®
à¸ģà¸ĩà¸²à¸Ļ à¹Ģà¸Ĥà¸ķà¸ŀ
à¸įà¸Ĭà¸²à¸ģà¸²à¸£ à¸ķà¸³à¸£à¸§à¸Ī
E N
à¸² à¹Ģà¸«
à¸§ à¸Ļà¸«à¸¥
à¸ŀ à¸ļà¸ļ
à¸²à¸¢ à¹ĥà¸Ļà¸£
à¹ģà¸¥à¸° à¹ģà¸¡
à¸į à¸¡à¸ĵ
à¹Ģà¸ļ à¸ģ
à¸Ļà¸ģà¸²à¸£ à¸¢
à¸Ļà¸ī à¸²à¸ģ
à¸Ļ à¹Ħà¸ĭ
à¸Ĺ à¸°à¸¥
à¸Ħ à¹Ģà¸Ħ
à¹Ģà¸£ à¸Ļà¸ĭ
à¸Ļà¸¡ à¸²à¸Ĺ
à¸«à¸²à¸£ à¸ŀà¸£à¸£à¸Ħ
à¸ļà¸Ħà¸§à¸²à¸¡ à¸¥
à¸Ľà¸£à¸°à¸Īà¸³ à¸ģà¸²à¸£
à¸ªà¸° à¸ģà¸Ķ
à¸Ļà¸Ħà¸§à¸²à¸¡ à¸Ħ
Ġà¸ŀà¸£à¸°à¸ļà¸£à¸¡à¸£à¸²à¸Ĭ à¸Ĭà¸Ļà¸Ļ
à¹ Ķ
à¸Ńà¸ĩ à¹ĥà¸Ļà¸§
à¸Ļà¸ķ à¸Ńà¸Ļà¸Ĺ
à¸Ļà¸ģà¸²à¸£ à¹Ĥà¸Ķà¸¢
à¹ĥà¸Ļà¸ª à¸Ļà¸ĺ
Ġ7 7
à¸ªà¸²à¸£ à¹Ģà¸Ħà¸¡
à¸Ĳà¸ļà¸²à¸¥ à¸Ī
à¸²à¸ī à¸²à¸¢
à¸Ļ à¹ĥà¸ģà¸¥
à¸ģ à¹ģà¸ªà¸Ķà¸ĩà¸Ĺ
à¸Ńà¸ĩ à¹ģà¸£
à¹Ģà¸¥ à¹Ĥà¸Ń
à¸ķà¸£ à¸ĩà¸Ĺ
à¸Ļà¸¡ à¸²à¸ķà¸£
à¸Ľà¸¥ à¸²à¸Ĺ
à¸ĩà¸ģà¸²à¸£ à¸Ĺ
à¸¢à¸° à¸«
à¸£à¸°à¸¢à¸° à¸ª
à¸Ľà¸£à¸°à¸Īà¸³ à¸ªà¸³à¸Ļ
à¸²à¸ī à¸¥à¸²à¸¡
à¹Ĥà¸ķà¸£ à¹Ģà¸¥
. /
o ver
Ĩ Ĵ
à¸° à¸¡à¸°
à¸ļ à¸Ĭà¸²à¸¢
à¸ªà¸¡ à¸¡
à¸¢à¸Ļ à¹ģà¸«
à¸Ļà¸ĺ à¸ª
à¸Ļà¸Ĺà¸²à¸ĩ à¹Ģà¸Ķ
à¸ĩà¸£ à¸Ńà¸ĩ
à¸Ļà¹ģà¸¥à¸° à¸ķ
ĠB ro
à¸£à¸°à¸ļ à¸²à¸¢
à¸ĩà¸¨ à¸²à¸§à¸Ķà¸²à¸£
à¸ģà¸²à¸¢ à¹Ĥà¸£à¸¡
à¸ĩà¸Ĺà¸²à¸ĩ à¸ģà¸²à¸£à¹Ģà¸¡
ĠY ear
Ġà¹ĥà¸Ļà¸ł à¸²à¸Ħ
ens is
à¸« à¸¤à¸Ĺ
à¸ŀ à¸²à¸ģà¸¢
à¹Ħà¸Ľ à¸Ĺà¸²à¸ĩà¸Ĺ
à¸Īà¸° à¸ľ
Ġà¸ģ à¸£à¸°à¸ļà¸§à¸Ļ
à¹ģà¸£à¸ģ à¹Ģà¸£
à¸Ńà¸ĩà¸ª à¸ĩà¸ª
à¸¡à¸Ń à¸²à¸Ĭ
oy al
à¸ķà¸£à¸° à¹Ģà¸§
à¸ĩ à¸łà¸²à¸¢à¸«à¸¥
à¸Ļà¸Ķ à¸Ńà¸£
à¸ĩà¸ª à¸ĸà¸²à¸Ļà¸Ĺ
ĠA ir
à¸¬ à¸²à¸Ł
Ġà¸Ľà¸£à¸°à¹Ģà¸Ĺà¸¨ à¸Ĺ
Ġ197 7
S c
à¸Ī à¹ĥà¸Ļà¸ģà¸²à¸£
à¸²à¸§ à¸ĩà¸ģà¸²à¸£
à¸Īà¸²à¸ģ à¹Ģà¸£
à¸ģà¸© à¸²à¸Ľà¸£
ĠM ic
à¸Ńà¸¡à¹Ĥ à¸¢à¸ĩà¸ģ
k a
Ġ li
à¸² à¹ĥà¸«à¸į
à¸ģ à¹Ģà¸«
à¸ģ à¸ŀà¸£à¸°à¸Ńà¸ĩà¸Ħ
à¸ļ à¸²à¸Ľ
à¸Ī à¸²à¸ĩ
à¸Ľ à¸ľ
à¸ĩà¸ª à¸£à¸£à¸Ħ
à¸Ľà¸£à¸°à¹Ģà¸Ĺà¸¨ à¹Ģà¸ģà¸²à¸«à¸¥
Ġà¹Ĥ à¸ļ
à¸¨à¸²à¸ª à¸Ļà¸¨à¸²à¸ªà¸ķà¸£
à¸Ļà¸£ à¸²à¸§
à¹Ģà¸§à¸¥ à¸²à¸ª
à¸²à¹Ĥ à¸®
à¸ķà¸¥à¸Ńà¸Ķ à¸Ĭ
à¸ķà¸²à¸£ à¸²à¸ĩ
à¸Ńà¸ªà¸²à¸¢ à¸¡à¸²à¸Īà¸²à¸ģ
à¸ĩà¹Ģà¸ģà¸ķ à¹Ħà¸Ķ
à¹Ģà¸Łà¸£ à¹Ģà¸Ķà¸Ńà¸£
Ġ à¸«à¸¡à¸²à¸¢à¹Ģà¸¥à¸Ĥ
à¸§ à¸ģà¸£à¸°à¸ķ
à¸Ľ à¸²
à¸Ĭ à¹Ģà¸Ľ
à¸²à¸ĩ à¸Ľà¸£à¸°à¸¡à¸²à¸ĵ
à¸²à¸ĩ à¸ªà¸³à¸Ħ
à¸Ńà¸Ļ à¹Ģà¸«à¸Ļ
à¸ķà¸£ à¸ķ
à¸µà¹ī ,
à¸Ĺà¸ĺ à¹Ģà¸¥
à¸Ĺà¸£ à¸ªà¸²à¸Ħà¸£
Ġà¹Ģà¸Ĥ à¸²à¹Ģà¸Ĥ
à¸ŀà¸§à¸ģ à¹Ģà¸Ĥà¸²à¸ģ
à¸²à¸Ľà¸£à¸° à¸§
20 10
à¸Ńà¸Ļà¸Īà¸° à¸¡
g en
Ġ ti
à¸Ķ à¹Ģà¸ªà¸£
à¸Ķ à¹ĥà¸Ļà¸Ľà¸£à¸°à¹Ģà¸Ĺà¸¨
à¸²à¸£ à¸²à¸ĩà¸§
à¹Ģà¸Ĥ à¸²à¸Ńà¸¢
à¹Ģà¸ĭ à¸¡
à¸ģà¸£à¸° à¸Ļ
à¸¨à¸²à¸ª à¸Ļà¸Ī
Ġà¸ļ à¸Ńà¸£
à¸Ļà¸²à¸ĩ à¹Ģà¸ĺà¸Ń
à¸ļà¸ļà¸Ĺ à¸ļà¸²à¸Ĺ
à¸§à¸²à¸£ à¸ªà¸²à¸£
à¸Ńà¸Ńà¸ģà¸ĭ à¸Łà¸Ńà¸£
à¹ģ à¸Ĭà¸£
à¸²à¸ł à¸²à¸¢à¸«à¸¥
Ġà¸Ľà¸£à¸° à¸Ĺ
à¸ģà¸Ĥà¸Ńà¸ĩ à¸Ĺ
à¸ĩà¹Ģà¸Ĺ à¸£à¸²
ï ¼
à¸¢ à¸²à¸ķ
à¸¢ à¹Ģà¸ĭ
à¸ļ à¹ģà¸£à¸ĩ
à¹ģ à¸¢à¸°
à¸Ħ à¸²à¸Ļ
à¸Ħ à¸²à¸ĸ
à¸«à¸¥ à¹Ĥà¸¢à¸ĺ
à¸¢à¸Ļ à¸²à¸Ĺ
à¹ĥà¸Ļà¸ª à¸ĩà¸Ħà¸£à¸²à¸¡à¹Ĥà¸¥à¸ģà¸Ħà¸£
à¹Ģà¸Ħà¸¢ à¹ĥà¸Ĭ
à¸ģà¸©à¸£ à¸Ĺ
à¹Ħà¸Ń à¹Ģà¸Ń
à¸¢à¸Ļà¸Ļ à¸²
Ġ z
à¸ĩ à¹Ħà¸Ł
à¸¡ à¹Ģà¸Ī
à¸¢ à¹Ģà¸¥
à¸²à¸Ļ à¸ģà¸§
à¸²à¸Ļ à¹ĥà¸ķ
à¸į à¸Īà¸£
à¸§à¸¢ à¸Ĺà¸«à¸²à¸£
Ġà¸ķ à¸¥à¸²à¸Ķ
à¸§à¸Ļ à¹ģà¸ķ
à¸ĩà¸¡ à¸Ļ
à¹ģà¸£à¸ģ à¸Ħ
à¸ŀà¸¥ à¸Ĺ
à¸Ńà¹Ģà¸Ľ à¸£
à¸Ńà¸ĩà¸£ à¸Ńà¸¢
à¸«à¸²à¸¢ à¸²à¸ģ
à¸²à¸Ļà¸ļ à¸Ļ
à¸Ńà¸²à¸Ĭ à¸įà¸²à¸ģà¸£à¸£à¸¡
Ġ197 3
à¸£à¸²à¸¡ à¸²à¸ĺ
à¹Ħà¸ŀ à¸¨à¸²à¸¥
Ġà¹Ģà¸ī à¸ŀà¸²à¸°
à¸Ļ à¹ĥà¸Ļà¸ļà¸£
à¸ģ à¹ĥà¸«à¸į
à¸ļ à¸Īà¸³à¸Ļà¸§
à¹ĥà¸Ļ à¹Ģà¸«à¸ķ
à¸į à¸Ĥ
Ġà¸Ĥà¸Ńà¸ĩ à¸Ľà¸£à¸°à¹Ģà¸Ĺà¸¨à¹Ħà¸Ĺà¸¢
à¸²à¸ĩà¸ģ à¸İà¸«à¸¡à¸²à¸¢
à¸²à¸Ľà¸£à¸° à¸¢
à¸Ńà¸Ĥ à¸²à¸¢
à¸Ļà¸Ħà¸§à¸²à¸¡ à¸ĸ
à¸ĩà¹ĥà¸Ī à¸Ĺ
à¸Ļà¸«à¸¡à¸²à¸¢ à¸ĸ
à¸§ à¸Ľà¸£à¸°à¸ģà¸Ńà¸ļ
à¸Ĥà¸Ńà¸ĩ à¸ł
Ġà¹ģà¸¥à¸° à¹ģà¸ķ
à¸Ħà¸§à¸²à¸¡ à¸ŀà¸£
à¸Ļà¸ª à¹Ĥà¸¡à¸ªà¸£à¸Ł
à¸Ĺà¸³ à¸Ń
à¸²à¸Ķ à¸³à¸£à¸ĩ
à¸¢à¸Ļ à¸£à¸°à¸Ķ
à¸ªà¸²à¸£ à¸ŀ
ĠB o
à¹Ģà¸ŀà¸¨ à¹Ģà¸¡
Ġ as
Ġ à¹ĥà¸Ħà¸£
à¸¡ à¸Ķà¸³à¹Ģà¸Ļ
Ġà¹ģà¸¥à¸° à¹ĥà¸Ļà¹Ģà¸Ķ
à¸Ļà¸ķ à¸²à¸¢
à¸Īà¸° à¸Ĺà¸£à¸ĩ
à¸§à¸ĩ à¸ļ
à¸²à¸ķ à¸³à¹ģà¸«à¸Ļ
à¹ĥà¸Ļà¸ģà¸²à¸£ à¹Ģà¸£
à¸ļà¸ģà¸²à¸£ à¸ªà¸£
à¸ı à¸Ī
à¸²à¸ģà¸²à¸£ à¸£
Ġà¸Īà¸²à¸ģ à¸ģà¸²à¸£à¸Ī
à¸¢à¸ļ à¹Ģà¸ªà¸¡
à¸Ńà¸Ľ à¸²à¸ģ
à¸Ļà¹Ĥ à¸Ļ
à¹Ĥà¸Ī à¸Ĺà¸¢
Ġ17 0
à¸²à¹ĥà¸Ī à¸ģ
ra in
Ġà¹ģà¸ľ à¸Ļà¸ģ
à¹Ĥà¸Ķà¸¢à¹Ģà¸īà¸ŀà¸²à¸° à¸Ńà¸¢
à¸Ļà¸ģà¸£à¸° à¸Ī
A c
Ġ à¸«à¸¡à¸²à¸¢à¸Ħà¸§à¸²à¸¡à¸§
à¹Ħ à¸Ļ
à¸ģà¸£ à¸§à¸¢
à¸Īà¸²à¸ģ à¸«à¸Ļ
à¹Ģà¸§ à¸¨à¸§
à¸Ļà¸Ħ à¸Ļà¸£
à¸Ļà¸³ à¸ķ
Ġà¸ģà¸²à¸£ à¸¢
à¸©à¸¢ à¸Ĭà¸Ļ
à¸Ķà¸£ à¸²à¸ģ
ĠF ran
à¸²à¹ģ à¸£
à¸Ľà¸£à¸°à¸Īà¸³ à¸Ī
à¹ģà¸Ł à¸Ļà¸Ħà¸¥
à¸ģà¸£à¸°à¸Ī à¸ģ
Ġ246 0
Ġà¹Ģ à¸Ńà¸£
à¸ķà¸Ńà¸ļà¸ªà¸Ļ à¸Ńà¸ĩà¸ķ
à¸§ à¸Īà¸°à¸¡
à¸Ķ à¹Ģà¸«à¸Ļ
à¹ģ à¸§à¸ģ
à¹ģà¸¥à¸° à¸Ĺà¸³à¹ĥà¸«
Ġà¹ģà¸¥à¸° à¸®
à¸²à¸§ à¸Ĥà¸Ńà¸ĩ
à¹Ģà¸Ī à¸Ń
à¸ŀà¸£à¸£ à¸Ħà¸£
ĠA ng
à¸ļà¸Ń à¸²à¸«à¸²à¸£
à¸§à¹Ħà¸Ľ à¸¡
ĠD r
ĠD es
à¹ģà¸Ķ à¸ĩà¸Ĺ
à¸¢à¸Ĥà¸Ńà¸ĩ à¸ŀà¸£à¸°à¸Ńà¸ĩà¸Ħ
Ġà¸ŀà¸£à¸°à¸£à¸²à¸Ĭ à¸ĺ
à¸Ļà¸Ĭà¸²à¸§ à¸Ī
à¸Ķà¸²à¸Ĥà¸Ńà¸ĩ à¸ŀà¸£à¸°à¸Ńà¸ĩà¸Ħ
à¸ģ à¸Ĭà¸Ļà¸°
à¸Ħ à¹Ģà¸ģ
à¸²à¸ĩ à¹ĥà¸Ļà¸Ľ
à¹Ħà¸Ľ à¹Ģà¸¥
Ġà¹Ĥà¸Ķà¸¢ à¹Ģà¸¥
à¸£à¸ģ à¸ķ
à¹ĥà¸Ļà¸ģà¸²à¸£ à¸Ľà¸£à¸°à¸Ĭ
à¸Ķà¸ª à¸£à¸°
Ġà¸Ĥà¸Ńà¸ĩ à¸ŀ
à¹Ģà¸ĺà¸Ń à¹Ħà¸¡
à¸ĩà¸Īà¸° à¸Ĺà¸³à¹ĥà¸«
à¸¥à¸Ľà¸° à¸ģà¸²à¸£à¸ķ
à¸Ķà¸²à¸£ à¸²à¸Ī
à¸¢ à¹Ĥà¸¥à¸ģ
à¸§ à¹Ĥ
à¸ķ à¹ģà¸ļà¸ļ
à¸ŀ à¸Ĭ
à¹Ĥ à¸ļà¸Ļ
à¸Ĭ à¸§à¸¥
à¸ģà¸²à¸£ à¸£à¸§à¸¡
à¸ŀà¸£à¸° à¸ļà¸²à¸ĩ
Ġà¹ģ à¸£à¸¡
à¹Ģà¸ķ à¸Ļ
à¸Ļà¸Ĺà¸²à¸ĩ à¸ľ
à¸įà¸į à¸²à¸Ķ
à¸Ńà¸Ĥà¸Ńà¸ĩ à¹Ģà¸Ĥà¸²
Ġà¸Ĭà¸²à¸§ à¸Ń
à¸ŀà¸£à¸°à¸£à¸²à¸Ĭà¸Ĺà¸²à¸Ļ à¹Ģà¸ŀà¸¥
à¸ķà¸£à¸° à¸«à¸Ļ
à¸ļà¹Ģà¸Ĥà¸ķ à¸ģà¸²à¸£à¸Ľà¸ģà¸Ħà¸£à¸Ńà¸ĩà¸Ĥ
à¸¬à¸²à¹Ĥà¸¥à¸ģ à¸¡à¸«à¸²à¸£à¸²à¸Ĭ
S O
Ġ æ
à¸Ļ à¹Ħà¸Ł
à¸£ à¸§à¸ĩà¸¨
à¸Ĭ à¸ģà¸£à¸£à¸¡
à¸²à¸Ļà¸ ®
à¸ĩà¸Ĥà¸Ńà¸ĩ à¸ª
à¸Īà¸ŀà¸£à¸° à¸ļà¸£à¸¡à¸£à¸²à¸Ĭ
à¸£à¸°à¸ļà¸ļ à¸Ľà¸£à¸°à¸ªà¸²à¸Ĺ
ap an
à¸Ľà¸£à¸²à¸¨ à¸Īà¸²à¸ģ
à¸ģ à¹ģà¸Ĺ
à¸ļ à¹ģà¸ª
à¸ģà¸²à¸£ à¸Ĥà¸¢à¸²à¸¢
à¸ģà¸²à¸£ à¸Ľà¸£à¸°à¸ģà¸§
à¸²à¸ĩ à¹Ħà¸Ľà¸Īà¸²à¸ģ
à¹Ģà¸£ à¸ģ
à¸²à¸§ à¸²à¸£
à¸¢à¸ĩ à¸«
Ġ5 9
à¸¥à¸Ķ à¸Ńà¸£
à¸ªà¸Ńà¸ĩ à¸Ĭ
as on
ĠW e
à¸¡à¸£ à¸ª
Ġà¹Ĥà¸ĭ à¸Ļ
à¸Ļ à¹ĥà¸Ļà¸ŀ
Ġà¹ģà¸¥à¸° à¸Ńà¸ĩà¸Ħ
à¸į à¹Ģà¸£
à¸Ńà¸ģ à¸¥à¸Ńà¸ĩ
à¸Ńà¸Ļ à¹ĥà¸Ī
à¹Ģà¸ĭ à¸ģ
à¸Ńà¸²à¸Ī à¸ĸ
Ġà¹Ģà¸ŀà¸£à¸²à¸° à¹Ħà¸¡
à¹Ģà¸Īà¸£ à¸Īà¸²à¸ģ
à¸łà¸²à¸©à¸²à¸Ń à¸²à¸«à¸£
og rap
à¸Ļà¸ķà¸°à¸Ľà¸²à¸Ľ à¸²
ã Ģ
à¸ķ à¸°à¸ģ
à¸¨ à¸«à¸¥
à¸Ħà¸£ à¹Ģà¸Ĥ
à¹Ħà¸Ľ à¹Ģà¸¡
à¸Ńà¸ļ à¸£à¸£à¸Ĺ
à¹Ģà¸§ à¸Ł
Ġà¹Ĥà¸Ķà¸¢ à¸ļ
à¸Ńà¸Ńà¸ģ à¸Ļà¸Ńà¸ģ
à¸ĩà¸Ħ à¸ĵà¸°à¸ģà¸£à¸£à¸¡à¸ģà¸²à¸£
à¸Ľà¸¥ à¸Ńà¸¡
à¸Ļà¹Ģà¸Ķ à¸Ńà¸°
at s
le d
à¸§à¸²à¸ĩ à¸Ĥà¸²à¸¢
à¹Į) ,
à¸¡à¸£ à¸ĵà¸°
à¸²à¹Ģà¸Ī à¸¡à¸ª
à¸ķà¸ĭ à¸Ńà¸¥
à¹ģà¸ĸà¸¥à¸ĩ à¸ģà¸²à¸£à¸ĵ
à¸° à¹Ģà¸Ľ
à¹Ģà¸Ĺ à¸¥
Ġà¸Ń à¸§à¸Ńà¸£
à¸£à¸²à¸Ĭ à¸²à¸ł
à¸¡à¸²à¸ģ à¸¢
er g
à¸ģà¸ª à¸²à¸ģà¸¥
Ġà¸ķà¸³à¸ļà¸¥ à¸Ĺ
ubl ic
Ġ à¸£à¸°à¹Ģà¸ļ
à¸Ń à¸łà¸²à¸ŀà¸¢à¸Ļà¸ķà¸£
à¸²à¸§ à¹Ģà¸Ĥ
à¸²à¸§ à¹Ĥà¸ŀ
Ġà¸ģ à¸²à¸¥
à¸Ĺà¸£à¸ĩ à¸Ń
à¸Ķà¸Ļ à¸²à¸ĩ
ĠD o
à¸£à¸²à¸¢à¸ģà¸²à¸£ à¸Ļ
à¹Ĥà¸Ĭ à¸ĭ
à¸Ĭ à¸²à¸Ĥà¸Ńà¸ĩ
à¸²à¸ĩ à¸¥à¸°à¹Ģà¸Ń
à¸ĸ à¸ģà¹Ģà¸ĸ
à¹Ģà¸Ĥ à¸²à¸ŀ
à¸«à¸§ à¸²à¸Ķ
à¸Ļà¸Ń à¸²à¸ģà¸²à¸¨
Ġà¹Ģà¸Ĥ à¸²à¸£
à¹Ģà¸§à¸ĵ à¸£
à¸ģà¸³à¸«à¸Ļà¸Ķ à¸§
à¸²à¸ĩà¸Ľà¸£à¸°à¹Ģà¸Ĺà¸¨ à¸Ĺ
à¸Ńà¸Ħà¸§à¸²à¸¡ à¸Ĺ
à¸ªà¸²à¸§ à¹Ĩ
à¸Ļà¸²à¸ĸ à¸§
à¸£à¸°à¸Ļ à¸²à¸ļ
Ġ à¸ĩà¸²à¸Ļà¸§
à¸Ļ à¹Ģà¸«à¸¢
à¸ķ à¹Ģà¸ŀà¸¥à¸ĩ
à¹Ĥ à¸Ħà¸§
Ġà¸ŀ à¸Ļ
à¸Ļà¸Ń à¸ĺ
à¸ķà¸²à¸¡ à¸¡à¸²
à¹Ĥà¸£ à¹Ģà¸Ľ
à¸įà¸į à¸²à¹Ģà¸Ľ
à¸ĩà¸Īà¸²à¸ģ à¸Ī
à¸ļà¸Ħ à¸°à¹ģà¸Ļà¸Ļ
ĠA nd
à¹Ĥà¸Ĺà¸£ à¹Ģà¸¥à¸Ĥ
à¹Ħà¸ļ à¹ģà¸ĭà¸Ļà¹Ħà¸Ĺà¸Ļ
à¸¥à¸²à¸Ńà¸Ńà¸ģà¸Īà¸²à¸ģ à¸ķà¸³à¹ģà¸«à¸Ļ
" (
à¸ĩ à¸ªà¸¡à¹Ģà¸Ķ
à¹Ħ à¸Ńà¸§
à¹Ħ à¸ŀà¸ļ
à¹ģà¸¥à¸° à¹Ģà¸Ĭ
à¸ķà¸£ à¸²à¸¢à¸ģà¸²à¸£
à¸²à¸Ķ à¸²à¸£
à¸Ļà¹ģ à¸Ķà¸ĩ
à¸ªà¸²à¸¡à¸²à¸£à¸ĸ à¸¡
à¸ģà¸Ķ à¸²à¸«à¸²à¸£
à¸Ļà¸ĭ à¸²à¸ģ
à¸ªà¸²à¸£ à¸Ļ
à¸ļà¸£à¸¡ à¸§à¸ĩà¸¨à¸²à¸Ļ
Ġà¸ªà¸²à¸Ĥ à¸²à¸Ļ
T S
à¸¢ à¸Ļà¸łà¸²à¸©
à¸§ à¹Ħà¸«à¸¥
à¸²à¸ļ à¸²à¸ĩà¸ª
à¹Ĥà¸¡ à¹Ģà¸Ķà¸¥
à¸£à¸²à¸¢ à¸§
à¸Ļà¸Ľà¸£à¸° à¹Ģà¸Ķ
à¸Ļà¹Ħà¸Ľ à¸ĸ
à¸ĩà¹ĥà¸Ļ à¹Ģà¸¡
à¹ĥà¸Ļà¸ł à¸²à¸§à¸°
à¹Ģà¸ģà¸²à¸° à¸Ļ
à¸Ń à¸²à¸ĭ
à¸¡ à¹Ħà¸§
à¸¡ à¹Ģà¸ĩ
à¸Ī à¸ĩà¸£
à¸Ńà¸¢ à¸Ńà¸¢
à¹ĥà¸Ļ à¸¥à¸³à¸Ķ
Ġà¹ģà¸¥à¸° à¸Ħà¸ĵà¸°
à¸ŀà¸£à¸° à¸Īà¸Ńà¸¡à¹Ģà¸ģà¸¥
à¸Ńà¸ļ à¸ķ
à¸²à¸ķ à¸²
à¹Ģà¸Ħ à¸§
à¸Ľà¸£ à¸²à¸ĩà¸Ħ
à¹Ģà¸ģà¸²à¸° à¸Ń
à¸¥à¸ĩà¸Ĺ à¸°à¹Ģà¸ļ
à¸Ķà¹ģà¸Ľà¸¥à¸ĩ à¹Ģà¸Ľ
F C
Ù Ħ
à¸¢ à¸²à¸£
à¹Ĥà¸Ķà¸¢ à¸Ī
à¹Ģà¸Ĺ à¸Ľ
à¸§à¸¢ à¹Ħà¸Ķ
à¸Ńà¸ļ à¸Ħ
à¸Ĳ à¸Ľà¸£à¸°
à¸ªà¸¡ à¸²à¸£
à¸ªà¸ķ à¸²à¸Ł
à¸ªà¸²à¸¡à¸²à¸£à¸ĸ à¸Ĺà¸³à¹ĥà¸«
Ġà¹Ģà¸Ĭ à¸Ńà¸£
à¸Ľà¸£à¸°à¸Ĭ à¸²à¸Ļ
ĠS ystem
Ġà¸Ł à¸²à¸£
à¸²à¸Ļà¸« à¸¡
Ġ194 3
à¸ļà¸Ńà¸Ļà¹Ħà¸Ķ à¸Ńà¸Ńà¸ģà¹Ħà¸ĭà¸Ķ
à¸ģ à¸Ĺà¸³
à¸Ħ à¸Ńà¸Ł
à¸§à¸¢ à¹Ģà¸ĩ
à¸Ĺà¸²à¸ĩ à¸ģ
or th
ĠC D
à¸¥à¸°à¸Ħà¸£ à¸Ĺ
Ġ248 7
à¸Ľà¸£à¸°à¸¡ à¸ĩ
à¹Ģà¸§à¸Ĭ à¸¨à¸²à¸ªà¸ķà¸£
à¸Ľà¸£à¸¡ à¸²à¸ł
à¸ĩà¸²à¸Ļà¸ŀ à¸£à¸°
à¸Ń à¹Ĩ
à¸Ń à¹ģà¸Ĺ
à¸Ńà¸Ļ à¹ĥà¸Ļ
à¸Ļà¸Ħ à¸ĩà¹ģà¸«
à¸²à¸° à¸ģ
ti f
à¸Ļà¹ģà¸¥à¸° à¸£
à¸Ńà¸ģà¸²à¸£ à¸Ĺ
Ġ11 0
à¸ĩà¸«à¸²à¸£ à¸«à¸¡
à¸īà¸° à¹Ģà¸Ĭ
à¸ģà¹Ģà¸¢à¸²à¸§à¸Ĭ à¸Ļà¸¤à¸Ķ
à¸² à¹ĥà¸ª
à¸Ń à¸łà¸²à¸ŀ
à¸§ à¹Ģà¸Īà¸Ńà¸£
à¸ļ à¸Ļà¸Ĺ
à¸Ńà¸ĩ à¸Ńà¸ģ
à¸ŀà¸£à¸° à¸¨à¸ŀ
à¸²à¸ļ à¸²à¸§
ĠG e
ĠL a
20 11
à¸§à¹Ģà¸Ńà¸ĩ à¸§
à¸Ńà¸ŀà¸£à¸° à¸§à¸ĩà¸¨
à¸Ħà¸²à¸Ķ à¸ģà¸²à¸£à¸ĵ
à¸ĩ à¸²à¸§à¸°
à¸ĩ à¸Ńà¸³à¹Ģà¸łà¸Ń
à¸Ĺ à¸§à¸ĩà¸¨
à¸ĵ à¹ģà¸¡
à¸Ħà¸£ à¸¡à¹Ģà¸«à¸ª
à¸¡à¸« à¸²à¸¡
à¸ªà¸²à¸¡à¸²à¸£à¸ĸ à¸ĸ
à¸ļà¸²à¸ĩ à¹ģà¸«
od y
Ġ247 7
à¸Ńà¸²à¸į à¸²
Ã ³
à¸² à¹Ģà¸Ĺà¸¨
à¸ģ à¸ªà¸³à¸«à¸£
à¸ģ à¸Ħà¸§à¸ļà¸Ħ
à¸§ à¸ģà¸£
à¸Ńà¸ĩ à¹ģà¸£à¸ģà¸Ĥà¸Ńà¸ĩ
à¸³ à¸Ĥà¸Ńà¸ĩ
à¹Ĥà¸Ķà¸¢ à¹ĥà¸«
à¸ģà¸¥ à¸ĩà¹Ħà¸Ľ
à¸²à¸Ĺ à¸²à¸¢
à¸Ļà¸¡ à¸Ľ
à¸ĩà¸Ħ à¸¡à¸ª
à¹ģà¸ļà¸ļ à¹ĥà¸«à¸¡
à¸ļà¸ģà¸²à¸£ à¸Ľà¸ı
à¸ģà¸ª à¸Ńà¸ĩ
Ġà¹Ģà¸Ħ à¸Ļ
Ġ à¸Ľà¸£à¸²à¸ģà¸ıà¸ķ
à¹ģ à¸§à¸Ķ
à¸µà¹ī )
à¸§à¸¢ à¸¥à¸Ķ
Ġà¹Ĥà¸Ķà¸¢ à¹Ģà¸ª
à¸ĩà¸Ĺ à¸Ńà¸ĩ
à¹Ģà¸ļ à¸¥à¸ª
à¸§à¸Ļ à¹Ģà¸Ĭ
à¸Īà¸³ à¹Ģà¸ŀà¸²à¸°
à¸ģà¸¥à¸²à¸ĩ à¸Ľ
à¸Ļà¹ģà¸¥à¸° à¸Ń
ĠG roup
à¸¢à¸§à¸Ĭà¸²à¸į à¸Ķ
o ft
à¸ĩ à¸Ľà¸¥à¸²à¸¢
à¸ª à¸²
à¸Ĥ à¸²à¸¡
Ġà¸Ĺ à¸Ńà¸¡
à¸ªà¸¡ à¸²à¸ĺ
Ġà¹ģ à¸Łà¸£
à¸ĩà¸Ńà¸¢ à¸Ľà¸²à¸ģ
à¸Ńà¸ĩà¸Īà¸²à¸ģ à¸§
à¸Ńà¸²à¸Ħà¸²à¸£ à¹Ģà¸£
à¸ªà¹Ĥà¸ķ à¹Ģà¸Łà¸Ńà¸£
à¸²à¸Ļ à¹Ģà¸«à¸Ļ
à¸§à¸¢ à¸ģà¸²à¸£à¸ª
à¸²à¸Ļà¸ ī
à¸Ļà¸Ħ à¸£à¸£
Ġà¸£ à¸«
à¸ĩà¸ģà¸²à¸£ à¹ĥà¸Ĭ
à¸¬ à¸²à¸£
ro ss
à¸ķà¸ļà¸Ńà¸¥ à¹ģà¸«
à¸²à¸ĩà¸Ĺ à¸Ńà¸ĩ
à¸Ļà¸²à¸Ļ à¸Ļ
à¸£à¸² à¹Ģà¸Ńà¸¡
Ġà¸ľà¸¥à¸ĩ à¸²à¸Ļà¸Ĥà¸Ńà¸ĩ
à¸Ī à¸Ļà¸ª
à¸³ à¹ģà¸¡
à¸²à¸§ à¹ĥà¸«
à¸¢à¸§ à¸Ļà¸³
à¸Ļà¸ķà¸£ à¸²à¸¢à¸ķ
à¸Ļà¸ł à¸²à¸¢à¹ĥà¸Ļ
à¸¡à¸¡ à¸Ńà¸ĩà¸Ĥà¸Ńà¸ĩ
à¸Ńà¸³à¸Ļà¸²à¸Ī à¸Ĺ
Ġà¹Ħà¸Ľ à¹Ģà¸Ľ
à¸²à¹Ĥà¸£ à¸¥
à¸²à¸ĩà¹Ģà¸Ĥ à¸Ļ
à¹ĥà¸Ļà¸§à¸ĩà¸ģà¸²à¸£ à¸ļ
r ad
à¸ģ à¹Ģà¸«à¸Ļ
à¸¡ à¸£à¸²à¸Ĭ
à¸¢à¸Ļ à¸ģà¸²à¸£
à¸Ļà¸° à¸£
à¸Ńà¹Ħà¸Ľ à¹Ħà¸Ķ
à¸¢à¸Ńà¸Ķ à¸Īà¸³à¸«à¸Ļ
à¸Ħà¸£à¸Ńà¸ĩ à¹Ģà¸¡
à¸²à¸Ĺà¸³ à¸«à¸Ļ
à¸²à¸ģà¸£à¸£ à¹Ħà¸ģà¸£
d ro
à¸Ļ à¸²à¸Ļà¸«à¸¥
à¸§ à¹ģà¸¥
à¸Ĭ à¸²à¸¡
Ġà¹ģà¸¥à¸° à¸Ľà¸¥
à¸Ńà¸Ķ à¸Ńà¸ģ
à¸Ńà¸Ķ à¸Ńà¸Ńà¸ģ
Ġà¹ģ à¸£à¸ģ
Ġ247 9
Ġà¹Ģà¸¥à¸Ĥ à¸Ĺ
à¸Ļà¹ģà¸ŀ à¸Ĺà¸¢
u ro
à¸Ļ à¸£à¸²à¸Ĭà¸§à¸ĩà¸¨
à¸Ļ à¸²à¸Ļà¸ĸ
à¸£ à¸ģà¸£à¸£à¸¡
à¸Ń à¸Ħà¸³
à¸ŀ à¸²à¸¥
à¸Ńà¸¢ à¹Ħà¸Ľ
à¸Ĺà¸¢ à¸²à¸Ĺ
à¸Ĳ à¸²à¸Ļà¸§
à¸§à¸¡ à¸ģà¸²à¸£à¸Ĺà¸Ķà¸¥à¸Ńà¸ĩ
à¸¢à¸Ļ à¸²
à¸Ļà¸ļ à¸Ńà¸¥
Ġà¸ģà¸²à¸£ à¸¥
à¸ĩà¸Ń à¸²à¸Ħà¸²à¸£
à¸ģà¸©à¸ĵà¸° à¸ķ
à¸ļà¸§ à¸Ļà¸Ĺ
à¸ļà¸£à¸¡ à¸¨à¸ŀ
à¸²à¸ģà¸²à¸£à¸ģà¸£à¸°à¸Ĺà¸£à¸§à¸ĩ à¸¡à¸«à¸²à¸Ķà¹Ħà¸Ĺà¸¢
à¸¡ à¸Īà¸²à¸ģà¸ģà¸²à¸£
à¸Ħ à¸Ĥà¸Ńà¸ĩ
à¸³ à¸«à¸¥
à¸ĺ à¸²
âĢ Ķ
Ġà¸ģà¸²à¸£ à¸Ĥ
al d
à¸Ļà¸Ĺà¸£ à¸ł
à¹Ĥà¸ĭ à¸Ł
à¸Ļà¸Īà¸²à¸ģ à¸Ĺ
à¹ģà¸Ħ à¹Ĥà¸£
à¸Ĭà¸Ļà¸° à¸ģà¸²à¸£à¹ģà¸Ĥ
à¸¡à¹Ģà¸Ľ à¸Ńà¸£
à¸ģà¸ŀ à¸²à¸ģà¸¢
à¸Ĥà¸²à¸¢ à¹Ħà¸Ķ
p ort
à¸ĩ à¹Ģà¸Ħà¸¥
à¸Ķ à¸£à¸°à¸§
à¹Ģà¸¡ à¸Ī
à¹Ģà¸Ń à¸Ķ
à¸¢à¸§ à¸£
à¸ļà¸ª à¸«à¸£
à¹Ĥà¸¡ à¸Ĺ
Ġà¸Ĥà¸Ńà¸ĩ à¸ª
à¸ļà¸Ħà¸§à¸²à¸¡ à¸ķ
à¸ªà¸Ńà¸ĩ à¸Ĥ
à¸Ńà¸Ĥà¸Ńà¸ĩ à¸Ľà¸£à¸°à¹Ģà¸Ĺà¸¨
à¸£à¸°à¸¢à¸° à¸«à¸Ļ
Ġd i
à¹Ħà¸Ĺ à¸Ķ
à¸§à¸²à¸ª à¸£à¸²à¸Ĭ
E P
U N
à¸²à¸Ļ à¸ģà¸²à¸£à¸£
à¸ļà¸Ĺ à¸«à¸²à¸£
à¸Ļà¸ģà¸²à¸£ à¸Ľà¸ı
à¸ŀà¸¢ à¸²à¸ĺ
Ġs ystem
à¹Ĥà¸£à¸Ľ à¹ģà¸¥à¸°
à¸įà¸Ĭà¸²à¸ģà¸²à¸£à¸Ĺà¸«à¸²à¸£ à¸ª
à¸²à¸Ńà¸²à¸ģà¸²à¸¨à¸¢ à¸²à¸Ļà¸ª
à¸¥ à¸ĸ
à¹ģ à¸§à¸Ļ
à¸²à¸ģ à¸İ
à¸Ńà¸¡ à¸²à¸ª
à¸Ļà¸Ħ à¸Ļà¹Ģà¸Ķ
à¸Ļà¸Ľ à¸£à¸°à¸Ķ
ar b
à¸²à¸Ĥ à¸Ļà¸²à¸Ķà¹ĥà¸«à¸į
à¸łà¸²à¸¢ à¹ĥà¸Ļà¸§
à¸Ļà¹ģà¸¥à¸° à¸Ļ
à¸©à¸Ĳ à¸²à¸Ļà¸ŀà¸£à¸°
à¸Ļà¸Īà¸²à¸ģ à¸ģà¸²à¸£
à¸Īà¸ģà¸£à¸£à¸¡ à¸Ĺ
à¸¡à¸Ńà¸ļ à¸£à¸²à¸ĩà¸§
à¸ĩà¹Ħ à¸«à¸¡
à¸¡à¸§à¸¢ à¸Ľà¸¥
I V
à¸ģ à¸łà¸²à¸Ħ
à¸ĩ à¹ĥà¸ķ
à¸ĩ à¸Ńà¸Ńà¸ģà¸Īà¸²à¸ģ
à¸¡ à¸Īà¸°
à¸Ķ à¹Ĥà¸Ĺà¸©
à¸Ľ à¹Ģà¸Ķ
Ġà¹ģà¸¥à¸° à¹ĥà¸Ļà¸Ĭ
à¸Ńà¸ģ à¹Ĥà¸¥à¸ģ
à¸ģà¸£ à¸łà¸ŀ
à¸²à¸ĺ à¸£
ĠS ong
Ġà¸Ħà¸§à¸²à¸¡ à¸§
à¸ģà¸ļ à¸²à¸¨à¸ģ
Ġ194 7
à¹Ģà¸Ĺà¸¨à¸ģà¸²à¸¥ à¸łà¸²à¸ŀà¸¢à¸Ļà¸ķà¸£
à¸ĩ à¸ĺà¸£à¸£à¸¡
à¸ª à¸§à¸¢
à¸ģà¸© à¸²à¸¨à¸²à¸ªà¸ķà¸£
à¸ĩà¸ª à¸Ńà¸ĩà¸¡
Ġà¹ĥà¸Ļ à¸£à¸°à¸ļà¸ļ
à¸Ħà¸Ļ à¹Ħà¸Ķ
à¸¡à¸ķ à¸°à¸§
ĠP rin
à¹Ĥà¸Ī à¹Ģà¸ĭà¸Ł
à¸ªà¸¡à¸²à¸Ħà¸¡ à¸Ł
G N
R e
à¸Ń à¸Īà¸²à¸ģà¸ģà¸²à¸£
à¸£à¸° à¸ŀ
à¸ķà¸£ à¹Ħà¸Ķ
à¸ģà¸© à¸²à¹Ģà¸Ľ
à¸Ĺà¸³ à¸ģà¸²à¸£à¸ª
à¸Ļà¸Ħ à¸Ļà¸Ń
Ġà¹ Ļ
à¸«à¸¢ à¸²à¸ĩ
à¸ģà¸Ľ à¸£à¸²à¸Ĭà¸į
ĠO ne
Ġ248 6
Ġà¸Ńà¸²à¸Ī à¹Ģà¸Ľ
oci ation
à¹ ĸ
à¸Ńà¸ĩ à¸Īà¸£à¸²à¸Īà¸£
à¸²à¸¡ à¸Ħ
à¸§à¸¢ à¸Ħà¸°à¹ģà¸Ļà¸Ļ
à¸Ńà¸¡ à¹ĥà¸ª
à¸²à¸ķ à¸Ńà¸ļ
à¸Ļà¸¡ à¸²à¸ĸ
Ġà¹ģ à¸Ľ
à¸Ńà¸¥ à¸°
Ġà¸ŀà¸£à¸° à¸Ļ
in o
à¸Ļà¸Ĥà¸Ńà¸ĩ à¸Ī
à¸Ļà¸Ĺà¸²à¸ĩ à¸Īà¸²à¸ģ
à¹Ģà¸§à¸ĵ à¸ŀ
à¸ģà¸²à¸£à¸ķ à¸Ńà¸ļà¸ªà¸Ļ
ad em
Ġà¸ŀà¸§à¸ģ à¸¡
Ġ196 3
à¸¡à¸§à¸¢ à¹Ħà¸Ĺà¸¢
à¸§à¸ĩà¸Ľà¸¥à¸²à¸¢ à¸Ľ
r ist
à¸Ļ à¹Ģà¸ªà¸£
à¸ĩ à¹Ĥà¸Ķ
à¸§ à¸ł
à¹Ħ à¸ļà¸ķ
à¸Ļà¸Ĺ à¸Ļà¸²
Ġà¸ŀ à¸ļà¹Ħà¸Ķ
Ġà¸Ī à¸Ļà¹Ģà¸¡
à¸¢à¸Ļ à¹Ģà¸ª
à¸Ļà¸ĺ à¸²à¸ķ
à¹ĥà¸Ļà¸ģà¸²à¸£ à¸¢
à¸ĩà¹ģ à¸«à¸§
à¸ģà¸Ĥ à¸²à¸Ķ
Ġà¸ķà¸²à¸¡ à¸Ĭ
iel d
Ġ Ð
à¸Ĭ à¸§à¸Ļ
à¸Ĭ à¸³à¸Ļà¸²à¸į
à¹ģà¸¥à¸° à¸ł
à¸© à¸£
à¸¥à¸ĩ à¹Ħà¸Ķ
à¸ĩà¸ª à¹Ģà¸Ľà¸Ļ
à¸«à¸¡ à¸²à¸¢à¸Ļ
à¸«à¸²à¸£ à¸Ļ
Ġà¸Ĥ à¸§
ĠC enter
Ġà¸Ħà¸§à¸²à¸¡ à¸Ħ
à¸Ħà¸ĵà¸° à¹ģà¸ŀà¸Ĺà¸¢à¸¨à¸²à¸ªà¸ķà¸£
ĠF ilm
om a
à¸¢à¸Ńà¸Ķ à¸Ĥ
à¸Ļ à¸Ńà¸§
à¸Ń à¸Ļà¸Ľà¸£à¸°à¸§
à¹Ģ à¸Ļà¸ļ
à¸¡ à¸£à¸°à¸Ķ
à¸Ķ à¹ģà¸Ī
à¸²à¸¢ à¹Ģà¸ģ
à¸²à¸ĩ à¸²à¸¡
à¸¤à¸© à¸Ķ
à¸§à¸£ à¸ĸ
à¸Ĵà¸Ļ à¸²à¸£à¸°à¸ļà¸ļ
à¹Ĥà¸Ħà¸£ à¹Ģà¸Ńà¹Ģà¸Ĭ
à¸ªà¸ĸà¸²à¸Ļ à¹ģà¸«
à¸Ļà¹Ĩ à¸Ĺ
Ġp h
à¸Ķà¹Ģà¸Ķ à¸Ńà¸£
Ġ194 9
à¸¤à¸ģà¸© à¸¨à¸²à¸ªà¸ķà¸£
tr y
Ġà¸ľà¸¥à¸ĩ à¸²à¸Ļ
J ohn
à¸ĩ à¸Ķà¸³à¸£à¸ĩà¸ķà¸³à¹ģà¸«à¸Ļ
à¸ª à¸Ĥ
à¸Ļà¸Ĺ à¸²
à¸ĵ à¸ļà¸Ķ
à¸²à¸§ à¸ĭ
à¹Ģà¸ģ à¸Ļ
à¹Ħà¸¡ à¸¥
à¸Īà¸° à¹Ģà¸ª
à¸²à¸Ī à¸²à¸£
à¹ĥà¸Ļà¸ģà¸²à¸£ à¸ļ
à¸ľà¸¥ à¸£à¸²à¸ĩà¸§
à¸ŀà¸¥ à¸²à¸ªà¸ķ
à¸²à¸ģà¸²à¸£ à¸ģà¸£à¸°à¸Ĺà¸£à¸§à¸ĩà¸¨
ĠS w
à¸ĩà¸ģà¸¥ à¸²à¹Ģà¸Ĺà¸¨
à¸ĩà¸¢ à¸²à¸ģ
ĠCh ar
à¸Ķà¸ŀà¸£à¸° à¸¨à¸£
à¹Ģà¸Īà¸²à¸° à¸Ī
/ /
B O
S M
U n
g an
Ġ $
à¸²à¸ĩ à¹Ĥà¸£à¸ĩà¹Ģà¸£
à¹Ģà¸¡ à¸ĭ
Ġà¹Ĥà¸Ķà¸¢ à¸¥
à¸Ļà¸¡ à¸²à¸Ĭ
à¸Ńà¸ĩà¸Ħ à¸Ńà¸¡à¸ŀ
à¸ļà¸Ĺ à¸Ĺ
à¸Ķà¸Ĭ à¸²à¸£
à¸²à¸Ĺà¸³ à¸¥à¸²à¸¢
Ġ196 5
à¸Ļ à¹ģà¸ªà¸Ķà¸ĩ
à¸£ à¸²à¸¨
à¸ļ à¹Ĥà¸Ħà¸£à¸ĩà¸ªà¸£
à¸ŀ à¸ļà¸Ĺ
à¹Ģà¸ģ à¸¨
à¸Ļà¸Ń à¸³à¸Ļà¸²à¸Ī
er c
Ġà¸¥ à¸²
à¹ģà¸Ĺ à¸ļ
à¸¨à¸²à¸ªà¸ķà¸£ à¸ļ
Ġà¸Ļà¸²à¸¢ à¹ģà¸ŀà¸Ĺà¸¢
à¹ĥà¸Ļà¸Ĥ à¸ĵà¸°
à¸ĩà¸Ħà¸§à¸²à¸¡ à¸¡
Ġà¸ģà¸£à¸¡ à¸ŀà¸£à¸°à¸¢
à¸ģà¸²à¸£à¸Ĭ à¸ģ
Ġà¸ŀà¸£à¸£ à¸©
à¸Ļà¸Ħà¸Ļ à¹ģà¸£à¸ģà¸Ĺ
à¸Ľà¸£à¸°à¸ªà¸²à¸Ļ à¸ĩà¸²à¸Ļ
yp e
illi am
7 00
T C
à¸Ļ à¹Ģà¸Ĥà¸²à¹Ħà¸Ķ
à¸¡ à¸Ľà¸£à¸°à¹Ģà¸Ĺà¸¨
à¸¢ à¸Ńà¸£
à¸ķ à¸«à¸£
à¸²à¸¢ à¹Ħà¸Ľà¸¢
à¹Ģà¸Ĥ à¸²à¸Ĭ
à¹Ħà¸Ľ à¹ĥà¸«
Ġà¸¡ à¸²à¸Ĭ
à¸ģà¸© à¸²à¸Ĺà¸²à¸ĩ
à¹ģà¸ļà¸ļ à¸Īà¸³à¸¥à¸Ńà¸ĩ
Ġ19 18
à¸ĩà¸ģà¸²à¸£ à¹Ģà¸¥
à¸¡à¸²à¸ĵ à¸Ĺ
ĠT ime
20 14
à¸¢à¸¨ à¹Ģà¸Ľ
Ġà¹ĥà¸Ļà¸£ à¸Ńà¸§
Ġà¹ģà¸ªà¸Ķà¸ĩ à¹ĥà¸«
out h
enc y
à¸Ľà¸® à¸Ńà¸Ľ
à¸¢ à¸²à¸ļ
à¸Ńà¸ª à¹Ģà¸ķà¸Ńà¸£
à¸¢à¸¡ à¸Īà¸²à¸ģ
Ġà¹Ģà¸Ĥ à¸²à¸ŀ
à¸Ķà¸ģ à¸²à¸įà¸Īà¸Ļà¸ļ
à¸Ľà¸£à¸°à¸ģà¸²à¸¨ à¸ķ
à¸ĩà¹ĥà¸Ļ à¸£à¸°à¸Ķ
et s
à¸Ļà¹Ĥà¸Ķà¸¢ à¹Ħà¸¡
um b
Ġm em
à¹ģà¸Ľà¸¥ à¹Ģà¸Ľ
à¸Ĳà¸Ľà¸£à¸° à¸¨à¸²à¸ªà¸Ļà¸¨à¸²à¸ªà¸ķà¸£
à¸ĩ à¹Ħà¸Ĥ
à¹ĥ à¸ļà¸¡
Ġà¹ģà¸¥à¸° à¸łà¸²à¸ŀà¸¢à¸Ļà¸ķà¸£
à¸Ńà¸¡ à¹Ħà¸Ķ
à¸Ļà¸§ à¸¡
à¸Ļà¸¡ à¸²à¸Ńà¸¢
à¸ŀà¸£à¸£ à¸Ħà¸Ļ
Ġà¹ģà¸£à¸ĩ à¸¡
Ġteam s
H z
o f
à¸¡ à¹Ģà¸¢
à¸Ķ à¹ģà¸ģ
à¸Ķ à¸łà¸²à¸§à¸°
à¸ĸ à¸Ńà¸Ļà¸ķ
à¸ģà¸£ à¸Ńà¸¢
Ġà¸Ħ à¸ĵà¸°à¸Ļ
à¸«à¸²à¸£ à¸£à¸²à¸Ĭà¸ģà¸²à¸£
à¸ªà¸²à¸¡à¸²à¸£à¸ĸ à¸«
à¸ĩà¸ģà¸²à¸£ à¸Ī
à¸ķà¸£à¸Ĭà¸²à¸¢ à¸Ĥà¸Ńà¸ĩ
à¸£à¸°à¸¢à¸°à¹Ģà¸§à¸¥ à¸²à¸Ĺ
à¸ķà¹Ĥà¸Ķà¸¢ à¸ļà¸£
à¸ľà¸ªà¸¡à¸ľ à¸ªà¸²à¸Ļ
à¸Ļ à¸£à¸°à¸¢à¸°à¹Ģà¸§à¸¥à¸²
à¸Ħ à¸Ī
à¸ģà¸²à¸£ à¸ŀà¸£à¸£à¸Ħ
à¸Ńà¸Ļ à¸ģà¸§
à¸ģà¸© à¸²à¸ľ
à¸Ļà¸Ħ à¸Ļà¸ª
à¹ĥà¸Ļà¸ģà¸²à¸£ à¸Ħà¸§à¸ļà¸Ħ
à¸ŀà¸¥ à¸²à¸Ķ
à¸¬ à¸²à¸łà¸£à¸ĵ
à¹ģà¸¢à¸ģ à¹ģà¸¢à¸°
ot t
P l
à¸ĩ à¹ĥà¸Ļà¸ļ
à¸§ à¸Ķà¸Ĺ
à¸Ķ à¸Īà¸³
à¸ģà¸²à¸£ à¸Ńà¸Ļ
à¸²à¸¢ à¹Ģà¸¥
à¸²à¸ĩ à¹Ĥà¸¥à¸ģ
Ġà¸ŀ à¸į
Ġà¹Ĥà¸Ķà¸¢ à¸Ĺà¸£à¸ĩ
à¸Ļà¸ļ à¸ģ
à¸Ļà¸ģà¸²à¸£ à¹Ģà¸ŀ
à¸Ħà¸³ à¸Ľà¸£
à¸ģà¸¥à¸²à¸ĩ à¸Ĺ
à¸¢à¸ļ à¸ŀà¸¥
à¸£à¸§à¸¡ à¸Ńà¸¢
à¸§à¹Ħà¸Ľ à¹Ģà¸Ľ
à¸¢à¸²à¸ģ à¸Ĺ
à¸ĩà¸Ĺà¸£à¸ĩ à¹Ģà¸Ľ
à¸ģà¸£à¸°à¹ģà¸ª à¸Ļ
à¸ĩà¸Ĺà¸³ à¸Ļ
à¹Ĥà¸Īà¸£ à¸ªà¸¥
ĠQ u
" ;
A s
L e
à¸ĩ à¹Ģà¸ĭà¸¥à¸¥
à¸ŀ à¹Ģà¸¢à¸Ńà¸£à¸¡
à¸Ĥ à¸ĩà¸Ī
Ġà¹ģà¸¥à¸° à¸£à¸°à¸ļà¸ļ
à¸ģà¸¥ à¹Ħ
à¹Ģà¸ŀ à¸£à¸ª
à¹Ħà¸Ľ à¸«
à¸Īà¸° à¹ģà¸ªà¸Ķà¸ĩ
à¸łà¸²à¸© à¸²à¸®
Ġà¸£à¸§à¸¡ à¸ģ
à¹ģà¸¥à¸°à¸ª à¸«à¸ģà¸£à¸ĵ
ot or
à¸°à¸Ĺ à¸°à¸ģ
à¸³à¸£ à¸§à¸¢
à¸¢à¸Ĥà¸Ńà¸ĩ à¸ŀà¸£à¸°à¹Ģà¸Ī
à¸²à¹Ħ à¸«à¸£
à¸Īà¸£à¸²à¸Ĭà¸ģà¸²à¸£ à¹ģà¸Ĺà¸Ļà¸ŀà¸£à¸°à¸Ńà¸ĩà¸Ħ
à¹Ģà¸Ńà¸Łà¹Ģà¸Ń à¸Ħ
à¸ĩ à¸łà¸²à¸ŀ
à¸¡ à¸²à¸«
à¸ļ à¸ŀà¸£à¸°à¸Ńà¸ĩà¸Ħ
à¸« à¸ĩ
à¸Ńà¸ĩ à¹Ģà¸Ľà¸¥
à¸ģà¸²à¸£ à¸Ľà¸£à¸°à¹Ģà¸¡
Ġà¸ŀ à¸Ńà¸£
à¸Īà¸° à¸Ĺà¸³à¸ģà¸²à¸£
à¸ļà¸£ à¸§à¸¡à¸ģ
Ġà¸ķ à¸Ńà¸Ļà¸Ļ
Ġà¸ŀà¸£à¸° à¸ļ
à¸Ļà¸ģà¸²à¸£ à¸Ľ
à¸ªà¸²à¸£ à¸Ľà¸£à¸°à¸ģà¸Ńà¸ļ
à¸ĩà¸«à¸¡à¸Ķ à¸Ĥà¸Ńà¸ĩ
Ġà¸Ħà¸§à¸²à¸¡ à¹Ģà¸£
à¸²à¸Ļà¸Ħ à¸ĵà¸°
Ġà¸Ĺà¸²à¸ĩ à¸«à¸¥à¸§à¸ĩ
20 13
à¸Ńà¸Ńà¸ģà¸Īà¸²à¸ģ à¸ķà¸³à¹ģà¸«à¸Ļ
à¸Ńà¸Ļà¸Īà¸° à¸ĸ
à¹Ĥà¸ł à¸Ĭà¸Ļ
à¸ĩà¸Ńà¸²à¸Ī à¹Ģà¸Ľ
Ġà¸ªà¸²à¸§ à¹Ĩ
Ġà¹ģà¸¡à¸Ļ à¹Ģà¸Ĭà¸ªà¹Ģà¸ķà¸Ńà¸£
ĠIns tit
Ġà¸Ľà¸£à¸²à¹Ĥà¸¡ à¸Ĭ
à¸ģà¸£ à¸¡à¸Ĺà¸«à¸²à¸£
à¸Ħà¸£ à¹Ģà¸Ľ
ĠA b
ul ti
à¸Ķà¸Ħ à¸Ļà¸«à¸Ļ
unc tion
à¸Ń à¹ģà¸ļ
à¸ģ à¸Ľà¸£à¸°à¹Ģà¸łà¸Ĺ
à¸§ à¸Ńà¸Ńà¸ģ
à¸Ńà¸ģ à¹Ģà¸ģ
à¸¢à¸ĩ à¹Ģà¸ª
à¸§à¸¡ à¸Ńà¸¢
er y
à¸ĩà¸²à¸Ļà¸ Ħà¸£
à¸ĩà¸ģà¸²à¸£ à¸Ħ
à¸ģà¸¥à¸²à¸ĩ à¸§
à¸Ĳà¸ļà¸²à¸¥ à¹Ħà¸Ĺà¸¢
à¸²à¸Ļà¸ŀ à¸¥
I D
r ay
à¸Ń à¸Ļà¸ªà¸¡
à¸§ à¸Ķà¸³
à¸Ľ à¸²à¸Ļà¸ģà¸¥à¸²à¸ĩ
à¸²à¸ĩ à¹ģà¸Ħ
à¸²à¸Ĭ à¸²à¸¥à¸ª
Ġà¹Ģà¸ŀ à¸Ńà¸£
Ġà¸ŀà¸£à¸° à¸Ńà¸Ļ
à¸ģà¸³ à¹Ģà¸£
en z
Ġ6 1
à¹ĥà¸Ļà¸Ħà¸§à¸²à¸¡ à¹Ģà¸Ľ
Ġ193 8
Ġà¸ģà¸£à¸°à¸Ĺà¸£à¸§à¸ĩ à¸¡à¸«à¸²à¸Ķà¹Ħà¸Ĺà¸¢
v el
à¸Ń à¹Ģà¸ĩ
à¸¡ à¸Ķà¸³
à¸²à¸¡ à¸²à¸Ĺ
à¸¥à¸ĩ à¸¡à¸²
Ġà¸ģà¸²à¸£ à¹Ģà¸ģ
à¸ļà¸Ħ à¸Ļà¸Ĺ
ĠM on
à¸²à¸Ļà¸« à¸į
à¸ľà¸¥à¸ĩ à¸²à¸Ļà¸Ķ
ter s
Ġà¸ŀà¸¥ à¹Ģà¸£
ik e
ev el
à¸£ à¸§à¸Ķà¹Ģà¸£
à¸¥ à¹Ģà¸®
à¸§ à¹Ģà¸ĺà¸Ń
à¸ª à¹Ģà¸ģ
à¸Ľ à¸²à¸Ļ
à¹ĥà¸Ļà¸ģà¸²à¸£ à¸Ľ
à¸²à¸ĩà¸ª à¸ĩà¸Ħà¸£à¸²à¸¡à¹Ĥà¸¥à¸ģà¸Ħà¸£
le t
à¸ŀà¸§à¸ģ à¸Ļ
à¸Ľà¸£à¸°à¸Ĭà¸²à¸Ĭ à¸Ļà¹Ģà¸ŀ
à¹ģà¸£à¸ĩ à¹Ĥà¸Ļ
à¸²à¸ªà¸¡ à¸²à¸Ĭ
Ġ247 3
Ġà¸Ńà¸Ńà¸ģà¸Ńà¸²à¸ģà¸²à¸¨ à¸Ĺà¸²à¸ĩà¸Ĭ
Ġ195 8
n ess
o int
à¸ģ à¹ĥà¸Ļà¸Ĺ
à¸ĩ à¸Ĭà¸²à¸§à¹Ħà¸Ĺà¸¢
à¸«à¸Ļ à¸²à¸¡
à¸¢à¸Ļ à¹Ģà¸¡
à¸ļà¸ª à¸²à¸«
ur y
ĠN o
Ġà¸ªà¸¢à¸²à¸¡ à¸¡à¸ģ
à¸Ĺà¸²à¸ĩà¸ģà¸²à¸¢ à¸łà¸²à¸ŀ
Ġ à¸Ľà¸£à¸°à¸ªà¸ļà¸Ħà¸§à¸²à¸¡à¸ªà¸³à¹Ģà¸£
à¸ģ à¸²à¸ļ
à¹Ĥ à¸¢à¸¡
à¸Ńà¸ģ à¸£à¸Ńà¸ļ
à¹Ģà¸ĭ à¹Ģà¸§
Ġà¹ģà¸ķ à¸ģà¸ķ
Ġà¹Ĥ à¸¡à¹Ģà¸Ķ
Ġà¸Ĥ à¸¢à¸²à¸¢
à¹ģà¸ļ à¸ĩà¸ģ
ol i
ĠD i
Ġà¸§à¸ĩ à¸©
à¸ĩà¹Ģà¸ģà¸ķ à¹Ģà¸«
à¸ļà¸Ĺà¸Ńà¸Ķ à¸ķà¸³à¹ģà¸«à¸Ļ
à¸Ļà¸į à¸²à¸ķ
à¸²à¸£à¸ĸ à¸Ļà¸²
à¹Ĥà¸¢à¸° à¸Ĭ
Ġ à¸Ĳà¸²à¸Ļ
à¸ģ à¹ģà¸ĭ
à¸Ķ à¹ĥà¸Ļà¸Ľà¸£à¸°à¹Ģà¸Ĺà¸¨à¹Ħà¸Ĺà¸¢
à¹ģ à¸§à¸ĩ
à¸Ľ à¸«à¸Ļ
à¸²à¸§ à¹Ģà¸ŀ
à¸¢à¸§ à¸«à¸£
à¸Ļà¸Ł à¸Ńà¸£
à¸Ļà¹Ģà¸Ĥ à¸²à¸ģ
à¸Īà¸ģà¸£à¸£à¸¡ à¸ķ
à¹ģà¸ĸà¸¥à¸ĩ à¸Ĥ
à¸Ń à¹ģà¸£
à¸ģ à¸Ńà¸Ĺ
à¸ģ à¸Ľà¸£à¸°à¸«à¸²à¸£à¸Ĭ
à¸ĩ à¹ĥà¸ģà¸¥
à¸¡ à¸¥à¸°
à¸ļ à¸į
à¸ļ à¸Ľà¸£à¸°à¸ģà¸²à¸¨à¸Ļ
à¹Ģà¸ģ à¸¢
à¸Ńà¸Ļ à¹Ģà¸Ļ
à¸§à¸¢ à¸ŀà¸£à¸°à¸Ńà¸ĩà¸Ħ
à¸¥à¸ĩ à¸ģ
à¸Ńà¸Ķ à¸ķ
à¸Ļà¸ģà¸²à¸£ à¸Ļà¸³
à¸Ķà¸Ĥ à¸Ļà¸²à¸Ķ
à¸¬ à¸²à¸ª
à¸²à¹Ħà¸Ľ à¸Ńà¸¢
Ġà¸Ńà¸³à¹Ģà¸ł à¸Ńà¸Ĺ
à¸ģà¸° à¹Ĥà¸«à¸¥
à¸ľà¸¥à¸ĩà¸²à¸Ļ à¹Ħà¸Ķ
à¸Ļà¹Ĥà¸¢à¸ļ à¸²à¸¢à¸Ĥà¸Ńà¸ĩ
à¸²à¸Ļà¸ł à¸²à¸¥
Ġà¹ģà¸ªà¸Ķà¸ĩ à¸§
à¸Ļ à¸²à¸ª
à¸Ńà¸ĩ à¸ļà¸£
à¸į à¸īà¸ļ
à¹Ĥà¸Ķà¸¢ à¸ļà¸£
à¸ªà¸¡ à¸£
à¹ĥà¸Ļà¸ģà¸²à¸£ à¸Ľà¸ı
à¸ī à¸ģ
à¸¢à¸ļ à¸§
à¸²à¸Ļà¸Ł à¸£
à¸ģ à¸²à¹Ģà¸Ľ
à¸Ķ à¹ģà¸£à¸ģà¸Ĥà¸Ńà¸ĩ
à¸Ńà¸ĩ à¸Ļà¸Ħà¸£à¸¨à¸£
à¸ŀ à¸Ńà¸¢
à¸²à¸§ à¹Ģà¸Ķ
à¸§à¸¢ à¸²à¸ģà¸£à¸ĵ
à¸ĩà¸Īà¸²à¸ģ à¸ª
à¸ĩà¸Ĥà¸Ńà¸ĩ à¸Ľà¸£à¸°à¹Ģà¸Ĺà¸¨
à¸ĩà¸ģà¸¤à¸© à¸ģ
à¸Ńà¸° à¸®
à¹Ĥà¸ģ à¸Ħ
us s
à¹Ĥà¸Ī à¸¡
à¸ĩà¹Ģà¸¨à¸ª à¹ģà¸¥à¸°
à¸«à¸¢ à¸²à¸ļ
à¸£ à¸²à¸¥
à¸ĩ à¸Ńà¸ģ
à¸¢ à¸ļà¸Ĺ
à¸§ à¸Ļà¸Ĺà¸²à¸ĩ
à¸Ī à¸¥
à¹ģà¸¥à¸° à¸ķà¸°à¸§
Ġà¸ŀ à¸¢à¸²à¸¢à¸²à¸¡
à¹Ģà¸¥ à¸§à¸£
Ġà¸ģà¸²à¸£ à¸Ńà¸Ńà¸ģà¹ģà¸ļà¸ļ
à¸ĩà¸ķ à¸³à¸ļà¸¥
à¹ģà¸Ĺ à¸ļà¸Ĺ
ĠH D
Ġ194 8
à¸ģà¸ĩà¸²à¸Ļà¸Ħà¸ĵà¸°à¸ģà¸£à¸£à¸¡à¸ģà¸²à¸£ à¸ģà¸²à¸£à¸¨
à¸ĩà¸ķà¸°à¹Ģà¸ł à¸²
W F
à¸ģ à¸²à¸ķà¸°à¸§
à¸ĩ à¸łà¸²à¸ŀà¸¢à¸Ļà¸ķà¸£
à¸ļ à¹ĥà¸«à¸¡
à¹Ĥ à¸«à¸¡
à¸²à¸§ à¸ļ
à¹Ģà¸¡ à¸Ļà¸Ĺ
Ġà¹Ĥà¸Ķà¸¢ à¸Ħà¸£
à¸²à¸Ķ à¸łà¸²à¸ŀ
à¹Ģà¸ĺ à¸Ńà¸Ļ
à¸Ńà¸ĩà¸Īà¸²à¸ģ à¸ģà¸²à¸£
ĠA C
à¸Ĳà¸ļà¸²à¸¥ à¹Ĥà¸Ĭà¸ģ
Ġà¸Ļà¸²à¸¢ à¸ģ
à¸§à¸Ń à¸²à¸Ħà¸²à¸£
200 8
Ġà¹ĥà¸Ļà¸ŀà¸£à¸° à¸ļà¸£à¸¡à¸£à¸²à¸Ĭ
à¸ļà¸£à¸£à¸ĵ à¸²à¸ĺ
à¸ĭ à¸²à¸ļ
à¸ķà¸£ à¸²à¹Ģà¸£
à¸¢à¸Ļ à¸¥
Ġà¸ģà¸²à¸£ à¹Ģà¸Ľ
à¸ªà¸²à¸¡à¸²à¸£à¸ĸ à¸Ĭ
Ġ6 9
à¸Ļà¸²à¸¢ à¸§
à¸Ńà¸ģà¸²à¸£ à¸Ī
Ġ10 1
à¸Ķà¸Ĥà¸Ńà¸ĩ à¸Ľà¸£à¸°à¹Ģà¸Ĺà¸¨
us e
à¹Ĥà¸¥à¹Ģà¸¡à¸ķà¸£ à¸Ĺ
à¸ĩà¸¡à¸²à¸ģ à¸Ĺ
ĠWrest ling
" >
S E
y r
à¸Ļ à¹Ģà¸Ļà¸ª
à¸Ļ à¹Ģà¸¥à¸Ĥà¸²à¸ĺ
à¸Ń à¸Ľà¸£à¸°à¸Ĭà¸²à¸ĺ
à¸¡ à¸ģà¸£
à¹ģà¸¥à¸° à¸Ħà¸§à¸²à¸¡à¸£
à¸ĭ à¸²à¸Ń
Ġà¹Ĥ à¸Ńà¸ļ
Ġà¸ļ à¸£à¸£à¸Ķ
à¸ªà¸²à¸¡à¸²à¸£à¸ĸ à¸Ĺà¸³à¹Ħà¸Ķ
à¸Ļà¸² à¹Ģà¸¡à¸Ļà¸ķ
à¹Ĥà¸Ħà¸£ à¹Ĥà¸¡à¹Ĥà¸ĭ
am a
à¹ĥà¸Ļà¸Ń à¸²à¸Ħà¸²à¸£
à¸Ķà¸Ħ à¸Ńà¸Ļà¹Ģà¸ª
à¹Ģà¸ŀà¸£à¸²à¸° à¹Ģà¸Ľ
à¸ģà¸° à¸Ĺ
ri b
à¹ĥà¸Ļà¸ī à¸ļ
à¸ģ à¸²à¸§
à¸ģ à¸Īà¸³à¸ģ
à¸§ à¹ģà¸ļà¸ļ
à¸Ĥ à¸¥
à¹Ĥà¸£ à¸¥à¸¥
à¸ĩà¹ģ à¸ĭ
à¸Ļà¹ģà¸¥à¸° à¹Ħà¸Ķ
Ġà¹Ħ à¸Ńà¸£
à¹Ģà¸ŀà¸¨ à¸Ĭà¸²à¸¢
Ġw as
à¸Ľà¸£à¸°à¸Ī à¸§à¸ļà¸Ħ
à¸Ļà¸Ķà¸²à¸§ à¹Ģà¸Ħà¸£à¸²à¸°à¸«
à¸² à¹Ĥà¸¥à¸ģ
à¸Ļ à¸²à¸Ļà¸Ķ
à¸Ļ à¸ĩà¸²à¸Ļà¸Ĥà¸Ńà¸ĩ
à¸µ (
à¸ķ à¹ĥà¸Ļà¸§
à¹Ģà¸Ķ à¸°
à¸Īà¸° à¸Ń
à¸ģà¸© à¸Ļ
Ġà¸Ķ à¸²
à¸ŀà¸¥ à¸¨
Ġà¸ģà¸²à¸£ à¸ľà¸¥
à¸Ļà¸ģà¸²à¸£ à¹ĥà¸«
à¸ĩà¸« à¸¢
ĠW ind
à¸ĸà¸Ļ à¸Ńà¸¡
Ġ196 2
Ġ247 2
à¹Ĥà¸ł à¸Ĭ
à¸Īà¸Ķ à¸Īà¸³
à¸ĩà¸²à¸Ļà¸ľ à¸¥
b ack
à¸ĩ à¸²à¸Ļà¸Ĺà¸²à¸ĩ
à¸Ķ à¸²à¹Ħà¸Ķ
à¹Ģà¸Ķ à¸ª
à¸Ļà¸ķ à¸ķ
Ġà¸Ħ à¸Ļà¹Ħà¸Ķ
Ġà¹Ĥ à¸Ħà¸Ļ
Ġà¹ĥà¸Ļ à¹Ģà¸ŀà¸¥à¸ĩ
à¸²à¹Ģà¸Ľ à¸Ńà¸£
à¹Ģà¸ĺ à¸Ńà¸Ķ
à¸ĩà¹ģ à¸Ħ
à¸Ļà¹Ħà¸Ľ à¹Ħà¸¡
Ġà¹Ħ à¸ŀà¸£
à¸Ļà¹ĥà¸Ļ à¸£à¸²à¸¢à¸ģà¸²à¸£
el f
à¸ªà¸²à¸¡ à¸ª
à¹ģà¸Ī à¸ģ
Ġà¹Ĥà¸Ī à¹Ģà¸ĭà¸Ł
à¸ªà¸°à¸ŀ à¸²à¸Ļ
à¸Ļ à¸Ļà¸Ħà¸£
à¸£ à¸²à¸Ļ
à¸ŀ à¸ļà¸£
à¸Ļà¸ª à¸Ńà¸ĩà¸Ħ
à¸£à¸²à¸Ĭ à¸²à¸ĺ
à¹ģà¸ª à¸ĩà¸ªà¸§
Ġà¹Ģà¸ŀ à¸¥à¸¢
à¸Ļà¸Ĺà¸£ à¸²
à¸Ļà¹ĥà¸Ļ à¹ģà¸ķ
à¸ļà¸²à¸ĩ à¸ķ
à¸Ļà¹Ģà¸Ĺ à¸Ļà¹Ĥà¸Ķ
à¸£à¸²à¸Ĭà¸ģà¸²à¸£ à¹Ħà¸Ķ
à¸Ļà¸ŀà¸£à¸£à¸Ħ à¸ģà¸²à¸£à¹Ģà¸¡
à¸ģà¸©à¸²à¸Ħà¸§à¸²à¸¡à¸ªà¸ĩà¸ļ à¹ģà¸«
I A
m ed
à¸ĩ à¸³
à¸ª à¹Ģà¸ķà¸£
à¸ķ à¹Ħà¸¡
à¸ļ à¸Ļà¸ľ
à¸Ĥà¸Ńà¸ĩ à¹Ģà¸ĭà¸¥à¸¥
à¸Ńà¸¢ à¸Ńà¸Ķ
Ġà¹ģ à¸Ĭà¸¡à¹Ģà¸Ľ
à¸²à¸Ń à¸ł
à¸Ļà¸ģ à¸İà¸«à¸¡à¸²à¸¢
à¸Ľà¸¥ à¸²à¸¢à¸Ĺ
à¸Ļà¸£ à¸²à¸ģ
à¸Ļà¸ļ à¸Ļ
à¸Ļà¸Ĺà¸²à¸ĩ à¸£à¸ĸà¹Ħà¸Ł
à¸²à¹Ĥ à¸£à¸ģ
ĠB oy
à¸Ħà¸ĵà¸° à¸¨
à¸£à¸°à¸¢à¸° à¹Ħà¸ģà¸¥
à¹Ĥà¸Ľ à¹Ģà¸¥
à¹Ģà¸ģà¸©à¸ķà¸£ à¹ģà¸¥à¸°à¸ªà¸«à¸ģà¸£à¸ĵ
à¸¨à¸²à¸¥ à¹Ģà¸Ī
à¸įà¸Ĭ à¸²à¸Ĥà¸Ńà¸ĩ
à¸ŀà¸£à¸°à¸Ĭà¸Ļà¸¡ à¸ŀà¸£à¸£à¸©à¸²
à¸ĭà¸²à¹Ģà¸ļ à¸ĺà¸Ĺ
à¸Ńà¸¨à¸²à¸ªà¸Ļ à¸²à¸Ħà¸£
à¸Ńà¸¡à¸§à¸¥ à¸Ĭ
à¸¥à¹Ĥà¸Ļ à¹Ģà¸ļà¸¥à¸ª
à¸ģ à¹Ģà¸Ļà¸£à¹Ģà¸Ĺà¸¨
à¸¢ à¸²à¸ģà¸£
à¸¢ à¸Ļà¸«à¸¥
à¸Ńà¸ĩ à¸«à¸¢
à¹Ĥ à¸ģà¸ķ
à¸Ĥà¸Ńà¸ĩ à¸ŀà¸£à¸£à¸Ħ
à¹Ģà¸Ĺ à¸Ħ
à¸§à¸ĩ à¹ģà¸«à¸§
à¹Ģà¸ļ à¸£à¸ģ
à¸ĩà¹Ģà¸ģ à¸Ńà¸£
à¹Ĥà¸Ħ à¹Ĥà¸¥
à¸Ķà¸¡ à¸Ħà¸ķ
à¸Ĺà¸£à¸²à¸ļ à¸Ĥ
- -
O r
P A
à¸ĩ à¸£à¸°à¸ļ
à¸ĩ à¸īà¸²à¸ģ
à¸ª à¸£à¸£à¸ŀ
à¸Ńà¸ĩ à¸ģà¸²à¸£à¸ª
à¸Ĺà¸²à¸ĩ à¸£
à¹Ģà¸ŀà¸¥à¸ĩ à¸¥
à¸Ľà¸£à¸°à¸ģà¸Ńà¸ļ à¸ģà¸²à¸£
à¸²à¸ĩà¸Ħ à¸²à¸§
à¹Ħà¸«à¸¥ à¹Ģà¸§
à¸ªà¸łà¸²à¸ŀ à¹Ģà¸Ľ
à¸°à¸ķ à¸Ńà¸¡
à¸²à¸ĩà¸ĸ à¸²à¸§à¸£
à¸ģà¸³à¹ģà¸ŀ à¸ĩà¹Ģà¸ŀà¸Ĭà¸£
à¹ĥà¸Ļà¸ķà¸Ńà¸Ļ à¹ģà¸£à¸ģ
à¹Ģà¸§à¸¥à¸²à¸ģà¸¥ à¸²à¸ĩà¸Ħ
W h
à¸£ à¸²à¹Ģà¸¡
à¸Ķ à¸£à¸°à¸Ķ
à¸ļ à¸ŀà¸£
à¸Ī à¸Ļà¸²à¸Ļ
à¸ģà¸²à¸£ à¸ķà¸£à¸§à¸Īà¸ªà¸Ńà¸ļ
à¸²à¸ĩ à¸Ł
à¹ģà¸¥à¸° à¸Ł
à¹ĥà¸Ļ à¹Ģà¸ª
à¸Ĺà¸³ à¸ģà¸²à¸£à¸ļ
à¸²à¸© à¸ı
à¸¥à¸³ à¹Ģà¸¥
Ġ8 4
à¹Ģà¸§à¸ĵ à¸§
ĠL ive
à¸Ļà¹Ĥà¸Ķà¸¢ à¹ĥà¸Ĭ
à¸ģ à¸ķà¸²à¸¡
à¸¢ à¸Ļà¸¨
à¸ŀ à¸ŀà¸¡
à¹ĥà¸Ļ à¹ĥà¸Ī
à¸į à¹Ħà¸Ľ
à¸į à¸²à¸ģà¸£
à¹ĥà¸Ļà¸ģà¸²à¸£ à¹ģà¸ªà¸Ķà¸ĩ
à¹ĥà¸Ļà¸Ħ à¸Ķ
à¸įà¸« à¸²à¸Ħà¸§à¸²à¸¡
Ġ194 6
à¸ªà¸¡à¸²à¸Ħà¸¡ à¸Ļ
à¸¡à¸§à¸¥ à¸Ĭà¸Ļ
à¸Ĵà¸Ļà¸²à¸¡ à¸²à¸Īà¸²à¸ģ
H e
à¸²à¸ĩ à¹Ģà¸Ľà¸¥
à¸Īà¸° à¸§
à¹ĥà¸Ļà¸ģà¸²à¸£ à¸Ĥ
à¸¡à¸² à¹Ģà¸Ĥ
à¹Ĥà¸£ à¸ļ
à¹Ĥà¸¡ à¸¥
à¸²à¹Ĥ à¸ŀà¸ĺ
Ġà¸Īà¸° à¹Ģà¸ģ
ĠâĢľ "
ĠR ock
20 15
à¸Ļà¸ŀà¸£à¸°à¸£à¸²à¸Ĭ à¸Ļ
à¸Ķà¹ģà¸Ľà¸¥à¸ĩ à¸¡à¸²à¸Īà¸²à¸ģ
ĠSh ow
iss ion
ug h
b y
à¸£ à¸Ļ
à¸Ķ à¹ĥà¸Ļà¸£
à¸° à¹Ģà¸ģ
à¸ļ à¸Ļà¸Ķ
à¹Ģà¸£ à¸ķà¸ª
à¸Īà¸²à¸ģ à¸¡
à¹Ħà¸Ľ à¸¨
à¸Ļà¸ģà¸²à¸£ à¹Ģà¸Ĥ
à¸Ĺà¸£à¸ĩ à¹Ģà¸Ĥ
à¸Ķà¸ģà¸²à¸£ à¹Ģà¸¥
à¹Ģà¸§à¸ĵ à¸ª
à¹Ĥà¸£à¸Ħ à¸Ĺ
à¸ªà¸²à¸¡ à¸¡
à¸Ļà¸¡à¸² à¹Ģà¸¥
à¸²à¹Ģà¸¥ à¸ĭ
ect or
Ġ245 7
h am
l ine
à¹ ķ
à¸Ķ à¹Ĩ
à¸ŀ à¸²à¸ģ
à¸į à¹Ģà¸ŀ
à¸§à¸¢ à¹Ģà¸¥
à¸Ĳ à¸£
à¸Īà¸³ à¸ķ
à¸ĩà¸Īà¸²à¸ģ à¸ŀ
à¸ĩà¹ģ à¸«à¸¥
Ġà¹Ħ à¸ģ
Ġà¹ģà¸¡ à¸£
à¸Łà¸¥ à¸Ńà¹Ģà¸£à¸Ļà¸ĭ
à¸²à¸¡à¸²à¸ģ à¸¡à¸²à¸¢
Ġà¹ģà¸Ħà¸Ļ à¸²à¸Ķà¸²
u x
à¸Ļ à¹Ħà¸¥à¸Ĺ
à¸²à¸ª à¸Ļà¸²
à¸§à¸¡ à¸ª
à¸²à¸Ķ à¹ĥà¸«à¸į
à¸Ļà¸Ħ à¸Ńà¸¥
à¸Ļà¸ģ à¸£à¸°à¸ļà¸§à¸Ļ
à¸ļà¸ģà¸²à¸£ à¹Ģà¸Ĥ
à¸Ļà¸ģà¸²à¸£ à¸ĸ
à¸ĩà¸ģà¸¤à¸© à¹Ģà¸Ľ
à¹Ĥà¸Ħ à¸ª
à¸©à¸¢ à¸Ĭà¸²à¸ķ
Ġà¸ļà¸£ à¸²à¸§à¸Ļ
Ġà¹Ģà¸Ĺ à¸Ńà¸£
Ġà¸Ļà¸²à¸¢ à¸§
Ġ196 1
à¸ģà¸£à¸°à¸Īà¸²à¸¢ à¸Ńà¸¢
à¹ģà¸ªà¸Ķà¸ĩà¸Ħ à¸Ńà¸Ļà¹Ģà¸ª
E x
à¸ģ à¹Ģà¸§
à¸ģ à¸ĺà¸²à¸ķ
à¸Ĺ à¸²à¸¢à¸²à¸Ĺ
à¸¸ )
à¸³ à¸ŀà¸£
à¸¹à¹Ī )
à¸Ļà¸ŀ à¸Ļ
Ġ3 60
à¸Ļà¸¢ à¸²à¸¢
Ġà¸ļ à¸²à¸ĩà¸Ĺ
Ġà¸ģà¸²à¸£ à¹Ģà¸Ħà¸¥
Ġà¸Ĥà¸Ńà¸ĩ à¸ļà¸£
à¸²à¹Ĥ à¸Ńà¸£
à¹ĥà¸Ļà¸Ĺ à¸²à¸ĩà¸Ĺ
à¸£à¸§à¸¡ à¹Ģà¸Ľ
à¸§à¸¢à¸ģà¸²à¸£ à¹ĥà¸Ĭ
à¸Ļà¸Ĳà¸²à¸Ļ à¸Ńà¸¢
à¸§à¸²à¸ªà¸£à¸²à¸Ĭ à¸Ļà¸Ħà¸£
0 9
Î ±
à¸ĩ à¸Ļà¸Ħà¸£
à¸Ĺ à¸Ńà¸£
à¸Ħ à¸²à¸¢
à¸Ħ à¸ĩà¸Ĺ
à¸Ńà¸ĩ à¸ªà¸£
à¹Ĥ à¸ļà¸Ń
à¸Ĭ à¹Ģà¸Ĭà¸Ńà¸£
à¸Ĥà¸Ńà¸ĩ à¸ªà¸³à¸Ļ
à¸²à¸§ à¹Ħà¸¡
à¸Ļà¸ª à¸Ńà¸ĩà¸ª
à¸¢à¸§ à¸Ĭ
à¸Ĺà¸²à¸ĩ à¸ĺà¸£à¸£à¸¡à¸Ĭà¸²à¸ķ
Ġà¸§ à¸²
Ġà¸ŀà¸£à¸° à¹Ģà¸Ĭà¸©à¸Ĳ
Ġà¹ĥà¸Ļ à¸ģà¸¥
à¸ģà¸³ à¸ŀà¸£
à¸£à¸°à¸¢à¸° à¸¢à¸²à¸§
à¸Ĺà¸«à¸²à¸£ à¸ļà¸ģ
à¸¨à¸§ à¸£à¸¡
à¸Ħà¸Ńà¸Ļ à¸ģà¸£
à¸ªà¸łà¸²à¸ŀ à¸ł
ï ľ
à¹ ĺ
à¸ķ à¸Ńà¸Ļà¸ķ
à¸²à¸Ļ à¸ģà¸İà¸«à¸¡à¸²à¸¢
à¸Ħà¸§à¸²à¸¡ à¸¥à¸°à¹Ģà¸Ń
à¸²à¸Ĺ à¸²à¸ĩà¸Ĺ
à¸Ļà¸ª à¸ĸà¸²à¸Ľà¸Ļ
à¸łà¸²à¸¢ à¹ĥà¸Ļà¸ª
à¸Ļà¸²à¸¢ à¹ģà¸ŀà¸Ĺà¸¢
ĠL i
à¹Ģà¸Ķà¸Ńà¸° à¸ĭ
à¸Ļà¹Ģà¸§à¸¥ à¸²à¸Ļ
à¸ģà¸¥à¸¡ à¸ģà¸¥
à¸ģ à¸Ļà¸³à¹Ħà¸Ľà¹ĥà¸Ĭ
à¸¢ à¸Ļà¸Ŀ
à¸Ńà¸ĩ à¸Ńà¸Ńà¸ģ
à¸Ĥ à¸£
à¸Ĥà¸Ńà¸ĩ à¹Ģà¸Ĭ
à¸²à¸Ļ à¹Ģà¸¨à¸£à¸©à¸Ĳà¸ģ
à¸Īà¸²à¸ģ à¸«
à¸Ħà¸§à¸²à¸¡ à¸ģà¸¥
à¸Ńà¸¡ à¸£à¸°à¸«à¸§
à¸ļà¸Ĺ à¸°à¹Ģà¸¥
ĠC ont
us h
à¸²à¸Ļà¸ª à¸£
à¸Ļà¹ģà¸£à¸ĩ à¸ļ
à¸ģà¸ªà¸ł à¸²à¸Ļ
à¹ģà¸Ħà¸¥ à¹Ģà¸ĭ
Ġà¸Ĭà¸Ļà¸° à¸Ħà¸°à¹ģà¸Ļà¸Ļ
Ġ are
à¸¡ à¹ģà¸£à¸ģà¸Ĺ
à¸ļ à¹ģà¸Ł
à¸ģà¸²à¸£ à¸«à¸¥
à¸Ħà¸£ à¸£à¸ł
à¸§à¸¢ à¸¨
à¸Īà¸° à¸Ľà¸¥
à¸²à¸ķ à¸¢
à¸ªà¸²à¸¡à¸²à¸£à¸ĸ à¸Ħà¸§à¸ļà¸Ħ
à¸²à¹Ĥ à¸Ľ
à¸Ńà¸Ń à¸ĺ
à¸ģà¸²à¸£à¸Ĺ à¸Ķà¸¥
à¸£à¸°à¸¢à¸° à¸«
Ġp ar
à¸Ļà¹ģà¸Ķ à¸Ļà¸ª
à¹Ħà¸ŀ à¹Ģà¸£à¸²à¸°
Ġâ ĨĴ
y ch
à¸£ à¸ŀà¸¥
à¹Ģà¸Ľ à¸£à¸¡
à¸²à¸ª à¸²à¸ªà¸¡
Ġà¸Ń à¸²à¸ģà¸²à¸¨
à¸Ļà¸Ħ à¸²à¸£
à¸Ļà¸Ļ à¸²à¸Ļ
Ġà¸£ à¸ŀ
à¸¢à¸Ļ à¹Ģà¸Ĥ
on ic
à¸Ļà¸¢ à¸²à¸Ļ
à¸Ĭà¸²à¸§ à¸ģà¸£
Ġà¸Ĥà¸Ńà¸ĩ à¸§à¸ĩ
à¸ĺà¸£à¸£à¸¡ à¸§
à¸Ļà¸ŀà¸£à¸° à¸£à¸²à¸¡
à¸Ļà¹Ĥ à¸ŀ
à¸Ķà¸ģà¸²à¸£ à¹Ģà¸Ľà¸¥
à¸Ńà¸° à¸ĭ
Ġà¹ Ĺ
à¸²à¸Ļà¸ŀ à¸£
à¸Ķà¸Ľ à¸²à¸ģ
à¸Ķà¸Ħà¸§à¸²à¸¡ à¸Ĥ
ang u
à¸Ļà¸ķà¸£à¸ĩ à¸ģ
à¸ģ à¹Ĥà¸¥à¸ģà¸Ĺ
à¸Ĥ à¸Ļà¸²à¸¢
à¸Ĥ à¸§à¸²à¸ĩ
à¸²à¸¢ à¹Ģà¸Ĺ
Ġà¸ª à¹Ģà¸Ľà¸Ļ
à¸Ńà¸¡ à¸Ńà¸£
à¹Ģà¸Ń à¹Ģà¸¥
à¸Ļà¸¡ à¸²à¸ķà¸£à¸Ĳà¸²à¸Ļ
à¸Ļà¸Ī à¸²à¸ģà¸£
à¸ģà¸ª à¸²à¸¡à¸²à¸£à¸ĸ
à¸ĩà¸Īà¸²à¸ģ à¹Ģà¸«à¸ķ
à¹Ģà¸ľ à¸²à¹Ħà¸«à¸¡
à¸§à¸¥ à¸²à¸¥
à¸ģà¸£à¸¡ à¸ķà¸³à¸£à¸§à¸Ī
à¸Ľà¸£à¸°à¸ªà¸²à¸Ĺ à¸Ĺ
à¸Ĺà¸³à¸Ļ à¸Ńà¸ĩ
ener al
v ent
à¸Ń à¹Ħà¸§à¸£
à¸¥ à¹Ģà¸Ńà¸Ĭ
à¸Ħà¸£ à¸¡
à¸§à¸¢ à¸£à¸°à¸ļà¸ļ
à¸§à¸¢ à¸ŀà¸£à¸°à¸£à¸²à¸Ĭà¸Ĺ
à¸²à¸¥ à¸°à¸§
à¸²à¸¥ à¸³à¸Ķ
à¸¢à¸ĩ à¸Ĭà¸Ļ
à¸ĩà¸ª à¸ķ
à¹Ģà¸ķ à¸Ļà¹ĥà¸«à¸į
à¸Ļà¸ŀ à¸¢
à¸ĩà¸Ĥà¸Ńà¸ĩ à¸ľ
à¸ģà¸©à¸ĵà¸° à¹Ģà¸«à¸¡
Âł à¹Ģà¸Ľ
à¸ķà¸ļà¸Ńà¸¥ à¸Ń
à¹ĥà¸Ļà¸«à¸¥à¸²à¸¢ à¸Ľà¸£à¸°à¹Ģà¸Ĺà¸¨
à¸¢à¸ĩà¸ŀ à¸Ńà¸Ĺ
S S
à¸Ļ à¹ĥà¸Ļà¸ļ
à¸Ń à¸Īà¸°à¹Ħà¸Ķ
à¸ķ à¹Ģà¸£
à¹Ħ à¸Ńà¸Ķà¸Ńà¸¥
à¸Ĥ à¸¡
à¸²à¸ĩ à¹ģà¸Ĥ
à¸¨ à¸Ń
à¸Ĳ à¸Ľà¸£à¸°à¸Ĭà¸²à¸ĺ
à¸Ľà¸£ à¸²à¸Ħà¸²
Ġà¸Ĥà¸Ńà¸ĩ à¸Ľ
à¹Ĥà¸Ń à¸Ĭà¸²
om an
Ġà¸ķà¸²à¸¡ à¸Ľà¸£à¸°à¸ģà¸²à¸¨
à¹ĥà¸Ļà¸ŀà¸£à¸° à¸£à¸²à¸Ĭ
à¸ļà¸£à¸¡à¸£à¸²à¸Ĭ à¸²à¸ł
à¸Ļ à¹Ģà¸ĭà¸¥à¸¥
à¸Ń à¹ģ
à¸ĩ à¸Ĭà¸²à¸¢
à¸¥ à¹Ģà¸Ĺ
à¸¥ à¹Ģà¸«à¸£
à¸Ķ à¹ģà¸ļ
à¹ģà¸¥à¸° à¸Ńà¸ĩà¸Ħ
à¸²à¸ª à¸³à¸Ļ
à¸¥à¸ĩ à¸ķ
âĢ į
à¸¥à¸° à¸Ľà¸£à¸°à¹Ģà¸Ĺà¸¨
à¸Ļà¸² à¹Ħà¸Ķ
à¸ļà¸Ńà¸¥ à¸Ĭà¸²à¸¢
Ġà¸ķà¸²à¸¡ à¸«à¸¥
à¸Ĥà¸Ńà¸ĩà¸Ľà¸£à¸°à¹Ģà¸Ĺà¸¨ à¸Ń
ĠPl ay
à¸ĩà¸ľà¸¥à¸ģà¸£à¸°à¸Ĺ à¸ļà¸ķ
Ġ à¸Ļà¸³à¹Ħà¸Ľà¸ª
à¸²à¸£ à¸²à¸Ī
à¸Ńà¸ĩ à¸£à¸°à¸«à¸§
à¹Ħ à¸ĺà¸¢
à¸ŀ à¸ªà¸«à¸£
à¸²à¸§ à¹Ģà¸ģ
Ġà¸Ħ à¸Ńà¸¡
à¹ĥà¸Ļà¸Ľ à¸¥à¸²à¸¢
à¸Ļà¸Ļ à¸²à¸¢à¸ģ
à¸ŀà¸£à¸°à¸£à¸²à¸Ĭ à¸Ľà¸£à¸°à¸ªà¸ĩà¸Ħ
à¸²à¹Ĥ à¸Ļà¸°
à¸¬ à¸²à¸§
à¸Ľà¸£à¸°à¸Īà¸³ à¸Ĭà¸²à¸ķ
Ġà¸Ļà¸²à¸¢ à¸ŀà¸¥
Ġf rom
à¸¢à¸Ńà¸¡ à¹ģà¸ŀ
Ġà¹Ģà¸ŀà¸¥à¸ĩ à¸Ĺ
à¸¢à¸²à¸ģ à¸Īà¸Ļ
Ġ196 6
à¸Ńà¸²à¸£à¸²à¸¡ à¸«à¸¥à¸§à¸ĩ
R O
a ul
Ġ Â°
à¸Ń à¸Ħà¸§à¸ļà¸Ħ
à¸ģ à¸ļà¸Ńà¸¥
à¸¡ à¹ĥà¸Ī
à¸§ à¹ĥà¸Ĭ
à¸§ à¸Ľà¸£à¸°à¸¡à¸²à¸ĵ
à¸Ķ à¹Ģà¸ķ
à¸ļ à¸ī
à¹Ħ à¸ļà¸Ī
à¸²à¸¢ à¸«à¸£
à¸Īà¸²à¸ģ à¸Ľ
à¸ķà¸£ à¸Ľà¸£
à¸ĩà¸ª à¸¢à¸²à¸¡
à¸Ĺà¸²à¸ĩ à¸Ľà¸£à¸°à¸§
à¸²à¸ļ à¸Ńà¸Ķ
Ġà¹Ĥ à¸Ļ
Ġà¹ĥà¸Ļà¸ ľ
à¸Ķà¸ª à¸²à¸¡
à¹Ģà¸Ĥà¸ķ à¸ģà¸²à¸£à¹Ģà¸¥
à¸ļà¸Ħà¸§à¸²à¸¡ à¹Ģà¸Ľ
at ure
à¸Ľà¸£à¸²à¸ģà¸ı à¸Ĥ
ĠR ob
à¸²à¸ĩà¸¡à¸²à¸ģ à¸¡à¸²à¸¢
à¹Ħà¸® à¸Ķà¸£
à¸¢à¸«à¸²à¸¢ à¸Ńà¸¢
à¸Ļà¹Ĥà¸Ľà¸£ à¸Ķ
à¸«à¸¡à¸§à¸Ķ à¸«à¸¡
à¸ĩ à¸Ľà¸£à¸°à¸ª
à¸ļ à¹ģ
à¸Ĥà¸Ńà¸ĩ à¸ªà¸ĸà¸²à¸ļ
à¸Ļà¸Ĺ à¸²à¸¢à¸²à¸Ĺ
Ġà¹Ģà¸ ĸ
à¸į à¸²
à¸ķà¸£ à¸Ń
à¸Ļà¸ª à¸§à¸£à¸£à¸Ħ
à¹ģà¸ļà¸ļ à¸ŀ
à¸Ļà¸Ĭ à¸Ļà¸°
à¹Ģà¸ĺà¸Ń à¸Ħ
à¸ķà¸Ńà¸ļ à¹Ĥà¸ķ
l er
à¹ Ļ
à¸ģ à¸ľà¸ªà¸¡
à¸¥ à¸Ńà¸Ļ
à¸Ńà¸¡ à¸«
à¸Īà¸° à¸Ķà¸³à¹Ģà¸Ļ
à¸Īà¸° à¸«à¸¢
à¸ļà¸ª à¸łà¸²à¸ŀ
Ġà¸ģà¸²à¸£ à¸Ľ
à¸²à¸ģà¸²à¸£ à¸ķ
à¸Ļà¸Ĥà¸Ńà¸ĩ à¹Ģà¸Ĥà¸²
à¹Ĥà¸Ħ à¸ķ
ed er
à¸Ĺà¸£à¸²à¸ļ à¸ĸ
à¸Ļà¸Ľà¸£à¸°à¹Ģà¸Ĺà¸¨ à¹Ħà¸Ĺà¸¢
: //
Ã ¶
Ġ ad
à¸¡ à¸Ĺà¸²à¸ĩ
à¸¢ à¹Ģà¸Ļ
à¸ķ à¹Ģà¸Ħà¸£
à¸ŀ à¸²à¸Ķ
à¸Īà¸²à¸ģ à¸ģà¸²à¸£à¸ª
Ġà¸ª à¸ģà¸²à¸¢
à¸ļà¸£ à¸²à¸®
Ġà¹Ĥà¸Ķà¸¢ à¸Ńà¸¢
à¸Ĺà¸³ à¸ķà¸²à¸¡
à¸ĩà¸Īà¸²à¸ģ à¸£
à¸Ħà¸³ à¸¨
à¹ģà¸ľ à¸Ļ
à¹Ĥà¸¢ à¸®
à¸²à¹Ħà¸Ľ à¸Ĺ
à¸²à¸Ļà¸Ħ à¸ĵà¸°à¸ģà¸£à¸£à¸¡à¸ģà¸²à¸£
à¸Īà¸³à¸Ļà¸§à¸Ļà¸¡à¸²à¸ģ à¸Ĺ
à¹Ģà¸ŀà¸²à¸° à¹Ģà¸¥
Ġ un
à¸ĩ à¹ĥà¸Ļà¸Ħà¸£
à¸¢ à¸Ļà¸Ł
à¸Ľ à¸Ńà¹Ģà¸£à¸Ĭ
à¸²à¸ĩ à¹Ģà¸§
à¸²à¸ĩ à¹ģà¸£à¸ĩ
Ġ1 000
Ġà¸Ħ à¸Ńà¸Ļ
à¹Ģà¸Ĭ à¸¥à¸¥
Ġà¹Ģà¸¡ à¸Ĺ
à¸ļà¸ģà¸²à¸£ à¸Ń
à¸ĩà¸²à¸Ļà¸ ¢
Ġ7 4
Ġà¹Ģà¸ŀà¸£à¸²à¸° à¸ķ
à¸¥à¸¡ à¸²à¸Ķà¸£
à¹ĥà¸Ļà¸¨ à¸²à¸¥
à¸ģ à¹Ĥà¸Ĺà¸£
à¹Ħ à¸ªà¸¢
à¸²à¸ĩ à¸ļà¸£
à¸ģà¸£ à¹ģà¸¥à¸°
à¸ķà¸£ à¸£
à¸Ļà¸ª à¸łà¸²à¸ŀ
à¸Ńà¸¥ à¸³
à¹Ģà¸ŀà¸¥à¸ĩ à¸£
à¹ĥà¸Ļà¸ª à¸³à¸Ļ
à¸«à¸¥à¸²à¸¢ à¸§
à¸¡à¸²à¸Īà¸²à¸ģ à¸Ĭ
à¸Ķà¸Ĥà¸Ńà¸ĩ à¸Ī
200 7
à¸ĩà¸¡à¸« à¸²à¸ªà¸¡
à¸Ķ à¸Ľà¸£à¸°à¸ķ
à¹Ħ à¸Ńà¸ļ
à¸Ĭ à¸ļ
à¸²à¸ģ à¸¡
à¸Ĥà¸Ńà¸ĩ à¸ŀà¸§à¸ģà¹Ģà¸Ĥ
à¸Ĺà¸£ à¸ªà¸ĩà¸Ħà¸£à¸²à¸¡
à¸²à¸Ĥà¸Ńà¸ĩ à¹Ģà¸Ĥà¸²
à¸¢à¸° à¸¥à¸²
Ġ8 8
am il
à¸ļà¸Ľà¸£à¸°à¸Ĺ à¸²à¸Ļà¸Ńà¸²à¸«à¸²à¸£
Ġà¹Ģà¸ľ à¸¢
à¸Ńà¸¡à¸£à¸Ńà¸ļ à¸Ķ
B e
T H
à¸ĩ à¹Ģà¸§à¸¥à¸²
à¸ĩ à¹Ĥà¸£à¸ĩà¸ŀà¸¢à¸²à¸ļà¸²à¸¥
à¸¥ à¸¡à¸²à¸£
à¸Ħ à¸«
à¹Ĥ à¸¨à¸ģ
à¸³ à¸Ŀ
à¸²à¸ĩ à¸ŀà¸¥
à¹ģà¸¥à¸° à¹Ģà¸Ķ
à¹ģà¸ª à¸ĩà¸ª
à¸ļà¸Ĺ à¸ģà¸§
Ġ7 6
à¸²à¸ĩà¸ģ à¸²à¸¢à¸Ĺ
à¸¥à¸³ à¸ĺà¸²à¸£
à¸¥à¸Ńà¸Ķ à¸Ĭ
à¸ģà¸Ĥ à¸£à¸°
200 9
à¸Ħà¸§à¸²à¸¡à¸¢à¸²à¸§ à¸Ľà¸£à¸°à¸¡à¸²à¸ĵ
à¸ĩà¸ģà¸£à¸° à¸Ī
G A
à¸¥ à¹Ģà¸£
à¸³ à¹Ģà¸«à¸¥
Ġà¹ģà¸¥à¸° à¸ªà¸¡à¸²à¸Ĭ
à¹Ĥà¸Ķà¸¢ à¸ļ
à¸® à¸²
à¸²à¸Ĥ à¸Ļà¸²à¸Ķà¹Ģà¸¥
Ġà¸«à¸¥ à¸§à¸ĩ
Ġà¹Ģà¸ª à¸Ļà¸Ń
à¹Ģà¸ģà¸£ à¸ĩà¸§
à¸¢à¹ģà¸¥à¸° à¸ŀ
à¸Ļà¸ľà¸¥ à¹Ħà¸¡
à¸§ à¸Ļà¸ŀà¸£à¸°
à¸Ķ à¸ĺ
à¸Ķ à¸Ķà¸³à¹Ģà¸Ļ
à¸Ħ à¸²à¸ļà¸ªà¸¡
à¹Ĥ à¸Ļà¸Ļ
à¹Ĥ à¸ļà¸§
à¸Ĥà¸Ńà¸ĩ à¹Ģà¸§
à¸Ńà¸ļ à¹Ĥà¸ķ
Ġà¸ģ à¸Ńà¸ĩ
à¸Ļà¸¡ à¸²à¸Ļ
an ti
à¸ªà¸²à¸¡à¸²à¸£à¸ĸ à¹Ģà¸ģ
al s
à¸Ħà¸³ à¸Ńà¸ĺ
Âł à¸ĭ
ĠR ep
Ġà¸® à¸Ńà¸£
à¸²à¸Ļà¸ª à¸¡à¹Ģà¸Ķ
à¸Ļà¸²à¸Ļ à¸ģà¸§
à¸ķà¸³à¸ļà¸¥ à¸Ĺ
à¸°à¸Ĺ à¸°
à¸ĩà¸Ńà¸²à¸Ī à¸¡
à¸²à¸ģà¸²à¸£à¸ģà¸£à¸°à¸Ĺà¸£à¸§à¸ĩ à¸ģà¸²à¸£à¸ķ
à¸²à¸£à¸²à¸Ĭà¸ģà¸²à¸£ à¸ģà¸£
oun g
à¸Ļ à¹ĥà¸Ļà¸«
à¸Ķ à¸ļà¸²à¸ĩ
à¸Ķ à¹ģà¸Ĺà¸Ļ
à¸ļ à¸Ĥà¸Ļà¸²à¸Ķ
à¹ĥà¸Ļ à¹ģà¸«à¸¥
à¸£à¸¡ à¸«à¸²à¸§
Ġà¸ģà¸²à¸£ à¸Ĭ
à¹Ģà¸ĺ à¸Ńà¸§
à¹Ģà¸Ĥà¸ķ à¸Ĺ
à¸Ńà¸ĩà¸Īà¸²à¸ģ à¸Ń
ĠT op
Ġà¸£à¸§à¸¡ à¹Ģà¸Ľ
à¸ĩà¹ĥà¸Ļ à¸ģà¸¥
à¸įà¸« à¸²à¹Ģà¸£
à¸ģà¸²à¸£à¸Ħ à¸¡à¸Ļà¸²à¸Ħà¸¡
à¸Ļà¸Ħà¸§à¸²à¸¡ à¸Īà¸£
Ġd es
à¸Ńà¸²à¸ª à¸²à¸ªà¸¡
Ġâ ĪĴ
à¸ªà¹ģà¸¥ à¸¡
C on
j i
Ġ à¸£à¸²à¸Ĭà¸ļ
à¸Ļ à¸Ļà¸§à¸Ļ
à¸ĩ à¸Ļà¸³à¹Ħà¸Ľà¸ª
à¸¢ à¸ªà¸¡
à¸¢ à¸Ĺà¸£
à¸ķ à¸²à¸Ļ
à¸³ à¸ģà¸£
à¸²à¸ĩ à¸Ħà¸§à¸²à¸¡à¸ª
à¸Īà¸²à¸ģ à¹Ģà¸Ķ
Ġà¸¡ à¸²à¸Ķ
à¸¢à¸§ à¹Ģà¸Ļ
à¹Ĥà¸£ à¸Ķ
à¸Ńà¸ķ à¹Ĥà¸ķ
à¹Ģà¸ŀà¸¥à¸ĩ à¸Ĭà¸²à¸ķ
à¸Ńà¸Ń à¹Ĥà¸ķ
à¸¥à¸³ à¹Ģà¸Ļ
Ġ8 3
à¹Ģà¸ŀà¸£à¸²à¸° à¹Ħà¸¡
à¸ļà¸ĸ à¸Ļà¸Ļ
à¸Ļà¸Ľà¸£ à¸²à¸ªà¸²à¸Ĺ
à¸ģ à¸¢à¸°
à¸ĩ à¸Ľà¸£à¸°à¹Ģà¸łà¸Ĺ
à¸¡ à¸¥à¸²à¸¢
à¸§ à¸Ĺà¸³
à¸§ à¸Ļà¸Ľà¸¥à¸²à¸¢
à¹Ĥ à¸ªà¸¡
à¸Ĥà¸Ńà¸ĩ à¸ģà¸©
à¸Ńà¸ģ à¸Ķ
à¸Ńà¸ģ à¸³à¸¥
à¹Ģà¸¥ à¸Ķ
à¸£à¸°à¸ļà¸ļ à¸Ľà¸ı
Ġ7 3
à¸Ńà¸³à¸Ļà¸²à¸Ī à¸«à¸Ļ
Ġà¹Ģà¸§ à¸ªà¸ķ
à¹ģà¸ªà¸Ķ à¸ĩà¸¡
à¸²à¸¥à¸ĩ à¹Ģà¸¥
Ġh ad
à¸Ĥà¸Ńà¸ĩ à¸Ńà¸²à¸ĵà¸²à¸Ī
à¸Ńà¸¢ à¸«à¸£
à¸²à¸¥ à¸²à¸¡
à¸Ļà¸ª à¸°à¸ŀ
à¸²à¸« à¸§à¸²à¸Ļ
Ġà¸ģà¸²à¸£ à¸Ķ
à¸ĩà¸²à¸Ļà¸ ĸ
Ġ7 1
Ġ9 8
Ġà¹Ħ à¸«à¸¥
à¸ªà¸Ńà¸ĩ à¸Ľ
à¸Ńà¹Ģà¸£ à¸Ńà¸£
à¸ĩà¸Ķ à¸²à¸§
à¹ģà¸Ħ à¸Ľ
à¸Ľà¹ģà¸ļà¸ļ à¸Ń
Ġà¹Ģà¸§ à¸Ĺ
à¸Ĵà¸Ļà¸ĺà¸£à¸£à¸¡ à¹ģà¸«
à¸Ħà¸§à¸²à¸¡à¸ªà¸²à¸¡à¸²à¸£à¸ĸ à¸ŀ
Ġ247 4
à¸Ńà¸³à¹Ģà¸łà¸Ń à¹ģà¸¡
uc k
Ġ195 9
à¸ŀà¸ŀ à¸²à¸Ļ
à¸¡ à¸Īà¸³à¸Ļà¸§
à¸¥ à¸²à¸Ń
à¸§ à¸ķà¸Ļ
à¸Ķ à¹ģà¸ŀà¸£
à¸Ńà¸ĩ à¹ģà¸¥à¸°à¸Ļ
à¹Ĥ à¸ĵ
à¸Ł à¸¥à¸²à¸¢à¹Ģà¸§à¸Ĺ
à¸¢à¸ĩ à¹Ĥà¸Ķ
à¸ĩà¸Ħ à¸ĩà¸ķ
à¸ķà¸²à¸¡ à¸ŀ
Ġà¸ŀà¸£à¸° à¸¡à¹Ģà¸«à¸ª
à¸²à¸Ĥà¸Ńà¸ĩ à¸Ħ
à¸Ļà¹Ħà¸Ľ à¸Ń
à¸ģà¸©à¸ĵà¸° à¸Ķ
à¹Ģà¸ģà¸²à¸° à¸ķ
à¸ªà¸²à¸¢ à¸ª
à¸Ļà¸Ħà¸§à¸²à¸¡ à¸¥
à¹Ģà¸ģà¸£ à¸Ķ
à¸Ńà¸Ļà¸Ī à¸³
u le
à¸Ń à¹Ģà¸Ĥà¸²
à¸ĩ à¸Ľà¸£à¸°à¸Ĭà¸²à¸Ĭà¸Ļ
à¸ļ à¸Ľà¸ı
à¸³ à¸¥à¸²à¸¢
à¸Ńà¸Ļ à¹Ģà¸¥
à¸§à¸¢ à¸ŀà¸¥
à¸Ĳ à¸ŀ
Ġà¹Ĥà¸Ķà¸¢ à¹ĥà¸Ļà¸Ĭ
à¸¢à¸§ à¸«
Ġ3 50
à¸ľà¸¥ à¸Ĥà¸Ńà¸ĩ
à¹ģà¸Ĺ à¸ļà¸Ńà¸¥
à¸Ļà¸Ĺà¸²à¸ĩ à¸¡à¸²à¸ĸ
à¸¥à¸°à¸Ħà¸£ à¸Ĭ
à¸Ĥà¸Ļà¸²à¸Ķ à¸ģà¸¥à¸²à¸ĩ
à¸Ľà¸£à¸°à¸Īà¸³ à¸Ĺ
Ġà¹ ĺ
à¸Ļà¹ģà¸£à¸ĩ à¸Ĺ
à¸²à¹Ģà¸Ķ à¸¡
Ġà¹Ģà¸¥à¸Ĥ à¸²à¸ĺ
I P
Ġ à¹Ģà¸Ńà¸ģà¸ªà¸²à¸£
à¸Ń à¹ĥà¸Ļà¸£à¸°à¸Ķ
à¸ķ à¹Ģà¸ģ
à¹Ħ à¸Ħà¸¥
à¸ķà¸²à¸¡ à¸Ĭ
à¹Ħà¸§ à¹Ģà¸§à¸Ńà¸£
ĠC an
à¹Ħà¸Ĥ à¹Ģà¸ŀ
Ġà¸Ħà¸³ à¸ª
à¸¥à¸²à¸Ī à¸¥
à¹Ħà¸Ńà¸Ń à¸Ńà¸Ļ
à¸Ĺ à¹Ĥà¸ĺ
à¸²à¸ĩ à¹Ģà¸Ī
à¸Ĥà¸Ńà¸ĩ à¸Ħà¸Ļ
à¸ģà¸£ à¸Ĭ
à¸Ļà¸ª à¸§
à¸¥à¸ĩ à¸¡à¸ķ
à¸Ļà¸Ļ à¸²à¸ĩà¸Ĺ
in c
à¸Ļà¸Īà¸° à¹ĥà¸Ĭ
à¸Ķà¸Ļà¸Ħà¸£ à¸ªà¸§à¸£à¸£à¸Ħ
à¸¢ à¸Ļà¸¡à¸²à¹ĥà¸Ĭ
à¹Ĥ à¸ľà¸¥
à¸į à¹Ĥà¸į
à¸§à¸ĩ à¹Ģà¸£
à¸ļà¸ļ à¸¥
à¸²à¸ĵ à¸²à¹Ģà¸Ĥà¸ķ
à¸Ńà¸ĩà¸Īà¸²à¸ģ à¸Ľ
à¸ªà¸Ńà¸ĩ à¸Ħà¸£
à¸Ľà¸£à¸°à¸Īà¸³ à¸Ĺà¸²à¸ĩ
à¸¡à¸²à¸ķà¸£ à¸Ĳ
Ġà¸ķà¸¥à¸Ńà¸Ķ à¸Īà¸Ļ
à¸Īà¸³à¸Ľ à¸²à¸¨
à¸¡ à¸ģà¸³à¹Ģà¸Ļ
à¸§ à¸ģà¸²à¸£
à¸ļ à¹ģà¸Ļà¸§
à¸Ńà¸ĩ à¹Ģà¸«à¸¥
Ġà¸Ī à¸Ļà¹Ģà¸ģ
à¸ĩà¸ª à¸Ńà¸ĩà¸ķ
à¸Ļà¸³ à¸ŀ
Ġà¸Ĥà¸Ńà¸ĩ à¸ªà¸«à¸£
à¹Ģà¸Ńà¸ģ à¸łà¸ŀ
à¸Ļà¸ł à¸²à¸§à¸°
à¸Ńà¸²à¸Ī à¹Ħà¸¡
Ġà¸Ħà¸§à¸²à¸¡ à¹Ģà¸Ĭ
à¸Ńà¸³à¹Ģà¸ł à¸Ńà¸ŀ
à¸Ĺà¸«à¸²à¸£ à¸Ĺ
Ġb l
ne y
Ġ195 4
Ġà¸Ľà¸£à¸°à¸Īà¸³ à¸§
o e
Ġ à¸Ļà¸°
à¸Ļ à¹Ģà¸īà¸ŀà¸²à¸°
à¸ģ à¸Ńà¸ĩà¸ļ
à¸ĩ à¸£à¸²à¸¢à¸ģà¸²à¸£
à¸Ķ à¸¤à¸Ķ
à¸ļ à¸Īà¸²à¸ģà¸ģà¸²à¸£
à¹ģà¸¥ à¸ª
à¸Ńà¸¡ à¸ŀà¸¥
Ġà¸ĭ à¸²à¸¡
à¸® à¸²à¸§à¸²à¸¢
à¹Ģà¸ļ à¸²
er r
à¸Ļà¸ģà¸²à¸£ à¸Ĥ
à¹Ĥà¸¡ à¹Ģà¸¡à¸Ļà¸ķ
ec k
as k
Ġà¹Ģà¸« à¸¢
Ġp er
à¸ļà¸ļà¸Ĺ à¹Ĥà¸Ķà¸¢
à¸Ķà¸³à¸£à¸ĩ à¸ŀà¸£à¸°à¸Ń
à¸Ńà¸¨à¸²à¸ªà¸Ļ à¸²à¸Ń
à¸¥ à¸²à¸¥
à¸¢ à¹Ģà¸Ī
à¸¢ à¹Ģà¸«à¸Ļ
à¸Ńà¸ĩ à¸ł
à¸ģà¸²à¸£ à¸Ńà¸Ļà¸²à¸¡
à¸ĭ à¸Ń
à¹Ģà¸Ĥ à¸²à¸ģà¸¥
à¸ŀà¸£à¸° à¸ļà¸²à¸Ĺ
Ġà¸Ī à¸Ļà¸ģà¸§
à¸łà¸²à¸ŀ à¹Ģà¸Ľ
à¸Ļà¸²à¸¡ à¸ļ
ĠC ity
à¸ĩà¸«à¸¡à¸Ķ à¹Ħà¸Ķ
Ġà¹ģà¸¡ à¸Ħ
à¸²à¸£à¸²à¸Ĭ à¸§à¸ĩà¸¨
à¸Ļà¸łà¸²à¸© à¸²
à¹ĥà¸Ļà¸łà¸²à¸Ħ à¸ķà¸°à¸§
Ġà¸ļà¸Ĺ à¸Ľà¸£à¸°à¸ŀ
à¸Ħà¸ŀ à¸Ńà¸¢à¸Ĺ
Ġ à¹ĥà¸«à¸¡
à¸ª à¹Ģà¸¡
à¸Ĭ à¸²à¸ŀ
à¸Ĥà¸Ńà¸ĩ à¸Ļà¸²à¸ĩ
à¸Ńà¸ģ à¸£à¸°à¸Ķ
à¸Ńà¸£ à¸²à¸¢à¸ģà¸²à¸£
à¸Īà¸° à¸Ľ
à¹Ģà¸§ à¸¨à¸Ļ
à¸¢à¸ĩ à¹Ģà¸Ĭ
à¸Ĺà¸£ à¸¢à¸¨
ĠS ec
à¸ķà¸ļà¸Ńà¸¥ à¸Ĭà¸²à¸§
à¸Ħà¸²à¸£ à¸²à¸§
à¸Ļà¹Ģà¸ŀà¸¥à¸ĩ à¸Ľà¸£à¸°à¸ģà¸Ńà¸ļ
Ġà¸Īà¸Ļ à¸ģà¸¥à¸²à¸¢à¹Ģà¸Ľ
à¸²à¸Ķà¸³à¸£à¸ĩ à¸£à¸²à¸Ĭà¸²à¸Ļ
Ã ¨
à¸Ń à¸ŀà¸¢
à¸§ à¹Ģà¸ªà¸Ķ
à¸Ķ à¸ģà¸³à¹Ģà¸Ļ
à¹Ħ à¸ļà¸£
à¹Ħ à¸£à¸¡
à¸§à¸ĩ à¸ģà¸¥à¸¡
à¸Ńà¸Ķ à¸Ķ
Ġà¸£ à¸²à¸ģ
Ġà¹Ĥ à¸¡à¸£
à¸ļà¸ª à¸§à¸Ļ
à¹ĥà¸Ļà¸ª à¸ĸà¸²à¸Ļà¸ģà¸²à¸£à¸ĵ
à¸«à¸¥à¸²à¸¢ à¸ŀ
al a
à¸ŀà¸£à¸°à¸£à¸²à¸Ĭ à¸Ńà¸³à¸Ļà¸²à¸Ī
à¸Ļà¹Ĥ à¸Ńà¸ģà¸²à¸ª
à¸²à¸ľ à¸ªà¸¡
à¸ģà¸Ħ à¸ĵà¸°
el s
à¸Ħà¸Ħà¸¥ à¸Ļ
Ġà¸ģà¸£à¸° à¹ģà¸ª
à¸§à¸¡à¸¡ à¸ĩà¸ģ
ers on
Ġà¹Ĥà¸Ī à¸Ļà¸ª
à¸ªà¸¢ à¸Ńà¸ĩà¸Ĥà¸§
N ew
Ã Ń
à¸ģ à¸Ľà¸¥à¸Ķ
à¸Ĺ à¸²
à¸Ľ à¸²à¹Ģà¸¥à¸ªà¹Ħà¸ķà¸Ļ
à¸²à¸ĩ à¹Ģà¸«à¸¡
à¸Ńà¸¢ à¸«à¸¥
à¸²à¸§ à¹Ĩ
à¸¢à¸Ļ à¸Ńà¸Ļ
à¸Ħà¸¥ à¸Ńà¸ĩà¸ª
à¸Ĵ à¸Ļà¸°
à¸Ľà¸£à¸°à¸Ĭ à¸²à¸Ħà¸¡
à¸ĺà¸£à¸£à¸¡ à¸¢
ĠB ar
ĠP A
à¸Ķà¸² à¹ģà¸«
à¸£à¸°à¸ļ à¸²à¸¢à¸Ļ
Ġà¸Ĺà¸£à¸ĩ à¹Ħà¸Ķ
à¹ģà¸ĭ à¸£
à¸¢à¸Ķà¸Ļà¸²à¸¡ à¹ĥà¸ķ
à¸¢à¸Ļà¸¡ à¸²à¹Ģà¸Ľ
à¹ĥà¸Ļà¸Ħà¸§à¸²à¸¡ à¸£
hy l
' t
à¸£ à¸Ńà¸Ļ
à¸Ń à¸«à¸§
à¸Ĺ à¸Ħ
à¸ģà¸²à¸£ à¸§à¸²à¸ĩ
à¸²à¸¡ à¸²à¸Ķ
à¸²à¸Ļ à¹Ģà¸Ħà¸£
à¸²à¸Ļ à¸ģà¸²à¸£à¸ª
à¸²à¸§ à¹ģà¸¥à¸°
à¸ł à¸²à¸ĵ
à¸ķà¸£ à¸²à¸Ķ
à¸Ł à¸ģ
à¹Ģà¸Ī à¸ķ
Ġà¹Ĥà¸Ķà¸¢ à¸Ĺà¸²à¸ĩ
à¸Ļà¸Ī à¸²
à¸Ŀ à¸Ļà¸ķà¸ģ
à¸¡à¸² à¹Ĥà¸Ķà¸¢à¸ķà¸¥à¸Ńà¸Ķ
à¸ĩà¸Īà¸²à¸ģ à¸ľ
à¸Ļà¸ŀà¸£à¸° à¸¡à¹Ģà¸«à¸ª
à¸§à¸£ à¸Ļ
à¸²à¸Īà¸° à¸ª
à¸Ļà¹Ħà¸Ľ à¹Ģà¸Ľ
à¸Ļà¸²à¸¢ à¸Ī
à¸²à¸Ł à¸ķ
Ġà¸ķà¸²à¸¡ à¸¡à¸²à¸Ķ
à¹ĥà¸Ļà¸łà¸²à¸© à¸²à¹Ħà¸Ĺà¸¢
Ġ246 3
Ġà¹ĥà¸Ļà¸« à¸¥à¸²à¸¢
C ar
à¸¢ à¸Ļà¸Ħà¸£
à¸¢ à¸ģà¸£à¸°à¸Ķ
à¸Ķ à¸ªà¸ķ
à¸ļ à¹ĥà¸Ļà¸Ľà¸£à¸°à¹Ģà¸Ĺà¸¨à¹Ħà¸Ĺà¸¢
à¸¨ à¸Ļà¸°
à¹Ħà¸Ľ à¸ŀà¸£
Ġà¸¡ à¸²à¸Ļ
à¸Ńà¸¡ à¸²à¸ķ
à¸¥à¸ĩ à¸§
Ġà¹Ĥà¸Ķà¸¢ à¸ŀà¸£à¸°à¸Ńà¸ĩà¸Ħ
à¸Ļà¸Ĺà¸²à¸ĩ à¸Ĥ
à¸ģà¸©à¸£ à¸ķ
20 16
ent s
à¹Ĥà¸Ħà¸£à¸ĩà¸ģà¸²à¸£ à¸Ļ
b um
à¸ª à¹ģà¸Ħà¸§à¸£
à¸ŀ à¹Ħà¸Ķ
à¸į à¹ĥà¸Ļ
à¹Ģà¸Ħ à¸ªà¸ķà¸£
à¸¢à¸§ à¹Ģà¸Ĥ
à¸Ļà¸« à¸²
à¸łà¸²à¸ŀ à¸Ķ
à¸Ļà¸ģà¸²à¸£ à¸Ķ
à¹Ģà¸ĺ à¸Ńà¸ª
or a
à¸ļà¸Ķ à¸¡
à¹Ģà¸ŀà¸¨ à¸ª
Ġà¹ĥà¸Ļà¸Ĳà¸²à¸Ļà¸° à¸Ĺ
Ġà¹Ģà¸Ħà¸¢ à¸Ķà¸³à¸£à¸ĩà¸ķà¸³à¹ģà¸«à¸Ļ
à¸Ń à¹ĥà¸«à¸į
à¹Ģà¸ ĳ
à¸¢ à¸Ľà¸£à¸°à¸¡à¸²à¸ĵ
à¸ļ à¹Ģà¸ķ
à¸³ à¸¡à¸°
à¹Ĥà¸Ķà¸¢ à¸Ħ
à¸§à¸¡ à¸Ħ
à¹Ĥà¸¥ à¸¡
à¹Ĥà¸£ à¹Ĥà¸£à¸°
Ġà¸¢ à¸²à¸¡
à¸Ļà¸Ĥ à¸Ļà¸²à¸Ķà¹Ģà¸¥
Ġà¸«à¸¥ à¸§à¸ĩà¸Ľ
à¸łà¸²à¸Ħ à¹ģà¸£à¸ģ
Ġà¸ĺ à¸²à¸ķ
à¸Ļà¸²à¸ĩ à¹ģà¸ļà¸ļ
à¸§à¹Ģà¸Ńà¸ĩ à¹Ģà¸Ľ
à¸ķà¸Ńà¸Ļ à¹ģà¸£à¸ģ
à¸Ļà¸£à¸ĸ à¸¢à¸Ļà¸ķ
i i
à¸ģ à¸²à¸Ĥà¸Ńà¸ĩ
à¸© à¸ķ
à¸Ńà¸¢ à¸Ńà¸Ńà¸ģà¸¡à¸²
à¸Ńà¸ģ à¸¢
à¸£à¸£ à¸Ķà¸²
à¸Īà¸° à¹ģà¸ļ
à¸Ĺà¸³ à¹Ģà¸Ļ
à¸²à¸Ľ à¸²à¸ģ
à¸Ńà¸Ł à¸Ł
ad y
à¸Ļà¸Ļà¸²à¸ĩ à¹ģà¸ļà¸ļ
Ġà¸ªà¸²à¸¢ à¸ģà¸²à¸£à¸ļ
Ġà¹Ħà¸Ĺà¸¢ à¸¥
à¸Ļà¸ķà¸£à¸ĩ à¸ķ
i ver
à¹Ģ à¸Ļà¸Ĺ
à¸ģ à¸ģà¸²à¸£à¸Ĺ
à¸ĩ à¸ļà¸ª
à¸Ħ à¸Ńà¸ª
à¹ĥ à¸ļà¸ª
à¸Ńà¸ĩ à¸«à¸į
à¸Ĥà¸Ńà¸ĩ à¸ŀà¸¥
à¸Ĥà¸Ńà¸ĩ à¸ŀà¸£à¸°à¸ļà¸²à¸Ĺà¸ªà¸¡à¹Ģà¸Ķ
à¸ģà¸£ à¹Ħà¸Ķ
à¹Ĥà¸Ķà¸¢ à¸Ľà¸£
à¸Ńà¸¡ à¸²à¸Ļ
à¸Ńà¸ļ à¸ģ
Ġà¹Ĥà¸Ķà¸¢ à¹Ģà¸Ĭ
à¸Ńà¸ª à¸²à¸£à¸ģ
à¸ĩà¸²à¸Ļ à¸Ń
à¸Ļà¸²à¸¡ à¹ģà¸¡
à¹Ĥà¸ķ à¹Ĥà¸¢à¸ķ
à¸ĩà¸Ĥà¸Ńà¸ĩ à¹Ĥà¸¥à¸ģ
à¸Ńà¸Ń à¸²à¸«à¸²à¸£
ĠT echn
Ġà¸Ńà¸Ńà¸ģ à¸¡à¸²
ĠO f
ĠU p
Ġà¸«à¸²à¸ģ à¸¡
à¸Ńà¸ĩà¸£à¸²à¸Ĭ à¸¢
à¸Ńà¸ļà¸ª à¸§à¸Ļ
à¸Ĥà¸Ńà¸ĩà¹Ģà¸Ĥ à¸²à¸Ĺ
" âĢĿ
i ew
à¸Ń à¹Ĥà¸Ħ
à¸ĩ à¸ĺà¸Ļ
à¸ļ à¹ģà¸Ħ
à¸Ĥà¸Ńà¸ĩ à¸ªà¸¡
Ġà¸¡ à¸²à¸ĭ
Ġà¸¡ à¸²à¹ĥà¸Ĭ
à¸Ĺà¸³ à¸ªà¸ĩà¸Ħà¸£à¸²à¸¡
Ġà¹Ĥ à¸£à¸ª
à¸¢à¸ģ à¸Ħ
à¸§à¸ģ à¸ģ
at us
à¸Ńà¸³à¹Ģà¸ł à¸Ńà¸Ļ
à¸ķà¸£à¸§à¸Ī à¸§
Ġ193 3
à¸Ńà¸¨à¸²à¸ªà¸Ļ à¸²à¸ŀ
à¸ľà¸¥à¸ģà¸£à¸°à¸Ĺ à¸ļà¸ķ
m in
à¸Ļ à¹Ģà¸ĺà¸Ń
à¸ģ à¹Ģà¸Ħà¸¥
à¸Ńà¸¢ à¸Ńà¸Ńà¸ģà¹Ģà¸Ľ
à¸Ł à¸Ńà¸ª
à¸Ħà¸§à¸²à¸¡ à¹ĥà¸ģà¸¥
à¸²à¸¥ à¸ĩà¹Ħà¸Ľ
à¸Ńà¸ª à¸ĸà¸²à¸Ļ
à¸ļà¸ģà¸²à¸£ à¸Ľà¸£à¸°à¸ģà¸²à¸¨
Ġà¸ģà¸²à¸£ à¸Ľà¸£
Ġà¹Ģà¸Ĥ à¸²à¹Ħà¸¡
à¸įà¸į à¸²à¸¢
ĠC ent
Ġà¹Ħ à¸¥
it ch
à¸Ĺà¸³à¸ĩà¸²à¸Ļ à¹ĥà¸«
Ġà¹Ħà¸Ľ à¸ª
Ġ246 8
à¸¡à¸Ńà¸ļ à¸«à¸¡à¸²à¸¢à¹ĥà¸«
à¸²à¸Ļà¸Ľà¸£à¸° à¹Ģà¸łà¸Ĺ
p ar
à¸Ń à¸ŀà¸£
à¸ĩ à¸ļà¸Ļ
à¸¡ à¸¥à¸°à¸¥à¸²à¸¢
à¹Ģà¸¥ à¸Ħ
à¸Īà¸²à¸ģ à¸ģà¸£
à¸Ńà¸¡ à¸Ī
à¸Ńà¸¡ à¸²à¸¢
à¸Ļà¸ª à¸°à¹Ģà¸Ĺ
à¸Ĺà¸³ à¸ļ
à¹Ģà¸Ħ à¸²à¸Ļà¸ķ
Ġà¸Īà¸²à¸ģ à¸ģà¸²à¸£à¸Ĺ
ĠM c
ol ution
ĠG old
ĠH ar
à¸²à¸Ļà¸ķ à¸²à¸¡
à¸ĩà¹ģà¸¥à¸° à¹Ģà¸Ľ
à¹Ĥà¸ī à¸¡
à¸Ķà¸ŀà¸£à¸£à¸Ħ à¹Ģà¸ŀ
Ġà¹ĥà¸Ļà¸Īà¸³à¸Ļà¸§ à¸Ļà¸Ļ
à¸Ń à¹Ģà¸īà¸¥
à¸Ń à¸¨à¸²à¸¥
à¸ļ à¹Ĥà¸Ľà¸£à¸Ķà¹Ģà¸ģà¸¥
à¹Ħ à¸Ī
à¸¹ .
à¹Ģà¸Ī à¸Ļà¸Ĺ
à¸ĩà¸²à¸Ļ à¸Ńà¸¢
à¸Ļà¹ģ à¸®
à¸Ļà¸² à¹ģà¸«
Ġà¹Ħ à¸ŀ
à¸Ńà¸Ĥà¸Ńà¸ĩ à¸£
Ġà¸Ħà¸§à¸²à¸¡ à¸ľ
à¸ļà¸²à¸ĩ à¸£
ac ter
à¸ģà¸²à¸£à¸ķ à¸ģà¹ģà¸ķ
à¹ĥà¸Ļà¸Ń à¸²à¸«à¸²à¸£
à¸ĩà¸Ħà¸¡ à¸§
ent al
à¸Ńà¸ĩà¸Ń à¸ĺ
à¸Ĥà¸Ńà¸ĩà¸ŀà¸£à¸° à¸¡à¸«à¸²à¸ģà¸©
à¸Ħà¸²à¸Ķ à¸«à¸§
à¸²à¸ı à¸ģà¸£à¸£à¸¡
à¸§à¸Ļà¸³ à¸¢à¸§à¸Ķà¸¢
u rop
z e
à¸Ļ à¹ĥà¸Ļà¸¤à¸Ķ
à¸Ń à¸Ļà¸³à¹Ħà¸Ľ
à¸ĩ à¸Ĺà¸²à¸ĩà¸Ķ
à¸° à¸«à¸§
à¸Ľ à¸łà¸²à¸ŀ
à¸Ńà¸ĩ à¹Ģà¸Ĺà¸¨
à¸ŀ à¸Ħà¸£
à¸²à¸ĩ à¸£à¸°à¸Ķ
à¹ģà¸¥à¸° à¸ĺ
à¸Ļà¸Ĺ à¸²à¸ª
à¸Īà¸²à¸ģ à¸¥
à¸²à¸ķ à¸³à¸ļà¸¥
à¸²à¸ķ à¸²à¸ģà¸ª
à¸® à¸Ńà¸Ļà¸Ķ
à¸ĩà¸Ĥ à¸Ļà¸²à¸Ķà¹ĥà¸«à¸į
à¹ĥà¸Ļà¸§ à¸£à¸£à¸ĵà¸ģà¸£à¸£à¸¡
ĠP ark
re ak
ĠL ife
à¸²à¹Ģà¸Ĥ à¸²à¹Ģà¸Ľ
ĠAss ociation
à¸ĩà¸Ĥà¸¥ à¸²à¸Ļà¸Ħà¸£
Ġà¸ķà¸²à¸£à¸²à¸ĩ à¹Ģà¸¡à¸ķà¸£
ĠInstit ute
b e
à¸ģ à¸Ļà¸ģ
à¹Ģà¸Ľ à¸į
à¸ĵ à¸ģ
Ġà¹ģà¸¥à¸° à¸¡à¸«à¸²à¸§
Ġà¹ģà¸¥à¸° à¸ļà¸²à¸ĩà¸ª
à¸Ļà¸ķ à¸²
à¹Ģà¸Ĥ à¸²à¸«
à¸ģà¸¥ à¸²à¸ª
à¸Ńà¸¥ à¸Ķ
à¸Īà¸³ à¸Ļà¸Ļ
à¹ģà¸ļà¸ļ à¸¢
à¸Ħà¸¥ à¸²à¸ª
à¸ĩà¸Ĥ à¸¢à¸²à¸¢
à¸Ļà¸Ĺà¸²à¸ĩ à¸¡à¸²à¸¢
es e
à¸Ļà¸Ľà¸£à¸° à¸Ĺ
à¸Ńà¸²à¸ģà¸²à¸¨ à¸¢
Ġà¸Ħà¸§à¸²à¸¡ à¸Ķ
à¸²à¹Ħà¸Ľ à¸ª
ĠI II
à¹Ĥà¸£à¸Ľ à¸²à¸¥
Ġà¸ªà¸²à¸Ĥ à¸²à¸ģà¸²à¸£
à¹Ĥà¸Ķà¸¢à¸ªà¸²à¸£ à¸Ĺ
Ġ195 7
à¸ģà¹Ĥà¸¥à¸ģà¸Ĺ à¸Ńà¸ĩà¸Ħà¸³
R E
à¸Ļ à¹ĥà¸Ļà¸Ī
à¸ģ à¹ģà¸ªà¸Ķà¸ĩà¸ª
à¸§ à¸ī
à¸Ķ à¸²à¸Ńà¸ĩà¸Ħ
à¸ķ à¸Ħà¸£à¸Ńà¸ļà¸Ħà¸£
à¸§à¸ĩ à¸Ĥà¸Ńà¸ĩ
à¸¢à¸ĩ à¹Ģà¸Ĺ
à¸Ĺà¸³ à¸ķ
à¸Ļà¸« à¸¥à¸ĩ
Ġà¸Ĥ à¸ļà¸§à¸Ļ
à¸ĩà¸Ĥà¸Ńà¸ĩ à¸Ĭ
à¸£à¸§à¸¡ à¹Ģà¸Ĥ
à¸ĩà¸ļ à¸§à¸£
à¸įà¸« à¸²à¸ģ
à¸£à¸Ńà¸ļ à¸Ĭ
Ġ193 7
à¸²à¸Ľà¸£à¸°à¹Ģà¸Ĺà¸¨ à¹Ħà¸Ĺà¸¢
à¹ģà¸Ħà¸Ĺ à¹Ģà¸ĺà¸Ńà¸£
0 8
C H
à¸ģ à¸Īà¸°à¸ķ
à¸§ à¹Ĥà¸Ķà¸¢
à¸Ńà¸ĩ à¸Ľà¸£à¸°à¸Ĭ
Ġ2 20
à¹Ĥà¸Ķ à¸§
à¹Ģà¸¥ à¸§
à¸ŀà¸£à¸° à¸Ľà¸£à¸¡à¸²à¸ł
Ġà¹Ĥà¸Ķà¸¢ à¸ªà¸£
à¸ĩà¸ª à¸Ńà¸ĩà¸Ĺ
à¸ĩà¸ª à¸Ńà¸ĩà¸Ļ
à¸Ĺà¸²à¸ĩ à¹ģà¸¢à¸ģ
à¸ªà¸³ à¸Ń
à¸Ļà¸ł à¸²à¸¢à¸«à¸¥
Ġà¹Ħ à¸Ĭà¸¢
os a
à¸ĩà¸Ńà¸Ńà¸ģ à¸Ńà¸²à¸ģà¸²à¸¨
à¹Ĥà¸ļà¸£à¸²à¸ĵ à¸Ĺ
à¹ģà¸Ĺà¸Ļà¸£ à¸²à¸©à¸İ
à¸§à¸¢à¸Ħà¸§à¸²à¸¡ à¸Ĭ
à¸Ľà¸£à¸°à¸ŀ à¸²à¸ª
à¸Ļà¸²à¸ĸ à¹Ģà¸Ńà¸¥
à¸§à¹Ģà¸£ à¸²à¸°
Ġà¸Ńà¸Ńà¸ģà¸Ńà¸²à¸ģà¸²à¸¨ à¸Ħà¸£
Ġ195 6
her e
T D
à¸Ń à¹Ģà¸Ł
à¸ĩ à¸ŀà¸£à¸°à¸ŀ
à¸ĩ à¸Ľà¸£à¸°à¸ªà¸ĩà¸Ħ
à¸µ :
à¸Ķ à¹Ĥà¸Ĺà¸£à¸¡
à¸Ĭ à¸£à¸£
à¸Ĭ à¸²à¸¥à¸ª
à¸³ à¹Ģà¸Ĥ
à¸© à¸²à¸¢
à¸Ńà¸£ à¸§à¸¡
Ġà¸ª à¹ģà¸ķ
à¸Ļà¸Ľ à¸²à¸¥
Ġà¸ģà¸²à¸£ à¹ģà¸ķ
à¹Ĥà¸Ń à¹Ģà¸Ķ
à¸©à¸Ĳ à¸²à¸Ļà¸Ńà¸¢
à¸ĩà¸ļ à¸Ńà¸ģà¸§
à¸Ńà¸ŀ à¸²à¸¢
à¸Īà¸²à¸ģà¸ģà¸²à¸£ à¸£
à¸Ļà¸Ĭà¸²à¸§ à¸Ń
th er
Ġà¹Ĥà¸Ī à¸§
Ġà¹Ģà¸Ķà¸Ńà¸° à¸¡
Ġ245 6
à¸ģà¸©à¸²à¸ŀ à¸¢à¸²à¸ļà¸²à¸¥
W WE
à¸ģ à¸ī
à¸ģ à¹Ħà¸ģ
à¸Ńà¸ĩ à¹ģà¸Ħà¸¥
à¸Ĥ à¸Ńà¸¡
à¸²à¸§ à¸Ĭ
à¸Ļà¸ķ à¸ģà¸ķ
à¸ļà¸£ à¸²à¸¢à¸ģà¸²à¸£
à¸¢à¸ĩ à¹Ģà¸ŀà¸¥à¸ĩ
à¸Ĺà¸£ à¸Ĺ
à¸Ļà¸ģà¸²à¸£ à¸ģà¸£à¸°à¸Ĺà¸³
à¸Ļà¸Ĥà¸Ńà¸ĩ à¸ķà¸Ļ
à¹ĥà¸Ļà¸ª à¸²à¸Ĥà¸²à¸§
à¸ĩà¹ģà¸£à¸ģ à¹Ĥà¸Ķà¸¢
à¸Ļà¸Ńà¸Ńà¸ģ à¹Ģà¸Ľ
Ġà¸ĺ à¸Ļ
ĠF e
à¸«à¸²à¸¢ à¸ķ
Ġ247 0
à¸Ńà¸ļà¸£ à¸Ńà¸ĩà¸Ĭà¸Ļà¸°à¹Ģà¸¥
à¸ģ à¹Ĥà¸Ħ
à¸Ķ à¸Ľà¸£à¸°à¸Ĭ
à¸Ĺ à¹Ģà¸Ľ
à¸Ī à¸Ļà¸¡
à¸į à¹ģà¸¥à¸°
à¸²à¸Ĺ à¸°à¹Ģà¸¥
à¸Ļà¸Ħ à¸Ļà¸Ķ
à¸Ĺà¸²à¸ĩ à¸ł
à¸Ńà¸¡à¸² à¹Ģà¸Ĥà¸²à¹Ħà¸Ķ
à¸£à¸ĸ à¸Ī
à¸Ħà¸Ħà¸¥ à¸Ń
Ġc ol
à¹ģà¸Ł à¸Ļà¹Ģà¸ŀà¸¥à¸ĩ
Ġ247 1
à¹ģà¸Ń à¸Ļà¸Ł
à¸Ļà¸Ľà¸£à¸°à¸Ĭ à¸²à¸ĺ
à¸ģà¸£à¸Ķ à¹Ħà¸Ĥà¸¡
m et
p e
à¸ģ à¸¨à¸£
à¸ģ à¹ģà¸¢à¸ģ
à¸ĩ à¹Ħà¸Ĺ
à¸§ à¹Ģà¸Ħà¸£
à¸Ķ à¸¥à¸³à¸Ľà¸²à¸ĩ
à¸ģà¸²à¸£ à¹Ģà¸«
à¸³ à¹ģà¸«
à¹Ģà¸Ń à¸²à¸Ĭ
Ġà¸Ī à¸Ļà¸ª
à¸§à¸¡ à¹Ħà¸ŀà¸£
à¹Ģà¸ļ à¸ĩà¸ģà¸Ńà¸¥
à¸ĩà¸Īà¸²à¸ģ à¸Ń
à¹Ģà¸Ńà¸ĩ à¹Ħà¸Ķ
à¸Ļà¸²à¸¢ à¸Ħà¸§à¸²à¸¡
Ġt r
à¸Ħà¸ĵà¸° à¸Ĺ
à¹Ĥà¸Ħà¸£à¸ĩà¸ģà¸²à¸£ à¸Ī
à¸Ķà¸Ħà¸§à¸²à¸¡ à¸ªà¸²à¸¡à¸²à¸£à¸ĸ
ou g
à¸Ķ à¹Ħà¸Łà¸Ł
à¸ĭ à¸²à¸¢
à¸Ńà¸ģ à¹Ģà¸£
à¸Īà¸²à¸ģ à¸Ľà¸£à¸°à¹Ģà¸Ĺà¸¨
à¸Ńà¸¡ à¸ĸ
à¸Ńà¸¡ à¸²à¸Ľ
à¸§à¸ĩ à¸¡
à¸Ļà¸Ļ à¹Ĥà¸¢à¸ļ
à¸ĩà¸Ĺ à¸§
à¸Ļà¸Ń à¸²à¸ģà¸²à¸£
à¸Ļà¸¢ à¸²à¸ģ
Ġà¸¢ à¸²à¸Ļ
à¸ļà¸ķ à¸£à¸°à¸ģ
à¹Ħà¸Ĥ à¸§
à¸Ķà¸Ĥà¸Ńà¸ĩ à¸Ń
à¸²à¹Ħà¸Ľ à¸Ķ
à¸ģà¹ģà¸ªà¸Ķà¸ĩ à¸Ĭ
Ġn ucle
à¸²à¹Ģà¸Ĺ à¸§
D e
à¸ģ à¹ĥà¸ª
à¸¡ à¹Ģà¸ļà¸£
à¸Ĺ à¸Ĥà¸Ńà¸ĩ
à¸²à¸ĩ à¹Ģà¸«à¸¥
à¸Ńà¸¢ à¹Ģà¸Ĺ
Ġà¹ģà¸¥à¸° à¸ģà¸²à¸£à¸ª
Ġà¹Ĥà¸Ķà¸¢ à¸ĭ
à¸§à¸¡ à¸ļ
à¸²à¸¢à¸Ļ à¸²à¸¡
à¸Ļà¸Ĥà¸Ńà¸ĩ à¸¡
à¸ľà¸¥à¸ĩ à¸²à¸Ļà¸§
à¸ģà¹ģà¸ªà¸Ķà¸ĩ à¸ªà¸¡à¸Ĺ
à¸ģà¸²à¸£à¸Ļà¸³ à¸Ĥà¸Ńà¸ĩ
à¸ĸà¸§à¸²à¸¢ à¸ŀà¸£à¸°
Ġà¸£à¸ĸ à¹Ħà¸Ł
à¹ĥà¸Ļà¸Ĺà¸²à¸ĩ à¸Ľà¸ı
à¹ģà¸ķà¸ģ à¹ģà¸¢à¸ģ
à¸Ķà¸® à¸Ńà¸ķ
à¸Ļ à¸²à¸ĩà¸ª
à¸ķ à¸ģà¸§
à¸ģà¸²à¸£ à¹Ģà¸Īà¸£
à¹ģà¸¥à¸° à¹Ģà¸Ļ
à¸Ńà¸Ļ à¹Ħà¸§
à¹Ģà¸ª à¸Ļà¸²
à¸²à¸ŀ à¸ļà¸ģ
à¸Ĺà¸³ à¸Ńà¸°à¹Ħà¸£
à¸ĩà¸²à¸Ļ à¸Ļ
à¸Ķà¸ª à¸ģà¸¥à¸Ļà¸Ħà¸£
à¸ĩà¸ģà¸²à¸£ à¹Ģà¸Ľà¸¥
à¸Ńà¸° à¹Ħà¸£à¸ģ
à¹Ģà¸§à¸ĵ à¸£à¸Ńà¸ļ
à¹Ĥà¸ĭ à¸Ļà¸£
à¸Ĥà¸Ļà¸²à¸Ķ à¸¢
ĠAr t
Y P
à¸ģ à¹ĥà¸Ħà¸£
à¸¡ à¸ģà¸§
à¸¡ à¸¡à¸Ļ
à¸Ķ à¹Ģà¸ŀà¸¥
à¸Ħ à¸Ļà¸¡
à¸ŀ à¸Ĥ
à¸²à¸¡ à¸²à¸Ļ
à¹Ħà¸Ľ à¸Ĺà¸²à¸ĩ
à¸§à¸¢ à¸ĩà¸²à¸Ļà¸Ĥà¸Ńà¸ĩ
à¸Īà¸° à¸Ńà¸Ńà¸ģ
à¸£à¸²à¸Ĭ à¸Ļà¸²à¸§
Ġà¸ķ à¸Ļà¸Ī
à¸® à¸¢
à¸ģà¸ª à¸ĩà¸Ĩ
Ġà¸Ĥà¸Ńà¸ĩ à¸ķ
à¸Ľà¸£à¸°à¸ģà¸Ńà¸ļ à¸Ĥà¸Ńà¸ĩ
à¸²à¹Ħà¸Ľ à¹Ģà¸¥
à¹Ĥà¸£à¸Ľ à¸Ĺ
à¹ĥà¸Ļà¸ªà¸¡ à¸Ńà¸ĩ
à¸ļà¸Ńà¸ģ à¸ģ
Ġà¸Ĭà¸Ļà¸° à¸Ļ
à¸ªà¸³à¸£ à¸²à¸į
à¸§à¸ķà¸£ à¸Ńà¸Ļ
à¹Ħà¸Łà¸Ļà¸Ńà¸¥ à¹ģà¸Łà¸Ļà¸ķà¸²à¸ĭ
à¹ Ĺ
à¸Ļ à¸£à¸ģ
à¸ģ à¸Ľà¸£à¸°à¸Ķ
à¸ĩ à¹Ģà¸§à¸¥
à¸ª à¹Ģà¸Ĭ
à¸Ī à¸«à¸¥
à¸Ńà¸ĩ à¸Ńà¸³à¸Ļà¸²à¸Ī
à¸¨ à¹Ģà¸Ľ
à¹ģà¸¥à¸° à¸«à¸į
à¸į à¸ľ
à¸Ńà¸Ļ à¹Ĥà¸ķ
Ġà¸Ħ à¸²à¸¥
Ġà¹Ĥà¸Ķà¸¢ à¸ªà¸²à¸¡à¸²à¸£à¸ĸ
Ġà¹ģ à¸ģà¸¥
à¸²à¸Ĥ à¸Ļà¸²à¸Ķ
à¸ĩà¸ģà¸²à¸£ à¸ŀ
à¸ĩà¸ģà¸²à¸£ à¸Ľà¸ı
à¸Ļà¸ŀà¸£à¸° à¸Ńà¸Ļ
à¸Ńà¸ĩà¸ģà¸²à¸£ à¹ĥà¸Ĭ
Ġà¸Ľà¸£à¸°à¹Ģà¸Ĺà¸¨ à¸Ł
Ġà¹Ģà¸Ħ à¸¢à¹Ħà¸Ķ
os is
à¸§à¸£à¸£à¸ĵ à¸Ħà¸Ķ
à¸¡à¸«à¸²à¸Ķ à¹Ģà¸¥
ĠPro gram
à¸Ĭà¸Ńà¸Ľ à¹ģà¸«
à¸ĩà¸Ħà¸¡à¸ª à¸ĩà¹Ģà¸Ħà¸£à¸²à¸°à¸«
W A
à¸Ļ à¹Ĥà¸£à¸ĩà¸ŀà¸¢à¸²à¸ļà¸²à¸¥
à¸Ń à¹ĥà¸Ķ
à¸ģ à¹ĥà¸ķ
à¸ģ à¹Ģà¸ľ
Ġà¹Ĥà¸Ķà¸¢ à¸Ńà¸Ńà¸ģà¸Ńà¸²à¸ģà¸²à¸¨
à¸Ļà¸Ľ à¸Ĳà¸¡
à¸ĩà¹ģ à¸Ķà¸ĩ
à¸²à¸ĸ à¸§à¸²à¸¢
Ġ9 6
à¸Ńà¸Ļà¸ķ à¸²à¸¡
Ġà¹Ģà¸ļ à¸Ļ
à¸ĩà¸ĩà¸²à¸Ļ à¹Ħà¸Łà¸Ł
à¸ĩà¸¡à¸²à¸ģ à¸Ĥ
Ġ245 3
à¸§à¸²à¸Ķ à¸łà¸²à¸ŀ
à¸Ļà¸Ľà¸£à¸°à¸ĺ à¸²à¸Ļà¸ª
à¹ģà¸Ńà¸Ľ à¸ŀà¸¥
à¸ŀà¸£à¸¡ à¹ģà¸Ķ
à¸¢ à¹ģà¸¡
à¸¢ à¸²à¸Ĥà¸Ńà¸ĩ
à¸§ à¸ŀà¸£
à¸Ĺ à¸Ńà¸¡
à¸« à¸²à¹Ħà¸Ķ
à¸Ńà¸ĩ à¸ģà¸³à¹Ģà¸Ļ
à¸²à¸Ī à¸³
à¹Ģà¸Ń à¸²à¸Ĺ
à¸£à¸²à¸Ĭ à¹Ģà¸Ī
à¸Ĺà¸²à¸ĩ à¸ģà¸İà¸«à¸¡à¸²à¸¢
Ġà¸Ķ à¸²à¸ļ
à¸łà¸²à¸© à¸²à¸Ļ
à¸ĩà¸«à¸¡à¸Ķ à¸¡
à¹Ĥà¸Ĺ à¸Ħà¸Ńà¸¥
à¸ªà¸Ļà¸²à¸¡ à¹ģà¸¡
à¸ĩà¸Ĺà¸£à¸ĩ à¸ŀà¸£à¸°à¸ģà¸£
Ġà¹Ĥà¸Ľà¸£ à¹ģà¸ģà¸£à¸¡
à¸ģà¸³à¹ģà¸ŀ à¸ĩ
ĠBl ack
à¹Ĥà¸«à¸§ à¸ķ
à¹ĥà¸Ļà¸Ľà¸£à¸° à¹Ģà¸łà¸Ĺ
à¹Ģà¸Łà¸ĭ à¸ļ
A d
à¸ĩ à¸Ľà¸£à¸°à¸ªà¸ļà¸Ħà¸§à¸²à¸¡à¸ªà¸³à¹Ģà¸£
à¸ģà¸²à¸£ à¸Ľà¸£à¸°à¸Ĺ
à¹Ģà¸Ľ à¸£à¸ªà¸Ĭ
Ġà¹ģà¸¥à¸° à¸ł
à¹Ĥà¸Ķà¸¢ à¸Ńà¸²à¸¨
à¸Ĺà¸£ à¸Ńà¸Ļ
à¸Ļà¸Ĥà¸Ńà¸ĩ à¸Ħ
Ġà¸Ħà¸Ļ à¹Ħà¸Ĥ
à¸Ńà¸ģà¸²à¸£ à¸ģ
Ġà¸Ľà¸£à¸° à¸¢
à¸ŀà¸§à¸ģ à¸Ĺ
à¸²à¸Ĭà¸²à¸¢ à¸§
à¸ĩà¸Ħà¸²à¸£ à¸Ĺ
à¸Ķà¸ģà¸£à¸° à¸«à¸¡
à¸¢ à¹Ģà¸¢à¸²à¸§
à¸§ à¸Ńà¸Ļ
à¸ª à¸ľ
à¹Į ]
à¸Ĥ à¸§à¸²
à¸ģà¸²à¸£ à¸Ħà¸³à¸Ļà¸§à¸ĵ
à¸³ à¸Īà¸²à¸ģ
à¸Ńà¸Ļ à¸ģà¸¥à¸²à¸ĩ
à¹Ģà¸Ĺ à¸Ħà¸§
à¸²à¸Ħ à¸ķ
à¹Ģà¸§ à¸ª
à¸ľà¸¥ à¹ĥà¸«
à¸¥à¸° à¸Ĭà¸Ļ
Ġà¸Ĥà¸Ńà¸ĩ à¹Ģà¸Ĥà¸²
à¸Ķà¸³ à¸Ļ
à¸ģà¸©à¸² à¹Ģà¸£
à¹ĥà¸Ļà¸¢ à¸ģà¸Ĺ
à¸Ļà¸Ńà¸²à¸«à¸²à¸£ à¸Ĺ
à¸Ħà¸°à¹ģà¸Ļ à¸Ļà¸ª
à¸² à¹Ģà¸Ĺà¸ŀ
à¸Ń à¸²à¸ļ
à¸¡ à¹ģà¸ģ
à¸¡ à¸Ńà¸³à¸Ļà¸²à¸Ī
à¸Ĺ à¸ľ
à¹ģ à¸Ļà¸Ľ
à¸Īà¸° à¹Ģà¸Ĭ
à¸Īà¸° à¸ŀà¸ļ
à¸Ĺà¸³ à¸ģà¸²à¸£à¸£
à¸²à¸Ķ à¸Ļ
à¸ĩà¸Ħ à¸²à¸¢à¸Ļ
à¸¥à¸° à¸Ĥ
à¸ģà¸£à¸° à¸«à¸¡
Ġà¸ļ à¸Ńà¸Ļà¸Ķ
à¸ģà¸ª à¸ĩà¸Ħà¸£à¸²à¸¡
à¸ĩà¹Ģà¸ģ à¸©
à¸¬ à¸²à¹Ģà¸Ĥ
à¹Ģà¸§à¸ĵ à¸Ń
à¸ģà¸£à¸£à¸¡à¸ģà¸²à¸£ à¸ľ
à¸²à¸£à¸¢ à¸ĺà¸£à¸£à¸¡
à¸§à¹Ģà¸Ńà¸ĩ à¹Ħà¸Ķ
um an
à¸Ħà¸§à¸²à¸¡à¸ķ à¸²à¸¢
Ġ246 1
à¸²à¹Ĥà¸Ľà¸£ à¸Ķà¸ģà¸£à¸°à¸«à¸¡
à¹Ħà¸¡à¹Ĥà¸Ħà¸£ à¸ĭà¸Ńà¸Łà¸Ĺ
à¸²à¹ĥ à¸Ķà¸Ļ
à¸ģ à¹ĥà¸Ļà¸ª
à¸¢ à¸ģà¸£à¸£à¸¡
à¸ļ à¸ªà¸³à¸Ļ
à¸ģà¸£ à¸¡à¸ª
à¹Ģà¸Ĺ à¹Ģà¸ģà¸Ńà¸£
à¸ķà¸£ à¸²à¸Ĺ
Ġà¸ª à¸Ńà¸ĩ
à¸Ĺà¸³ à¸ģà¸²à¸£à¹ģà¸Ĥ
Ġ19 19
à¸ĩà¸ģà¸²à¸£ à¹ĥà¸«
à¸Ĵà¸Ļ à¸²à¸ŀ
à¹Ģà¸ªà¸Ļà¸Ń à¸ķ
à¸ĩà¹Ħ à¸Ĭà¸¢
à¸Ļà¸Ķà¸£ à¸¨
à¹ģà¸ªà¸§à¸ĩ à¸ļ
à¸Ńà¸¡à¸²à¹Ģà¸Ľ à¸¥
à¸Ńà¸Ńà¸ģà¸īà¸²à¸¢ à¹ĥà¸Ļà¸Ľ
à¸¢ à¹ģà¸ģ
à¸Ķ à¹ĥà¸Ļà¸Ĺ
à¸ª à¸Ńà¸£
à¸ķ à¸²à¸ģ
à¸Ļà¸ķ à¸¥à¸²à¸Ķ
à¹Ģà¸¥ à¸Ļà¸ª
à¸Ļà¸ª à¸«à¸£
à¸Ļà¸ª à¸²à¸ĺà¸²à¸£à¸ĵà¸£
à¸¥à¸ĩ à¸Ħà¸°à¹ģà¸Ļà¸Ļ
à¸ĩà¸ª à¸Ńà¸ĩà¸ģ
in ess
à¸Ļà¸Ĥ à¸ļà¸§à¸Ļ
à¸§à¸£ à¸²à¸£à¸²à¸¡
Ġ7 8
Ġ7 9
à¸²à¸ł à¸²à¸¢
il le
à¸ķà¸Ńà¸Ļ à¸ģà¸¥à¸²à¸ĩ
Ġà¸Ĭà¸²à¸§ à¸Ī
à¸²à¸ģà¸²à¸£à¸ģà¸£à¸°à¸Ĺà¸£à¸§à¸ĩ à¸ģà¸¥à¸²à¹Ĥà¸«à¸¡
à¹Ĥà¸Ľà¸£à¸Ķ à¸Ľà¸£
à¹Ĥà¸¡à¸ª à¸£à¸ģ
M y
à¸Ļ à¸²à¸ļ
à¸ª à¸ļà¸²à¸¢
à¸§à¸ĩ à¸£à¸°à¸¢à¸°à¹Ģà¸§à¸¥
à¸ļà¸£ à¸ª
à¸Ĺà¸³ à¸ľ
à¸ķà¸²à¸¡ à¸Ħà¸³à¸ª
ĠS ur
Ġà¸ģà¸£ à¸¡à¸Ĥ
ĠT H
am i
Ġc od
à¹Ĥà¸Ĭ à¸Ħà¸Ĭ
à¸Ķà¸²à¸£ à¸²à¸¡
à¸ģà¸ĩà¸²à¸Ļà¸ ļ
à¸Ļà¸® à¸²à¸£
à¸ĩ à¸¥à¸ļ
à¸¡ à¸²à¸ŀà¸£
à¸¥ à¸²à¸¢à¸Ļ
à¸¥ à¹Ģà¸ĩ
à¸§ à¸²à¸ķ
à¸Ķ à¸Ļà¸£à¸²à¸ĺ
à¸ļ à¹Ģà¸«
à¹ģ à¸Ńà¸ģ
à¸Ħ à¹Ģà¸£
à¸²à¸ĩ à¹ģà¸ķ
à¸²à¸Ļ à¹Ģà¸¢
Ġà¹ģà¸¥à¸° à¸Ľà¸£à¸°à¹Ģà¸Ĺà¸¨
à¹Ģà¸§ à¸Ļà¸ª
à¸¢à¸Ļ à¹Ħà¸¡
à¸¢à¸¡ à¸²à¸ģ
Ġà¸ļ à¸²à¸ĩà¸Ħ
à¸ķà¸Ļ à¸²à¸¢à¸ģà¸£
à¸²à¸Īà¸° à¸£
à¹Ĥà¸Ħ à¸Ľ
à¸ģà¸Ĭ à¸§à¸Ļà¹ĥà¸«
à¸²à¸Ĺà¸³ à¹Ħà¸¡
à¸²à¸ī à¸ļ
à¹Ħà¸ķà¸£ à¸łà¸²à¸Ħ
à¸Ĺà¸²à¸ĩà¸«à¸¥à¸§à¸ĩ à¸«à¸¡à¸²à¸¢à¹Ģà¸¥à¸Ĥ
Ġà¹Ģà¸«à¸¡ à¸²à¸°
Ġà¹Ģà¸ľà¸¢ à¹ģà¸ŀà¸£
à¸Ļ à¹Ģà¸ī
à¸Ķ à¹Ĥà¸ŀà¸ĺ
à¸« à¸²à¸Ħ
à¸Ħ à¸¢
à¸ŀ à¸Ħ
à¸Ńà¸¢ à¹ģà¸¥à¸°
Ġà¹ģà¸¥à¸° à¸Īà¸°à¸¡
à¸Ńà¸ģ à¸«à¸Ļ
à¸ģà¸£ à¹ģà¸«
à¸ģà¸¥ à¸²à¸¢à¸ŀ
à¸Ļà¹ģ à¸Ħà¸§
à¹Ĥà¸ķ à¹Ģà¸Ļ
à¸§à¸Ķ à¸¡à¸Ļà¸ķ
à¸Ńà¸Ĥà¸Ńà¸ĩ à¸ķ
à¹ĥà¸Ļà¸ķ à¸³à¸Ļ
ĠE m
à¹ģà¸Ł à¸¡
à¸ķà¸¢à¸ģà¸£à¸£à¸¡ à¸Ĺ
à¸Ńà¸Ńà¸Ł à¸Ł
à¸Ķà¸ŀà¸£à¸£à¸Ħ à¸Ľà¸£à¸°à¸Ĭà¸²à¸ĺ
ener ation
y o
à¸¡ à¸Ńà¸ĩà¸§
à¸¥ à¸Ńà¸ªà¹ģà¸Ńà¸Ļà¹Ģà¸Īà¸¥
à¸Ĺ à¸¯
à¸Ńà¸ĩ à¸ĺ
à¸ģà¸²à¸£ à¸«à¸¡
à¸ĵ à¸Ĳ
Ġà¹ģà¸¥à¸° à¸Ĺà¸²à¸ĩ
à¸Ńà¸Ļ à¸²à¸¢
à¹Ģà¸ĭ à¸ķà¸ª
Ġà¸ļ à¸Ļà¸Ĭà¸²à¸£
à¸Ļà¸²à¸¡ à¸Ľà¸²à¸ģ
Ġà¸Ĥ à¸Ļà¸¡
à¸´à¹Į )
à¸´à¹Į ,
à¸Ĺà¸£à¸ĩ à¸¢
is c
à¹ĥà¸Ļà¸ķ à¸³à¸ļà¸¥
Ġà¹Ģà¸« à¸§
ĠN ight
à¸ĩà¸ģà¸£ à¸²à¸Ļà¸ķ
à¹ĥà¸Ļà¸Ħà¸§à¸²à¸¡ à¸Ķ
à¸Ńà¸¢à¸²à¸ģ à¹ĥà¸«
r id
Ã Ĺ
Î ¿
à¸Ń à¹Ģà¸Ħà¸¥
à¸Ķ à¸²à¸«
à¸į à¸²à¸Ļ
à¸²à¸§ à¹Ģà¸£
à¸ķà¸£ à¸²à¸Ĭ
à¸Ħà¸§à¸²à¸¡ à¹Ĥà¸Ķà¸Ķà¹Ģà¸Ķ
Ġà¸Ń à¸²
à¸£à¸²à¸Ĭ à¸§à¸£à¸§
à¹Ģà¸ĭ à¸ª
à¸¥à¸° à¸ļ
Ġà¸ļ à¸£à¸£à¸Ī
à¸ŀà¸¥ à¸Ĥ
Ġà¸ŀà¸£à¸° à¸ªà¸ĩà¸Ĩ
à¸¡à¸²à¸£ à¸§à¸¡à¸ģ
à¸ļà¸Ńà¸¥ à¸ķ
Ġ8 1
à¹Ĥà¸ģ à¸¨à¸¥
à¸Ńà¸³à¹Ģà¸ł à¸Ńà¸ģ
à¸ĩà¸ŀ à¸Ńà¹ĥà¸Ī
à¸Ħà¸§à¸²à¸¡à¸ª à¸§à¸¢à¸ĩà¸²à¸¡
à¸ĸà¸Ļ à¸Ļà¸ŀ
Ġ193 6
ĠRec ords
à¸¡ à¹Ģà¸Ľà¸¥
à¸¡ à¸²à¸Ħà¸£
à¸¡ à¹Ĥà¸Łà¸Ļ
à¸¢ à¹Ģà¸Ĺ
à¸§ à¸ģà¸ķ
à¸ļ à¸Ļà¸ķ
à¹Į âĢĭ
à¸Ńà¸ĩ à¹ģà¸Ĥ
à¹ĥà¸Ļ à¹ģà¸Ńà¸Łà¸£
à¸Ńà¸ģ à¸Ĥ
à¸§à¸¢ à¸ľà¸¥
Ġà¸ª à¸°à¸ŀ
à¸§à¸ĩ à¹Ģà¸Ľ
Ġà¸Ń à¸³à¸Ļà¸§
Ġà¸Ļ à¸²à¸ĩà¸ª
à¹Ĥà¸£ à¸ĺ
à¸Ńà¸ķ à¸³à¹ģà¸«à¸Ļ
Ġà¸Ĥ à¸Ńà¸£
à¸ļà¸Ļ à¹Ģà¸ª
à¸Ńà¸ĩà¸ª à¸Ńà¸Ļ
ĠP ri
à¸Ľà¸£à¸²à¸ģà¸ı à¹Ģà¸Ľ
à¸²à¸Ļà¸ª à¸³à¸«à¸£
à¹Ģà¸ŀà¸¨ à¸«à¸į
à¹Ħà¸Ń à¹Ģà¸Ĺ
Ġà¸ŀà¸£à¸£à¸Ħ à¸Ľà¸£à¸°à¸Ĭà¸²à¸ĺ
Ġr es
à¸ĩà¸²à¸Ļà¸Ħ à¸§à¸²à¸¡
à¸ģà¸§à¸²à¸Ķ à¸¥
Ġ/> <
à¸¨à¸§à¸£à¸¡ à¸«à¸²à¸£à¸²à¸Ĭ
p or
Ġ à¹Ģà¸Ńà¸ģà¸ĭ
à¹Ģ à¸Ńà¸ļ
à¸ĩ à¹Ģà¸¢
à¸ĩ à¸°à¸§à¸°
Ġà¹ģà¸¥à¸° à¹Ģà¸§
à¸Ļà¸Ħ à¸ĩà¸Ĥà¸Ńà¸ĩ
à¸²à¸« à¸°
à¹Ĥà¸¥ à¸ģà¸ķ
à¸Ĺà¸£ à¸²à¸Ļà¸ª
à¹ĥà¸Ī à¸ģà¸¥à¸²à¸ĩ
à¹Ĥà¸£ à¸¥
Ġà¸ŀà¸£à¸° à¸Ńà¸²à¸Īà¸²à¸£à¸¢
à¹ģà¸ªà¸Ķà¸ĩ à¸ķ
à¸Ľà¸£à¸°à¸ª à¸ļà¸Ń
à¸ļà¸¡ à¸²à¸ª
om b
à¸£à¸Ńà¸ļ à¸ķ
à¸Ļà¹Ħ à¸Ļà¸Ļ
Ġà¸«à¸¡ à¸§à¸Ķ
à¸¢à¸Ļà¹ģà¸Ľà¸¥à¸ĩ à¸Ĺ
à¸²à¸Ļà¸Ĭ à¸²à¸¥
à¸ģà¸Īà¸° à¹Ħà¸Ķ
à¸£à¸ĸà¹Ħà¸Ł à¹ģà¸«
à¸Ļà¸Ħà¸³ à¸ª
à¸²à¸Ļà¸Łà¸£ à¸²à¸Ļà¸ĭ
à¸ģ à¹Ģà¸Ħ
à¸ģ à¹Ģà¸ŀà¸¥à¸ĩ
à¸¢ à¹ĥà¸Ļà¸Ĭ
à¸Ĥ à¸Ļà¸²à¸¢à¸ģ
à¹ģà¸¥ à¸ķ
à¹Ĥà¸Ķà¸¢ à¸Ĭ
à¸ĩà¸ª à¸Ńà¸ĩà¸ª
à¹Ģà¸ĭ à¹Ģà¸£
à¸Ļà¸³ à¸§
à¸ĩà¸ģà¸²à¸£ à¸¥
à¸ĩà¸ģà¸²à¸£ à¸Ľà¸ģà¸Ħà¸£à¸Ńà¸ĩ
à¸Ńà¸Ĺ à¹Ĥà¸Ĺ
à¸²à¸ĩà¸ģ à¸Ńà¸ĩà¸Ĺ
à¸²à¸Īà¸° à¸Ńà¸¢
à¸Ńà¸ģà¸²à¸£ à¸Ľà¸ı
à¸Ńà¸Ħà¸§à¸²à¸¡ à¸ķ
à¸Ńà¸Ħà¸§à¸²à¸¡ à¹Ģà¸Ľ
à¸ļà¸²à¸¢ à¹Ħà¸Ķ
à¹ĥà¸Ļà¹Ģà¸§à¸¥ à¸²à¸ģà¸¥
Ġà¸ļà¸Ĺ à¸ļà¸²à¸Ĺ
l o
à¸² à¹Ģà¸ľ
à¸¡ à¹Ģà¸ĭà¸¥à¸¥
à¸§ à¸Ĺà¸³à¹ĥà¸«
à¸Ī à¸ŀ
à¸³ à¹Ģà¸Ĭ
à¸Ĥà¸Ńà¸ĩ à¸ŀà¸§à¸ģ
Ġà¹ģà¸¥à¸° à¹Ģà¸Ħà¸¢
Ġà¹ģ à¸Ńà¸Ķ
à¸ļà¸ª à¸Ļà¸ģ
à¹Ħà¸§ à¸ģ
Ġ8 2
à¹ģà¸Ļà¸§ à¸ķ
à¸£à¸ĸ à¹Ĥà¸Ķà¸¢à¸ªà¸²à¸£
à¹Ģà¸¨à¸© à¸Ĥà¸Ńà¸ĩ
à¸²à¸Ļà¸ª à¸³à¸Ħ
Ġm us
Ġ246 6
Ġà¸Ħà¸¥ à¸²à¸£
à¸Ĳà¸Ń à¸²à¸«à¸£
à¸²à¸Ľà¸£à¸°à¸ª à¸ļà¸Ħà¸§à¸²à¸¡à¸ªà¸³à¹Ģà¸£
Ġà¸Ľà¸£à¸°à¸ĺ à¸²à¸Ļà¸ª
à¸²à¸¡ à¸²à¸¥
à¸²à¸Ļ à¸£à¸°à¸ļà¸ļ
à¸ģà¸§ à¸²à¸ĩà¸ķ
Ġà¸ŀà¸£à¸° à¸Ī
Ġà¹ĥà¸Ļ à¸¡
à¸Ļà¸° à¸ª
à¸Ļà¸Ĥà¸Ńà¸ĩ à¸Ľ
à¸ĩà¸Ń à¸²à¸§
Ġà¹Ģà¸Ħ à¸¢à¸¡
à¹Ħà¸Ĺ à¸¡à¸ª
à¸³à¸¡ à¸²à¸ķà¸¢
à¸ĩ à¸Ńà¹Ģà¸¡à¸£
à¸Ńà¸ĩ à¹ģà¸£à¸ģà¸Ĺ
à¸²à¸§ à¹Ģà¸«à¸Ļ
à¸ķà¸£ à¸¨
Ġà¹Ĥà¸Ķà¸¢ à¸Ķ
à¹Ģà¸ļ à¹Ģà¸Ļ
Ġà¹Ģà¸ŀ à¸¨
Ġà¸ŀà¸£à¸° à¸§
Ġà¸ģà¸²à¸£ à¸Ń
à¹ĥà¸Ļà¸ª à¸łà¸²à¸§à¸°
à¸łà¸²à¸© à¸²à¸¨à¸²à¸ªà¸ķà¸£
à¸ĩà¸Ĥà¸Ńà¸ĩ à¸¡
à¸ĩà¸Ĥà¸Ńà¸ĩ à¹Ģà¸¡
à¹Ĥà¸ģ à¹Ģà¸¥
à¸Ļà¹Ħ à¸Ĭà¸ª
à¸Ļà¸£à¸²à¸Ĭ à¸ł
à¸ĩà¸«à¸¡à¸²à¸¢ à¸Ħà¸§à¸²à¸¡à¸§
à¸ļà¸¡à¸Ńà¸ļ à¸«à¸¡à¸²à¸¢à¹ĥà¸«
D P
à¸Ń à¸Ľà¸£à¸°à¸ªà¸²à¸Ĺ
à¸Ńà¸ĩ à¹Ĥà¸¥à¸ģ
à¸ĭ à¸Ńà¸¢
à¸ķà¸£ à¸«à¸¥
à¸Ĳ à¹Ģà¸Ĺ
Ġà¸Ī à¸³à¹Ģà¸Ľ
à¸¢à¸ĩ à¸ķà¸²à¸¡
Ġà¹ģ à¸Ķà¸ĩ
à¸Ĺà¸²à¸ĩ à¸Ħà¸ĵ
à¸ĩà¸Ħ à¸²à¸¡à¸ª
à¸ļà¸ª à¸Ńà¸ĩà¸Ĥà¸Ńà¸ĩ
à¸Ļà¸ģà¸²à¸£ à¹Ģà¸ģ
à¸Ļà¹ģ à¸ĭ
à¹Ģà¸ĺ à¸Ńà¸ģà¸¥
à¸²à¸Īà¸° à¹ĥà¸«
à¸ģà¸©à¸ĵà¸° à¸ł
Ġà¸Ľà¸£à¸° à¹Ģà¸ŀà¸ĵ
à¸Ļà¹ĥà¸Ļ à¸Ļ
à¸¢à¸ª à¸¥à¸°
à¹ģà¸¢à¸ģ à¸¢
à¸ĩà¸Ħà¸¡ à¹ģà¸¥à¸°
à¸ķà¸¥à¸Ńà¸Ķ à¸ģà¸²à¸¥
ber g
à¹ģà¸Ńà¸ļ à¸ļ
à¸²à¸Ħà¸£à¸Ńà¸ļ à¸Ħà¸£
Ġà¹Ĥà¸ģà¸¥ à¸Ķ
tiv al
M an
à¸¡ à¸Ħà¸Ļ
à¸Ķ à¸Īà¸°à¸¡
à¸Ńà¸¢ à¹Ģà¸ģ
Ġà¸ŀ à¸Ń
à¹Ĥà¸Ķà¸¢ à¸ģà¸¥
à¸ķà¸£ à¸ĩà¸ķ
à¸Ńà¸¡ à¸²à¸ŀà¸£à¸°
à¸Ĺà¸²à¸ĩ à¸ģà¸²à¸£à¸Ħ
à¸¢à¸¡ à¸¡à¸²à¸ģ
à¸Ļà¸£ à¸³
à¹Ģà¸Ħà¸£ à¸Ķ
à¹Ģà¸ŀà¸¥à¸ĩ à¸Ń
à¹ģà¸ªà¸Ķà¸ĩ à¸¥à¸°à¸Ħà¸£
à¸²à¸Ĥà¸Ńà¸ĩ à¸ļ
à¸Ķà¸ķ à¸²à¸ģ
Ġà¸Īà¸²à¸ģ à¸Ī
Ġà¹Ģà¸Ń à¸Ńà¸£
à¸Ńà¸²à¸Ī à¹ĥà¸Ĭ
à¹Ģà¸§à¸¥à¸² à¹Ģà¸Ķ
à¹Ģà¸® à¸¢
à¸ªà¸ĩà¸Ħà¸£à¸²à¸¡ à¸ģà¸¥à¸²à¸ĩà¹Ģà¸¡
à¸ĩà¸Īà¸° à¹Ħà¸¡
à¸ķà¸ªà¸²à¸«à¸ģà¸£à¸£à¸¡ à¸Ĺ
Ġ246 9
à¸£à¸²à¸ģ à¸Ĳà¸²à¸Ļ
n ing
à¸ģ à¹ģà¸£à¸ģ
à¸ģ à¸¡à¸²à¸ģà¸Ĺ
à¹Ĥ à¸Ļà¹Ģà¸Ľ
à¸²à¸ĩ à¸¥à¸°
à¹Ģà¸Ĥ à¸ķà¸Ļ
Ġà¸¡ à¸Ńà¹Ģà¸ķà¸Ńà¸£
à¸Ńà¸Ńà¸ģ à¸¡à¸²à¸ķ
à¸ļà¸ª à¸ĩà¸Ħà¸£à¸²à¸¡
à¸ªà¸²à¸¡à¸²à¸£à¸ĸ à¸¡à¸Ńà¸ĩà¹Ģà¸«
Ġà¹Ģà¸£ à¸Ķ
à¸ģà¸ĭ à¸²à¸Ļà¸Ķ
à¸ŀà¸£à¸£à¸Ħ à¹Ģà¸ŀ
à¸ĩà¹Ģà¸Ĺà¸ŀà¸¡à¸«à¸²à¸Ļà¸Ħà¸£ à¹ģà¸¥à¸°à¸Ľà¸£
à¸Ļà¹Ģà¸ĭ à¸Ļà¸ķ
Ġà¹Ĥà¸ĭ à¸¥
à¸²à¸Ńà¸Ńà¸ģà¸Īà¸²à¸ģ à¸ķà¸³à¹ģà¸«à¸Ļ
à¸Ļà¸ģà¸£à¸° à¹ģà¸ª
à¸¢à¸§à¸¢ à¸²à¸§
à¸ĩ à¸ļà¸Ĺ
à¸Ĭ à¸²à¸łà¸²à¸©
à¸§à¸¢ à¸Ńà¸²à¸ģà¸²à¸£
à¸Ħà¸§à¸²à¸¡ à¹Ģà¸«à¸¡à¸²à¸°à¸ªà¸¡
à¸ªà¸²à¸¡à¸²à¸£à¸ĸ à¸Ķ
à¸Ļà¸ĭ à¸Ńà¸£
Ġà¹Ħ à¸Ħ
ro c
à¸ģà¸Ĥà¸Ńà¸ĩ à¸ģà¸¥
à¹Ĥà¸¥à¹Ģà¸¡à¸ķà¸£ à¸ķ
à¸Ĭà¸Ļà¸¡ à¸²à¸¢
à¹ģà¸¥à¸°à¸ģà¸²à¸£ à¸ŀ
à¸ļà¸Ńà¸ģ à¹ĥà¸«
à¸Ľà¸£à¸°à¸ģà¸§ à¸Ķà¸£
ĠAc adem
à¸ģà¸£à¸²à¸ļ à¸ļ
o ice
à¸Ń à¸łà¸²à¸©
à¸¥ à¹Ģà¸®à¸¥
à¸¢ à¹ģà¸ķ
à¹ģà¸¥ à¸Ļ
Ġà¹ģà¸¥à¸° à¸ŀà¸£à¸°à¹Ģà¸Ī
Ġà¹ģ à¸Ńà¸Ļà¸Ļ
à¸¢à¸¡ à¸ĭ
à¸ĩà¸Ĥ à¸§
à¸Ļà¸ģà¸²à¸£ à¹Ģà¸Ľà¸¥
à¸ªà¸²à¸¡à¸²à¸£à¸ĸ à¹Ģà¸Ķ
à¸¡à¸Ľ à¸ı
à¸¢à¸²à¸¢ à¸Ĭ
à¸Ħà¸ĵà¸° à¸ľ
à¸ģà¸Īà¸° à¹Ħà¸¡
ab il
à¸§à¹ģà¸Ĺ à¸Ļà¸Ĺ
S C
r ont
Ġ à¸Ľà¸£à¸²à¸ģà¸ıà¸ģà¸²à¸£à¸ĵ
à¸Ń à¸Ļà¸Ĺà¸²à¸ĩ
à¸´ âĢĿ
à¹Ħà¸Ľ à¸ĭ
à¸Ńà¸ļ à¸Ħà¸£à¸Ńà¸ĩ
à¸ĩà¸Ħ à¸¡à¸Ń
ec tive
à¸²à¸Īà¸° à¸¢
Ġ8 7
à¸Ļà¸Ńà¸Ńà¸ģ à¸Īà¸²à¸ģ
à¸ļà¸¡ à¸²à¸Ńà¸¢
à¹ĥà¸Ļà¸ŀ à¸¡
à¸¢à¸Ķ à¸Ĭ
à¹Ĥà¸£à¸Ħ à¸¡à¸°à¹Ģà¸£
à¸ªà¹Ģà¸ķ à¹Ģà¸Ķ
ĠIn ter
à¸²à¹Ģà¸ª à¸ŀà¸ķ
Ġà¸ļà¸²à¸ĩ à¸Ĭà¸Ļ
oci ety
Ù İ
à¸Ķ à¹Ĥà¸£à¸ĩà¹Ģà¸£
à¸ª à¸Ńà¸ĩà¸ª
à¸Ĥà¸Ńà¸ĩ à¸Ľà¸£à¸°à¸Ĭà¸²à¸Ĭà¸Ļ
à¸Ļà¸Ĺ à¸¤à¸©à¸İ
Ġà¹ģà¸¥à¸° à¸Ńà¸Ńà¸ģ
à¸²à¸§ à¸¨à¸£
Ġà¸Ħ à¸³à¸Ļ
à¸Ĳ à¹Ģà¸ŀ
à¸Ļà¸Ķ à¸²à¸ļ
à¸¡à¸« à¸į
ĠA t
Ġ8 6
à¸Ńà¸« à¸²à¸ª
à¹Ĥà¸Ħ à¸Ķ
Ġà¸Ńà¸³à¹Ģà¸ł à¸Ńà¸ŀ
à¹ģà¸Ī à¸ģà¸Ī
à¹Ħà¸® à¸Ļ
ok e
Ġà¹ĳ à¹Ĳ
255 7
Ġà¹Ĵà¹ķà¹ ķà¹
ann el
à¸Ń à¹ģà¸Ķà¸ĩ
à¸ĩ à¹Ģà¸¢à¸Ńà¸£à¸¡à¸Ļ
à¸§ à¸®
à¸° à¸Ļà¸°
à¸Ħ à¸Ł
à¸³ à¸¡à¸²à¸ģ
à¹Ģà¸£ à¸¥
à¸Ńà¸ĩà¸Ĺ à¸°à¹Ģà¸¥
or i
à¸ŀà¸£à¸°à¸£à¸²à¸Ĭ à¸ģ
à¸Ĺà¸£à¸ĩ à¸ŀà¸¥
à¹Ģà¸ĩ à¸²
à¸¡à¸Ń à¸Ļà¸ªà¹Ģà¸ķà¸Ńà¸£
à¸Ķà¸² à¹ģà¸¥à¸°
oc ial
à¸§à¸Ļà¸ª à¸²à¸ĺà¸²à¸£à¸ĵà¸°
200 6
Ġà¹ĥà¸Ļà¸ļ à¸£à¸£à¸Ķ
à¸Ľà¸£à¸°à¸ªà¸²à¸Ļ à¹Ģà¸ª
B T
X T
u it
à¸ģ à¸Ńà¸²à¸¢
à¸¥ à¹Ģà¸ļà¸£
à¸ķ à¸«à¸¥
à¸ķ à¹Ĥà¸ķ
à¸ļ à¸ªà¸£
à¸Ħ à¹ģà¸¥à¸°
à¸ģà¸£ à¹Ĥà¸£à¸¡
Ġà¸ª à¸«à¸ŀ
à¸£à¸£ à¸Ńà¸ļ
à¸¢à¸ĩ à¸ªà¸£à¸°
Ġà¸ģà¸²à¸£ à¸Ľà¸£à¸°à¸Ĭ
es tival
à¸ģà¸²à¸¥ à¹ģà¸£à¸ģ
à¸Ĵà¸Ļ à¸²à¸£
Ġ9 4
à¸£à¸Ńà¸ļ à¸Ĺ
Ġà¸ķà¸³à¸ļà¸¥ à¸ļà¸²à¸ĩ
ĠJ apan
à¸Ļà¸łà¸²à¸Ħ à¸ķ
à¸Ļà¸³à¸¡ à¸²à¸ĭ
à¸² à¹ģà¸ª
à¸Ķ à¸ģà¸¥à¸²à¸ĩ
à¸Ĺ à¸ľà¸¥
à¸Ľ à¸°à¸ģ
à¸²à¸¢ à¹Ħà¸¡
à¸Ńà¸¢ à¸ģà¸¥
Ġà¸Ħ à¸Ńà¸¡à¸ŀ
à¸Ńà¸Ķ à¸Ĭ
à¸Ļà¸³ à¸Ĺà¸²à¸ĩ
à¸¥à¸° à¸£
à¸ªà¸ķ à¸²à¸¥
à¸Ńà¸ĩà¸Īà¸²à¸ģ à¸£
à¸ĩà¸ļ à¸¨
à¸Ĥà¸Ļà¸²à¸Ķ à¸Ĺ
à¸ļà¸¡ à¸²à¸Ĭ
à¹Ĥà¸Ĺ à¸¡
us tr
à¸Ľà¹ģà¸ļà¸ļ à¸Ķ
à¸Ħà¸Ħà¸¥ à¸ľ
à¸²à¸¡à¸² à¹ĥà¸Ĭ
Ġ195 2
à¸ĩà¹Ģà¸Ļ à¹Ģà¸ĺà¸Ńà¸£
à¸ķà¸ģà¸¥ à¸ĩà¸ģ
M P
à¸ĩ à¸§à¸£
à¸ĩ à¸Ħà¸§à¸£
à¸§ à¸Ļà¸Īà¸²à¸ģ
à¸Ķ à¸ĩà¸Ħ
à¸Ķ à¸Ńà¸Ńà¸ģà¹Ħà¸Ľ
à¸ª à¹Ģà¸ŀ
à¸Ī à¹Ģà¸£
à¸²à¸ĩ à¸Īà¸³à¸«à¸Ļ
à¸²à¸ĩ à¸¥à¸³à¸ķ
Ġà¸ŀ à¸¤à¸ķ
à¹Ģà¸Ń à¸¥à¸²
à¹Ģà¸ķ à¸°
à¸¡à¸« à¸²à¸ªà¸²à¸£à¸Ħà¸²à¸¡
à¸Īà¸Ī à¸²à¸£à¸°
à¹Ĥà¸¡ à¸Ĭ
Ġà¸Ĥ à¸ļà¸§à¸Ļà¸ģà¸²à¸£
à¸Ļà¹ģà¸¥à¸° à¸Ĺ
à¸ķà¸ļà¸Ńà¸¥ à¸ĸ
ol f
à¸²à¹Ħ à¸Ĭà¸¢
à¸Īà¸ŀà¸£à¸°à¸Ļà¹Ģà¸£ à¸¨à¸§à¸£à¸¡à¸«à¸²à¸£à¸²à¸Ĭ
E l
Ã ł
à¸£ à¸²à¸¥à¸ĩà¸ģà¸£à¸ĵ
à¸ģ à¹Ģà¸«à¸¡
à¸¥ à¹Ĥà¸Ķ
à¸¥ à¹Ģà¸ģà¸¥
à¸Ńà¸ĩ à¸Ļà¸Ħà¸£à¸£à¸²à¸Ĭà¸ª
à¸ŀ à¸«
à¸Ĥ à¸Ī
à¸Ńà¸¢ à¸Ī
à¸ªà¸¡ à¸Ĭà¸²à¸¢
à¹ĥà¸Ļà¸Ľ à¸ı
à¸¢à¸Ļ à¹Ģà¸ĭà¸Ļà¸ķ
ti m
à¸¬ à¸²à¸Īà¸²à¸ģ
à¹Ħà¸ĭ à¸¥
Ġà¹Ģà¸ŀà¸£à¸²à¸° à¸ĸ
à¸Ĭà¸²à¸ģà¸²à¸£ à¸¨
à¸²à¹Ģà¸Ķ à¸¥
à¸ŀà¸²à¸ģà¸© à¸²
à¹ĥà¸Ļà¸£à¸°à¸¢à¸° à¹ģà¸£à¸ģ
à¸Ķà¸¡à¸« à¸²à¸ªà¸²à¸£à¸Ħà¸²à¸¡
à¸ĩà¸ļà¸Ńà¸ģ à¸ĸ
à¸Ļà¹Ĥà¸¡ à¸Ĩ
à¸¥ à¸ģà¸¥
à¸¢ à¸®
à¸ļ à¹ģà¸«
à¸Ńà¸ĩ à¸ģà¸²à¸£à¸ķ
à¸ģà¸²à¸£ à¹ģà¸¢à¸ģ
à¸³ à¹ĥà¸Ī
à¸²à¸§ à¸«à¸¡
Ġà¸Ħ à¸²à¸ĭ
à¸¢à¸ĩ à¹Ģà¸¡
Ġà¹Ĥà¸Ķà¸¢ à¹Ģà¸Ī
à¸²à¸Ń à¸²à¸ģà¸²à¸£
Ġà¹Ģà¸¡ à¸Ķ
à¸¢à¸¡ à¸Ĭ
à¸«à¸²à¸£ à¸Ĭ
à¸«à¸²à¸£ à¸Ĥà¸Ńà¸ĩ
Ġ19 00
à¸ŀà¸£ à¸²à¸Ļ
à¸Ļà¸Ĺà¸²à¸ĩ à¸ģà¸²à¸£à¸Ħ
à¸Ļà¸Ħà¸£ à¸Ńà¸ļà¸Ħà¸£
à¸Ĭà¸²à¸§ à¸Ł
Ġà¸Ĥà¸Ńà¸ĩ à¸Ĭ
à¸«à¸¥à¸²à¸¢ à¸Ľà¸£à¸°à¹Ģà¸Ĺà¸¨
à¹Ĥà¸ģ à¸®
à¸Ĵà¸Ļ à¸²à¸Ĥà¸Ńà¸ĩ
Ġ10 8
Ġ9 00
à¸Ķà¸Ń à¸²à¸¢
Ġà¸Ł à¸Ńà¸ĩ
ĠL eg
un e
à¸Ļà¸Ħà¸§à¸²à¸¡ à¹Ģà¸Ľ
à¸Ļà¹ģà¸ļà¸ļ à¸Ĺ
Ġà¸ŀà¸§à¸ģ à¹Ģà¸Ĥà¸²
à¸Ĺà¸²à¸ĩà¸ģà¸²à¸£ à¹Ģà¸ģà¸©à¸ķà¸£
à¸ļà¸§à¸ĩ à¸¡à¸«à¸²à¸§
à¸ļà¸£à¸ĸ à¹Ħà¸Łà¸Ł
Ġà¹Ģà¸¢à¸Ńà¸£ à¸¡
à¸ģà¸£à¸¢ à¸²à¸Ļà¸¢à¸Ļà¸ķ
ĠAs ia
à¸Ń à¸ĺà¸£à¸£à¸¡à¸Ĭà¸²à¸ķ
à¸Ķ à¸Ńà¸¥
à¸ª à¸ªà¸Ļ
à¸Ńà¸ĩ à¸Īà¸³
à¸§à¸¢ à¹Ģà¸ģ
à¹Ģà¸Ļ à¹Ģà¸§
à¸ĩà¸ª à¸ĸ
à¸Ĺà¸£ à¸Ńà¸²à¸£
Ġà¸§ à¸£à¸£à¸ĵ
à¸ģà¸£à¸£à¸¡ à¸ģà¸²à¸£à¸ķ
à¸Ĭà¸Ļ à¸ģà¸¥
à¸«à¸¥à¸²à¸¢ à¸Ľà¸£à¸°à¸ģà¸²à¸£
à¸²à¸Īà¸° à¹Ģà¸£
Ġà¸Īà¸° à¹Ģà¸«
à¸§à¹Ħà¸Ľ à¸Ĥà¸Ńà¸ĩ
Ġà¸Ħà¸§à¸²à¸¡ à¹Ģà¸ª
à¸Īà¸²à¸ģà¸ģà¸²à¸£ à¸ĸ
à¸³à¸ķà¸²à¸¥ à¹Ģà¸Ĥ
à¹Ģà¸Ķà¸Ń à¸°à¸§
à¸Ļ à¹Ģà¸«à¸£
à¹Ģ à¸Ļà¸¨
à¸ĩ à¹Ĥà¸¡
à¸¡ à¸Ĭà¸²à¸¢
à¸¥ à¸łà¸²à¸ŀà¸¢à¸Ļà¸ķà¸£
à¸ª à¹Ģà¸Ļà¸Ńà¸£
à¸³ à¹Ħà¸«à¸¥
à¸ķà¸£ à¹Ģà¸Ľ
Ġà¸Ħ à¸ĵà¸°à¸Ĺ
à¸Ńà¸ļ à¸²à¸ĩà¸Ħà¸£
à¸Ľà¸£ à¸ģà¸ķ
Ġà¸Ļ à¸²à¸ĩà¸ªà¸²à¸§
à¸²à¸° à¸¥
à¸²à¸Ń à¸²à¸Ĭ
on es
à¸ģà¸£à¸° à¸Ĭ
à¸¡à¸²à¸ģ à¹Ģà¸Ľ
à¸Ļà¸Ńà¸¢ à¸ª
ro me
Ġà¸Ľà¸£à¸° à¹Ĥà¸¢à¸Ħ
à¹Ħà¸ĭ à¸ļ
à¹Ĥà¸Ľ à¹Ģà¸ģà¸¡à¸Ń
à¹Ħà¸Ĺ à¸Ľ
Ġà¸ł à¸£à¸£à¸¢à¸²à¸Ĥà¸Ńà¸ĩ
à¸ªà¸ĭ à¸²à¸Ĭ
à¸Ĺà¸ª à¸Ļà¸¡à¸ģ
ĠSc ience
a ut
à¸¥ à¸²à¸ķ
à¸¢ à¹Ĥà¸Ķà¸¢
à¸²à¸¢ à¹ģà¸«
à¸Ļà¸ķ à¸Ļà¹Ģà¸Ńà¸ĩ
à¸«à¸¥ à¸ĩà¸£
à¸ŀà¸£à¸° à¸¨
Ġà¸Ħ à¸Ļà¸£
Ġà¸ķ à¸³à¸Ļ
à¸Ńà¸ª à¸Ĺ
Ġà¹Ĥ à¸ļà¸ªà¸ĸ
à¹ĥà¸Ļà¸ģà¸²à¸£ à¹ģà¸ģ
à¸Ļà¸ģà¸²à¸£ à¸Ľà¸£
à¸Ļà¸Ħà¸£ à¸ļà¸²à¸¥
Ġà¸Īà¸²à¸ģ à¸Ĥ
à¸Īà¸ŀà¸£à¸° à¸§à¸Ĭ
à¸Ľà¸£à¸°à¸ģà¸²à¸¨ à¸Ī
Ġà¹Ģà¸Ħ à¸Ńà¸£
à¹Ĥà¸Ĭ à¸Ħà¸Ķ
à¸ģà¸Īà¸° à¹Ģà¸£
à¸Ĭà¸Ńà¸ļ à¸Ķ
Ġà¹Ĥà¸Ľà¸£ à¸Ķà¹ĥà¸«
à¸Ļà¸ŀà¸¥ à¹Ģà¸¡
à¸Ļà¸¢à¸Ńà¸Ķ à¹Ģà¸¢
à¸Īà¸ªà¸§à¸£à¸£à¸Ħà¸ķ à¹Ģà¸¡
Ġcor tex
r ing
à¸Ķ à¸ŀà¸ļ
à¸²à¸£ à¸²à¸§
à¸ģà¸£ à¸ŀà¸ĩà¸©
à¸Ļà¸ª à¸²à¸ģà¸¥
à¸Ļà¸Ĥà¸Ńà¸ĩ à¸Ľà¸£à¸°à¹Ģà¸Ĺà¸¨
à¸ĩà¸Īà¸²à¸ģ à¹Ģà¸£
Ġà¸Ĥà¸Ńà¸ĩ à¸¡à¸«à¸²à¸§
Ġà¸Ħà¸§à¸²à¸¡ à¹ģà¸ķà¸ģà¸ķ
à¸ĩà¹Ħà¸Ľ à¸ģà¸§
à¸Ļà¸ŀà¸£à¸°à¸£à¸²à¸Ĭ à¸ļ
à¸ªà¸ĩ à¸§à¸Ļ
E D
à¸£ à¹Ģà¸ģà¸¥
à¸Ń à¸Ļà¸ŀà¸£à¸°
à¸Ĥ à¸²
à¹Ģà¸Ķ à¸Ĭà¸²
à¸Ĳ à¹Ģà¸Ľ
Ġà¸Ń à¸²à¸ĭ
à¹Ģà¸Ń à¸Ķà¸ª
à¸¢à¸Ļ à¹Ģà¸ŀà¸¥à¸ĩ
à¸Ĺà¸ĺ à¸ļà¸²à¸Ĺ
à¸Ķà¸ª à¸£à¸°à¸ļ
ĠP op
ĠH ot
ir d
Ġ245 9
ens e
à¸Ļ à¹Ģà¸īà¸¥
à¸ĩ à¸ŀà¸£à¸°à¸£à¸²à¸Ĭ
à¹Ħ à¸Ļà¹Ĥà¸ķà¸£
à¸Ĥà¸Ńà¸ĩ à¹Ģà¸¢à¸Ńà¸£à¸¡à¸Ļ
à¸Ľà¸£à¸° à¸¥à¸Ńà¸ĩ
Ġà¸Ħ à¸Ķ
à¸Ńà¸¡ à¹Ģà¸«à¸¥
à¹Ģà¸Ń à¸Ī
à¸¢à¸Ļ à¹Ģà¸ķ
à¹Ĥà¸¥ à¸Ķ
al es
à¹Ģà¸Ĥà¸ķ à¸ģà¸²à¸£à¸Ľà¸ģà¸Ħà¸£à¸Ńà¸ĩ
à¸ªà¸²à¸£ à¸ģ
à¸Ľà¸ģà¸Ħà¸£à¸Ńà¸ĩ à¹Ĥà¸Ķà¸¢
à¸²à¹ģà¸¥à¸° à¸Ń
ur es
Ġm et
à¸Ļà¹Ģà¸ŀà¸¥à¸ĩ à¸Ĭà¸²à¸ķ
à¸ªà¸łà¸²à¸ŀ à¹ģà¸§à¸Ķà¸¥
200 5
à¸ķà¸£à¸² à¹ģà¸ľ
F A
p os
à¸Ń à¸ªà¸¡à¸²à¸Ĭ
à¸ĩ à¹Ģà¸Ł
à¸© à¸¢à¸§
à¸Ńà¸¢ à¸§
à¸ĵ à¸ķ
à¸į à¹ĥà¸Ī
à¸ŀà¸£à¸° à¸Ńà¸ł
Ġà¸ģ à¸Ńà¸ĩà¸ŀà¸¥
à¸²à¸Ń à¸³à¸Ļà¸²à¸Ī
à¹Ħà¸Ĺà¸¢ à¸ģ
à¸¥à¸° à¸Ļ
à¸ĩà¸ķ à¸¥à¸Ńà¸Ķ
à¸ªà¸²à¸¡à¸²à¸£à¸ĸ à¸Ľ
à¸ªà¸²à¸¡à¸²à¸£à¸ĸ à¹Ģà¸Ľà¸¥
ec ial
à¸Ľà¸£à¸°à¸ª à¸ļà¸ł
à¸£à¸²à¸¢ à¸ª
à¸ĩà¸Ĥà¸Ńà¸ĩ à¸Ļ
à¸Ńà¸Ńà¸ģà¸Īà¸²à¸ģ à¸ļ
à¸ĺà¸¢à¸¡ à¸ķ
à¸Ļà¸ľà¸¥ à¸ªà¸³à¹Ģà¸£
all y
Ġ193 4
à¸²à¸£à¸²à¸Ĭà¸ģà¸²à¸£ à¸ŀà¸¥à¹Ģà¸£
à¸Ķà¸«à¸¡à¸²à¸¢ à¹Ģà¸«à¸ķ
à¸²à¸¢à¸Ķ à¸²à¸¢
Ġà¸ŀà¸ļ à¸ģà¸£à¸°à¸Īà¸²à¸¢à¸ŀ
Ġà¹Ĥà¸Ĭ à¸ķ
à¸Ĭà¹Ģà¸Ĭ à¸ª
à¸Ńà¸£à¸£à¸ĸ à¸ģà¸ĸ
à¸Ķ à¹Ģà¸Ĺà¸ŀà¸¨
à¸« à¸²à¸Ĺ
à¹Ħ à¸§à¸¢à¸²à¸ģà¸£à¸ĵ
à¸³ à¸ªà¸²à¸¢
à¸Ĥà¸Ńà¸ĩ à¹Ģà¸Ļ
à¸ĭ à¸°à¸ģ
à¸Īà¸²à¸ģ à¸¢
à¸«à¸¥ à¸ĩà¹Ģà¸«à¸¥
à¸²à¸ª à¸ĸ
à¸§à¸¢ à¸ģà¸²à¸£à¸£
à¸Īà¸° à¸ľà¸¥
à¸§à¸ĩ à¸¡à¸²à¸¥
Ġ19 17
an o
à¸²à¸ĺ à¸²à¸Ļ
à¸ĩà¸Īà¸²à¸ģ à¸ķ
ĠT w
ĠT our
is ter
à¹Ģà¸Ł à¸ķ
à¸Ĳà¸ļà¸²à¸¥ à¸ŀà¸¥à¹Ģà¸Ńà¸ģ
à¸ģà¸Ħ à¸Ļà¸ķ
à¹Ĥà¸Ĺ à¸ģ
à¸£à¸ĸ à¸Ĺ
ĠD VD
à¸Ķà¸²à¸§ à¸Ń
à¸¡à¸° à¸Ļ
ĠO ut
à¸²à¸Ħà¸§à¸²à¸¡ à¸Īà¸£
à¸¡à¸²à¸ª à¸Ħ
à¸ģà¸£à¸°à¹ģà¸ª à¹Ģà¸¥
à¸Ńà¸ªà¸²à¸£ à¸¡à¸§à¸¥à¸Ĭà¸Ļ
Ġ245 4
aw a
2 000
T P
o ot
à¸Ļ à¹ĥà¸Ļà¸«à¸¡
à¸Ń à¸Ĺà¸£
à¸ĩ à¹Ħà¸«à¸¥
à¸¡ à¹Ģà¸ĭ
à¸Ķ à¸Ĺà¸£
à¸Ķ à¸£à¸°à¸ļà¸ļ
à¸Ķ à¸Īà¸³à¸ģ
à¸ª à¸ªà¸£
à¸ļ à¸ĩà¸ļà¸Ľà¸£à¸°à¸¡à¸²à¸ĵ
à¸Ĭ à¸Ĭà¸Ļ
à¸ĵ à¸¡
à¹Ģà¸Ķ à¸Ńà¸¡à¸Ńà¸£
à¸Ļà¸ķ à¸ģà¸Ĺ
Ġà¸Ĺà¸³ à¸¥à¸²à¸¢
à¸Ĭà¸²à¸¢ à¸«à¸Ļ
à¸ļà¸Ļ à¹Ģà¸Ħà¸£
à¸Ļà¹Ħà¸Ľ à¸ª
à¸ĩà¸§ à¸²à¸¥
à¸¢à¸²à¸¢ à¸§
à¸Ńà¸Ĥà¸Ńà¸ĩ à¸ľ
à¸£à¸ĵ à¸Ľà¸ı
à¸Ķà¸Ĥà¸Ńà¸ĩ à¸Ĺ
ol a
à¹Ģà¸¨à¸© à¸Ń
Ġà¹Ģà¸Ĺ à¸Ħà¸Ļ
à¸ģà¸©à¸£ à¹Ĥà¸£à¸¡
à¸ķà¸° à¸ļ
à¹Ħà¸Ń à¹Ĥà¸ĭà¹Ĥà¸Ĺ
à¸¢à¸Ķà¸Ļà¸²à¸¡ à¹Ģà¸«à¸Ļ
à¸¢à¸ĩà¸Ĺ à¸Ńà¸ĩà¸Ħà¸³
ĠRo ad
A m
O H
y cl
Ġ à¸¨à¸²à¸ªà¸Ļà¸²
à¸ĩ à¸Ħà¸§à¸ļà¸Ħ
à¸Ķ à¸ŀà¸£
à¸Ķ à¹ĥà¸Ļà¸ļà¸£à¸£à¸Ķ
à¸Ħ à¸Ļà¸Ĥ
à¸³ à¹Ħà¸£
à¸²à¸ģ à¸²
à¸Ĥà¸Ńà¸ĩ à¸ŀà¸£à¸°à¸ŀ
à¸§à¸¢ à¹ģà¸ģ
à¸§à¸ĩ à¸ģà¸¥
à¸ļà¸£ à¸²à¸¢
à¸Ļà¸Ļ à¸ģà¸Ĺ
Ġà¸Ľ à¸Ĳà¸¡
à¹Ĥà¸ĭ à¹Ģà¸Ķ
re g
à¸Ľà¸£à¸²à¸ģà¸ı à¹ĥà¸Ļ
ag n
à¸Ńà¹Ģà¸¥ à¸ªà¹Ģà¸ķà¸Ńà¸£
à¸²à¸ĩà¸Īà¸²à¸ģ à¸Ĺ
à¹Ĥà¸ļà¸£à¸²à¸ĵ à¸§
à¸¢à¸į à¸ªà¸«à¸£
Ġà¸ī à¸²à¸ģ
Ġà¹ĥà¸Ļà¸ķ à¸Ńà¸Ļà¸Ĺ
à¸ģà¸³à¹ģà¸ŀ à¸ĩà¹Ģà¸¡
ĠPro duc
Ġst yle
à¸¥à¹Ģà¸§ à¹Ģà¸Ļ
c il
à¸¡ à¸Ħà¸§
à¸ª à¹Ģà¸§
à¸Ī à¸Ļà¹Ģà¸Ľ
à¸Ľ à¹Ģà¸Ĺ
à¸ģà¸£ à¸²à¸§
à¸§à¸¢ à¸ģà¸²à¸£à¸ķ
Ġà¸Ī à¸²à¸ĩ
à¹Ĥà¸¥à¸ģ à¸Ļ
à¸²à¸Ĥà¸Ńà¸ĩ à¸Ļ
à¸Ńà¸ĩà¸Īà¸²à¸ģ à¸ĸ
à¸¡à¸ª à¹Ģà¸ķà¸Ńà¸£
à¹Ĥà¸Ĺ à¸¥à¸Ħ
à¹ģà¸Ł à¸Ļ
à¸²à¸£à¸²à¸Ĭ à¸ļà¸£
à¸Īà¸ŀà¸£à¸°à¸£à¸²à¸Ĭ à¸ªà¸¡à¸łà¸ŀ
à¹ĥà¸Ļà¸łà¸²à¸Ħ à¹ĥà¸ķ
ĠHe art
ĠNet work
à¸ļ à¸łà¸²à¸©à¸²à¸Ń
à¸ģà¸¥ à¸Ķ
à¸ŀà¸£à¸° à¸Ľ
à¸ŀà¸£à¸° à¹Ģà¸Ńà¸ģ
à¸§à¸ĩ à¸«
Ġà¸ģ à¸°
à¸ĩà¸ª à¸¥
à¸Ĺà¸²à¸ĩ à¸¨
à¸£à¸¡ à¹ģà¸Ķ
à¹Ĥà¸£ à¸ĭ
à¸Ľà¸£à¸°à¸ģà¸Ńà¸ļ à¸ĺ
re l
à¸ļà¸£à¸²à¸Ĭ à¸ªà¸¡à¸ļ
ĠPro ject
à¸Ĺà¸Ńà¸Ķ à¸Ńà¸ģà¸ĭ
k s
o ff
Ġ à¸¤à¸Ĺà¸ĺ
à¸§ à¹ĥà¸Ļà¸§
à¸ģà¸²à¸£ à¸ŀà¸ļ
à¸Ħà¸£ à¸²à¸Ĭ
à¸ģà¸© à¸²à¸ļ
à¸Ĺà¸²à¸ĩ à¸ģà¸²à¸£à¸Ĺ
à¸ĩà¸²à¸Ļ à¹Ģà¸Ľ
Ġà¸ģà¸²à¸£ à¸ģà¸£à¸°à¸Ĺà¸³
Ġà¸¥ à¸Ńà¸§
à¹ĥà¸Ļà¸ª à¸ĸà¸²à¸Ļà¸°
à¸Ļà¸²à¸¡ à¸ģ
Ġà¹Ħ à¸Ńà¸ĭ
à¸ģà¸Ĥà¸Ńà¸ĩ à¸ķ
à¸Ķà¸Ĥà¸Ńà¸ĩ à¸ķ
id d
st e
ell a
p is
à¸Ļ à¹Ģà¸Ńà¹Ģà¸Ĭ
à¸Ń à¸Ħà¸Ļ
à¸ģ à¹ģà¸ŀ
à¸ĩ à¸Ńà¸Ķ
à¸ĩ à¹Ģà¸ŀà¸£à¸²à¸°
à¸¸ -
à¹Ģà¸Ĥ à¸²à¸Ń
à¸Ł à¸²
à¹Ģà¸Ĭ à¸Ļ
à¸ĩà¸¡ à¸²à¸ķ
à¹ģà¸¡ à¸§
à¸ķà¸²à¸¡ à¸Ļ
à¸Ķà¸Ĺ à¸£à¸ĩ
or ge
Ġà¸Īà¸° à¸ª
à¹ĥà¸Ļà¸Ľà¸£à¸°à¹Ģà¸Ĺà¸¨ à¸Ŀà¸£
à¸Ķà¸Ĥà¸Ńà¸ĩ à¹Ģà¸Ĥà¸²
à¸²à¸£à¸° à¸¢à¸°
à¸ģà¸©à¸£ à¸¥à¸°à¸ķ
à¸²à¸ĺà¸²à¸£à¸ĵ à¸Ĭ
à¸Ļà¹Ĥà¸Ķ à¸£
à¸ģà¸İà¸«à¸¡à¸²à¸¢ à¸Ĺ
oc al
à¸²à¸ģà¸²à¸£à¸ģà¸£à¸°à¸Ĺà¸£à¸§à¸ĩ à¸ģà¸²à¸£à¸Ħà¸¥
ati ng
à¸Ļà¹Ĥà¸ķ à¸Ļ
à¸ŀà¸¥à¸ķ à¸Łà¸Ńà¸£
ĠCon c
à¸¥à¸²à¸Ī à¸²à¸£
M D
f e
Ġ à¸¥à¸°
à¸Ļ à¹Ģà¸ģà¸£
à¸¡ à¸Ĭà¸Ļà¸°à¹Ģà¸¥
à¸¢ à¸Ļà¸Ľà¸£à¸°
à¸§ à¹ģà¸£à¸ģ
à¸Ĺ à¸Ķ
à¸¸ :
à¸Ĥà¸Ńà¸ĩ à¸Ńà¸Ļ
Ġà¹ģà¸¥à¸° à¸ªà¸³à¸Ļ
à¸£à¸£ à¸¥
à¸Ļà¸ģ à¸³à¹ģà¸ŀ
à¸§à¸Ļ à¹ĥà¸Ļ
à¸Ļà¸¢ à¸²à¸£
à¸ģà¸² à¹Ģà¸¡
à¸Ĵà¸Ļ à¸²à¸Ńà¸¢
à¸¢à¸²à¸¢ à¸Ĺ
à¸ģà¸Ĥà¸Ńà¸ĩ à¸Ī
à¸ĩà¹Ģà¸¨ à¸ªà¸ģ
ĠD ream
à¸ªà¹Ģà¸ĭ à¸¥à¸ª
à¸Ļà¹Ģà¸ª à¸¡à¸Ń
à¸ģà¸£à¸°à¸Ī à¸²à¸¢à¸ķ
Ġm od
à¸Ļà¹ģà¸ļà¸ļ à¸Ńà¸¢
à¸Ńà¸Ļà¸£ à¸Ńà¸ĩà¸Ĭà¸Ļà¸°à¹Ģà¸¥
à¸ģà¸ĩà¸²à¸Ļà¸ ŀ
ep tor
Ġà¸Ĺà¸°à¹Ģà¸¥ à¸ªà¸²à¸ļ
ĠPart y
à¸ģ à¸ĩà¸²à¸Ļà¸Ĥà¸Ńà¸ĩ
à¸Ķ à¹ģà¸¥à¸°à¸¡
à¸Ńà¸ĩ à¹Ģà¸Ļ
à¸ŀ à¹ģà¸Ķà¸ĩ
à¸³ à¹Ģà¸¡
Ġà¹ģà¸¥à¸° à¸ģà¸£
à¸ł à¸²à¸£à¸°
à¸Ħà¸§à¸²à¸¡ à¹Ģà¸Ī
à¸Īà¸° à¸¥à¸ĩà¹Ģà¸¥
à¹Ģà¸Ħ à¸Ĺ
à¸²à¸Ķ à¸²à¸¥
à¸Ļà¸ģà¸²à¸£ à¸ľà¸¥
à¸ģà¸Ķ à¸²à¸§
à¸ļà¸Ń à¸²à¸¢
as c
Ġà¸ķà¸²à¸¡ à¸ŀà¸£à¸°à¸£à¸²à¸Ĭà¸ļ
à¹Ĥà¸Ħà¸£à¸ĩà¸ģà¸²à¸£ à¸ŀ
Ġ246 5
à¸§à¹Ģà¸£ à¸ĭ
à¸ķà¸£à¸Ĭà¸²à¸¢ à¸Ħà¸Ļà¹Ĥà¸ķ
à¹Ģà¸Ļà¸ª à¸ĭ
Ġà¸Ĥà¸ĵà¸° à¸¡
à¸ªà¸« à¸¨
à¸Ļà¸ªà¸²à¸¡ à¹Ģà¸ĵà¸£
a o
Ġ im
à¸Ļ à¸Ńà¸ª
à¸£ à¹Ģà¸Ķà¸Ĭ
à¸¢ à¸²à¸¥
à¸Ķ à¹Ģà¸Ńà¸Łà¹Ģà¸Ń
à¹ĥà¸Ļ à¸¥à¸°à¸Ħà¸£
à¸Ļà¸ķ à¸Ļà¸²
à¸ŀà¸£à¸° à¸Ńà¸²à¸Īà¸²à¸£à¸¢
à¸§à¸ĩ à¹ģà¸£à¸ģà¸Ĥà¸Ńà¸ĩ
à¸Ļà¸¡ à¸²à¸Ī
Ġà¸£ à¸ª
à¸ģà¸£à¸° à¸Ĺà¸³à¸ģà¸²à¸£
à¹ĥà¸Ļà¸ª à¸ĸà¸²à¸ļ
à¸§à¸²à¸ĩ à¹Ħà¸§
Ġà¹Ģà¸ª à¸¡
Ġà¹Ģà¸Ħ à¸²à¸Ļ
à¸ĩà¸ªà¸Ńà¸ĩ à¸Ħà¸£
à¸ģà¸ĸ à¸Ńà¸Ķ
à¸²à¸ĩà¸ĸ à¸Ļà¸Ļ
à¸²à¸ŀà¸£à¸°à¸¢ à¸²à¸ª
à¸§à¸¥à¸³ à¸ł
0 6
à¸Ļ à¹ĥà¸ª
à¸§ à¹ĥà¸Ļà¸Ĭ
à¸Ħ à¸¤à¸«à¸²à¸ªà¸Ļ
à¸Ī à¸¢
à¸ŀ à¹Ħà¸Ľ
Ġà¹ģà¸¥à¸° à¸Ńà¸Ńà¸ģà¸Ńà¸²à¸ģà¸²à¸¨
Ġà¸ŀ à¸ĩà¸¨
Ġà¸Ĺ à¸²à¸ģ
à¸§à¸ĩ à¸Ĥ
à¸ªà¸¡ à¸ģà¸²à¸£
à¸¢à¸ĩ à¹Ħà¸§
à¸Ļà¸¡ à¸²à¸Ķ
Ġà¸Ļ à¸²à¸£
à¸Ļà¸Ń à¸Ļà¸«à¸¥
à¸ķà¸²à¸¡ à¸§
Ġà¹Ģà¸Ĥ à¸²à¸ª
à¸ĩà¸Īà¸²à¸ģ à¸ģà¸²à¸£à¸ª
à¸Ļà¸²à¸¡ à¸Ĺ
Ġà¸Ĥ à¸Ńà¹ĥà¸«
à¸ĩà¸Ĥà¸Ńà¸ĩ à¸ŀ
à¸Ĵà¸Ļ à¸²à¸Ĭ
à¹Ĥà¸Ħ à¸¥à¸ĩ
à¸Ľà¸ģà¸Ħà¸£ à¸Ńà¸ĩà¸Ħ
à¸Ńà¸Ĥà¸Ńà¸ĩ à¸Ĺ
à¸Ļà¸¡à¸² à¹ģà¸¥
à¸Ļà¹Ħ à¸ª
à¸ģà¸£à¸°à¸Ĺà¸£à¸§à¸ĩ à¸ģà¸¥à¸²à¹Ĥà¸«à¸¡
à¸ģà¸²à¸¢ à¸§
à¸ĩà¸ģà¸£ à¸«à¸¢à¸ģ
à¹Ĥà¸® à¸Ī
à¸§à¸ļ à¸²
à¸Ļà¹Ģà¸§à¸¥ à¸²à¸ª
Ġ195 3
Ġ245 5
à¸ĩà¸£à¸§à¸¡ à¹Ħà¸Ľà¸ĸ
à¸²à¸¡à¸«à¸²à¸§ à¸Ĭ
à¸²à¸Ľà¸£à¸°à¸ģà¸§ à¸Ķ
ĠSer ies
c ip
à¸Ļ à¹Ģà¸¥à¸Ĥ
à¸Ļ à¹Ģà¸Ĺà¸¨à¸ļà¸²à¸¥
à¸¡ à¸Ńà¸Ńà¸ģ
à¸¥ à¸«
à¸« à¸°
à¸Ńà¸ĩ à¸¢à¸²à¸§
à¸Ĭ à¸§à¸²
à¹ģà¸¥à¸° à¹ĥà¸Ļà¸Ľ
à¸²à¸Ļ à¸Ńà¸Ļ
à¸²à¸§ à¹Ģà¸¡
à¸Ńà¸¡ à¸²à¸«à¸¥
à¸Ļà¸¡ à¸²à¸ª
à¸ĩà¸ģ à¸Ńà¸ĩà¸ģà¸¥à¸²à¸ĩ
à¸¢à¸Ļ à¹Ĥà¸Ľà¸£à¹ģà¸ģà¸£à¸¡
à¸łà¸²à¸ŀ à¸ļ
à¸§à¸Ļ à¸ģà¸¥
à¸¢à¸ģ à¸Ļ
à¸ªà¸²à¸¡à¸²à¸£à¸ĸ à¸ļ
à¸²à¸Ĥà¸Ńà¸ĩ à¸ļà¸£
à¸ģà¸ģ à¸Ńà¸ĩà¸Ĺ
ĠT eam
Ġ9 3
à¸£à¸ĵ à¸²à¸ģà¸²à¸£
Ġà¸Ħà¸§à¸²à¸¡ à¸«à¸¡à¸²à¸¢
à¹Ĥà¸£à¸Ħ à¸Ī
à¸Ĭà¸²à¸ģà¸²à¸£ à¸Ĺ
à¹ģà¸ĭ à¸Ļà¸Ķ
à¸¥à¸Ľà¸° à¸ģà¸²à¸£à¹ģà¸ªà¸Ķà¸ĩ
à¸ģà¸«à¸¥à¸²à¸¢ à¸Ħà¸£
à¸ĵà¸łà¸²à¸ŀ à¸Ĭ
Ġà¹ĥà¸Ļà¸ªà¸«à¸£ à¸²à¸Ĭà¸Ńà¸²à¸ĵà¸²à¸Ī
à¸ģ à¸²à¸ģà¸¥à¸²à¸ĩ
à¹ī .
à¸¡ à¹Ĩ
à¸ļ à¸Ľà¸£à¸°à¸ģ
à¸ļ à¹Ģà¸Ńà¸¡
à¹ĥà¸Ļ à¹ģà¸Ħà¸§
Ġà¹ģà¸¥à¸° à¸ģà¸³à¸¥
à¸Ńà¸ļ à¹Ħà¸Ķ
à¸ĩà¸ª à¸³à¹Ģà¸£
or ation
à¹Ĥà¸Ń à¹Ģà¸£
à¸Ńà¸Ń à¸°à¹Ħà¸£
à¸Ńà¸ģà¸²à¸£ à¹Ģà¸Ľà¸¥
à¸Īà¸³à¸Ļà¸§ à¸Ļà¹Ģà¸ķ
à¸Ļà¹ĥà¸Ļ à¸£à¸°à¸«à¸§
à¸ªà¸²à¸¡ à¹Ģà¸ĵà¸£
om y
à¸įà¸« à¸²à¸ķ
à¸²à¸® à¸²à¸£
à¸Ľà¸²à¸ģ à¸Ļ
à¸¥à¸ģ à¸²à¸ģà¸£
Ġ195 5
à¸ĩà¸Ħà¸ĩ à¸Ķà¸³à¹Ģà¸Ļ
à¸ĩà¸¡à¸§à¸¥ à¸Ĭà¸Ļ
à¸Ļ à¸¥à¸³
à¸§ à¸ªà¸£
à¸Ķ à¹Ģà¸ķà¸£
à¸ķ à¸ŀà¸¥
à¹ģ à¸Ńà¸ĩà¹Ĥà¸ģà¸¥
à¸Ńà¸ĩ à¸ªà¸³à¸Ń
Ġà¹ģà¸¥à¸° à¸Ľà¸ı
Ġà¹ģà¸¥à¸° à¸ģà¸²à¸£à¸ķ
à¸į à¸Ľ
à¸ŀà¸£à¸° à¸£à¸²à¸¡
à¸Īà¸³ à¸ŀà¸£à¸£à¸©
à¸Ļà¸Ľ à¸ģà¸Ħà¸£à¸Ńà¸ĩ
à¸Ļà¸ģà¸²à¸£ à¸¥
à¸įà¸į à¸²à¸ģà¸²à¸¨
à¸²à¸Ĥà¸Ńà¸ĩ à¸Ī
Ġ9 7
à¸ģà¸Ĥà¸Ńà¸ĩ à¸Ļ
ĠR ed
à¸ģà¸£à¸¡ à¸ŀà¸£à¸°à¸£à¸²à¸Ĭà¸§
à¸ŀà¸Ń à¹Ģà¸ŀ
Ġ246 4
Ġ246 7
Ġ193 5
à¸²à¸¡à¸²à¸ģ à¸Ĺ
ill a
à¹Ħà¸Ĭ à¸¢à¸²
à¸ģà¸ĭà¸²à¸Ļ à¹Ģà¸Ķà¸£
0 3
à¸Ļ à¹ĥà¸Ļà¸Ľà¸£à¸°à¹Ģà¸Ĺà¸¨à¹Ħà¸Ĺà¸¢
à¸£ à¸²à¸ĩà¸Ħ
à¸Ńà¸ĩ à¸ģà¸£
à¸Ńà¸ĩ à¹ģà¸ª
à¸Ńà¸ĩ à¸Īà¸£
à¹Ħ à¸ŀà¸¥
à¸ģà¸²à¸£ à¸£à¸°à¸ļ
Ġà¹ģà¸¥à¸° à¸ŀà¸£à¸°à¸Ńà¸ĩà¸Ħ
à¹Ĥà¸Ķà¸¢ à¸ªà¸³à¸Ļ
à¸Īà¸° à¹ģà¸ķà¸ģà¸ķ
à¸Ļà¸ª à¹Ħà¸ķà¸Ļ
à¸§à¸¡ à¸²à¸£
à¸Ļà¸¡ à¸«à¸²à¸£à¸²à¸Ĭ
à¹Ģà¸Ĺà¸¨ à¸Ļà¸²
à¸Ńà¸Ńà¸ģ à¸¡à¸²à¸ģ
à¸Ĺà¸²à¸ĩ à¸Ħà¸¥
à¸Ńà¸Ń à¸²à¸ģà¸²à¸¨
à¸ķà¸ļà¸Ńà¸¥ à¸«à¸į
à¸ľà¸¥à¸ĩ à¸²à¸Ļà¸łà¸²à¸ŀà¸¢à¸Ļà¸ķà¸£
à¹Ĥà¸£à¸¡ à¸²
Ġ246 2
Ġà¸Łà¸£ à¸²à¸Ļà¸ĭ
à¹Ĥà¸« à¸Ķà¸£
à¸Ĥà¸Ńà¸ĩà¹Ģà¸£ à¸²
à¸Īà¸²à¸Ħ à¹Ģà¸ĩ
à¸Ńà¹Ģà¸ļ à¸ª
à¸Ļà¸¨à¸²à¸ªà¸ķà¸£ à¸²à¸Īà¸²à¸£à¸¢
à¸Ńà¸ĩà¹Ĥà¸ģ à¹Ģà¸¥
à¹ģà¸Ĥà¸§à¸Ļ à¸Ļà¸§
à¸ĩà¸²à¸Ļà¸Ľà¸£à¸°à¸ģà¸²à¸¨ à¸ľà¸¥à¸£à¸²à¸ĩà¸§
M L
b urg
à¸Ń à¸Ħà¸£à¸Ńà¸ĩ
à¸ĩ à¸ķà¸£à¸ĩà¸Ĥ
à¸ĩ à¹Ģà¸ļà¸¥à¹Ģà¸¢
à¸Ķ à¸¥à¸³à¸Ķ
à¹ģ à¸Ńà¸Ļà¸Ĺ
à¸Ħ à¸Ļà¸Ī
Ġà¹ģà¸¥à¸° à¸ļà¸²à¸ĩà¸Ħà¸£
à¸ľ à¸ª
à¹Ħà¸Ľ à¹Ģà¸¢
à¸ŀà¸£à¸° à¸«
Ġà¸ģ à¸³à¹ģà¸ŀ
Ġà¹Ģà¸¡ à¸¢
à¸¢à¸ģ à¹Ģà¸Ľ
à¸ĩà¸Ĥà¸Ńà¸ĩ à¹Ģà¸Ĥà¸²
à¸Ńà¸ĩà¸Īà¸²à¸ģ à¸ª
à¸Ļà¸Īà¸° à¹Ģà¸£
à¸Ńà¸Ħ à¹ģà¸¡à¸Ļ
à¸Ńà¸³à¹Ģà¸ł à¸Ńà¸§
à¸²à¸ģà¸¥ à¸²à¸ĩà¸Ī
ent h
à¹ĥà¸Ħà¸£ à¸£
Ġ0 9
à¸łà¸²à¸©à¸² à¹Ģà¸¢à¸Ńà¸£à¸¡
à¸£à¸²à¸ģ à¸¨
à¸£à¸°à¸Ļ à¸Ńà¸ĩ
P C
v es
à¸ļ à¹Ĥà¸Ńà¸ģà¸²à¸ª
à¸³ à¹Ģà¸«à¸Ļ
à¸Ĥà¸Ńà¸ĩ à¸ªà¸ĸà¸²à¸Ļ
à¹ĥà¸Ļ à¸Ńà¸²à¸£
à¸ł à¸²à¸§à¸Ķ
à¸ķà¸£ à¸£à¸ģ
à¸§à¸¢ à¸Ħà¸§à¸²à¸¡à¸ª
à¸Īà¸° à¹ģà¸ķ
à¸Ĳ à¸¢
à¸Ĳ à¸Ħ
à¸§à¸¡ à¸«
à¸Ļà¹ģ à¸Ľà¸£
à¸Ńà¸Ń à¸²à¸£
ĠF estival
Ġà¸ľà¸¥ à¸Ľà¸£à¸²à¸ģà¸ıà¸§
ub e
ud e
à¸²à¸¢à¸Ĺà¸³ à¸Ĺ
à¸Ļà¸Ľà¸£à¸²à¸ģà¸ı à¸ģà¸²à¸£à¸ĵ
à¸ļà¸ģà¸²à¸£à¸ªà¸ĸà¸²à¸Ľà¸Ļ à¸²à¹Ģà¸Ľ
à¸² à¹ĥà¸Ķ
à¸Ń à¸²à¸Ħ
à¸Ń à¹Ħà¸Ĥ
à¸ª à¹Ĥà¸ĭ
à¸ļ à¸¡à¸²à¸ģ
à¸« à¸Ńà¸¡
à¸Ĥà¸Ńà¸ĩ à¹Ģà¸ģà¸²à¸«à¸¥
Ġà¹ģà¸¥à¸° à¸Ĭà¸²à¸§
à¸ģà¸£ à¸ģà¸¥
à¹Ģà¸Ķ à¹Ĥà¸¡
à¸ķà¸£ à¸²à¸ŀà¸£à¸°
Ġà¸Ń à¸§
à¸ĩà¸Ħ à¸³à¸§
Ġà¹Ĥ à¸Ńà¸£
à¸Ļà¸³ à¸Ĥ
à¸Ľà¸¥ à¸²à¸Ļ
à¹Ģà¸ŀà¸¥à¸ĩ à¸Ľà¸£à¸°à¸ģà¸Ńà¸ļ
à¸Ļà¹Ģà¸Ķ à¸£
à¸Ļà¸ŀà¸£à¸° à¸Ļ
à¹Ģà¸Ĥà¸ķ à¸Ń
à¸ĩà¹ģ à¸Ħà¸§
à¸Ńà¸° à¸Ħ
à¸Ńà¸ģà¸²à¸£ à¸ªà¸£
Ġà¸Īà¸° à¸Ī
ĠI m
à¸Ńà¸Ļà¸ª à¸ķ
ot her
à¸¢à¸²à¸ģ à¸Ī
à¸Ķà¸ļ à¸§à¸£à¸Ļ
Ġà¹ĥà¸Ļà¸ł à¸²à¸¢à¸«à¸¥
à¸²à¸įà¸Īà¸Ļ à¸²à¸ł
E A
N e
Ġ it
à¸ģ à¸ŀà¸£à¸°à¸£à¸²à¸Ĭà¸§
à¸ĩ à¸Ľà¸£à¸°à¸ģà¸Ńà¸ļà¹Ħà¸Ľà¸Ķ
à¸¥ à¸²à¸¨
à¸Ħ à¹Ģà¸Ľ
à¸ŀ à¸Ŀ
à¹Ĥ à¸Ļà¸Ń
Ġà¹ģà¸¥à¸° à¸ªà¸ĸà¸²à¸Ļ
à¹Ĥà¸Ķ à¹Ģà¸¡
à¸Ļà¸ķ à¸£à¸ģ
à¸Ł à¸²à¸ģ
à¹Ħà¸Ľ à¸ģà¸§
Ġà¸Ń à¸²à¸¡
à¸ªà¸¡ à¸¨
à¸²à¸Ń à¸²à¸ĵà¸²à¸Ļ
ti d
à¸Ńà¸ķ à¸Ļ
à¸Ńà¸ķ à¸Ńà¸ļà¸ªà¸Ļ
an i
à¹Ĥà¸¥à¸ģ à¹Ħà¸Ķ
Ġ24 40
à¸Ļà¸²à¸¡ à¸«à¸¥à¸§à¸ĩ
à¸Ľà¸£à¸°à¸Ĭ à¸²à¸£
à¸ĩà¸ģà¸²à¸£ à¸ģ
à¸Ļà¹ĥà¸Ļ à¸ģà¸£
à¸ģà¸²à¸£à¸Ħ à¸²à¸Ķ
à¸Ľà¸£à¸°à¸ĺà¸²à¸Ļ à¸ģà¸£à¸£à¸¡à¸ģà¸²à¸£
Ġl a
Ġac id
à¸Ļ à¸Ļà¸Ĺ
à¸ĩ à¸£à¸²à¸Ĭ
à¸Ĭ à¸¥à¸ļ
à¸ģà¸²à¸£ à¸ģà¸³à¸ģ
à¸³ à¸Ħà¸£
à¸Ńà¸¢ à¹Ģà¸Ńà¸ģ
à¸¢à¸Ļ à¹ĥà¸«à¸¡
à¸Ħà¸¥ à¸²à¸¢
Ġà¸¥ à¸Ńà¸Ļà¸Ķà¸Ńà¸Ļ
à¸¡à¸ŀ à¸²à¸ķ
à¹ģà¸ªà¸Ķà¸ĩ à¸£
à¸Ħà¸Ļ à¹Ģà¸Ĥ
al ity
Ġà¸Īà¸²à¸ģ à¸łà¸²à¸ŀà¸¢à¸Ļà¸ķà¸£
à¹Ħà¸Ł à¸ķ
Ġà¹Ģà¸£ à¸²à¸ªà¸²à¸¡à¸²à¸£à¸ĸ
à¸ļà¸Ħ à¸Ĺ
à¸ĩà¹ĥà¸Ļ à¸Ńà¸Ķ
à¹Ħà¸ĭ à¸Ħà¸¥
à¸ĩà¸Ħà¸¡ à¹Ħà¸Ĺà¸¢
à¸Ļà¹Ģà¸ģ à¸¡à¸Ĺ
Ġà¹ĥà¸Ļà¸ª à¸²à¸Ĥ
Ġà¹Ħà¸Ľ à¹Ħà¸Ķ
à¸¡à¸²à¸ķ à¸¢
à¸Ńà¸Ļà¸Īà¸° à¸¢
à¸Ļà¹ģà¸Ķà¸Ļ à¹ģà¸«
Ġà¹ĥà¸Ļà¸« à¸¡
ĠÃ Ĺ
Ġ qu
à¸Ń à¸«à¸¥à¸²à¸¢
à¸ģ à¹Ģà¸ĭà¸¥
à¹Ģà¸ Ĩ
à¸ª à¸²à¸ĺ
à¸Ī à¹Ģà¸¢
à¸Ńà¸ĩ à¸¢à¸²à¹Ģà¸ĺà¸Ń
à¹Ĥ à¸¢à¸ģà¸¢
à¸²à¸¢ à¸«à¸į
à¸§à¸¢ à¹Ģà¸Ļ
Ġà¸ª à¸«à¸łà¸²à¸ŀà¹Ĥà¸ĭà¹Ģà¸§
à¸²à¸Ī à¸Ńà¸«
Ġà¹Ĥà¸Ķà¸¢ à¸Ļà¸²à¸¢
à¹ģà¸¡ à¸ªà¸ĭà¸²à¸Ĭ
à¸ģà¸ª à¸Ļ
ĠC r
à¸ĩà¸Ħà¸£ à¸²à¸§
à¸Ĥà¸Ļà¸²à¸Ķ à¸ķ
à¹Ĥà¸Ħà¸£ à¸ĩà¸Ĥ
à¸ĩà¸Ī à¸Ńà¸ģ
à¸Ļà¸ªà¸¡ à¸²à¸Ħà¸¡
Ġà¹Ģà¸ŀà¸£à¸²à¸° à¸Ĺ
à¹ĥà¸Ļà¸ŀà¸£à¸° à¸Ńà¸ĩà¸Ħ
200 4
à¸ĩà¸«à¸¡ à¸Ķà¸ª
Ġà¹ĥà¸Ļà¸ŀ à¸£
à¸įà¸Ĭà¸²à¸ģà¸²à¸£à¸Ĺà¸«à¸²à¸£ à¸ļà¸ģ
Ġ à¸Ńà¸ĩ
à¸ģ à¸²à¸Ķ
à¸Ľ à¸ģà¸²à¸£à¸Ľà¸ģà¸Ħà¸£à¸Ńà¸ĩ
à¸ĭ à¹Ħà¸Ķ
à¸¢à¸ĩ à¸Ķà¸Ļà¸ķà¸£
à¸Ĺà¸³ à¸ĩà¸²à¸Ļà¸Ķ
à¸ĩà¸ª à¸²à¸§à¸Ķ
à¸Ĺà¸ĺ à¸ģà¸²à¸¥
à¸Ńà¸ķ à¸Ńà¸Ļ
à¸Ļà¸Ĥà¸Ńà¸ĩ à¸¥
à¸ĩà¸Īà¸²à¸ģ à¸ĸ
à¸Ĺà¸£à¸ĩ à¹ĥà¸Ĭ
à¸²à¹Ĥ à¸Ĭ
à¸¬ à¸²à¸¡à¸«à¸²à¸§
à¹ģà¸Ł à¸Ļà¹Ĩ
à¹Ĥà¸Ħà¸£à¸ĩà¸ģà¸²à¸£ à¸Ĺ
à¸ļà¸ŀà¸£à¸° à¸Ļà¸²à¸ĩ
à¸²à¸¡à¸²à¸ģ à¸Ĥ
à¸Ķà¸Ĭà¸Ńà¸ļ à¸ķ
à¸²à¸ŀà¸£ à¸«à¸¡
à¸§à¸¢à¹Ĥà¸£à¸Ħ à¸¡à¸°à¹Ģà¸£
M M
l a
à¸ĩ à¹Ĥà¸Ī
à¸ģà¸²à¸£ à¹Ģà¸Īà¸£à¸Ī
à¸Ĥà¸Ńà¸ĩ à¸Ľà¸£à¸°à¸Ĭà¸²à¸Ĭ
à¹Ģà¸£ à¸Ĭ
à¸Ńà¸Ļ à¹ģà¸£à¸ĩ
à¸Ħà¸§à¸²à¸¡ à¹Ģà¸Ħà¸£
à¸Ļà¸³ à¹ģà¸ªà¸Ķà¸ĩà¹Ĥà¸Ķà¸¢
à¸Ļà¹ģ à¸Ńà¸£
à¸ģà¸©à¸² à¹ĥà¸Ļ
ĠM iss
à¹Ģà¸§à¸ĵ à¸ķ
à¸Ļà¸Ńà¸Ńà¸ģ à¸¡à¸²
à¸ĩà¸¢ à¸Ńà¸£
tt p
à¸ĩà¹Ģà¸Ĥà¸ķà¸ģà¸²à¸£à¸Ľà¸ģà¸Ħà¸£à¸Ńà¸ĩ à¸¢
A A
Ġ Ø
à¸ĩ à¸Ĺà¸³à¸ģà¸²à¸£
à¸¡ à¸¡à¸²à¸Īà¸²à¸ģ
à¸Ľ à¸¨
à¸£à¸° à¸Ī
à¸į à¸Ĭà¸Ļ
à¸²à¸§ à¸ŀ
à¸§à¸¢ à¸Ĥà¸Ńà¸ĩ
à¸ļà¸£ à¸Ńà¸Ķ
à¸¥à¸ĩ à¸Īà¸²à¸ģ
à¹Ģà¸Ń à¸§
à¹Ģà¸Ń à¸²à¹ĥà¸Ī
Ġà¹Ĥà¸Ķà¸¢ à¹Ģà¸Ĥà¸²à¹Ħà¸Ķ
à¸Ĺà¸³ à¹Ħà¸¡
à¹Ħà¸Ĺà¸¢ à¸ŀ
à¸ŀà¸¥ à¸¨à¸²à¸ªà¸ķà¸£
à¹Ģà¸¢ à¸Ńà¸°
à¸Ļà¸Ĥà¸Ńà¸ĩ à¸¢
ar g
ar th
à¸ļà¸Ħ à¸²à¸£
à¹Ģà¸ĺà¸Ń à¸ĸ
ĠM et
ĠR eg
ĠH all
Ġs e
à¸²à¸ĩà¸Īà¸²à¸ģ à¸ģà¸£
ĠY ork
à¸°à¸ķ à¸²à¸ģà¸£à¸£à¸¡
à¹ĥà¸Ļà¸ľ à¸¥à¸ĩ
[...]
