#version: 0.2 - Trained by `huggingface/tokenizers`
à ¸
à ¹
à¸ ²
à¸² à¸
à¸ Ļ
à¸ £
à¸ Ń
à¹ Ģ
à¹ Ī
à¸ ģ
à¸ ±
à¸ ĩ
à¹Ģ à¸
à¹ ī
à¸ µ
à¸ ¡
à¸ ¥
à¸ ´
à¸ §
à¸ ¢
à¸ Ķ
à¸ Ĺ
à¸ °
à¸ ķ
à¸ ª
à¸ ļ
à¹ ģ
à¸ «
à¸ Ħ
à¸ Ľ
à¸ Ī
à¹ Į
à¹ ĥ
à¸²à¸ £
à¸ ŀ
à¸Ń à¸ĩ
à¸ ·
à¹ Ħ
à¸ ¸
à¸µ à¹Ī
à¹ ĩ
à¸ ¹
à¸ Ĥ
à¸ Ĭ
à¹ Ĥ
à¸£ à¸°
à¸ ³
à¸ģ à¸²à¸£
à¹ĥ à¸Ļ
à¹Ģà¸ Ľ
à¸²à¸ ¢
à¸ ¨
à¸²à¸ ĩ
à¹ģ à¸¥
à¸ ¶
à¸²à¸ ģ
à¸²à¸ Ļ
à¸²à¸ ¡
à¹ģà¸¥ à¸°
à¸· à¹Ī
à¸± à¹ī
à¸ ĸ
à¸Ĥ à¸Ńà¸ĩ
à¹Ħ à¸Ķ
à¸ ĭ
: :
à¸Ľ à¸£à¸°
à¸ ľ
Ġ à¹Ģà¸
à¸Ń à¸Ļ
à¸ ł
à¸ ĺ
à¸ ©
à¸Ń à¸¢
à¹Ģ à¸£
à¸Ļ à¸Ĺ
à¸ ĵ
à¹ĥ à¸«
à¸ į
Ġ 2
Ġ à¹ģà¸¥à¸°
à¸Ń à¸ģ
à¸²à¸ §
à¸Ħ à¸£
à¸ģ à¸£
à¸ŀ à¸£à¸°
à¸ķ à¸£
à¹Ģ à¸ģ
à¹Ĥ à¸Ķ
à¸« à¸Ļ
à¹Ģà¸ ¡
à¸²à¸ Ĭ
à¸Ń à¸£
à¸Ħ à¸§
à¸Ī à¸²à¸ģ
Ġ (
à¹Ģà¸ Ķ
à¹Ģà¸ ¥
à¹Ģà¸ Ĥ
à¸¶ à¹Ī
Ġ 1
à¸« à¸¥
à¹Ģà¸ Ĺ
à¸¹ à¹ī
à¸ Ł
à¹Ĥà¸Ķ à¸¢
à¸ģ à¸¥
à¸Ħà¸§ à¸²à¸¡
à¸¹ à¹Ī
à¹Ģà¸ ŀ
à¸ł à¸²à¸
Ġ à¸ŀ
à¹Ħ à¸Ľ
à¸§ à¸¢
à¸²à¸ ª
à¸Ī à¸°
à¸µ à¹ī
Ġ à¸Ħ
à¸¢ à¸Ļ
à¹ģ à¸ķ
o n
à¸Ń à¸¡
Ġ à¸¡
à¹Ħ à¸¡
Ġ à¸Ĺ
à¸ļ à¸£
Ġ à¸ª
à¸§ à¸Ļ
à¹Ģà¸ «
à¸§ à¸ĩ
t i
à¸²à¸ ¥
à¸ Ĳ
à¸²à¸ Ī
à¸« à¸£
à¹Ģà¸ ª
à¸²à¸ Ĺ
à¸ª à¸¡
à¹Ģà¸ Ī
à¸²à¸ Ħ
à¸ģ à¸©
à¸Ĺ à¸¢
à¸£ à¸£
ti on
à¸²à¸ ķ
e c
Ġ à¹Ģà¸Ľ
à¸Ń à¸ļ
à¹Ģ à¸Ļ
Ġ à¹ĥà¸Ļ
à¹Ģà¸ §
à¸£ à¸ĩ
ec tion
à¸¥ à¸ĩ
:: ::
S ection
Ġ "
Ġ à¸ĭ
à¸´ à¹Ī
Ġ à¸Ń
à¸« à¸¡
à¹ĥ à¸Ĭ
à¸Ľ à¸£
Ġ à¸ģ
Ġ2 5
à¸± à¹Ī
à¸Ļ à¸ª
à¸Ļ à¸ķ
à¸£ à¸²à¸Ĭ
à¹Ģ à¸Ń
à¸¢ à¸ĩ
à¸§ à¸¡
à¹Ģà¸ Ĭ
à¸Ĺ à¸³
Ġ à¸Ī
à¹Ģà¸ Ħ
Ġ à¹Ĥà¸Ķà¸¢
à¸ļ à¸ļ
Ġ à¸ķ
à¸ĩ à¸ª
à¸¸ à¹Ī
à¸²à¸ Ķ
à¸¶ à¹ī
Ġ à¸Ļ
à¸Ń à¸Ķ
à¸¢ à¸§
à¹ Ĩ
à¹Ģà¸Ĺ à¸¨
à¸Ĺ à¸²à¸ĩ
à¸Ļ à¸Ļ
à¸ģ à¸§
à¸ĩ à¸²à¸Ļ
à¸« à¸§
à¸²à¸ «
Ġ à¹ģ
à¸Ļ à¸Ķ
à¸łà¸²à¸ ŀ
à¸· à¹ī
à¹Ģà¸ ķ
à¸Ń à¸Ńà¸ģ
à¸ ®
à¸ ¤
à¸²à¸ ¨
à¸ĩ à¸ģ
à¸³ à¸Ļ
Ġ à¸£
à¸Ľà¸£à¸° à¹Ģà¸Ĺà¸¨
à¹Ģà¸ ĭ
à¸ĵ à¸°
à¸Ļ à¸¡
à¸£ à¸ģ
à¸£ à¸¡
0 0
à¹Ĥ à¸¥
à¸²à¸ °
à¸Ń à¸ª
à¸Ń à¸¥
à¸ĩ à¸Ħ
à¹ģ à¸«
à¸²à¸ Ń
à¸ Ŀ
à¸Ńà¸ĩ à¸Ħ
à¸²à¸ ļ
à¸Ĭ à¸Ļ
à¸Ļ à¸§
à¸Ń à¸§
Ġ à¹ģà¸ķ
à¸Ļ à¸ĺ
à¸¡ à¸Ļ
Ġ à¹Ħà¸Ķ
à¸ĩ à¸Ĺ
à¸Ĺ à¸ĺ
à¸²à¸ ĵ
à¹Ģà¸ ļ
à¸Ľ à¸¥
à¸ģ à¸£à¸°
à¸¢ à¸¡
Ġà¹Ģà¸ ¡
à¸²à¸Ħ à¸¡
à¸¡ à¸²à¸ģ
à¹ģ à¸ģ
à¸ľ à¸¥
à¸Ĺ à¸£
à¸²à¸ Ĥ
à¹ģ à¸ļà¸ļ
â Ģ
à¹ģ à¸ª
Ġ à¸Ľ
à¹Ħ à¸Ĺà¸¢
à¸Ħ à¸¥
à¸Ħ à¸Ļ
à¸ª à¸³
Ġ 3
à¸ĩ à¹Ģà¸Ľ
à¸²à¸¡ à¸²à¸£
Ġ à¸Ķ
Ġ à¹Ĥ
à¸ª à¸£
à¸ĩ à¸Ĥ
à¸ĩ à¸¡
à¸Ļ à¸Ń
à¸²à¸¡à¸²à¸£ à¸ĸ
à¸¥ à¸°
à¸¨ à¸²à¸ª
à¸Ļ à¸ģ
à¸« à¸²à¸£
à¸¢ à¸ģ
Ġ à¹Ĩ
à¸ĩ à¸Ļ
à¸ļ à¸Ĺ
à¸ ı
à¹ģ à¸£à¸ģ
à¹ĥà¸Ļ à¸Ľ
à¸ļ à¸ģà¸²à¸£
e r
à¸ķ à¸²à¸¡
Ġ à¸§
à¹ĥà¸Ļ à¸ģà¸²à¸£
à¸Ķ à¸ĩ
Ġ à¸«à¸£
à¸ģà¸£ à¸£à¸¡
à¸Ī à¸³
à¸ŀ à¸¥
à¹ĥà¸« à¸į
Ġà¹Ģà¸ ŀ
à¹ĥ à¸Ī
à¸¡ à¸²
à¸ ī
à¹Ĥ à¸£
Ġ1 9
Ġ à¸Ĭ
à¹ģ à¸¡
à¹ģ à¸Ĥ
à¸²à¸¢ à¸Ļ
à¸²à¸ Ľ
à¸¡ à¸«
à¸Ń à¸ķ
à¸ģ à¸ª
à¸Ľà¸£à¸° à¸ģ
à¸ İ
à¸ļ à¸ª
à¹Ģà¸« à¸¥
Ġ à¸ŀà¸£à¸°
a n
à¸²à¸ģ à¸²à¸£
à¸Ļ à¸£
à¸ĩ à¸ķ
Ġ à¸ģà¸²à¸£
à¸ģ à¸ķ
à¸²à¸ ŀ
à¹Ģà¸Ħ à¸£
à¸Ķ à¸Ĺ
à¸²à¸ ĺ
à¸Ļ à¸¢
Ġ à¸ļ
à¸ŀ à¸£
i n
à¸Ĭ à¸²à¸ķ
à¸´ à¹ī
à¹Ģà¸ ¢
à¹Ģà¸ŀ à¸¥à¸ĩ
à¸ģ à¸³
à¸Ķ à¸Ļ
à¸łà¸²à¸ Ħ
à¸£à¸£ à¸¡
à¸Ļ à¸ģà¸²à¸£
à¸Ĳ à¸²à¸Ļ
à¸ Ĵ
à¸łà¸²à¸ ©
Ġ à¸¥
à¸Ļ à¹ĥà¸Ļ
à¹ģ à¸Ĺ
à¸Ļ à¸³
à¸ª à¸ķ
à¸ª à¸ĸ
à¸² à¹Ģà¸Ľ
à¹Ģà¸§ à¸¥
à¸¡ à¸ŀ
à¸Ī à¸Ī
à¸ģ à¸Ħà¸£
à¸Ńà¸ĩ à¸Ĺ
Ġ2 0
Ġ 4
à¸¤ à¸©
à¸Ĭ à¸²à¸§
à¹Ģà¸ ¨
à¸ª à¸²à¸¡à¸²à¸£à¸ĸ
à¸«à¸¥ à¸²à¸¢
à¸¢à¸§ à¸ģ
à¹Ģà¸ ł
à¹Ģà¸ ĺ
à¸¨à¸²à¸ª à¸ķà¸£
à¸ķ à¸³
à¸«à¸¡ à¸²à¸¢
à¸ŀà¸£à¸° à¸£à¸²à¸Ĭ
à¸Ķ à¸ª
à¹ĥà¸« à¸¡
à¸Ļ à¸Ħ
à¹Ħ à¸§
à¸Ļ à¹ģ
à¹Ĥ à¸£à¸ĩ
à¹Ĥ à¸¡
à¸Ļ à¸ľ
à¸§ à¸ģ
à¸į à¸į
à¹ģà¸ª à¸Ķà¸ĩ
à¸ĩ à¸«à¸§
à¸Īà¸²à¸ģ à¸Ļ
à¸Ľà¸£à¸° à¸Ĭ
Ġà¹Ģà¸ Ĥ
à¸Ļ à¸Ī
à¸£à¸° à¸«à¸§
Ġ25 5
à¹Ģà¸ ī
à¸ģ à¸Ķ
à¹ĥ à¸ķ
à¸Ļ à¹Ģà¸Ľ
o r
à¹Ĥà¸¥ à¸ģ
à¸Ĺà¸¢ à¸²à¸¥
à¸ĩ à¹ĥà¸Ļ
à¸ļ à¸Ļ
à¸§ à¸£à¸£
Ġ 5
Ġ à¸ľ
a r
Ġà¹Ģà¸ Ĭ
à¹Ĥ à¸ķ
e n
Ġ2 4
Ġ à¸ĸ
Ġ à¸Ĥ
à¸Ķ à¸ķ
à¸ŀ à¸ļ
Ġ à¸Ĥà¸Ńà¸ĩ
à¸Ļà¸Ĺ à¸²à¸ĩ
à¸ª à¸Ļ
a l
à¸ł à¸²à¸¢
à¸Ľà¸£à¸° à¸ª
à¸° à¸§
à¸ŀ à¸¢
à¸²à¸Ĥ à¸Ńà¸ĩ
à¸¢ à¸£
à¸Ļ à¸²
à¸´ à¹Į
à¸ĩ à¹Ħà¸Ķ
à¸§à¸ĩ à¸¨
à¸£ à¸²à¸¢
à¸¥ à¸¥
à¹Ģà¸Ĥ à¸²
à¸Ń à¸Ĺ
Ġ à¸¢
à¸ļ à¸¥
à¸³à¸Ļ à¸§à¸Ļ
à¹Ģà¸ķ à¸Ńà¸£
à¸ŀ à¸£à¸£
à¸ĩ à¹ģà¸ķ
Ġ S
à¸²à¸Ī à¸²à¸ģ
à¸ĩ à¸Ń
à¸Ħ à¸³
à¸Ĺà¸³ à¹ĥà¸«
à¸Ļ à¹Ħà¸Ķ
à¸ģà¸¥ à¸²à¸ĩ
à¹Ħ à¸Ł
à¸ĺ à¸£à¸£à¸¡
à¸ĩ à¸ģà¸²à¸£
à¸Ĺ à¸£à¸ĩ
à¸£à¸° à¸Ķ
à¹Ģà¸Ľ à¸¥
à¸Ń à¹Ģà¸¡
à¸Ļ à¸Ħà¸£
à¸Ļ à¸Ĭ
à¸Ķ à¸³
à¸ģ à¸²
à¹Ģ à¸Ńà¸ĩ
à¸ĩ à¸Īà¸²à¸ģ
à¸Ľà¸£à¸°à¸ģ à¸Ńà¸ļ
à¸ģ à¸Ĺ
à¸ķ à¸Ļ
à¸Ĥ à¸Ļ
à¸ģà¸© à¸²
à¹ Ĭ
à¸¡ à¸²à¸ĵ
Ġ20 1
à¸ĩ à¸Ħà¸£
à¹Ĥ à¸Ń
à¸Ľà¸£à¸° à¸§
à¸Ī à¸Ļ
Ġ à¸«à¸¥
à¸Ī à¸£
à¸ĩ à¸Ĥà¸Ńà¸ĩ
à¸Ļ à¸Ĥà¸Ńà¸ĩ
à¸¢à¸Ļ à¸ķà¸£
à¸²à¸ģ à¸²à¸¨
à¹Ģà¸« à¸Ļ
à¸²à¸ĩ à¸§
à¸Ľ à¸ı
Ġ C
à¹ģ à¸«à¸Ļ
à¸¡ à¸ķ
à¹Ģà¸« à¸ķ
à¸ļ à¸²à¸¥
Ġà¸Ĺ à¸³
à¸Ķ à¸Ĥ
Ġ à¹Ģà¸£
à¸Ļà¸Ĺ à¸£
à¹Ģà¸Ĥ à¸ķ
à¸¢ à¸ļ
à¸Ĭ à¸²à¸¢
à¸Ļ à¹Ģà¸Ķ
à¸łà¸²à¸ŀ à¸¢à¸Ļà¸ķà¸£
e s
à¹ģ à¸ŀ
à¸¡ à¸Ĺ
à¸ ĳ
à¸²à¸ ĭ
à¸ļ à¸²à¸ĩ
à¸ĩ à¸£
Ġ 6
à¹Ĥ à¸Ļ
à¹Ĥà¸£à¸ĩ à¹Ģà¸£
à¹ģ à¸ľ
à¹Ģ à¸Ńà¸ģ
à¸¢ à¸°
à¸¥ à¸ļ
à¸³ à¹Ģà¸ł
à¸Ń à¸Ľ
à¹Ģ à¸ĩ
à¸ļ à¸Ħ
à¸Ńà¸ĩ à¸ģ
à¸Ī à¸ŀà¸£à¸°
à¸Ļ à¸ŀ
à¸ªà¸¡ à¹Ģà¸Ķ
à¸Ńà¸¡ à¸²
à¸ªà¸ĸ à¸²à¸Ļ
à¸§ à¸£
à¸¡ à¸Ľ
Ġ âĢ
à¸Ń à¸Ń
à¸ª à¸²à¸£
à¸¨ à¸£
à¸£à¸° à¸ļà¸ļ
à¸«à¸¡ à¸Ķ
à¸ģ à¸ģ
à¸ķ à¸¢
à¸Īà¸° à¸¡
à¹Ģà¸ĺ à¸Ń
à¸ĵ à¸ĳ
à¸ģ à¸²à¸¥
à¸§ à¸Ķ
à¸£ à¸²à¸°
h e
à¸² à¹Ĥ
à¸ķ à¸§
Ġ25 4
à¸ĩ à¸Ńà¸¢
à¸Ķ à¸ģà¸²à¸£
à¸ĩ à¹ģ
à¸¥ à¸²à¸¢
Ġ 7
à¸Ļ à¸ļ
Ġ M
Ġ à¹Ģà¸ģ
Ġ A
à¸Ńà¸ĩ à¸Īà¸²à¸ģ
Ġà¸Ħ à¸Ļ
à¸ļà¸£ à¸£
à¹ĥà¸Ļ à¸Ĭ
Ġ à¸«
Ġ à¸ģà¸£
à¸ŀà¸£à¸° à¸Ńà¸ĩà¸Ħ
à¸¡ à¸²à¸£
à¸Ļ à¸Ńà¸¢
Ġà¹Ģà¸ Ī
à¸ Ĩ
à¸ĩà¸ģ à¸¤à¸©
à¸²à¸ĩ à¸ģ
à¸Ļ à¸²à¸¡
à¸ļ à¸Ńà¸¥
à¹Ħ à¸£
à¸ģà¸© à¸ĵà¸°
à¸ĩ à¸ģà¸¥
à¸ķà¸³ à¹ģà¸«à¸Ļ
à¸£ à¸§à¸¡
à¸¥à¸° à¸Ħà¸£
à¸ķ à¸°à¸§
à¸²à¸ ĸ
à¸²à¸Ī à¸°
à¸²à¸ģ à¸£
à¸ĩà¸Ħà¸£ à¸²à¸¡
Ġ2 00
à¸Ľà¸£à¸° à¸¡à¸²à¸ĵ
à¸Ĭà¸Ļ à¸°
à¸¥ à¸Ľ
à¸¥ à¸³
Ġ à¸Īà¸²à¸ģ
à¹ĥà¸Ļ à¸ª
à¸§ à¸Ī
à¸ĩ à¹Ģà¸ģ
à¸Ļ à¹Ħà¸Ľ
à¸ģ à¸ĭ
à¹Ģà¸« à¸¡
à¸Ĥà¸Ļ à¸²à¸Ķ
à¸Ńà¹Ģà¸¡ à¸£
à¸Ń à¸°
à¸ļ à¸²à¸Ĺ
à¸ļ à¸Ķ
Ġà¹Ģà¸ Ķ
Ġ T
à¸Ń à¸²à¸ģà¸²à¸¨
à¸ģà¸²à¸£ à¸ª
Ġà¸Ĺà¸³ à¹ĥà¸«
à¸ªà¸³ à¸Ħ
à¸ĩ à¸«
à¸¡ à¸ª
à¹Ĥ à¸ĭ
Ġà¹ĥà¸Ļ à¸Ľ
à¹Ĥ à¸ģ
à¸ļ à¸Ħà¸§à¸²à¸¡
à¹ģ à¸Ľ
à¸«à¸¥ à¸§à¸ĩ
à¹Ĥ à¸Ħà¸£
à¸Ĵ à¸Ļ
à¸²à¸£ à¸ĵ
à¸Ľ à¸ģà¸Ħà¸£
i c
à¸Ļ à¹ģà¸¥à¸°
à¸Ńà¸Ļ à¸Ĺ
à¸ªà¸³ à¸«à¸£
i s
Ġ à¸Ńà¸¢
à¸Ńà¸ĩ à¸ª
Â ł
à¸ ¬
Ġ 8
à¸Ļ à¹Ģà¸¡
à¸ģ à¸İ
Ġ à¸Ħà¸£
a t
à¸Ń à¹Ģà¸Ľ
Ġ à¹Ħà¸¡
à¹ģ à¸ļ
à¸ĩ à¸«à¸¡à¸Ķ
à¹ĥà¸Ļ à¸§
à¸ĩ à¹ģà¸£à¸ģ
à¹Ĥ à¸Ľà¸£
à¸Ħ à¸ĵà¸°
à¸¨ à¸Ļ
à¸Ī à¸³à¸Ļà¸§à¸Ļ
à¸ģà¸²à¸£ à¸Ĺ
à¸ĺ à¸²à¸Ļ
à¸Ń à¸²à¸Ī
à¸²à¸ ł
à¸ĩ à¸§
à¸Ń à¸«
à¸ªà¸¡ à¸²à¸Ĭ
à¹Ģà¸§ à¸ĵ
Ġà¸£ à¸§à¸¡
à¸²à¸Ń à¸¢
à¸ŀà¸£à¸° à¹Ģà¸Ī
à¸Ļ à¸Ńà¸Ńà¸ģ
à¸¸ à¹ī
à¸ģà¸²à¸£ à¸ĵ
Ġ à¹Ģà¸Ń
à¹Ģà¸Ĺ à¸ŀ
à¸ŀ à¸²à¸°
à¸ª à¸Ńà¸ĩ
à¸ĩ à¸Ľ
à¸Ļ à¸²à¸¢
à¹Ĥ à¸Ħ
à¸Ļ à¸«à¸Ļ
à¸¤ à¸Ķ
à¸Ń à¸ģà¸²à¸£
à¸¥ à¸Ķ
Ġ1 8
à¸Ľà¸£à¸° à¸Īà¸³
Ġ B
à¸Ľà¸£à¸°à¹Ģà¸Ĺà¸¨ à¹Ħà¸Ĺà¸¢
Ġ à¹Ģà¸Ļ
à¹Ģà¸ī à¸ŀà¸²à¸°
à¸Ń à¹Ģà¸£
à¹Ģà¸ Ł
à¸Ń à¸²à¸ĵ
à¸Ļ à¸ĸ
à¸²à¸« à¸²à¸£
à¸Ķ à¸ģ
Ġà¸ª à¸¡
Ġ -
à¸ģà¸£ à¸ĵ
à¸ģà¸³ à¸¥
à¸ª à¸ģ
à¸¢ à¸²
Ġ1 0
à¸¡ à¸²à¸Īà¸²à¸ģ
à¸Ļ à¸ĭ
à¹Ĥ à¸Ĺà¸£
Ġ à¸Īà¸°
à¸¡à¸« à¸²à¸§
à¹Ģà¸ª à¸£
Ġ P
à¸ļ à¸Ń
à¸¡à¸Ļ à¸ķà¸£
à¸¢ à¸²à¸¢
à¹Ĥ à¸Ĺ
Ġ 9
à¸§ à¹Ħà¸Ľ
à¸¥à¸ĩ à¸²à¸Ļ
à¹Ģà¸ ľ
âĢ Ŀ
à¸ĩ à¸Ĭ
à¹ģ à¸Ļà¸§
à¸Ħà¸§à¸²à¸¡ à¸£
à¸Ļ à¸ŀà¸£à¸°
à¸« à¸į
à¸ļ à¸ģ
à¹Ħ à¸Ĥ
Ġ t
à¸Ĥ à¸ĵà¸°
l e
à¹Ģà¸ģ à¸¥
à¸ķ à¸ļà¸Ńà¸¥
à¸§à¸¡ à¸ģ
Ġà¹Ĥà¸Ķà¸¢ à¸¡
à¸Ķ à¸£
à¸Ľà¸£à¸°à¸ģ à¸²à¸¨
à¸Ļ à¸Ľ
à¸²à¸¢ à¸Ĺ
à¸© à¸Ĳ
à¸Ķ à¸Ń
r o
ĠâĢ ľ
à¸© à¸¢
i t
à¹Ĥ à¸¢
à¸²à¸ģ à¸ı
à¸Ĳ à¸ļà¸²à¸¥
à¸Ĥà¸Ńà¸ĩ à¸ª
à¸¡ à¸Ń
à¸ļ à¸¡
à¸£ à¸ĸ
à¸²à¸« à¸¥
à¸² à¹Ħà¸Ķ
à¸Ńà¸ģ à¸Īà¸²à¸ģà¸Ļ
à¸ļ à¸ķ
à¸Ĺ à¸²à¸Ļ
a s
à¸ģà¸²à¸£ à¸ķ
à¸Ľà¸ģà¸Ħà¸£ à¸Ńà¸ĩ
à¸¢ à¸ģà¸§
à¸ŀ à¸§à¸ģ
à¸Ļ à¸Ĥ
à¹ģà¸¥ à¸Ļà¸Ķ
Ġà¹ģà¸¥à¸° à¸¡
à¸Ļ à¸¥
à¸£ à¸ĵ
à¸Ľà¸£ à¸²à¸ģà¸ı
à¸²à¸Ħ à¸²à¸£
à¸§ à¸²à¸ĩ
00 0
r e
à¸¡ à¸¡
à¸Ńà¸ĩ à¸£
Ġ à¹Ħ
à¸ĩ à¸ĸ
Ġ à¸ģà¸¥
à¹ ĭ
à¸ķ à¸ª
à¸ĩ à¸ļ
à¸Ķ à¸²
à¸ĩ à¸Ī
à¸²à¸ĩ à¸ª
à¸Ļ à¸°
à¸Ķ à¸¡
Ġ25 3
à¸Ń à¸Ĥà¸Ńà¸ĩ
Ġà¹ģ à¸¡
à¸Ķ à¹ĥà¸Ļ
Ġà¹Ģà¸ Ħ
à¸Ļ à¸«
Ġ à¸Ł
à¸ģ à¸Ĥà¸Ńà¸ĩ
à¸ĩ à¸¢
à¸ªà¸³ à¹Ģà¸£
à¸¸ à¹Į
à¸ģà¸²à¸£ à¸¨
à¸ ¯
à¹Ģà¸Ħ à¸¥
u s
à¸° à¹Ģà¸¥
à¸Ķ à¸Ĥà¸Ńà¸ĩ
à¸ķ à¸¥
à¸´ .
à¸ĩ à¹Ħà¸¡
à¸ĩ à¸Ķ
à¹Ĥ à¸Ī
à¸Ńà¸ģ à¸ķ
Ġ à¸ĵ
à¸Ĺà¸³ à¸ĩà¸²à¸Ļ
Ġ à¸ĺ
à¸Ń à¹ĥà¸«
à¸Ļ à¹Ģà¸ŀ
à¸² à¹Ģà¸£
a m
à¸²à¸ķ à¸£
à¸Ļ à¹Ģà¸£
a c
à¸ĩ à¹Ģà¸¨
à¸« à¸²à¸§
o l
à¸²à¸¢ à¹Ģà¸Ľ
à¸£ à¸Ńà¸ļ
à¸ģà¸£à¸° à¸Ĺ
à¸Ń à¸³à¸Ļ
Ġ D
à¸² à¹ģ
à¸²à¸ŀ à¸£à¸°
à¸Īà¸²à¸ģ à¸ģà¸²à¸£
à¹Ģà¸Ħ à¸¢
à¸²à¸ Ł
à¸ª à¸²à¸¡
à¸Ńà¸ĩ à¸ģà¸²à¸£
à¹Ģà¸§à¸¥ à¸²
Ġà¹ģà¸¥à¸° à¹Ħà¸Ķ
à¸£à¸° à¸ļ
à¸Ĭ à¸¡à¸Ľ
Ġ R
à¸²à¸Ľ à¸£à¸°
à¸²à¸Ļ à¸Ĺ
à¸Ľ à¹ģà¸ļà¸ļ
à¸Ŀ à¸£
à¸£à¸° à¸¢à¸°
à¸Ĳ à¸¡à¸Ļà¸ķà¸£
à¸ķ à¸ķ
à¸Ń à¸Ħ
à¹Ģà¸ ®
à¸¢ à¸²à¸§
e l
à¸ķ à¸Ńà¸Ļ
à¹Ģà¸¨ à¸©
à¸Ħà¸§à¸²à¸¡ à¸ª
Ġ1 5
à¸ļ à¸§
à¹Ĥà¸£ à¸Ħ
à¹ģ à¸Ħ
Ġ à¹ĥà¸«
à¸§à¸£à¸£ à¸©
à¸Ń à¸²à¸£
à¸Ń à¹Ħà¸Ľ
à¸² à¹ģà¸¥à¸°
à¹ĥà¸Ļ à¸Ĺ
à¸ľ à¸¥à¸ĩà¸²à¸Ļ
à¹Ħ à¸ĭ
à¸ģ à¸¡
à¹Ģà¸¡ à¸ķà¸£
à¸²à¸ĩ à¹Ĩ
à¸Ļ à¸²à¸ĩ
Ġ G
Ġ1 2
à¸ŀà¸£à¸£ à¸Ħ
à¹ģà¸Ľ à¸¥à¸ĩ
à¸ĩà¹Ģà¸¨ à¸ª
à¹Ħ à¸¥
à¸Ł à¸£
à¸²à¸ ľ
à¸ª à¸«à¸£
Ġà¹Ģà¸ ª
Ġ L
Ġ à¸Ľà¸£à¸°
Ġ o
à¸Ķà¸³ à¹Ģà¸Ļ
à¸¢ à¸Ĭ
à¸²à¸ģ à¸¥
Ġ à¸®
à¸ĩ à¸Ĭà¸²à¸ķ
à¸Ńà¸ĩ à¸Ļ
à¸ģ à¸Ļ
à¸Īà¸° à¹Ģà¸Ľ
à¸ģ à¸Ĥ
à¸Ļ à¹Ħà¸¡
à¸Ńà¸²à¸ĵ à¸²à¸Ī
Ġ à¸ļà¸£
Ġà¹Ģà¸ Ĺ
à¸§ à¸¥
à¸²à¸¨ à¸²à¸ª
Ġ à¹ģà¸¥
à¸ģ à¸Ħ
à¸²à¸ĩ à¸Ĺ
à¸²à¸ ©
Ġà¹ģà¸¥à¸° à¹Ģà¸Ľ
Ġ à¸Ľà¸£à¸°à¹Ģà¸Ĺà¸¨
Ġ W
à¹Ģà¸ģ à¸¡
à¸ģà¸²à¸£ à¹Ģà¸¡
à¸łà¸²à¸¢ à¹ĥà¸Ļ
à¸ģ à¹Ģà¸£
Ġà¹ģ à¸«
à¸²à¸¨à¸²à¸ª à¸ķà¸£
à¸³ à¸«à¸£
à¸¢ à¸Ńà¸Ķ
à¸¡ à¸²à¸¢
Ġ F
à¹Ĥà¸Ĺà¸£ à¸Ĺ
à¹ĥ à¸ģà¸¥
à¸² à¹Ħà¸Ľ
à¹Ģà¸¥ à¸Ĥ
à¸ģà¸²à¸£ à¸Ī
à¸Ķ à¸²à¸§
à¹Į "
à¸Ľà¸£à¸°à¸Ĭ à¸²à¸Ĭ
Ġ1 6
Ġ à¸Ħà¸§à¸²à¸¡
Ġ H
Ġ à¸¨
o m
à¸Ľà¸¥ à¸²à¸¢
à¸¡ à¸Ĥ
Ġ I
i l
à¸Ń à¸ŀ
à¸¢ à¸ª
à¹Ĥà¸¡ à¸ªà¸£
Ġà¹Ģà¸ŀ à¸£à¸²à¸°
à¸Ļ à¹Ģà¸Ĺ
à¸²à¸£ à¸¢
à¸ģà¸£à¸£à¸¡ à¸ģà¸²à¸£
Ġà¸Ļ à¸Ńà¸ģà¸Īà¸²à¸ģà¸Ļ
à¹ĥà¸Ļ à¸£
à¸Ń à¸Ĥ
à¹Ģà¸ģ à¸²à¸°
à¸ªà¸¡ à¸ļ
à¸Ń à¸³à¹Ģà¸ł
à¸²à¸ į
à¸Ļ à¸²à¸Ļ
à¸Ńà¸Ļ à¸ģ
à¸§à¸Ļ à¹ĥà¸«à¸į
à¹Ģà¸ķ à¸£
à¹Ģà¸¢ à¸Ńà¸£
à¸§ à¸ª
à¸§à¸¢ à¸ģà¸²à¸£
à¸Ļ à¹Ĥ
à¸ĩ à¸«à¸Ļ
âĢ ĵ
à¸ļà¸£ à¸¡
à¸ĩ à¸ŀ
à¸ŀà¸£à¸£ à¸Ķ
à¸ļà¸ª à¸Ļ
Ġo f
à¸ģà¸£ à¸ŀà¸£à¸£à¸Ķ
à¸ķ à¸ĸ
in g
à¸Ń à¹Ģà¸ª
à¹ĥ à¸ļ
Ġà¸ķ à¸²à¸¡
Ġ1 1
à¸¥ à¸²
à¸ĩ à¸ĩà¸²à¸Ļ
u l
à¸Ńà¸Ļ à¸Ķ
à¸ģà¸© à¸ĵ
à¸Ķ à¸¥
à¸Ĳà¸²à¸Ļ à¸°
à¹Į .
à¸¢ à¸²à¸¡
à¸ĩ à¹ģà¸¥à¸°
à¹Ģà¸ł à¸Ĺ
à¸Ń à¸Ĭ
à¸¥ à¸¢
à¸ģà¸²à¸£ à¹ģà¸Ĥ
à¸ĩ à¹ĥà¸«
à¸ģ à¸ļ
Ġà¹Ģà¸ §
à¸ģà¸£ à¸¡
à¸į à¸«
à¸ĩ à¹Ģà¸£
à¸² à¹ĥà¸Ļ
à¸Ķà¸Ļ à¸ķà¸£
Ġ s
Ġà¹Ģà¸ «
à¸²à¸£ à¸°
à¸ģà¸²à¸£ à¸Ħ
à¸ª à¹Ģà¸ĭ
à¸ª à¸ĩà¸Ħà¸£à¸²à¸¡
u r
à¹Ģà¸§ à¸Ńà¸£
à¸Ńà¸ĩ à¸¡
à¹Ģà¸¨ à¸£
Ġà¹Ģà¸ ¥
à¸Ħ à¸Ħà¸¥
e t
Ġà¸Ļ à¸²à¸¢
à¸Ńà¸ĩ à¸ķ
à¹Ħà¸Ł à¸Ł
à¸Ķ à¸§
à¸Ĳ à¸Ńà¹Ģà¸¡à¸£
à¸Ń à¸²à¸¢
à¸ĩ à¹Ģà¸Ķ
Ġ1 7
à¸Ĺ à¸«à¸²à¸£
à¸« à¸¢
à¸Ļ à¸¨
à¹ģ à¸¢à¸ģ
Ġ à¸«à¸Ļ
à¸Ļ à¹Ģà¸Ī
à¸ģ à¸Ńà¸ĩà¸Ĺ
Ġ à¹
à¸Ī à¸²à¸£à¸ĵ
Ġ E
à¸Ķ à¸Ħ
Ġà¸ŀà¸£à¸° à¸Ńà¸ĩà¸Ħ
à¹ģ à¸£à¸ĩ
2 5
à¸¢ à¸²à¸Ļ
Ġ1 4
u n
à¸Ńà¸Ļ à¸ķ
Ġ c
Ġà¸Ń à¸Ńà¸ģ
e d
à¹Ģà¸¥ à¸¢
Ġà¹Ģà¸ ĭ
i d
à¸ª à¸²à¸¢
à¸¨ à¸Ī
à¸ģ à¸ĩà¸²à¸Ļ
Ġ25 6
à¸¥ à¸²à¸Ħà¸¡
à¸Ļà¸ķ à¸ģ
à¸Ļ à¸²à¸Ħà¸¡
à¸Ĭ à¸²
à¸²à¸ĩ à¹Ģà¸Ľ
1 9
à¸Ļ à¹Ĩ
à¸Ľà¸£à¸° à¸ĺà¸²à¸Ļ
à¸Ļ à¸«à¸¥
à¸° à¹ģ
à¸Ľà¸£à¸°à¸ģà¸Ńà¸ļ à¸Ķ
à¸ĩ à¹Ģà¸Ĺà¸ŀ
à¸łà¸²à¸Ħ à¸¡
à¸Ńà¸ª à¸£
à¸ª à¸¥
à¸ª à¸°
an d
à¸§ à¸Ĺ
à¸ģà¸³ à¸«à¸Ļ
à¸§ à¸«à¸Ļ
Ġ1 3
à¸£à¸²à¸¢ à¸ģà¸²à¸£
à¹Į ,
Ġ2 3
à¸Ĺà¸£ à¸§à¸ĩ
à¸²à¸ĩ à¸Ĥ
à¸Ħà¸§ à¸ļà¸Ħ
à¸Ļà¸§ à¸²à¸Ħà¸¡
à¸§ à¸Ńà¸¢
2 0
à¹Į )
à¸²à¸ĩ à¹Ħ
à¸¤à¸© à¸łà¸²à¸Ħà¸¡
à¸Īà¸° à¸ķ
à¸ģà¸£ à¸²à¸Ħà¸¡
à¸ģ à¸Ń
à¸£ à¸§à¸Ī
à¸¡ à¸£
à¹ĥ à¸Ķ
Ġ N
t er
à¸ĩ à¸¥
à¹ģà¸ŀ à¸Ĺà¸¢
à¸Ĭ à¸¡
Ġ ,
à¸§ à¸²à¸¡
à¸Ļ à¸Īà¸²à¸ģ
à¸¡ à¸°
à¸Ļà¸¢ à¸²à¸¢à¸Ļ
à¸© à¸²à¸¢à¸Ļ
à¹Ħà¸Ľ à¸¢
à¹ĥ à¸ª
à¹Ĥà¸£ à¸Ľ
à¸ī à¸ļ
à¸Ķ à¸Ĭ
à¸Ħà¸£ à¸Ńà¸ĩ
à¸¢à¸Ļ à¸ķ
à¸Ļ à¸²à¸¢à¸Ļ
Ġ19 9
à¸Ń à¸²à¸«à¸²à¸£
à¸²à¸¢ à¸ģ
à¸ļ à¸ľ
à¸ļà¸²à¸Ĺ à¸ªà¸¡à¹Ģà¸Ķ
à¸Ńà¸ĩ à¸ĸ
à¸Ĺà¸¢ à¸²à¸¨à¸²à¸ªà¸ķà¸£
Ġà¸Ń à¸³à¹Ģà¸ł
à¸Ńà¸³à¸Ļ à¸²à¸Ī
à¹ģà¸¥à¸° à¸ª
à¸ĩà¸« à¸²à¸Ħà¸¡
Ġà¹Ģà¸ ĺ
à¸£à¸²à¸Ĭ à¸§à¸ĩà¸¨
à¸ĩà¸Ħ à¸¡
à¸ķ à¸²à¸¥
à¸Ķ à¹Ģà¸Ľ
à¸¢ à¸Ĺ
à¸ģ à¸²à¸¢à¸Ļ
à¸³ à¸«à¸Ļ
à¹Ģà¸ŀ à¸£à¸²à¸°
à¹Ģà¸ĭ à¸Ńà¸£
à¸²à¸© à¸İ
à¸ģà¸İ à¸²à¸Ħà¸¡
à¹ģ à¸ŀà¸£
Ġà¸ŀ à¸£
à¸ĩà¸ª à¸Ńà¸ĩ
à¸² à¹Ģà¸¡
à¸³ à¸ģ
à¸ļ à¸Ľà¸£
à¹ģ à¸Ķà¸ĩ
à¸Ńà¸ĩ à¸ļ
à¸ģà¸¥ à¸²à¸¢à¹Ģà¸Ľ
à¸ģà¸²à¸£ à¸£
à¸ģ à¸Ī
à¸¤ à¸¨à¸Ī
à¸²à¸ĺ à¸²à¸£à¸ĵ
à¸² à¹Ģà¸Ī
à¸Ĭ à¸²à¸ģà¸²à¸£
à¸Ļ à¸ķà¸£
à¸£ à¸ª
Ġà¸Ĺ à¸²à¸ĩ
à¸Ħà¸£ à¸Ńà¸ļ
à¹ĥà¸Ļ à¸Ń
à¸Ńà¸¡ à¸ģ
Ġà¸Ĺ à¸£à¸ĩ
Ġ f
à¸²à¸§ à¸°
à¹Ģà¸ģ à¸©
à¸§à¸£à¸£à¸© à¸Ĺ
à¸¥ à¸Ĺ
à¸ª à¸Ķ
à¸²à¸« à¸Ļ
à¸¡à¸²à¸ģ à¸ģà¸§
à¸Ļ à¹Ģà¸ª
à¸¢ à¸Ńà¸¡
à¸ģ à¸ŀ
à¸Ļ à¸Ł
à¸Ļ à¹Ħ
à¸¨à¸²à¸ª à¸Ļ
à¹Ģ à¸ģà¸£
à¸Ĭ à¸£
à¸²à¸©à¸İ à¸£
à¸ª à¸³à¸Ļ
a tion
à¸ģà¸© à¸£
à¸ļ à¸§à¸Ļ
à¸ķà¸³ à¸ļà¸¥
à¸ģà¸²à¸£ à¸ļ
à¸Īà¸³ à¸«à¸Ļ
à¸Ĥà¸Ńà¸ĩ à¸Ń
à¹ģà¸ķ à¸ģà¸ķ
à¸ģ à¸Ĭ
à¹Ģà¸¨à¸£ à¸©à¸Ĳ
c h
à¸Ļà¸¡ à¸²
à¸« à¸²à¸¢
à¸«à¸¡à¸²à¸¢ à¸ĸ
à¸ĩ à¸ľ
à¹Ģà¸Ń à¹Ģà¸Ĭ
à¹Ĥ à¸Ńà¸£
à¸Ļà¸ĺ à¸£à¸£à¸¡
à¸łà¸²à¸¢ à¹ĥà¸ķ
à¸¥ à¸ª
à¸Ń à¸²à¸¨
à¸¥à¸³ à¸Ķ
à¹Ģà¸Ī à¸£
à¸Ļ à¹ĥà¸«
à¸Ļ à¹ĥà¸Ī
à¸ĩ à¹Ģà¸¡
o s
à¸łà¸²à¸¢ à¸«à¸¥
à¸ĸ à¸²à¸Ļ
à¸ļ à¸Ĭ
à¸§à¸¢ à¸ģ
) ,
à¸Ń à¸Ī
a d
à¸Ļ à¹Ĥà¸Ķ
à¸ģà¸£à¸° à¸Ī
à¸²à¸ĩ à¸Ľà¸£à¸°à¹Ģà¸Ĺà¸¨
à¸Ľà¸£à¸° à¹Ģà¸łà¸Ĺ
à¸¡ à¸łà¸²à¸ŀ
à¸Ķ à¸Ķ
à¸Ń à¸Ł
Ġà¸¡ à¸«à¸²à¸§
à¸£à¸£ à¸Ħ
Ġà¸ķ à¸³
à¸¨ à¸ķ
à¸²à¸Ļ à¸Ħà¸£
Ġ25 2
à¹Ĥ à¸Ĭ
à¸²à¸ĩà¹Ħ à¸£à¸ģ
à¸Ńà¸ĩ à¸Ĥà¸Ńà¸ĩ
à¸Ļ à¹Ĥà¸Ķà¸¢
à¸²à¸ĩ à¸Ń
à¸Ļ à¸Īà¸°
Ġ à¸«à¸¡
à¹Ĥ à¸Ńà¸ģ
à¸§ à¸Ļà¸Ĺ
à¸°à¹ģ à¸Ļà¸Ļ
à¸² à¹Ģà¸¥
à¸²à¸° à¸«
à¸¢ à¸ķ
âĢ ĭ
à¸¡ à¸Ĭ
à¸Ń à¸ľ
à¹ģà¸Ĺ à¸Ļ
à¸Ķ à¹Ģà¸¡
en t
. .
à¸ĩ à¸Īà¸°
à¸²à¸ª à¸¡
à¸łà¸²à¸© à¸²
à¸Ħ à¸Ńà¸¡
à¸ĩ à¸Īà¸²à¸ģà¸Ļ
à¸Ķ à¹ĥà¸«
à¸²à¸Ī à¸²à¸£à¸¢
à¸²à¸¢ à¸²à¸¡
à¹ģ à¸Ī
Ġà¸ŀ à¸¤à¸©à¸łà¸²à¸Ħà¸¡
à¸Ńà¸Ńà¸ģ à¸Īà¸²à¸ģ
à¸²à¸ļ à¸²à¸¥
à¸ĩ à¸ĭ
Ġ25 1
à¹Ĥà¸Ħà¸£ à¸ĩà¸ģà¸²à¸£
Ġt he
à¹Ģà¸§ à¸Ĺ
à¹Ģà¸ª à¸Ķ
à¹ģ à¸Ł
à¹Ĥ à¸ļà¸£
Ġà¹ĥà¸Ļ à¸Ĭ
à¸ģ à¹ĥà¸Ļ
à¸£à¸° à¸ģ
à¸Ń à¸Ħà¸§à¸²à¸¡
Ġ p
à¹Ĥ à¸Ľ
à¸¢à¸Ļ à¹ģà¸Ľà¸¥à¸ĩ
à¸²à¸Ĭ à¸²à¸¢
Ġà¸¡ à¸ģà¸£à¸²à¸Ħà¸¡
à¸£à¸° à¹Ģà¸ļ
à¸ªà¸Ļ à¸²à¸¡
à¹Ĥ à¸£à¸¡
à¹Ģà¸Ľ à¸Ńà¸£
à¹Ĥà¸¥ à¹Ģà¸¡à¸ķà¸£
à¸ĺ à¸¢à¸¡
Ġà¹Ģà¸¡ à¸©à¸²à¸¢à¸Ļ
à¸Ń à¸ĸ
à¹Ģà¸Ħà¸£ à¸²à¸°à¸«
à¹ģ à¸ĭ
à¸ģ à¹Ģà¸Ľ
Ġà¹ģà¸¥à¸° à¸¢
à¸Ĥà¸ĵà¸° à¸Ĺ
à¸²à¸¢ à¸Ĥà¸Ńà¸ĩ
à¸²à¸ĩ à¸ķ
à¹ģà¸¥à¸° à¸¡
à¸ŀà¸¢ à¸²à¸¢à¸²à¸¡
à¸ĩ à¸¨
Ġ à¹ĥà¸Ĭ
à¸Ĭ à¸Ļà¸¡
Ġà¸Ī à¸Ļ
à¸Ĵ à¸Ļà¸²
à¸¡ à¸Ĥà¸Ńà¸ĩ
i g
à¹Ħ à¸Ĺ
Ġ à¸Īà¸²à¸ģà¸Ļ
à¸ģà¸£à¸° à¸Ĺà¸£à¸§à¸ĩ
à¸ļ à¸ŀ
Ġà¸ģà¸£ à¸ģà¸İà¸²à¸Ħà¸¡
à¸¢ à¸Ķ
à¸¥ à¸Ńà¸Ķ
à¸ º
à¸Ļ à¸Ńà¸ģ
à¸ģà¸²à¸£ à¹Ģà¸¥
à¸§ à¸ķ
à¸²à¸ĩ à¸£
Ġ K
à¹Ĥà¸Ńà¸£ à¸ª
à¹ģ à¸«à¸¥
à¸²à¸« à¸į
à¸Ķà¸³ à¸£à¸ĩ
à¸ĩà¸ª à¸£
à¸Ńà¸ĩ à¸Ń
à¸Ħ à¹Ĥà¸Ļ
à¸²à¸ĩ à¸¡à¸²à¸ģ
à¸ĩ à¸Ħà¸§à¸²à¸¡
à¸ģ à¸Ľ
à¸Ĺà¸³ à¸ģà¸²à¸£
à¸¤ à¸ķ
à¸³ à¸Ĺ
à¹Ĥà¸¥ à¸¢
Ġ3 0
Ġà¹Ĥ à¸£à¸ĩ
à¸° à¸ģ
à¸łà¸²à¸© à¸²à¸Ń
à¸° à¸Ĺ
à¸²à¸ģ à¸©
à¸Ľà¸£à¸° à¹Ĥà¸¢
à¸ģ à¹ģà¸ªà¸Ķà¸ĩ
à¸Ľà¸£à¸° à¸ķ
à¸Ńà¸Ļ à¸¡
à¹ģà¸ª à¸Ķ
à¸²à¸Ħ à¸§à¸²à¸¡
à¸ģà¸²à¸£ à¸Ľà¸ģà¸Ħà¸£à¸Ńà¸ĩ
Ġ O
à¸ģ à¸²à¸¢
à¸ģà¸£à¸° à¸Ķ
à¸Ļ à¸ģà¸¥
à¸¢à¸£ à¸ķ
à¸¡ à¸ģ
à¸Ħà¹Ĥà¸Ļ à¹Ĥà¸¥à¸¢
à¹Ĥ à¸ŀ
Ġà¸ŀ à¸¤à¸¨à¸Ī
à¸§ à¸Ĥà¸Ńà¸ĩ
à¸§ à¹Ģà¸Ńà¸ĩ
à¸Ļ à¸Ĳà¸²à¸Ļ
à¸Ķ à¸Ľ
à¸³ à¸¡
Ġ2 1
à¸ī à¸²à¸¢
à¸Ļ à¹Ģà¸ģ
à¹ĥà¸Ļ à¹Ģà¸Ķ
à¸Ń à¹Ħà¸Ķ
à¸Ľà¸£à¸°à¸Ĭ à¸²à¸ģà¸£
u m
à¸ģ à¸Ńà¸¢
à¸¡à¸² à¹Ģà¸Ľ
Ġ d
à¸ģà¸²à¸£ à¹ĥà¸Ĭ
i r
Ġà¸ª à¸³à¸«à¸£
à¸Ĵ à¸Ļà¸ĺà¸£à¸£à¸¡
a g
à¸ŀà¸£à¸° à¸ŀ
à¸ķà¸£ à¸§à¸Ī
à¹Ģà¸Ń à¸ª
à¹Ģà¸ī à¸¥
à¸Ķ à¹Ģà¸Ķ
o t
à¸Ĺà¸¢ à¸²
à¸§à¸£à¸£ à¸ĵ
à¸³ à¸¥
Ġ m
à¸¨à¸ķ à¸§à¸£à¸£à¸©à¸Ĺ
à¹ģ à¸¡à¸Ļ
à¸ģà¸İ à¸«à¸¡à¸²à¸¢
à¸Ķ à¹Ģà¸¥
à¸ļ à¸Ľ
à¸Ń à¹Ģà¸¥
Ġà¸Ĥ à¸ĵà¸°
à¸§à¸£à¸£ à¸Ħ
à¸ķ à¸Ĺ
à¸Ļ à¹Ģà¸Ĥ
à¹ģ à¸ĸ
à¸¢ à¸Ļà¸Ĺ
à¸Ĥà¸Ļà¸²à¸Ķ à¹ĥà¸«à¸į
Ġà¹Ģà¸ ļ
à¸§ à¸¥à¸°à¸Ħà¸£
à¸ŀ à¸Ĺ
à¸Ĥ à¸²à¸¢
à¸²à¸ĩ à¸Ļ
à¹Ĥà¸Ńà¸ģ à¸²à¸ª
à¸į à¸²à¸ķ
à¸² à¹Ħà¸¡
Ġà¹Ģà¸¡ à¸ķà¸£
à¹ģ à¸Ń
Ġà¹ģà¸¥à¸° à¸ª
à¸ģà¸²à¸£ à¸ŀ
à¸Ĥà¸Ńà¸ĩ à¸£
à¸ĩ à¸Ńà¸Ńà¸ģ
à¸Ń à¹Ģà¸Ķ
Ġà¸£à¸§à¸¡ à¸Ĺ
à¸ģ à¹ģà¸¥à¸°
à¸Ńà¸ĩ à¸Ķ
à¹ģ à¸¢
à¸Īà¸° à¹Ħà¸Ķ
à¸Ńà¸¥ à¸¥
à¸Ĥ à¸²à¸§
Ġà¹ģà¸¥à¸° à¸ķ
v e
à¹Ģà¸ģ à¸²à¸«à¸¥
Ġà¸Ń à¸Ķ
à¸ŀà¸£à¸°à¸£à¸²à¸Ĭ à¸Ĺà¸²à¸Ļ
à¸¢ à¸Ńà¸¢
à¸Ĥà¸Ńà¸ĩ à¸Ĺ
à¸Ń à¸²à¸Ĭ
à¹Ĥà¸ļà¸£ à¸²à¸ĵ
à¸²à¸¢ à¸ģà¸²à¸£
à¸¢ à¸¨
à¸²à¸ĩ à¸Ħ
à¸²à¸§ à¸§
à¸ª à¸§
à¸Ń à¸ĺ
à¸ļ à¹Ģà¸Ľ
à¹Ģà¸ª à¸Ļà¸Ń
à¸¢à¸Ļ à¸Ĭ
à¸ļ à¹Ģà¸¥
à¹ĥà¸Ļ à¸Ľà¸£à¸°à¹Ģà¸Ĺà¸¨
o d
à¸Ļà¸¡ à¸²à¸ģ
à¸Ħà¸³ à¸§
à¸§à¸Ļ à¸«à¸Ļ
à¸Ńà¸Ńà¸ģ à¹ģà¸ļà¸ļ
à¸ļ à¸Ńà¸ģ
à¸Ħà¸§ à¸£
à¹Ħà¸Ľ à¸Ķ
à¸įà¸į à¸²à¸ĵ
à¸¢à¸§ à¸Ĥ
à¸ļ à¸«à¸Ļ
à¸¡à¸²à¸ģ à¸Ĺ
à¹Ģà¸ĭ à¸¥à¸¥
Ġà¹ĥà¸Ļ à¸§
Ġ19 8
à¸³ à¹Ģà¸Ļ
à¸²à¸ĩ à¸Īà¸²à¸ģ
à¸Īà¸Ļ à¸ĸ
Ġ à¸ľà¸¥
à¸¨ à¸§
à¸Ļ à¸Ħà¸Ļ
à¸Ĥ à¸¢à¸²à¸¢
à¸Ļ à¹ģà¸ļà¸ļ
à¸²à¸Ĺ à¸³
à¸ļ à¸ĸ
à¸ĩà¸Īà¸²à¸ģ à¸Ĺ
à¸ŀà¸£à¸° à¸ļà¸²à¸Ĺà¸ªà¸¡à¹Ģà¸Ķ
à¸Ī à¸Ńà¸¡
à¸Ļ à¹Ģà¸Ļ
Ġ à¸ł
Ġà¸ª à¸²à¸¡à¸²à¸£à¸ĸ
à¸Ł à¸Ńà¸£
à¸ŀà¸¢ à¸²à¸ļà¸²à¸¥
à¸ģ à¸¢
à¸ª à¸ł
e m
à¸ļà¸£ à¸²à¸ĩà¸§
à¹Ģà¸¨à¸£à¸©à¸Ĳ à¸ģ
à¸Ń à¹Ģà¸Ļ
à¸Ľà¸£à¸°à¹Ĥà¸¢ à¸Ĭà¸Ļ
à¸ļ à¸²à¸¢
à¸ªà¸ĸ à¸²à¸Ľ
à¸¤à¸© à¸İ
à¸ĩ à¸²à¸¡
à¹Ģà¸Ń à¸¥
à¹Ģà¸ģà¸© à¸ķà¸£
Ġ à¹Ħà¸Ľ
à¸¢ à¸į
Ġà¸ģ à¸£à¸°
à¸ļ à¸Ĥ
à¹Ģà¸ŀ à¸¥
à¸§ à¹Ĥà¸¥à¸ģ
Ġ25 0
à¸Ļ à¹Ģà¸Ĭ
à¸ĺà¸£à¸£à¸¡ à¸Ĭà¸²à¸ķ
à¸¡ à¸Ĭà¸²à¸ķ
à¸²à¸Ń à¸Ńà¸ģ
à¸Ħà¸§à¸²à¸¡ à¹Ģà¸Ľ
à¹ģà¸¥à¸° à¸ģà¸²à¸£
à¸²à¸£ à¸²à¸Ĭ
à¸ģ à¹Ģà¸ģ
à¸Ľ à¸Ķ
à¹Ģà¸ļ à¸Ńà¸£
à¸Ĺà¸²à¸ĩ à¸Ĺ
Ġà¸ķà¸³ à¸ļà¸¥
à¸²à¸Ħ à¸£
à¸Ń à¹Ħà¸¡
à¹Ģà¸Ĥà¸² à¹Ħà¸Ķ
à¸Ľà¸£à¸°à¸ª à¸²à¸Ĺ
à¸Ľà¸£à¸° à¸Ĺ
o p
à¸ģ à¸Īà¸°
à¸ŀ à¸Ń
à¸Ľ à¸Ľ
Ġà¸Ħ à¸ĵà¸°
à¸²à¸Ļ à¸ķ
à¸Ń à¸ł
Ġà¸£à¸§à¸¡ à¸ĸ
à¸Ńà¸ĩ à¸§
Ġ2 2
Ġ J
à¸ĩ à¹Ģà¸Ĥ
à¸Ļà¹ģ à¸£à¸ĩ
à¸ģ à¸ĸ
à¸§à¸¢ à¹Ģà¸«à¸¥
à¹ģà¸Ĺ à¸Ļà¸£
à¸¡à¸« à¸²à¸Ļà¸Ħà¸£
à¹ĥà¸Ļ à¸¢
i a
à¸ģ à¸¨
à¸Ńà¸Ļ à¸ª
à¸ļ à¸Ī
à¸Ħ à¸Ķ
à¸ļà¸Ĺ à¸ļà¸²à¸Ĺ
à¸¡ à¸§
à¸Ńà¸ª à¹Ģà¸ķà¸£
à¸³ à¸£
à¹ģ à¸Ļ
à¸Ľà¸£à¸° à¸Ķ
à¸ĩ à¹Ħà¸Ľ
à¸ľ à¸ªà¸¡
Ġà¹ģà¸¥à¸° à¸Ń
à¸¥ à¹Ģà¸¥
à¸ª à¸²à¸§
Ġ24 9
à¸²à¸ ®
à¸ķà¸¥ à¸Ńà¸Ķ
à¸Ļ à¹Ģà¸Ńà¸ĩ
à¹Ģà¸ŀ à¸¨
à¸ģ à¸°
a y
à¸§ à¸Ń
à¸§à¸£à¸£ à¸Ķ
à¸ģà¸£ à¸§à¸£à¸£à¸Ķ
à¸²à¸« à¸£
à¸Ń à¸ļà¸£
à¸¥ à¸Ļ
à¸łà¸²à¸ ľ
à¸ĩ à¸ľà¸¥
à¸Ħà¸£à¸Ńà¸ļ à¸Ħà¸£
à¸Ļ à¸Ħà¸§à¸²à¸¡
à¸ŀà¸ļ à¸ģ
à¸¨ à¸²à¸¥
à¸¡ à¹Ģà¸Ľ
à¸Ń à¸Īà¸²à¸ģ
à¸Ńà¸Ńà¸ģ à¸Ńà¸²à¸ģà¸²à¸¨
o c
u t
à¸Ī à¸ŀà¸£à¸°à¸£à¸²à¸Ĭ
à¸¡ à¸ĵ
à¸Ķ à¸Īà¸²à¸ģ
à¸²à¸¢ à¸ª
à¸¥à¸Ľ à¸°
Ġ V
à¸Ĥà¸Ńà¸ĩ à¸Ī
à¸įà¸į à¸²
à¹Ģà¸Ĺ à¸Ħà¹Ĥà¸Ļà¹Ĥà¸¥à¸¢
à¸ļà¸£à¸¡ à¸£à¸²à¸Ĭ
à¸ķà¸Ļ à¹Ģà¸Ńà¸ĩ
Ġ b
à¹Ģà¸« à¸£
à¸§à¸Ļ à¸ķ
r i
à¸į à¸¥
Ġà¹Ģà¸ŀ à¸¥à¸ĩ
à¸²à¸ĩ à¸«à¸Ļ
à¸²à¸ĺà¸²à¸£à¸ĵ à¸£
à¸Ħ à¸²à¸£
à¸Ķ à¸²à¸£
à¸ļ à¸ĭ
à¸¨à¸²à¸ª à¸Ļà¸²
à¸Ĭà¸Ļà¸° à¹Ģà¸¥
à¸ĩ à¸Ĺà¸³à¹ĥà¸«
à¸Ĺ à¸§
à¸ĩ à¸Ĩ
à¹Ģà¸ľ à¸¢
à¸Ķ à¸ŀ
à¹Ħ à¸®
à¸Ļ à¸Ŀ
Ġ à¸£à¸°à¸«à¸§
à¸¡à¸²à¸ģ à¸Ĥ
à¸Ķ à¸«à¸Ļ
à¸ĩà¹Ģà¸Ĺà¸ŀ à¸¡à¸«à¸²à¸Ļà¸Ħà¸£
à¸Ĥà¸Ńà¸ĩ à¸ģà¸²à¸£
a p
à¸Ĥà¸Ńà¸ĩ à¸Ļ
à¸Ľ à¸²à¸ģ
à¹ĥà¸Ļ à¸ªà¸¡
à¸Ķ à¹Ģà¸Ĭ
à¸Ĺà¸³ à¸¥à¸²à¸¢
à¸¥ à¸Ńà¸ĩ
à¸£à¸ĸ à¹Ħà¸Ł
à¸Ķ à¸Ī
à¸²à¸¢ à¹Ħà¸Ľ
à¸Ĥà¸Ńà¸ĩ à¸ķ
Ġà¹Ĥà¸Ķà¸¢ à¸Ĺ
à¸Ĺ à¸Ńà¸ĩ
à¸© à¸ĵ
à¹ģ à¸Ľà¸¥
à¸ģ à¸Ńà¸ĩ
à¸ĸ à¸Ļà¸Ļ
Ġà¸ŀà¸£à¸° à¹Ģà¸Ī
Ġà¸ŀ à¸¥
o w
à¹Ģà¸Ķ à¸Ńà¸£
) .
à¸¢à¸Ļ à¸ª
à¹Ħ à¸Ń
à¸ķà¸ª à¸²à¸«
à¸Ķ à¸Ħà¸§à¸²à¸¡
Ġà¹Ĥà¸Ķà¸¢ à¹Ģà¸īà¸ŀà¸²à¸°
à¸ķ à¸²
à¸¡ à¸ł
à¹ĥ à¸Ħà¸£
à¸Ħ à¸°à¹ģà¸Ļà¸Ļ
à¹ģà¸Ĺà¸Ļà¸£ à¸²à¸©à¸İà¸£
à¹Ģà¸¢à¸Ńà¸£ à¸¡
à¸Ĭ à¸¢
à¹Ĥà¸Ĺ à¸©
à¸Ľ à¸ķ
à¸²à¸ ¯
à¹Ģà¸Ķ à¸Ńà¸°
à¸Ľà¸Ķ à¸²à¸«
à¹ĥà¸Ļ à¸ķ
à¸Ħ à¸Ńà¸Ļ
à¸Ķ à¸§à¸ĩ
à¸§ à¸²à¸¢
à¸²à¸Ĺ à¸²à¸ĩ
Ġà¸ŀà¸£à¸° à¸£à¸²à¸Ĭ
à¸² à¹Ģà¸Ĥ
1 0
à¹Ħ à¸«à¸¥
à¸Ļ à¸²à¸Ķ
à¸ģà¸²à¸¥ à¸Ĺ
à¸Īà¸° à¸ĸ
Ġà¸Ĭ à¸²à¸§
à¸ĩ à¸ģà¸£
Ġ :
à¸§ à¹Ģà¸¡
à¸¥ à¸¡
à¸µ .
à¸¢ à¹ģà¸¥à¸°
à¸³ à¸Ħ
à¸ķ à¸ģ
à¸ªà¸ĸ à¸²à¸ļ
à¸£ à¸²à¸ĩà¸§
à¸Ļà¸Ī à¸³à¸Ļà¸§à¸Ļ
à¸ŀ à¸¡
Ġà¸¡ à¸²à¸£
à¸² à¹Ģà¸ģ
à¸¥ à¸Ń
à¸Ħ à¸Ļà¸Ĺ
à¸ģ à¹Ģà¸Ĥ
à¸Ńà¸ĩ à¹Ģà¸Ĺ
à¸Ļà¸Ĺà¸²à¸ĩ à¸ģà¸²à¸£
s t
à¸Ńà¸ĩ à¸Ī
à¸¢ à¸²à¸ģ
à¸Ľ à¸ģà¸£à¸ĵ
Ġà¸ªà¸¡ à¹Ģà¸Ķ
à¸ļà¸£ à¸²à¸Ĭ
à¸Ńà¸Ńà¸ģ à¹Ħà¸Ľ
3 0
à¸ĭ à¸²
à¹Ĥà¸Ī à¸¡à¸ķ
à¸Ļ à¸ªà¸¡à¸²à¸Ĭ
à¸¡ à¸²à¸ķà¸£
or m
à¸¥ à¸ķ
à¸§à¸¢ à¸Ħà¸§à¸²à¸¡
à¹Ģà¸¢à¸Ńà¸£ à¸¡à¸Ļ
à¸¥ à¸²à¸Ķ
à¸ŀ à¸²à¸Ļ
v er
à¹Ģà¸Ĺà¸¨ à¸ļà¸²à¸¥
à¸ģà¸³ à¸ģ
à¸ļà¸Ħà¸§à¸²à¸¡ à¸ªà¸³à¹Ģà¸£
à¹Ĥ à¸®
à¸² à¹ĥà¸Ī
à¸Ńà¸Ļ à¸«à¸Ļ
à¹Ģà¸ ĸ
à¸£à¸²à¸Ĭ à¸ģà¸²à¸£
à¸Ľà¸£à¸° à¸¡
Ġà¸ª à¸²à¸Ĥ
Ġ 0
ĠâĢ ĵ
à¸Ľà¸£à¸° à¸ŀ
à¹Ģà¸ĺ à¸Ńà¸£
à¸Īà¸ŀà¸£à¸° à¹Ģà¸Ī
à¸Ń à¹Ģà¸Ĥ
Ġà¸Ī à¸³à¸Ļà¸§à¸Ļ
à¸ģ à¸Ĳà¸²à¸Ļ
Ġ19 7
à¸ļ à¹Ħà¸Ľ
à¸ģ à¸Ħà¸Ļ
à¸²à¸ĩ à¸Ĥà¸Ńà¸ĩ
à¸Ń à¸²à¸ģà¸²à¸£
à¸ķà¸ªà¸²à¸« à¸ģà¸£à¸£à¸¡
à¸Ī à¸ģà¸£à¸£à¸¡
à¹ĥà¸Ļ à¸Ľà¸£à¸°à¹Ģà¸Ĺà¸¨à¹Ħà¸Ĺà¸¢
à¹ģ à¸Ńà¸Ļ
à¸ķ à¸Ĥà¸Ńà¸ĩ
à¸Ľà¸£à¸°à¸Ĭ à¸²à¸ĺ
à¸Ķ à¸Ńà¸¢
à¹ģ à¸£
à¸Ķà¸³à¸£à¸ĩ à¸ķà¸³à¹ģà¸«à¸Ļ
à¸Ń à¸«à¸Ļ
Ġà¹Ģà¸Ĥ à¸²à¹Ħà¸Ķ
t h
à¸Ĥà¸ĵà¸° à¸Ļ
i m
à¸ª à¸Ĺ
Ġ U
à¹Ĥà¸Ħà¸£ à¸ĩà¸ªà¸£
à¸Ķ à¹ģà¸¥à¸°
à¸§à¸ĩ à¸Ĺ
à¸Ńà¸ĩà¸£ à¸²à¸§
à¸ģà¸²à¸£ à¸ģ
à¸ª à¹Ģà¸ķà¸Ńà¸£
à¸ª à¸£à¸°
T he
à¸Ĺà¸²à¸ĩ à¸Ķ
à¸¡ à¸²à¸Ļ
à¹Ģà¸ª à¸Ļ
à¸² à¹Ģà¸Ķ
à¸ł à¸²à¸§à¸°
à¸Ĥ à¸§
à¸ļà¸ļ à¸Ĺ
à¸ļ à¸Ĥà¸Ńà¸ĩ
à¸Ķ à¸¢
Ġ à¸Ľà¸£
à¸ĺà¸¢à¸¡ à¸¨
5 0
à¸Ľà¸£à¸°à¸ª à¸ĩà¸Ħ
à¸¢ à¸Ĥà¸Ńà¸ĩ
à¹Į -
à¸Ľ à¹Ħ
Ġ1 00
à¸Ļ à¹Ģà¸¥
à¸ģà¸© à¸²à¸ķ
à¸Ńà¸ģ à¸¥
à¸ª à¸ĭ
Ġ24 8
à¸ Į
à¸¡ à¸ľ
c e
à¹ģ à¸Ķ
à¸²à¸Ĭ à¸Ńà¸²à¸ĵà¸²à¸Ī
Ġà¸ª à¸£
à¸¢à¸Ńà¸¡ à¸£
à¸¢à¸ĩ à¹ĥà¸«à¸¡
à¸¬ à¸²
Ġà¸Ļ à¸³
à¹Ģà¸¢ à¸²à¸§
à¸ķà¸³ à¸£à¸§à¸Ī
à¸Ļ à¹Ģà¸ŀà¸¥à¸ĩ
à¸ĩ à¹Ĥà¸Ķà¸¢
à¸ª à¸ª
à¸ªà¸¡ à¸²à¸Ħà¸¡
à¸¡ à¸ļ
à¸ķ à¸²à¸£
à¸Ĺ à¸°à¹Ģà¸¥
à¹ģà¸£à¸ģ à¸Ĺ
b r
à¹ģà¸£à¸ģ à¸Ĥà¸Ńà¸ĩ
à¸ĩ à¹Ģà¸ŀ
à¸Ńà¸Ļ à¸Ĥ
à¸ª à¸Ńà¸ļ
Ġ19 4
à¸Ļ à¹ĥà¸Ļà¸Ľ
à¹ĥà¸Ļ à¸ŀ
à¹ĥà¸Ļ à¸£à¸°à¸Ķ
à¸£à¸£ à¸¡à¸Ļ
à¸²à¸Ĭ à¸Ļà¸°
Ġà¹ģà¸¥à¸° à¸Ļ
Ġà¹ģà¸¥à¸° à¸ģà¸²à¸£
à¸Īà¸° à¹Ħà¸¡
à¸ĺ à¸²à¸ķ
Ġà¹Ģà¸Ħ à¸£
à¸į à¸Ĭ
à¸Ļ à¸ĩà¸²à¸Ļ
à¸Ľà¸£à¸°à¸ª à¸ļà¸Ħà¸§à¸²à¸¡à¸ªà¸³à¹Ģà¸£
à¹ģ à¸Ĭà¸¡à¸Ľ
à¸²à¸§ à¸Ļ
à¸Ļà¸³ à¹Ħà¸Ľ
à¸ĩà¸ª à¸²à¸¡à¸²à¸£à¸ĸ
Ġà¸ŀ à¸§à¸ģ
à¸Ĭ à¸²à¸£
à¸²à¸Ļ à¸ģà¸²à¸£
à¸²à¸ĩ à¸¢
à¸Ħà¸³ à¸ª
Ġà¸Ī à¸³à¸ģ
à¹Ģà¸«à¸¡ à¸²à¸°
à¸ĩ à¹ĥà¸Ĭ
Ġ2 6
à¸Ļ à¹Ģà¸ķ
à¸ĩà¸Ħ à¸¥
à¸Ļ à¸ľà¸¥
à¸ĩ à¹ģà¸¡
à¸ª à¹Ĥà¸¡à¸ªà¸£
à¸Ļ à¸Ńà¸Ļ
à¸Ħà¸§à¸²à¸¡ à¸ªà¸²à¸¡à¸²à¸£à¸ĸ
à¸ķ à¸°
Ġà¸Īà¸Ļ à¸ģà¸£à¸°à¸Ĺ
à¸¡ à¸²à¸ķ
à¸Ńà¸Ńà¸ģ à¸¡à¸²
à¸¢ à¸Ķà¸Ļ
à¸² à¹ģà¸Ĥ
à¸ģ à¹Ģà¸ª
Ġà¹Ĥà¸£à¸ĩ à¹Ģà¸£
à¸¡ à¸Ĭà¸Ļ
à¸Ľ à¸ģà¸ķ
Ġà¹Ĥ à¸£
à¸Ħà¸ĵà¸° à¸ģà¸£à¸£à¸¡à¸ģà¸²à¸£
à¸²à¸Ļ à¸ª
à¸Ĥà¸Ļà¸²à¸Ķ à¹Ģà¸¥
à¹Ģà¸Ń à¸Ł
à¸ª à¹Ģà¸ķ
à¸ģà¸¡ à¸§à¸¢
à¸Ľà¹Ħ à¸ķà¸¢
à¸Ļà¸Ĺ à¸³
à¸Ķ à¹Ģà¸Ī
à¸Ńà¸ĩ à¸ŀ
à¸²à¸Ĭ à¸²à¸ķ
i on
à¸« à¸²à¸ģ
Ġà¹ĥà¸Ļ à¸Ĥà¸ĵà¸°à¸Ĺ
à¸ĺ à¸£à¸£à¸¡à¸Ļ
à¸Īà¸³ à¹Ģà¸Ľ
à¸ĵà¸ĳ à¸¥
à¸²à¸ª à¸²à¸Ĺ
à¸¡ à¸Ķ
à¸ªà¸ĸà¸²à¸Ļ à¸Ĺ
à¸£ à¸²à¸ļ
à¹Ģà¸Ľ à¸£
à¸ĺ à¸Ļ
à¸µ )
Ġ n
à¸ĵ à¸«
à¸¢à¸Ķà¸Ļ à¸²à¸¡
" ,
à¸Ńà¸Ļ à¸ŀ
à¸Īà¸³ à¸ģ
à¹Ģ à¸Ńà¸Ļ
à¹Ħ à¸ķ
à¸²à¸ĩ à¸Ķ
à¸¡ à¸¢
à¸Ń à¹ģà¸¥à¸°
à¹Ģà¸Ħ à¸¡
à¸ģà¸ª à¸łà¸²à¸ľ
à¸ĩà¹ģ à¸Ĭà¸¡à¸Ľ
à¹Ħ à¸«à¸§
à¸ŀà¸£à¸° à¸ª
à¸²à¸§ à¸ĸ
ĠS t
à¸ļà¸ª à¸ĸ
à¸Ĭ à¸Ńà¸ļ
à¸Ĺà¸£ à¸²à¸ļ
à¹Ĥà¸Ķà¸¢ à¸Ĺ
à¸Ĥà¸Ńà¸ĩ à¸ľ
Ġ19 6
à¸£ à¸²
à¸§ à¹ĥà¸Ī
à¸« à¸łà¸²à¸ŀ
à¸¢à¸Ļ à¸£
à¸²à¸¢ à¸ķ
à¸ªà¸Ļ à¹ĥà¸Ī
à¸ļà¸§à¸Ļ à¸ģà¸²à¸£
à¸Ĺà¸³ à¸«à¸Ļ
à¸ķ à¸Ńà¸ļ
à¹ĥà¸Ļ à¸Ļ
à¸ĩ à¸«à¸¥
à¸¨ à¸ķà¸°à¸§
ar d
à¸Ħà¸§à¸²à¸¡ à¸Ħ
Ġ255 4
Ġà¹ĥà¸Ļ à¸£
à¸ŀà¸ļ à¸§
à¸ª à¸²à¸Ļ
à¸ĩ à¸«à¸²à¸£
ĠC h
à¸Ķ à¹Ħà¸Ķ
à¸²à¸ĩ à¸¡
à¸²à¸ĩ à¹Ģà¸Ĭ
à¹ģ à¸®
ĠT he
à¸Ń à¸ĭ
à¸ģ à¸ªà¸¡
à¸Ī à¸ģà¸²à¸£
à¸Ĥà¸Ńà¸ĩ à¸Ľà¸£à¸°à¹Ģà¸Ĺà¸¨
à¸£ à¸§
à¸² à¹Ģà¸Ļ
à¸Ļ à¹Ģà¸Ħà¸£
Ġà¸Ń à¸²à¸£
à¹Ĥà¸ĭ à¹Ģà¸§
à¸ģ à¹Ģà¸¥
Ġà¸Ī à¸Ļà¸ĸ
à¸¢à¸ĩ à¸ģ
à¸ķà¸¥ à¸²à¸Ķ
à¸Ńà¸¡à¸² à¹Ħà¸Ķ
à¸§ à¹Ģà¸ķà¸Ńà¸£
à¸²à¸¥ à¸ĩ
à¸¡ à¸²à¸ª
à¹Ħà¸Ľ à¸ĸ
Ġ24 7
à¸ķ à¸Ĭ
à¹ģ à¸Ķà¸Ļ
à¸Ļà¸ª à¸ĸ
à¸¢ à¸Ń
à¸ª à¸§à¸£à¸£à¸Ħ
Ġ and
à¸Ļ à¹Ģà¸ķà¸Ńà¸£
à¸§ à¸§
o g
à¸Ħà¸§à¸²à¸¡ à¸«à¸¡à¸²à¸¢
à¸¡à¸²à¸ģ à¸¡à¸²à¸¢
r a
à¸ª à¹Ģà¸Ľ
à¹ģà¸¥à¸° à¸Ļ
1 5
à¸«à¸¡à¸²à¸¢ à¹Ģà¸¥à¸Ĥ
à¸ģà¸³à¸«à¸Ļ à¸Ķ
à¸Ļà¸ķ à¸²à¸¡
à¸µ "
à¸¥ à¸Ħ
à¸Ļà¸Ńà¸Ńà¸ģ à¹Ģà¸ī
à¸ĩ à¸Ĺà¸²à¸ĩ
Ġ à¸Ŀ
à¹ģ à¸ģà¸£
Ġà¹ģà¸¥à¸° à¸Ĺ
à¸Ķ à¹Ģà¸ģà¸¥
à¸ļ à¹Ģà¸ļ
ĠI n
à¸ĩ à¹ĥà¸«à¸į
à¸§à¸¡ à¸¡
Ġ2 7
à¸Ń à¸Ńà¸Ļ
à¸Ńà¸ĩ à¹Ģà¸ŀà¸¥à¸ĩ
à¹Ĥ à¸Ńà¸¥
à¸© à¸Ĳà¸²à¸Ļ
à¸ŀà¸£à¸° à¸¡à¸«
à¸Ļà¹ģ à¸Ķà¸Ļ
à¸¨ à¸ŀ
à¸ģ à¸ģà¸²à¸£
à¸ŀà¸£à¸° à¸Ń
à¸² à¹Ģà¸«à¸ķ
à¸²à¸£ à¸ģ
Ġà¸Ń à¸²à¸Ī
Ġà¸ģà¸£ à¸¡
à¸ģà¸£ à¸²à¸Ĭ
Ġ à¸Ľà¸¥
à¸²à¸ĩ à¸Ĭ
à¸ĩ à¹ĥà¸Ī
Ġ2 8
Ġ255 0
à¸²à¸ĩà¸ģ à¸²à¸¢
à¸ģà¸£à¸°à¸Ī à¸²à¸¢
à¸¢ à¸ģà¸£
à¸Ļ à¸Ľà¸¥
Ġà¹ģà¸¥à¸° à¸£
à¸Ńà¸Ļ à¸Ļ
à¸²à¸ Ŀ
à¸Ńà¸¡ à¸ķ
Ġà¸« à¸²à¸ģ
à¸ĺ à¸¢à¸²
à¸Ńà¸¢ à¸Ĺ
à¹Ĥà¸¥ à¸ģà¸Ħà¸£
à¹Ģà¸« à¸¢
à¸Ń à¸²à¸Ħà¸²à¸£
à¸Ń à¸Ńà¸¢
1 8
à¸³à¸Ļ à¸²à¸Ī
à¸Ľà¸£à¸° à¸ģà¸§
à¸ģ à¸ľ
à¸ļà¸ģà¸²à¸£ à¸¨
à¸Ĳ à¸ĺà¸£à¸£à¸¡à¸Ļ
à¸Ńà¸Ļ à¸£
à¸ĩ à¹ģà¸ģ
à¸¡à¸² à¹ĥà¸Ĭ
Ġà¸ª à¸ĸ
à¸ĩà¸Ĺ à¸£à¸ĩ
à¸²à¸§ à¸£
Ġà¸Ħ à¸³
es s
à¸ģà¸£à¸° à¸Ĺà¸³
à¸Ķ à¸ĸ
Ġ à¸Ńà¸ĩà¸Ħ
à¸ª à¸łà¸²à¸ŀ
à¸Ķ à¸²à¸Ĥà¸Ńà¸ĩ
à¸ĩ à¹Ģà¸ª
à¸ģà¸£à¸° à¹ģà¸ª
à¸«à¸²à¸£ à¸²à¸Ĭ
à¸¡ à¸¥
a b
à¸Ĵà¸Ļ à¸²à¸ģà¸²à¸£
à¸²à¸Ļ à¸«à¸Ļ
à¸¥à¸° à¹Ģà¸Ń
Ġ Y
à¸Ń à¹ĥà¸Ļ
à¸ŀà¸£à¸°à¸£à¸²à¸Ĭ à¸ļ
à¸Ī à¸ī
à¸Ķ à¸ļ
in e
à¸Ļà¸ĺ à¸¡
à¸ļà¸²à¸ĩ à¸ª
a k
Ġ à¸Ĭà¸Ļ
à¸Ĥ à¸²à¸Ķ
à¸Ļ à¹ģà¸¥
à¸Ķ à¸Ńà¸ģ
à¸ķà¸£ à¸ĩ
à¸«à¸¥ à¸²à¸ģ
à¸ģ à¹Ħà¸Ķ
à¸° à¸Ļ
à¸Ń à¹Ģà¸ŀ
à¸§à¸Ļ à¸Ĥà¸Ńà¸ĩ
à¸ī à¸²à¸ģ
à¸ķà¸¢ à¸ģà¸£à¸£à¸¡
à¸Ļ à¸Ĭà¸²à¸§
à¸¥ à¸ģ
Ġ à¸«à¸¡à¸²à¸¢à¸ĸ
à¸Ĥà¸Ńà¸ĩ à¹Ģà¸Ĥà¸²
Ġà¸Ĥà¸ĵà¸° à¸Ĺ
es t
à¸Ńà¸ĩ à¹Ģà¸Ľ
à¸ĩ à¹Ģà¸ªà¸£
à¸ĩà¸²à¸Ļ à¸§
à¸£ à¸ªà¸ģ
Ġ in
à¸ķà¸£ à¸ĩà¸ģ
à¸Ļ à¸ªà¸¡
à¸£ à¸²à¸§
à¸§à¸Ķ à¸¥
Ġà¹ĥà¸Ļ à¸ģà¸²à¸£
à¸ļ à¹ģà¸ķ
à¸ª à¸§à¸Ļ
à¸ª à¸²à¸Ĥ
à¸Ńà¸ĩ à¹Ģà¸£
à¹ģà¸¥à¸° à¹Ģà¸Ľ
à¸²à¸¡ à¸²
à¸Īà¸Ńà¸¡ à¹Ģà¸ģà¸¥
à¹ĥà¸Ļ à¸Ĳà¸²à¸Ļà¸°
à¸ĩ à¸ģà¸§
à¸§ à¸Ĥ
à¹Ģà¸ ©
à¹ģà¸¥à¸° à¸£
à¸ļ à¸¢
an g
à¸Ńà¸ĩ à¸Ĥ
1 2
à¸Ľà¸£à¸°à¸ĺà¸²à¸Ļ à¸²à¸ĺ
à¸² à¹Ģà¸ª
à¸Ħà¸§à¸²à¸¡ à¸ķ
ti c
à¸Ńà¸ĩ à¸¢
à¸Ľà¸£à¸° à¸«à¸²à¸£
l i
Ġ2 9
à¸¢à¸Ļ à¹Ģà¸Ľ
à¸¤ à¸Ĺà¸ĺ
à¹Ĥà¸ķ à¸°
à¸² à¹Ģà¸ĭ
à¸²à¸Ļ à¸ģ
à¸Ĭ à¸Ĭ
à¸ģ à¸Ł
à¹Ĥà¸£à¸ĩ à¸ŀà¸¢à¸²à¸ļà¸²à¸¥
à¸§à¸¢ à¸ĩà¸²à¸Ļ
à¸²à¸Ļ à¸Ĭ
à¸§ à¹Ģà¸Ľ
à¸²à¸ĩ à¸Ľ
à¸²à¸Ļ à¸Ļ
à¸ļà¸£ à¸§à¸¡
à¸§à¸¢ à¸§
à¸ļ à¸²à¸£
à¸ĩ à¸©
à¸Ļ à¸ģà¸§
à¸¡ à¹Ģà¸ķ
à¸ļ à¹Ĥà¸ķ
Ĵ à¹
à¸ļ à¹Ħà¸Ķ
à¸Ļ à¸ŀà¸ļ
Ġ255 1
à¸Ļ à¸£à¸°à¸«à¸§
à¸Ńà¸Ļ à¸§
à¸Ń à¹ĥà¸Ĭ
à¹Ģà¸¥ à¸Ńà¸£
à¸ĩ à¸ŀà¸£à¸°
à¸²à¸Īà¸° à¹Ģà¸Ľ
Ġà¸¥ à¸³
à¹ģà¸¥à¸° à¸Ń
à¹Ĥà¸¥ à¸«
a e
Ġ à¸Ľà¸£à¸°à¸ģà¸Ńà¸ļà¸Ķ
Ġà¹Ĥà¸Ķà¸¢ à¹Ģà¸Ľ
à¸ļ à¸Ńà¸¢
à¸¢ à¸¥
à¸Ńà¸ĩ à¸¥
à¸ģ à¹ĥà¸Ĭ
à¸ļà¸£à¸£ à¸Ķ
à¹ģà¸¥à¸° à¸ķ
Ġ à¹Ħà¸£
à¸ĩ à¹Ģà¸¥
à¸§ à¸ļ
e p
Ġà¹ģ à¸Ĺ
à¹Ĥà¸Ľà¸£ à¸ķ
Ġ5 0
à¸Ńà¸ĩ à¸Ĭ
Ġà¹Ĥà¸Ķà¸¢ à¹Ħà¸Ķ
à¹Ĥ à¸Ħà¸¥
à¸Ļ à¸łà¸²à¸ŀà¸¢à¸Ļà¸ķà¸£
Ġà¹Ģà¸ ®
à¸²à¸Ļ à¸§
à¸Ńà¸ĩ à¸£à¸²à¸Ĭ
à¹Ĥ à¸Ĥ
à¸£à¸²à¸¢ à¸Ĭ
à¸ĩ à¸Ľà¸£à¸°à¹Ģà¸Ĺà¸¨à¹Ħà¸Ĺà¸¢
à¸ķà¸¢ à¸ªà¸²à¸£
Ġ255 3
à¹ĥà¸Ļ à¹Ģà¸£
à¸§à¸ĩ à¸ģà¸²à¸£
à¸ģ à¸«à¸Ļ
à¸Ń à¹ģà¸¡
à¸° à¹Ģà¸ļ
ul a
à¹Ĥ à¸ł
à¸¡ à¸Ħ
à¸ģà¸© à¸²à¸Ĺ
à¹Ģà¸¡ à¸Ńà¸£
à¸į à¸Ĭà¸²à¸ģà¸²à¸£
1 6
à¸Ķ à¸ķà¸²à¸¡
à¸© à¸²
à¸ļ à¸Ńà¸Ļ
à¹ģà¸ªà¸Ķà¸ĩ à¹Ĥà¸Ķà¸¢
Ġ w
à¹ĥà¸Ļ à¹Ģà¸Ĥà¸ķ
à¸Ķ à¹Ģà¸£
à¹Ģà¸ŀ à¸Ĭà¸£
à¸Ļà¸ŀà¸£à¸° à¸Ĭà¸Ļà¸¡
it y
à¹Ħ à¸ģà¸¥
à¸Ļ à¹ĥà¸«à¸¡
à¸Ħ à¸Ĺ
à¸² à¹Ģà¸Ĺ
à¹Ģà¸Ĥ à¸²à¸ģ
n g
à¸² à¹ĥà¸«
à¸ļ à¹Ģà¸Ĭ
à¹Ħà¸Ľ à¸Ĺ
Ġà¹Ĥà¸Ķà¸¢ à¹ĥà¸Ĭ
à¸Ńà¸¢ à¸¥à¸°
à¸ģ à¸²à¸¨
u p
h i
à¸Ńà¸ĩ à¸¨
à¸ģ à¸«
à¸ļà¸£à¸£ à¸Ī
à¸² à¹Ģà¸Ĥà¸ķ
à¹ĥà¸Ļ à¸Ħà¸£
à¸Ĭ à¸Ĺ
à¸£à¸²à¸Ĭ à¸Ńà¸²à¸ĵà¸²à¸Ī
à¸Ļ à¹Ģà¸§à¸¥
à¸«à¸¥à¸²à¸ģ à¸«à¸¥à¸²à¸¢
à¸² à¹Ĥà¸£
Ġ254 9
à¸²à¸Ĭ à¸Ļ
à¸Ļ à¹ĥà¸«à¸į
à¸Ľ à¸Ĺ
à¹Ĥà¸Ķà¸¢ à¸ªà¸²à¸£
à¸į à¸Ĺ
.. .
à¸Ļ à¸ļà¸£
à¸Ļ à¸Ńà¸ģà¸Īà¸²à¸ģà¸Ļ
à¸ŀà¸£à¸° à¸Ļà¸²à¸¡
à¸Ńà¸ªà¹Ģà¸ķà¸£ à¹Ģà¸¥
à¸²à¸Ļ à¸Ķ
à¸³ à¸£à¸ĩ
à¸¥à¸³ à¸ķ
à¸Ĺà¸²à¸ĩ à¸ģà¸²à¸£à¹Ģà¸¡
h t
à¹Ģà¸ª à¸¡à¸Ń
à¹ģà¸¥à¸° à¸§
à¸ŀà¸£à¸° à¸Ĭà¸Ļà¸¡
à¸ļ à¸«
à¸Ĭ à¸ģà¸²à¸¥à¸Ĺ
à¸§à¸Ķ à¹Ģà¸£
à¸Ńà¸ĩ à¸ĭ
à¸ŀà¸£à¸° à¸Ļà¸²à¸ĩ
à¸³ à¸ķà¸²à¸¥
Ġà¸ļ à¸²à¸ĩ
Ġ255 7
Ġ255 5
à¸µ ,
à¸¸ à¹Ĭ
Ġ à¸ĩà¸²à¸Ļ
Ġ à¸¢à¸ģ
à¹Ģà¸Ń à¸²
à¸§ à¸Ĭ
à¹ģ à¸Ńà¸¥
à¸Ĺà¸²à¸ĩ à¸ģà¸²à¸£
Ġ255 2
à¹Ĥ à¸Ĩ
à¹ģ à¸Ħà¸¥
à¸Ĥà¸Ńà¸ĩ à¸¡
à¸Ńà¸¡ à¸Ĺ
à¸£à¸²à¸Ĭ à¸ª
à¸Ĭà¸²à¸§ à¸Ń
Ġà¹Ģà¸Ĥ à¸ķ
à¸Ł à¸¥
1 4
à¸Ļ à¸ŀà¸£à¸°à¸£à¸²à¸Ĭ
à¸ģà¸³ à¹Ģà¸Ļ
à¸¢à¸ĩ à¸Ĺ
à¹ģ à¸Ļà¸°
à¹Ģà¸ľà¸¢ à¹ģà¸ŀà¸£
Ġ256 0
à¸® à¸²à¸£
à¸¡ à¸¨
Ġà¹ģà¸¥à¸° à¸Ī
à¸²à¸Ļ à¸ĭ
à¹Ģà¸ģ à¸Ńà¸£
à¸Ńà¸ĩ à¹ģà¸¥à¸°
à¸Ńà¸Ļ à¸Īà¸°
à¸²à¸Ļ à¸¡
Ġà¹ģà¸¥à¸° à¸ĸ
à¹ĥà¸Ļ à¸Ķ
à¸Īà¸³à¸Ļà¸§à¸Ļ à¸¡à¸²à¸ģ
2 00
à¸Ļà¸Ń à¸²à¸«à¸²à¸£
Ġ à¸Īà¸°à¸¡
à¸² à¹ģà¸ģ
à¹Ĥà¸Ķà¸¢ à¹Ħà¸¡
à¸Ľà¸¥ à¸Ńà¸Ķ
à¸Ńà¸¢ à¸ģà¸§
à¸Ľà¸£à¸°à¹Ģà¸Ĺà¸¨ à¸Ń
à¸° à¸ķ
à¸¤ à¸ģà¸©
à¸ĵà¸« à¸ł
à¸ģà¸²à¸£ à¸ļà¸£
à¸Ļ à¹ģà¸¡
à¸Īà¸° à¹ĥà¸Ĭ
à¸Ļ à¸ł
à¸ĩà¸Ń à¸²à¸Ī
à¸Ħ à¸¡
à¸Ľà¸£ à¸²à¸ªà¸²à¸Ĺ
à¸³ à¹ģà¸«à¸Ļ
à¸Ĥà¸Ńà¸ĩ à¸§
à¸łà¸²à¸ŀ à¸Ĺ
à¸Ń à¹Ģà¸Ĺ
à¸ģà¸²à¸£ à¹Ģà¸Ľà¸¥
à¸²à¸Ķ à¹Ģà¸Ī
à¸¥ à¸²à¸§
à¹ģà¸Ĺ à¸Ļà¸Ĺ
à¸ģà¸²à¸£ à¸§
à¸²à¸ ¬
à¸²à¸£à¸° à¸Ķ
à¸Ļ à¸²à¸ĸ
à¸ĩ à¹Ģà¸Ĭ
orm ula
à¹ĥà¸Ļ à¸Ī
Ġà¸Ń à¸²à¸Ĺ
à¸¥à¸ĩ à¸Ĺ
Ġà¸Ķ à¸£
1 1
à¸Ńà¸Ń à¸Ł
Ġà¸ļ à¸²à¸Ĺ
à¹Ģà¸«à¸¡à¸²à¸° à¸ªà¸¡
à¸ļ à¸Ľà¸£à¸°
à¸§ à¸Ħà¸£
à¸ģà¸²à¸£ à¹Ģà¸Ľ
à¹Ģà¸Ķ à¸Ĭ
à¸° à¸¥
à¹Ģà¸Ń à¸²à¸Ĭà¸Ļà¸°
à¸¢à¸Ńà¸Ķ à¹Ģà¸¢
à¸Ĺà¸²à¸ĩ à¸§
à¹ĥà¸Ļ à¹Ģà¸¡
à¸²à¸¡ à¸²à¸ģ
à¸²à¸Ń à¸²à¸ģà¸²à¸¨
à¸³ à¹Ģà¸£
à¹ģà¸Ļà¸§ à¸Ħ
à¸ģ à¹ģà¸«
à¸§ à¹Ĥà¸¡
à¸²à¸Ļ à¸ŀ
u b
Ġà¹ĥà¸Ļ à¹Ģà¸Ķ
à¸ĩ à¹ģà¸¥
à¸¢ à¹Ħà¸Ķ
u d
à¹ģà¸Ń à¸Łà¸£
al l
à¸ĩ à¹ĥà¸Ļà¸Ľ
à¹Ĥà¸ģ à¸°
à¸Ļ à¸²à¸£
Ġà¸£ à¸Ńà¸ļ
à¹Ħà¸ĭ à¸ķ
à¸¨ à¸§à¸£à¸£à¸©
à¸Ńà¸Ļ à¹Ħà¸«à¸§
à¸² à¹Ģà¸Ĭ
à¸Īà¸ŀà¸£à¸° à¸Ī
à¸²à¸¥à¸ĩ à¸ģà¸£à¸ĵ
à¸² à¹ĥà¸Ĭ
h a
Ġ l
à¹Ĥà¸Ķà¸¢ à¸¡
à¸¢ à¸«à¸²à¸¢
u c
à¸¡ à¹Ħà¸Ķ
à¸Ń à¹Ģà¸ģ
Ġà¹ģ à¸ģ
à¸Ĥ à¸Ļà¸ª
à¸ķ à¸²à¸¢
Ġ255 6
à¸Ļà¸ª à¸²à¸¡à¸²à¸£à¸ĸ
à¸§ à¸²
Ġà¹Ģà¸ĭ à¸Ļà¸ķ
à¸Ńà¸ĩ à¸«
Ġ" "
à¸Ļ à¸«à¸£
Ġ4 0
à¹Ģà¸¡ à¸£
Ġà¹Ĥ à¸Ľà¸£
Ġ g
à¸ģ à¹Ĩ
à¸Ńà¸³à¸Ļ à¸§à¸¢à¸ģà¸²à¸£
à¸¢à¸ļ à¹Ģà¸Ĺ
à¸į à¸Ĥà¸Ńà¸ĩ
Ġ /
à¸ŀ à¸²à¸¢
à¸Ń à¸²à¸§
à¸¢à¸Ļ à¸¡
à¸¢à¸ĩ à¹Ģà¸«à¸Ļ
à¸Ĭ à¸ªà¸¡
à¸£à¸£ à¸¢
à¸¡ à¸Ī
Ġ255 8
Ġà¹ģ à¸ª
à¸Ńà¸ĩ à¸«à¸¥
Ġà¹ģ à¸ľ
à¸Ĭ à¸į
à¸Ļà¹ĥà¸Ļ à¸Ĭ
à¸¢à¸ĩ à¹ĥà¸ķ
à¸²à¸Ļ à¹Ħà¸Ķ
à¹Ģà¸ª à¸ĺ
à¸Ĥà¸Ńà¸ĩ à¹Ģà¸Ĥ
à¸Ńà¸ª à¸²à¸£
à¸ĩ à¸«à¸¡
Ġ255 9
à¸ģ à¸Ŀ
à¸Ńà¸ĩ à¸«à¸¥à¸§à¸ĩ
à¸Ļ à¹ģà¸«
à¸Ńà¸ĩ à¹ĥà¸Ļ
à¸§à¸ĩ à¸ķ
à¸² à¹Ģà¸ŀ
à¸² à¹Ħ
à¸Ļà¸¡ à¸²à¸£
à¸ŀà¸£à¸°à¸£à¸²à¸Ĭ à¸§
à¸ŀà¸£à¸£ à¸ĵ
at e
à¸Ħà¸§à¸²à¸¡ à¸¢à¸²à¸§
à¸£à¸²à¸¢ à¹Ħà¸Ķ
à¹Ĥ à¸ļà¸ªà¸ĸ
à¸Ĥà¸Ńà¸ĩ à¸ŀà¸£à¸°à¸Ńà¸ĩà¸Ħ
à¸Ńà¸¢ à¸Ķ
à¸£ à¸ļ
à¹Ĥ à¸ģà¸¥
à¸Ļ à¹Ģà¸Ń
à¸Ńà¸Ńà¸ģ à¹Ģà¸Ľ
à¸Ķ à¹ģà¸¢
Ġà¹Ģà¸§ à¸¥à¸²
à¸Ļ à¸²à¸Ĺ
à¸Ńà¸ģ à¸ĭ
à¸ģ à¹ģà¸ķ
à¸§à¸¢ à¸ª
Ġ à¸łà¸²à¸©
à¸ªà¸³ à¸£à¸§à¸Ī
à¸¢à¸Ļ à¸§
à¸Ńà¸ĩ à¹ĥà¸Ĭ
à¸Ħà¸§à¸²à¸¡ à¸ªà¸³à¸Ħ
Ġ à¸łà¸²à¸Ħ
Ġ à¸ī
à¸ģà¸¥ à¸¡
à¸£à¸§à¸¡ à¸Ĺ
à¸ļà¸Ħà¸§à¸²à¸¡ à¸Ļ
Ġà¹Ģà¸ ķ
à¸Ľ à¸ª
Ġ a
à¸ļ à¹ĥà¸Ĭ
à¸Ńà¸³à¹Ģà¸ł à¸Ń
à¸¡à¸² à¹Ģà¸¥
à¸£à¸²à¸Ĭ à¸ļ
1 7
à¸ĩ à¹Ģà¸ŀà¸¥à¸ĩ
Ġ256 1
à¸ģ à¸Ļà¸³
à¸Ńà¸²à¸Ī à¸²à¸£à¸¢
à¹Ģà¸§ à¸¢
à¸¢à¸§ à¸Ĺ
à¸Ķ à¸ĭ
à¸§à¸¡ à¸Ĺ
à¸Ļ à¹Ģà¸ĭ
à¸ļ à¹ĥà¸«
à¸µ -
à¸§à¸ĩ à¹Ģà¸§à¸¥
à¸Ĭà¸²à¸§ à¹Ħà¸Ĺà¸¢
à¹Ħà¸Ľ à¸ª
à¸Ļ à¸łà¸²à¸©
à¸§ à¸²à¸£
à¸²à¸Ľ à¸£
à¸Ľà¸¥à¸Ńà¸Ķ à¸ł
Ġà¸ķ à¸¥à¸Ńà¸Ķ
à¹Ģà¸Ļ à¸Ńà¸£
à¸Ľà¸£ à¸²à¸ļ
à¸¢ à¹Ģà¸Ľ
à¸ķ à¸ł
à¸³à¸Ļ à¸²à¸Ļ
à¸Ħ à¸Ħ
à¸§ à¹Ģà¸Ħà¸¥
à¸Ĥ à¸łà¸²à¸ŀ
à¸Ńà¸Ļ à¸²à¸Ħ
à¹Ģà¸ļ à¸¥
à¸Ļ à¹Ģà¸Ńà¸ģ
t r
à¸«à¸£ à¸²à¸Ĭà¸Ńà¸²à¸ĵà¸²à¸Ī
à¸Ń à¸Ħà¸£
à¹ģ à¸ģà¸£à¸¡
Ġà¸ª à¸ĸà¸²à¸Ļ
à¸Ħà¸§à¸²à¸¡ à¹Ģà¸Ĭ
à¸§ à¹Ģà¸£
Ġà¸ķ à¸²à¸£
à¸ģ à¸«à¸¥à¸²à¸¢
à¹Ģà¸Ī à¸Ńà¸£
à¸Ķ à¸«
à¸£ à¸²à¸¡
el l
à¹ĥà¸Ļà¸ģà¸²à¸£ à¹ģà¸Ĥ
1 3
à¸²à¸« à¸¡à¸²à¸¢
à¸ŀà¸§à¸ģ à¹Ģà¸Ĥ
à¸Ńà¸§ à¸ģà¸²à¸¨
à¸Ńà¸ª à¸²à¸¢
à¸§à¸¢ à¸Ĺ
à¸ķ à¸£à¸°à¸ģ
à¹Ģà¸Ĺ à¸Ńà¸£
à¸ģà¸²à¸£à¸ª à¸Ńà¸Ļ
à¹Ħà¸¥ à¸Ļ
à¸Ļ à¹ģà¸ķ
Ġ201 2
à¸Ńà¸ĩ à¸Ľ
à¸¢à¸ļ à¸ģ
à¹Ģà¸ŀ à¸²à¸°
à¸Ħ à¸ķ
à¸§ à¸ĭ
à¸² à¹ģà¸«
à¸²à¸ģà¸²à¸£ à¸ģà¸£à¸°à¸Ĺà¸£à¸§à¸ĩ
Ġ24 6
à¸Ļà¸Ļ à¸²à¸ĩ
à¸Ĺà¸¢ à¸²à¸Ļ
à¹ģà¸ª à¸ĩ
Ġà¸ķ à¸Ńà¸Ļ
à¸²à¸¢ à¹ģà¸ŀ
à¸ģà¸²à¸£ à¸Ĺà¸³à¸ĩà¸²à¸Ļ
à¸¡ à¸Ńà¸ĩ
Ġ201 4
2 4
Ġ à¸łà¸²à¸¢à¸«à¸¥
à¸Ńà¹Ħà¸Ľ à¸Ļ
à¸ģà¸²à¸£ à¹ģà¸ªà¸Ķà¸ĩ
à¹ģà¸Ļà¸° à¸Ļà¸³
à¸Ńà¸ĩ à¹ĥà¸«
à¸Ķà¸ª à¸Ńà¸ļ
à¸Ńà¸Ńà¸ģ à¸¡
à¸²à¸ĩ à¸Ħà¸§à¸²à¸¡
Ġ201 0
Ġ201 6
à¸Ń à¸²à¸Ĺ
à¸įà¸į à¸²à¸ķà¸£
à¹ģà¸¥à¸° à¹Ħà¸Ķ
Ġà¹ģà¸¥à¸° à¹Ģà¸¡
à¸ķ à¸Ńà¸¢
à¸¬ à¸²à¸¥à¸ĩà¸ģà¸£à¸ĵ
à¸° à¸Ķ
à¸²à¸ ī
à¸Ħà¸Ńà¸¡ à¸ŀ
à¸ķ à¸ĭ
Ġ à¸¨à¸£
Ġ254 8
Ġà¸Ħ à¸¥
" "
à¸ģà¸²à¸£ à¸ªà¸£
à¸Ńà¸²à¸ĵ à¸²à¹Ģà¸Ĥà¸ķ
à¸¡ à¸ĵà¸ĳà¸¥
à¸§ à¸ľ
à¸²à¹Ĥ à¸Ľà¸£
à¹Ĥà¸Ķà¸¢ à¹Ģà¸īà¸ŀà¸²à¸°
à¹ģ à¸ļà¸£
à¸ĸ à¸²à¸¡
Ġ256 2
à¸Ńà¸ĩ à¸«à¸Ļ
à¸Ī à¸ģà¸²à¸£à¸¨
à¹Ĥà¸Ķà¸¢ à¹ĥà¸Ĭ
à¹Ģà¸ļ à¸£
à¸ļ à¹Ģà¸£
à¸ģà¸²à¸£ à¹Ģà¸£
à¸²à¸ł à¸£à¸ĵ
à¸ŀ à¸Ļ
à¸ļ à¸Īà¸²à¸ģ
à¸ĩ à¹Ģà¸Ī
à¸ļ à¸ŀà¸£à¸°
Ġà¹ģà¸¥à¸° à¸§
t e
à¸Ń à¸ŀà¸£à¸°
à¹Ĥ à¸Ńà¸Ļ
Ġà¹ Ĵà¹
à¹ģà¸¥à¸° à¸Ĺ
à¸ĩà¸Ļ à¸³
à¸²à¸¢ à¸²à¸Ĺ
à¹Ħ à¸ķà¸£
Ġà¸¡ à¸²à¸ģ
à¸Ńà¸¥à¸¥ à¸²à¸£
n e
à¸ļ à¹Ģà¸Ī
à¹Ģà¸Ĺ à¸Ħà¸Ļ
Ġ à¸¤à¸Ķ
à¸²à¸¢ à¸¡
à¸§ à¸°
à¸ļ à¸ķà¸³à¹ģà¸«à¸Ļ
à¸Ńà¸ģ à¸§
à¸ĺ à¸ł
o k
à¸ģ à¸ķà¸£
à¸¨à¸²à¸ªà¸ķà¸£ à¸²à¸Īà¸²à¸£à¸¢
à¸¡ à¹Ģà¸Ĥ
à¸²à¸¡ à¹Ģà¸Ļ
à¸Ļà¹Ĥà¸Ķ à¸Ļ
à¸ķà¸£à¸§à¸Ī à¸ªà¸Ńà¸ļ
à¸Ħ à¸²à¸Ķ
à¸ļ à¸ģà¸¥
à¸¡ à¸Īà¸²à¸ģ
à¸ģà¸£à¸° à¸ļà¸§à¸Ļà¸ģà¸²à¸£
à¹ģ à¸Ħà¸§
à¹ģ à¸Ľà¸£
à¸£ à¸ł
er s
à¸Ļà¹ģ à¸Ķ
Ġ201 5
à¸Ńà¸ĩà¸Ħ à¸³
à¸²à¸Ķ à¸²
à¸ŀ à¸²à¸ģà¸©
Ġà¸Ľà¸£à¸° à¸ķ
à¸Ļ à¹Ģà¸«à¸ķ
à¸ĩ à¸«à¸¥à¸²à¸¢
Ġà¸£ à¸²à¸¢
à¸ĩ à¹Ģà¸Ļ
Ġ19 3
à¸¢ à¸ĺà¸£à¸£à¸¡
Ġà¸ª à¸²à¸¢
à¹Ģà¸ŀ à¸ĵ
à¸Ńà¸¡à¸² à¹ĥà¸Ļà¸Ľ
à¹ģà¸¥à¸° à¸ŀ
à¸ģà¸£à¸° à¸ķ
à¸Ńà¸ĩ à¹Ģà¸¥
à¸ģà¸²à¸£ à¸Ļà¸³
Ġà¹Ģà¸ Ł
à¸²à¸« à¸¡
à¸ģà¸²à¸£ à¹Ģà¸Ĥ
Ġà¹ģà¸¥à¸° à¹Ģà¸£
à¸ĩà¹Ģà¸ģ à¸ķ
à¸ģ à¸Ĺà¸£
à¸ĵ à¸łà¸²à¸ŀ
à¹Ħ à¸Ļà¹Ģà¸ķ
u e
à¹Ģà¸¢à¸²à¸§ à¸Ĭà¸Ļ
à¸Ķ à¸¥à¸ĩ
à¸£à¸²à¸¢ à¸ĩà¸²à¸Ļ
à¸²à¸£à¸²à¸Ĭ à¸ģà¸²à¸£
à¹ģ à¸£à¸¡
h y
à¸§à¸¢ à¸ĩà¸²à¸¡
à¸Ńà¸Ļà¸Ķ à¸Ńà¸Ļ
à¸Ľà¸£à¸²à¸ģà¸ı à¸ķ
o u
à¸²à¸Ļ à¸Ĥà¸Ńà¸ĩ
à¸ļà¸²à¸ĩ à¸Ħà¸£
Ġà¸Ńà¸Ńà¸ģ à¸Ńà¸²à¸ģà¸²à¸¨
Ġ3 1
à¸¨à¸§ à¸ģà¸£à¸£à¸¡
à¸¥ à¸§
à¸ļ à¹Ģà¸Ĥ
Ġà¹ģà¸¥à¸° à¸ľ
à¸ķà¸²à¸¡ à¸Ĺ
à¸Ńà¸ĩ à¹Ħà¸Ķ
à¸ĩà¸ľà¸¥ à¹ĥà¸«
à¸²à¸ł à¸²à¸ŀ
à¹ģ à¸Ħà¸Ļ
Ġ à¸§à¸ĩ
à¸²à¸§ à¸Ĺ
à¸į à¹Ģà¸ª
o b
à¹Ģà¸ĭ à¸Ļà¸ķ
à¹ģà¸¥à¸° à¸ľ
Ġà¸ª à¸³à¸Ļ
à¸Ĺà¸²à¸ĩ à¸«à¸¥à¸§à¸ĩ
à¸²à¸ĩ à¹Ģà¸Ķ
Ġà¸Ļ à¸Ńà¸ģ
à¸²à¸ĩ à¹Ħà¸¡
Ġà¹Ģà¸« à¸¥
à¸ģà¸²à¸£ à¸Ń
' s
à¸²à¸Ļ à¸Ħ
Ġ19 5
à¸²à¸ļ à¸£à¸¡
Ġ à¸Ĭà¸Ļà¸°
à¸ģ à¸ģà¸¥
à¹Ģà¸Ħà¸¢ à¹Ģà¸Ľ
à¸ĸ à¸Ļ
à¸Ķ à¸ŀà¸£à¸°
à¸ŀà¸¢ à¸ŀ
à¸ĩ à¹Ģà¸Ĺ
Ġ à¸Ńà¸ĩà¸¨
à¸İ à¸«à¸¡à¸²à¸¢
à¸Ļà¸Ĺ à¸Ļ
à¸²à¸¢ à¸ģà¸£
Ġà¹ģ à¸ļ
à¸Ļ à¸«à¸¡
à¸Ĳ à¸¡
à¸Ľà¸£à¸°à¸Īà¸³ à¸Ľ
à¸ª à¸²à¸ļ
à¹Ĥ à¸ļ
Ġ201 3
à¸Ķà¸Ĭ à¸Ńà¸ļ
à¸ĩà¸ª à¸²à¸¡
Ġà¸¡ à¸«
à¸Ħà¸Ńà¸¡ à¸¡
à¹Ĥà¸Ĩ à¸©à¸ĵ
à¸² à¹Ģà¸Ń
Ġ à¸łà¸²à¸¢à¹ĥà¸ķ
à¸ª à¸ķà¸£
Ġ200 8
à¸§ à¹ĥà¸Ļ
à¸§ à¹ģà¸¥à¸°
à¸§à¸ĩ à¸Ľ
à¸Ľà¸£à¸° à¸Ī
à¸ĵ à¸ªà¸¡à¸ļ
à¹Ģà¸Ł à¸Ńà¸£
Ġf ormula
à¸²à¸Ńà¸²à¸ģà¸²à¸¨ à¸¢à¸²à¸Ļ
à¸ŀà¸¢ à¸²à¸ģà¸£
à¸Ħà¸Ħà¸¥ à¸Ĺ
à¸ģà¸© à¸²à¸£à¸°à¸Ķ
à¸Ĥà¸Ńà¸ĩ à¸ŀ
à¸Ļ à¸Ńà¸ĩà¸Ħ
à¸ļ à¸¡à¸²
à¹Ħ à¸ŀ
à¸ļ à¹Ħà¸ĭà¸ķ
il l
à¸Ļà¹Ģà¸Ĺ à¸Ńà¸£
Ġ à¸£à¸°à¸ļà¸ļ
à¸§à¸¢ à¹ĥà¸«
Ġà¹ģ à¸ļà¸ļ
à¸²à¸¢ à¸£
o ur
à¸²à¸¢ à¹ĥà¸Ļ
à¸Īà¸° à¸ª
à¸Ļà¸Īà¸³à¸Ļà¸§à¸Ļ à¸¡à¸²à¸ģ
Ġà¹Ĥ à¸Ī
Ġà¹ģà¸¥à¸° à¸ŀ
à¸Ĺà¸²à¸ĩ à¸Ĭ
n i
Ġà¹Ĥ à¸ĭ
à¸§à¸Ļ à¸£
Ġ à¸¯
à¸Ļà¸Ĺà¸³ à¹ĥà¸«
à¹Ģà¸ĺà¸Ń à¹Ħà¸Ķ
à¸ŀà¸§à¸ģ à¹Ģà¸Ĥà¸²
à¸ģà¸²à¸£ à¸ĸ
Ġà¸ģ à¸Ńà¸ĩà¸Ĺ
à¸Ī à¸ļ
à¸¥à¸°à¸Ħà¸£ à¹Ĥà¸Ĺà¸£à¸Ĺ
à¸²à¸Ļ à¸Ĥ
à¸ª à¸Ľ
à¸ĩ à¸ļà¸£
à¸Ļà¹ģ à¸ľ
à¸ķà¸£ à¸Ĭà¸²à¸¢
à¸ģà¸²à¸£ à¸¢
à¸²à¸£ à¸²à¸¡
à¸ģà¸²à¸£ à¸Ĭ
à¸ĩ à¹ģà¸«
à¸Ļ à¹ĥà¸Ļà¸ģà¸²à¸£
Ġ201 7
à¸Ĭà¸¡ à¹Ģà¸Ľ
à¸Ļà¹Ħà¸Ľ à¹Ħà¸Ķ
Ġà¹ ĳ
à¸£ à¸Ńà¸¢
à¸«à¸¥ à¸Ńà¸Ķ
à¸ĭ à¸²à¸ģ
à¸Ĺà¸²à¸ĩ à¸ķà¸°à¸§
à¸łà¸²à¸©à¸² à¹Ħà¸Ĺà¸¢
à¸ĩ à¹Ģà¸Ń
à¸¥à¸Ķ à¸¥à¸ĩ
à¸Ńà¸Ļ à¹Ģà¸¡
à¹Ĥà¸Ļ à¸°
à¹Ĥ à¸ī
à¸²à¸¢à¸Ļ à¸Ńà¸ģ
à¸Ķà¸Ļ à¸Ħà¸£
Ġ à¸łà¸²à¸ŀà¸¢à¸Ļà¸ķà¸£
à¸²à¸ĩà¸£ à¸§à¸Ķà¹Ģà¸£
à¸Ī à¸Ķ
Ġà¹ģ à¸ŀ
à¸²à¸ĩ à¸ĸ
à¸²à¸Ļ à¸Ń
o un
à¸Ļ à¸Ńà¸£
Ġ201 1
Ġà¹Ģà¸Ķ à¸Ńà¸°
à¸Ńà¸¡ à¸²à¸ģ
ec t
à¸Ļà¹ĥà¸Ļ à¸§
à¸¢à¸ģ à¸¢
à¸£à¸°à¸¢à¸° à¹Ģà¸§à¸¥
à¹Ĥà¸Ĭ à¸§
à¸Ļ à¸²à¸§
à¸ģ à¸¤à¸ķ
à¸£à¸²à¸Ĭ à¸ģ
à¸²à¸ª à¸²à¸¡à¸²à¸£à¸ĸ
à¸£ à¸²à¸Ħ
Ġà¸ŀà¸£à¸° à¸ļà¸²à¸Ĺà¸ªà¸¡à¹Ģà¸Ķ
à¸ĩ à¹Ģà¸«à¸¥
à¸¡à¸« à¸²à¸ªà¸¡
à¸¥ à¸²à¸Ļ
à¹ĥà¸Ļ à¸«
à¸Ķ à¸Ĺà¸³
à¸²à¸ĺ à¸²à¸£
à¸ģà¸© à¸²à¸ĺ
à¸§ à¸²à¸¥
à¸° à¸Ľ
à¸¡ à¹ģà¸¥à¸°
Ġ201 8
à¸ĩ à¹Ģà¸Ĥà¸ķ
à¸¡ à¹Ģà¸ļ
à¸Ī à¸Ĺ
à¹Ģà¸¡ à¸°
is t
Ġ à¸¥à¸ĩ
à¸Ľà¸¥ à¸Ķ
à¸¢à¸ļ à¸²à¸¢
à¸Ńà¸ĩ à¸¢à¸Ļà¸ķ
à¸£à¸ĩ à¸Ħ
à¸¥ à¸Īà¸Ńà¸¡à¹Ģà¸ģà¸¥
à¸Ħ à¸³à¸Ļ
à¸Ńà¸Ļ à¸Ĥà¸Ńà¸ĩ
à¸Ķ à¹ģà¸Ľà¸¥à¸ĩ
à¸²à¸ļ à¸£
à¸Ļà¸Ļ à¸³
à¸Ľà¸£à¸°à¸Ĭà¸²à¸Ĭ à¸Ļ
à¸ĩà¸Ńà¸Ńà¸ģ à¹Ģà¸Ľ
à¹ģà¸¥à¸° à¸Ħà¸§à¸²à¸¡
Ġà¹ģà¸¥à¸° à¹ĥà¸Ļ
à¸ģ à¸Ĭà¸²à¸¢
Ġà¸ŀ à¸£à¸£
Ġ254 7
à¸Ĺ à¸Ĺ
à¹Ĥ à¸ģà¸ª
à¸ª à¸²à¸ģà¸¥
à¸ģ à¸«à¸¥
à¸Ńà¸ĩ à¸ľ
à¸Ļà¸Ī à¸£
à¸¡ à¸²à¸¥
à¸Ľà¸¥ à¸§
à¸Ļà¸²à¸¢ à¸ģà¸£
Ġ24 5
ac k
à¸ªà¸ĸà¸²à¸Ľ à¸Ļ
à¸Ń à¸²
Ġ '
à¸²à¸Īà¸° à¸¡
Ġà¹Ĥ à¸Ħ
à¸¡ à¸ĭ
à¹ģà¸¥à¸° à¸Ī
ar t
à¸ĩà¹ģ à¸§à¸Ķà¸¥
à¸²à¸Ļ à¸¥
à¸²à¸§ à¸Ķ
à¸²à¸§ à¸²à¸ª
à¸Ĭà¸²à¸¢ à¸Ŀ
e g
à¸Ńà¸° à¹Ħà¸£
à¸Ļ à¸®
à¸Ńà¸ļ à¸Ĺ
à¸į à¸Ī
à¸Ńà¸Ļ à¸Ħà¸£
l y
Ġ200 9
a in
à¹ģà¸¥à¸° à¸¢
en d
Ġt o
à¹Ĥà¸Ķ à¸£
Ġà¹ĥà¸Ļ à¸Ĺ
à¸Ļ à¸ģà¸¥à¸²à¸ĩ
à¸Ľà¸ģà¸Ħà¸£ à¸Ńà¸ĩà¸ª
à¸²à¸¢ à¸ŀ
à¸²à¸ĺà¸²à¸£ à¸ĵà¸°
à¸Ļ à¹Ģà¸§à¸¥à¸²
à¹ĥà¸Ļ à¸«à¸Ļ
6 0
à¸Ħ à¸ĵ
à¹Ĥ à¸Ł
à¸ĩ à¸ķà¸²à¸¡
à¸ªà¸ł à¸²
à¸Ĺà¸ĺ à¹Ģà¸Ī
à¸Ļ à¹Ĥà¸£à¸ĩà¹Ģà¸£
à¸Ńà¸ĩ à¹Ĥà¸Ķà¸¢
à¹ĥà¸Ļ à¸ļà¸£
à¸§ à¸Ħ
à¹ĥà¸Ļ à¸ģà¸¥
à¸²à¸¢ à¸Ń
à¸²à¸Ļ à¹Ģà¸Ĥ
à¹Ĥ à¸ķà¸£
à¸¤ à¸«
Ġ à¸ļà¸Ĺ
à¸²à¸ŀà¸£à¸° à¸Ńà¸ĩà¸Ħ
à¸¢ à¸Ī
Ġà¹Ģà¸ ¢
à¸Ńà¸ļ à¸ª
à¸ªà¸ķ à¸²à¸£
à¸²à¸Ħ à¸ĵà¸°
à¹Ģà¸ģ à¸¡à¸ª
à¸Ń à¸Ńà¸£
à¸³ à¸ª
Ġà¹ģà¸¥à¸° à¸Ĭ
à¸²à¸« à¸¥à¸²à¸¢
on g
à¸¢à¸ĩ à¸ķ
à¸ĩ à¹Ħ
à¸§ à¹Ħà¸Ķ
à¸ł à¸ŀ
4 0
à¸³ à¸Ī
à¹ĥà¸Ļ à¸¥
à¹Ĥà¸Ķ à¸Ķà¹Ģà¸Ķ
à¹Ĥà¸ł à¸Ħ
à¸´ à¹Ĭ
à¸Ļà¹ģ à¸«à¸¥
à¸²à¸Ļ à¹Ģà¸¡
à¸Ļ à¸Ħà¸¥
à¸ģ à¹Ģà¸Ľà¸¥
à¸²à¸ŀ à¸£
à¸²à¸ĩ à¸ŀ
à¸Ħà¸§à¸²à¸¡ à¸ľ
à¸Ĥà¸Ńà¸ĩ à¸Ħ
à¸²à¸¢à¸Ĺ à¸Ńà¸Ķ
Ġ200 7
à¸ŀà¸£à¸° à¸Ĺ
à¸²à¸ĩ à¸Ī
à¸«à¸łà¸²à¸ŀ à¹Ĥà¸ĭà¹Ģà¸§
à¹ĥà¸Ļ à¸ģà¸£
à¸Ĺà¸³ à¸Ļ
i an
à¸Īà¸Ļ à¸ģà¸£à¸°à¸Ĺ
Ġà¹ģà¸¥à¸° à¹Ħà¸¡
à¸Ķà¸¥ à¸Ńà¸ĩ
à¸ŀà¸£à¸° à¸¢
à¸ģà¸© à¸²à¸Ľ
à¸ŀà¸£à¸°à¸¡à¸« à¸²à¸ģà¸©
p h
à¸Ĺà¸ĺ à¸£
à¸ļ à¸¨
à¸Ńà¸¢ à¸ķ
à¸Ļ à¸łà¸²à¸ŀ
à¸²à¸Ļ à¸Ī
à¸° à¸Ń
à¸§à¸Ļ à¸Ń
à¸² à¹ģà¸¥
à¸Ļ à¹ģà¸£à¸ģ
à¸¡ à¹Ģà¸«
à¸¡ à¹Ģà¸«à¸¥
à¸¢à¸ģ à¹Ģà¸¥
à¸ĭ à¸²à¸£
à¸Ļà¸²à¸Ļ à¸²à¸Ĭà¸²à¸ķ
à¸Ħà¸Ļ à¸Ń
à¸Ļà¸Ĺà¸²à¸ĩ à¹Ħà¸Ľ
à¸Ľà¸£à¸° à¹Ģà¸ŀà¸ĵ
Ġ à¸Ńà¸Ļ
Ġ à¸£à¸°à¸Ķ
à¹ģ à¸§à¸£
à¸¥ à¸²à¸ģ
ac e
à¸£à¸£ à¸ŀ
à¸ĩ à¸«à¸£
à¹Ģ à¸Ńà¸¡
à¸²à¸Ļ à¸²à¸Ļ
Ġà¸ªà¸¡ à¸²à¸Ĭ
à¸ļ à¹Ĥà¸Ķà¸¢
à¸ĩ à¹ĥà¸«à¸¡
à¹Ĥà¸¥ à¸ģà¸£
à¸¢ à¸Ĭà¸Ļà¸°
à¸ģà¸²à¸£ à¸ľà¸¥
à¹ĥà¸Ļ à¹Ģà¸§à¸¥
à¸Ħà¸§à¸²à¸¡ à¹Ģà¸£
à¸Ħà¸Ļ à¸«à¸Ļ
f f
à¹ĥà¸Ļ à¸ĩà¸²à¸Ļ
à¸ķ à¸¨à¸²à¸ªà¸ķà¸£
à¸ģ à¸ªà¸£
à¸Ļ à¸ģà¸£
à¹Ģà¸§à¸ĵ à¸Ĺ
à¸Ļà¸Ĭ à¸Ńà¸ļ
à¹ĥà¸Ļ à¸Ĥà¸ĵà¸°à¸Ļ
à¸Ĥà¸Ńà¸ĩ à¹Ģà¸ĺà¸Ń
à¸Ĭ à¸²à¸į
à¸«à¸Ļ à¸²à¸§
à¸Īà¸²à¸ģ à¸Ĺ
à¸ªà¸¥ à¸²à¸¡
à¸Ļà¸ªà¸ĸ à¸²à¸Ļà¸Ĺ
à¸µ à¹ĭ
à¸²à¸Ļ à¸Ľ
à¸Ķà¸¡ à¸¨
à¹Ģà¸¥ à¸ģ
Ġà¸ģ à¸³à¸ģ
à¸§à¸¡ à¸ĩà¸²à¸Ļ
à¸ļ à¹Ģà¸Ķ
à¸Ļà¸£ à¸ĸ
) "
à¸ļ à¸ŀà¸£à¸°à¸£à¸²à¸Ĭà¸Ĺà¸²à¸Ļ
à¸²à¸ĵ à¸²à¸Ī
à¸§ à¸ĵ
Ġ h
à¹ĥà¸Ļ à¸Ħ
à¸Ķà¸Ľ à¸ģà¸ķ
à¸² à¹Ģà¸Ńà¸¥
à¸¢ à¸ķà¸°à¸§
Ġà¹Ĥ à¸Ħà¸£
à¹ĥà¸Ļà¸ª à¸«à¸£
u re
à¸Ńà¸ĩ à¹Ģà¸Ķ
à¸²à¸¢ à¸łà¸²à¸ŀ
Ġ6 0
à¸§ à¹ģà¸Ĺ
Ġ à¸ķà¸£
à¸ª à¸«
à¸¥à¸ĩ à¹Ħà¸Ľ
à¹Ģà¸Ńà¸ģ à¸ªà¸²à¸£
à¸Ľà¸£à¸° à¹Ģà¸¡
à¸§à¸¢ à¸Ńà¸£
à¸ŀ à¸¤à¸ķ
à¹Ĥà¸ŀ à¸ĺ
à¸ķ à¹Ĥà¸Ķà¸¢
à¸ģà¸²à¸£ à¸Ķ
Ġà¹ģà¸¥à¸° à¹ĥà¸Ļà¸Ľ
Ġ200 6
Ġà¸ŀ à¸£à¸£à¸Ħ
Ġà¸Ľà¸£à¸° à¸ĺà¸²à¸Ļ
r an
à¹Ģà¸¡ à¸¥
à¹ĥà¸Ļ à¸ļ
on e
à¸§à¸¢ à¸Ń
à¹Ĥà¸Ľà¸£ à¹ģà¸ģà¸£à¸¡
à¸ĩ à¸¨à¸£
à¸³ à¸ļ
à¸ĩà¸ģ à¸£à¸°
à¸Ļ à¸Ľà¸£à¸°à¸ĺà¸²à¸Ļ
à¸¢à¸ĩ à¸Ķ
à¸ł à¸²à¸£à¸ģ
à¸³à¸£à¸ĩ à¸ķà¸³à¹ģà¸«à¸Ļ
à¸Ĥ à¸Ńà¸ļ
Ġà¹ģà¸¥à¸° à¸ģ
à¸ļ à¸«à¸¥
à¹Ħ à¸ģ
à¸ĩ à¹Ħà¸§
e w
à¸§à¸ĩ à¸Ļ
à¹Ģà¸ª à¸¡
à¸¢ à¹ĥà¸«à¸¡
à¸Ľ à¸ģ
Ġà¸ģ à¸§
en s
à¸¢ à¸Ħ
à¸ģà¸²à¸£ à¸Ľà¸ı
a v
à¸²à¸Ļ à¸«à¸¥
à¸Ĭà¸²à¸§ à¸Ńà¹Ģà¸¡à¸£
à¸²à¸¢ à¸§
à¸Ľà¸£à¸°à¸ģà¸Ńà¸ļ à¹Ħà¸Ľà¸Ķ
à¹Ĥ à¸ª
ķ à¹
i k
2 3
à¸£ à¸Ńà¸Ķ
Ġà¸ª à¸«à¸£
à¸¡à¸²à¸ķà¸£ à¸Ĳà¸²à¸Ļ
à¹ģ à¸Ńà¸£
à¸Ńà¸ĩ à¹Ģà¸ģ
à¸¥à¸ĩ à¹Ģà¸¥
Ġ v
Ġà¸Ĺ à¸§
à¸¢ à¸ŀ
à¸²à¸¢ à¹Ħà¸Ķ
à¹Ģà¸Ł à¸£
à¸ĩ à¸ªà¸¡
à¸ĩ à¹Ģà¸Ħà¸£à¸²à¸°à¸«
e x
à¸²à¸Ļ à¸ļà¸²à¸Ĺ
à¹Ģà¸ŀà¸¥à¸ĩ à¸Ĺ
à¸ĺà¸Ļ à¸²à¸Ħà¸²à¸£
à¸ŀ à¹Ģà¸£
à¸Īà¸° à¹Ģà¸ģ
à¹Ħà¸Ĺà¸¢ à¸Ĺ
à¸Ĺ à¸¨à¸§à¸£à¸£à¸©
à¸Ļ à¸ŀà¸¥
à¸§à¸²à¸ĩ à¹ģà¸ľ
à¸ļ à¹Ģà¸ª
à¸Ĺà¸²à¸ĩ à¸ª
à¹Ģà¸Ń à¸Ĭ
à¸ĩà¸ļ à¸Ľà¸£à¸°à¸¡à¸²à¸ĵ
à¸ģ à¸ģà¸§
à¸²à¸Ļ à¸£
à¸¢à¸ĩ à¸ª
à¸Ńà¸Ļ à¹ģà¸ģ
or d
à¸³ à¸Ķ
à¸ª à¸¢
à¸ģ à¹Ģà¸ŀ
à¹Ħ à¸ŀà¸£
q u
Ġ X
à¸Ńà¸Ńà¸ģ à¸ĭ
à¸Īà¸° à¹ĥà¸«
à¸ª à¸¢à¸²à¸¡
g e
à¸Ń à¸¨
à¸Īà¸° à¹Ģà¸£
à¸ļà¸ģà¸²à¸£ à¸ķ
Ġ à¸łà¸²à¸¢à¹ĥà¸Ļ
à¸ĩà¸²à¸Ļ à¸Ĺ
à¸ļà¸ģà¸²à¸£ à¸ĵ
à¸Ħà¸§à¸²à¸¡ à¹Ģà¸ª
à¸ĸ à¸§à¸²à¸¢
ig ht
à¸Ħà¸§à¸²à¸¡ à¸§
à¸¡ à¸²à¸Ķ
à¸²à¸Ĺ à¸£à¸ĩ
à¸Ļ à¹ģà¸ģ
à¸Ļ à¸§à¸ĩ
à¸¥ à¸Ĥà¸Ńà¸ĩ
à¸Ļà¹ģ à¸Ļà¸§
à¸²à¹Ĥ à¸Ĺ
à¸¥ à¸ĭ
Ġ254 6
as s
à¸ª à¸łà¸²à¸
à¸įà¸²à¸ķ à¹ĥà¸«
Ġ8 0
Ġà¸ª à¹Ĥà¸¡à¸ªà¸£
à¸ł à¸²à¸¢à¸Ļà¸Ńà¸ģ
à¹Ģà¸Ńà¸² à¹Ħà¸§
à¸Ľà¸£à¸° à¸¢
Ġà¸Ħ à¸²à¸£
à¹ĥà¸Ļà¸ģà¸²à¸£ à¹Ģà¸¥
à¸ĩà¹ģà¸£à¸ģ à¹Ģà¸¡
à¸ŀà¸£à¸° à¸ļà¸£à¸¡à¸£à¸²à¸Ĭ
à¸¡ à¸Ńà¸ļ
à¸ĩà¸Ħà¸£à¸²à¸¡ à¹Ĥà¸¥à¸ģà¸Ħà¸£
à¸Ńà¸¥ à¹Ģà¸¥à¸¢
à¸ģà¸³ à¹ģà¸ŀ
à¹Ĥà¸Ķà¸¢ à¸ģà¸²à¸£
à¸Ľà¸£à¸°à¸Ĭà¸²à¸Ĭ à¸²à¸ķ
à¹Ĥ à¸Ļà¸¡
à¸²à¸¡ à¸ģ
à¹Ĥà¸Ľà¸£ à¸Ķ
Ġà¹ģà¸¥à¸° à¸Ľ
m ent
à¸Ńà¸ĩ à¸Ńà¸¢
à¸Ħà¸ĵà¸° à¸£
à¸Ħà¸Ļ à¹Ģà¸Ķ
à¸£ à¸²à¸ģ
à¸ĩ à¸Ĭà¸Ļà¸°à¹Ģà¸¥
Ġà¸Ľà¸£à¸°à¹Ģà¸Ĺà¸¨ à¸Ń
à¸Ļà¸Ħ à¸³
à¸ļ à¹ĥà¸Ļ
à¸ļ à¸§à¸ĩ
à¸ķ à¸Ń
à¸Ńà¸¢ à¹Ĩ
à¸¢à¸¡ à¸Ĺ
à¸Ķ à¹Ģà¸§
an t
à¸Ĺà¸£ à¸§à¸ĩà¸¨
à¸Ń à¹Ģà¸Ī
à¸²à¸¢ à¸Ĺà¸³
Ġà¹ĥà¸Ļ à¸ª
Ġ =
à¸¡ à¸ĸ
Ġ r
Ġ254 4
2 2
à¸Ńà¸ģ à¸Ĺ
à¸¡à¸²à¸£ à¸Ķ
à¸§à¸Ļ à¸¡à¸²à¸ģ
à¸° à¸£
à¸£à¸§à¸¡ à¸ģ
à¸£à¸°à¸¢à¸° à¸Ĺà¸²à¸ĩ
à¸° à¸®
à¸Ĥà¸Ńà¸ĩ à¸Ĭ
à¸Ĥà¸Ńà¸ĩ à¸Ĭà¸²à¸§
à¸²à¸§ à¸ģ
à¸Ľà¸£à¸°à¹Ģà¸Ĺà¸¨ à¸Ĺ
à¸Ĥà¸Ńà¸ĩ à¸ŀà¸£à¸°
Ġà¸Ļ à¸²à¸Ĺ
à¸¢ à¸¢
à¸«à¸¥à¸²à¸¢ à¸Ħà¸£
à¹ģà¸ŀà¸Ĺà¸¢ à¸¨à¸²à¸ªà¸ķà¸£
à¸§ à¹Ģà¸Ĥ
à¸ŀà¸£à¸° à¸ģà¸£
à¸Ħà¸§à¸²à¸¡ à¸¡
à¸¡à¸Ļ à¸²à¸Ħà¸¡
à¸¥ à¸Ł
à¸¥à¸°à¸Ħà¸£ à¹Ģà¸£
à¸ģà¸© à¸²à¸Īà¸²à¸ģ
à¸ŀà¸ļ à¹Ħà¸Ķ
à¸¡à¸« à¸²à¸Ķ
à¸§à¸¢ à¹Ģà¸«à¸ķ
à¸Ĺà¸ĺ à¸¨à¸²à¸ªà¸Ļà¸²
à¸ģ à¹Ħà¸Ľ
à¹ģà¸¥à¸° à¸Ħ
à¹Ģà¸ģ à¸ª
à¸Ľà¸£à¸²à¸ģà¸ı à¸§
à¸ŀ à¸ĩà¸©
à¸ªà¸¡ à¸Ńà¸ĩ
à¸Īà¸° à¸Ĺà¸³à¹ĥà¸«
à¸Ļà¸ª à¸ĸà¸²à¸Ļ
à¸²à¸ĩ à¹Ģà¸Ĥ
à¸ļà¸£à¸£ à¸¢à¸²à¸¢
à¸ŀ à¸ĩà¸¨
à¸ģà¸²à¸£ à¸Ľà¸£
à¸²à¸Ī à¸£
à¸§à¹Ĥà¸¡ à¸ĩ
Ġà¹ģà¸¥à¸° à¸Ķ
à¸Ńà¸¡ à¸Ķ
à¸Ĥ à¸ª
à¸¥ à¹Ģà¸Ķ
à¸Ķ à¸Īà¸²à¸ģà¸ģà¸²à¸£
à¸ĩ à¸®
à¸ĺ à¸Ļà¸ļ
à¸Ĺà¸³ à¹Ħà¸Ķ
à¹ĥà¸Ļà¸ģà¸²à¸£ à¸ķ
Âł Âł
à¹Ħà¸§ à¸£
à¸§à¸¢ à¸ķ
à¸ģà¸©à¸ĵà¸° à¹Ģà¸Ľ
à¸Īà¸° à¹Ģà¸Ĥ
à¸ļà¸Ľà¸£à¸° à¸Ĺà¸²à¸Ļ
à¸§à¸Ļ à¸Ļ
à¸ªà¸ĸà¸²à¸Ļ à¸°
à¸Ħà¸§à¸²à¸¡ à¸Ĭ
à¸ļà¸£à¸£ à¸Ĺ
à¸ŀ à¸Īà¸Ļ
à¸ģ à¹Ģà¸ķ
à¸²à¸ª à¸Ļ
à¹Ģà¸ Ŀ
à¸Ķ à¹Ģà¸ģ
à¸²à¸¢ à¸Ķ
à¸Ļà¸£ à¸²à¸¢à¸ģà¸²à¸£
e v
Ġ à¸Ľà¸£à¸°à¸ª
4 5
à¹ģà¸Ĺ à¸£à¸ģ
à¸Ńà¸¢ à¸²à¸ģ
Ġà¸Ļà¸³ à¹ģà¸ªà¸Ķà¸ĩà¹Ĥà¸Ķà¸¢
à¸ª à¸²à¸ĺà¸²à¸£à¸ĵà¸£
Ġ à¸īà¸ļ
à¸ļ à¹Ģà¸¡
à¸ļ à¹Ħà¸¡
à¸³ à¸ģà¸§
à¸ģ à¸Ĭà¸Ļ
à¸ģ à¹Ħà¸¡
à¸¢à¸Ļ à¸ģà¸²à¸£à¸ªà¸Ńà¸Ļ
à¸Ńà¸Ļà¸²à¸Ħ à¸ķ
à¸Ńà¸²à¸£ à¸¡à¸ĵ
à¸¥ à¸¯
à¸Ľ à¸ĸ
à¸ľà¸¥ à¸ģà¸£à¸°à¸Ĺ
à¸Ħ à¸ĭ
à¸Ń à¸«à¸¥
à¸Ĭ à¸²à¸Ĭ
à¸ģà¸²à¸£ à¸Ĺà¸³
à¸ģ à¸ł
à¸ĩ à¸Ł
à¸Ĥà¸Ńà¸ĩ à¸ŀà¸£à¸°à¹Ģà¸Ī
Ġ254 2
as t
à¸ļà¸Ĺ à¸Ńà¸Ķ
à¸Ļà¸ª à¸³à¸Ħ
b er
à¸Ń à¹Ģà¸ŀà¸¥à¸ĩ
à¸Ļà¸ķà¸ģ à¹Ģà¸ī
à¸²à¸ĩ à¸¥
à¸Ķ à¸ľ
à¸Ńà¸ģ à¹ĥà¸«
à¹ĥà¸Ļ à¸Ĺà¸²à¸ĩ
h er
à¸Ńà¸Ń à¸²à¸¢
à¹Ģà¸Ĭ à¸©à¸Ĳ
à¸ĺ à¸£
Ġà¹Ĥ à¸Ĺ
à¸²à¸ĩà¸Ĥ à¸§à¸²à¸ĩ
à¸ģà¸²à¸£ à¹ģà¸ļ
Ġ à¹ĥà¸ļ
à¸²à¸ķ à¸°à¸§
Ġà¹ģà¸¥à¸° à¸Ħ
à¸ĩ à¹Ĥà¸ķ
à¸§à¸Ļ à¸ª
à¸ģà¸© à¸²à¸Ħà¸§à¸²à¸¡
Ġ [
à¸Ńà¸ĩ à¹Ģà¸Ĭ
à¸ĩ à¸¡à¸²à¸ģ
Ġà¸Ĥ à¸Ļà¸²à¸Ķ
à¹ĥà¸Ļ à¸¤à¸Ķ
à¸Īà¸° à¸£
à¸Ĥà¸Ńà¸ĩ à¸ļ
Ġà¸Ĺ à¸£
à¸ĩà¸Ħ à¹Ĥà¸Ľà¸£
Ġà¸ĸ à¸Ļà¸Ļ
à¸¡ à¸§à¸¢
à¸ª à¸ĩà¸Ĩ
Ġà¸Ľà¸£à¸° à¹Ģà¸łà¸Ĺ
à¸²à¸ĩ à¸ģà¸§
ation al
à¸ķà¸£ à¸§
à¸Ķ à¸Ħà¸£à¸Ńà¸ĩ
à¸Ńà¸¡ à¹Ģà¸Ī
à¸ļà¸£ à¸ĸ
à¹Ģà¸Ķ à¸Ļ
8 0
à¸ļ à¹Ģà¸ŀ
à¹ĥà¸Ļ à¸Ńà¸Ķ
à¸¢ à¹Ģà¸Ķ
Ġà¹ģà¸¥à¸° à¹Ģà¸Ĥ
à¸¡ à¸§à¸¥
à¸²à¸ª à¸ķ
à¹Ģà¸ĺ à¸Ńà¸ģ
Ġ254 5
Ġà¹Ģà¸« à¸¡
à¸ĩ à¸°
à¸ĩ à¸ªà¸¡à¸²à¸Ĭ
à¸Ħ à¸Ń
à¸¢ à¸ļà¸£
i f
à¸²à¸ĩ à¸ļ
à¸ŀ à¸ķ
à¹ģà¸ķ à¸ģ
Ġ254 0
à¸ģà¸²à¸£à¸Ĺ à¸«à¸²à¸£
à¸Ł à¸Ł
ver s
à¸ŀà¸£ à¸«à¸¡
à¸¡à¹Ģà¸« à¸ª
à¸Ļà¸ª à¸²à¸¡
à¸¡ à¹ģà¸£à¸ģ
à¸²à¸Ĺ à¸Ńà¸¥
Ġà¸ª à¸ķ
à¸ŀ à¸ĺ
Ġ253 5
p er
à¸ļ à¸Ńà¸£
à¹Ĥà¸¢ à¸ĺ
Ġà¸¡ à¸²à¸Īà¸²à¸ģ
à¸§à¸¢ à¸£
Ġà¸£ à¸²à¸ĩà¸§
à¸łà¸²à¸Ħ à¹ĥà¸ķ
ar y
à¸į à¸ŀ
Ġà¹Ĥà¸Ķà¸¢ à¹Ģà¸£
à¸Ķ à¹Ħà¸Ľ
à¸²à¸Ļ à¸Ĺà¸²à¸ĩ
à¸¢à¸Ļ à¹Ħà¸Ľ
Ġ à¹Ħà¸Ĺà¸¢
à¸į à¸ģ
à¸¢à¸§ à¸Ĭà¸²à¸į
à¸¡ à¸ĩà¸Ħà¸¥
à¸Ļà¹Ģà¸Ķ à¸Ńà¸£
à¸° à¸ŀà¸²à¸Ļ
à¹Ĥ à¸«à¸¥
W E
à¸Ħà¸¥ à¸Ńà¸ĩ
Ġà¸Ńà¸³à¹Ģà¸ł à¸Ńà¹Ģà¸¡
Ġà¸£ à¸ĸ
e ar
à¸ªà¸§à¸£à¸£à¸Ħ à¸ķ
l d
Ġ253 9
à¸§ à¸²à¸Ķ
à¸²à¹ģ à¸Ļ
à¸²à¸ŀà¸£à¸° à¸¢
à¸ª à¸Ńà¸Ļ
à¸Ķ à¸¡à¸²
Ġà¸Ńà¸³à¹Ģà¸ł à¸Ń
Ġà¹ģà¸ª à¸Ķà¸ĩ
à¹Ģà¸ĭ à¸¥
à¸ģà¸²à¸£ à¸Ľ
à¸ģà¸²à¸£ à¹Ģà¸Ķ
à¸ķ à¸ģà¸¥
à¸²à¸ķà¸£ à¸Ĳà¸²à¸Ļ
à¸Ń à¸²à¸Ļ
à¸Ĥà¸Ńà¸ĩ à¸¢
Ġ à¸Ľà¸£à¸°à¸¡à¸²à¸ĵ
à¸Ľà¸£à¸²à¸ģà¸ı à¸ģà¸²à¸£à¸ĵ
à¹Ħ à¸«à¸Ļ
Ġà¸Ń à¸²à¸Ħà¸²à¸£
à¸²à¸§ à¸Ń
Ġà¹Ģà¸Ľ à¸¥
à¸£à¸²à¸¢ à¸¥à¸°à¹Ģà¸Ń
à¸ļ à¹Ģà¸Ħà¸£
à¸¢à¸ģ à¸Ĺ
a ti
à¸¢ à¹ĥà¸Ļ
à¹Ģà¸© à¸ģà¸ªà¸¡
Ġà¸Ī à¸Ńà¸«
à¸Īà¸° à¸¢
à¸Ĺà¸ĺ à¸¨
à¹Ģà¸ĭ à¸Ļ
à¸²à¸¢ à¸Ħ
à¸Ľà¸£à¸°à¸ª à¸ļà¸ģà¸²à¸£à¸ĵ
à¸¨ à¸²à¸Ī
à¸£à¸§à¸¡ à¸ĸ
à¸´ à¹ĭ
à¸²à¸ģ à¸§
à¸Ħà¸§à¸²à¸¡ à¹Ģà¸«
à¸²à¸§ à¸«à¸Ļ
à¸£à¸²à¸Ĭ à¸ªà¸³à¸Ļ
à¸Ļ à¸Ĭà¸Ļ
à¸ĩ à¹Ģà¸§
à¸ķà¸£ à¸Ĥà¸Ńà¸ĩ
à¸ŀà¸¥ à¸Ńà¸Ķ
à¸Ħà¸Ńà¸Ļ à¹Ģà¸ª
à¸ķ à¹ĥà¸Ī
Ġà¹Ģà¸Ń à¸Ł
à¸ĩà¹ģ à¸£à¸ĩ
à¸į à¸²à¸ĵ
à¸²à¸ ı
à¸£ à¸©
à¸ļ à¹Ģà¸ģ
à¸ļà¸ģà¸²à¸£ à¸£
Ġà¹Ģà¸Ĥ à¸²à¹Ģà¸Ľ
à¸ŀ à¸²à¸£
à¸Ĥà¸Ńà¸ĩ à¸¥
à¸¥ à¸²à¸Ńà¸Ńà¸ģ
Ġà¸£ à¸²à¸¢à¸ģà¸²à¸£
à¸ļà¸Ĺ à¸Ħà¸§à¸²à¸¡
à¸Ńà¸Ļ à¹ģà¸¥à¸°
à¹ĥà¸Ļ à¸£à¸°à¸«à¸§
à¸ĩà¸ĩà¸²à¸Ļ à¸ģ
à¸³ à¸ķ
à¸ģà¸£à¸° à¸ļ
à¸Ļ à¹Ĥà¸£à¸Ħ
à¸²à¸ļà¸£à¸¡ à¸§à¸ĩà¸¨
à¸ģà¸²à¸£ à¸Ĥ
à¹Ģà¸Ĺ à¸§
à¸Ķà¸ģà¸²à¸£ à¹ģà¸Ĥ
2 8
à¸ĩ à¸Ĺà¸³
à¸ļà¸ģà¸²à¸£ à¹Ģà¸¥
à¸Ńà¸ĩ à¸ģà¸³à¸¥
à¸Ńà¸Ļ à¸Ĭ
à¸§à¸²à¸ĩ à¸Īà¸³à¸«à¸Ļ
2 1
à¹ Ĳ
à¸° à¸¡
à¹ĥà¸Ļà¸ģà¸²à¸£ à¸£
à¸Ń à¹ģà¸ģ
à¸²à¸Ī à¸Ļà¸ĸ
à¸²à¸Ļ à¸¡à¸²
à¸Ļà¹ģ à¸Ĭà¸¡à¸Ľ
à¹ĥà¸Ļ à¹ģà¸ķ
à¸ķ à¹ģà¸¥à¸°
o us
à¸« à¸²à¸Ķ
Ġà¹ĥà¸Ļ à¸Ĳà¸²à¸Ļà¸°
à¸ĵ à¸²à¹Ĥà¸Ľà¸£
or y
i e
à¸± à¹ĭ
à¸Ļà¸ª à¸³à¸«à¸£
à¸Ħ à¸Ńà¸£
à¸²à¸Ļ à¹Ħà¸Ľ
Ġà¹Ģà¸Ķ à¸Ń
à¹ģ à¸Ĭ
à¸Ļà¸Ķ à¸²à¸¥
i p
Ġà¹ģ à¸Ľà¸¥à¸§
Ġà¸Ķ à¸Ńà¸ģ
à¸Ńà¸Ļ à¹Ģà¸Ľ
à¸ª à¹Ħ
Ġà¸¯ à¸¥à¸¯
à¸Ħà¸§à¸²à¸¡ à¸Ķ
à¸«à¸¥à¸²à¸¢ à¸Ħà¸Ļ
à¹ģà¸Ľ à¸ĭ
à¹Ĥà¸Ľ à¹ģà¸¥à¸Ļà¸Ķ
à¸Ńà¸¢ à¸Ħà¸£
à¸¡ à¹Ģà¸Ķ
à¸ĭ à¸²à¸Ļ
à¸Ļ à¸£à¸°à¸ļà¸ļ
à¸łà¸²à¸Ħ à¸ķà¸°à¸§
à¸Ľà¸£à¸°à¹Ģà¸Ĺà¸¨ à¸į
à¸Ľà¸£à¸° à¸ĸ
à¸¡ à¸²à¸ĸ
à¸§à¸Ħà¸£ à¸²à¸§
à¹Ĥà¸Ĥ à¸Ĺ
à¸ļà¸£à¸²à¸Ĭ à¸ģà¸²à¸£
à¸§à¸¢ à¸Ļ
Ġà¹ģ à¸Ī
Ġ200 5
à¸Ńà¸Ļ à¹Ģà¸ª
à¸ŀà¸¥ à¸²à¸Ķ
à¸Īà¸²à¸ģ à¸Ń
à¸²à¸Ļ à¸Ħà¸Ļ
à¹ģà¸ľ à¸Ļà¸ģà¸²à¸£
à¸²à¸§ à¸ª
à¸¡à¸« à¸²à¸Ĭà¸Ļ
à¸ªà¸ĸà¸²à¸Ļ à¸ģà¸²à¸£à¸ĵ
à¸ģà¸²à¸£ à¸Ļ
Ġ à¹Ħà¸§
à¸Ļà¸Ĺ à¸ļ
Ġà¹ĥà¸Ļ à¸Ń
à¸Ĥà¸Ńà¸ĩ à¹Ģà¸Ī
ter n
4 8
à¸«à¸²à¸£ à¸ª
à¸Ľ à¸²à¸£
r y
à¸§ à¸ĸ
Ġà¹Ģà¸ª à¸Ķ
à¸Ħà¸§à¸²à¸¡ à¹ģà¸ķà¸ģà¸ķ
à¸ķà¸£ à¸ĩà¸Ĥ
on d
à¸§à¸Ļ à¸³
à¸ķà¸³ à¸«à¸Ļ
à¸¢ à¸ĭ
à¸Ī à¸ª
à¸ĩà¹ģà¸£à¸ģ à¹ĥà¸Ļ
à¹Ģà¸Ĺà¸¨ à¸ģà¸²à¸¥
Ġ254 3
2 7
à¸²à¸¢ à¸Ħà¸¥
à¸²à¸Ļ à¹Ģà¸Ľ
à¸Ĭà¸²à¸§ à¸ļ
Ġà¹Ģà¸ĺ à¸Ńà¹Ħà¸Ķ
à¸ĩà¸£ à¸§à¸¡
à¹Ħà¸Ľ à¸£
à¹Ģà¸Ńà¸ģ à¸£à¸²à¸Ĭ
à¸ļà¸§ à¸Ĭ
à¸ļ à¸ļà¸£
à¹Ĥà¸¥à¸ģ à¸Ĺ
à¸Ĥà¸Ńà¸ĩ à¸ķà¸Ļ
à¸Ń à¸ªà¸¡
à¸Ńà¸Ļ à¸¢
à¹Ģà¸Ħ à¸¢à¸¡
à¹Ħà¸ĭ à¸Ķ
à¸ļ à¸ł
à¸¢à¸ģ à¸ģ
Ġà¸ľ à¸¥à¸ĩà¸²à¸Ļ
à¹Ģà¸Ĭ à¸Ńà¸£
i al
à¸ģ à¸Ľà¸¥
à¸ķà¸£ à¸²
à¸ī à¸¥à¸Ńà¸ĩ
Ġà¹Ģà¸ ī
à¸ģà¸³ à¸Ī
à¸ĵà¸²à¹Ĥà¸Ľà¸£ à¸Ķà¹Ģà¸ģà¸¥
à¸Ńà¸Ļ à¸ģà¸£
à¸²à¸Ļ à¹Ģà¸ģ
à¸Ļà¸ķ à¸°à¸Ľ
à¸ŀà¸£à¸°à¸£à¸²à¸Ĭ à¸ŀ
à¸ķà¸£ à¸Ķ
à¸¢à¸ģ à¸ķ
à¸Ļà¸Ħà¸£ à¸Ńà¸ĩà¸£à¸²à¸Ĭ
à¸²à¸ĺà¸²à¸£à¸ĵ à¸ª
à¹Ģà¸Ī à¸Ļ
à¹Ģà¸ĭ à¸Ł
ĠA l
à¸¢à¸Ļ à¸ģ
à¸²à¸Ń à¸²à¸§à¸²à¸ª
à¸¢à¸Ļ à¹Ħà¸Ķ
à¸²à¸§ à¸Ħ
2 6
à¹ģ à¸Ńà¸Ļà¸Ķ
in d
à¸¡ à¸łà¸²à¸©
Ġà¹ģ à¸Ļà¸§
à¸ļ à¹Ħà¸¥
o y
à¸¨ à¸¥
à¸ĺ à¸¢
Ġà¹ģà¸¥à¸° à¸Ĥ
à¹Ħ à¸Ńà¸£
or t
à¸Ļà¸ķà¸°à¸Ľ à¸²à¸Ľ
à¸¡ à¸«à¸Ļ
à¸ķà¸£ à¸²à¸ª
à¸Ńà¸ģ à¹Ģà¸Ĥ
2 9
à¸ģ à¹Ģà¸¡
à¸£ à¸Ńà¸ĩ
à¹Ģà¸Ľ à¸Ļ
à¸ķà¸£ à¸²à¸ģà¸²à¸£
à¹Ĥ à¸ģà¸£
à¸ĩ à¸ŀà¸¥
à¸ļ à¸ŀà¸¥
à¸¡ à¸²à¸Ĥà¸Ńà¸ĩ
à¸²à¸ĩ à¹ģà¸¥à¸°
à¸Ļà¸ķ à¸Ńà¸Ļ
à¸ģà¸£à¸° à¸ª
à¸Ĺ à¸Ļ
à¹ģà¸ªà¸Ķà¸ĩ à¹ĥà¸«
à¹Ĥà¸¥à¸« à¸°
à¸Ĺ à¸ª
à¸« à¸²
o v
à¸ģ à¹ģà¸ªà¸Ķ
à¸ļ à¹ģà¸¥à¸°
à¸Ĳ à¸Ľà¸£à¸°à¸«à¸²à¸£
à¹Ĥà¸¥ à¸§
Ġ Z
à¸Ńà¸ĩ à¸Ĭà¸²à¸¢
à¸£à¸£ à¸ĵ
ĠS h
à¸ĩ à¹ģà¸ļà¸ļ
à¸¡ à¹Ģà¸¥
à¸ģà¸© à¸²à¸Ķ
à¸¡ à¸Ńà¸¢
ĠA r
Ġà¸Ļ à¸²à¸ĩ
à¸²à¸ĩ à¹Ĥà¸Ķà¸¢
Ġà¹ģà¸¥à¸° à¸ļ
ĠP ro
à¸²à¹ģ à¸Ĭà¸¡à¸Ľ
à¸Ī à¸²à¸£
Ġà¹ģ à¸®
19 9
Ġ à¸łà¸²à¸ŀ
à¸Ľà¸£à¸°à¸¡ à¸§à¸¥
à¸Ľà¸¥à¸²à¸¢ à¸Ľ
à¸¡à¸² à¹ģà¸¥
à¸Ĩ à¸²à¸ķ
à¸²à¸§ à¹Ħà¸Ķ
à¸Ĺà¸£à¸ĩ à¹Ģà¸Ľ
à¸¢à¸ĩ à¹ģà¸Ħ
à¹Ģà¸ŀà¸¥à¸ĩ à¸Ļ
3 5
Ġà¹Ģà¸« à¸ķ
à¸Ķ à¹ģà¸«
à¸ªà¸²à¸¡à¸²à¸£à¸ĸ à¹ĥà¸Ĭ
à¸ģà¸£ à¸§à¸²à¸¥
Ġà¸Ł à¸£
à¸Ļà¸ģà¸²à¸£ à¹ģà¸Ĥ
à¸ĭà¸² à¹Ģà¸ļ
à¸Īà¸ŀà¸£à¸° à¸ª
à¸¡à¸²à¹Ģà¸¥ à¹Ģà¸ĭ
à¸Ńà¸Ļà¸¡ à¸ģà¸£à¸²à¸Ħà¸¡
à¸Ĥà¸Ńà¸ĩ à¸ģ
à¹Ģà¸ģà¸£ à¸²à¸°
Ġà¸Ħà¸³ à¸§
à¸² à¹Ģà¸ķ
à¸Ńà¸Ļ à¸ĺ
à¸ĩà¸Īà¸²à¸ģ à¸ģà¸²à¸£
Ġà¹ĥà¸Ļ à¸ªà¸¡
à¸ĩà¹Ģà¸Ĺà¸ŀ à¸¯
à¸ĩà¸Ħ à¸ĵà¸°
Ġà¹Ĥà¸Ķà¸¢ à¹Ħà¸¡
à¸Ľà¸£à¸° à¸ģà¸²à¸£
à¸Ńà¸¡ à¸ŀ
à¹Ĥà¸ĭ à¸Ļ
id e
à¹Ĥà¸Ľà¸£ à¸Ķà¹Ģà¸ģà¸¥
à¸¡à¸« à¸²à¸ģà¸©
Ġ253 8
Ġ200 4
à¸Īà¸° à¸Ī
à¸Ķà¹ĥà¸Ļ à¹Ĥà¸¥à¸ģ
à¸Ķ à¸«à¸¥
à¸Ħ à¸ģ
à¸§à¸Ļ à¸ģ
Ġ201 9
à¸ļ à¸łà¸²à¸ŀà¸¢à¸Ļà¸ķà¸£
à¸¢à¸Ļ à¸Ļ
à¸ªà¸ĩà¸Ħà¸£à¸²à¸¡ à¹Ĥà¸¥à¸ģà¸Ħà¸£
à¸²à¸¢ à¹Ģà¸¡
n d
à¸Ĥà¸Ńà¸ĩ à¸Ľ
à¸Ļ à¹ĥà¸Ĭ
à¸¡ à¸ĩà¸ģ
à¸£à¸°à¸ļ à¸Ńà¸ļ
Ġà¸ŀà¸§à¸ģ à¹Ģà¸Ĥ
à¸§à¸£à¸£à¸ĵ à¸ģà¸£à¸£à¸¡
à¸Ļà¸ķ à¸ģà¸Ĥà¸Ńà¸ĩ
à¸Ńà¸ĩà¸Īà¸²à¸ģ à¸¡
à¹Ģà¸Ĺà¸¨à¸ļà¸²à¸¥ à¸ķà¸³à¸ļà¸¥
à¸ªà¸«à¸£ à¸²à¸Ĭà¸Ńà¸²à¸ĵà¸²à¸Ī
à¸²à¸ĩ à¸Ĭà¸²à¸ķ
à¸²à¸ª à¸£
à¸¨ à¸¡
à¸Ń à¸ķà¸²à¸¡
à¹Ħà¸Ľ à¹ģà¸¥
à¸Ļà¹ĥà¸Ļ à¸Ĺ
à¸Ļ à¸Ńà¸Ķ
à¹ĥà¸Ļ à¸«à¸¡
à¸Ļà¸ģ à¸³à¹Ģà¸Ļ
à¸¡à¸° à¹Ģà¸£
à¸³ à¹Ģà¸ĩ
à¸£à¸§ à¸ļà¸£à¸§à¸¡
à¸²à¸ģ à¸¢
à¸«à¸¥à¸§à¸ĩ à¸ŀ
à¸Ńà¸ĩ à¸«à¸¡à¸²à¸¢
Ġà¹ģà¸¥à¸° à¹ĥà¸Ĭ
à¸£à¸²à¸Ĭ à¸ĺà¸²à¸Ļ
ĠC om
à¸Ļ à¸Ľà¸£à¸°à¸Īà¸³
à¸Ķà¹Ģà¸Ī à¸Ļ
à¸¡à¸«à¸²à¸Ķ à¹Ħà¸Ĺà¸¢
à¸ĩ à¹Ģà¸Ħà¸£
à¸Ľ à¸Ļ
à¸²à¸Ļ à¸²à¸Ĭà¸²à¸ķ
à¹Ģà¸Ķ à¸¥
à¹Ħà¸Ľ à¸Ńà¸¢
à¹ģ à¸Ļà¸ģ
à¸´ "
à¸§ à¸²à¸ª
à¸Ľà¸£à¸°à¸ģà¸²à¸¨ à¸§
à¹Ģà¸Ļ à¸Ĭ
à¸ģà¸² à¹ĥà¸ķ
à¸ĩ à¹ĥà¸Ļà¸ģà¸²à¸£
à¸Ľà¸£à¸°à¸ª à¸²à¸Ļ
à¸ĩ à¸Ľà¸£
à¹Ģà¸§ à¸Ĭ
à¹Ģà¸Ħ à¸²à¸£
à¸« à¸²à¸ĩ
à¸ŀà¸Ń à¹ĥà¸Ī
à¸ľà¸¥ à¸ķ
à¸² à¹ģà¸¡
à¹Ģà¸Ĺ à¸Ļà¹Ģà¸¡
à¸ģà¸Ńà¸ĩ à¸ģà¸³à¸¥
à¹ģà¸¥à¸° à¸Ĭ
à¸²à¸Ļà¸Ķ à¸Ńà¸¥à¸¥à¸²à¸£
à¸Ĺà¸¢à¸²à¸Ļ à¹ģà¸«
à¸ģ à¸Ľà¸£
à¸Ĺà¸²à¸ĩ à¸ķà¸Ńà¸Ļ
Ġà¸ģà¸²à¸£ à¸Ĺ
Ġ7 0
à¸ĭ à¸Ńà¸Ł
à¸¢à¸Ļ à¸Ī
Ġà¹Ģà¸Ĥ à¸²à¸¢
à¸Ľà¸£à¸° à¹Ģà¸Ķ
à¸ļà¸£à¸£ à¸ĵ
à¸¡ à¸²à¸Ĺ
à¸Ńà¸¡ à¸£
à¸²à¸ĩ à¹Ģà¸¡
à¸² à¹Ĥà¸¡
à¸Ĳ à¸Ń
à¹Ħà¸Ľ à¹Ħà¸Ķ
à¸ªà¸£ à¸²à¹Ģà¸Ńà¸¥
Ġà¸ŀà¸£à¸£ à¸©à¸²
à¹Ħà¸Ľ à¹Ģà¸Ľ
à¸¡ à¹Ģà¸ŀ
à¸Ńà¸ĩ à¹Ģà¸ª
à¸²à¸ĩ à¹Ħà¸£
à¸Ļà¹Ģà¸ŀ à¸£à¸²à¸°
à¸ģà¸ª à¸²à¸§
à¸£ à¸ĵà¸°
à¸Ķ à¸ĩà¸²à¸Ļ
Ġà¹ģ à¸ĭ
à¸Ķ à¹Ģà¸Ĺ
Ġà¸ª à¸Ļà¸²à¸¡
à¸¨ à¹Ģà¸«à¸Ļ
à¸ģà¸ĭ à¸²à¸Ļ
7 0
à¸ĩ à¹Ĩ
à¸Ļà¸Ħ à¸Ļà¸Ĺ
à¸§ à¸²à¸Ļ
Ġ3 5
à¸ģ à¸¤à¸Ķ
à¸ķ à¹Ħà¸Ķ
à¹ĥà¸Ļ à¸łà¸²à¸ŀà¸¢à¸Ļà¸ķà¸£
à¸ģà¸©à¸ĵà¸° à¸Ĺ
à¸¢à¸Ńà¸Ķ à¸Ĥà¸²à¸¢
à¸Ļà¹Ħ à¸«à¸§
à¸Ķ à¹ģà¸£à¸ģ
Ġà¸ª à¸¢à¸²à¸¡
à¹Ģà¸Ńà¸ģ à¸Ĭà¸Ļ
it h
à¸Ļà¸Ķ à¸£
à¸ļà¸²à¸ĩ à¸Ńà¸¢
à¸įà¸į à¸²à¸ģ
à¸Ĥà¸Ńà¸ĩ à¸ģà¸¥
Ġà¹ģà¸¥à¸° à¸ģà¸¥
25 5
Ġà¸Ħ à¸Ļà¸Ĺ
à¸Ĺ à¸¤à¸©à¸İ
Ġ re
à¸Ľà¸£à¸°à¸ģà¸§ à¸Ķ
à¸Ħ à¸Ńà¸¢
à¸Ń à¹Ģà¸ŀà¸¥
à¸ļà¸ª à¹Ĥà¸¡à¸ªà¸£
à¸Ļ à¹Ģà¸ģà¸¡
à¸¢à¸ĩ à¹Ģà¸Ľ
à¸Ķ à¸¢à¸Ńà¸Ķ
à¸Ķà¸³ à¸£
à¸ļà¸ļà¸Ĺ à¹Ģà¸Ľ
à¸²à¸ĩà¸ª à¸£à¸£à¸Ħ
a i
Ġà¸ª à¸§
à¸¡ à¹Ģà¸Ń
à¸ŀ à¸Ļà¸¡
à¹ģà¸¥à¸° à¹Ħà¸¡
à¸§à¸ĩ à¹ģà¸£à¸ģ
Ġ200 0
Ġà¸ļ à¸²à¸£
Ġà¸ģà¸£à¸° à¸Ĺà¸£à¸§à¸ĩ
à¸£à¸° à¸¥
à¸ŀ à¸Ļà¸ĺ
à¸Ńà¸ĩ à¸ģà¸¥
à¸įà¸« à¸²
à¸Ń à¹Ģà¸Ĭ
à¸³ à¹ģà¸Ĥ
à¹Ģà¸¡ à¸Ļà¸ķ
à¸²à¸ķ à¸²à¸¡
Ġ19 0
à¸Ĭ à¸Ļà¸Ļ
à¸²à¸Ĥ à¸²à¸§
à¸ļ à¸Ħà¸³
à¹ģà¸¥à¸° à¸ģ
à¸Ļà¸Ń à¸²à¸Ī
à¸Ńà¸¡à¸² à¹Ģà¸¡
w ard
Ġf or
à¹Ģà¸ªà¸Ļà¸Ń à¸Ĭ
à¸ĺà¸£à¸£à¸¡ à¸£à¸²à¸Ĭ
à¸²à¸ģ à¸£à¸¡
à¸¢à¸ĩ à¸Ħ
à¹Ģà¸® à¸Ļà¸£
à¸ģà¸ļ à¸ı
à¹Ħ à¸ª
à¸ļà¸£à¸£ à¸¢
à¸²à¸Ļ à¸ļ
à¸ĩà¸Ħ à¸²à¸£
Ġà¹ĥà¸Ļ à¸Ļ
à¹Ģà¸Ńà¸ģ à¸ĭ
à¸ª à¸ĩà¸ļ
Ġà¹ģ à¸Ĥ
à¸ŀà¸£à¸° à¹Ģà¸ģ
Ġà¹ģà¸¥à¸° à¸¥
à¸£ à¸²à¸©à¸İà¸£
à¸Ĥà¸Ńà¸ĩ à¹Ģà¸¡
à¸Ń à¸ŀà¸¢à¸ŀ
à¸ªà¸¡ à¸£à¸ª
à¸Ńà¸ļ à¸Ħà¸£
à¸ļà¸ģà¸²à¸£ à¸Ī
à¸¥à¸° à¸¥à¸²à¸¢
à¸ģ à¸Īà¸²à¸ģ
à¸Ńà¸ĩ à¹Ģà¸Ĥ
à¸Ńà¸ĩ à¸Ľà¸ı
à¸ļà¸Ħà¸§à¸²à¸¡ à¸£
à¸ļ à¹Ģà¸Ń
Ġà¸ªà¸ĸ à¸²à¸ļ
à¸Ń à¹Ģà¸¢
à¸Ĺà¸³ à¸£
à¸§à¸¢ à¸Ĭ
à¹Ĥ à¸Īà¸£
à¸Ķ à¹Ģà¸ª
à¸Ńà¸²à¸Ī à¸¡
à¸ľà¸¥ à¸Ĺ
à¸¢à¸Ļ à¸ļà¸Ĺ
Ã ©
à¸²à¸¡ à¸«à¸²à¸§
à¸Ļà¸Ĺ à¸£à¸ĩ
ic e
à¸²à¸Ľ à¸ı
à¸ģà¸£ à¸Ĺ
or ld
à¸įà¸į à¸²à¹Ĥà¸Ĺ
à¹ģà¸ģà¸£ à¸Ļà¸Ķ
à¸Ķ à¸«à¸¡à¸²à¸¢
Ġà¸ª à¸ģ
à¸²à¸«à¸¥ à¸§à¸ĩ
à¸ķ à¸Ńà¸Ļà¸Ĺ
à¹ģà¸¥à¸° à¸Ĥ
Ġà¸ŀ à¸ļ
à¸¥ à¸Ńà¸¢
à¸Ķ à¹ĥà¸«à¸¡
à¸¢à¸Ļ à¸Ń
à¹Ħà¸Ĥ à¸¡
à¸ļà¸£à¸£à¸¢ à¸²à¸ģà¸²à¸¨
à¸Ńà¸ĩ à¸Ł
à¸Ĥà¸Ńà¸ĩà¸ª à¸«à¸£
à¸³ à¸ļà¸¥
à¸ķ à¸¡
Ġà¹ģ à¸Ł
à¹ĥà¸Ļà¸ģà¸²à¸£ à¸Ī
Ġà¸Īà¸° à¹Ħà¸Ķ
à¸Ńà¸Ļà¹Ģà¸¡ à¸©à¸²à¸¢à¸Ļ
à¸Ńà¸Ļà¸ŀ à¸¤à¸©à¸łà¸²à¸Ħà¸¡
à¸³ à¸ŀ
à¸¡ à¹ĥà¸Ļ
Ġà¹Ĥà¸Ķà¸¢ à¸ľ
am p
à¸Ĺà¸¢à¸² à¹Ģà¸Ĥà¸ķ
Ġà¸ķà¸²à¸£ à¸²à¸ĩà¸ģ
i z
à¸ļà¸£à¸£ à¸ŀ
à¸ķ à¹Ģà¸Ľ
à¸Ĥà¸Ńà¸ĩ à¹Ģà¸£
à¸ģà¸© à¸°
à¸Ńà¸ĩà¸ģ à¸ĩ
à¹Ĥ à¸£à¸°
à¸Ħà¸Ļ à¹ģà¸£à¸ģ
à¸«à¸¥à¸Ńà¸Ķ à¹Ģà¸¥
Ġ à¸§à¸ĩà¸¨
à¸¥à¸ĩ à¸Ļà¸²à¸¡
ag e
à¸Ķ à¹Ģà¸«à¸ķ
à¹ģà¸¥à¸° à¸¥
à¸Īà¸²à¸ģ à¸ª
à¸ªà¸° à¸ŀà¸²à¸Ļ
Ġà¹Ģà¸Ħ à¸¢
à¸Ľà¸£ à¸¡
à¸ģà¸£ à¸Ńà¸ļ
à¸Ħà¸§à¸²à¸¡ à¹Ģà¸Ĥ
Ġà¹Ĥà¸Ķà¸¢ à¸ķ
à¸Ľ à¸¢
à¸£à¸²à¸Ĭ à¸¢
à¸Ħà¸Ļ à¹Ħà¸Ĥ
à¸Ļà¸ķ à¸³à¹ģà¸«à¸Ļ
à¸ģà¸³à¸«à¸Ļ à¸Ķà¹ĥà¸«
à¸ģà¸£ à¸Ķ
à¸ªà¸£ à¸ĵ
à¸Ļ à¹Ģà¸§
à¸Ļà¸ª à¸²à¸£
à¸į à¸Ĭà¸²à¸ķ
Ġà¹Ĥ à¸®
à¹ģà¸Ĥ à¸§à¸ĩ
is s
à¸Ļà¸ķà¸£ à¸²à¸¢
à¹Ĥà¸Ĺà¸£ à¸¨
à¸ģ à¹Ħà¸§
à¸Ħ à¸ª
à¹ģà¸¥à¸° à¸ĸ
à¸Ħà¸§à¸²à¸¡ à¸Ļ
à¹Ģà¸ľ à¸Ĭ
à¸ļ à¸Ľà¸£à¸°à¹Ģà¸Ĺà¸¨
à¸ģà¸² à¹Ģà¸«à¸Ļ
à¸¢à¸ĩ à¸£
à¸Ńà¸Ļà¸ŀ à¸¤à¸¨à¸Ī
à¸Ĥà¸Ńà¸ĩ à¸ĭ
Ġà¸Ķ à¸²à¸§
à¸Ļ à¹Ĥà¸ķ
à¸Ļà¸Ķ à¸²
à¸Ī à¸Ńà¸«
à¸Ńà¸ª à¸ķ
Ġ24 4
à¸«à¸¥ à¸²à¸Ķ
Ġà¹ģà¸¥à¸° à¹ĥà¸«
o ve
à¸§à¸¡ à¸ģà¸²à¸£à¹ģà¸Ĥ
à¹Ĥà¸£à¸ĩ à¸ĩà¸²à¸Ļ
à¸ĩà¹ģà¸£à¸ģ à¸Ĺ
à¸²à¸ª à¸²à¸£
Ġà¸Ļ à¸Ħà¸£
à¸Ķà¸ª à¸Ńà¸Ļ
à¸Ńà¸ĩ à¸Ĭà¸Ļà¸°à¹Ģà¸¥
à¸Ļà¸ª à¸²à¸¢
à¸Ĥ à¸Ń
à¸ĩ à¸Ŀ
à¸ļà¸Ļ à¸ŀ
à¸Ħà¸§à¸²à¸¡ à¸ĸ
à¸Ļà¸£ à¸²à¸ĩà¸§
Ġà¹Ĥà¸Ķà¸¢ à¹ĥà¸«
à¸Ńà¸¢ à¸ª
à¸¥à¸° à¸ķ
à¸ª à¸Ļà¸ĺ
à¸ļ à¹Ģà¸Ļ
u g
à¸¨ à¸Ĺà¸²à¸ĩ
on t
à¸¡à¸²à¸£ à¸Ķà¸²
a w
à¸£à¸© à¸°
h n
à¸²à¸Ĭ à¸²à¸§
à¹Ģà¸Ĥ à¸¡à¸£
Ġd e
à¸²à¸ŀ à¸£à¸£à¸Ħ
à¸Ķ à¸ŀà¸£à¸£à¸Ħ
à¹Ĥà¸£à¸ĩ à¹ģà¸£à¸¡
id ae
à¸Ńà¸Ļ à¸³
à¹Ģà¸§à¸¥ à¸²à¸Ĺ
à¸ª à¸Ńà¸Ķ
à¸Ħ à¸²
à¸¢ à¸£à¸²à¸Ĭ
à¸Ļà¸²à¸¡ à¸§
à¸Ļ à¸«à¸¥à¸²à¸¢
à¹Ĥ à¸«
à¸£ à¸ŀ
à¸Īà¸° à¸Ńà¸¢
Ġà¸Ń à¸²à¸¢
à¸²à¸¢ à¸¡à¸²à¹Ģà¸Ľ
à¸«à¸Ļ à¸²à¹ģà¸Ļ
à¸Īà¸ŀà¸£à¸° à¸ŀ
à¸Ļ à¹Ħà¸Ĺà¸¢
à¸¨ à¹ĥà¸ķ
ĠW WE
Ġà¸Īà¸° à¸ķ
Ġ254 1
or e
à¸ģà¸¥à¸²à¸ĩ à¹Ģà¸¡
à¸¢à¸ĩ à¸£à¸²à¸¢
Ġ199 0
Ġà¸Ķ à¸¢
à¸Ļ à¹Ģà¸«à¸¥
à¸Ļ à¸īà¸ļ
à¸²à¸Ľ à¸¥
à¸²à¸Ļ à¸ľ
à¸ļ à¸²à¸ģ
à¸Ľà¸£à¸°à¸ģà¸Ńà¸ļ à¸ģ
à¸²à¸Ľà¸£à¸° à¸Īà¸³
à¸§ à¹ĥà¸«
à¸Ķ à¹Ģà¸Ĥ
à¸ª à¹Ĥà¸ģ
Ġà¸Ħ à¸°à¹ģà¸Ļà¸Ļ
à¸§ à¹Ģà¸¥à¸Ĥ
Ġà¸ŀà¸£à¸° à¸Ļà¸²à¸ĩ
à¹Ĥà¸ĭ à¸¥
à¸ĩ à¸§à¸ĩ
à¸²à¸ª à¸ª
à¸Ļà¸Ħà¸£ à¸¨à¸£
à¸²à¸Ļ à¹Ģà¸£
à¸¡ à¹ĥà¸«
Ġà¸Īà¸° à¹Ģà¸Ľ
à¸ĩ à¹Ģà¸ķ
à¸¢ à¸²à¸łà¸£à¸ĵ
à¸Ľ à¸°
à¹ĥà¸Ļ à¸£à¸°à¸ļà¸ļ
à¹Ĥ à¸ŀà¸¥
à¸²à¸ļ à¸Ĺ
Ġà¸¢ à¸²à¸§
à¹Ģà¸« à¸§
Ġà¹Ĥà¸Ķà¸¢ à¸ª
à¸Ķà¸²à¸§ à¸Ļ
à¸ķ à¸ľ
Ġà¸ªà¸²à¸Ĥ à¸²à¸§
à¸Ĭà¸Ĺ à¸²à¸¢à¸²à¸Ĺ
Ġà¸ģà¸²à¸£ à¸ª
Ġà¹ģà¸¥à¸° à¹Ģà¸ŀ
à¹Ħà¸Ľ à¸ģ
à¸ī à¸¥
à¸Ħ à¸Ĭ
à¸łà¸²à¸ŀ à¸Ĥà¸Ńà¸ĩ
oc k
à¸§ à¹Ģà¸¥
à¸²à¸ĺ à¸£à¸£à¸¡
à¸²à¸Ľà¸£à¸° à¸¡à¸²à¸ĵ
à¸«à¸¡ à¸§à¸Ķ
à¹ģ à¸ļà¸Ħ
Ġà¹ģà¸¥à¸° à¸«à¸¥
Ġà¸ª à¸²à¸£
à¸¡ à¸ģà¸²à¸£
à¸Ķ à¸Ńà¸Ńà¸ģ
à¹ģà¸£à¸ĩ à¸ĩà¸²à¸Ļ
à¸Īà¸³ à¹ģà¸Ļà¸ģ
Ġà¹Ĥ à¸Ĭ
à¸¢ à¸¢à¸¨
à¸Ķ à¹Ĥà¸Ķà¸¢
à¸Ķà¸ģà¸²à¸£ à¸Ĺ
à¸Ńà¸¡ à¸¡
Ġà¹ģ à¸ģà¸£
à¸¢ à¸Ĥ
à¸Ľà¸£ à¸²à¸ģà¸²à¸£
à¸ļ à¹Ģà¸Ľà¸¥
à¹ģà¸¥à¸° à¸ļ
à¸ĩ à¸Īà¸°à¸¡
à¹Ģà¸¢ à¸ĭ
Ġ9 0
à¸ķà¸£ à¸ģà¸£à¸£à¸¡
Ġ253 7
à¸ŀà¸¥ à¹Ģà¸£
Ġ à¹Ĥà¸Ķ
à¸Ļà¸ģà¸²à¸£ à¸Ĺ
à¸ŀà¸£à¸° à¹Ĥà¸Ńà¸£à¸ª
à¸Ĺà¸²à¸ĩ à¹Ģà¸ŀà¸¨
à¸²à¸į à¸Īà¸Ļ
à¸Ļ à¸«à¸¡à¸²à¸¢à¹Ģà¸¥à¸Ĥ
à¸Ńà¸¡ à¸Ļ
à¸¡ à¸ŀà¸£
à¸Ĭ à¸ģà¸²à¸¥
à¸Ĳà¸²à¸Ļà¸° à¹Ģà¸Ľ
à¸Ļ à¹Ħà¸§
à¸¡ à¸Ŀ
ar k
à¸Ī à¸Ńà¸£
à¸ļ à¹Ģà¸ĩ
à¸Ľà¸¥ à¸²
à¸¨ à¸ģ
à¸¢à¸ĩ à¸Ĥà¸Ńà¸ĩ
à¹ĥà¸Ļà¸ģà¸²à¸£ à¸ª
à¹Ģà¸Ĺ à¸£
Ġà¸¨ à¸²à¸¥
Ġà¸ģà¸²à¸£ à¸ķ
à¹Ģà¸¥à¸Ĥ à¸²à¸ĺ
à¸Ńà¸Ļ à¸ĭ
à¸Īà¸³ à¸¥à¸Ńà¸ĩ
à¹Ģà¸§ à¸Ļ
à¸Ńà¸ķ à¹ģà¸¥à¸Ļà¸Ķ
à¸ĩà¸ķ à¸°à¸§
à¸ļ à¸ªà¸¡
à¸²à¸ĩ à¸ģà¸²à¸£
Ġ à¸«à¸¥à¸²à¸¢
à¸ŀà¸£à¸° à¸ļ
à¸ģ à¸Ĺà¸³à¸¥à¸²à¸¢
Ġs t
à¹ģà¸ªà¸Ķà¸ĩ à¸§
un d
9 0
m e
à¹Ģà¸Ī à¸Ķ
à¸ģ à¹ĥà¸«
à¸ª à¸Ħ
à¸Ńà¸Ńà¸ģ à¹Ģà¸ª
à¹Ģ à¸Ńà¸£
à¸²à¸Ī à¸Ńà¸¡
à¸¢à¸ĩ à¸Ī
à¸Īà¸° à¸Ĺà¸³
à¸Ńà¸ĩà¸ª à¸²à¸§
à¸Ń à¸®
à¸ĩà¸Ĺ à¸«à¸²à¸£
à¸Ńà¸Ļà¸ģà¸£ à¸ģà¸İà¸²à¸Ħà¸¡
à¸²à¸¡ à¸§
à¸Ńà¸ķ à¸ģà¸¥
à¸ģà¸Ĺà¸£ à¸Ńà¸Ļ
à¹Ĥà¸¡ à¹Ģà¸¥à¸ģ
à¸ļà¸Ńà¸ģ à¸§
à¹ĥà¸Ļ à¸¡
à¸Ļ à¸ŀà¸£
à¹Ħ à¸«
à¸ķà¸ļà¸Ńà¸¥ à¹Ĥà¸¥à¸ģ
c om
à¸³ à¹Ģà¸ŀ
i es
à¸§ à¸Ľà¸£à¸°à¹Ģà¸Ĺà¸¨
en ce
Ġà¹ģà¸¥à¸° à¸«
à¸Ľà¸£ à¸²à¸¡
à¸Ī à¸²à¸Ħ
à¸ļà¸ģà¸²à¸£ à¹ģà¸ķ
à¹Ģà¸Ĥ à¸²à¹Ģà¸Ľ
à¹ĥà¸Ļ à¸§à¸ĩ
à¸ģà¸© à¸²à¸ª
à¸Ļ à¸Īà¸°à¸¡
à¸ģ à¹Ģà¸ļ
à¹Ģà¸Ļ à¹Ģà¸ĺà¸Ńà¸£
à¸²à¸ļ à¸Ķ
Ġà¸Ļà¸Ńà¸ģ à¸Īà¸²à¸ģ
à¸Ħ à¸¡à¸Ļà¸²à¸Ħà¸¡
à¹Ħ à¸«à¸¡
à¹ĥà¸Ļ à¸ĭ
à¸Ļà¹Ĥ à¸¢à¸ļà¸²à¸¢
à¸ķ à¹Ĥà¸Ļà¸¡
à¹Ħà¸Ł à¸¥
à¸Ļà¸Ħà¸£à¸Ńà¸ĩà¸£à¸²à¸Ĭ à¸¢
à¸Ħà¸£à¸Ńà¸ļ à¸Ħà¸¥
à¹Ģà¸Ĭ à¸ªà¹Ģà¸ķà¸Ńà¸£
Ġà¸ģà¸²à¸£ à¸Ī
à¸Ļ à¹ĥ
Ġà¸Ń à¸°
Ġà¹ģà¸¥à¸° à¸ªà¸²à¸¡à¸²à¸£à¸ĸ
Ġà¸ļà¸²à¸ĩ à¸Ħà¸£
s s
à¸¢à¸ĩ à¸¥
à¸ļ à¸²à¸Ķà¹Ģà¸Ī
à¸¢ à¹ģà¸«
as e
à¸² à¹ģà¸ķ
à¹Ħ à¸Ĭ
à¸ģ à¹Ģà¸Ĭ
à¸Ħ à¸²à¸¡
à¸ŀà¸£à¸° à¸ļà¸£à¸¡
Ġà¹ĥà¸Ļ à¸¢
à¸Ļà¸Ķà¸²à¸¥ à¹ĥà¸Ī
à¸± à¹Ĭ
à¸Ľ à¸ģà¸Ľ
à¹ĥà¸Ļ à¸£à¸°à¸¢à¸°
à¸²à¸ģ à¸£à¸£à¸¡
à¸ķ à¸Ķ
à¸Ļà¸ģà¸²à¸£ à¸¨
à¸¢à¸ĺà¸£à¸£à¸¡ à¸¨à¸²à¸ªà¸ķà¸£
i v
à¸Ĺà¸£à¸ĩ à¸¡
Ġ253 4
à¸ģ à¸²à¸Ļ
à¹Ħ à¸Ĺà¸£
à¸ĩà¹ģ à¸ģà¸£
Ġ à¸Ħà¸§
à¸ļà¸£ à¸Ńà¸ļ
Ġà¹Ģà¸ģ à¸²à¸°
à¸ģà¹Ģà¸ģ à¸Ńà¸£
à¸« à¸Ľà¸£à¸°à¸Ĭà¸²à¸Ĭà¸²à¸ķ
à¸¡ à¹Ģà¸£
à¸ģà¸©à¸ĵà¸° à¸Ħà¸¥
à¸Ļ à¸¥à¸ĩ
à¸Ńà¸ĩ à¸¡à¸²à¸Īà¸²à¸ģ
à¸¥ à¸ŀ
à¸ģà¸© à¸²à¸§
à¸¢à¸ļ à¹Ģà¸£
à¸Ĺ à¸ģ
à¸¡ à¸Ńà¸£
âĢ Ļ
à¸¡à¸Ńà¸ĩ à¹Ģà¸«
à¹ģ à¸ĩ
à¸Ńà¸ĩ à¸Ļà¸³
à¹Ĥ à¸¡à¸Ļ
à¸²à¸¢ à¸«à¸Ļ
à¸łà¸²à¸Ħ à¹Ģà¸«à¸Ļ
à¸¡ à¸Ńà¸Ļ
à¸¡ à¹ģà¸¡
m an
à¸£à¸§à¸¡ à¸ķ
à¸Ļà¹Ħà¸Ľ à¸ķà¸²à¸¡
Ġà¹Ģà¸Ĥ à¸²à¸ģ
à¸²à¸£à¸° à¸«à¸§
à¸Ń à¸²à¸ª
à¹ĥà¸Ķ à¹Ĩ
à¸¢à¸§ à¸ļ
Ġà¸ŀà¸£à¸° à¸ŀ
à¸²à¸Ľà¸£à¸° à¹Ģà¸Ĺà¸¨
à¹ģà¸«à¸¥ à¸¡
à¸²à¸Ļ à¸ķà¸°à¸§
à¸£ à¸«
à¹ĥà¸Ļ à¸£à¸Ńà¸ļ
à¸ª à¹Ĥà¸ķ
à¸ģà¸²à¸£ à¹Ģà¸ģ
à¸²à¸« à¸²à¸ģ
à¸²à¸¨ à¸²à¸¥
à¸Ħà¸£ à¸ļ
à¸ļà¸ģà¸²à¸£ à¸ŀ
à¸² à¹Ģà¸ļ
à¸Ĥà¸Ńà¸ĩ à¸ļà¸£
à¸Ńà¸Ļ à¹Ħà¸Ĥ
à¹Ģà¸Ī à¸²à¸°
à¸Ĺà¸£ à¸²à¸¢
a h
Ġ3 2
à¹ĥà¸Ļ à¸«à¸¥à¸²à¸¢
r ic
à¸Ĭà¸²à¸§ à¸Ī
Ġ5 00
Ġà¸ŀà¸£à¸° à¸ļà¸£à¸¡à¸£à¸²à¸Ĭ
à¸¡ à¸ŀà¸¥
à¸Ľà¸£à¸° à¸«à¸¥à¸²à¸Ķ
à¸Ļ à¸ģà¸©
à¸ł à¸²
à¸Ľ à¹Ģà¸Ľ
à¸° à¸ªà¸¡
à¸ŀ à¸į
à¹ģà¸¢à¸ģ à¸ķ
à¸ķ à¸ļ
à¸¢à¸ĩ à¸ŀ
à¸ĩà¹Ģà¸Ĥà¸ķ à¸ģà¸²à¸£à¸Ľà¸ģà¸Ħà¸£à¸Ńà¸ĩ
à¸¢à¸ĩ à¸Ĥ
à¸Ļà¸Ķ à¸²à¸§
à¹ĥà¸Ļ à¸ķà¸Ńà¸Ļ
à¸Ľà¸¥à¸Ķ à¸Ľà¸¥
à¸Ļ à¹Ģà¸ĩ
à¸Ķ à¹Ģà¸ŀ
à¸ĺ à¸Ĺ
à¸¡ à¹Ģà¸¡
Ġà¹ĥà¸Ļ à¸£à¸°à¸«à¸§
à¸ģà¸£ à¸²à¸Ļ
m er
à¸ĩà¸£ à¸²à¸ĩà¸§
à¸Ń à¹Ħà¸Ĺà¸¢
à¸«à¸¥ à¸²à¸ļ
à¸¢à¸¡ à¸«
à¸Ńà¸ĩà¸ģà¸²à¸£ à¹ĥà¸«
à¸ļ à¸ĩà¸²à¸Ļ
à¹ģ à¸Ńà¸ļ
à¸ŀà¸£à¸£à¸Ħ à¸ģà¸²à¸£à¹Ģà¸¡
à¸Īà¸° à¸ŀ
Ġà¸ģà¸²à¸£ à¹ĥà¸Ĭ
à¸ģà¸© à¸²à¸ģà¸²à¸£
à¸ª à¹Ħà¸Ķ
à¹ĥà¸Ļ à¸ķà¸³à¹ģà¸«à¸Ļ
à¸ŀ à¸Ńà¸²à¸ģà¸²à¸¨
à¸ļ à¸Ł
à¸Ļà¸Ń à¸²à¸Ĺ
5 00
à¸ĩ à¸£à¸°à¸«à¸§
à¸Ļà¸Ńà¸ģ à¸Īà¸²à¸ģ
à¸Ń à¹Ģà¸ķ
à¹ģà¸ľ à¸Ļà¸Ĺ
à¹Ħà¸Ľ à¸ķ
à¸²à¸Ħ à¸¥
à¹Ģà¸Ńà¸ĩ à¸ģ
à¸²à¸ĩ à¹Ħà¸Ķ
à¸Ļà¸Ĺ à¸«à¸²à¸£
à¸ķà¸£ à¸ģà¸£
à¸£à¸²à¸Ĭ à¸§
à¹ĥà¸Ļà¸Ĺ à¸§
. "
à¸²à¸Ĭ à¸į
à¸Ļà¸³à¹Ħà¸Ľ à¸ª
i o
à¸Ńà¸° à¸ķ
Ġ &
à¸ĩà¹Ģà¸Ľ à¸¥
Ġ253 6
à¸Ĳ à¸Ĺ
à¸ĩà¹ģà¸£à¸ģ à¹ĥà¸Ļà¸Ľ
à¸§ à¸ŀ
à¸¨ à¸§à¸£
à¸¢à¸į à¸Ĺà¸Ńà¸ĩ
à¸Ńà¸¢ à¸¡
à¹ģà¸® à¸£
à¸Ļ à¸£à¸²à¸Ĭ
à¸ĩ à¸Ľà¸£à¸°à¹Ģà¸Ĺà¸¨
à¸Ķà¸² à¹ĥà¸Ļ
9 9
C h
à¹ģà¸¥ à¸ģà¹Ģà¸Ľà¸¥
à¸ģ à¸Ķà¸Ļà¸ķà¸£
à¸° à¸ª
à¸ĵ à¸Ħ
Ġ200 2
Ġà¹Ĥà¸Ķà¸¢ à¸£
à¸²à¸Ń à¸²à¸Ī
ĠS p
à¸ĩ à¹Ģà¸ļ
à¸Ļà¸ª à¸£
Ġ24 3
à¸§à¸Ļ à¸Ľà¸£à¸°à¸ģà¸Ńà¸ļ
à¹Ģà¸ª à¸ģà¸ªà¸¡
à¸¢ à¹Ģà¸£
Ġà¹Ĥ à¸Ń
Ġ200 3
à¸Ļ à¹Ģà¸Ħ
à¸Ĺà¸²à¸ĩ à¹Ģà¸¨à¸£à¸©à¸Ĳà¸ģ
à¹ģà¸ĸ à¸¥à¸ĩ
à¸Ń à¸Ĺà¸³
à¸į à¹ĥà¸Ļà¸ģà¸²à¸£
à¸²à¸Ń à¸ĩà¸Ħ
à¸Ī à¸į
à¹ģà¸ļà¸ļ à¸Ĺ
Ġ à¸į
à¸´ )
Ġà¸£à¸§à¸¡ à¹Ħà¸Ľà¸ĸ
à¹Į âĢĿ
à¸ķ à¸Ī
à¹Ĥ à¸Ħà¸Ļ
Ġà¹Ĥà¸Ķà¸¢ à¸ģà¸²à¸£
à¸«à¸§ à¸²à¸Ļ
à¹ģà¸¥à¸° à¸Ķ
à¸ĩà¹ĥà¸Ļ à¸Ĭ
à¹ģà¸Ħà¸Ļ à¸²à¸Ķà¸²
à¸Ńà¸¡ à¹Ĥ
à¸Ĥà¸ĵà¸° à¹Ģà¸Ķ
à¸¥ à¹Ħà¸Ķ
à¹Ħ à¸ģà¸£
ni vers
à¸²à¸ĩà¸Ń à¸²à¸Ħà¸²à¸£
à¸Ńà¸Ļ à¸Ńà¸¢
à¸¢à¸Ļ à¸Ķ
à¸Ĺà¸²à¸ĩ à¸ŀ
à¹ĥà¸Ļà¸ª à¸ĩà¸Ħà¸£à¸²à¸¡
à¸£à¸²à¸Ĭ à¸ªà¸¡à¸ļ
à¸²à¸¨ à¸£
à¸Ńà¸¢ à¸¥à¸ĩ
à¹Ģà¸Īà¸£ à¸Ī
à¹ģ à¸Ńà¸ķ
à¹Ģà¸ŀ à¸¥à¸¢
Ġà¸Ľ à¸ı
Ġà¸ķà¸²à¸¡ à¸¥à¸³à¸Ķ
à¸¢ à¸²à¸ĩ
à¸Ļà¸ĺ à¸£
à¸ļà¸£à¸£ à¸¥
à¸Ńà¸Ļ à¹Ģà¸Ķ
à¸Ńà¸Ķ à¸Ĺ
à¸²à¸¢ à¸Ĭ
à¸Ł à¸§
à¹Ģà¸ŀà¸Ĭà¸£ à¸ļ
Ġà¸Ī à¸ļà¸ģà¸²à¸£à¸¨
à¸£à¸ĸ à¸¢à¸Ļà¸ķ
à¸ģ à¹Ģà¸Ĺ
à¸ĩ à¸£à¸²à¸Ĭà¸§à¸ĩà¸¨
à¹Ģà¸§à¸ĵ à¸Ļ
Ġ253 3
r in
à¸¡ à¸ĩà¸²à¸Ļ
à¸Ńà¸Ļ à¹Ħà¸Ķ
à¸²à¸§ à¸¥
Ġ à¸Ľà¸£à¸°à¸ģà¸²à¸¨
à¸Ħà¸Ļ à¸£
à¸Ļà¸Ń à¸²à¸Ħà¸²à¸£
à¸²à¸¡ à¸«
à¸Īà¸° à¸Ĭ
à¸Ļà¸¡ à¸²à¸Īà¸²à¸ģ
à¸¢à¸¡ à¸Ń
à¸ªà¹Ĥà¸¡à¸ªà¸£ à¸Ł
an ce
à¸© à¸İ
à¹Ģà¸® à¸¥
à¹ĥà¸Ļ à¸ģ
ti ng
à¸ĩà¸Ħ à¸ĩà¸¡
à¹ģ à¸Ĭà¸¡à¹Ģà¸Ľ
à¸Ńà¸ģ à¹Ģà¸Ľ
à¸¢à¸Ļ à¸Ĥ
à¹Ħ à¸Ĭà¸¢
à¸²à¸¢ à¸Ĥ
à¸į à¸ķ
à¹Ģà¸Ī à¸Ńà¸ģ
à¹ģà¸ļà¸ļ à¸Ļ
à¹Ģà¸ł à¸ª
r am
à¸Ķ à¹Ģà¸ľà¸¢
à¸Ńà¸¢ à¸ģ
Ġà¹Ĥà¸Ķà¸¢à¹Ģà¸īà¸ŀà¸²à¸° à¸Ńà¸¢
à¸ª à¹ģà¸«
à¸ļ à¹ģà¸¡
à¸ŀà¸¥ à¹Ģà¸Ńà¸ģ
à¸²à¸ĩ à¹Ģà¸£
à¸«à¸²à¸¢ à¹Ħà¸Ľ
à¸ĺ à¸ĩà¸Ĭà¸²à¸ķ
à¸ļ à¸Ŀ
à¸ļ à¹ĥà¸Ī
à¸Ļà¹Ģà¸ª à¸²à¸£
s p
à¸Ĭà¸Ļ à¸ģ
à¸²à¸£ à¸ĸ
à¸Ļà¸ľ à¸¥à¸ĩà¸²à¸Ļ
à¸Ļ à¸ĩ
Ġà¸ª à¸³à¹Ģà¸£
à¸ª à¸²à¹Ģà¸«à¸ķ
à¸Ĥà¸Ńà¸ĩ à¹Ĥà¸¥à¸ģ
à¸ģà¸²à¸£ à¸¥
Ġà¹Ģà¸ ¨
à¸Ĺà¸²à¸ĩ à¹Ģà¸Ķ
à¸łà¸²à¸Ħ à¸ķ
à¸Ńà¸ģà¸²à¸£ à¸£
ar e
à¸£à¸ĸ à¹Ħà¸Łà¸Ł
N A
à¸Ĥà¸Ńà¸ĩ à¸§à¸ĩ
à¹Ģà¸ģ à¸ĵà¸ĳ
Ġà¸Ĭ à¸²à¸£
à¸Ķ à¸Ħà¸£
à¸²à¸ĩ à¹Ģà¸Ħ
à¸Ńà¸Ń à¸²à¸Ī
à¸ļà¸£ à¸²à¸ĭ
à¸ĩà¸Ħ à¸ĩ
ro p
à¸§ à¸«
à¸¢à¸¡ à¸ģ
à¸ĩà¸Ĥ à¸Ļà¸²à¸Ķ
à¸Ń à¸Ľà¸£à¸°à¸¡à¸²à¸ĵ
à¸į à¹Ģà¸Ĭ
ti n
à¹ĥà¸Ļ à¸§à¸ĩà¸¨
4 7
à¸Ħà¸§à¸²à¸¡ à¸Ĥ
à¸²à¸ŀ à¸§à¸ģ
à¸ģà¸© à¸²à¸Ĥ
à¹ģà¸ª à¸§à¸ĩ
à¸Ļ à¹Ģà¸ļ
à¸Ļ à¸ļà¸Ļ
à¸¡ à¸«à¸²à¸£à¸²à¸Ĭ
à¹Ĥà¸Ķà¸¢ à¸ª
Ġà¸ª à¸Ľ
à¸ļà¸ģà¸²à¸£ à¸ªà¸Ļ
à¸ģà¸£à¸° à¸ļà¸§à¸Ļ
à¸²à¸Ļ à¸¨
ac t
Ġ k
à¸«à¸¥à¸²à¸¢ à¸Ńà¸¢
à¸Ķ à¸²à¸Ļ
à¹Ģà¸« à¸ĩ
à¸ªà¸Ļ à¹Ģà¸Ĺà¸¨
à¸ģ à¹Ģà¸Ķ
os t
à¸ŀà¸£à¸°à¸£à¸²à¸Ĭ à¹Ĥà¸Ńà¸£à¸ª
à¸ļ à¸«à¸¡
à¸Ĥà¸Ńà¸ĩ à¸Ĥ
à¸¥à¸¥ à¸²
à¸ļ à¸²à¸Ļ
à¸Ľ à¸²à¸¥
à¸Ħà¸§à¸²à¸¡ à¸Īà¸£
Ġà¹Ģà¸Ĥ à¸²à¸Ī
à¹Ģà¸¡ à¸Ĭ
a z
à¸Ļ à¸Ľà¸£
à¸« à¸ŀ
à¸ļ à¸łà¸²à¸©
à¸į à¹Ģà¸ķ
Ġ198 0
à¹ĥà¸ļ à¹Ħà¸¡
à¸ķ à¹Ģà¸ķà¸Ńà¸£
it e
à¸ŀà¸£à¸° à¸§
à¸Ļà¸ģ à¸³à¸¥
à¸ļ à¸³à¸£
à¸²à¸ģ à¸£à¸°
à¸Ħà¸§à¸²à¸¡ à¸ªà¸Ļà¹ĥà¸Ī
o x
o ol
o od
à¸§à¸¢ à¸Ĥ
Ġà¹ģ à¸Ńà¸Ļ
à¸² à¹Ĥà¸¥
à¸²à¸Ľ à¸Ļ
à¸¨ à¸§à¸£à¸£à¸©à¸Ĺ
Ġ3 6
à¹Ģà¸¨à¸£à¸©à¸Ĳ à¸¨à¸²à¸ªà¸ķà¸£
à¸Ĭ à¹Ģà¸Ĭ
à¸²à¸ĩ à¹Ģà¸ķ
à¸ªà¸³ à¹Ģà¸Ļ
à¸²à¸Ħ à¸§
à¸¡à¸² à¹Ħà¸Ķ
à¸Ķ à¸ģà¸¥
à¸ķ à¸Īà¸²à¸ģ
à¸ķ à¸³à¸Ļà¸²à¸Ļ
Ġà¸ģà¸¥ à¸²à¸¢à¹Ģà¸Ľ
Ġ à¸ģà¸©
à¹ į
à¸ĩà¸Ħ à¸¡à¸Ļ
Ġà¹Ĵà¹ ķà¹
à¸Ļ à¹Ģà¸Ĥà¸ķ
à¸ķà¸£ à¸Ĺ
c l
à¸ķ à¹Ģà¸¡
à¸²à¸Ĺà¸³ à¸ĩà¸²à¸Ļ
à¸ŀà¸£à¸°à¸Ĭà¸Ļà¸¡ à¸²à¸¢
à¸²à¸Ļ à¸«
à¸ģ à¸ģà¸²à¸£à¹Ģà¸¡
à¹Ģà¸Ī à¸¥
à¸Ī à¸ķ
à¸ģà¸²à¸£ à¸Ľà¸ģà¸Ħà¸£à¸Ńà¸ĩà¸ª
à¸²à¸£ à¸Ńà¸ļ
à¸Ķà¸ģà¸²à¸£ à¹Ģà¸£
à¹Ĥ à¸§
Ġ à¸Ľà¸£à¸°à¸Īà¸³à¸Ľ
à¹Ģà¸Ķ à¸£
à¸©à¸Ĳà¸²à¸Ļ à¸§
à¸Ńà¸Ńà¸ģ à¸Ń
ĠB l
à¸ģà¸²à¸£ à¹Ģà¸ŀ
ic al
Ġà¸¢à¸ģ à¹Ģà¸§
à¸Ķ à¸²à¸ļ
à¸Ĭ à¸Į
à¸Ńà¸ķ à¸ķ
à¸²à¸ĩ à¹ĥà¸Ķ
à¸Ī à¸¡
à¸ªà¹Ģà¸Ľ à¸Ļ
à¸Ńà¸ĩ à¹Ħà¸Ĺà¸¢
à¸Ļà¹Ģà¸¡ à¸£
Ġ253 1
à¸Ļ à¹ģà¸Ĺ
à¹ĥà¸Ļ à¹Ģà¸Ħà¸£
à¸¥à¸³ à¸ŀ
à¸²à¸ľ à¸¥
I n
à¸¡ à¹Ħà¸Ľà¸Ķ
à¸²à¸ĩ à¸ĭ
à¸²à¸§ à¹Ģà¸Ľ
à¹ģ à¸Ħà¸£
à¸ģà¸£ à¸²à¸Ł
à¸Īà¸° à¸ªà¸£
à¸¢à¸ĩ à¸§
à¸ģà¸©à¸ĵà¸° à¸Ĥà¸Ńà¸ĩ
à¸Ľà¸£à¸°à¸Īà¸³ à¸§
à¸ķ à¸£à¸°
à¸Ńà¸ª à¸ģà¸²à¸£
Ġà¸ģà¸²à¸£ à¸£
à¸Ĭà¸²à¸§ à¸¢
à¸¥ à¸Ĭ
à¸²à¹Ĥà¸£ à¸«
e y
ĠA c
à¸Ļ à¹Ģà¸«à¸¡
à¸Ķ à¸ŀà¸¥à¸²à¸Ķ
à¸³ à¸£à¸§à¸Ī
Ġà¸ŀ à¸ļà¸§
u k
à¸ļ à¹Ħà¸§
à¸ģà¸²à¸£ à¹Ħà¸Ķ
à¸° à¹Ģà¸£
à¸²à¸Ļ à¸Ļà¸Ĺ
à¹Ĥà¸Ķà¸¢ à¸Ļ
à¸ª à¸ļà¸Ķ
à¸§à¸¢ à¸¡
à¸§à¸ĩ à¸«à¸Ļ
à¸¥ à¹Ģà¸ļ
à¸ģà¸© à¸²à¸Ĥà¸Ńà¸ĩ
S t
à¹ĥà¸Ļ à¸Ĥà¸ĵà¸°à¸Ĺ
à¸¡ à¹ĥà¸Ĭ
à¸Ķ à¸ªà¸¡
à¸Ľ à¸Ńà¹Ģà¸¡à¸£
on s
à¸Ļà¸Ń à¸³à¹Ģà¸ł
ĠT h
à¸Ńà¸³à¹Ģà¸ł à¸Ńà¹Ģà¸¡
Ġà¸Ĺ à¸«à¸²à¸£
à¸Īà¸³à¸Ļà¸§à¸Ļ à¸Ļ
Ķ à¹
à¸£à¸°à¸ļ à¸§à¸Ļ
âĢ ľ
à¸ķ à¹Ģà¸ĭà¸Ńà¸£
w w
à¸ķ à¹Ģà¸¥à¸Ńà¸£
à¸Ń à¸Ľà¸£
à¸Ļà¸ģà¸²à¸£ à¸ķ
à¸¡ à¹Ħà¸¡
à¸Ķ à¸°
à¸²à¸ĩ à¸Ńà¸¢
à¸łà¸²à¸Ħ à¸Ĺ
à¸Ī à¸ªà¸§à¸£à¸£à¸Ħà¸ķ
Ġà¸ķà¸³ à¹ģà¸«à¸Ļ
à¸Ńà¸ĩ à¹Ħà¸¡
à¸ģ à¸¡à¸²à¸ģ
Ġà¸Ńà¸ĩà¸¨ à¸²à¸ķà¸°à¸§
à¸¥ à¸£
à¸Ľà¸£à¸°à¸«à¸²à¸£ à¸Ĭ
à¸Ĭà¸Ļ à¸ļà¸Ĺ
à¸Ńà¸ĩ à¸ªà¸¡
à¸Ļà¸ª à¸Ļ
à¸ªà¸° à¸Ĺ
à¹ģà¸¥ à¸Ļà¸ķ
à¸Ńà¸ĩ à¹ĥà¸«à¸¡
à¸ĩà¸ª à¸³à¸Ħ
à¸²à¸ļ à¸ªà¸¡
à¸ŀà¸¥ à¸ķ
ĠS c
à¸Ļà¸ª à¸ģ
à¸£à¸²à¸Ĭ à¸Ĺ
Ġà¹Ĥ à¸¡
à¸Ī à¸£à¸²à¸Ĭà¸ģà¸²à¸£
à¸Ļ à¸Īà¸²à¸ģà¸ģà¸²à¸£
à¸İ à¸£à¸²à¸Ĭà¸ģ
à¸ļ à¹Ģà¸Ħà¸¥
à¸£à¸° à¸Ļ
Ġ à¸Ħà¸§à¸²à¸¡à¸£
à¹Ĥà¸Ħ à¸Īà¸£
à¸²à¸ĩ à¹Ģà¸ģ
à¸¢à¸Ļ à¹Ģà¸£
Ġà¹ģ à¸Ħ
Ġ4 5
à¹ĥà¸Ļà¸ª à¸ģ
à¸³à¸Ĺ à¸°à¹Ģà¸¥
à¸ľ à¸ªà¸²à¸Ļ
à¸¡à¸łà¸²à¸© à¸ĵ
à¸Ľ à¸Ĳà¸¡
à¸Ļà¸Ħ à¸²à¸Ĺà¸Ńà¸¥
à¹Ħà¸® à¹Ĥà¸Ķà¸£
à¸²à¸ĩ à¸«
à¸ļà¸ģà¸²à¸£ à¸ª
à¸Ħà¸£ à¹Ģà¸¥
ti ve
à¸Ħ à¸Ńà¸¥
Ġà¹ģ à¸ĸ
à¸Ńà¸Ńà¸ģ à¸īà¸²à¸¢
à¹Ī "
à¸²à¸£ à¸¡à¸ĵ
à¸²à¸ģ à¸Ĺ
à¸ĩ à¹Ĥà¸£à¸ĩà¹Ģà¸£
à¹ģà¸ģ à¸Ļ
à¸Ńà¸Ļ à¸ĸ
à¸Ļà¸³ à¸¡
à¸Ļà¸Ħ à¸ĵà¸°
à¸Īà¸ŀà¸£à¸°à¸£à¸²à¸Ĭ à¸Ķà¸³à¹Ģà¸Ļ
7 5
à¹Ģà¸Ĥ à¸²à¸¡
à¸²à¸Ħ à¸²
à¹Ģà¸ģà¸©à¸ķà¸£ à¸ģà¸£à¸£à¸¡
à¹Ģà¸Ĺà¸¨à¸ļà¸²à¸¥ à¹Ģà¸¡
à¸²à¸§ à¸¡
à¸ª à¹ģà¸ķ
à¸ģà¸²à¸£ à¹ģà¸ķ
i ve
à¸Ļ à¸Īà¸°à¸ķ
à¸²à¸Ń à¸Ļ
Ġ à¸Ńà¸£
à¹ĥà¸Ļà¸ģà¸²à¸£ à¸ªà¸£
à¸Ľà¸£à¸°à¹Ģà¸Ĺà¸¨ à¸Ī
à¹Ĥà¸Ń à¸Ń
à¸¡à¹Ģà¸«à¸¥ à¸§
à¸Ķ à¸Īà¸³à¸«à¸Ļ
à¸Īà¸° à¸ªà¸²à¸¡à¸²à¸£à¸ĸ
à¸²à¸Ĺ à¸£
à¹ĥà¸Ļà¸ģà¸²à¸£ à¸ŀ
à¸¥ à¹Ģà¸¡
à¹Ģà¸ĺà¸Ń à¹Ģà¸Ľ
à¹Ĥà¸Ķà¸¢ à¸Ń
à¸ªà¸ķ à¸Ī
à¹ģà¸£à¸ĩ à¸ļ
an n
à¸Ĥà¸Ļ à¸²à¸Ļ
à¹ĥà¸Ļ à¸Ĥ
à¸¢à¸Ļ à¸«à¸Ļ
ĠA ward
à¸ĩà¹ĥà¸Ļ à¸ª
à¸¡ à¸Ħà¸£à¸Ńà¸ĩ
à¸§ à¸ģà¸¥
à¸ģà¸²à¸£ à¸Ķà¸³à¹Ģà¸Ļ
à¸Ĥà¸Ńà¸ĩ à¸¡à¸Ļ
à¸Ńà¸Ļ à¸ļ
à¸§à¸ĩ à¸Ī
Ġ3 3
à¸Ļà¸ģà¸²à¸£ à¸ª
à¸Ķà¸Ĥ à¸§à¸²à¸ĩ
à¸° à¸ĭ
à¸Ī à¹Ģà¸Ī
à¸²à¸Ļ à¸¢
à¸ĩà¸ª à¸ĸ
à¸ģ à¸Ľà¸£à¸°à¸§
à¹Ģà¸® à¸Ńà¸£
à¸ĩ à¸łà¸²à¸¢à¹ĥà¸Ļ
à¸Ľ à¸Ĺà¸£à¸ĩ
à¸Ĳ à¸§
à¸Ļà¸Ń à¸²à¸Īà¸²à¸£à¸¢
à¸Ļà¸Ĺ à¸£à¸¡
à¸Ń à¸«à¸¡
à¸ļà¸¥ à¸£à¸²à¸Ĭà¸ĺà¸²à¸Ļ
à¸ĺà¸£à¸£à¸¡ à¸Ķà¸²
Ġà¸ģ à¸³à¸«à¸Ļ
à¸Īà¸£ à¸²à¸Īà¸£
à¸¡à¸ª à¸¥à¸²à¸¢
à¸£à¸°à¸¢à¸° à¹Ģà¸§à¸¥à¸²
Ġà¹ĳ à¹
à¸ļ à¸¡à¸²à¸£
à¸Ńà¸Ļ à¸Ń
Ġà¸Ī à¸Ļà¹Ħà¸Ķ
à¸²à¸¢à¸Ĺ à¸«à¸²à¸£
à¸ĩà¸Ĺ à¸°à¹Ģà¸¥
à¸ķà¸ļà¸Ńà¸¥ à¸Ĺ
à¸Ľ à¸ĭ
à¸ĩà¸ª à¸§
à¸²à¹Ĥ à¸ģ
à¸ĩ à¸Ľà¸¥
à¸Ķ à¸Ĺà¸²à¸ĩ
à¸£à¸° à¸§
à¸Ķà¸Ĺ à¸°à¹Ģà¸ļ
à¸²à¹Ĥ à¸Ńà¸¥
à¹ģà¸ļà¸Ħ à¸Ĺ
à¸ļ à¸²à¸ķ
à¸Ħà¸§à¸²à¸¡ à¸¥
à¸ĩ à¸Ŀà¸£
à¸ĺ à¸²à¸£
à¸ĩà¸²à¸Ļ à¸¨
à¸Ľà¸£à¸²à¸ļ à¸Ľà¸£à¸²à¸¡
à¸Ń à¹Ģà¸Ń
à¸²à¸¢ à¸Ī
à¸Ńà¸¡ à¸²à¹Ģà¸Ľ
à¹Ģ à¸Ńà¸ĩà¸Ĺ
à¸ŀ à¸²à¸ĵ
à¸ªà¸° à¸ªà¸¡
à¸Ń à¸¨à¸²à¸ªà¸Ļ
à¸ģ à¹Ģà¸ĭ
à¸ļ à¸ı
à¹Ģà¸ļà¸¥ à¹Ģà¸¢
à¸Ļà¸ķ à¸Ńà¸Ļà¸§
à¸¢à¸ģ à¸Ĭ
à¸«à¸¡à¸²à¸¢ à¸Ħà¸§à¸²à¸¡à¸§
à¸Ńà¸²à¸ĵ à¸²à¸Ļ
à¸ģ à¸Īà¸°à¸¡
à¸³ à¸Ń
à¸ģà¸²à¸£ à¹ĥà¸«
à¸§à¸ĩ à¸ª
Ġà¹Ĥà¸Ķà¸¢ à¸Ń
à¸²à¸¡ à¸²à¹ĥà¸Ļ
à¸į à¸Ħ
à¸Ļà¸ª à¸Ļà¸²à¸¡
à¸¢à¸ģ à¹Ģà¸§
à¸ªà¸ķ à¸ģà¸²à¸¥
à¹Ĥà¸Ī à¸§
à¸°à¸Ķ à¸§à¸ģ
à¸Ķ à¹Ģà¸«
à¹ģ à¸Ńà¸¡
à¸Ľ à¸²à¸ĩ
à¹ĥà¸Ļ à¸łà¸²à¸©
à¸Ńà¸Ļ à¸Ī
à¸Ķ à¸«à¸£
à¸ģà¸© à¸²à¸ŀ
à¸Ĺà¸³ à¸Ľà¸£à¸°à¸ķ
à¸Ń à¹Ĥà¸£
à¸ļ à¹Ĥà¸¥à¸ģ
à¸Ĺà¸ĺ à¸¨à¸²à¸ªà¸Ļ
à¸¢ à¸«
or k
à¸ģà¸£à¸°à¸Īà¸²à¸¢ à¸ŀ
Ġ3 00
à¸Ļà¸ģà¸²à¸£ à¸Ī
à¸ļ à¸ľà¸¥
à¸ļà¸ļ à¸²à¸Ķà¹Ģà¸Ī
à¸² à¹Ģà¸«à¸¥
à¹Ĥ à¸Ńà¸Ķ
à¸ģà¸£ à¸¢à¸²à¸Ļ
à¸Ńà¸ĩ à¹ģà¸£à¸ģ
à¸ĩà¸Ĥ à¸¥à¸²
à¸Ķà¸ĩ à¸²à¸¡
à¸Īà¸ŀà¸£à¸° à¸ļà¸£à¸¡
à¹Ģà¸¥ à¸Ļ
à¸¥ à¹Ģà¸Ľ
à¸¢à¸ĩ à¹ģà¸ķ
à¸§à¸ĩ à¸§
à¸²à¹Ĥ à¸Ī
à¸¡ à¸Ł
à¸²à¸¢ à¹ģà¸¥à¸°
à¸ĩà¹ģ à¸¢à¸ģ
Ġà¸ª à¸²à¸¡
à¸²à¸Ŀ à¸£
à¹ģ à¸§à¸Ķà¸¥
Ġà¹ģ à¸£à¸ĩ
à¸Ļà¸¡ à¸«à¸²à¸§
à¸ªà¸¡ à¸£à¸ªà¸ģ
à¸Ľ à¹Ģà¸Ľà¸Ńà¸£
Ġà¹Ģà¸Ĥ à¸²à¸¡
à¸¥à¸¢ à¹Ģà¸Ķà¸Ĭ
Ġ251 8
à¸¡ à¸Ħà¸£
à¸§ à¸ļà¸£à¸§à¸¡
à¸£à¸°à¸ļ à¸²à¸Ķ
à¸²à¸ĩ à¸Ħà¸£
Ġ253 2
à¸ķ à¸ªà¸¡à¸²à¸Ĭ
à¹Ģà¸ª à¸ĸ
à¸Ń à¸Ĺà¸²à¸ĩ
à¸§ à¹Ģà¸ĭà¸Ńà¸£
à¸ŀ à¸²à¸Ĺ
à¸Īà¸° à¸Ĥ
à¸Ļà¸¢ à¸Ńà¸Ķ
à¸Ļà¹ģ à¸ļ
à¹ģà¸ĸ à¸ļ
à¸Ĥà¸Ńà¸ĩ à¸Ł
à¸ģà¸£à¸° à¸Ĺà¸£à¸§à¸ĩà¸¨
à¸ĩà¸«à¸§ à¸°
ĠM us
l l
à¸Ńà¸Ļ à¸ģà¸¥
à¹ģà¸Ľà¸¥ à¸§
à¸ģà¸²à¸£ à¹Ģà¸Ħà¸¥
Ġà¹ģà¸¥à¸° à¸Ĺà¸£à¸ĩ
à¸Ĺà¸¢ à¸²à¸ģà¸²à¸£
à¸¢ à¸Ńà¸ĩ
à¹Ģà¸§à¸¥ à¸²à¸ķ
ĠA n
Ġ200 1
à¸Ļà¸Ľà¸¥ à¸²à¸Ĺ
à¸Ķ à¹ĥà¸«à¸į
à¹ĥà¸Ļ à¸łà¸²à¸Ħ
à¸¡ à¹Ģà¸¨à¸£
à¸ļà¸²à¸ĩ à¸Ħà¸Ļ
à¸ļà¸£à¸£ à¹Ģà¸¥
Ġ252 9
à¸Ľà¸£à¸° à¸Ĺà¸²à¸Ļ
à¸Ńà¸ģ à¸£à¸°
à¹Ģà¸ģà¸©à¸ķà¸£ à¸¨à¸²à¸ªà¸ķà¸£
à¹Ģà¸ģ à¸°
à¸ĩà¸Ħ à¸ĩà¹Ģà¸Ľ
à¹Ģà¸ļ à¸ķ
à¸¢à¸ĩ à¹Ħà¸¡
à¹Ħà¸ĭ à¸¡
à¸Ĥà¸Ńà¸ĩ à¸ķà¸Ļà¹Ģà¸Ńà¸ĩ
à¹ģà¸ľ à¸Ļà¸ģ
Ġà¹Ģà¸Ĺ à¸ŀ
à¸§ à¹Ģà¸Ķ
Ġà¸ģ à¸³à¸¥
Ġà¸£ à¸Ńà¸ĩ
Ġà¸ŀà¸£à¸°à¸£à¸²à¸Ĭ à¸Ĺà¸²à¸Ļ
à¸Ńà¸°à¸ķ à¸Ńà¸¡
Ġ à¹Ģà¸ģà¸£
à¸¢ à¹Ģà¸ŀ
à¸ģà¸²à¸£ à¸Ľà¸£à¸°à¸Ĭ
à¹ī "
à¸§à¸Ļ à¸ł
à¹Ĥà¸ķ à¹Ģà¸ģ
Ġà¸® à¸²à¸£
à¸Ńà¸ģ à¸ª
à¸ĩ à¹Ĥà¸£à¸¡
à¸²à¸ª à¸Ļà¹ĥà¸Ī
à¸ģà¸¥à¸²à¸ĩ à¸Ĥà¸Ńà¸ĩ
à¸Ń à¸Ńà¸ªà¹Ģà¸ķà¸£à¹Ģà¸¥
à¸Ķ à¸¨
ĠS ch
à¸§à¸¢ à¸ľ
à¸ļà¸£ à¸Ńà¸ĩ
à¸ĩà¸Ľ à¸²à¸£
Ġà¹Ģà¸« à¸£
Ġ à¸ķà¸£à¸ĩà¸ģ
à¸Ń à¸Īà¸£
à¸²à¹Ĥ à¸«à¸¡
à¸ģà¸²à¸£ à¸Ħà¸§à¸ļà¸Ħ
à¸ļ à¸Ĺà¸²à¸ĩ
à¸ģà¸ª à¸Ńà¸Ļ
à¸² à¹Ħà¸£
ĠC l
à¸Ĳ à¸¨à¸²à¸ªà¸ķà¸£
8 5
à¸ĩ à¸ĩ
à¹ģà¸ªà¸Ķ à¸ĩà¸ª
i b
à¸Ĺ à¸ĭ
à¹Ħà¸Ĺà¸¢ à¸£
8 9
à¸Ķ à¹Ħà¸¡
à¸ģà¸© à¸²à¸Ĭ
à¸ķà¸Ļ à¹Ĥà¸ģà¸ª
à¸ļà¸£à¸£ à¸ŀà¸ļ
I I
à¸¥à¸³ à¸ļà¸²à¸ģ
à¸Ļ à¸Ľà¸£à¸°à¹Ģà¸Ĺà¸¨
à¸ģà¸£à¸£à¸¡ à¸Ĺ
Ġ â
Ġ à¹ĥà¸ģà¸¥
à¸¢à¸ĩ à¸Ń
is m
à¸Ļ à¸¥à¸°à¸Ħà¸£à¹Ĥà¸Ĺà¸£à¸Ĺ
à¸Ķ à¸Ńà¸Ļ
à¸§à¸ĩ à¹Ģà¸Ķ
à¸Ľ à¸§
à¹ĥà¸ļ à¸«à¸Ļ
à¹Ģà¸Ħ à¸Ńà¸£
à¸Ļ à¸Ħà¸§
à¸Ī à¸Ńà¸¢
à¸Ĭà¸Ļ à¸Ĭ
à¸Ń à¸ľà¸¥
à¸ĩ à¸£à¸°à¸Ķ
à¸§à¸¢ à¹Ģà¸Ĭ
à¸Ńà¸³à¸Ļ à¸§à¸¢
Ġà¹ģà¸¥à¸° à¹Ģà¸Ī
à¸Ļ à¸¥à¸°à¸Ħà¸£
à¸²à¸ĩ à¸Ĺà¸²à¸ĩ
à¸§à¸¢ à¹Ĥà¸£à¸Ħ
ol d
à¸Ń à¹Ģà¸ļ
à¸²à¸Ĥ à¸²à¸¢
à¸ļ à¸Ħà¸£
à¸³ à¹Ģà¸Ľ
à¹ĥà¸Ļ à¸£à¸²à¸¢à¸ģà¸²à¸£
à¸²à¸ĩ à¸ľ
à¸ĵ à¸«à¸į
à¸Īà¸²à¸ģ à¸£
Ġà¸¢ à¸Ńà¸Ķ
Ġà¹Ģà¸ĺ à¸Ń
à¸Ńà¸ĩ à¸Ķà¸Ļà¸ķà¸£
à¸ĩ à¹Ģà¸ĩ
à¸ĩà¸¡ à¸²à¸Īà¸²à¸ģ
Ġ18 6
ro m
Ġà¸Ĺà¸²à¸ĩ à¸Ĭ
à¹ģà¸¥à¸° à¹Ģà¸Ĺà¸Ħà¹Ĥà¸Ļà¹Ĥà¸¥à¸¢
à¸ªà¸²à¸£ à¸ªà¸Ļà¹Ģà¸Ĺà¸¨
à¸ļà¸ģà¸²à¸£ à¸¢à¸Ńà¸¡à¸£
à¸Ļ à¸¢à¸Ļà¸ķ
à¸´ ,
à¸Ńà¸ĩ à¸Ħà¸£
à¸§à¸¢ à¸Ħ
à¸Ĺà¸²à¸ĩ à¹ĥà¸ķ
à¸²à¸Ĥ à¸Ńà¸ĩà¸Ĺ
à¸¥à¸Ľ à¸²à¸ģà¸£
ĠW orld
à¸Ķà¸§à¸ĩ à¸Ńà¸²à¸Ĺ
Ġà¹Ĥà¸Ķà¸¢ à¸Ī
à¸Ńà¸²à¸Ī à¸Īà¸°
à¸¥à¹Ģà¸¥ à¸Ńà¸£
à¸² à¹Ĥà¸ķ
Ġà¹Ĥà¸Ķà¸¢ à¸Ļ
Ġà¸Ķ à¸²à¸£
Ġà¸ª à¸ĩà¸Ħà¸£à¸²à¸¡
à¸ªà¸²à¸¡à¸²à¸£à¸ĸ à¸£
à¹ģ à¸§
à¹ģà¸¥à¸° à¸Ľ
à¹Ģà¸Ĥ à¸²à¸¢
à¸Ķ à¸ªà¸£
à¸Ńà¸²à¸Ī à¹Ģà¸Ľ
Ġ Q
à¹Ħ à¸ļ
à¹Ģà¸Ĥ à¸²à¸Ĺ
à¸® à¸Ńà¸¥
Ġ253 0
à¸Ľà¸£à¸°à¸ĸ à¸¡à¸¨
à¸Ħà¸§à¸²à¸¡ à¸ŀà¸¢à¸²à¸¢à¸²à¸¡
à¸¢à¸§ à¸°
à¸Ħà¸¥ à¸²à¸ģà¸£
à¸Ĺà¸²à¸ĩà¸«à¸¥à¸§à¸ĩ à¹ģà¸ľ
Ġ à¸Ħà¸§à¸²à¸¡à¸ª
à¸ģà¸²à¸£ à¸Ľà¸£à¸°à¸ģà¸²à¸¨
à¸Ļà¸³à¹Ħà¸Ľ à¹ĥà¸Ĭ
à¹ģà¸¥à¸° à¹Ģà¸£
à¸ķà¸£ à¸ªà¸²à¸§
à¸²à¸ķ à¸°
Ġà¸¥à¸³ à¸ķ
à¸Ńà¸ģ à¸ģ
à¸Ĳà¸²à¸Ļ à¸Ĺ
Ġ Âł
à¸Ĭ à¸ģ
à¸Ĭ à¸¥
à¸Ńà¸¡ à¸£à¸²à¸Ĭà¸§à¸ĩà¸¨
à¸Ĭà¸²à¸¢ à¹ģà¸Ķà¸Ļ
Ġ252 2
à¸Ń à¸Ŀ
à¸³ à¹Ħà¸Ķ
à¸²à¸Ļ à¸²à¸¢
4 3
Ġ à¹Ĥà¸¥
à¸ª à¸²à¸ĺà¸²à¸£à¸ĵà¸°
à¹Ģà¸¥à¸Ĥ à¸Ĺ
à¸ģ à¸ĺ
à¸Ĺ à¸¡
à¸ģà¸²à¸£ à¸Ľà¸¥
à¸²à¸ĩ à¹Ģà¸ŀ
à¸¡à¸²à¸ģ à¸Ļ
à¸ģ à¹Ģà¸ī
à¹ģ à¸Ńà¸Ļà¸ķ
Ġà¹ģà¸¥à¸° à¸ĭ
à¸Ħà¸³ à¸ĸà¸²à¸¡
à¹ģà¸ªà¸Ķ à¸ĩà¸Ĺ
Â °
à¸Ńà¸ĩ à¹ģà¸ķ
à¸¥à¸° à¸Ĺ
à¸Ķ à¹Ģà¸ľ
à¹Ħà¸¥ à¸Ĺ
à¸ĩà¸Ń à¸³à¹Ģà¸ł
à¸¡ à¸ŀà¸£à¸°à¹Ģà¸ģ
à¸§ à¸Ľ
is h
at t
à¸²à¸§ à¸Ĥ
à¸¢à¸¡ à¸ª
à¸Ľà¹ģà¸ļà¸ļ à¸Ĥà¸Ńà¸ĩ
à¸ªà¸Ńà¸ĩ à¸Ļ
ol og
à¸§à¸¢ à¸ŀ
à¸Ļà¹ģ à¸Ļà¸¥
à¸Ħà¸³à¸Ļ à¸§à¸ĵ
à¸¢ à¸ł
à¸Ħà¸£ à¸£
ac h
Ġà¸Ĺà¸£à¸ĩ à¹Ģà¸Ľ
à¸¢à¸Ļ à¸ļ
à¸¢à¸£à¸²à¸Ĭ à¸ł
à¸§ à¹Ħà¸¡
à¹Ģà¸¡ à¸Ķ
Ġ15 0
à¸Ļà¹Ģà¸Ĥ à¸ķà¸£
ĠU nivers
à¹Ħ à¸Ħ
à¸ģà¸²à¸£ à¸ªà¸Ļ
à¸Īà¸²à¸ģ à¸Ĥ
à¸Ļà¸²à¸ĩ à¹Ģà¸Ī
f t
à¹Ĥ à¸Ńà¸ĩà¸ģà¸²à¸£
à¸²à¸§ à¸ķ
à¸ĩ à¸Ńà¸ĩà¸Ħ
à¹Ħà¸Ľ à¸ķà¸²à¸¡
Ġà¸Ń à¸ł
à¹ĥà¸Ļ à¸ł
à¸ŀà¸£à¸° à¸Ļà¸Ħà¸£
à¸²à¸Īà¸° à¹Ħà¸Ķ
à¹ī )
à¸Ńà¸Ļ à¸²à¸¡
à¸Ń à¸²à¸¥
à¸Ńà¸¢ à¸Ļ
à¹Ĥà¸Ķà¸¢ à¸ķà¸£à¸ĩ
à¸Ļà¸ŀà¸£à¸° à¸¡à¸«à¸²à¸ģà¸©
à¸Ń à¸ŀà¸£à¸°à¹Ģà¸Ī
à¸¢ à¸Ľ
à¸¡à¸² à¹Ģà¸£
à¹ģà¸£à¸ĩ à¸Ķ
à¸¢à¸Ļ à¸łà¸²à¸ŀ
à¸ĩà¸ģ à¸Ńà¸ĩà¸Ĺ
à¸³ à¸£à¸°
à¹Ģà¸Ķ à¸Ļà¸¡à¸²à¸£
à¹Ħà¸Ĺà¸¢ à¹ģà¸¥à¸Ļà¸Ķ
à¸ĩ à¹Ģà¸«
à¸Ł à¸ķ
Ġ197 0
à¸¢ à¹Ģà¸Ĺà¸Ħà¹Ĥà¸Ļà¹Ĥà¸¥à¸¢
à¹Ĥà¸£ à¸Īà¸Ļ
à¹ĥà¸Ļà¹Ģà¸§à¸¥ à¸²à¸ķ
à¸ģ à¸«à¸£
ĠH e
à¸ĩà¸ģ à¸²à¸¢
à¸§à¸¥ à¸Ĭà¸Ļ
à¸Ķà¸²à¸§ à¹Ģà¸Ħà¸£à¸²à¸°à¸«
à¸ĩ à¹Ģà¸«à¸ķ
à¸Ńà¸ĩ à¹Ģà¸ŀ
à¸Ńà¸ĩ à¸Ĺà¸²à¸ĩ
Ġà¸§ à¸²à¸ĩ
Ġà¸« à¸į
à¸§ à¹ģà¸Ĺà¸Ļ
à¹Ģà¸ª à¸²à¸£
ro w
à¸ģ à¹ģà¸ļ
à¹ģà¸ª à¸Ļ
à¸Ļà¸£ à¸Ńà¸ļ
à¸Ńà¸¡ à¸ª
à¹ģà¸¡ à¸ķà¸Ĭ
4 9
à¸ļà¸£ à¸²à¸ĵ
ig n
à¹Ĥ à¸¢à¸ļà¸²à¸¢
à¸§à¸ĩ à¸Ľà¸¥à¸²à¸¢
Ġ18 9
à¸¥à¸ļ à¸Ńà¸£
à¸²à¸ł à¸²à¸©
Ġà¸Ń à¸²à¸Īà¸²à¸£à¸¢
à¹Ĥà¸Ń à¸°
Ġ25 19
à¸ªà¸³ à¸£
à¹Ģà¸§à¸¥ à¸ª
y n
à¹ģà¸ªà¸Ķà¸ĩ à¸ĸ
à¸Ļà¸Ĺà¸²à¸ĩ à¸Ĺ
à¹ģà¸Ļà¸§ à¸£
à¸¢ à¹Ģà¸¡
à¸ŀ à¸Ĥà¸Ńà¸ĩ
à¸ĩà¹ĥà¸Ļ à¸Ļ
à¸Ļ à¸¥à¸³à¸Ķ
à¹Ģà¸Ń à¸Ńà¸£
at h
à¸Ļà¸« à¸¢
à¸Ĥà¸¢à¸²à¸¢ à¸ķ
à¸¢à¸Ļ à¹ģà¸ļà¸ļ
à¹ģà¸« à¸§à¸Ļ
à¹Ħà¸Ĺà¸¢ à¹Ģà¸Ľ
à¸²à¸ŀ à¸¥
s e
à¹ģà¸ģ à¸°
à¹ģà¸¡ à¸£
à¸Ļà¹ĥà¸Ļ à¸£
à¸Ńà¸Ńà¸ģ à¸¡à¸²à¸Īà¸²à¸ģ
à¸£ à¸Ķà¸ģ
à¸Ń à¸²à¸į
à¸ª à¸²à¸ĺà¸²à¸£à¸ĵà¸ª
à¸²à¸¢ à¸ĭ
à¸Ĳ à¸¯
à¸¢à¸ĩ à¸Ńà¸¢
ic h
à¸²à¸¢ à¸ĵ
à¸²à¸Īà¸° à¹Ħà¸¡
4 6
à¹Ģà¸ ĵ
à¸Ńà¸ª à¸ĭ
à¸¢ à¸ĸ
à¸§à¸¡ à¹ģà¸Ĥ
Ġà¹Ģà¸¥ à¸Ĥ
Ġà¹Ĥà¸Ħà¸£ à¸ĩà¸ģà¸²à¸£
à¸Ńà¸ļ à¸ªà¸Ļ
à¸²à¸Ļ à¸Ļà¸²
à¸Ħà¸£à¸Ńà¸ĩ à¸£à¸²à¸Ĭà¸¢
à¸¡ à¸Ļà¸ķ
à¸§à¸¢ à¸Ķ
Ġà¸ķà¸¥à¸Ńà¸Ķ à¸Ī
à¸Īà¸° à¸ģà¸¥
à¸§à¸¡à¸ĩà¸²à¸Ļ à¸ģ
à¹Ĥ à¸Łà¸£
à¹ģà¸¥à¸° à¸«
ĠM ar
à¸ļà¸²à¸ĩ à¸Ĭà¸Ļ
Ġ252 8
Ġà¸ģà¸£à¸° à¸Ĺ
Ġà¹Ħ à¸Ń
à¸§à¸¡ à¸ªà¸¡
à¸§à¸Ļ à¸«
à¸¢à¸¡ à¹ĥà¸Ĭ
à¸Ľà¸£à¸°à¸Ĭ à¸²à¸ª
à¹Ĥà¸Ĺ à¸Ļ
5 5
à¸Ļà¸ŀ à¸§à¸ģ
à¸Ńà¸ĩà¸£à¸²à¸Ĭ à¸Ń
à¸§à¸¢ à¸Ľ
à¹Ģà¸Ń à¸°
à¸Ļà¸Ĺà¸£à¸¡ à¸«
à¸Ļ à¹Ĥà¸£
à¹Ģà¸Ļ à¸ķà¸£
ol l
à¸ĩ à¸¥à¸ĩ
à¸¢ à¸ŀà¸£à¸°à¸ļà¸²à¸Ĺà¸ªà¸¡à¹Ģà¸Ķ
à¸Īà¸ŀà¸£à¸° à¸Ļà¸²à¸ĩà¹Ģà¸Ī
à¸§ à¸²à¸Ĺ
à¸Ĳ à¸ª
à¹Ģà¸Ĥà¸² à¹Ħà¸¡
Ġ à¸£à¸²à¸Ĭ
à¸Ļ à¸ªà¸¡à¹Ģà¸Ķ
à¸Ńà¸ĩà¸Īà¸²à¸ģ à¹Ģà¸Ľ
o ut
Ġà¹ģà¸¥à¸° à¸Ľà¸£
à¸Ĥ à¸ļà¸§à¸Ļ
Ġ à¸ĩ
à¸Ļà¸Ĭ à¸²à¸¢
à¸Ļà¹Ģà¸Ī à¸Ńà¸£
à¸ª à¸ĩ
ul ar
e b
à¸ģ à¸Ńà¸Ńà¸ģà¹ģà¸ļà¸ļ
Ġà¹Ħ à¸®
à¸ģà¸£à¸°à¸Ķ à¸²à¸©
à¸Ļà¸ģà¸²à¸£ à¸£
à¸Ħà¸ĵà¸° à¸ģà¸£à¸£à¸¡
8 8
à¸²à¸Ļ à¸Ĺà¸²à¸Ļ
à¹Ģà¸ĺ à¸Ńà¸¡
à¸£à¸£ à¸¢à¸²
3 1
Ġ .
à¸Ļà¸Ļ à¸²à¸¢à¸ģà¸£
Ġà¹Ħà¸¡ à¸¥
à¹Ĥà¸¡ à¸£
e am
Ġ à¹Ģà¸ĩ
à¸Ľ à¸ªà¸¡
à¸ķà¸Ńà¸ļ à¸ªà¸Ļ
à¸§ à¸¨
à¸Ļà¸³ à¹Ģà¸ªà¸Ļà¸Ń
à¸ĩ à¸Ľà¸£à¸°à¸ķ
à¸¢ à¹ĥà¸«
à¸¢ à¹Ģà¸Ĭ
Ġà¹Ģà¸Ĺ à¸¨
à¸ķ à¸Ńà¸¥
à¸«à¸¥ à¸ļà¸«à¸Ļ
à¸łà¸²à¸© à¸²à¸Ī
à¸£ à¸¢
à¸ļ à¸Ľà¸¥
Ġà¹Ģà¸ ľ
à¸Īà¸²à¸ģ à¸ķ
à¸Ľà¸£à¸²à¸ģà¸ı à¹ĥà¸Ļ
à¸²à¸¡ à¸ķ
à¸ļà¸£à¸£à¸Ķ à¸²à¸¨
à¸ģà¸ĭà¸²à¸Ļ à¹Ģà¸Ķà¸Ńà¸£
à¸¬ à¸²à¹Ĥà¸Ńà¸¥
à¸ģà¸¥ à¸²à¹Ĥà¸«à¸¡
à¸§à¸Ļ à¸ļ
à¸Ħà¸£à¸Ńà¸ļ à¸Ħà¸£à¸Ńà¸ĩ
hi p
à¹Ģà¸Ħà¸²à¸£ à¸ŀ
Ġà¹ģà¸¥à¸° à¸Ĺà¸³à¹ĥà¸«
à¸§à¹ģà¸Ĺ à¸Ļà¸Ĥà¸Ńà¸ĩ
à¸ģ à¹ĥà¸Ļà¸Ĭ
à¸¡ à¸²à¸Ĭ
à¸§ à¸Ńà¸£
à¸Ĳ à¸Ļ
à¸ģ à¹Ĥà¸Ĺà¸©
à¸²à¸¥ à¸ª
s h
à¸ģ à¹Ģà¸ķà¸Ńà¸£
à¸ªà¸²à¸¡à¸²à¸£à¸ĸ à¹Ģà¸Ĥ
à¹Ģà¸Ńà¸Ł à¹Ģà¸Ń
à¸ªà¸° à¸Ķ
3 7
3 9
à¸Ħà¸¥ à¸²à¸ªà¸ª
Ġà¹Ħ à¸ĭ
à¸Ķ à¸Ľà¸£à¸°à¸ªà¸ĩà¸Ħ
à¸§à¸ĩ à¸Ħà¸£
à¸ŀà¸§à¸ģ à¸¡
a x
à¸Ķ à¹ĥà¸Ĭ
Ġà¸Īà¸²à¸ģ à¸ģà¸²à¸£
Ġ on
à¸² à¹ģà¸ļà¸ļ
ĠE n
à¹Ī )
à¸Ļà¸Ķ à¸²à¸£
à¸¢ à¸§à¸Ļ
à¹ģ à¸Ŀ
à¸Ľ à¸°à¸Ĺ
à¸§à¸ĩ à¸ŀ
à¸ĩ à¸Ĭà¸²à¸§
à¹Ħ à¸ľ
à¸§à¸ĩ à¸Ķà¸Ļà¸ķà¸£
ĠP l
à¸Ńà¸Ļ à¸¥
à¸Ĭ à¸²à¸Ĺ
à¸Ńà¸¡ à¸£à¸Ńà¸ļ
à¸ªà¹Ħ à¸ķà¸Ļ
p l
à¸Ń à¹Ģà¸Ħà¸£
à¸µ à¹Ĭ
Ġ25 25
à¸Īà¸ŀà¸£à¸° à¸¡à¸ĩà¸ģ
à¸²à¸ŀà¸£à¸° à¸¢à¸²
3 6
Ġà¸Ķ à¸³à¸£à¸ĩà¸ķà¸³à¹ģà¸«à¸Ļ
à¹Ģà¸Ńà¸ģ à¸¥
à¹Ģà¸©à¸ģà¸ªà¸¡ à¸£à¸ª
p le
à¸²à¸Ļ à¸Ńà¸¢
à¸¢à¸Ļ à¹Ĥà¸Ķà¸¢
à¸Ļà¸Ńà¸Ńà¸ģ à¸Ĥà¸Ńà¸ĩ
Ġà¸Ļà¸²à¸¢ à¸ģà¸£
à¸ªà¸²à¸§ à¸£
Ġà¹ĥà¸Ļ à¹Ģà¸¡
à¸§à¸¡ à¸£
à¸³à¸Ļ à¸²à¸į
< /
à¸ĩ à¸Ľà¸£à¸°à¸ģà¸Ńà¸ļà¸Ķ
à¸¥ à¹Ģà¸ģ
à¸¥ à¸Ńà¸£
à¸«à¸¥à¸²à¸¢ à¹ģà¸«
à¸Ĺà¸£à¸²à¸ļ à¸§
à¸Ļà¸ŀà¸£à¸°à¸£à¸²à¸Ĭ à¹Ĥà¸Ńà¸£à¸ª
à¸ģà¸²à¸£à¸Ĺ à¸Ķà¸¥à¸Ńà¸ĩ
Ġà¸Ķ à¸³à¹Ģà¸Ļ
Ġà¸ģà¸²à¸£ à¸¨
à¸ģà¸¡à¸§à¸¢ à¸Ľà¸¥
à¹ģà¸¥à¸° à¸ģà¸¥
à¸İ à¹Ģà¸ģà¸¥
à¹Ĥ à¸«à¸§
à¸§à¸ĩ à¸ģ
à¸£à¸° à¸¡
Ġà¸¡ à¸²à¹Ģà¸Ľ
à¸Ļà¸Ĺà¸²à¸ĩ à¸ģà¸¥
Ġà¸ģ à¸¡
8 6
Ġà¸ª à¸²à¸§
Ġà¹ĥà¸Ļ à¸ŀ
à¸²à¸Ļ à¸ļà¸Ļ
à¹Ģà¸Ĥ à¸²à¸ķ
à¸² à¹Ĥà¸Ķà¸¢
à¸ģà¸© à¸²à¸Ń
à¸£à¸£ à¸ĸ
à¸¹ -
Ġ18 0
à¹Ģà¸Ħà¸¢ à¹Ħà¸Ķ
à¸§ à¹Ģà¸ªà¸£
à¸ļ à¸£à¸°à¸ļà¸ļ
à¸Ĥà¸Ńà¸ĩ à¹Ħà¸Ĺà¸¢
Ġà¸ª à¸²à¸ĺà¸²à¸£à¸ĵà¸£
à¸Ļà¸³ à¸Ĺ
à¸ļà¸Ĺà¸ļà¸²à¸Ĺ à¸ªà¸³à¸Ħ
à¸² à¹Ħà¸§
à¸ĩà¸ģ à¸³à¸¥
à¸ĩà¸¥ à¸Ńà¸Ļà¸Ķà¸Ńà¸Ļ
à¸ģ à¸¤à¸©à¸İ
à¸ķà¸£ à¸ģ
à¸Ļ à¸¤à¸Ķ
à¸ĩà¸Ĥà¸Ńà¸ĩ à¸Ī
à¸Ń à¸£à¸°à¸«à¸§
à¹Ĥà¸Ĭ à¸ģ
à¸¡à¸²à¸ķà¸£ à¸²
tern ational
à¸¥ à¹Ģà¸ĭ
à¸§ à¸łà¸²à¸ŀ
à¸Ħà¸§à¸²à¸¡ à¹Ħà¸¡
à¸ģà¸£à¸° à¹Ĥà¸Ķ
à¸Ļà¸Ń à¸²à¸¢
à¸¡ à¹Ĥà¸Ķà¸¢
à¸²à¸Ķ à¸£
à¸°à¹Ģà¸¥ à¸ªà¸²à¸ļ
Ġà¸¡à¸²à¸ģ à¸ģà¸§
à¸Ń à¹ģà¸ķ
à¸ĩ à¸ł
Ġà¸Ľ à¸²à¸ģ
à¸² à¹Ģà¸§
à¸ĩ à¸Ĭà¸Ļ
à¸Ķ à¹ĥà¸Ļà¸Ľ
y st
à¹Ģà¸ŀ à¸Ńà¸£
à¸Ńà¸Ļ à¹ĥà¸«
à¹Ģà¸£ à¹Ģà¸Ļ
à¸ĩà¸¡ à¸²à¸£
à¸ĩ à¸ĺà¸Ļà¸ļ
Ġ252 3
r ess
à¸Ļ à¸ŀà¸£à¸°à¹Ģà¸Ī
à¸į à¸Ĭà¸Ļà¸°
8 7
à¸Ńà¸Ļ à¸Ľà¸¥à¸²à¸¢
Ġ199 9
Ġà¹Ĥà¸£ à¸Ħ
à¹Ĥ à¸¢à¸°
à¸²à¸¡ à¸ģà¸¥à¸²à¸ĩ
à¸Ļà¸ķ à¸°à¸§
à¹Ģà¸ĭ à¹Ĥà¸¥
à¸ľà¸¥à¸ĩà¸²à¸Ļ à¹Ģà¸ŀà¸¥à¸ĩ
à¸²à¸ª à¸²à¸¡
à¸Ĺà¸ĺ à¸¨à¸²à¸ªà¸ķà¸£
à¸Ľà¸ª à¸£à¸£à¸Ħ
à¸Ĺà¸²à¸ĩ à¸Ī
à¸Ń à¸Ĭà¸²à¸ķ
à¸ģ à¸Ńà¸ļ
à¸Ħ à¹ģà¸«
à¸ģà¸²à¸£ à¹ģà¸ŀà¸Ĺà¸¢
à¸²à¸ĩ à¸£à¸°à¸«à¸§
à¸Ĥà¸Ńà¸ĩ à¸į
Ġà¹Ĥ à¸ķ
à¹ĥà¸Ļà¸ģà¸²à¸£ à¸Ĺà¸³
à¸ģ à¹Ħà¸Ĺà¸¢
à¸³ à¸§
à¸¥à¸²à¸¢ à¹Ģà¸Ľ
à¸²à¸¢ à¸Ĭà¸Ļà¸°
à¸§à¸Ļ à¸Ĭ
à¸²à¸Ĥ à¸Ļà¸²à¸Ķ
à¸ļà¸ģà¸²à¸£ à¹Ģà¸ªà¸Ļà¸Ńà¸Ĭ
à¸Ńà¸³à¹Ģà¸ł à¸Ńà¸ļ
à¸Ļ à¸£à¸°à¸Ķ
à¸«à¸¡à¸²à¸¢ à¹Ģà¸«à¸ķ
à¸ķà¸Ļ à¸£à¸²à¸Ĭà¸ª
Ġà¹Ĥà¸£à¸ĩ à¸ŀà¸¢à¸²à¸ļà¸²à¸¥
à¸¥ à¸²à¸¡
à¸Ńà¸ģ à¸£
à¸ģà¸§ à¸²à¸Ķ
Ġt h
à¸ŀà¸£à¸° à¸Ħà¸£
à¸³à¸Ļ à¸§à¸Ļà¸Ĺ
à¸Ĺà¸£ à¹ģà¸Ľà¸ĭ
à¸²à¸ĩ à¹ĥà¸«
à¸Ńà¸Ļ à¸«à¸¥
à¸ģà¸ĩà¸²à¸Ļ à¸Ħà¸ĵà¸°à¸ģà¸£à¸£à¸¡à¸ģà¸²à¸£
à¸²à¸ĩ à¹ĥà¸Ļ
à¸į à¸ª
à¹Ģà¸Ńà¸Ļ à¹Ħà¸ĭà¸¡
à¹Ħà¸Ľ à¸Īà¸²à¸ģ
à¸²à¸ĩ à¸ªà¸¡
à¹Ģà¸Ĥ à¸ķà¸£
à¸Ĺ à¸¥
à¹Ģà¸£ à¸¢
à¸ĩà¸ª à¸ĩà¸Ħà¸£à¸²à¸¡
à¸® à¸Ńà¸£
Ġà¹ ĵ
e e
à¸¢à¸ĩ à¸Ļ
à¸²à¸« à¸¡à¸ĵ
à¸«à¸¥à¸²à¸¢ à¸Ĭà¸Ļ
Ġ199 8
à¸ŀà¸£à¸° à¸Ī
à¸ķ à¹ĥà¸Ļ
à¸Ĭ à¸ķ
à¸²à¸ĩ à¸«à¸¥
à¸į à¸¨
à¸Ļà¸¡ à¸²à¹Ģà¸Ľ
Ġà¸ª à¸Ļ
à¸ģà¸¡à¸§à¸¢ à¸ªà¸²à¸ģà¸¥
Ġà¸Ī à¸Ńà¸£
à¸¢à¸Ļ à¸Ńà¸¢
à¸Īà¸³ à¸ŀà¸§à¸ģ
à¸£à¸²à¸¢ à¸ĩà¸²à¸Ļà¸§
à¸Ļà¹Ĥ à¸¢à¸ļ
= "
à¸Ĵà¸Ļ à¸²à¸Ĥ
Ġ à¸£à¸°à¸ļ
à¸ļà¸ª à¸²à¸¡
à¸Ľà¸£à¸°à¸Ĭà¸²à¸Ĭ à¸Ļà¸Ĺ
Ġ +
à¸ķà¸Ńà¸Ļ à¸Ļ
Ġ à¸Ľà¸¥à¸²à¸¢
Ġà¸ĭ à¸¡
Ġà¸Ń à¸²à¸«à¸²à¸£
à¸ģ à¸¡à¸²à¸ģà¸¡à¸²à¸¢
à¸¢à¸Ļ à¹ĥà¸Ļ
à¸ªà¸Ļà¸²à¸¡ à¸ģ
à¸¹ "
à¸§à¸Ļ à¸Ī
Ġà¸Ħ à¸Ńà¸£
Ġ à¸Ŀà¸£
à¹ģ à¸ļà¸Ļ
à¸²à¸¡ à¸Ļ
à¸Ĥà¸Ńà¸ĩ à¸Ľà¸£à¸°à¹Ģà¸Ĺà¸¨à¹Ħà¸Ĺà¸¢
à¸¢ à¸«à¸¥
à¸Ńà¸ĩ à¹Ħà¸Ľ
à¸Ĥà¸Ńà¸ĩ à¸Ļà¸²à¸¢
à¸ª à¸Ń
à¸²à¸¢ à¸ĸ
à¸įà¸Ĭà¸²à¸ģà¸²à¸£ à¸Ĺà¸«à¸²à¸£
à¸¢ à¸¨à¸£
Ġà¸ŀà¸£à¸° à¸¢
à¸§à¸Ķ à¸¥à¸²à¸¢
à¸Ń à¸Īà¸°
à¹Ģà¸Ķ à¸Ń
à¸ģà¸²à¸£ à¹Ģà¸Ĭ
à¸Ł à¹Ģà¸§à¸Ńà¸£
à¹Ħà¸Ł à¸Ĺ
à¸¢ à¹Ģà¸ģà¸©à¸ķà¸£à¸¨à¸²à¸ªà¸ķà¸£
à¸Ļà¹ģà¸¥à¸° à¸ģ
à¸įà¸įà¸² à¹Ģà¸Ńà¸ģ
à¸° à¹Ģà¸¢
à¸Ļà¹Ĥ à¸Ľ
à¸Ńà¸²à¸ĵà¸²à¹Ģà¸Ĥà¸ķ à¸ķ
à¸ĩà¸Ħà¸£ à¸£à¸ł
Ġ e
à¸Ń à¹Ĥà¸ķ
à¹ģà¸¥à¸° à¸Ľà¸£
à¸§à¸Ļ à¸ķà¸³à¸ļà¸¥
à¸¥à¸° à¸Ħà¸Ļ
à¸¡ à¸ªà¸£
à¸į à¸£
à¸³à¸Ļ à¸§à¸ĵ
à¹Ĥà¸ķ à¸¡
Ġp ro
Ġ196 0
à¹Ģà¸Ĺà¸Ļà¹Ģà¸¡ à¸Ļà¸ķ
à¸ªà¸¡ à¸Ĺ
à¹Ģà¸Ļ à¸£
à¸ļà¸ģà¸²à¸£ à¸Ħ
à¸§ à¹Ģà¸ģ
à¹ĥà¸Ļ à¸ģà¸£à¸ĵ
Ġà¹ģà¸¥à¸° à¸«à¸Ļ
à¸² à¹ĥà¸«à¸¡
à¸Ķ à¹ģà¸ªà¸Ķà¸ĩ
am e
oun d
an s
à¸§ à¸ģà¸§
à¹ĥà¸Ļ à¸Ļà¸²à¸¡
à¸ľ à¸Ļ
à¸Ļà¸Ļ à¸²à¸¢
Ġà¸ªà¸¡ à¸£à¸ªà¸ģ
à¸¡ à¸ļà¸£
à¸Ĺ à¸Ĭ
à¸Ļà¸ķ à¸Ļ
à¸ĩà¸Ħ à¸¡à¸Ĺ
Ġ251 6
à¹Ĥà¸Ľ à¹Ģà¸ģà¸¡
à¸ªà¸¡ à¸Ħà¸§à¸£
à¸¥à¸²à¸Ńà¸Ńà¸ģ à¸Īà¸²à¸ģ
à¸¡ à¹Ģà¸¡à¸Ńà¸£
à¸Ńà¸ĩ à¹Ģà¸ķ
à¸ķà¸²à¸¡ à¸¥à¸³à¸Ķ
Ġ252 7
à¸ģà¸²à¸£à¸Ĺ à¸Ķà¸ªà¸Ńà¸ļ
à¸¨à¸§à¸ģà¸£à¸£à¸¡ à¸¨à¸²à¸ªà¸ķà¸£
à¸¥ à¸²à¸ģà¸²à¸£
à¸Ĭ à¸¡à¸ŀ
à¸²à¸ģ à¸°
à¸ģà¸£ à¸Ń
à¸§à¸ĩ à¹Ģà¸§à¸¥à¸²
Ġà¸Ń à¸ĺ
Ġ252 6
à¸²à¹Ħà¸Ľ à¹ĥà¸Ļ
Ġ252 4
à¸§ à¸Ńà¸¥à¹Ģà¸¥à¸¢
à¸Ĥà¸Ńà¸ĩ à¹Ģà¸ª
à¸Ĺ à¸Ńà¸Ķ
à¸²à¸Ńà¸²à¸§à¸²à¸ª à¸§
à¸ķà¸ļà¸Ńà¸¥ à¸Ĭ
à¸Ļ à¹ģà¸Ĥ
à¸ŀà¸£à¸£à¸Ħ à¸Ħà¸Ńà¸¡à¸¡
à¸ģ à¹ģà¸ģ
à¸ģ à¹ĥà¸Ī
à¸°à¹ģ à¸Ļ
3 3
à¹ĥà¸Ļà¸ģà¸²à¸£ à¹Ģà¸Ĥ
à¸Ńà¸ĩ à¸Ļà¸Ħà¸£
à¸¢à¸²à¸§ à¸Ļà¸²à¸Ļ
à¸¡ à¹ģà¸Ĥ
à¸²à¸Ļ à¸Ńà¸²à¸«à¸²à¸£
à¸Ħà¸§à¸²à¸¡ à¸ªà¸³à¹Ģà¸£
à¸§à¸¡ à¸²à¸ģ
à¸ļà¸ģà¸²à¸£ à¸¢à¸ģà¸¢
à¸§à¸£ à¸§
4 4
à¸Īà¸ŀà¸£à¸°à¸£à¸²à¸Ĭ à¸²à¸ĺ
S T
Ġ à¸ģà¸£à¸£à¸¡à¸ģà¸²à¸£
à¸Ĥà¸Ńà¸ĩ à¸«à¸Ļ
à¸Ľà¹ģà¸ļà¸ļ à¸Ĺ
à¸Ńà¸ĩ à¹ĥà¸«à¸į
à¸Ķ à¸ģà¸£à¸°à¸Ĺà¸£à¸§à¸ĩ
à¸Ľ à¸¥à¸ĩ
à¸į à¸Ń
à¸łà¸²à¸© à¸²à¸ª
à¸Ĺ à¸£à¸£
à¸Ńà¸ĩ à¹Ģà¸¡
à¸Ĺà¸²à¸ĩ à¸ģà¸²à¸¢
à¸²à¸ĩ à¸ĩ
à¸Ħà¸§à¸²à¸¡à¸«à¸¡à¸²à¸¢ à¸§
à¸£ à¸©à¸Ĳ
à¸Ĺà¸ĺ à¸ģà¸²à¸£
à¸ľà¸¥à¸ĩà¸²à¸Ļ à¸Ĺ
à¸Īà¸Ńà¸¡ à¸ŀà¸¥
à¸Īà¸į à¸ł
à¸ģà¸¥ à¸²à¸¢à¸¡à¸²à¹Ģà¸Ľ
Ġà¹ĥà¸Ļ à¸ģà¸²à¸£à¹ģà¸Ĥ
à¸ŀà¸ļ à¹ĥà¸Ļ
à¹Ģà¸Ĺà¸ŀ à¹Ģà¸Ī
Ġ251 7
à¸ģà¹Ģà¸ª à¸ļ
à¹Ĥ à¸ŀà¸£
à¹Ħà¸£ à¹Ģà¸Ķà¸Ńà¸£
Ġà¹ģ à¸Ń
à¸Ńà¸ĩ à¸Ĺà¸³
à¸Ħà¸§à¸²à¸¡ à¹Ģà¸ģ
à¹Ĥà¸Ľà¸£ à¹Ĥà¸¡
à¸² à¹Ģà¸ĺà¸Ń
à¸ª à¸§à¸¢à¸ĩà¸²à¸¡
à¸Ńà¸ĩ à¸ķà¸²à¸¡
Ġc h
à¸ľ à¸¡
B C
à¸ģ à¸Ħà¸¥
à¸§à¸ĩ à¸¤à¸Ķ
à¸łà¸²à¸Ħ à¸§
ã ģ
à¸ģà¸²à¸¥ à¸Ļ
y l
à¸Ļ à¹Ĥà¸ĭ
à¸Īà¸²à¸ģ à¸ľ
à¸Ļà¸£ à¸²à¸¢
à¸Ńà¸¢ à¸¡à¸²à¸ģ
Ġà¸ªà¸²à¸Ĥ à¸²
à¹ģà¸ģà¸£ à¸¡à¸¡
Ġ à¸ĺà¸£à¸£à¸¡
à¸Ļ à¹ģà¸¥à¸Ļà¸Ķ
à¸§ à¹Ģà¸ŀ
à¸Ńà¸ļ à¸Ń
à¹Ĥà¸¡ à¸°
à¸¡ à¸²à¸Ńà¸¢
à¸¹ à¹ĭ
à¸§à¸¢ à¸«
à¸«à¸¡à¸²à¸¢ à¹ĥà¸«
à¸Ļà¹Ģà¸Ľ à¸¥
à¸ķà¸ķ à¸²à¸Ļ
a u
i um
à¸§à¸¢ à¹Ģà¸Ľ
à¹ģà¸ļà¸ļ à¸Ń
en er
à¸ģ à¹Ģà¸Ī
à¸ĩ à¸«à¸¡à¸²à¸¢à¸ĸ
in al
à¸Ļà¹Ģà¸Ļ à¸Ńà¸£
à¸Ļà¸¢ à¸²à¸§
Ġà¸Ħà¸ĵà¸° à¸ģà¸£à¸£à¸¡à¸ģà¸²à¸£
à¸ķ à¸Ĥ
à¸Ļ à¸§à¸Ļ
ĠC on
à¸ģà¸²à¸£ à¸Ńà¸Ńà¸ģà¹ģà¸ļà¸ļ
à¸Ķ à¸ģà¸£
à¸ĺ à¸£à¸ĵ
à¸Īà¸ŀà¸£à¸° à¸Ľà¸£à¸¡
à¸ĩà¹ģ à¸®
1 00
7 7
à¸ª à¸§à¸¡
Ġà¹ĥà¸Ļ à¹Ģà¸£
à¸ģ à¸²à¸¡
à¸į à¹ĥà¸Ļ
à¸ªà¸²à¸¡ à¹Ģà¸«à¸¥
à¸Ļ à¹Ĥà¸Ħ
à¸¢à¸Ļ à¸Ħ
à¸ĩà¸ģ à¸²
à¹Ģà¸ļ à¸¨à¸£
à¸Ľà¸ªà¸¡ à¸ļà¸Ĺ
r on
à¸Ħà¸Ļ à¹Ĥà¸ķ
à¸Ńà¸¡à¸² à¹ĥà¸Ļà¸§
od e
à¸Ļà¸²à¸£ à¸²à¸¢à¸ĵ
à¸ģ à¸®
à¸ļ à¹Ģà¸Ĥà¸²
à¹ģ à¸ľà¸¥
à¸Ĥà¸Ńà¸ĩ à¸®
à¹Ģà¸¡ à¸Ĺ
à¹Ĥà¸¡à¸ªà¸£ à¸Ł
à¸¢à¸ĩ à¹Ģà¸¥
à¸ĩ à¹Ģà¸Ħ
à¸Ļà¹Ĥà¸Ķ à¸§à¸ª
à¸ªà¸ª à¸²à¸§à¸°
à¸¢ à¸ģà¸¥
er t
à¸įà¸« à¸²à¸Ĺ
à¹ģà¸Ńà¸ķ à¹ģà¸¥à¸Ļà¸ķ
à¸²à¸« à¸Ļà¸°
ĠN ew
Ġ25 20
à¸¢à¸ĩ à¸Ĭ
à¸ĩà¹ĥà¸Ļ à¸§
Ġà¸ªà¸ĸ à¸²à¸Ļà¸Ĺ
à¸¢ à¹ĥà¸Ī
à¸Ī à¸ģ
à¹Ĥà¸Ķà¸¢ à¸ľ
us t
4 2
à¸ļ à¸Ĭà¸²à¸§
à¸§ à¹ģà¸ķ
à¸Ĥà¸Ńà¸ĩ à¸ģà¸Ńà¸ĩà¸Ĺ
à¹Ĥà¸£à¸¡ à¸²à¹Ģà¸Ļ
R I
à¸¥ à¸Ī
à¸Ļà¸ķ à¸²à¸ĭ
à¸Ĺà¸²à¸ĩ à¸Ĺà¸«à¸²à¸£
à¸Ļ à¸«à¸į
à¸Ħà¸§à¸²à¸¡ à¸Ĺ
y p
à¸Ļ à¸Ńà¸¥
à¸ĩ à¹Ħà¸Ľà¸¢
à¸Ĥ à¸Ļà¸¡
à¸²à¸Ķ à¸§
à¸ģà¸ķ à¸Ńà¹Ģà¸£
à¸ĩà¸Ń à¸²à¸¢
Ġà¹Ģà¸Ķ à¸§
l and
à¸ĵ à¸ĺà¸£à¸£à¸¡
à¹Ģà¸Ĺ à¸ŀà¸£
à¹ĥà¸Ļà¸Ľà¸£à¸°à¹Ģà¸Ĺà¸¨ à¸Ń
à¸§ à¸Īà¸£
à¸²à¸ĵ à¸²à¸Ļ
Ġà¸Ķ à¸Ńà¸¥à¸¥à¸²à¸£
à¸Ĺà¸£à¸ĩ à¸Īà¸³
à¸Īà¸ŀà¸£à¸° à¸Īà¸Ńà¸¡à¹Ģà¸ģà¸¥
à¸ģà¸©à¸ĵà¸° à¹Ģà¸Ķ
à¸ŀà¸£à¸°à¸ª à¸ĩà¸Ĩ
à¸ģ à¹ģà¸¥
à¸ª à¹Ģà¸Ĺ
à¸Īà¸° à¹Ģà¸¥
à¸ļ à¹ģà¸£à¸ģ
à¸²à¸¡ à¸°
à¹Ģà¸§à¸¥ à¸²à¸Ļ
à¸ļà¸ģ à¸Ńà¸ĩà¸Ĺ
à¸¥ à¸Īà¸²à¸ģ
à¸¥ à¸²à¸Ī
à¸ª à¸Ńà¸ĩà¸Ħ
à¹ģ à¸Łà¸£
à¸ļà¸ª à¸¥à¸²à¸ģ
à¸Ĥà¸Ńà¸ĩ à¹Ĥà¸£à¸ĩà¹Ģà¸£
à¸ŀà¸£à¸°à¸£à¸²à¸Ĭ à¸Ķà¸³à¸£
à¸Ļ à¹Ģà¸«à¸Ļ
à¹Ĥ à¸ĺ
à¸¥à¸Ľ à¸§
à¹ģà¸Ļà¸§ à¸Ĺà¸²à¸ĩ
à¸ĩ à¸£à¸°à¸ļà¸ļ
à¸ģà¸²à¸£à¸Ĺ à¸Ķà¸¥
à¸łà¸²à¸ ª
à¸²à¸ĩ à¹Ģà¸ªà¸£
à¸ļà¸Ħà¸§à¸²à¸¡ à¸ª
Ġ199 7
à¸° à¸ļ
Ġà¸Ń à¸²à¸¨
à¸²à¸Ļ à¹ĥà¸Ļ
à¸²à¸¡ à¸Ĺ
à¸¥à¸° à¹Ģà¸¡
à¸Ļà¸ŀà¸£à¸° à¸ŀ
à¸Ķà¸£ à¸ĺà¸²à¸Ļ
à¹ģà¸¡à¸Ļ à¹Ģà¸Ĭà¸ªà¹Ģà¸ķà¸Ńà¸£
Ġ à¹Ģà¸Ńà¸ģ
à¸²à¸¡ à¸²à¹Ģà¸Ľ
à¸²à¸ª à¸ĸ
à¸ģà¸Ķ à¸Ķ
à¸Ħà¸³ à¹ģà¸«
à¸ľà¸ªà¸¡ à¸ŀ
à¸Ľ à¹Ģà¸Ńà¹Ģà¸Ĭ
à¸ļà¸Ļ à¹Ģà¸ģà¸²à¸°
s c
à¸¥ à¹ģà¸¥à¸°
Ġà¸Ń à¸Ńà¸£
à¸ļà¸ģà¸²à¸£ à¹ģà¸ªà¸Ķà¸ĩà¹Ĥà¸Ķà¸¢
à¸Ķà¸Ĥ à¸²à¸Ķ
à¸Ĥà¸Ńà¸ĩ à¸£à¸°à¸ļà¸ļ
à¸Ħà¸§à¸²à¸¡ à¸Ľà¸¥à¸Ńà¸Ķà¸ł
à¹Ģà¸§ à¸ªà¸ķ
à¸Ĺà¸°à¹Ģà¸¥ à¸ªà¸²à¸ļ
à¹ī ,
à¸¡ à¸«à¸£
à¸¢ à¹Ģà¸ģ
à¹ģà¸Ĺà¸Ļà¸£à¸²à¸©à¸İà¸£ à¸Ī
à¸³ à¹Ģà¸Ī
Ġà¹Ĥ à¸Ļà¸°
à¸Ļà¸¡à¸²à¸ģ à¸ģà¸§
à¸²à¸ªà¸²à¸£ à¸Ħà¸²à¸¡
à¸ļ à¸³à¸ļ
up er
m a
à¸²à¸Īà¸° à¸ķ
Ġ à¸Ľà¸£à¸°à¹Ģà¸Ĺà¸¨à¹Ħà¸Ĺà¸¢
à¸ģà¸©à¸² à¹Ĥà¸£à¸Ħ
Ġà¹Ģà¸ŀà¸£à¸²à¸° à¸¡
à¸²à¸§ à¸Ķà¸²à¸£
à¸Ĳ à¸ªà¸łà¸²
à¸įà¸« à¸²à¸ģà¸²à¸£
à¸Ń à¸Īà¸²à¸ģà¸Ļ
à¸Ĥà¸Ńà¸ĩ à¹Ģà¸«à¸¥
à¸ĩ à¹Ģà¸ĭ
à¸ģà¸¥à¸²à¸ĩ à¸Ħ
ĠE x
à¹Ĥà¸ļà¸£à¸²à¸ĵ à¸Ħà¸Ķ
3 2
Ġ à¹Ħà¸Ł
à¸³ à¸Ľ
à¸³ à¹Ĥà¸Ĥ
à¸ĩà¸ª à¸ĸà¸²à¸Ļ
à¹Ĥà¸Ń à¸ĭ
à¸Ħ à¸Ļà¸ª
à¸Ĥà¸Ńà¸ĩ à¸Ńà¸ĩà¸Ħ
à¸ģ à¸Ńà¸Ļ
à¸ģà¸²à¸£ à¸ľ
à¸¥à¸Ń à¸Ńà¸ªà¸ģà¸²à¸£
t or
à¸ģà¸²à¸£ à¸¡
à¸Ńà¸ģ à¸³à¹Ģà¸Ļ
Ġà¹ģà¸¥à¸° à¸¨
à¸Ļà¹ģ à¸Ħ
à¸Ļà¸Ĺà¸²à¸ĩ à¹Ħà¸Ľà¸¢
à¸ļ à¸§à¸ģ
à¸Ńà¸¡ à¸²à¸Ī
Ġà¸Ī à¸Ńà¸¡
à¸Ńà¸Ńà¸ģ à¸Īà¸³à¸«à¸Ļ
à¹ĥà¸Ļà¸ģà¸²à¸£ à¹ĥà¸Ĭ
à¸ļà¸ª à¸ĸà¸²à¸Ļ
à¸Ĥà¸Ńà¸ĩ à¸¡à¸«à¸²à¸§
à¸ģà¸© à¸²à¸Ľà¸£à¸°
à¸Ĺà¸²à¸ĩ à¸ªà¸ĸà¸²à¸Ļ
Ġà¸Ńà¸Ńà¸ģ à¸Īà¸³à¸«à¸Ļ
Ġ199 6
à¸ģ à¹Ģà¸ĸ
i re
à¸Ńà¸ģ à¸Īà¸²à¸ģ
ĠB e
à¸Ķà¸²à¸§ à¹Ģà¸Ĺ
à¸Ĥà¸Ńà¸ĩ à¸Ŀ
à¸¨à¸§ à¸ģà¸£
à¸Ń à¹Ĥà¸£à¸Ħ
à¸ģ à¸ļà¸§à¸Ĭ
à¸ĩ à¸Ľà¸£à¸°à¸ĺà¸²à¸Ļà¸²à¸ĺ
à¹ī .
à¸ª à¸¥à¸°
à¸ģà¸²à¸£ à¸ģà¸¥
à¸Ĺà¸ĺ à¸ģà¸²à¸£à¸Ĺ
à¸²à¸ĩ à¸Ħà¸¥
Ġ7 5
S A
Ġ al
à¸¡ à¹ĥà¸«à¸į
à¸«à¸²à¸£ à¸Ī
re e
à¸²à¸Ĺà¸³ à¹ĥà¸«
à¸ĩ à¸Ħà¸§à¸²à¸¡à¸£
à¸Ļà¸Ĺà¸£ à¸§
à¹Ģà¸Ĥà¸ķ à¸ģà¸²à¸£à¸Ľà¸ģà¸Ħà¸£à¸Ńà¸ĩ
à¹Ģà¸© à¸ģ
à¸Ļ à¸ļà¸Ĺ
à¸Ķ à¹Ħà¸§
à¸Ńà¸¢ à¹ĥà¸«
à¸ĵ à¸§
à¹Ĥà¸£à¸ĩ à¸łà¸²à¸ŀà¸¢à¸Ļà¸ķà¸£
Ġà¸Īà¸° à¸ĸ
à¸Ĥà¸Ńà¸ĩ à¹ģà¸ķ
à¸Ńà¸ģ à¸Ļ
à¹Ģà¸¡ à¸Ļ
à¸ļ à¸Ħà¸Ļ
à¹ĥ à¸Ķà¸Ĺ
à¸łà¸²à¸Ħ à¸ŀ
à¸Īà¸³à¸Ļà¸§à¸Ļ à¸«à¸Ļ
ĠY ou
à¸Ļ à¹Ĥà¸Ħà¸£à¸ĩà¸ģà¸²à¸£
à¸§à¸ĩ à¸Īà¸£
à¹Ģà¸Ī à¸Ļà¸ķ
à¹Ģà¸Ł à¸¥
n ow
à¸Ń à¹Ĥ
à¸ļ à¸®
à¸¸ à¹ĭ
à¸Ķà¸Ń à¸³à¸Ļà¸²à¸Ī
à¸§ à¸Ńà¸¥
à¹Ĥà¸ģà¸£ à¸ĺ
Ġ à¸£à¸²à¸Ĭà¸§à¸ĩà¸¨
à¹ģà¸¥à¸° à¸ŀà¸£à¸°
Ġà¸ģ à¸ģ
Ġà¸ªà¸¡ à¸²à¸Ħà¸¡
Ġ25 00
is e
à¸²à¸ª à¸³à¸«à¸£
à¹ģ à¸Ńà¸Ľ
à¸²à¸ĩ à¸łà¸²à¸ŀ
à¸¡à¸« à¸²
Ġà¹ Ĵ
à¸³ à¹ģà¸ŀ
Ġà¸¡ à¸²
à¹ ĳ
à¸Ļ à¸Ľà¸ı
à¸ī à¸¥à¸²à¸Ķ
d uc
i tion
à¸§à¸¡ à¹Ģà¸Ľ
à¸Īà¸³ à¸¥
ic k
Ġ251 5
! "
à¸¢ à¸Ħà¸£
à¸łà¸²à¸© à¸²à¸¥
à¸Ļà¸Ĺà¸£à¸¡à¸« à¸²à¸ł
à¸ļ à¸²à¸ª
à¸Ĭ à¸²à¸Ļ
à¸²à¸ĩ à¸ģà¸¥
à¸ĩ à¹ģà¸ªà¸Ķà¸ĩ
à¸Ķ à¸®
à¹Ħ à¸Ńà¸Ļ
à¹Ĥà¸Ń à¹Ģà¸ģà¸¡
à¸Ħà¸ĵà¸° à¸§
à¸ĩ à¹Ĥ
à¸ĩ à¹Ģà¸Ħà¸¢
Ġ24 0
Ġà¹ģà¸¥à¸° à¸ļà¸£
à¸Ļà¸ª à¸ķ
ĠUnivers ity
à¸§ à¸ķà¸£
à¸Ĺ à¸Ń
à¸ģà¸© à¸²à¸ģ
à¸ģà¸©à¸² à¹ĥà¸Ļ
à¸²à¸¡ à¸²à¸ķ
à¸Īà¸° à¸Ħ
à¸§à¸¥à¸°à¸Ħà¸£ à¸Ĺ
à¸Ķà¸Ńà¸ģ à¹Ħà¸¡
à¸Ļ à¸¥à¸°
à¸Ĺà¸²à¸ĩà¸ģà¸²à¸£ à¹ģà¸ŀà¸Ĺà¸¢
7 9
à¸ģ à¸Īà¸°à¹Ģà¸Ľ
à¸ģà¸²à¸£ à¹ģà¸ģ
Ġà¸ļ à¸¥
at er
à¹Ģà¸§à¸Ĺ à¸¡à¸Ļà¸ķà¸£
c o
f orm
à¸²à¸¢ à¹ĥà¸«
à¸Ĥà¸Ńà¸ĩ à¸ªà¸¡à¹Ģà¸Ķ
à¸Ħà¸§à¸²à¸¡ à¸¢
à¸ĩà¸ª à¸³à¸«à¸£
à¸Ĵ à¸Ļà¸²à¸¡
à¸Ńà¸Ĺ à¸£à¸ĩ
à¸§ à¹Ģà¸ķ
à¸Ĭ à¸§
à¸ģà¸²à¸£ à¸ļà¸Ķ
à¹Ĥà¸Ī à¹Ĥà¸ī
ĠL ove
à¸ŀà¸¥ à¸Īà¸²à¸ģ
à¸Ļà¹ģ à¸ŀ
à¸²à¸Ľà¸£à¸° à¸ª
Ġà¸ģà¸£à¸° à¸Ĺà¸£à¸§à¸ĩà¸¨
à¸Ļ à¸Ľà¸£à¸°à¸¡à¸²à¸ĵ
à¸ļà¸£ à¸Ń
à¸«à¸²à¸¢ à¹ĥà¸Ī
à¸ļà¸£à¸²à¸Ĭ à¸ļ
t on
à¸Ī à¸Ńà¸Ķ
à¸Ńà¹Ģà¸ª à¸Ļà¸Ń
à¸Ħà¸³ à¸ŀ
à¹Ģà¸ĭà¸Ļ à¸Ńà¸¥
" .
à¸Ńà¸ĩ à¸Ŀ
à¸Ńà¸Ļ à¹ĥà¸Ļ
à¸ŀà¸ļ à¹Ģà¸«
à¸² à¹Ģà¸®à¸Ļà¸£
à¸Ļ à¹Ĥà¸Ĺ
à¸Ļà¸¡ à¸«
à¸¢à¸¡ à¸Ńà¸¢
ĠM an
Ġà¸Īà¸²à¸ģ à¸¡à¸«à¸²à¸§
à¸ªà¸²à¸¢ à¸ŀ
à¸Ńà¸ģ à¹Ħà¸¡
Ġ252 1
à¸¢ à¸«à¸Ļ
à¸Ľà¸£à¸°à¸Ĭà¸²à¸ģà¸£ à¸Ĺ
o ok
à¸³ à¸¢
à¸Ńà¸²à¸£ à¸²à¸¡
Ġ an
à¸²à¸ Ĩ
à¸ļ à¸Ĭà¸²à¸ķ
à¹ģ à¸ģà¸¥
à¹Į :
à¸²à¸§ à¸«
à¸Ĺà¸³ à¸ģ
Ġà¹Ģà¸ģ à¸¡
ĠO r
à¸ģà¸Ļà¸³ à¸¡à¸²à¹ĥà¸Ĭ
à¸Ķà¸ª à¸³à¸Ļ
à¸ĩà¹ĥà¸Ļ à¸£
à¹Ħà¸Ĺà¸¢ à¸¥
à¸łà¸²à¸Ħ à¸Ń
A N
à¸ĩà¸ģà¸¥ à¸²à¸¢à¹Ģà¸Ľ
à¸Ķà¸²à¸§ à¸¤à¸ģà¸©
à¸² à¹Ģà¸¢
à¸Ńà¸ĩ à¸Ľà¸£
à¸²à¸¢ à¹Ģà¸ŀà¸¥à¸ĩ
à¸ªà¸Ńà¸Ķ à¸Ħà¸¥
à¸§à¸¢ à¸Ī
à¸Ļà¹ĥà¸Ļ à¸ª
à¸ķ à¸ŀ
à¸Ļà¸ªà¸ĸ à¸²à¸ļ
3 4
Ġà¹ĥà¸Ļ à¸¤à¸Ķ
à¸Ļà¸³ à¸¡à¸²à¹ĥà¸Ĭ
à¸ĭà¸Ńà¸Ł à¸ķ
à¸²à¸¢ à¸Ńà¸¢
à¸Ļà¸³ à¹Ģà¸Ĥ
en g
à¹ĥà¸Ļà¸Ĺ à¸°à¹Ģà¸¥
Ġà¹ģà¸¥à¸° à¹Ģà¸ģ
à¸§à¸¢ à¹Ħà¸¡
Ġà¸ģà¸²à¸£ à¹ģà¸Ĥ
à¸§à¸ĩà¹Ģà¸§à¸¥ à¸²à¸Ĺ
s ection
à¸² à¹Ģà¸ĩ
à¸Ľà¸£à¸° à¹Ģà¸ªà¸£
à¸į à¸«à¸Ļ
m p
à¸²à¸Ļ à¸ģà¸¥à¸²à¸ĩ
à¸ģà¸£ à¸Ľà¸ģà¸Ħà¸£à¸Ńà¸ĩà¸ª
à¸¢à¸ĩ à¸ŀà¸Ń
à¸²à¸ĩà¸ª à¸²à¸§
à¸Ĥà¸Ńà¸ĩ à¸«
à¸Ńà¸Ļ à¸ľ
à¸Ńà¸Ķ à¹Ģà¸¢
à¸²à¸ļ à¸£à¸£
à¸Ĳ à¸ªà¸ł
Ġà¸ģà¸²à¸£ à¸ŀ
Ġà¹Ģà¸¢ à¸Ńà¸£
7 8
à¸ĩ à¸Ńà¸Ļ
à¸¥ à¹ģà¸ģ
à¸Ńà¸¢ à¸Ľ
ig h
à¸ķ à¸Ħ
à¸Ī à¸Ń
Ġà¹Ģà¸Ń à¸ª
Ġà¹Ģà¸§ à¸¥
à¸Ńà¸ĩ à¸ŀà¸£à¸°
Ġà¸Ĺà¸³ à¸«à¸Ļ
à¹Ģà¸ĵ à¸£
à¹ģà¸Ļà¸§ à¹Ĥà¸Ļ
à¸«à¸¡à¸§à¸Ķ à¸«à¸¡
à¸²à¸ Ĳ
à¸ĩà¸£ à¸ĸ
6 5
Ġà¹ģà¸¥à¸° à¹Ģà¸ŀà¸¥à¸ĩ
à¸§à¸ĩ à¸£
Ġà¸ŀà¸£à¸° à¸ª
ir l
à¸²à¸Ļ à¹ģà¸¥à¸°
à¸Ħà¸§à¸²à¸¡à¸ª à¸°à¸Ķà¸§à¸ģ
à¸Ńà¸Ńà¸ģà¸¡à¸² à¹Ħà¸Ķ
à¸¥ à¹ģà¸«
à¸ĭà¸²à¹Ģà¸ļ à¸ĺ
à¸ģ à¸Ĩ
Ġ199 2
à¸Ļà¹Ģà¸ŀà¸¥à¸ĩ à¸Ĺ
à¸£à¸£à¸ŀ à¸ª
à¸¥ à¸Ńà¸Ļà¸Ķà¸Ńà¸Ļ
à¸¡à¸Ĺ à¸«à¸²à¸£
à¸Ł à¸Ĺ
à¸¡à¸²à¸£ à¸Ķà¸²à¸Ĥà¸Ńà¸ĩ
à¸Ļà¸²à¸¢ à¸ģ
à¸Ń à¸Ľà¸¥
à¹Ĥ à¸¢à¸Ļ
à¸¢ à¸²à¸Ĺ
Ġà¸¡ à¸Ļ
à¸Īà¸³ à¸Ħ
Ġà¸ģà¸²à¸£ à¸Ħ
à¸ŀà¸£à¸°à¸£à¸²à¸Ĭ à¸§à¸ĩà¸¨
à¸ģà¸©à¸²à¸Īà¸²à¸ģ à¹Ĥà¸£à¸ĩà¹Ģà¸£
à¹Ĥ à¸¢à¸ļ
à¸į à¹Ģà¸Ľ
à¸µà¹ī :
à¸Ĳ à¸ªà¸łà¸²à¸
9 5
Ġà¹ģà¸¥à¸° à¹Ģà¸ª
à¸ĩà¸Ĥ à¸ĵà¸°
à¸ĩ à¸«à¸¡à¸²à¸¢
à¸§à¸Ļ à¹Ģà¸ģ
à¸Ĺà¸²à¸ĩ à¸Ľà¸£à¸°à¸§
Ġà¸ĺ à¸Ļ
3 8
à¸Ħ à¸ģà¸¥à¸²à¸ĩ
à¸ľà¸¥ à¹Ħà¸¡
Ġ12 0
à¸¡ à¸²à¸Ń
Ġs p
Ġ à¹Ħà¸Ľà¸¢
Ġà¹Ĥ à¸Ħà¸¥
à¸Ń à¸²à¸Ķ
à¸ĩ à¸£à¸²à¸Ĭà¸Ńà¸²à¸ĵà¸²à¸Ī
à¸²à¸¢ à¹ĥà¸Ļà¸§
à¸Ńà¸ģ à¸³à¸«à¸Ļ
à¸ĩà¸ª à¸Ńà¸ĩà¸Ħ
à¸ĺà¸£à¸£à¸¡ à¹Ģà¸Ļ
à¸Ńà¸Ļ à¸Ľ
à¸§à¸Ļ à¸ľà¸ªà¸¡
Ġà¸Ľà¸£à¸°à¹Ģà¸Ĺà¸¨ à¸į
à¸Ĥà¸Ńà¸ĩ à¸ģà¸£
à¸Ł à¸²à¸£
Ġà¹Ĥà¸Ķà¸¢ à¸Ĭ
à¸§ à¹ģà¸Ľà¸£
à¸²à¸¥ à¸²
à¸ľà¸¥ à¸ªà¸Ńà¸ĩà¸Ļ
à¸Ľà¸£à¸°à¸ģà¸²à¸¨ à¸Ļ
à¸Ļà¹Ģà¸Ĺ à¸Ħà¹Ĥà¸Ļà¹Ĥà¸¥à¸¢
à¸ķà¸ģ à¹ģà¸ķ
Ġà¹ģà¸Ĺ à¸Ļà¸Ĺ
à¸ģ à¸ŀà¸£
à¸Ĭ à¸Ķ
à¸Ńà¸¡ à¸²à¸Īà¸²à¸ģ
à¹ģà¸¡ à¸¥à¸ĩ
à¸ŀà¸£à¸£à¸Ħ à¸Ľà¸£à¸°à¸Ĭà¸²à¸ĺ
Ġà¸ŀà¸£à¸° à¸Ń
à¸ļà¸Ļ à¸²à¸Ļà¸²à¸Ĭà¸²à¸ķ
à¹ģà¸Ħ à¸ļ
un g
à¸ŀà¸¢à¸²à¸ģà¸£ à¸ĵ
à¸ĩ à¸£à¸°à¹Ģà¸ļ
à¹ĥà¸Ļ à¹Ĥà¸¥à¸ģ
à¸Ļà¸£ à¸Ńà¸ĩ
à¸ĩà¹ĥà¸Ļ à¸ľ
à¸ªà¸²à¸Ĥ à¸²à¸§
A R
à¸¥ à¸Ĥ
à¸§à¸Ļ à¸ģà¸¥à¸²à¸ĩ
à¸ļà¸Ħ à¸ĵà¸°
ion s
à¸²à¸§ à¹Ħà¸§
à¹Ģà¸Ĥà¸² à¹Ħà¸Ł
à¸²à¹Ĥ à¸Ħ
t s
à¸Ķ à¸¨à¸£
à¸²à¸¢ à¸¥
Ġà¹ĥà¸Ļ à¸Ħà¸£
à¹Ģà¸¨à¸© à¸Ĺ
E R
à¸²à¸Ļ à¸²
à¹ģà¸¥à¸° à¹Ģà¸ŀ
à¹Ģà¸ľ à¸Ķ
Ġ3 4
à¹Ģà¸ĺ à¸Ńà¸¢
à¹ģà¸Ľà¸¥ à¸ģ
à¸Ħà¸²à¸Ķ à¸§
à¸° à¸Ĭ
à¸ĸ à¸Ńà¸Ķ
Ġà¸Ħà¸£ à¸Ńà¸ļà¸Ħà¸£
à¸£à¸£à¸¢ à¸²à¸Ĥà¸Ńà¸ĩ
à¸ŀà¸£à¸£à¸ĵ à¸ļ
à¸¡à¸Ļ à¸²à¸ĸ
ĠMus ic
à¸ĩ à¸Ľà¸ı
à¸¡ à¸ģà¸¥
à¸ķà¸Ńà¸Ļ à¹Ģà¸«à¸Ļ
u al
à¸ĩ à¸ģà¸¥à¸²à¸ĩ
à¸Ĭ à¸ª
à¸²à¸¡ à¸ª
à¹Ģà¸¥ à¸ķ
à¸Ľà¸£ à¸²à¸Ĭ
à¸²à¸Ľà¸£à¸° à¸ģà¸§
à¸ĩà¸ĩà¸²à¸Ļ à¸Ĺ
à¸Ķà¸Ļà¸Ħà¸£ à¸£à¸²à¸Ĭà¸ª
à¸¡ à¹Ģà¸Ĭ
à¸Ĺà¸²à¸ĩ à¹Ģà¸«à¸Ļ
à¸«à¸²à¸£ à¸ĺ
à¸Ļ à¸Īà¸°à¹Ģà¸Ľ
à¸ģ à¸łà¸²à¸ŀ
à¸¢ à¸¡à¸Ļ
à¸¹ à¹Ĭ
à¸§à¸ĩ à¸Ĭ
à¸§à¸£à¸£à¸ĵ à¸ł
à¸Ĥà¸Ńà¸ĩ à¸Ķ
à¸į à¸¢
à¸Ľà¸£à¸°à¸ģà¸Ńà¸ļ à¸łà¸²à¸ŀà¸¢à¸Ļà¸ķà¸£
à¸ł à¸²à¸Ļ
à¸²à¸ĭ à¸²à¸£
yst em
t p
à¸ļ à¹Ģà¸ŀà¸¥à¸ĩ
à¸Ľà¸£à¸°à¸ģà¸²à¸¨ à¹ĥà¸«
à¹ģà¸ªà¸Ķà¸ĩ à¸Ńà¸Ńà¸ģ
à¸Ĺà¸£à¸ĩ à¸ķ
Ġà¸ķà¸¥à¸Ńà¸Ķ à¸Īà¸Ļ
à¸¢ à¸§à¸ĩà¸¨
Ġà¹ĥà¸Ļ à¸ĩà¸²à¸Ļ
à¸ĩ à¹Ĥà¸ģ
à¸Ļà¸ª à¸²à¹Ģà¸«à¸ķ
à¸Ķà¸ª à¸£à¸£
à¸ĩà¸ªà¸Ńà¸ĩ à¸Ŀ
à¸¨à¸²à¸ªà¸Ļ à¸²à¸Ħà¸£
o hn
à¸Ļ à¹Ģà¸ģà¸²à¸°
à¸ģ à¸«à¸¡
à¸§ à¸Īà¸²à¸ģ
à¹Ħà¸Ľ à¸Īà¸Ļà¸ĸ
Ġà¸¡ à¸¡
Ġà¹ĥà¸Ļ à¸Ľà¸£à¸°à¹Ģà¸Ĺà¸¨
à¸Ļà¸¡ à¸Ļ
à¸Ļà¹Ħà¸Ľ à¸Ĺ
à¸²à¸Ńà¸Ńà¸ģ à¸Īà¸²à¸ģ
/ /
à¸Ĥà¸Ńà¸ĩ à¸¨
à¸Ļà¸Ļ à¸²à¸Ħ
à¹ĥà¸Ļ à¸ļà¸²à¸ĩ
à¸ģ à¸²à¸ķ
Ġà¸Ńà¸³à¹Ģà¸ł à¸Ńà¸ļ
Ġ y
à¸¢ à¸ģà¸²à¸£
à¸ŀ à¸Ńà¸¥
à¸ļà¸ģà¸²à¸£ à¸Ĺ
à¸Ļà¸ŀà¸£à¸° à¸Ń
as h
à¸²à¸Ľà¸£à¸° à¸Ĭ
à¹Ģà¸§à¸¥ à¸¥
f er
à¸Ķ à¸ļà¸£
à¸Ńà¸ļ à¸Ħà¸¥
à¸Ľà¸ģà¸Ħà¸£ à¸Ńà¸ĩà¸Ĺ
à¸²à¸Ħà¸§à¸²à¸¡ à¸£
Ġ247 5
Ġ/ >
à¹ĥà¸Ļ à¹Ģà¸Ĭ
Ġà¸Ľ à¸Ńà¸Ļà¸Ķ
à¸ķà¸£à¸ĩ à¸ģà¸¥à¸²à¸ĩ
à¹ģ à¸ļà¸¥
Ġà¸Ķ à¸§à¸ĩ
á ĥ
à¸«à¸²à¸£ à¸ĩà¸²à¸Ļ
à¸²à¹Ĥ à¸ĭ
à¸ģ à¸Ľà¸ı
à¸ļ à¹Ģà¸Ĺ
à¸Ńà¸¡ à¸²à¸ĸ
Ġ <
à¸ĩà¸§ à¸¥
à¸Ķà¸²à¸£ à¸²à¸¨à¸²à¸ªà¸ķà¸£
r es
Ġ3 7
à¸Ļ à¸ģà¸£à¸£à¸¡à¸ģà¸²à¸£
à¸²à¸¢ à¹ģà¸£à¸ĩ
à¸²à¸Ī à¸³à¸Ļà¸§à¸Ļ
à¹Ģà¸§ à¸¨
à¸Ķà¸ģà¸²à¸£ à¸ģ
à¸¬ à¸²à¸Ĺ
en e
à¸Ļà¹ģà¸Ķ à¸Ļà¸Ĺ
à¸§à¸Ļ à¸¥
Ġà¸Ĥà¸Ńà¸ĩ à¸Ĺ
à¸²à¸ĩà¹Ħ à¸ģà¸¥
y s
à¸Ķ à¸²à¸Ĺ
à¸§à¸¡ à¹ģà¸ªà¸Ķà¸ĩ
à¸ļà¸²à¸ĩ à¸ģ
à¸ļ à¸§à¸£
à¸Ńà¸ĩ à¹ģà¸«
à¸³ à¸Ĥ
Ġ3 9
oc i
à¸ģà¸²à¸£ à¸Ħà¸¥
à¸²à¸¢ à¸ľ
à¸Ńà¸Ļ à¸ªà¸Ļ
Ġà¹ģà¸¥à¸° à¸ŀà¸£à¸°
à¸§à¸¢ à¹Ģà¸ª
à¸Ńà¸¡ à¸²à¸£
à¸Ńà¸ļ à¸ļ
à¹ģà¸¡ à¸Ļà¸ķ
Ġ4 00
à¸²à¸£à¸° à¸ļà¸ļ
à¸¨à¸Ī à¸£à¸£à¸¢
à¸Ļà¹Ģà¸Ńà¸ģ à¸¥
à¸Ļ à¸²à¸ĭ
à¸¥ à¹Ģà¸§
à¸¢ à¸ĵ
à¸° à¹Ħà¸£
à¸¢à¸Ļ à¸Ļà¸²à¸¢
à¹Ħà¸¡ à¹Ĥà¸Ħà¸£
à¸łà¸²à¸Ħ à¸£
à¸Ļà¹ĥà¸Ļ à¸ªà¸¡
à¸Īà¸²à¸ģà¸ģà¸²à¸£ à¹Ģà¸Ľ
à¸² à¹Ĥà¸Ļ
à¸Ķ à¹Ģà¸Ļ
Ġà¹ĥà¸Ļ à¸Ħ
Ġà¸Ń à¸²à¸ĵà¸²à¸Ī
à¸§à¸¢ à¸¥
Ġà¸Ń à¸²à¸ģà¸²à¸£
à¸Ĺà¸£ à¸Ľà¸£à¸²à¸ģà¸²à¸£
à¸²à¸ł à¸²à¸¢
à¸Ļ à¸į
à¸Ĺà¸ĺ à¸¨à¸ķà¸§à¸£à¸£à¸©à¸Ĺ
à¸Ĺà¸£à¸ĩ à¹Ħà¸Ķ
Ġà¸ŀà¸¥ à¹Ģà¸Ńà¸ģ
ti t
ar a
à¸Ļà¸²à¸¡ à¸ªà¸ģ
à¹ĥà¸Ļ à¸Ńà¸Ļà¸²à¸Ħà¸ķ
à¹ģà¸¥à¸° à¸¨
à¸Ķà¸ģà¸²à¸£ à¸¨
à¹ģà¸Ńà¸Ļ à¹Ģà¸Īà¸¥
à¸Ķ à¹ģà¸¥
à¹Ģà¸£ à¸Ļ
Ġà¹Ģà¸ļ à¸Ńà¸£
à¸Ļà¹Ģà¸§à¸¥ à¸²à¸Ļà¸²à¸Ļ
8 4
à¸Ń à¸²à¸«à¸£
à¸ĸ à¸²à¸§à¸£
à¸ĩà¸ª à¸²à¸§
à¸ĩà¸ķ à¸°
à¸²à¹Ģà¸Ľ à¸¥
à¸ģà¸ķà¸£ à¸Ńà¸Ļ
à¸Ļ à¸Ľà¸£à¸°à¸¡
à¸ģ à¸²à¸Ĺ
à¸Ĥà¸Ńà¸ĩ à¹Ģà¸Ħà¸£
à¸£à¸§à¸¡ à¸ľà¸¥à¸ªà¸Ńà¸ĩà¸Ļ
à¹Ģà¸Ńà¸Ļ à¹Ģà¸ķà¸Ńà¸£
à¸ļ à¸ŀà¸£à¸°à¹Ģà¸Ī
à¸Ńà¸ĩ à¸«à¸£
Ġà¹Ģà¸ŀà¸£à¸²à¸° à¸§
à¸Ķ à¹ģà¸ķ
à¸§à¸ĩ à¸ªà¸ĩà¸Ħà¸£à¸²à¸¡à¹Ĥà¸¥à¸ģà¸Ħà¸£
ĠR e
à¸Īà¸ŀà¸£à¸° à¹Ģà¸Ĺà¸ŀà¸£
Ġ251 3
à¸ĩà¸«à¸¡ à¸Ķà¸Ĺ
à¸² à¹ģà¸ľ
à¸Ńà¸£ à¸£à¸ĸ
à¸Ķ à¹Ģà¸ļ
à¸¡à¸²à¸ģ à¸£à¸£à¸¡
à¸¢à¸ĩ à¹Ĥà¸Ķà¸¢
Ġà¹Ĥà¸Ķà¸¢ à¸ĸ
i x
r ap
Ġ or
à¸Īà¸° à¹Ģà¸Ľà¸¥
à¸ģ à¹ģà¸ļà¸ļ
à¸Ħ à¹ģà¸£à¸ģ
Ġà¸ģà¸²à¸£ à¸ģ
à¸ļà¸£à¸£à¸ĵ à¸²à¸ĺ
à¸Ńà¸ĩ à¸ģà¸²à¸£à¸Ĺ
à¸²à¸¡ à¸Ħà¸³à¹ģà¸«
à¸į à¸§
à¸į à¹ģà¸«
à¸Ĳ à¸ļ
Ġà¹ģ à¸£
à¸Ńà¸Ļ à¸«
à¸ķà¸Ńà¸Ļ à¹ĥà¸ķ
à¸ªà¸°à¸Ķ à¸§à¸ģ
à¸ĩ à¸Ľà¸£à¸°à¸¡à¸²à¸ĵ
à¸¡ à¸²à¸¨
à¸Ńà¸Ķ à¸£
à¸¡ à¹Ģà¸ģ
à¹ģà¸¥à¸° à¹Ģà¸¡
à¸§à¸¢ à¸¢
à¸ĩà¸ª à¸«à¸£à¸²à¸Ĭà¸Ńà¸²à¸ĵà¸²à¸Ī
Ġà¹ģ à¸ļà¸£
à¸ĩ à¸ī
à¸ª à¸Ĭ
Ġà¸Ĭ à¸Ńà¸ļ
à¸Ļà¹ĥà¸Ļ à¹Ģà¸Ķ
à¸ļà¸£à¸¡à¸£à¸²à¸Ĭ à¸ģ
à¸Ń à¹ĥà¸«à¸¡
à¸²à¸¢ à¹Ĥà¸Ķà¸¢
à¹Ĥà¸Ķ à¸Ļ
Ġà¸Ĥà¸Ńà¸ĩ à¹Ĥà¸¥à¸ģ
à¸²à¸ĩ à¹Ģà¸ľ
à¸Ńà¸Ļ à¹Ħà¸Ľ
à¸¢à¸ĩ à¹Ħà¸Ķ
à¸ģà¸²à¸£ à¸ĭ
à¸Ńà¸ª à¹ģà¸Ńà¸Ļà¹Ģà¸Īà¸¥
à¸²à¸Ĥ à¸Ńà¸ĩà¸Ħ
ĠSch ool
à¸² à¹Ģà¸Ħà¸£
à¸¢ à¹Ĥà¸ļà¸£à¸²à¸ĵ
à¹Ģà¸¥ à¸Ń
à¸§à¸Ļ à¸Ķ
à¹Ħà¸Ĺ à¸¡
à¸Īà¸Ķ à¸«à¸¡à¸²à¸¢
à¸Ķ à¹Ģà¸«à¸¥
à¸Ńà¸ª à¸Ļ
an c
à¹ģà¸ļ à¸ļà¸£
à¸Ħ à¸Ļà¸Ļ
à¹ĥà¸Ļ à¹ģà¸Ļà¸§
à¹Ģà¸Ī à¸¡à¸ª
à¸łà¸²à¸ŀ à¸ĸ
Ġ199 1
A n
à¸¡ à¸ĵà¸ĳ
à¸Ħà¸§à¸²à¸¡ à¸«à¸¥à¸²à¸ģà¸«à¸¥à¸²à¸¢
à¹Ĥà¸¡ à¸ļ
à¸Ħ à¸ªà¸¡
à¸Ńà¸ª à¸ĸ
à¸ªà¸²à¸¡à¸²à¸£à¸ĸ à¸Ĺ
Ġà¹Ģà¸ŀà¸¥à¸ĩ à¸Ļ
à¸²à¸Ńà¸²à¸ģà¸²à¸¨à¸¢à¸²à¸Ļ à¸Ļà¸²à¸Ļà¸²à¸Ĭà¸²à¸ķ
à¸Ń à¸Ħà¸¥
à¸§à¸Ļ à¸ŀà¸£à¸°à¸Ńà¸ĩà¸Ħ
à¸¡à¸« à¸²à¸Ń
à¸ĩà¹ĥà¸Ļ à¸Ĺ
à¸²à¹Ĥ à¸Ħà¸£
Ġà¹ģà¸Ĥ à¸§à¸ĩ
8 3
à¸Ńà¸Ļ à¹Ģà¸£
à¸£à¸£ à¸¨à¸Ļ
Ġà¹Ĥ à¸Ľ
à¸ļà¸Ħà¸§à¸²à¸¡ à¹Ģà¸ª
à¹ģà¸Ł à¸Ĭ
Ġà¹Ģà¸¨ à¸£à¸©à¸Ĳ
à¸¡ à¸Ĺà¸£
à¸²à¸ĩ à¹ĥà¸«à¸į
à¸²à¸ģ à¸£à¸£
à¸Ńà¸Ķ à¸Ńà¸¥
Ġ199 4
ow n
A T
à¸Ļ à¹ĥà¸ķ
Ġ5 5
Ġ à¸Ľà¸£à¸²à¸ģà¸ıà¸§
à¸¡ à¹Ģà¸Ĺ
Ġà¹Ĥà¸Ķà¸¢ à¸§
à¸ĩà¸¡ à¸«
à¸Ħà¸³ à¹ģà¸Ļà¸°à¸Ļà¸³
l es
à¹ĥà¸Ļ à¸ªà¸¡à¹Ģà¸Ķ
à¸Īà¸²à¸ģ à¸ģ
in a
à¸Ĭà¸²à¸¢ à¸Ĺ
à¸ª à¸ģà¸²à¸£
à¸²à¸Ķ à¸²à¸§
à¸¡à¸² à¹Ģà¸ŀ
ht tp
à¸¡ à¸«à¸¥
Ġà¸¡ à¸Ńà¸£
à¸Ńà¸ķ à¸ª
at a
7 6
à¸ĩ à¸ŀà¸£à¸°à¸Ńà¸ĩà¸Ħ
à¸ļ à¸Ħà¸³à¸§
à¸Īà¸° à¸ģ
à¸Ĺà¸²à¸ĩ à¸Ń
à¸Ĭà¸²à¸§ à¸į
à¸ªà¸²à¸¡à¸²à¸£à¸ĸ à¸ª
en ter
à¸Ķà¸¡ à¸ªà¸¡à¸ļ
à¸¡ à¸ĩ
à¹ģà¸¥à¸° à¸ĭ
à¸Ļà¸Ĺ à¸°à¹Ģà¸¥
à¸ĵ à¸¢
à¸ģà¸© à¸²à¸¡
Ġà¸Ī à¸£
à¸¥à¸¢ à¹Ģà¸Ķ
à¸¡ à¸²à¸Ī
à¸§à¸¡ à¸ķ
à¸ĩà¸ª à¸«à¸£
à¸Ļà¸¡ à¸²à¸ķ
à¸Ľà¸£à¸°à¸Īà¸³ à¸ķ
à¸¢à¸Ńà¸Ķ à¸Ļ
à¹ĥà¸Ļà¸ª à¸²à¸Ĥ
à¹Ģà¸©à¸ģà¸ªà¸¡ à¸£à¸ªà¸ģ
Ġ à¸łà¸²à¸©à¸²
à¸² à¹Ģà¸Ħ
Ġà¸ª à¹Ģà¸ķ
Ġà¹Ĥ à¸¢
à¸Ļà¸Ń à¸²à¸§
an k
à¹Ģà¸ĺ à¸Ńà¸ķ
Ġà¸ļà¸£ à¸¡à¸Ļà¸²à¸ĸ
à¹ģà¸Ł à¸Ļà¸ķà¸²à¸ĭ
: //
à¹Ĥ à¸Ļà¸§
à¸Ļà¸Ķ à¸Ļà¸ķà¸£
à¸Ńà¸ª à¸ģ
à¸Ľà¸£à¸²à¸ģà¸ı à¸Ńà¸¢
Ġà¸ģà¸£à¸¡ à¸«à¸¥à¸§à¸ĩ
7 1
Ġà¹ģà¸¥à¸° à¸Ńà¸Ķ
à¸ŀà¸¥ à¸Ńà¸¢
à¸²à¹Ħà¸Ľ à¸¢
à¹Ģà¸ŀà¸£à¸²à¸° à¸§
à¸§ à¹Ģà¸Ļ
Ġà¹ģà¸¥à¸° à¹Ģà¸¥
à¸ĩà¸ķ à¸³à¹ģà¸«à¸Ļ
à¹Į (
à¸ŀ à¸£à¸¡
à¸²à¸ĩ à¸ĩà¸²à¸Ļ
à¸§à¸¢ à¸Ļà¸¡
à¸¡ à¸²à¸ĭ
Ġà¹ĥà¸Ļ à¸ģà¸£à¸ĵ
à¸Ĺà¸³à¸ĩà¸²à¸Ļ à¹Ģà¸Ľ
Ġ251 2
à¸ļà¸²à¸¢ à¸§
à¸Ń à¹ĥà¸Ī
à¸Ń à¹Ģà¸«à¸¥
à¸Ļà¸£ à¸²à¸ĺ
or n
à¸¥à¸³ à¸Ľà¸²à¸ĩ
à¸ļà¸Ľ à¸§à¸Ķ
à¸Ńà¸Ńà¸Ļ à¹Ħà¸¥à¸Ļ
Ġà¸ļà¸£à¸¡à¸Ļà¸²à¸ĸ à¸ļà¸ŀ
à¸Ľà¸£à¸°à¸ģà¸Ńà¸ļ à¸ŀ
à¸Ħà¸§à¸²à¸¡à¸ªà¸²à¸¡à¸²à¸£à¸ĸ à¹ĥà¸Ļà¸ģà¸²à¸£
à¸Ħ à¸Ļà¸ķ
à¸²à¸¢ à¸ļ
à¸Ńà¸Ļ à¹Ģà¸Ĥ
à¹Ħà¸Ľ à¹ĥà¸Ĭ
à¸§à¸Ļ à¹ĥà¸«
à¸ĩà¸Ļ à¸²à¸¢à¸ģà¸£
ĠC ol
à¸Ħà¸ĵà¸° à¸Ļ
à¸ľà¸ªà¸¡ à¸ľà¸ªà¸²à¸Ļ
h o
à¸¥ à¸²à¸ª
à¹ĥà¸Ļ à¹Ģà¸ģà¸¡
Ġà¸ģà¸²à¸£ à¹Ģà¸¥
à¸Ĺ à¸²à¸£
à¸į à¸ĺà¸£à¸£à¸¡
à¸ģà¸©à¸²à¸ķ à¸Ńà¸Ļà¸Ľà¸¥à¸²à¸¢
à¸Ń à¹Ĥà¸Ķà¸¢
à¸Ńà¸¢ à¸Ń
à¸²à¸¢à¹Ħà¸Ľ à¸Ńà¸¢
à¸£à¸ĩ à¸ģ
à¹Ģà¸ĭ à¸¢
à¸Ĭà¸²à¸§ à¸Ŀà¸£
à¸Ļà¸Ĥà¸Ńà¸ĩ à¸ķ
à¸ģà¸ĩà¸²à¸Ļ à¹ĥà¸«à¸į
à¸Ľà¸£à¸°à¸ªà¸²à¸Ĺ à¸ª
à¸ĩ à¹Ħà¸Ĺà¸¢
à¸ļ à¸°
à¸²à¸ģ à¸²à¸ģ
Ġà¹ģà¸¥à¸° à¸Ńà¸¢
à¸łà¸²à¸Ħ à¸Ļ
Ġà¹Ģà¸ĺ à¸Ńà¹Ģà¸Ľ
à¸īà¸²à¸¢ à¸²à¸§
à¸Ĥà¸Ńà¸ļ à¹Ģà¸Ĥà¸ķ
à¸Ĺà¸²à¸ĩà¸ķà¸Ńà¸Ļ à¹Ģà¸«à¸Ļ
à¸Ń à¹ģà¸¥
à¸ĩ à¸ļà¸Ļ
Ġà¸§ à¸£
Ġà¸ģà¸²à¸£ à¸§
à¸Ńà¸ļà¸£ à¸Ńà¸ĩà¸Ĭà¸Ļà¸°à¹Ģà¸¥
à¸Ļ à¸ī
à¸Ńà¸ĩ à¹ģà¸ļà¸ļ
à¸Ńà¸ĩ à¹Ĥà¸ģà¸¥
à¸Ńà¸ª à¸²à¸¡
Ġ194 5
à¸²à¸ª à¸Ļà¸§
à¸ģà¸£à¸° à¸ļà¸Ńà¸ģ
à¸¥à¸¢à¹Ģà¸Ķ à¸Ĭà¸¡
à¸¡ à¸¡à¸²à¸ģà¸Ĥ
à¹ģà¸¥à¸° à¸«à¸Ļ
en c
6 6
à¸Ļ à¹Ħà¸Łà¸Ł
à¸¨à¸²à¸ªà¸Ļ à¸²à¸ŀ
à¸Ńà¸Ł à¸ķ
à¸Ī à¸Ĥà¸Ńà¸ĩ
à¸²à¸¢ à¸Ľ
à¸Ńà¸¡ à¹ĥà¸«
à¸²à¸Ħ à¸³
à¸Ńà¸Ńà¸ģ à¸¡à¸²à¹Ģà¸Ľ
à¸ŀà¸¢à¸²à¸¢à¸²à¸¡ à¸Ĺ
à¹ĥà¸Ļà¸Ľà¸£à¸°à¹Ģà¸Ĺà¸¨ à¸į
Ġ à¸Į
à¸Ħ à¸ŀ
in t
à¸ģà¸²à¸£à¸ķ à¸Ńà¸ļà¸£
à¸¨à¸²à¸ªà¸Ļ à¸²à¸Ń
à¸Ļ à¸£à¸°à¸¢à¸°
à¸§ à¸¥à¸ĩ
à¸ģà¸© à¸²à¸Ńà¸¢
5 3
8 1
Ġ à¸Ľà¸£à¸°à¸ģà¸Ńà¸ļà¸ģ
à¸Ń à¹Ģà¸Ľà¸¥
à¸Łà¸£ à¸²à¸Ļà¸ĭ
à¹Ģà¸ģ à¸ķ
à¸ģ à¸§à¸ĩ
à¸Ĺà¸²à¸ĩ à¸Ńà¸²à¸ģà¸²à¸¨
à¸£à¸¡ à¸¢
ĠM e
à¸Ļà¸Ĺ à¸£à¸²à¸¢
an e
Ġà¹Ģà¸Ń à¹Ģà¸Ĭ
à¸Ľà¸£à¸°à¸Ĭà¸²à¸Ĭ à¸Ļà¸Ī
à¹Ģà¸Ķ à¸¢
à¸Ńà¸Ńà¸ģ à¹Ħà¸ĭà¸Ķ
à¸«à¸¥à¸²à¸¢ à¸£
à¹Ĥà¸¢ à¸ķ
à¹Ħà¸¥ à¸Ł
Ġ251 4
Ġ x
Ġà¹ģà¸¥à¸° à¸Ħà¸§à¸²à¸¡
in s
Ġ ac
à¸§à¸ĩ à¸ģà¸²à¸£à¸ļ
Ġà¹Ĥà¸Ķà¸¢ à¹ģà¸ļ
à¸ķà¸²à¸¡ à¸«à¸¥
à¸Ļà¹ĥà¸Ļ à¸¢
ĠC O
Ġà¹Ħ à¸Ĺ
à¸Ļà¹Ħ à¸ŀà¸£
7 2
à¹Ħ à¸Ńà¸Ń
Ġà¹ģà¸¥à¸° à¸Ļà¸²à¸¢
à¸¢à¸ĩ à¹ĥà¸«
or s
ak e
à¸ª à¸§à¸Ķ
Ġà¹ģà¸¥à¸° à¹Ģà¸Ľà¸¥
à¸¢à¸§ à¹Ģà¸Ĺ
à¹ģà¸ª à¸ĩà¸Ń
à¹ģà¸Ĥ à¸Ļ
à¸ĩà¸Ĥà¸Ńà¸ĩ à¸Ĺ
à¸Ńà¹Ģà¸£ à¸Ĭ
à¸²à¸ŀà¸£à¸° à¹Ģà¸Ī
à¸¡à¸« à¸²à¸¢
à¸¨à¸ķ à¸§à¸£à¸£à¸©
à¸ŀà¸£à¸°à¸Ļà¸²à¸¡ à¸§
à¸ĩ à¸Īà¸°à¹Ģà¸Ľ
à¸¢ à¸ģà¸¥à¸²à¸ĩ
à¸Ľ à¸Ĥà¸Ńà¸ĩ
à¸²à¸£ à¸«
à¸Ļà¸ķ à¸¥à¸Ńà¸Ķ
Ġ4 2
à¸ģà¸Ħ à¸²à¸¡
à¸ĩà¸Ĩ à¸£à¸²à¸Ĭ
à¸ª à¹ģà¸¥à¸°
à¸²à¸Ļ à¸ĸ
à¸¢à¸Ļ à¸Ĥà¸Ńà¸ĩ
à¸¢à¸ĩ à¸«à¸Ļ
i le
à¸§à¸Ļ à¸Ħ
à¸ŀà¸£à¸£ à¸©
à¸Ńà¸²à¸ģà¸²à¸¨ à¸¢à¸²à¸Ļ
à¸Ńà¸¢ à¸Ĥà¸Ńà¸ĩ
à¸§à¸Ļ à¸ŀ
à¸ķ à¹ĥà¸Ļà¸Ľ
à¸Ńà¸Ļ à¹Ĩ
Ġà¹ģ à¸«à¸¥
Ġà¹ģ à¸¡à¸Ļ
à¸ľà¸¥ à¸§
Ġà¸Ĺà¸£à¸ĩ à¸ŀà¸£à¸°à¸ģà¸£
à¸Ļ à¸©à¸²
à¸ģà¸© à¸²à¸Ļ
Ġà¹Ĥà¸Ķà¸¢ à¸Īà¸°
à¸Īà¸ŀà¸£à¸° à¸¨à¸£
à¸ªà¸° à¹Ģà¸ģà¸©
à¹Ħà¸Ń à¸ĭ
à¸¢à¸ĩ à¸Ħà¸Ļà¹Ģà¸Ķ
Ġ199 3
à¹Ĥà¸ŀ à¸£à¸ĩ
à¸Ĺà¸£à¸£ à¸¨
ã ĥ
Ġ à¸«à¸§
à¸Ķ à¸łà¸²à¸©
à¸²à¸ĭ à¸²à¸ģ
t ain
Ġà¹Ĥà¸Ķà¸¢ à¹Ģà¸Ĥ
à¸Ħà¸Ļ à¹Ħà¸Ĺà¸¢
à¸«à¸²à¸£ à¸Ĺ
à¸ļà¸ģà¸²à¸£ à¹ĥà¸Ĭ
à¸ģà¸£à¸°à¸Īà¸²à¸¢ à¹Ģà¸ª
Ġà¸ªà¸¢à¸²à¸¡ à¸ļà¸£à¸¡à¸£à¸²à¸Ĭà¸ģ
à¸Ķ à¸«à¸¢
à¹ĥà¸Ļ à¸¨
à¹Ĥà¸Ļ à¸ļ
à¸ļà¸¡ à¸Ńà¸ļ
Ġ199 5
à¸Ĭà¸į à¸²
à¸¡ à¸²à¸ŀ
à¸ĩà¸¡ à¸«à¸²à¸§
à¸Ķ à¹Ĥà¸£à¸Ħ
à¸Ķ à¸£à¸°à¹Ģà¸ļ
à¸Ħà¸£ à¸ļà¸£à¸Ńà¸ļ
à¸Īà¸²à¸ģ à¸Ī
à¸ĸ à¸§
Ġà¹Ĥà¸Ķà¸¢ à¸¢
à¸ĩà¸ª à¸²à¸£
ĠIn ternational
à ¤
à¸ģ à¹Ĥà¸Ķà¸¢
à¸ļ à¸¥à¸ĩ
à¸§à¸Ļ à¹Ģà¸Ľ
à¸¢à¸¡ à¸ķ
ad e
à¸ģà¸²à¸£ à¹Ģà¸ª
à¸¥à¸³ à¹Ħà¸ª
à¸¥à¸¢à¹Ģà¸Ķà¸Ĭà¸¡ à¸«à¸²à¸£à¸²à¸Ĭ
à¸¡ à¸Ńà¸Ńà¸ģà¸Ńà¸²à¸ģà¸²à¸¨
à¸§à¸ĩ à¸ģà¸¥à¸²à¸ĩ
à¹ĥà¸Ļà¸ģà¸²à¸£ à¸ľà¸¥
à¸«à¸¥à¸²à¸¢ à¸Ľ
4 1
à¸ŀ à¸³à¸Ļ
à¸¡à¸² à¹ĥà¸«
à¸¡à¸ª à¸²à¸¡
à¸Ļ à¸Ħà¸§à¸²à¸¡à¸£
à¸Ľà¸£ à¸²à¸¨
Ġà¸« à¸¢
à¸Ļà¸ŀà¸£à¸° à¹Ĥà¸Ńà¸£à¸ª
à¹ģ à¸Ĺà¸£
à¸Īà¸²à¸ģ à¸§
à¸²à¸Ħ à¸£à¸Ńà¸ļ
à¹Ģà¸ĭ à¸ķ
à¸ĩà¸ģà¸¤à¸© à¸Ĺ
Ġc om
à¸Ńà¸° à¸¡
à¸ģà¸²à¸£à¸ķ à¸¥à¸²à¸Ķ
à¹Ģà¸¥à¸¢ à¸Ĺ
à¸Ķ à¸ł
Ġ3 8
à¸Ļà¸Ń à¹Ģà¸¡à¸£
Ġà¸Ĥ à¸§à¸ļ
à¸¢ à¹ĥà¸Ļà¸Ľ
à¸²à¸ĩ à¹Ģà¸¥
à¸²à¸ª à¹Ģà¸ķà¸Ńà¸£
à¹Ģà¸ĺ à¸Ńà¸Ĺ
à¹Ģà¸Ķ à¸§
Ġà¹ģà¸¥à¸° à¸ªà¸£
à¸£à¸ĵ à¸£à¸ĩà¸Ħ
à¹Ģà¸ªà¸ģà¸ªà¸¡ à¸£à¸ª
à¸²à¸Ħ à¸ĵ
Ġà¸§ à¸Ńà¸£
Ġà¹Ģà¸Ī à¸¡à¸ª
à¸Ļ à¹Ĥà¸Ļ
à¸¡ à¸Ħà¸§à¸²à¸¡
à¸Ńà¸Ķ à¸ª
à¸¡à¸²à¸ģ à¹Ģà¸ģ
Ġà¹Ģà¸ĺ à¸Ńà¸Ī
à¹Ģà¸ªà¸Ļ à¸Ńà¸§
à¸Ļ à¸łà¸²à¸¢à¹ĥà¸Ļ
à¸Ńà¸¢ à¸ĭ
à¸į à¹ģà¸Ī
ĠA d
à¸Ļà¹ģà¸¥à¸° à¸¡
ĠB r
à¸ķà¸ļà¸Ńà¸¥ à¸¥
à¸Ń à¸«à¸£
à¸ŀà¸£à¸° à¸Ĭ
à¸¥à¸ĩ à¹Ĥà¸Ĺà¸©
à¸¬ à¸²à¸ª
Ġà¸Ńà¸Ńà¸ģ à¸īà¸²à¸¢
Ġà¸ī à¸°à¸Ļ
à¹Ģà¸ĭà¹Ĥà¸¥ à¸Ļà¸²
à¸§ à¸Ĺà¸£à¸ĩ
Ġà¹ĥà¸Ļ à¹Ģà¸Ĥà¸ķ
à¸Īà¸Ī à¸²à¸Ļ
Ġà¸Ľà¸£à¸° à¸ŀ
à¸² à¹ģà¸Ĺ
à¸§à¸¢ à¸ĭ
à¸ĩà¹ģ à¸ļ
à¸ĩà¸ģà¸¤à¸© à¹ģà¸¥à¸°
ĠD e
Ġà¸Ĥà¸ĵà¸° à¸Ļ
à¸ĩ à¹Ĥà¸¥à¸ģ
Ġà¹ģ à¸Ńà¸¥
Ġ4 8
à¸²à¸Ľà¸£à¸° à¸Ĺ
à¸¤à¸« à¸²à¸ªà¸Ļ
à¸ªà¸« à¸ŀ
t o
à¸ģ à¸Ļà¸²à¸¢à¸ģà¸£
à¸³ à¸ĭ
à¸Ńà¸¢ à¹Ģà¸Ľ
à¹Ģà¸ªà¸Ļ à¸²à¸ļà¸Ķ
à¸¢ à¹Ĥà¸Ļ
à¸ĵ à¸¥
à¸¢à¸ģ à¸Ĥ
à¸Ħà¸³ à¸£
ĠC ar
à¸Ńà¸ĩà¸£à¸²à¸§ à¸Ĥà¸Ńà¸ĩ
à¸ĩà¸£à¸§à¸¡ à¸ĸ
à¹ģ à¸Ńà¸ª
Ġà¹ģà¸¥à¸° à¹ĥà¸Ļà¸§
à¹ĥà¸Ļà¸ģà¸²à¸£ à¸Ĺ
à¸ŀà¸¥ à¹Ģà¸¡
à¸Ľà¸£à¸°à¸ģà¸Ńà¸ļ à¸Ńà¸²à¸Ĭ
. ,
à¸ļ à¹Ģà¸«à¸ķ
à¸įà¸į à¸²à¸§
à¸Ń à¸£à¸°à¸Ķ
à¸§ à¹Ģà¸Ĺ
à¸ļ à¸¡à¸«à¸²à¸§
à¸Ĭ à¸²à¸Ķ
Ġ19 50
à¸Ķà¸ª à¸ĩà¸Ħà¸£à¸²à¸¡
à¸Ļà¸Ĺà¸²à¸ĩ à¸Ķ
6 9
à¸ĩ à¸ŀà¸£
à¸Ĥà¸Ńà¸ĩà¸ª à¹Ĥà¸¡à¸ªà¸£
à¹Ĥà¸Ķà¸¢ à¸ķà¸£
à¸Ľà¸£ à¸²à¸Ħ
à¸Ħà¸Ļ à¹ĥà¸«à¸¡
à¹ģà¸Ĺà¸Ļ à¸ŀà¸£à¸°à¸Ńà¸ĩà¸Ħ
à¸ĩà¹Ģà¸ģà¸ķ à¸ģà¸²à¸£à¸ĵ
à¸ķà¸£à¸§ à¸Īà¸Ī
à¸Ļ à¹Ģà¸Ł
à¸¢à¸Ļ à¹ģà¸¥à¸°
à¸¬à¸² à¹ģà¸«
à¸Ļ à¸Ľà¸£à¸°à¹Ĥà¸¢à¸Ĭà¸Ļ
à¸¡ à¹Ģà¸ŀà¸¥à¸ĩ
à¸Ķ à¹ģà¸ľ
Ġà¹ģà¸¥à¸° à¹Ģà¸Ļ
à¸Ńà¸« à¸²
à¸£à¸Ńà¸ļ à¸Ħ
i or
al e
à¸ĺ à¸ĩ
à¸²à¸Ĭ à¸²à¸£
à¸ĩà¹Ģà¸Ķ à¸Ļà¸¡à¸²à¸£
à¸Īà¸²à¸£à¸ĵ à¸²
à¸ª à¹ģà¸ģà¸£à¸Ļà¸Ķ
à¸Ńà¸ĩ à¹Ĥà¸ģ
à¸Ĺà¸¢ à¸²à¸Ħà¸¡
à¸Ļ à¸ģà¸£à¸°à¸Ĺ
à¸¡ à¸²à¸¡
à¹Ģà¸ļ à¸ª
à¹ĥà¸Ļ à¸łà¸²à¸¢à¸«à¸¥
à¸łà¸²à¸Ħ à¸ģà¸¥à¸²à¸ĩ
à¸° à¸ŀ
Ġà¹Ģà¸Ī à¸£
à¸¥à¸² à¹Ģà¸§
à¸²à¹Ģà¸¥ à¹Ģà¸ĭ
Ġà¹ģà¸Ĺ à¸Ļ
à¸¡ à¸«à¸¡
à¸¢ à¸§à¸¢
à¹ģà¸ļà¸ļ à¸ª
à¹Ĥà¸Ķà¸¢ à¸£à¸§à¸¡
à¸Ħà¸§à¸²à¸¡ à¸Ń
Ġà¹Ĥà¸Ķà¸¢ à¸ŀ
il d
à¹Ģà¸ĸ à¸£à¸°
Ġà¸Ľà¸£à¸°à¸ĺà¸²à¸Ļ à¸²à¸ĺ
à¸Īà¸° à¸Ķ
à¸ªà¸¡ à¸Ķ
à¸ķà¸³ à¸£
à¸Ń à¹Ģà¸§à¸¥
à¹Ĥ à¸ģà¸§
à¹ĥà¸Ļà¸ģà¸²à¸£ à¸ģ
7 3
i ti
à¸ĩ à¸ĩà¸°
à¹ģà¸¥à¸° à¹Ģà¸Ī
Ġà¸ģ à¸£à¸°à¸Ķ
à¸Ĵà¸Ļ à¸²à¸Ĺ
à¸Ļà¹Ħ à¸Ĺà¸Ļ
à¸ģà¹ģà¸ªà¸Ķ à¸ĩà¸Ļà¸³
à¸Ĺ à¹Ģà¸Ĺ
à¹Ĥ à¸§à¸¥
à¸¢à¸Ļ à¸ľ
à¸ªà¸ĩà¸Ħà¸£à¸²à¸¡ à¸ģ
B A
à¹Ģà¸Ī à¸ģà¸ķ
Ġ4 9
à¸ĩà¹Ģà¸ģ à¸¥
à¸Ķà¸§à¸ĩ à¸Ī
5 6
à¸ļ à¸ŀà¸§à¸ģ
à¹ĥà¸Ļ à¸Ľà¸£à¸°à¸§
à¸²à¸ĩ à¸łà¸²à¸ŀà¸¢à¸Ļà¸ķà¸£
Ġà¸¡ à¸ĵà¸ĳà¸¥
ã Ĥ
à¸Ńà¸ĩ à¸®
à¸²à¸ĩ à¸¨
à¹Ģà¸Ĥ à¸²à¸ª
à¸«à¸¥à¸²à¸¢ à¹Ĩ
à¸²à¸ĩà¸§ à¸²
à¸¥à¸Ľ à¸¨à¸²à¸ªà¸ķà¸£
à¸²à¸Ľà¸£à¸° à¸ģà¸Ńà¸ļ
Ġà¹Ģà¸ĭ à¸Ńà¸£
à¹Ī .
à¹Ģà¸Ĥ à¸²à¸Ħ
à¸ĩà¸²à¸Ļ à¹Ģà¸Ĥ
à¸Ļà¹Ħà¸Ľ à¸¢
à¹Ģà¸ŀà¸£à¸²à¸° à¸¡
5 9
à¸§à¸ĩ à¸©
à¸¥à¸ĩ à¸ªà¸¡
ĠU n
à¸Ľ à¹ģà¸Ńà¸Łà¸£
à¸ģà¸²à¸£ à¸Ŀ
à¸ľ à¸Ļà¸§
om e
à¸Ľà¸£à¸°à¸ªà¸²à¸Ļ à¸ĩà¸²à¸Ļ
à¸£ à¸ļà¸ģ
à¸ĩ à¸«à¸¥à¸§à¸ĩ
à¸Ĺà¸³ à¹Ģà¸Ľ
à¸ŀà¸£à¸£ à¸©à¸²
ĠS er
à¸²à¹Ĥà¸Ī à¸¡à¸ķ
à¸Ħà¸§à¸²à¸¡ à¸Ħà¸¥
à¸¢à¸ĩ à¸ľ
an a
à¹Ĥà¸Ľà¸£ à¸Ķà¹ĥà¸«
à¸ģà¹Ģà¸ķ à¸°
Ġà¹ģà¸¥à¸° à¹ģà¸¡
à¹Ģà¸ª à¸ŀà¸ķ
à¸ģà¸Ń à¸²à¸¨
à¸Ī à¹Ģà¸Ľ
à¸į à¸Ĭà¸²
en ti
ÂłÂł ÂłÂł
à¸¢ à¸²à¸ĩà¸Ħ
à¹Ĥà¸Ķ à¸¡
ĠL e
à¸Ń à¸²à¸ģ
à¸ģ à¸²à¸ģ
à¸ļ à¸Ńà¸ĩà¸Ħ
à¸ĭ à¸Ńà¸£
à¸²à¸§ à¸Ľ
à¸²à¸ģà¸²à¸£ à¸Ĺ
à¸²à¹ģ à¸Ĭà¸¡à¹Ģà¸Ľ
à¸Ļ à¹Ģà¸ĭà¸Ńà¸£
à¹ĥ à¸¢
à¸Ńà¸Ļ à¸Ħ
à¸²à¸§ à¹Ģà¸§à¸Ńà¸£
à¸Ļà¸ª à¸Ńà¸ĩ
à¸ģà¸Ķ à¸³
Ġà¸ķà¸²à¸¡ à¸Ĺ
à¸Ī à¸ļà¸ģà¸²à¸£à¸¨
Ġà¸ª à¸«à¸£à¸²à¸Ĭà¸Ńà¸²à¸ĵà¸²à¸Ī
à¸¥à¸ĩ à¸¡
à¹ģà¸ļà¸ļ à¹Ģà¸Ķ
Ġà¸ŀà¸£à¸° à¹Ĥà¸Ńà¸£à¸ª
à¸Ĥà¸Ńà¸ĩà¸ª à¸³à¸Ļ
à¸Ĥà¸§ à¸²
à¸Ķ à¹Ģà¸Ń
Ġà¸Ļ à¸²à¸¡
Ġà¹Ģà¸Ĥ à¸²
à¸Ńà¸²à¸«à¸²à¸£ à¸Ĺ
à¸ĩ à¹Ģà¸Ĥà¸²
Ġ251 1
à¸Ļ à¹Ħà¸£
à¸Ń à¸Ńà¸ªà¹Ģà¸ķà¸£
à¸Ļà¸ª à¸ģà¸¤à¸ķ
ĠT ha
Ġà¹Ħà¸¡ à¹Ģà¸Ħ
à¸¡à¸²à¸Ĥà¸Ńà¸ĩ à¸Ĭ
à¸Ĥ à¸²à¸ł
Ġà¸Ń à¹Ģà¸¥
à¸Ļà¹Ħà¸Ľ à¸Ńà¸¢
à¸Ļà¹ĥà¸Ī à¸Ĺ
Ġà¹ĥà¸Ļ à¸Ľà¸£à¸°à¹Ģà¸Ĺà¸¨à¹Ħà¸Ĺà¸¢
Ġà¹Ģà¸¡ à¸¥
à¸²à¸Ĭà¸²à¸¢ à¹ģà¸«
à¸ķà¸¥à¸Ńà¸Ķ à¹Ģà¸§à¸¥à¸²
à¹Ĥà¸Ĩà¸©à¸ĵ à¸²
Ġ à¸Ľà¸£à¸°à¸ģà¸Ńà¸ļà¹Ħà¸Ľà¸Ķ
à¸Ń à¸Ńà¸¥
à¸²à¸ĩ à¸ªà¸¡à¸ļ
Ġà¸ģ à¸Ńà¸ĩ
à¹Ĥà¸Ł à¸Ļ
à¸Ĺà¸³à¸ĩà¸²à¸Ļ à¸Ĺ
à¸Ńà¸ª à¸²à¸¡à¸²à¸£à¸ĸ
à¸Ļà¹ģ à¸Ł
à¸²à¸ģà¸£ à¸ĵ
à¸²à¸ķà¸£ à¸²
à¸Ķ à¸²à¸¯
à¸ķ à¹Ģà¸ŀ
à¸ļ à¹Ģà¸«à¸¥
à¸£à¸° à¸ĩ
à¸ĩà¸Ń à¸²à¸ĵà¸²à¸Ī
8 2
à¸Ńà¸¡ à¹ģà¸ĭ
à¸§à¸¡ à¸Ķ
à¸łà¸²à¸ŀ à¹ģà¸§à¸Ķà¸¥
Ġ250 3
à¸ģà¸©à¸²à¸ķ à¸Ńà¸Ļà¸ķ
à¸§ à¸Ħà¸¥
à¹ģà¸¥à¸° à¹ĥà¸Ĭ
à¸ĩà¸Ħ à¸³
à¸ķ à¸¥à¸ĩ
à¸²à¸¢ à¹Ģà¸Ĥ
à¹ģà¸¥à¸° à¹Ģà¸Ĥ
à¸į à¸Ńà¸¢
à¸ŀà¸£à¸° à¸£à¸²à¸¡
à¸ļà¸ģà¸²à¸£ à¸ļ
à¸§à¸ĩ à¸¢
à¹ĥà¸Ļà¸ª à¸«à¸£à¸²à¸Ĭà¸Ńà¸²à¸ĵà¸²à¸Ī
ow er
à¹ĥ à¸Ķà¸ģ
Ġ à¸Ħà¸§à¸£
à¸²à¸ĩ à¹ģà¸ŀà¸£
à¸Ńà¸¡ à¸²à¸Ħ
à¸Ńà¸²à¸Ī à¸Īà¸°à¹Ģà¸Ľ
E T
à¸¡ à¹Ģà¸ļà¸Ńà¸£
à¸¢ à¸§à¸¡
à¸ļ à¸¡à¸²à¹Ģà¸Ľ
Ġà¹ģà¸¥à¸° à¹Ģà¸Ħà¸£
Ġà¸ķ à¸Ńà¸Ļà¸Ĺ
à¹Ĥà¸Ħ à¸ģ
Ġà¸Īà¸° à¹Ħà¸¡
à¹Ĥà¸¢ à¸Ĭ
à¸Ļà¹Ĥ à¸ļà¸£à¸²à¸ĵ
Ġ Î
Ġà¹Ĥà¸Ķà¸¢ à¸ģ
à¸ĩà¸Ń à¸³à¸Ļà¸²à¸Ī
Ġ6 5
à¸ªà¸Ļà¸²à¸¡ à¸ļ
Ġ à¸¨à¸²à¸ªà¸ķà¸£à¸²à¸Īà¸²à¸£à¸¢
à¸¢à¸Ļ à¹Ģà¸ķà¸£
à¸¢à¸§ à¸Ķ
Ġà¹Ģà¸Ĥ à¸²à¸ĸ
à¸¥à¸°à¸Ħà¸£ à¹Ģà¸§à¸Ĺ
à¸ŀ à¸§
à¸Ńà¸Ńà¸ģ à¹Ģà¸Ķ
à¸Ńà¸Ħ à¸Ńà¸¢
Ġà¸ķà¸²à¸£ à¸²à¸ĩà¸§à¸²
à¸Ķ à¸Ľà¸£
à¸ĵ à¸ŀ
à¹Ģà¸¢ à¸£
à¸§à¹Ħà¸Ľ à¹ģà¸¥
ut e
ik i
à¸² à¹Ģà¸īà¸¥
à¸¥ à¸®
à¸ª à¸²à¸«
à¸²à¸£ à¸²
à¸²à¸Ń à¸²à¸«à¸²à¸£
à¸ģà¸©à¸² à¹Ħà¸Ķ
à¸¥à¸²à¸¢ à¸ķ
à¸Ń à¸£à¸°à¸ļà¸ļ
à¸Ńà¸Ļ à¹Ħà¸¡
à¸ŀà¸£à¸° à¹Ģà¸¢à¸ĭ
Ġà¹ģ à¸Ńà¸£
à¹ĥà¸Ī à¸ģ
à¸ĭ à¸°
à¸°à¸Ń à¸²à¸Ķ
à¸Ń à¸ģà¸²à¸£à¸ª
à¸ģà¸²à¸£ à¸Ĥà¸Ļà¸ª
à¸Ĺà¸³ à¸£à¸²à¸¢à¹Ħà¸Ķ
à¸Ĺà¸²à¸ĩ à¹Ĥà¸Ĺà¸£à¸Ĺ
à¸Ńà¹Ħà¸Ľ à¸¢
à¸Ľà¸£à¸°à¸¡à¸§à¸¥ à¸ľà¸¥
à¹Ħà¸Ľ à¸Ĭ
à¸¢à¸ĩ à¸ĭ
à¸²à¸Ľ à¸£à¸°à¸Ķ
à¸ķà¸²à¸£ à¸²à¸ĩ
Ġà¹ģà¸® à¸£
à¸Ĥà¸Ńà¸ĩ à¹ģà¸¡
à¸Ĭà¸²à¸§ à¹Ģà¸¢à¸Ńà¸£à¸¡
à¸«à¸¥à¸§à¸ĩ à¸Ľ
6 2
à¸Ħà¸§à¸²à¸¡ à¸Ī
à¸²à¸Ħ à¸Ļ
à¸¢à¸ĩ à¸Īà¸²à¸ģ
Ġà¸ķ à¸£à¸°à¸ģ
à¸¡à¸« à¸²à¸ļ
à¹Ĥà¸Ĺ à¸£à¸¡
à¸ĵ à¸¨
Ġà¸Ī à¸Ļà¸¡
à¸ļà¸ª à¸§à¸Ļ
à¸ªà¸²à¸¡à¸²à¸£à¸ĸ à¸ķ
7 4
à¸¥ à¸ķà¸£
à¸ģà¸¥ à¸Ļà¸Ħà¸£
à¸Ľà¸¥ à¸²à¸ģ
à¸ķà¸²à¸¡ à¸«
Ġà¸Ĥ à¸Ńà¸ļ
Ġ198 9
à¹Ģà¸Ńà¸Ł à¸ĭ
ĠCh amp
à¸ĭ à¸ĭ
à¸Ļà¸Ļ à¸Ńà¸ģ
à¸¥à¸° à¸Ĭ
à¸§à¸£ à¸§à¸ĩà¸¨
Ġà¹Ģà¸Ħ à¸¢à¹Ģà¸Ľ
à¸Ĥà¸¢à¸²à¸¢ à¸ŀ
à¸Ĺ à¹Ħà¸Ķ
à¸Īà¸° à¸Ļà¸³
à¸Ļà¸ķ à¸³à¸ļà¸¥
à¸²à¸ŀ à¸¢
à¸ķ à¹ģà¸«
à¸Ńà¸¢ à¹Ģà¸Ń
à¸ŀà¸£à¸° à¸ĺà¸£à¸£à¸¡
à¸Ĺà¸£ à¸Ń
à¸¢ à¸Īà¸²à¸ģ
à¸²à¸¢ à¸¢
à¸§ à¹Ģà¸Ĥà¸²
à¸Ńà¸²à¸Ĭ à¸į
à¸ģà¸¢ à¸łà¸²à¸ŀ
r is
s on
à¸²à¸¢ à¹Ĩ
à¹Ģà¸§à¸¥à¸² à¹Ģà¸Ķ
à¸Ļà¹Ĥà¸Ķ à¸Ī
à¸²à¹ĥà¸Ī à¸ľ
à¸ģà¸Ħà¸Ļ à¸«à¸Ļ
à¸Ń à¸Īà¸³à¸ģ
à¸ļ à¸ģà¸£
à¸ļ à¹Ħà¸Ľà¸¢
à¹Ħ à¸ķà¸Ļ
à¸ĩà¹ģ à¸Ļà¸§
à¸²à¹Ģà¸¥ à¸ªà¹Ħà¸ķà¸Ļ
ĠS e
à¸Ļà¸Ńà¸Ńà¸ģ à¹Ħà¸Ľ
à¸ĩà¹ģà¸¥à¸° à¸Ńà¸²à¸ĵà¸²à¹Ģà¸Ĥà¸ķ
à¸Ń à¹Ħà¸£
à¸²à¸Ļ à¸Ļà¸Ńà¸ģ
Ġà¹ĥà¸Ļ à¸Ńà¸Ķ
à¹Ĥà¸¡ à¸ª
Ġà¹Ħà¸Ľ à¸Īà¸Ļà¸ĸ
à¸ģà¸Ĳà¸²à¸Ļ à¸Ĺ
à¹ģà¸ªà¸Ķà¸ĩ à¸łà¸²à¸ŀà¸¢à¸Ļà¸ķà¸£
à¸¡ à¸ĺà¸²à¸Ļ
à¸ļ à¹Ģà¸ĭ
à¹Ĥà¸¡ à¸ĩà¸Ħ
Ġ250 5
à¸Ľ à¸Ĳ
à¸²à¸ĩ à¸«à¸²à¸ģ
à¸¢à¸Ļ à¸Īà¸²à¸ģ
à¸ļà¸ª à¸²à¸£
à¸įà¸į à¸²à¸ļ
Ġà¹Ģà¸ª à¸£
Ã ¡
à¸Ļ à¸²à¸Ħ
à¸Ī à¹Ħà¸Ľ
à¹ģà¸Ĺà¸Ļà¸£à¸²à¸©à¸İà¸£ à¹Ħà¸Ĺà¸¢à¹Ģà¸Ľ
à¸ļ à¸łà¸²à¸ŀ
à¸²à¸¢ à¸²
Ġà¹Ĥ à¸Ĺà¸£
à¸Ķ à¹ĥà¸Ļà¸Ĭ
à¸²à¸Ļ à¸²à¸¡
à¸Ļà¸ģà¸²à¸£ à¹ĥà¸Ĭ
à¸Ļà¸Ĺà¸²à¸ĩ à¸ģà¸²à¸£à¹Ģà¸¡
c ess
Ġ à¸łà¸²à¸©à¸²à¸Ń
à¸ģ à¸Ļà¸³à¹Ħà¸Ľ
à¸¢ à¸ªà¸³à¸Ħ
à¹Ģà¸Ł à¸ĭ
6 1
S I
à¸¹ ,
à¸§à¸¡ à¸ĸ
à¸ģà¸ª à¸²à¸¡
à¸ĩà¸ģà¸²à¸£ à¸ª
à¸ģà¸² à¹Ģà¸£
olog y
à¸ķ à¸ģà¸£à¸£à¸¡
à¸ļ à¸«à¸£
à¸²à¸ĩ à¹Ģà¸Ħà¸£
à¸²à¸ĩ à¸Īà¸£
à¸ģà¸£ à¸Ļ
à¸Ĭà¸²à¸§ à¸ķ
à¹ģà¸Ħ à¸£à¸°
à¹Ģà¸¥à¸Ĥ à¸²à¸Ļ
à¸Ļ à¹Ģà¸ľ
à¸ģ à¸Ľà¸£à¸°à¸¡à¸²à¸ĵ
à¸ĩ à¹ģà¸ľ
à¸ķà¸ļà¸Ńà¸¥ à¸Ńà¸²à¸Ĭ
Ġà¹Ģà¸§ à¸Ńà¸£
Ġw ith
à¸ģ à¹Ģà¸ĺà¸Ń
à¸¢ à¹ģà¸¥
à¸³ à¹ģà¸¥à¸°
à¸ģà¸£ à¸£
à¸Ĺà¸³ à¸ŀ
à¸ĩà¸Ħ à¸ĩà¸Ńà¸¢
à¸łà¸²à¸© à¸²à¸Ĺ
à¸ĩà¸Ħà¸¡ à¸¨à¸²à¸ªà¸ķà¸£
Ġ is
à¸²à¸ĩ à¹ģà¸Ĺ
Ġ4 4
ĠC o
à¸ģà¸Ħ à¸Ļà¸Ĺ
à¸Ļà¹Ĥà¸Ľ à¹Ģà¸¥
à¸Ĥà¸Ńà¸ĩ à¸ŀà¸§à¸ģà¹Ģà¸Ĥà¸²
à¸£à¸²à¸Ĭ à¸²
à¸° à¸ŀà¸£
à¸²à¸£ à¸²à¸ĩ
à¸ł à¸²à¸§
à¸ŀà¸£à¸°à¸£à¸²à¸Ĭ à¸ĺ
à¸ķà¸Ńà¸Ļ à¹ģà¸£à¸ģ
à¸¥à¹ģà¸ģ à¹Ģà¸£
à¸ģ à¹Ģà¸Ń
à¹Ĥ à¸Ńà¸Ĺ
à¸²à¸Ļ à¹Ģà¸Ĭ
à¸Ļà¸Ĺ à¸°à¹Ģà¸ļ
à¸Ļ à¸łà¸²à¸©à¸²à¸Ń
à¸Ń à¹Ģà¸«à¸ķ
à¸§ à¸«à¸¥
à¸¢ à¹Ħà¸¡
à¸²à¸§ à¸ªà¸²à¸£
Ġà¸Īà¸²à¸ģ à¸Ĺ
à¸Ľ à¸Ĭ
à¸Ļà¸Ĺ à¸§
à¹Ĥà¸Ń à¹Ģà¸Ľ
à¸Ĳà¸ļà¸²à¸¥ à¸Ĺ
Ġà¹Ĥà¸Ľà¸£ à¸Ķ
Ġ à¸Ľà¸£à¸²à¸ģà¸ı
à¸ļ à¸ķà¸²à¸¡
à¸ģà¸²à¸£ à¸Ľà¸£à¸°à¸ģà¸§
à¸²à¸ĩ à¹Ģà¸ª
à¸²à¸ĩ à¹ĥà¸«à¸¡
Ġà¹ģà¸¥à¸° à¸Ħà¸£
à¹Ĥà¸Ķ à¸°
à¹Ģà¸Ħ à¸Ļ
Ġà¸Ĺà¸²à¸ĩ à¸Ķ
à¸Ľà¸£à¸°à¹Ģà¸łà¸Ĺ à¸Ļ
à¸ķ à¹Ģà¸§
à¹Ĥ à¸Ļà¸Ļ
à¸²à¸ģ à¸ª
à¸§à¸Ļ à¹ĥà¸Ļ
à¸ģà¸© à¸²à¸£
à¸Ħà¸³ à¸Ĺ
à¸Ķ à¸¡à¸«
à¹Ĥ à¸Ńà¸¡
à¸ł à¸Ħ
à¸§à¸ĩ à¸ªà¸ĩà¸Ħà¸£à¸²à¸¡
Ġà¹Ģà¸ģ à¸¥
à¸¥à¸ĩ à¸Ħà¸°à¹ģà¸Ļà¸Ļ
Ġà¹ģà¸ģà¸£ à¸¡à¸¡
C D
à¸Ļ à¹Ģà¸Ĥà¸²
à¸Ńà¸ĩ à¹Ģà¸Ī
à¸²à¸ĩ à¸ŀà¸£à¸°
Ġà¹ģà¸¥à¸° à¹Ģà¸Ĭ
Ġ251 0
Ġ194 0
à¸²à¸ª à¸ĭ
à¸§à¸Ļ à¸¡
à¸ļà¸ģà¸²à¸£ à¸Ŀ
à¹Ĥà¸Ļ à¹Ģà¸ªà¸²à¸£
Ġà¹Ģà¸ª à¸Ļ
Ġ249 8
Ġ à¸īà¸²à¸¢
à¸Ķ à¸Ħà¸¥
à¸Ńà¸Ļ à¹ģà¸Ń
à¹Ģà¸£ à¸²
à¸¢à¸Ļ à¹Ģà¸ģà¸¡à¸ª
à¸Ńà¸¡ à¸²à¸¡
à¹ģà¸¡ à¸Ħ
Ġà¸ĸ à¸Ļ
à¸¢à¸²à¸¢ à¸²à¸¡
à¸Ľ à¹Ĥà¸Ľ
à¸ģà¸£ à¸¥
à¸¢à¸Ļ à¹ĥà¸«
à¸ģà¸£à¸° à¸«à¸§
à¸Ļà¸Ĭ à¸²à¸£
à¸ģà¸² à¹ģà¸Ł
a il
à¸ģ à¸Ńà¸£
ĠP h
à¸ĩà¸¨ à¸ŀ
à¸£ à¸Ńà¸ĩà¸£
à¸° à¸Ħ
à¸ļ à¸ŀà¸£à¸£à¸Ħ
à¸ļ à¸ľà¸¥à¸ģà¸£à¸°à¸Ĺ
à¹ģ à¸ķà¸£
à¸²à¸§ à¸«à¸²à¸§
à¸ļà¸ģà¸²à¸£ à¹Ģà¸Ľ
à¹Ģà¸§à¸¥ à¸²à¸ģà¸¥
ul t
Ġà¸Ĥà¸ĵà¸° à¹Ģà¸Ķ
à¸ĩ à¸Ķà¸ĩà¸²à¸¡
à¸Ī à¸Ĥ
à¹Ĥà¸Ķà¸¢ à¸£
à¸ļà¸ģà¸²à¸£ à¹ģà¸Ĥ
à¹Ģà¸Ĥà¸ķ à¸ŀ
à¸Ń à¹ģà¸ļà¸ļ
à¸Ńà¸¡ à¸§à¸¥à¸Ĭà¸Ļ
à¸Ĳ à¹ģà¸Ħà¸¥
à¹Ģà¸Ĺà¸¨ à¸Ļ
à¸Ĺà¸²à¸ĩ à¸£à¸ĸà¹Ħà¸Ł
à¸¢à¸ģ à¸Ń
à¸²à¹ĥà¸Ī à¸§
i er
Ġ16 0
à¸ĭà¸Ńà¸Ł à¸Ĺ
Ġ à¸Ľà¸£à¸°à¸Īà¸³
à¸²à¸£ à¸ªà¸²à¸£
à¸ŀà¸£à¸° à¸Ħ
à¸ªà¸²à¸Ĥ à¸²
à¸§à¸¢ à¸ķà¸Ļà¹Ģà¸Ńà¸ĩ
à¸ĩà¸Ħ à¸Ļ
Ġà¸Ľà¸£à¸° à¸Ķ
A r
à¸ĩ à¸Ľà¸£à¸²à¸ģà¸ı
Ġà¹Ĥ à¸ģ
Ġà¹Ģà¸Ĺà¸¨ à¸ļà¸²à¸¥
A C
à¸ģ à¹ĥà¸Ļà¸Ľ
à¸§ à¹Ģà¸Ĭ
à¸Ķ à¹ģà¸Ĥ
à¸ļà¸£à¸£ à¹Ģà¸Ĺ
Ġà¸Īà¸° à¹ĥà¸Ĭ
à¸£à¸ĸ à¸ĸ
à¸Ķ à¸²à¸¡à¸²à¸£
Ġà¹ĥà¸Ļ à¸§à¸ĩà¸¨
à¸ªà¸ģ à¸Ńà¸ķà¹ģà¸¥à¸Ļà¸Ķ
à¸ģ à¸Ńà¸ĩà¸Ħ
Ġà¹ĥà¸Ļ à¸Ĺà¸²à¸ĩ
à¸ĩà¸¡ à¸Ńà¸ļ
à¸¡à¸² à¹Ģà¸ģ
à¸Ļà¸Ńà¸ģ à¹Ģà¸«à¸Ļ
y m
à¹Ģà¸Ļ à¸ª
à¹ģà¸ªà¸Ķ à¸ĩà¹Ģà¸Ľ
à¸²à¹Ģà¸ĭ à¸¥à¹Ģà¸ĭ
à¸§ à¸Ľà¸£à¸°à¸§
à¸Ĥà¸Ńà¸ĩ à¹Ģà¸Ń
à¸§à¸¢ à¸ļ
Ġà¹ģ à¸Ĭà¸¡à¸Ľ
à¸Ńà¸ĩ à¹Ģà¸«
à¸¹ )
à¸§à¸ĩ à¸«à¸¥
Ġà¹ĥà¸Ļ à¸łà¸²à¸ŀà¸¢à¸Ļà¸ķà¸£
à¸ģà¸©à¸² à¹ģà¸¥à¸°
à¸Ĩà¸²à¸ķ à¸ģà¸£à¸£à¸¡
à¸ģà¸Ķà¸³ à¸ļà¸£à¸£à¸ŀ
à¸Ļ à¸Ľà¸£à¸°à¸ªà¸²à¸Ĺ
Ġà¸Ħ à¸Ļà¸ª
à¸ªà¸¡ à¸£à¸£à¸ĸ
à¸Ļà¸ģà¸²à¸£ à¸ªà¸£
à¹Ĥà¸¡ à¹Ģà¸Ķ
Ġà¸Ĥà¸Ńà¸ĩ à¸£
à¹Ģà¸ªà¸Ļà¸Ń à¹ĥà¸«
ace ae
à¸ĩà¸ķà¸° à¹Ģà¸ł
à¸Ń à¹ģà¸«
à¸²à¸ĩ à¸Ŀ
à¸Ł à¸ģà¸²à¸Ļ
à¸Ńà¸ª à¹Ĥà¸ģ
ĠT r
Ġà¸ŀà¸£à¸°à¸£à¸²à¸Ĭ à¸ļ
à¸ĭ à¸²à¸¡
à¸Ļà¸Ħ à¸ĩ
à¸ļà¸²à¸ĩ à¸Ĺ
à¹ģà¸ªà¸Ķ à¸ĩà¸Ħ
6 4
à¸¢ à¸£à¸²à¸Ĭà¸§à¸ĩà¸¨
à¸°à¸§ à¸°
ĠF or
à¸¡ à¸¥à¸ĩ
à¸§ à¸«à¸£
à¸Ķ à¹ģà¸ļà¸ļ
à¸Ĥ à¸Ńà¹ĥà¸«
à¸ĩà¹Ģà¸ģ à¸ķà¸§
à¸§ à¹Ģà¸Ńà¸ģ
à¸¸ .
à¸Ńà¸ģ à¸²à¸ª
à¸Īà¸Ļ à¹Ģà¸ģ
w e
à¹ ħ
à¸ļ à¸ģà¸£à¸°
à¹Ĥ à¸ļà¸¥
à¸ŀà¸£à¸°à¸£à¸²à¸Ĭ à¸ģà¸¤à¸©à¸İ
ar i
à¸Ĺà¸£à¸ĩ à¸ª
à¸²à¸ģà¸¥ à¸²à¸ĩ
et h
à¸Ļà¸¡à¸²à¸ģ à¸Ĥ
Ġà¹ģ à¸Ħà¸¥
à¸Ĺà¸£à¸ĩ à¸Ħ
à¸Ļà¸Īà¸° à¸ĸ
à¹ģà¸Ļà¸°à¸Ļà¸³ à¹ĥà¸«
Ġ à¹ĥà¸ª
à¸Ńà¸ĩ à¹Ĥà¸Ĺà¸£à¸Ĺ
à¸Ńà¸¢ à¸£
à¸§à¸¢ à¹ĥà¸Ļà¸ģà¸²à¸£
Ġà¹Ģà¸Ľ à¸Ńà¸£
Ġà¹ģ à¸Ħà¸§
A l
à¸Ń à¹ģà¸ªà¸Ķà¸ĩ
à¸ĩ à¸Ķà¸³à¹Ģà¸Ļ
à¹Ģà¸® à¸²à¸ª
à¹Ħà¸«à¸¥ à¸ľ
à¹Ģà¸ģ à¸¡à¸Ļ
Ġà¹ĥà¸Ļ à¸¥
Ġà¹ĥà¸Ļ à¸Ī
à¸® à¸Ńà¸¥à¸¥
Ġà¹Ĥ à¸ģà¸¥
à¸Ļà¸Ľ à¸ģà¸ķ
Ġà¸Ł à¸Ńà¸£
à¸ªà¸²à¸¢ à¸ģà¸²à¸£à¸ļ
à¸Ľ à¸Ń
à¸Ľ à¸¡
à¸¢à¸¡ à¹Ģà¸£
Ġ20 20
Ġà¸Ĥà¸Ńà¸ĩ à¸Ľà¸£à¸°à¹Ģà¸Ĺà¸¨
à¸Ķà¸ģà¸²à¸£ à¸ª
à¸Ńà¸ĩ à¸Ńà¸²à¸¨
à¸Ŀ à¸Ļ
à¸¡à¸² à¹ģà¸ķ
à¸Ń à¸Ľà¸ı
à¸° à¸«
à¸Ńà¸ķ à¹Ģà¸ķà¸Ńà¸£
à¸Ļ à¹Ģà¸¢
à¸Ļà¸ŀ à¸¤à¸«
à¸£à¸°à¸ļà¸ļ à¸ª
re at
Ġà¸ģà¸£à¸¡ à¸«à¸¡
à¹ģà¸ªà¸§à¸ĩ à¸«
à¸Ńà¸Ļ à¹Ħà¸¥à¸Ļ
Ġà¹ģà¸¥à¸° à¸Ļà¸²à¸ĩ
à¹Ĥà¸Ķà¸¢ à¸£à¸Ńà¸ļ
à¸Ķà¸Ń à¸²à¸ģà¸²à¸£
Ġà¹Ģà¸« à¸Ļ
Ġà¹Ģà¸ĭ à¸¥à¸¥
Ġà¹Ģà¸ĺ à¸Ńà¸¡
d e
à¸Ķ à¹ģà¸Ĺ
à¸ŀà¸£à¸° à¸Ļ
Ġà¹ģ à¸¢à¸ģ
à¸Ļà¸§ à¸¥
à¸ļà¸ĸ à¸Ļà¸Ļ
l ing
à¹Ĥ à¸¨
Ġà¸Ļ à¸Ńà¸£
à¸Ĺà¸³à¸ĩà¸²à¸Ļ à¸£
à¹ĥà¸ļ à¸Ńà¸Ļ
à¸ļ à¸Ńà¸Ķ
à¹Ĥ à¸Ľà¸¥
à¸ĵ à¸£à¸ĩà¸Ħ
Ġà¹ģ à¸Ńà¸Ļà¸Ķ
à¸Ħà¸ĵà¸° à¸ªà¸ĩà¸Ĩ
à¸Ľà¸£à¸°à¹Ģà¸łà¸Ĺ à¸Ĺ
à¸²à¸įà¸Īà¸Ļ à¸ļ
à¸Ń à¸į
à¸Ń à¹Ĥà¸£à¸ĩà¹Ģà¸£
à¸²à¸Ļ à¸ģà¸²à¸£à¸Ħ
à¸Ĥà¸Ńà¸ĩ à¹Ĥà¸£à¸Ħ
à¸ŀà¸£à¸° à¸ļà¸£
à¸ķà¸²à¸¡ à¸ĺà¸£à¸£à¸¡à¸Ĭà¸²à¸ķ
Ġà¸Ĥà¸Ńà¸ĩ à¸§
à¸«à¸łà¸²à¸ŀ à¸¢
à¸Ķ à¸ģà¸£à¸°
à¸ª à¸ŀ
à¹Ĥ à¸Ńà¸ļ
à¸Ĥà¸Ńà¸ĩ à¸Ħà¸£
à¸Ħà¸§à¸²à¸¡ à¸Īà¸³
à¸Ĺà¸²à¸ĩ à¹Ģà¸¥
à¸Ļà¸ģà¸²à¸£ à¸ģ
à¹Ĥà¸¢ à¸Ħ
à¸§à¸ķ à¸²à¸¢
Ġ250 6
à¸Ľà¸ģ à¹Ģà¸ģà¸¥
à¹ĥà¸Ļ à¸ģà¸Ńà¸ĩà¸Ĺ
à¸Ńà¸Ļ à¹Ģà¸ģ
à¹Ģà¸ŀ à¸£
Ġ249 9
Ġà¸¡ à¸²à¸ķ
Ġà¸Ī à¸²à¸£
à¸Ļ à¸Ľà¸£à¸°à¸ĸà¸¡à¸¨
à¹Ī ,
à¸²à¸ª à¹Ģà¸ĭ
Ġà¸¡ à¸²à¸¥
à¸¢à¸Ńà¸Ķ à¸Ł
à¸Ĭà¸¡ à¸£à¸¡
à¸ªà¹Ģà¸ķ à¸Ĭ
mer ic
à¸ĸ à¸¡à¸¨
à¹Ģà¸Ĥ à¸²à¸ĸ
Ġà¸Ĺ à¸¤à¸©à¸İ
à¸§à¸ĩà¸¨ à¸²à¸Ļ
à¹Ĥà¸ģ à¸¨
à¸Ķà¸Ĭ à¸¥à¸ļ
Ġ250 8
Ġà¸¡à¸« à¸²à¸ªà¸¡
à¹Ģà¸Ļ à¸ķ
à¸¢à¸¡ à¸§
Ġà¸Ĥà¸Ńà¸ĩ à¸Ń
Ġà¸ŀà¸£à¸°à¸£à¸²à¸Ĭ à¸§
à¸£ à¸ķ
à¹Ģà¸Ń à¸Ĺ
à¸¢à¸ĩ à¹ģà¸¥à¸°
à¸ŀà¸£à¸°à¸ļà¸£à¸¡à¸£à¸²à¸Ĭ à¹Ĥà¸Ńà¸ĩà¸ģà¸²à¸£
à¸Ĭ à¸Ńà¸Ľ
à¸Ńà¸¢ à¸¥
à¹Ģà¸Ĥà¸ķ à¹Ģà¸¥
à¸ģà¸©à¸ĵà¸° à¸Ļ
à¸ģà¸²à¸£à¸ª à¸Ńà¸ļ
à¸£à¸Ńà¸ļ à¸Ĭ
à¸Ļà¸¡à¸² à¹ĥà¸«à¸¡
Ġ248 9
Ġà¸¥à¸³ à¸Ķ
à¸Ń à¸ī
à¸²à¸ĩ à¸Ńà¸Ńà¸ģà¹Ħà¸Ľ
à¹Ĥà¸£ à¹ģà¸¡à¸Ļà¸ķ
à¸Ĺà¸£à¸ĩ à¸£
ĠI I
à¸ģ à¸ľà¸¥
à¸µà¹Ī .
à¸Ħà¸£ à¸£à¸²à¸Ĭà¸Ĺ
à¸łà¸²à¸ŀ à¸ª
à¸§à¸£à¸£ à¸²à¸Ĭ
à¸Ńà¸²à¸ģà¸²à¸¨ à¸Ĺ
à¸Īà¸ī à¸£
à¸²à¸ ¤
à¸¡à¸²à¸ģ à¸ĸ
à¸Ļà¹ĥà¸Ļ à¸Ń
à¸Ļà¸Ĺà¸²à¸ĩ à¸ª
à¸²à¸¢ à¹ģà¸¥
à¸Ļà¸ŀà¸£à¸° à¸ª
à¸²à¹ģ à¸¡à¸Ļ
à¸ĩà¸ª à¸³à¸Ļ
à¸ªà¸ĸà¸²à¸Ļ à¸¨
f ormula
Ġ à¹Ħà¸Ĥ
à¸¢à¸¡ à¸²à¸ģ
à¸ŀà¸£ à¸²à¸«à¸¡à¸ĵ
à¸Īà¸²à¸£à¸ĵ à¸²à¸§
à¸§à¸ĩà¹Ģà¸§à¸¥ à¸²à¸Ļ
à¸Ĺà¸²à¸ĩà¸ķà¸Ńà¸Ļ à¹ĥà¸ķ
c on
à¸ªà¸¡ à¸²à¸ŀ
à¸ªà¸¡ à¸łà¸ŀ
à¸ģà¸² à¹ģà¸¥à¸°
à¹Ħà¸ķà¸£ à¸Ľ
à¸¢ à¹Ħà¸Ľ
à¸ĩà¸ª à¸Ļ
à¸ľà¸¥à¸ĩà¸²à¸Ļ à¸Ń
à¸²à¸¢ à¸Īà¸²à¸ģ
à¸Ńà¸Ļ à¹Ĥà¸ĭ
à¸į à¹ĥà¸«
er n
à¹Ģà¸® à¸Łà¸§
à¸Ĳ à¸Ľà¸£à¸°à¸Ĭà¸²à¸Ĭà¸Ļà¸Ī
à¸Ńà¸Ńà¸ģ à¸ģà¸³à¸¥
à¸ļà¸ģà¸²à¸£ à¸¢
à¸Ńà¹Ģà¸£ à¸Ļà¸ĭ
à¹Ĥà¸Ńà¸ģà¸²à¸ª à¹ĥà¸«
à¸ģà¸³à¸«à¸Ļà¸Ķ à¹Ħà¸§
à¸¢ à¸ľ
à¸Ħà¸³ à¸ķà¸Ńà¸ļ
S h
à¸¥ à¹Ĥà¸¥
à¸° à¹Ħà¸Ķ
à¸³ à¸Ńà¸²à¸Ĭ
à¸Ļà¸³ à¹Ĥà¸Ķà¸¢
à¸Ļà¸Ħà¸Ļ à¹ģà¸£à¸ģ
à¸§ à¸Īà¸°
Ġà¹Ĥà¸Ķà¸¢ à¸ģà¸¥
à¸Ńà¸ª à¸³à¸«à¸£
à¸Ń à¸Ĺà¸³à¹ĥà¸«
à¸ĩ à¸¥à¸°
à¸Ĥà¸Ńà¸ĩ à¸£à¸²à¸Ĭà¸§à¸ĩà¸¨
à¸²à¸Ħ à¸Ķ
à¸ķà¸²à¸¡ à¸£
Ġ4 6
à¸Ļà¸Ĥà¸Ńà¸ĩ à¸£
5 4
Ġ à¸Ľà¸£à¸°à¸§
à¸Ńà¸ĩà¸Ħ à¸²à¸¢
Ġà¸Ĭà¸²à¸§ à¸ļ
Ġà¸Ńà¸Ńà¸ģà¸Ńà¸²à¸ģà¸²à¸¨ à¸Ĺ
à¸ģà¸©à¸²à¸Ħà¸§à¸²à¸¡ à¸ªà¸ĩà¸ļ
B S
à¸² à¹Ģà¸ĺà¸Ńà¸£
à¸Ķ à¸¡à¸²à¸Īà¸²à¸ģ
à¸Ļà¸Ħ à¸³à¸Ĺ
Ġà¸§ à¸Ńà¸¥
à¸Ńà¸²à¸Ī à¹Ģà¸ģ
à¹ģà¸ĸ à¸ļà¸ª
Ġ250 1
à¸Ķ à¸Ł
à¹Ħ à¸ķà¸¥
à¸²à¸Ļ à¹Ģà¸Ķ
à¹ģà¸¥à¸° à¹Ģà¸ª
à¸¢à¸ģ à¸Ĳà¸²à¸Ļà¸°
à¸²à¸ŀ à¹Ģà¸Ī
à¸łà¸²à¸© à¸²à¸¡
à¸Ńà¸ģà¸²à¸£ à¸Ħ
à¸ģà¸£à¸¡ à¸¨
Ġà¸Ńà¸ĩà¸¨ à¸²à¹Ģà¸ĭà¸¥à¹Ģà¸ĭ
à¸Ńà¸Ļ à¹ģà¸¥
à¹Ģà¸ģ à¸¡à¸Ĺ
à¹Ģà¸Ń à¸²à¸ķ
à¸²à¸Ľ à¸ģà¸ķ
à¸ĩà¸ªà¸Ńà¸ĩ à¸ŀà¸£à¸°à¸Ńà¸ĩà¸Ħ
à¸Ħ à¸Ńà¸Ľ
à¹ĥà¸Ļ à¹Ģà¸Ńà¹Ģà¸Ĭ
à¹ģà¸¥à¸° à¹ĥà¸«
à¸ģà¸£ à¸ģ
à¸¢à¸ģ à¸ª
at ed
à¹Ħà¸Ĥ à¸Ľ
à¸Ľà¸£à¸°à¹Ĥà¸¢ à¸Ħ
Ġà¹Ĵà¹ Ķà¹
Ġà¸¥à¸ĩ à¸§
à¹Ħ à¸Ħà¸£
à¸§à¸¢ à¸ģà¸¥
à¸Ĺà¸³ à¸Īà¸²à¸ģ
à¹Ĥà¸Ľà¹Ģà¸ģà¸¡ à¸Ńà¸Ļ
à¸Ī à¸ĩ
à¸³à¸Ļ à¸§à¸¢
à¸²à¸ļ à¸Ļ
à¸ģà¸ķ à¸°à¸§
à¸²à¸Īà¸° à¸ĸ
Ġà¸Ħà¸§à¸²à¸¡ à¸¢à¸²à¸§
à¸Ī à¹ģà¸¥
à¹Ĥ à¸Ńà¸§
à¸Ĥà¸Ńà¸ĩ à¸Ħà¸Ļ
Ġà¹Ģà¸Ľ à¸£
à¸Ļ à¸²à¸ģ
à¸ģ à¸¢à¸ģà¹Ģà¸¥
à¸Ķ à¸ķà¸£
à¸ŀà¸£à¸° à¸ł
à¸§à¸ĩ à¸¥
à¸łà¸²à¸© à¸²à¸ģà¸£
Ġà¸ŀà¸£à¸°à¸£à¸²à¸Ĭ à¹Ĥà¸Ńà¸£à¸ª
9 8
T h
à¸Ł à¸²à¹Ĥà¸£à¸«
Ġà¹Ģà¸ĺ à¸Ńà¸ģ
à¸Ń à¹Ģà¸§à¸¥à¸²
à¸¢à¸§ à¸Ħ
à¸ŀà¸£à¸°à¸£à¸²à¸Ĭ à¸Ļ
à¸¢à¸£ à¸²à¸¡à¸Ħà¸³à¹ģà¸«
à¸Ļà¸ĩà¸²à¸Ļ à¸Ĺ
à¸§à¸¢ à¹Ģà¸£
à¸²à¸« à¸²à¸į
à¸¢à¸¡ à¹Ģà¸¥
à¹Ģà¸ģà¸© à¸¡
à¸ĩà¸Ħà¸§à¸²à¸¡ à¹Ģà¸Ľ
à¸£à¸Ķà¸ģ à¹Ĥà¸¥à¸ģ
à¸į à¹Ħà¸Ķ
Ġà¸ŀ à¸²à¸£
à¸ĩà¸ļ à¸Ńà¸ģ
Ġ198 6
ĠM y
à¸Īà¸³à¸Ļà¸§à¸Ļ à¸ľ
M A
à¸Ļ à¹Ģà¸Ĺà¸ŀ
à¸Ļ à¸£à¸°à¸¢à¸°à¹Ģà¸§à¸¥
à¸Ľà¸ģà¸Ħà¸£à¸Ńà¸ĩ à¸ķà¸Ļà¹Ģà¸Ńà¸ĩ
à¸²à¸ŀà¸£à¸° à¸£à¸²à¸Ĭ
Ġc l
à¸² à¹ĥà¸Ļà¸Ľ
à¸Ļ à¸Ľà¸£à¸°à¸ĺà¸²à¸Ļà¸²à¸ĺ
à¸Ĭ à¸Ļà¸Ĺ
à¸²à¸¡ à¸²à¸Īà¸²à¸ģ
à¸ĩà¸ªà¸Ńà¸ĩ à¸Ĥ
O N
Ġ i
ĠA s
à¸ŀà¸£à¸°à¸ª à¸§à¸²à¸¡
5 8
à¸Ī à¸¯
à¹Ĥ à¸«à¸¡à¸Ķ
à¸Ńà¸£ à¸²à¸Ĭ
ĠâĢ Ķ
à¹ģà¸Ļ à¸§à¸Ļ
à¹ģà¸Ħà¸Ļ à¸²à¸Ķ
à¸ķ à¹ĥà¸«
à¸§à¸¢ à¹Ģà¸Ħà¸£
ti v
à¸Ļà¸ĸ à¸Ļà¸Ļ
à¹ģà¸¡à¸Ļ à¸Ī
à¸Ļà¸ľà¸¥ à¸¡à¸²à¸Īà¸²à¸ģ
ud e
à¸Ħ à¸Ĩ
à¸Ńà¸¢ à¸Ĭ
Ġ249 0
à¸Ļ à¹Ģà¸«
à¸¥ à¸ªà¸ĩà¸Ħà¸£à¸²à¸¡
à¸Ħ à¸²à¸¥
à¹ģà¸¥ à¸£
Ġà¸Ĺ à¸Ńà¸ĩ
Ġà¸Ńà¸Ńà¸ģ à¹ģà¸ļà¸ļ
Ġ198 8
6 8
i el
à¹ĥà¸Ļ à¸ŀà¸£à¸°à¹Ģà¸Ī
à¸²à¸¢ à¹ģà¸ļà¸ļ
à¸²à¸Ĭ à¸¡
à¸Ľà¸£à¸°à¹Ģà¸Ĺà¸¨ à¸ķ
à¸Ķà¸ķ à¸¥à¸Ńà¸Ķ
à¸²à¸ĺà¸²à¸£à¸ĵ à¸Ĭà¸Ļ
à¸Ļ à¹Ĥà¸¥à¸«
à¸Ħ à¸²à¸ļ
à¸²à¸ķ à¸Ļà¹Ģà¸Ńà¸ĩ
Ġà¹ĥà¸Ļ à¸ªà¸«à¸£
à¸ĩà¸²à¸Ļ à¹Ħà¸Ķ
ro up
à¸ģà¸©à¸£ à¸¢
Ġ à¸£à¸°à¸¢à¸°
à¸²à¸ĩ à¹ģà¸ļà¸ļ
à¸Ħà¸§à¸²à¸¡ à¸ĭ
à¹ĥà¸Ļà¸ģà¸²à¸£ à¹Ģà¸Ľ
Ġà¸Ĭ à¸²à¸¢
à¸Ķà¸Ĥ à¸Ńà¸Ļà¹ģà¸ģ
Ġà¹Ģà¸Ń à¸Ĭ
9 2
à¸² à¹Ģà¸Ŀ
à¸Ļ à¸ŀà¸£à¸°à¸Ńà¸ĩà¸Ħ
à¸ĩ à¸Ħà¸§à¸²à¸¡à¸ª
à¸¡ à¹ĥà¸«à¸¡
à¸į à¸¡
à¹Ĥà¸Ķà¸¢ à¹Ģà¸Ľ
à¹Ħà¸Ľ à¹Ģà¸£
à¹Ĥà¸Ĭ à¸Ħ
à¹Ħà¸Ľà¸£ à¸©à¸ĵ
à¸¥à¹Ģà¸¡ à¹Ģà¸Ļ
à¸ŀà¸£à¸° à¸Ľà¸£à¸°à¸§
à¹Ģà¸¥ à¸ª
à¸ģà¸³ à¹Ħà¸£
ĠG irl
à¸Ľà¸£à¸°à¸ŀ à¸¤à¸ķ
à¸Ķ à¸£à¸²à¸¢à¸ģà¸²à¸£
à¹Ģà¸Ļ à¸°
à¸£à¸Ńà¸Ķ à¸Ĭ
à¸ĩ à¹Ģà¸ªà¸Ķ
à¸Ľ à¸Ļà¸²à¸§
à¸Ńà¸ģ à¸«
à¹Ģà¸ļ à¸ģà¸©à¸²
à¸Ļà¸ŀ à¸²à¸¢
à¸³à¸¡ à¸²à¸ķ
im e
à¸Ħ à¸°à¹ģà¸Ļ
à¸£à¸° à¸Ĩ
Ġà¸Ĥà¸Ńà¸ĩ à¸Ī
à¹ģà¸Ńà¸Ļ à¸Ļ
à¸ĩà¸Ĥà¸ĵà¸° à¸Ļ
à¸Ń à¹Ģà¸ķà¸Ńà¸£
à¸¢à¸¡ à¹Ģà¸Ľ
à¸ķà¸²à¸¡ à¹ģà¸Ļà¸§
à¸²à¸ĺ à¸²à¸ķ
à¸Ļà¸Ħ à¸Ķ
ĠI s
Ġà¹Ģà¸ĺ à¸Ńà¸¢
Ġà¸§à¸²à¸ĩ à¸Īà¸³à¸«à¸Ļ
ar s
à¸Ľà¸ģ à¸Ħà¸¥
à¸Ńà¸¡à¹Ĥ à¸¢à¸ĩ
T V
à¸° à¹Ģà¸Ĺ
à¸ļ à¹ģà¸¥
à¸£à¸° à¸«à¸Ļ
à¸ł à¸£
à¸Ńà¸¡ à¹Ģà¸Ľ
Ġà¹ĥà¸Ļ à¸Ĥà¸ĵà¸°à¹Ģà¸Ķ
à¸Īà¸ļ à¸¥à¸ĩ
à¸ĩ à¸Ľà¸£à¸°à¸§
à¸Ī à¸§
à¸ģà¸£ à¸²à¸ļ
à¸Ľà¸£à¸°à¸Ĭ à¸§à¸£
à¸ģà¸©à¸ĵà¸° à¹Ģà¸īà¸ŀà¸²à¸°
as ter
à¸ļ à¸¤à¸Ķ
à¸ŀà¸£à¸° à¸ķà¸³à¸«à¸Ļ
à¸ģà¸¥ à¸ĩ
à¸§à¸¢ à¸Ńà¸ĩà¸Ħ
à¸Ŀ à¸²à¸ģ
Ġ248 8
à¸Ħà¸§à¸²à¸¡ à¸ģ
à¸Ńà¸¡ à¸²à¸Ĺ
à¸ķà¸²à¸¡ à¸ķ
ĠâĢ Ŀ
à¸ĩà¸ľà¸¥ à¸ģà¸£à¸°à¸Ĺ
ĵ à¹
à¸Ķ à¸Īà¸°
à¸Ĥ à¸ļà¸§à¸Ļà¸ģà¸²à¸£
à¹Ĥ à¸ĸ
Ġà¹ĥà¸Ļ à¸Ĥà¸ĵà¸°à¸Ļ
à¸¢à¸Ļ à¸ŀ
à¸¡à¸« à¸²à¸¨à¸²à¸¥
à¸ªà¸²à¸¡à¸²à¸£à¸ĸ à¸Ī
Âł "
à¸§à¸²à¸ĩ à¹ĥà¸Ī
à¸³ à¹Ģà¸ªà¸¡à¸Ń
à¸ķà¸£ à¸łà¸²à¸ŀ
à¸ªà¸¡ à¸¡à¸ķ
à¸Ńà¸Ķ à¹ģà¸Ķà¸ĩ
à¸ªà¸²à¸¡à¸²à¸£à¸ĸ à¸Ĺà¸³
à¹Ĥà¸£à¸ĩ à¸¥à¸°à¸Ħà¸£
à¸ĩà¸Īà¸²à¸ģ à¹Ħà¸Ķ
à¹Ĥà¸Ńà¸ģà¸²à¸ª à¸Ĺ
a j
à¸Ķ à¸«à¸§
à¸³ à¸ķà¸ģ
à¸Ĥà¸Ńà¸ĩ à¸Ŀà¸£
à¸ģà¸£ à¹Ħà¸Ĺà¸¢
Ġ4 3
5 1
à¸² à¹Ĥà¸Ń
à¸ļ à¹Ģà¸§
Ġà¸Ļ à¸ģ
Ġà¹Ĥ à¸Ńà¸¥
à¸ĩà¸Ń à¸²à¸«à¸²à¸£
à¸Īà¸²à¸ģà¸ģà¸²à¸£ à¹ģà¸Ĥ
Ġà¹Ģà¸Ńà¸Ł à¸ĭ
à¹ģà¸¥à¸° à¹Ģà¸Ħà¸£
à¸²à¸ª à¸§à¸¢à¸ĩà¸²à¸¡
à¸Ńà¸ĩà¸Ĺ à¸Ńà¸ĩ
à¹Ħ à¸Ńà¸Ĺ
à¹Ģà¸Ħ à¸Ĭ
à¸Ĺà¸²à¸ĩ à¹Ģà¸Ĥ
à¹ĥà¸Ļà¸ģà¸²à¸£ à¸¨
à¸ªà¸²à¸¡à¸²à¸£à¸ĸ à¸¢
à¸Ļà¹Ĥà¸Ķà¸¢ à¸Ĺ
à¸Ńà¸Ļ à¸«à¸£
à¹Ģà¸Ļ à¸ĭ
à¸ı à¸Ĳ
à¸ķà¸ķ à¸²
à¸²à¸¬ à¸ª
S p
Å į
à¸Ķ à¸Ĭà¸Ļ
à¹ĥà¸Ļ à¹Ģà¸¥
à¸¢à¸į à¸Ĺ
Ġ4 1
ab le
à¸²à¸Īà¸Ńà¸¡ à¸¡à¸²à¸£à¸Ķ
Ġ à¸Ĳà¸²à¸Ļ
à¸ŀ à¸ŀ
à¸²à¸ģ à¸³à¸¥
Ġà¸ŀ à¸Ńà¸¥
Ġà¸ģ à¸£à¸°à¸ļà¸§à¸Ļ
à¸Ļà¸Ĥà¸Ńà¸ĩ à¸Ĺ
it ed
Ġà¹ Ķ
à¸ģà¸£à¸°à¸Ĺà¸£à¸§à¸ĩ à¸¡à¸«à¸²à¸Ķà¹Ħà¸Ĺà¸¢
à¸¥ à¸²à¸£
à¸Ħ à¹Ģà¸ĭ
Ġà¸ģà¸²à¸£ à¸ļ
Ġ250 2
à¸²à¹Ħ à¸«à¸¡
Ġ le
à¸² à¹ĥà¸Ħà¸£
à¸¥ à¹Ģà¸Ń
à¸Ķ à¸²à¹Ģà¸Ľ
à¸° à¸£à¸°
à¸²à¸ģ à¸Ńà¸Ļ
à¸Ĥà¸Ńà¸ĩ à¹Ģà¸¥
à¸«à¸²à¸£à¸²à¸Ĭ à¸§
à¹ģà¸Ĺà¸£à¸ģ à¸ĭ
Ġ Ã
à¸²à¸§à¸£ à¸§à¸ĩà¸¨
6 7
Ä ģ
Ġà¹ģà¸¥à¸° à¸Īà¸²à¸ģ
à¸łà¸²à¸© à¸²à¸ķ
à¸ªà¸²à¸¡à¸²à¸£à¸ĸ à¸ªà¸£
ĠâĢ ĺ
à¸ĩà¸Ľ à¸§à¸ĩ
ĠG u
o o
à¸¡ à¹Ģà¸ª
à¸¡ à¸Ľà¸£à¸°à¸ª
à¸® à¸²à¸§
à¸Ĥà¸Ńà¸ĩà¸ª à¸²à¸ĺà¸²à¸£à¸ĵà¸£
6 3
à¸ģ à¹ĥà¸«à¸¡
à¸§à¸Ļ à¸ªà¸³à¸Ħ
à¸Ĺà¸²à¸ĩ à¸Ļ
à¸ķà¸²à¸¡ à¸ģà¸İà¸«à¸¡à¸²à¸¢
à¸Ķà¸£ à¸²à¸¡
Ġ249 3
à¸ļ à¹Ģà¸ŀà¸¥
à¸Ħ à¹Ģà¸ģà¸Ńà¸£
à¸Ļà¸ķ à¸£à¸°à¸ģ
Ġà¸Ī à¸Ļà¸Ĺà¸³à¹ĥà¸«
à¸łà¸²à¸ŀ à¹Ģà¸Ĥ
à¸į à¸ģà¸£à¸£à¸¡
à¸ŀà¸¥ à¸Ĺ
in k
à¸ķà¸£à¸Ĥà¸Ńà¸ĩ à¸Ļà¸²à¸¢
à¹Ģà¸Ļà¸£ à¹Ģà¸Ĺà¸¨
à¸² à¹ĥà¸ģà¸¥
à¸Ńà¸ķ à¹Ĥà¸ķà¸¡
à¸²à¸¡à¸²à¸ģ à¸ģà¸§
Ġ à¹ĥ
à¸¡ à¸īà¸¥à¸Ńà¸ĩ
à¸ľ à¸Īà¸įà¸ł
Ġà¸ŀ à¸ĩà¸©
à¸ŀà¸ļ à¸ģà¸Ĭ
9 3
à¸¡ à¸²à¸Ĥ
à¸²à¸¡ à¸²à¸ª
à¸²à¸Ħ à¸Ļà¸Ĺ
à¸«à¸¡ à¸Ķà¸ª
à¸ĩà¸ª à¸ĩà¸Ħà¸£à¸²à¸¡à¹Ĥà¸¥à¸ģà¸Ħà¸£
it al
E C
à¸Ķ à¸ģà¸İà¸«à¸¡à¸²à¸¢
à¸Ķ à¹Ģà¸ŀà¸Ĭà¸£à¸ļ
à¸Ńà¸¢ à¹Ħà¸Ķ
à¸ģà¸£ à¸ķ
à¸²à¸Ń à¸²à¸¨
à¸Ĺà¸ĺ à¸¢à¸Ńà¸Ķà¸Ł
à¸ļà¸ģà¸²à¸£ à¸§
Ġà¸ģà¸²à¸£ à¸Ĺà¸³
ol y
à¸ģ à¹ģà¸Ĥ
à¸ŀà¸£à¸° à¸ĺà¸²à¸ķ
à¸Īà¸° à¹Ģà¸ŀ
à¹Ħà¸¡ à¹Ģà¸Ħ
à¸ªà¸£ à¸łà¸²à¸ŀ
Ġ6 4
Ġà¸ģà¸£à¸° à¸Ī
à¸Ńà¸²à¸ª à¸Ļà¸§
à¸ģ à¹Ģà¸«à¸¥
à¹ģà¸¥à¸° à¸ļà¸£
à¸²à¸§ à¸²à¹Ģà¸£
à¸²à¸Ħ à¸¡à¸Ļ
os e
à¸Ĺà¸²à¸ĩà¸Ĺ à¸°à¹Ģà¸¥
3 00
à¸Ńà¸¡ à¸ļ
à¸Ńà¸¡ à¸Ľ
à¸ļà¸Ĺ à¸Ľà¸£à¸°à¸ŀ
à¸«à¸¥à¸²à¸¢ à¹Ģà¸£
à¸Īà¸£ à¸§à¸Ķ
à¹Ĥà¸Ľà¸£ à¹ģà¸ģà¸£
à¸¥à¸ĩ à¸ª
à¸ļà¸ª à¸Ńà¸ĩ
à¸ĩà¸« à¸į
Ġ250 9
Ġ he
à¸Ļ à¸£à¸°à¹Ģà¸ļ
à¸¡ à¸®
à¸Ķ à¸ľà¸¥
à¸Ħà¸¥ à¸Ńà¸Ķ
à¸ķà¸²à¸¡ à¸¥
à¸łà¸²à¸© à¸²à¸į
à¸¡à¸¡ à¸«à¸²à¸£à¸²à¸Ĭà¸§
à¸ģà¹ģà¸ªà¸Ķà¸ĩ à¸«à¸į
à¸ĸà¸Ļ à¸Ļà¸ª
5 2
à¸ª à¸ļ
à¸Ĥ à¸¢
à¸Īà¸° à¸«
à¹ģà¸ļà¸ļ à¸Ķ
Ġ4 7
à¸ĩà¹Ģà¸¨à¸ª à¸Ĺ
Ġ250 4
Ġà¸Ħà¸ĵà¸° à¸£
à¸Ķà¹Ģà¸ľ à¸¢à¸§
à¸ļà¸¡ à¸²à¸¢
Ġà¸Ļà¸Ńà¸ģ à¹Ģà¸«à¸Ļ
à¸ģà¸¤à¸ķ à¸ģà¸²à¸£à¸ĵ
Ġà¸ªà¹Ĥà¸¡à¸ªà¸£ à¸Ł
à¸²à¸£ à¸²à¸¨à¸²à¸ªà¸ķà¸£
à¸ģà¸²à¸£ à¹Ģà¸ķ
à¸ģà¸²à¸£ à¹Ĥà¸Īà¸¡à¸ķ
Ġà¸ĭ à¸²à¸£
Ġ5 2
Ġn o
à¸Ĭà¸Į à¸²à¸¢
j ect
à¸² à¹Ģà¸«à¸¡
à¸Ļ à¹Ģà¸ģà¸¥
à¸¥ à¹Ģà¸ŀ
à¸Īà¸° à¹Ģà¸«
à¸² à¹Ģà¸Ĥà¸²
à¸Ļà¸ģà¸²à¸£ à¹Ģà¸£
à¸ªà¸²à¸¡à¸²à¸£à¸ĸ à¸ŀ
à¸Ļà¸Ĳà¸²à¸Ļ à¸Ĥà¸Ńà¸ĩ
à¸ģà¸Īà¸° à¸ĸ
k y
Ġ à¸£à¸°à¸¢à¸°à¸Ĺà¸²à¸ĩ
à¸ģ à¹ĥà¸Ļà¸ģà¸²à¸£
à¸£à¸° à¸Ĺ
à¹ĥà¸Ļ à¸§à¸ĩà¸ģà¸²à¸£
à¸²à¸ĩ à¹ģà¸ľ
à¸ĵ à¸²à¸ĺ
à¹Ģà¸§à¸ĵ à¸Ķ
à¸Ĵà¸Ļà¸² à¹Ĥà¸Ķà¸¢
ĠCom p
à¸Ļ à¹Ģà¸Ħà¸¢
à¸Ńà¸ģ à¸ļ
à¸Ńà¸ģ à¹Ĥà¸ģ
à¸§à¸ĩ à¸£à¸°à¸«à¸§
Ġà¹Ĥà¸Ķà¸¢ à¸Ħ
à¹ģà¸ª à¸ķ
or p
à¸ļà¸Ļ à¸²à¸ĩ
à¸Ľà¸£à¸°à¸ģà¸²à¸¨ à¸ľà¸¥
à¸ªà¸²à¸¡ à¸ģ
Ġc on
Ġà¸ł à¸²à¸§à¸°
9 4
à¸ģ à¸«à¸į
à¸ĩ à¸Īà¸³à¹Ģà¸Ľ
à¸¥ à¹Ĥà¸Ļ
à¸Ĭ à¸²à¸ģ
à¸Ļà¸ŀà¸£à¸°à¸£à¸²à¸Ĭ à¸ĺ
ĠÂł ĠÂł
Ġà¹ģà¸¥à¸° à¸£à¸°à¸Ķ
à¸§à¸¡ à¸Ĭ
à¸²à¸Ķ à¸³à¸£à¸ĩà¸ķà¸³à¹ģà¸«à¸Ļ
à¸Ļà¸ģà¸²à¸£ à¸ŀ
à¸Īà¸Ļ à¸ģà¸§
at or
à¹ģà¸ļ à¸Ļà¸Ķ
à¸Ńà¸ģà¸²à¸£ à¸ŀ
à¸Ķà¸²à¸£ à¸²à¸Ī
ran s
à¸Īà¸²à¸ģ à¸ļ
à¸Ĳ à¸Ī
à¸¢à¸¡ à¸Ī
à¸ĩà¸Ĥ à¸£à¸ĵ
5 7
à¸Ĥà¸Ńà¸ĩ à¸ŀà¸£à¸°à¸Ļà¸²à¸ĩ
à¸łà¸²à¸ŀ à¸£
à¸¡à¸£ à¸Ķà¸ģ
Ġ ro
à¸¡ à¸Ľà¸£
à¸Ńà¸ĩ à¸ģà¸¥à¸²à¸ĩ
à¸łà¸²à¸ŀ à¸Ļ
à¸¢à¸¡ à¹ģà¸«
à¸ļà¸ģà¸²à¸£ à¸Ĭ
à¸Ĥà¸Ńà¸ĩà¸ª à¸ĩà¸Ħà¸£à¸²à¸¡
Ġà¸ŀà¸£ à¸«à¸¡
à¸Ń à¹Ħà¸§
à¸ģ à¹Ħà¸Łà¸Ł
à¸²à¸¡ à¸²à¸¢
Ġà¸ģà¸²à¸£ à¹Ģà¸Ľà¸¥
à¸²à¸ŀ à¸Ļ
à¸Ļà¸¢ à¸Ńà¸¡
à¸Ńà¸²à¸Ī à¸Īà¸°à¸¡
Ġ250 7
à¹Ģà¸£ à¸²à¸°
Ġà¹ģà¸¥à¸° à¸ģà¸¥à¸²à¸¢à¹Ģà¸Ľ
à¸²à¸Ń à¸²à¸¢
à¸įà¸į à¸²à¸ª
Ġà¸Īà¸° à¸Ĺà¸³à¹ĥà¸«
à¹Ĥà¸Ĭ à¸ķ
op h
Ġ à¸¥à¸°à¸Ħà¸£
à¸ĩ à¸ķà¸£
à¸ŀ à¸ŀà¸²à¸Ļ
à¸ģà¸²à¸£ à¸Ľà¸£à¸°à¸ģà¸§à¸Ķ
à¹Ģà¸Ħ à¸¢à¸£
Ġà¹Ĥà¸Ķà¸¢ à¸Īà¸°à¸¡
à¹Ĥà¸£ à¸Ĵ
à¸¥à¸²à¸¢ à¹Ģà¸§à¸Ĺ
à¸Ļà¸ķà¸Ļ à¸²à¸ģà¸²à¸£
à¸¡ à¸ľà¸¥
à¸Ħà¸£à¸Ńà¸ĩ à¸Ļà¸Ħà¸£
à¸Ļà¸Ĳà¸²à¸Ļ à¸Ĺ
à¸¢ à¸Ķà¸ª
à¹Ĥ à¸Ļà¸Ĺ
à¸³ à¹ĥà¸Ļ
Ġà¸Ń à¸Ńà¸ªà¹Ģà¸ķà¸£à¹Ģà¸¥
à¸įà¸į à¸²à¸Ĺ
à¸£à¸°à¸ļ à¸ļà¸£
Ġà¸ķà¸²à¸¡ à¸Ķ
à¹ģà¸ĸ à¸§
à¸ŀ à¸Ńà¸£
à¸§à¸ĩ à¸Ńà¸²à¸Ĺ
à¸£à¸£ à¹Ģà¸ªà¸£
à¸ģà¸£à¸°à¹ģà¸ª à¹Ħà¸Łà¸Ł
Ġà¹ģà¸ŀ à¸Ĺà¸¢
à¸Ļ à¸Ľà¸¥à¸²à¸¢
à¸Ĳ à¸ķ
à¸ĩà¹Ģà¸ŀ à¸Ĭà¸£
à¹Ĥà¸ģà¸¥ à¸Ķ
Ġ à¸Ľà¸£à¸°à¸Ĭà¸²à¸ģà¸£
à¸Ń à¹ĥà¸Ļà¸ģà¸²à¸£
à¸¢ à¸Ķà¸Ĥà¸Ńà¸ĩ
à¸²à¸¢ à¸«
Ġà¸ģ à¸İà¸«à¸¡à¸²à¸¢
à¸łà¸²à¸ŀ à¸¥
à¸¥à¸° à¸Ľ
à¹Ĥà¸£ à¹Ģà¸ļ
Ġà¸Ĺà¸³ à¸ĩà¸²à¸Ļ
ĠG o
à¸Ļà¸¡à¸²à¸ģ à¸Ĺ
o id
à¸ģ à¸²à¸ĭ
à¸Ĺ à¸ķ
à¸Ĺ à¸Ńà¸ĩà¸Ħà¸³
à¸²à¸¢ à¸ļà¸£
à¸²à¸Ļ à¸³
à¸²à¸ª à¸²à¸§
à¸Ļà¸Ļ à¸²à¸¡
à¹ģà¸ļà¸ļ à¹Ħà¸¡
à¸¡à¸Ń à¹Ģà¸ķà¸Ńà¸£
à¸ģà¸¡à¸§à¸¢ à¹Ħà¸Ĺà¸¢
Ġà¸¡à¸« à¸²à¸ł
à¸¢à¸Ļ à¹Ģà¸ģ
à¸¢à¸¡ à¹ģà¸¥à¸°
à¸Ļà¸ģ à¸Ńà¸ĩà¸Ĺ
à¸Ļà¸³ à¸ª
Ġ249 2
Ġ end
à¸Ń à¸Ľà¸£à¸°à¸Ĭ
à¸Ħà¸§à¸²à¸¡ à¸«à¸Ļà¸²à¹ģà¸Ļ
à¸Ľà¸£à¸°à¸ģà¸Ńà¸ļ à¸Ĺ
Ġ249 1
à¹ģà¸Ĺà¸£à¸ģ à¹ģà¸ĭ
9 6
à¸¢ à¸Ł
à¸ģà¸²à¸£ à¸Ńà¸Ńà¸ģà¸Ńà¸²à¸ģà¸²à¸¨
il li
à¸ŀ à¸Ńà¸Ķ
à¸²à¸¡ à¸²à¸¡
à¸¤ à¹ħ
à¸ī à¸°
à¸ĩà¸Ĥà¸Ńà¸ĩ à¸£
à¸²à¸ľ à¸Ļ
il and
n er
à¸ĩ à¹ĥà¸ª
à¸Ķ à¸ªà¸³à¸«à¸£
à¸ķà¸£ à¸Ļ
à¸Īà¸Ī à¸£
le x
Ġà¸Ľà¸£à¸°à¹Ģà¸Ĺà¸¨ à¸Ŀà¸£
Ġ248 4
à¸ģ à¸ŀà¸£à¸£à¸Ħ
à¹ģ à¸Ħà¸§à¸£
à¸ĩà¸ª à¸²à¸ĺà¸²à¸£à¸ĵà¸£
à¸Ĵà¸Ļ à¸²à¸ª
à¹Ħà¸Ĥ à¸ª
à¸ģà¹Ģà¸ģ à¸ĵà¸ĳ
Ġ249 7
à¹Ģà¸ªà¸ģà¸ªà¸¡ à¸£à¸ªà¸ģ
a ir
b o
à¸ª à¹ģà¸¥
à¸ļ à¹ģà¸ģ
à¸Ī à¸ģà¸¥
à¸¹ .
à¹Ĥ à¸į
à¸ģà¸²à¸£ à¸Ł
à¸ģà¸²à¸£ à¸ķà¸£à¸§à¸Ī
à¸ĭ à¸Ńà¸Ļ
à¹Ĥà¸Ķà¸¢ à¸ķà¸¥à¸Ńà¸Ķ
Ġà¹Ģà¸ģ à¸©
à¸Ń à¹Ħ
à¸Ľ à¹Ħà¸Ķ
Ġà¹ģà¸¥à¸° à¸«à¸¡
Ġà¹ģà¸¥à¸° à¸ªà¸¡à¹Ģà¸Ķ
à¸Ńà¸ģ à¹Ģà¸Ĥà¸²
à¸¢à¸¡ à¸Ķ
à¸Ļà¸Ħ à¸ķ
à¸Ĳà¸ļà¸²à¸¥ à¸ģà¸¥à¸²à¸ĩ
à¸¡à¸²à¸ª à¸£
Ġà¹Ģà¸¢à¸Ńà¸£ à¸¡à¸Ļ
à¸ĩ à¸§à¸Ļ
à¸Ħ à¸Ľ
à¸²à¸¢ à¸ķà¸£à¸ĩà¸Ĥ
à¸Ńà¸¢ à¸Ħà¸¥
à¹Ģà¸Ĥ à¸²à¸£
à¸Ńà¸ª à¸ĸà¸²à¸Ļ
or g
à¸ģà¸² à¹ģà¸¥
à¸Ķà¸¡ à¸ģà¸²à¸£à¸ĵ
Ġà¸Ļà¸³ à¹Ĥà¸Ķà¸¢
à¹Ĥà¸ģà¸ª à¸¥à¸²à¹Ģà¸§
à¸ĩ à¸ŀà¸£à¸°à¹Ģà¸Ī
à¸µà¹Ī "
à¸²à¸¢ à¸ģà¸¥
à¸ŀà¸£à¸° à¸Ľà¸£
Ġà¹ĥà¸Ļ à¸ģà¸²à¸£à¹Ģà¸¥
à¸¢à¸§ à¸Ĥà¸Ńà¸ĩ
Ġ19 30
at ch
ub l
à¸Ļ à¸Ĥà¸Ļà¸²à¸Ķ
à¸¥ à¸¨
à¸Ł à¸²à¸Ļ
à¸Ńà¸Ķ à¸Ħà¸¥
Ġà¸ģà¸²à¸£ à¸ªà¸£
à¸ĩà¸ģà¸²à¸£ à¸ķ
à¸²à¸Ł à¸£
Ġ247 6
Ġ j
à¸Ń à¸Ńà¸ĩà¸Ħ
à¸ĩ à¹Ģà¸®
à¸¢ à¹ģà¸Ĭà¸¡à¸Ľ
à¸Ķ à¹Ħà¸Ł
à¸ľà¸¥ à¸¥
à¸Ķà¹ĥà¸Ļ à¸Ľà¸£à¸°à¸§
à¸ªà¹Ģà¸ĭ à¸Ńà¸£
à¸°à¹Ģà¸¢ à¸²
à¸¥ à¹ģà¸£à¸ģ
à¸° à¸Ī
à¸Ħ à¸Ļà¸ªà¸³à¸Ħ
Ġà¸ŀ à¸²à¸¢
Ġà¹ĥà¸Ļ à¸ģà¸£
ĠChamp ions
à¸° à¸¢
à¸Ńà¸ĩ à¹ģà¸Ħ
à¸³ à¹ĥà¸«
à¹Ĥà¸Ķà¸¢ à¸¡à¸²à¸ģ
à¸¢à¸ĩ à¸¡
à¸Ļà¹ģ à¸Ļ
Ġà¸Ĺà¸²à¸ĩ à¸ªà¸ĸà¸²à¸Ļ
à¸ģ à¸ļà¸£
à¸Ńà¸ģ à¸¡
Ġà¸Ľ à¸ģà¸ķ
à¸²à¸Ĺà¸²à¸ĩ à¸Ķ
à¸¡ à¹Ħà¸Ľ
à¸³ à¸ŀà¸£
à¸ģà¸²à¸£ à¸«
à¸µà¹ī "
à¸Ľ à¸®
Ġà¹ģà¸¥à¸° à¹Ģà¸Ķ
Ġà¸Ľ à¸²à¸£
à¸Ļà¸Ń à¸²à¸Ĭ
Ġà¸ģà¸²à¸£ à¹Ģà¸Ĥ
à¸§à¹Ħà¸Ľ à¸Ĺ
à¸Ķà¸Ń à¸²à¸§
à¸ĩà¸¢ à¸Ńà¸Ķà¹Ģà¸¢
Ġà¸Ńà¸ĩà¸¨ à¸²
à¸Ĭà¸Ļà¸ģ à¸²à¸ĺ
Ġ ar
à¸² à¹Ħà¸Ĺ
à¸ķ à¹Ģà¸Ī
Ġà¸ª à¸ķà¸£
à¸¢à¸ĩ à¸Ħà¸£
à¹Ģà¸ļ à¸įà¸Ī
Ġ198 5
à¸Ń à¸Ĭà¸²à¸§
à¸ĩ à¹Ģà¸Ńà¹Ģà¸Ĭ
à¸ļ à¹ģà¸Ĥ
Ġà¹ĥà¸Ļ à¸Ķ
à¸ģà¸Ħà¸£ à¸Ńà¸ĩ
à¸Ļà¸Ĺà¸²à¸ĩ à¹Ģà¸Ĥ
à¸Ńà¸Ļà¸ª à¹ģà¸ķ
te x
à¸£ à¸Ķ
à¸Ńà¸¥ à¸Ĺ
à¸¥à¸° à¸ª
à¸Ľà¸£à¸°à¸Īà¸³ à¸Ī
à¹Ģà¸Ńà¸Ļ à¹Ģà¸Ń
à¸Ļ à¹Ĥà¸¥à¸ģ
à¸Ļ à¸Ľà¸£à¸°à¸ģà¸Ńà¸ļà¸Ķ
à¸³ à¹Ģà¸ª
à¸²à¸Ļ à¹Ħà¸¡
à¸Ĥà¸Ńà¸ĩ à¹Ģà¸Ķ
à¸²à¸ķ à¸²à¸¢
à¹Ģà¸§ à¸£
à¸ĩà¸²à¸Ļ à¸ģà¸²à¸£à¹Ģà¸¡
it t
r est
à¸²à¸Ļ à¸ģà¸²à¸£à¸¨
à¹Ĥà¸¥ à¸ģà¸ª
à¸ī à¸°à¸Ļ
à¸¢à¸ļ à¸ĩ
à¸¥à¸Ľ à¸ģà¸£à¸£à¸¡
à¸¡à¸Ń à¸į
à¸ªà¸²à¸¢ à¸ķ
Ġ198 4
à¸Īà¸ŀà¸£à¸°à¸ļà¸£à¸¡ à¸Ĭà¸Ļà¸ģà¸²à¸ĺ
I N
à¸¡ à¸Ķà¸²à¸§
à¸¥à¸ĩ à¹ģà¸Ĥ
à¸Ĺà¸£ à¹ģà¸Ńà¸ķà¹ģà¸¥à¸Ļà¸ķ
à¹ģà¸Ħ à¸Ĺ
à¸ªà¸° à¹Ģà¸Ĺ
à¸ªà¸Ľ à¸Ńà¸£
à¸² à¹Ĥà¸Ķ
à¸§ à¸²à¸£à¸°
Ġà¹ĥà¸Ļ à¸Ļà¸²à¸¡
à¸¡à¸« à¸²à¸ª
à¸ĩà¹ĥà¸Ļ à¸Ń
ĠM ed
à¸ĩà¸ģà¸¤à¸© à¹Ħà¸Ķ
Ġp l
Ġ198 7
à¸ªà¸²à¸« à¸ģ
à¸¢à¸¡ à¸£
à¸ĩà¹Ģà¸ģ à¸²à¸°
à¸ģà¸© à¸²à¸ŀà¸£à¸°à¸Ńà¸ĩà¸Ħ
à¸ģà¸£à¸° à¹Ģà¸ļ
à¸Ńà¸« à¸²à¸Ĥà¸Ńà¸ĩ
à¹Ĥà¸Ħ à¸¡
à¹ģà¸ªà¸ĩà¸Ń à¸²à¸Ĺ
à¸² à¹ģà¸ŀ
à¸Ĭ à¸°
à¹Ģà¸£ à¸ĭ
à¸Ĳ à¹ģà¸¥à¸°
à¸Ĺà¸³ à¹Ģà¸Ļ
à¸Ĭà¸Ļ à¹Ģà¸ľ
à¸İ à¸ģ
à¸Ļà¸¢ à¸³
à¸ģ à¹Ĥà¸Īà¸¡à¸ķ
à¸ļ à¸ªà¸¡à¹Ģà¸Ķ
à¸ģà¸ª à¸Ļà¸²à¸Ļ
à¸Ļà¹ĥà¸Ļ à¸¥
Ġà¸Ħà¸ĵà¸° à¸§
à¸Ń à¸Ľà¸£à¸°à¹Ģà¸Ĺà¸¨
à¸ģ à¹Ĥà¸¥à¸ģ
à¸Ńà¸¡ à¸²à¸§
à¹Ĥà¸Ńà¸ģà¸²à¸ª à¹Ħà¸Ķ
Ġà¹Ĥà¸£ à¹Ģà¸ļ
p ro
à¸ģ à¹ģà¸Ĺà¸Ļà¸Ĺ
à¸Ńà¸Ļ à¸Īà¸²à¸ģ
à¸Ńà¸¢ à¸¡à¸²
à¸Ńà¸ģ à¹ĥà¸Ĭ
à¸Ĺà¸³ à¸ª
à¸ģà¸£à¸° à¹Ģà¸Ľ
à¸ĩà¸Ĥ à¸¥
à¸ĩà¸Ń à¸Ńà¸ªà¹Ģà¸ķà¸£
à¸ļà¸Ńà¸¥ à¸«à¸į
à¹Ħà¸ĭ à¸Ļ
à¹Ĥà¸£à¸Ľ à¸ķà¸°à¸§
à¸ļà¸ªà¹Ĥà¸¡à¸ªà¸£ à¸Ł
à¸Ķ à¸Ŀ
à¸ĵ à¸ĵ
Ġà¹ĥà¸Ļ à¸«à¸Ļ
à¸Ĺà¸ĺ à¸Ńà¸ĩà¸Ħ
à¸«à¸¥à¸²à¸¢ à¸Ĭ
à¸ĩà¸ģà¸²à¸£ à¸£
à¸¡à¸²à¸ĵ à¸Ļ
à¸Ńà¸¡à¸² à¹ĥà¸Ļ
ĠA ss
ĠEn ter
e le
à¸§à¸Ļ à¸ľ
à¸ļà¸Ĺ à¹Ģà¸ŀà¸¥à¸ĩ
à¹Ĥà¸£ à¸§
ĠF l
à¸§à¸¢à¸Ħà¸§à¸²à¸¡ à¸Ĺ
ww w
r ec
à¸¢ à¹Ģà¸Ĥ
à¸£à¸° à¹Ģà¸Ĥ
à¸ĭ à¸²à¹Ģà¸¥
à¸§à¸¢ à¸«à¸Ļ
à¸Ļà¸Īà¸° à¹Ħà¸Ķ
à¸¤à¸ģà¸© à¸¨à¸²à¸ªà¸ķà¸£
9 7
à¸£ à¸¨
à¸Ń à¸Ńà¸ª
à¹Ħ à¸ĺ
à¹ĥà¸Ļ à¸ľ
à¸Ļà¸Ĺ à¸Ńà¸ĩ
à¹Ħà¸Ľ à¸Ĥ
à¸Ħà¸Ļ à¹ģà¸£à¸ģà¸Ĺ
Ġà¸Ķ à¸Ļà¸ķà¸£
re am
ĠR o
à¸¬à¸² à¹Ĥà¸¥à¸ģ
à¹Ģà¸«à¸¡à¸²à¸°à¸ªà¸¡ à¸ģ
ĠCom m
à¸ģ à¸ģà¸£
à¸ģ à¹Ĥà¸ĭ
à¸ķ à¸Ľà¸£à¸°à¸Īà¸³à¸§
Ġà¸§ à¸£à¸£à¸ĵ
à¸ĩà¸£ à¸Ńà¸ļ
Ġà¹Ģà¸Ĺ à¸Ħà¹Ĥà¸Ļà¹Ĥà¸¥à¸¢
à¸§à¹Ĥà¸¥à¸ģ à¹Ģà¸«à¸Ļ
à¹Ģà¸Ĺà¸¨à¸ļà¸²à¸¥ à¸Ļà¸Ħà¸£
ĠIn d
à¹Ĥà¸Ĩ à¸©
à¸Ń à¸ŀà¸£à¸°à¸Ńà¸ĩà¸Ħ
à¸§à¸ĩ à¸Ķ
à¸Ļà¹ĥà¸Ļ à¸£à¸°à¸Ķ
Ġà¸ģà¸£ à¸ĵ
à¸ģà¸²à¸£à¸Ħ à¸¡à¸Ļà¸²à¸Ħà¸¡
à¸ªà¹ģà¸ķ à¸Ļà¸ķ
à¸ŀ à¹Ģà¸ŀ
à¸³ à¸Ĭ
à¸¨ à¸Ļà¸²
Ġà¸Ĭ à¸²à¸ķ
Ġà¸Ĥà¸Ńà¸ĩ à¸Ļ
Ġà¸Īà¸²à¸ģ à¸Ń
à¸ģà¸£à¸£à¸¡à¸ģà¸²à¸£ à¸ļà¸£
à¹Ħà¸Ĺ à¸¢à¸Ļ
ĠAward s
à¸Ħà¸Ńà¸Ľ à¹Ģà¸ķà¸Ńà¸£
à¸Ļ à¸ŀà¸ļà¸§
Ġ249 5
t he
Ġ à¸Ńà¸¡
à¸Ļ à¸łà¸²à¸©à¸²
à¸Ľà¸£à¸° à¸ĵ
à¸Ļà¹ĥà¸Ļ à¸Ħà¸£
à¸ĩà¸Īà¸° à¹Ħà¸Ķ
à¸¢à¸£à¸²à¸¡à¸Ħà¸³à¹ģà¸« à¸ĩ
à¸£ à¸²à¸ĩ
à¸ģ à¸Ĺà¸³à¹ĥà¸«
à¸§ à¸ķà¸Ļ
à¸¤ à¸Ĺ
à¸Ľà¸£à¸°à¸Īà¸³ à¸ģà¸²à¸£
à¸£à¸ĵ à¸łà¸²à¸ŀ
Ġà¹Ģà¸ŀà¸£à¸²à¸° à¹Ģà¸Ľ
ot h
à¸§à¸¥à¸°à¸Ħà¸£ à¸«à¸¥
à¸Ĥà¸²à¸Ķ à¹ģà¸Ħà¸¥
à¸ĩ à¹Ģà¸ļà¸Ńà¸£
à¸ģà¸² à¹Ħà¸Ķ
Âł (
à¸¢à¸²à¸¢ à¹Ģà¸£
à¸Ńà¸Ńà¸ģà¸Īà¸²à¸ģ à¸ģ
r al
à¸Ń à¹Ģà¸«
à¸¢ à¸¥à¸¥
à¸Ļà¸Īà¸° à¹Ħà¸¡
à¸²à¸Ńà¸Ńà¸ģ à¸Ńà¸²à¸ģà¸²à¸¨
à¸ģà¸©à¸²à¸Ħà¸§à¸²à¸¡ à¸Ľà¸¥à¸Ńà¸Ķà¸ł
C l
à¸ĩ à¸ŀà¸ļ
à¸ĩ à¹Ģà¸Ĥà¸²à¹Ħà¸Ķ
à¸µ âĢĿ
à¸³ à¸¥à¸ĩ
à¸Īà¸° à¸¥
à¸ĩà¸Ħ à¸ĩà¹ĥà¸Ĭ
re t
à¹Ħà¸¥ à¸ķ
à¸¥à¸¢ à¸²à¸ĵ
à¸Ĺ à¸£à¸¡
à¸ŀ à¸Ī
à¹ĥà¸Ļ à¸łà¸²à¸©à¸²à¸Ń
à¸²à¸¡ à¹ģà¸¡
à¸¹à¹Ī :
à¸łà¸²à¸ ĵ
à¸²à¸Ī à¸Ńà¸£
à¸Ĺà¸³ à¸Ļà¸²à¸¢
à¸¢à¸² à¹Ģà¸ĺà¸Ń
à¸Ľà¸£à¸°à¸ģà¸²à¸¨ à¹ĥà¸Ĭ
à¸£à¸²à¸¢à¸ģà¸²à¸£ à¹Ĥà¸Ĺà¸£à¸Ĺ
à¸²à¸ī à¸²à¸¢
à¸¡ à¸²à¸Ħ
à¸ļ à¸Ĺà¸£
à¸Ī à¹ģà¸¥à¸°
à¸Ĥà¸Ńà¸ĩ à¸Ķà¸²à¸§
à¸ł à¸²à¸£
à¸Ĺà¸ĺ à¸§
er e
Ġà¸ļ à¸²à¸ĩà¸ª
à¸ĩà¹ĥà¸Ļ à¸¢
Ġà¸Ħà¸£ à¸Ńà¸ļà¸Ħà¸¥
Ġ à¹ĥà¸Ī
à¸Ħà¸§à¸²à¸¡ à¸Ĺà¸£à¸ĩà¸Īà¸³
now iki
à¸Ń à¹Ģà¸ĭ
à¸ĵ à¸ª
à¹Ģà¸§ à¸ķ
à¸¢à¸² à¹Ģà¸ªà¸ŀà¸ķ
à¸ĩà¸ŀ à¸²à¸ĵ
à¸ªà¹Ħ à¸ķà¸¥
à¸¡ à¹Ģà¸Ļ
à¸Ħà¸§à¸²à¸¡ à¸Īà¸³à¹Ģà¸Ľ
à¹Ģà¸Ń à¸ĭ
à¸Īà¸³ à¸Ľ
à¹Ĥà¸Ľà¸£ à¹Ģà¸ķ
à¸Ńà¸¡à¸²à¸ģ à¸ģà¸§
à¸łà¸²à¸©à¸²à¸¥ à¸°à¸ķ
I S
a ve
à¸ģ à¸Ĺà¸²à¸ĩ
à¸« à¸ģà¸£à¸ĵ
à¸Īà¸²à¸ģ à¹Ģà¸¡
à¸Ļà¹Ħ à¸®
I T
u tion
à¸¡ à¸²à¸Īà¸Ļà¸ĸ
à¸ķ à¸ģà¹Ģà¸Ľ
à¸²à¸ĩ à¹Ħà¸§
à¸ķà¸£ à¸ļ
à¸ĩà¸ª à¸«à¸Ľà¸£à¸°à¸Ĭà¸²à¸Ĭà¸²à¸ķ
à¸Ļà¸Ļ à¸²à¸£
à¸¥à¸° à¸Ń
Ġà¸ŀà¸£à¸° à¸Ĺ
à¸łà¸²à¸¢ à¹ĥà¸Ļà¸§
Ġà¸«à¸¥ à¸§à¸ĩà¸ŀ
à¸ļ à¹ģà¸ļà¸ļ
à¸Ńà¸ģ à¸ľ
à¸Ńà¸ģ à¹Ģà¸¥
à¸²à¸§ à¸Ńà¸¢
à¸ŀà¸£à¸° à¸¨à¸ŀ
à¹Ģà¸§ à¸Ļà¸ķ
am es
à¸ģà¸Ń à¸ļà¸£à¸¡
p t
à¸Ļ à¹ĥà¸Ķ
à¸ĩ à¹ģà¸Ĺ
à¸²à¸¡ à¸²à¸Ńà¸¢
à¸Ĥà¸Ńà¸ĩ à¸Ĭà¸²à¸ķ
à¸§à¸¢ à¸ŀà¸£à¸°à¸£à¸²à¸Ĭà¸Ĺà¸²à¸Ļ
à¸Ĭà¸²à¸§ à¹Ģà¸¡
ro s
à¸Ł à¸ª
Ġà¸ŀ à¸¢
Ġà¸Ń à¹Ģà¸¡à¸£
à¸Ķà¸ª à¸Ļà¸²à¸¡
à¸Ķ à¹ĥà¸Ļà¸ģà¸²à¸£
à¹Ĥ à¸Ńà¸ķ
à¹Ģà¸Ļ à¸ģ
Ġà¸Ī à¸³
à¹ĥà¸Ī à¸Ĺ
à¸Ļà¹ĥà¸Ļ à¸ķà¸³à¹ģà¸«à¸Ļ
à¹Ĥà¸ķ à¸Ļ
à¸Ļà¸ŀà¸£à¸° à¸ĺ
Ġ249 6
à¸ģ à¹Ģà¸¥à¸¢
à¸¡ à¹Ģà¸Ħà¸£
à¸ļ à¸ªà¸¡à¸²à¸Ĭ
à¸ŀ à¸«à¸¥
à¸Ĥà¸Ńà¸ĩ à¸«à¸¡
Ġà¸ª à¸łà¸²à¸ŀ
à¸Ļà¸ª à¸²à¸§
à¸ļà¸²à¸ĩ à¹ģà¸«
un c
ex t
à¸ŀà¸ĩà¸¨ à¸²à¸§à¸Ķà¸²à¸£
à¸¢ à¸ŀà¸£à¸°à¹Ģà¸Ī
à¸Ħ à¸Ļà¸Ķ
à¸Ħà¸§à¸²à¸¡ à¹Ģà¸Īà¸£
à¸§à¸Ļ à¸£à¸²à¸Ĭà¸ģà¸²à¸£
Ġà¹ĥà¸Ļ à¸£à¸°à¸Ķ
er m
à¹Ĥà¸£ à¸Ļ
à¸ĩà¸Ĥà¸Ńà¸ĩ à¸Ń
à¸Ń à¹ģà¸£à¸ģ
à¸ª à¹Ģà¸ļ
à¸ĩà¸ģ à¸³à¸«à¸Ļ
à¸ģà¸£à¸° à¹Ģà¸ŀà¸²à¸°
à¸ªà¸²à¸¡à¸²à¸£à¸ĸ à¹Ģà¸¥
à¹Ģà¸Ħà¸¢ à¸ĸ
à¸²à¸ļà¸£à¸¡ à¸£à¸²à¸Ĭ
à¸ĩ à¹Ģà¸«à¸Ļ
à¸ª à¸Ńà¸¢
à¹ĥà¸Ļ à¹ģà¸ĩ
à¹Ģà¸Ĺ à¸Ļ
Ġà¸ŀ à¸Ńà¸ķà¹Ģà¸ķà¸Ńà¸£
Ġà¹Ģà¸Ń à¸²à¸Ĭà¸Ļà¸°
à¸§ à¸Ĥà¸²à¸§
à¸ļ à¸«à¸į
Ġ7 2
à¸ļ à¸Īà¸³à¸Ļà¸§à¸Ļ
à¸«à¸¥à¸²à¸¢ à¸ª
à¸Ńà¸ĩà¸Īà¸²à¸ģ à¹Ħà¸¡
à¸¢à¸Ļà¸Ļà¸²à¸¢ à¸£
A D
à¸Ľ à¸§à¸Ķ
Ġ5 1
à¹ģà¸Ľ à¸£à¸£
ic ation
à¸Ńà¸³à¹Ģà¸ł à¸Ńà¸ª
ĠO n
à¸Ńà¸ĩ à¸Ľà¸£à¸°à¸Ķ
à¸§à¸¢ à¸Ħà¸§à¸²à¸¡à¸£
Ġà¸Ħ à¸Ļà¸ķ
à¹ģà¸ļà¸£ à¸Ļà¸Ķ
ati ve
à¸£à¸°à¸ļà¸Ńà¸ļ à¸Ľà¸£à¸°à¸Ĭà¸²à¸ĺ
à¸¢à¸Ĥ à¸Ńà¸Ļà¹ģà¸ģ
à¸ļ à¸¡à¸Ļ
à¸ļ à¸Ħà¸³à¸ª
à¸²à¸ĩ à¸Ķà¸²à¸§
à¸«à¸Ļ à¸Ńà¸ĩ
à¸¢à¸ĩ à¸¢
à¹ģà¸ª à¸ĩà¸Ĺ
à¸Ľà¸£à¸°à¸Ĭ à¸²à¸ģà¸£à¸¡
Ġ6 00
à¸Ľà¸£à¸°à¸ģà¸²à¸¨ à¸Ĥ
à¸ķà¸¥à¸Ńà¸Ķ à¸Ĺ
à¸ĩ à¸¤à¸Ķ
à¸Ĭ à¸Ń
à¸²à¸¢ à¸ĩà¸²à¸Ļ
à¸²à¸§ à¸¢
à¸Ļà¹ģ à¸ļà¸£
e an
à¸ĸ à¸Ńà¸Ļ
à¹Ģà¸Ļ à¸¥
à¸Ń à¹Ģà¸Ńà¸ģ
à¸¸ "
à¸²à¸ĩ à¹Ħà¸Ľ
Ġà¹ģ à¸ļà¸¥
à¸Ńà¸Ńà¸ģ à¸¤à¸Ĺà¸ĺ
à¸ķà¸Ńà¸Ļ à¸ķ
ĠI t
à¸§à¸£à¸£à¸ĵ à¸Ħà¸Ķ
à¸ĩ à¸Ľà¸£à¸°à¸ĺà¸²à¸Ļ
à¸ĩ à¹Ģà¸Ħà¸¢à¹Ģà¸Ľ
à¸© à¸Ĺ
à¸į à¸ļ
à¸Ĳ à¸ģ
à¸²à¸ĩà¸ª à¸ĩà¸Ħà¸£à¸²à¸¡
à¸²à¹ģ à¸Ł
à¸§à¹Ĥà¸¥à¸ģ à¹ĥà¸ķ
à¸Ń à¸ªà¸¡à¹Ģà¸Ķ
à¸Ħ à¸Ļà¸¡
à¸Ńà¸ĩ à¹Ħà¸§
à¸¢à¸ĩ à¹Ħà¸®
he d
à¸ªà¸° à¸Ńà¸²à¸Ķ
à¸ģà¸Ń à¸®à¸Ńà¸¥
Ġà¹ĥà¸Ļà¸Ĭ à¸²à¸£
à¹Ģà¸ªà¸¡ à¸Ńà¸ģ
Ġà¹Ĥà¸Ķà¸¢ à¸Ľà¸ģà¸ķ
à¸Ļà¸ģà¸²à¸£ à¸Ĭ
à¸łà¸²à¸© à¸²à¸Ŀà¸£
à¸įà¸« à¸²à¸ª
à¸Ńà¸ĩ à¹Ģà¸Ń
à¸Ńà¸£ à¸²à¸§
à¸Ńà¸¡ à¸²à¸Ń
à¸ķà¸²à¸¡ à¸Ĥ
à¸ģà¸£à¸¡ à¸§
à¸ģà¸©à¸²à¸Ľà¸£à¸° à¸ķ
ĠChampions hip
à¸§ à¹Ĥ
à¸Ńà¸ļ à¹ĥà¸«
Ġà¹ĥà¸Ļ à¹Ģà¸Ħà¸£
à¸Ńà¸ķ à¸Ńà¸Ļ
à¸¢à¸Ńà¸¡ à¹ĥà¸«
à¸ª à¸Ńà¸ĩà¸Ĺ
à¸Ħà¸§à¸²à¸¡ à¸«à¸§
à¸¢à¸§ à¹Ĥà¸ķ
à¸ªà¸²à¸£ à¸Ĺ
à¸Ĳà¸ļà¸²à¸¥ à¸Ń
Ġà¸Ĺà¸²à¸ĩ à¸ķà¸°à¸§
à¸ªà¸Ļà¸²à¸¡ à¹ģà¸¡
à¸ľà¸ªà¸¡ à¸ģ
à¸¥ à¹Ģà¸Ĭ
à¸Ķ à¹ĥà¸Ļà¸§
à¸ģà¸£ à¸ļ
Ġà¹Ĥà¸Ķà¸¢ à¸Ĥ
à¸Ļà¸¡ à¸²à¸ķà¸£à¸Ĳà¸²à¸Ļ
à¸ģà¸©à¸² à¹ĥà¸Ļà¸£à¸°à¸Ķ
à¸ªà¸²à¸£ à¸Ħà¸Ķ
à¸²à¸£à¸²à¸Ĭ à¸ģà¸²à¸£à¸Ī
w ay
à¸Ħ à¸²à¸Ĺà¸Ńà¸¥
Ġà¸Ľà¸£à¸°à¹Ģà¸Ĺà¸¨ à¸ªà¸«à¸£
à¸ĩà¹Ĥà¸ķ à¹Ģà¸ģ
f l
à¸Ī à¸Ļà¸ª
à¸³ à¸ľ
à¸ģà¸£ à¸ª
à¹Ĥà¸£à¸ĩ à¹Ħà¸Łà¸Ł
à¸Ńà¸Ĥà¸Ńà¸ĩ à¸Ī
0 5
à¸Ķ à¸ŀà¸¥
Ġà¹ģà¸¥à¸° à¸Ļà¸³
Ġà¸ª à¸²à¹Ģà¸«à¸ķ
à¸Ļà¸Ļ à¸ģ
Ġà¹Ģà¸ŀ à¸Ĭà¸£
ĠG r
ĠK ing
à¸ļ à¸Ħà¸£à¸Ńà¸ļà¸Ħà¸£
à¹ĥà¸Ļ à¸ŀà¸£à¸°à¸ļà¸²à¸Ĺà¸ªà¸¡à¹Ģà¸Ķ
en n
q ue
Ġ à¹Ģà¸Ńà¸¡
à¸ĩ à¹Ģà¸«à¸¡
à¸ļ à¸Ħà¸¥
à¸Ħà¸§ à¸Ńà¸Ļà¸ķ
à¹Ģà¸ĭ à¸²à¸Ĺ
à¸ľà¸¥ à¸Ķ
Ġà¹Ĥ à¸£à¸¡
à¸²à¸Ĥà¸Ńà¸ĩ à¸£
ĠR ec
à¸Ĥà¸Ńà¸ĩà¸ķ à¸£à¸°à¸ģ
à¸Ń à¹ģà¸ľ
à¹ĥ à¸Ŀ
à¹Ĥ à¸Ļà¸£
à¸ŀà¸£à¸° à¸ĺ
à¸§à¸¢ à¸Ľà¸¥
Ġà¹Ĥà¸Ķà¸¢ à¹ĥà¸Ļà¸Ľ
à¹Ģà¸Ĺà¸ŀ à¸¨
à¸²à¹ģ à¸Ŀ
Ġà¸Ľà¸£à¸° à¸ģà¸²à¸£
ul l
à¹ģà¸Ł à¸£à¸ĩà¸ģ
Ġ à¸Ħà¸§à¸ļà¸Ħ
à¸Ĭ à¸¨à¸²à¸ªà¸ķà¸£
à¸ł à¸£à¸£à¸¢
à¹Ģà¸Ĥ à¸²à¸Īà¸°
à¸Ĺà¸²à¸ĩ à¸¨à¸²à¸ªà¸Ļà¸²
à¹Ĥà¸¡ à¹Ĥà¸ķà¸°
re d
à¹Ĥ à¸Ńà¸ª
à¸§à¸²à¸ĩ à¹Ħà¸Ĥ
à¹ģà¸Ńà¸Ļ à¸Ķà¸£
Ġà¸Ĺ à¸³à¸Ļ
à¹Ĥà¸£ à¸ª
à¸Ļà¸Ĺà¸£ à¸²à¸ļà¸£à¸¡à¸£à¸²à¸Ĭ
à¹Ħà¸®à¹Ĥà¸Ķà¸£ à¹Ģà¸Ī
Ġ ;
à¸ļ à¸¡à¸²à¸Īà¸²à¸ģ
à¸ģà¸© à¸²à¸Ħ
à¸Ĺà¸³ à¸Ķ
à¸ĩà¸ģ à¸³à¹Ģà¸Ļ
Ġt eam
à¸²à¸Ľà¸£ à¸²à¸ģà¸ı
E S
à¸ļ à¹Ģà¸«à¸£
à¸«à¸¡ à¸²à¸ģ
à¸ļà¸ģà¸²à¸£ à¸ģ
Ġà¹Ģà¸ª à¸¡à¸Ń
Ġà¸Ļà¸²à¸¢ à¸ª
9 1
à¸Ħ à¸ļ
à¸ģà¸© à¸²à¸Ī
à¸²à¸¢à¸Ļ à¸²à¸¡
Ġà¸£à¸Ńà¸ļ à¸Ħ
à¸² à¹Ģà¸«à¸£
à¸° à¹Ģà¸Ľ
à¸ģà¸²à¸£ à¹Ģà¸ĩ
Ġà¹ģà¸¥à¸° à¸Īà¸°
Ġà¹ĥà¸Ļ à¸£à¸²à¸¢à¸ģà¸²à¸£
à¸Ľà¸£ à¸²à¸£
à¸Ļà¸Ļ à¸²
à¸Ńà¸Ńà¸ģ à¸ª
ĠC oun
à¸Ńà¸« à¸²à¸Ĺ
Ġ198 2
Ġ194 1
à¸Ń à¸¥à¸ĩ
à¸ģà¸²à¸£ à¹Ģà¸ģà¸©à¸ķà¸£
à¸²à¸§ à¸Ļà¸²à¸Ļ
à¸Ńà¸¡ à¸«à¸¥à¸§à¸ĩ
Ġà¹ĥà¸Ļ à¸ķ
Ġà¹ĥà¸Ļ à¸ĭ
Ġà¸£ à¸Ńà¸¢
à¸£à¸²à¸¢ à¸ģà¸²à¸£à¸Ĺ
à¸Ńà¸²à¸Ī à¸Ĺà¸³à¹ĥà¸«
le y
âĢĭ âĢĭ
à¸įà¸įà¸²à¸ĵ à¸Ĺ
à¹Ģà¸ĸ à¸£
à¸Ļà¸ľà¸¥ à¹ĥà¸«
à¸²à¸Ħà¸§ à¸ļà¸Ħ
à¸ģà¹Ģà¸ĭ à¸¡à¹Ģà¸ļ
à¸Ļ à¹ĥà¸ļ
à¸ĩ à¸Īà¸°à¸ķ
à¸ķ à¸¨
à¹ĥà¸Ļ à¹Ģà¸§
à¸«à¸¥ à¸²à¸Ļ
à¸Ľà¸£ à¸²à¸¢
à¸Ļà¸ª à¸ĩà¸Ħà¸£à¸²à¸¡
à¸ĩà¹ĥà¸Ļ à¸ªà¸²à¸¡
à¸ĩà¸Ń à¸²à¸¨
à¸²à¸Ł à¸Ĺ
à¸ªà¸ĸà¸²à¸Ľ à¸Ļà¸²
Ġ249 4
à¹Ģà¸ªà¸ĺ à¸Ĺ
Ġà¹Ĥà¸ĭ à¸Ļ
à¸Ĥà¸Ńà¸ĩ à¸ŀà¸§à¸ģ
à¸ªà¸¡ à¸ģ
à¸Ńà¸§ à¸Ńà¸£
à¸Ļà¸Ĥà¸Ńà¸ĩ à¸Ń
à¸Ĺà¸³à¸ĩà¸²à¸Ļ à¹Ħà¸Ķ
Ġà¸Ľà¸£à¸°à¹Ģà¸Ĺà¸¨ à¸Ī
Ġb y
à¸§ à¹Ģà¸Ī
à¹ģ à¸Ńà¸Ħ
à¸ģà¸¥ à¸Ńà¸ļ
à¸¢à¸Ļ à¸Ļà¸²
à¹Ģà¸Ļ à¸¢
à¸«à¸¡ à¸§à¸ģ
à¸Ĳà¸²à¸Ļ à¸Ĥ
à¸Ľà¸£à¸°à¸ª à¸ļà¸Ľ
o on
à¸ŀ à¸Ńà¸Ĺ
à¸²à¸ĩà¹Ĩ à¸Ĺ
à¸łà¸²à¸¢à¹ĥà¸Ļ à¸Ľà¸£à¸°à¹Ģà¸Ĺà¸¨
os s
à¸¢à¸²à¸ģ à¸Īà¸Ļ
Ġ197 9
Ġ193 9
à¸Ń à¹Ĥà¸Ħà¸£
à¸Ħ à¹ĥà¸«à¸¡
à¸¨ à¸Ļà¸Ħà¸ķ
à¹ģà¸¥à¸° à¹Ģà¸ģ
à¸¢à¸Ļ à¹Ģà¸ŀ
Ġà¸¡ à¸²à¹Ģà¸¥à¹Ģà¸ĭ
à¸²à¸Ĥà¸Ńà¸ĩ à¸ŀà¸£à¸°à¸Ńà¸ĩà¸Ħ
à¸Ńà¸Ľ à¸Ľ
à¸¢à¸Ļà¸ª à¸²à¸ĺ
à¸Ĭà¹Ģà¸Ĭ à¸ªà¹ģà¸«
A M
à¸Ļ à¸¥à¸²à¸¢
à¸ª à¸²à¸Ħà¸£
à¹Ģà¸¡ à¸Ĩ
à¹ĥà¸Ļà¸ģà¸²à¸£ à¹Ģà¸Ķ
à¸Ńà¸²à¸£ à¸¢à¸ĺà¸£à¸£à¸¡
à¸Ńà¸Ļà¸ªà¹ģà¸ķ à¸Ļà¸ķ
C O
à¸ª à¸«à¸łà¸²à¸ŀà¹Ĥà¸ĭà¹Ģà¸§
à¸²à¸ĩ à¸«à¸£
à¸Ńà¸ĩà¸ª à¸²à¸¡
o ul
à¸ķ à¸°à¸ģ
à¸ª à¸§à¸²à¸¡
à¸Ī à¸Ķà¸Ĺà¸°à¹Ģà¸ļ
à¸¢à¸Ļ à¸¢
à¸łà¸²à¸Ħ à¹Ģà¸Ńà¹Ģà¸Ĭ
à¸Ķà¸³à¸£à¸ĩ à¸Ĭ
Ġà¸Ńà¸²à¸Ī à¸¡
à¸ŀ à¸¤à¸«
à¸²à¹ģ à¸ĭ
Ġà¹Ģà¸Ł à¸£
Ġà¹ĥà¸Ļ à¸ļà¸£
Ġà¸Ļ à¸²à¸¬
à¸ļà¸Ħà¸§à¸²à¸¡ à¸Ĭ
à¹Ĥà¸ª à¸ĺà¸£
à¸¢ à¹ĥà¸ķ
à¸Ķ à¸²à¸Ķ
à¸Ńà¸ĩ à¹ģà¸¥
à¹Ħ à¸Ļà¸ķ
à¹ĥà¸Ļ à¸į
à¹Ħà¸Ľ à¸Ń
à¸Ļà¸¢ à¸²
à¹Ģà¸ŀà¸¥à¸ĩ à¸Ķ
ĠA p
à¸ļà¸Ħà¸§à¸²à¸¡ à¸ªà¸Ļà¹ĥà¸Ī
à¸³à¸¡à¸²à¸ķ à¸¢
à¸ļ à¹Ģà¸ĺà¸Ń
à¸Ī à¹Ħà¸Ķ
à¸Ńà¸Ļ à¹Ģà¸ŀ
à¸Īà¸²à¸ģ à¸ŀ
Ġà¸ª à¸¥
à¸Ńà¸Ķ à¸²à¸§
à¸ĩà¸¡ à¸²
Ġà¹Ģà¸ģ à¸²à¸«à¸¥
à¹Ģà¸§à¸ĵ à¹ĥà¸ģà¸¥
à¸ļà¸²à¸ĩà¸ģ à¸Ńà¸ģ
à¸¡ à¸Ķà¸§à¸ĩ
à¸ª à¸Ī
à¸§à¸¢ à¹Ģà¸ŀ
à¸Ļà¸¡ à¸²à¸Ń
à¸ļà¹Ĥà¸ķ à¸Ĥ
4 00
y le
à¸Ń à¸§à¸ĩ
à¸Ķ à¹ĥà¸Ī
à¸Ħà¸§à¸²à¸¡ à¸ŀ
à¸ģà¸©à¸ĵà¸° à¸ł
à¸Ļà¸Ńà¸Ńà¸ģ à¸ģà¸¥à¸²à¸ĩ
à¸¢à¸¨ à¹Ģà¸Ľ
à¸ļ à¸³à¹Ģà¸ŀ
à¸Ľ à¹Ħà¸Ĥ
à¸Ńà¸Ļ à¹Ģà¸ķ
à¸ĵ à¸Ĺ
Ġà¸¡ à¸²à¸ª
à¹Ģà¸Ļ à¸Ľà¸²à¸¥
Ġà¹ĥà¸Ļ à¸ķà¸³à¹ģà¸«à¸Ļ
à¸ĩà¸Ń à¸ĺ
à¹ģà¸£ à¸ģà¸§
à¸²à¸łà¸²à¸ŀ à¸¢à¸Ļà¸ķà¸£
à¸Ļ à¸Ĭà¸²à¸ķ
à¸ģ à¸Ľà¸£à¸°à¸ģà¸²à¸£
à¸ĩ à¹Ĥà¸Ħ
à¸ķ à¸«
à¸ļ à¹Ĥà¸£à¸ĩà¹Ģà¸£
Ġà¸Ń à¸²à¸¥
à¸¢à¸ĩ à¹Ģà¸ŀ
à¸§à¸¡ à¹Ģà¸Ĥ
à¸ķà¸¥ à¸ģ
à¸ĩà¸Ńà¸Ńà¸ģ à¹Ħà¸Ķ
à¸²à¸«à¸¡ à¸²à¸¢à¸Ĺ
à¸²à¸ĩà¸Ńà¸²à¸Ħà¸²à¸£ à¹Ģà¸£
à¸Ń à¸²à¹Ģà¸ĭ
à¸ĩ à¸¡à¸²à¸ģà¸ģà¸§
à¸¡ à¸¡à¸²
à¸¢ à¸Ńà¸Ļ
à¸Ħ à¸²à¸Ļ
à¸į à¸Ļ
à¸Ļà¹ģ à¸ĸ
à¸²à¸ĭ à¸²
it s
à¸ģà¸Ńà¸ĩ à¹Ģà¸£
à¸£à¸²à¸ļ à¸¥
à¸£à¸²à¸ļ à¸ª
Ġà¹Ģà¸® à¸Ļà¸£
à¸Ķ à¸Ħà¸§à¸²à¸¡à¸£
à¹ģ à¸Ńà¸Ķ
à¹Ĥà¸¥ à¸Ļ
à¸ģà¸£à¸£à¸¡ à¸§
à¹Ģà¸Ħà¸£ à¸Ļ
à¸Ĺà¸£à¸ĩ à¸ĸ
à¸ĩà¸ļ à¸§à¸ģ
ĠE d
à¸¢à¸²à¸ģ à¸¥à¸³à¸ļà¸²à¸ģ
à¸Ĭ à¸ŀ
à¸Ľà¸£à¸° à¸«à¸¢
à¸Ńà¸ģ à¸Ńà¸ĩà¸Ĺ
à¸¢à¸Ļ à¸«à¸¥
à¹Ģà¸Ħ à¹Ģà¸ļ
à¸ĩà¸ª à¸ģ
à¹Ģà¸Ńà¸ģ à¸Ń
à¸²à¸¢à¹Ħà¸Ľ à¸Ĺ
Ġ194 4
t y
Ġà¸ģ à¸Ńà¸ĩà¸ģà¸³à¸¥
à¸Ĺà¸²à¸ĩ à¹Ģà¸Ħà¸¡
à¸Ĺà¸³à¸ĩà¸²à¸Ļ à¸Ĥà¸Ńà¸ĩ
b l
à¸ĩ à¸Ĺà¸³à¸«à¸Ļ
à¸Ľà¸¥ à¸²à¸Ĺ
à¸ĩà¹ĥà¸Ļ à¸Ĥà¸ĵà¸°à¸Ļ
à¸ķ à¹ģà¸ŀà¸Ĺà¸¢
à¹ģà¸¥à¸° à¸ªà¸£
à¹ĥà¸Ļà¸ģà¸²à¸£ à¸Ħ
at es
à¸Ĺà¸³à¸ĩà¸²à¸Ļ à¸Ńà¸¢
Ġà¹Ģà¸ļ à¸£
Ġà¹Ĥà¸Ħà¸£ à¸ĩà¸ªà¸£
à¸ĩà¹ģà¸® à¸¡
à¸ļ à¸²
à¸ŀà¸£à¸° à¸£
à¸Ļà¸ª à¸ķà¸£
à¹Ģà¸Ĺà¸¨ à¸¡à¸Ļà¸ķà¸£
in es
à¸Ĵà¸Ļ à¸²à¸ķ
à¸²à¸ŀà¸£à¸° à¸ŀ
Ġ å
à¸²à¸Ļ à¸Ł
Ġà¹ģà¸¥à¸° à¸Ł
Ġà¹Ĥà¸Ķà¸¢ à¹ģà¸ķ
à¸ģà¸²à¸£à¸Ħ à¸³à¸Ļà¸§à¸ĵ
à¸²à¸ĩà¸Īà¸²à¸ģ à¸ķ
! !
à¸Ķ à¸Ħà¸§à¸²à¸¡à¸ª
à¸ļà¸ģà¸²à¸£ à¸Ķ
à¸ĩà¸ģà¸¤à¸© à¸§
à¸£à¸Ńà¸ļ à¸Ĺ
Ġà¸Ľà¸£ à¸²à¸ªà¸²à¸Ĺ
à¸ªà¸ĸà¸²à¸Ļà¸° à¹Ģà¸Ľ
à¸Ļ à¸ģà¸¥à¸²à¸¢à¹Ģà¸Ľ
à¸ĩ à¹ģà¸Ĥ
à¸Ķ à¹Ĥà¸Ńà¸ģà¸²à¸ªà¹ĥà¸«
à¸ķ à¸ģà¸ģ
à¹ģà¸¥à¸° à¸ģà¸²à¸£à¸ª
Ġà¹ĥà¸Ļ à¸ļà¸²à¸ĩ
à¸Ļà¸Ķ à¸³à¸£à¸ĩà¸ķà¸³à¹ģà¸«à¸Ļ
à¸ľà¸¥ à¸ľà¸¥
ic s
à¸Ńà¸Ĥà¸Ńà¸ĩ à¸Ń
a f
p en
à¸Ļ à¹Ģà¸¥à¸¢
à¸¥ à¹ģà¸ģà¸£à¸¡à¸¡
à¸²à¸¢ à¹Ģà¸Ķ
à¸¢à¸Ļ à¸ĸ
à¸ĩà¸Ń à¸²à¸£
à¹Ħà¸Ł à¸£
à¸£à¸ª à¸Ĭà¸²à¸ķ
à¹Ĥà¸Ľà¸£à¹Ģà¸ķ à¸ªà¹ģà¸ķà¸Ļà¸ķ
ã Ģ
à¸Ļ à¸ļà¸²à¸ĩ
à¹Ĥà¸Ķà¸¢ à¸¢
Ġà¹ģ à¸ªà¸Ķ
à¸Ľà¸£à¸°à¹Ģà¸Ĺà¸¨ à¸Ŀà¸£
à¸ĩà¹ģà¸£à¸ģ à¸Ĥà¸Ńà¸ĩ
à¸ŀà¸Ń à¸ªà¸¡à¸Ħà¸§à¸£
à¸Ħà¸Ńà¸Ļ à¸ģà¸£
à¸¡à¸² à¹Ģà¸¢
à¸¡à¸Ń à¸²à¸ģà¸²à¸£
à¸Ńà¸Ħà¸§à¸²à¸¡ à¸Ĭ
à¹Ģà¸Ńà¸¥ à¸Ł
à¸ģ à¸ĺà¸£à¸£à¸¡
à¸§ à¸Ľà¸£à¸°à¸ģ
à¸Ķ à¸²à¸¡
à¸Ļ à¸Ľà¸£à¸°à¹Ģà¸łà¸Ĺ
à¸Ń à¸Ħà¸§à¸²à¸¡à¸£
à¹Ĥ à¸«à¸£
à¸Ŀ à¸²à¸ľà¸Ļ
à¸«à¸¥à¸²à¸¢ à¸ķ
à¹Ĥà¸Ń à¹Ģà¸ŀ
à¸Ńà¸ĩà¸Īà¸²à¸ģ à¸ķ
à¸Ļà¹Ħà¸Ľ à¸Ķ
à¸©à¸¢ à¸Ĭà¸Ļ
à¸Ķà¸Ľ à¸Ĺ
à¸¡ à¸Īà¸³à¸Ļà¸§à¸Ļ
à¸« à¸Ńà¸¡
à¸Ľ à¸ģà¸²à¸£
à¸ªà¸³ à¸£à¸Ńà¸ĩ
à¸Ļà¹ĥà¸Ļ à¹Ģà¸¡
à¸Ĭà¸²à¸§ à¸ŀ
ĠE ng
à¹ģà¸ªà¸Ķ à¸ĩà¸Ļ
à¸Ń à¸Ľà¸£à¸°à¹Ĥà¸¢à¸Ĭà¸Ļ
à¸« à¸ĩà¸ª
à¸Ńà¸¢ à¹ģà¸¥
à¸Ĺà¸²à¸ĩ à¸ģà¸²à¸£à¸¨
à¸ķà¸²à¸¡ à¹ģà¸ļà¸ļ
à¹Ħà¸§ à¸ķ
Ġà¹Ģà¸Ĥ à¸²à¹Ģà¸£
à¸Ļà¸Ĥà¸Ńà¸ĩ à¸ķà¸Ļà¹Ģà¸Ńà¸ĩ
à¹ģà¸Ľ à¸Ķ
Ġà¹Ģà¸ī à¸¥
Ġ ...
à¸¡ à¸ģà¸³à¸¥
à¹ĥà¸Ļ à¸ļà¸Ĺ
à¸Ńà¸£ à¸ĸ
à¹Ģà¸Ĺ à¸§à¸Ķ
à¸²à¸ª à¹Ģà¸ģ
à¸§à¸Ļ à¸°
à¹Ģà¸ļ à¸¥à¸¥
Ġ8 00
Ġà¸¡à¸²à¸ģ à¸¡à¸²à¸¢
eg in
c le
à¸Ļ à¸Ńà¸¡
à¸ķ à¸§à¸£à¸£à¸©à¸Ĺ
à¹ģ à¸Ļà¸¥
à¸²à¸Ļ à¹Ģà¸ŀ
à¹Ģà¸«à¸¥ à¸§
Ġà¸ŀà¸£à¸° à¸¡à¸«à¸²à¸ģà¸©
à¹Ģà¸Ĥà¸² à¹Ģà¸£
Ġà¹Ģà¸£ à¸¢
à¸ĩà¸ŀà¸£à¸° à¸¨à¸ŀ
à¹Ĥà¸¥à¸§ à¸²à¹Ģà¸ģ
A S
ï ¼
à¸Ń à¸Ħà¸Ļ
à¸ķ à¹Ħà¸Ľ
à¸ŀ à¸ª
à¸ŀà¸£à¸° à¸¢à¸²
à¹Ģà¸Ī à¸ķà¸Ļ
Ġ5 7
à¸ļà¸£à¸£ à¸Ķà¸²
à¸Ļà¸²à¸¡ à¹Ģà¸Ķ
à¹Ĥà¸Ľà¸£ à¹Ģà¸Īà¸ģà¸ķ
à¹ģà¸Ļà¸§ à¸Ħà¸§à¸²à¸¡à¸Ħ
à¸Ļà¸²à¸Ļ à¸ģ
à¸ģà¸Ĳà¸²à¸Ļ à¸§
m y
à¸ĩ à¹Ĥà¸Ľà¸£à¸ķ
à¸ŀ à¸ģ
à¸ķà¸²à¸¡ à¸Ľà¸ģà¸ķ
ĠB est
à¸Ħà¸Ħà¸¥ à¸ªà¸³à¸Ħ
à¹Ģà¸ľà¸¢ à¹ģà¸ľ
à¹ĥà¸Ļà¸ķ à¸£à¸°à¸ģ
ear ch
à¸Ķ à¹Ģà¸ģà¸²à¸°
à¸ļ à¹Ĥà¸£à¸Ħ
à¸Ī à¹ĥà¸Ļà¸Ľ
Ġà¸ģ à¸Ńà¸£
Ġà¹ģ à¸ªà¸Ļ
à¸ļà¸Ħ à¸°à¹ģà¸Ļà¸Ļ
à¸Ľà¸£à¸°à¸Īà¸³ à¹Ĥà¸£à¸ĩà¹Ģà¸£
il m
à¹ģà¸¢à¸ģ à¸ģ
à¸ģà¸Īà¸° à¹ĥà¸Ĭ
à¸¥ à¸Ńà¸ļ
à¸ŀ à¹Ģà¸Ľ
à¹Ĥà¸ķ à¹Ģà¸ķ
Ġà¸Ĥà¸Ńà¸ĩ à¸ľ
à¹Ĥà¸Ń à¹Ģà¸§à¸Ńà¸£
à¸ļà¸Ķ à¸²à¸§
à¸©à¸¢ à¸¨à¸²à¸ªà¸ķà¸£
à¸ĩà¹Ħà¸Ľ à¸Ĺ
0 1
B est
à¸²à¸¡ à¸²à¸Ĭ
à¸Ľà¸£à¸° à¸¨à¸²à¸ªà¸Ļ
à¸²à¸§ à¸ĩà¸ģà¸²à¸£
à¸§à¸¢ à¸Ħà¸°à¹ģà¸Ļà¸Ļ
à¸¢à¸§ à¸Ń
à¸¢à¸¡ à¸ľ
à¸£à¸°à¸ļà¸ļ à¸Ļ
à¸ĩà¹ģà¸¥à¸° à¸¡
à¸ķà¸³à¸ļà¸¥ à¸ļ
à¸łà¸²à¸©à¸²à¸Ń à¸²à¸«à¸£
Ġd is
Ġ à¸Ľà¸£à¸°à¸Ĭà¸²à¸Ĭ
à¸²à¸ĩ à¹ģà¸¡
à¸²à¸ĩ à¹ĥà¸ģà¸¥
à¹Ģà¸Ħ à¸²à¸Ļ
Ġà¹Ĥà¸Ķà¸¢ à¹Ģà¸¡
à¸¢à¸§ à¸ŀ
à¸Ļà¹ĥà¸Ļ à¸Ļà¸²à¸¡
à¹Ģà¸īà¸ŀà¸²à¸° à¸ģ
à¸²à¸Ĭà¸²à¸¢ à¸Ń
à¸ĩà¸«à¸¡ à¸Ķà¸Ļ
à¸²à¸Ľà¸£ à¸²à¸ªà¸²à¸Ĺ
à¹Ģà¸ŀà¸²à¸° à¸Ľà¸¥
ĠEnter tain
à¹Ħ à¸£à¸ģ
Ġà¸ŀ à¸¡
à¸¢à¸§ à¸ª
à¸Ĭà¸²à¸§ à¸¡
à¸ļà¸Ń à¸³à¹Ģà¸ł
à¹ģà¸Ľà¸¥à¸ĩ à¸£
Ġ198 3
Ġà¸łà¸²à¸Ħ à¸§
à¸ĩ à¹ģà¸ª
à¹ģ à¸ļà¸Ĺ
à¸ŀà¸£à¸° à¸Ńà¸Ļ
à¹Ģà¸Ń à¸ķ
à¸Ľà¸¥ à¸²à¸¢à¸Ĺ
à¸ķà¸²à¸¡ à¸ª
à¸Ĥà¸Ļ à¸²à¸¢à¸ģ
ĠR es
à¸Ħà¸£à¸Ńà¸ĩ à¹ģà¸Ĭà¸¡à¸Ľ
à¸§à¸¢à¸Ħà¸§à¸²à¸¡ à¸Īà¸³
à¸Ńà¸ĩà¸£à¸²à¸§ à¸Ĺ
6 00
à¸²à¸Ļ à¸ģà¸¥
Ġà¸ķ à¸°à¸§
à¸Ħà¸Ļ à¹ģà¸£à¸ģà¸Ĥà¸Ńà¸ĩ
à¸łà¸²à¸¢ à¹ĥà¸Ļà¸ª
Ġ9 5
à¸ļà¸¡ à¸²à¸Ĺ
à¸Ńà¸ĩà¸£à¸²à¸§ à¹Ģà¸ģ
à¸Ķ à¸Ķà¸²
à¸° à¸ĩ
à¸ŀ à¹Ģà¸Ĥ
à¸³ à¸Ńà¸¢
à¹ģà¸¥à¸° à¹Ģà¸¥
à¸ł à¸£à¸£à¸¢à¸²
à¸Ńà¸¡ à¸Ń
Ġà¸¡ à¸²à¹Ģà¸£
à¸ļà¸ģà¸²à¸£ à¸Ńà¸Ļ
à¸Ļà¸ģà¸²à¸£ à¸Ħ
re f
à¹ĥà¸Ļà¸Ĳà¸²à¸Ļà¸° à¸ľ
à¹Ģ à¸Ńà¸¢
à¸¥ à¹ĥà¸Ļ
à¸° à¸Ħà¸£
à¹Į /
à¸ĩà¸Īà¸° à¸ĸ
Ġà¸Īà¸Ńà¸¡ à¸ŀà¸¥
I C
à¸Ńà¸ĩ à¹Ģà¸§
à¸Ńà¸ĩ à¹ģà¸ģ
à¸ķà¸£ à¸ĺ
à¸Ħà¸§à¸²à¸¡ à¸Ŀ
à¸§à¸Ļ à¸ĭ
Ġà¹ģ à¸Ľà¸¥
à¸Ńà¸Ń à¸²à¸Ĭ
à¹Ĥà¸ĭ à¸¡
à¸Ńà¸Ĥ à¸¢à¸²à¸¢
à¸ģà¸³à¸«à¸Ļ à¸Ķà¸ģà¸²à¸£
Ġ198 1
à¸ŀà¸¢à¸²à¸ģà¸£ à¸ĺà¸£à¸£à¸¡à¸Ĭà¸²à¸ķ
w ork
à¸Ļ à¸Łà¸£
à¸Ńà¸ĩ à¹Ģà¸ľà¸Ĭ
à¸Ļà¸ķ à¸³à¸£à¸§à¸Ī
à¸Ĺà¸³ à¸Ĥ
à¹Ģà¸Ĺà¸¨ à¸¨à¸²à¸ªà¸ķà¸£
Ġà¹Ģà¸Ĥ à¸²à¸ķ
Ġ5 3
à¸¢à¸Ļà¸ª à¸ķà¸£
Ġ248 2
à¸ĩ à¸Ľà¸£à¸°à¸Ķ
à¹Ħ à¸ĸ
à¹Ħ à¸§à¸Ļ
à¸¨ à¸Ĺ
à¸²à¸ĩ à¹Ģà¸«
à¸²à¸Ļ à¸°
à¸¢à¸ĩ à¹Ģà¸Ķ
Ġà¹Ĥà¸Ķà¸¢ à¸Ńà¸²à¸¨
à¹Ĩ à¸ģ
à¸Ļà¸§ à¸²à¸¢
à¸ļà¸ģà¸²à¸£ à¸Ńà¸Ńà¸ģà¹ģà¸ļà¸ļ
Ġà¸¥ à¸²à¸§
à¸Ľà¸¥à¸²à¸¢ à¸Ħà¸£
E E
i ence
à¸Ļ à¸łà¸²à¸ŀà¸Ĺ
à¸²à¸Ĥ à¸²
à¸Ļà¸ģà¸²à¸£ à¹Ģà¸¥
à¸ļà¸Ļ à¸²à¸¢
à¸ŀà¸£à¸£ à¸Ħà¸£
à¸ķà¸¥à¸Ńà¸Ķ à¸Ĭ
à¹ĥà¸Ļà¸ķ à¸Ńà¸Ļà¸Ĺ
à¸ŀà¸£à¸°à¸¡à¸« à¸²à¸ģà¸£
à¸Ķà¸Ļà¸Ħà¸£ à¸¨à¸£
à¸¥ à¸ľ
à¸§ à¹Ģà¸«à¸¥
Ġà¹ģà¸¥à¸° à¸ľà¸¥
à¸Ħà¸£ à¸£à¸ł
à¸Īà¸° à¹Ħà¸Ľ
ĠE l
Ø §
à¸² à¹Ħà¸Ĺà¸¢
Ġà¸ĭ à¸²à¸ģ
à¸ĩà¸²à¸Ļ à¸Ķ
à¸²à¸« à¸¢
à¸Ļà¸Ľà¸£à¸°à¸Īà¸³ à¸Ĺ
à¸ķ à¹Ģà¸Ĺ
à¹ĥà¸Ļ à¸Ł
à¸Īà¸²à¸ģ à¸Ħ
Ġà¸Ĺ à¸²à¸ĩà¸Ĺ
ĠT V
à¸Ļà¸ŀà¸£à¸° à¸Ĺ
à¸ļà¸ģ à¸ŀà¸£
à¸§à¸¢à¸ģà¸²à¸£ à¹Ģà¸Ľ
à¹Ģà¸Ńà¸ª à¹Ģà¸Ń
à¸Ńà¸³à¸Ļà¸§à¸¢à¸ģà¸²à¸£ à¹Ĥà¸£à¸ĩà¹Ģà¸£
à¸Ķà¸ŀà¸£à¸° à¸Ļà¸Ħà¸£à¸¨à¸£
à¸Ń à¸Ħà¸§à¸²à¸¡à¸ª
à¸¢ à¸²à¸ª
à¸Ĺ à¸²à¸ª
Ġà¸¡ à¸²à¸ķà¸£à¸²
à¹Ħà¸¡ à¸ķà¸£
à¸Ľà¸¥à¸²à¸¢ à¸Ĺà¸²à¸ĩ
à¸ļà¸Ľà¸£à¸° à¸ĸà¸¡à¸¨
an y
Ġà¸ĸ à¸§à¸²à¸¢
à¹ģà¸ļ à¸ķà¹Ģà¸ķà¸Ńà¸£
à¸Ĺà¸²à¸ĩà¸ģà¸²à¸£ à¹Ģà¸ĩ
à¸Łà¸¥ à¸Ńà¸£
à¸§à¸¢à¸ª à¸²à¸ģà¸¥
à¸Ľà¸° à¸ģà¸²à¸£
o h
à¸ģ à¹Ģà¸Ļ
à¸ķ à¹Ģà¸ķ
à¹ĥà¸Ļ à¹Ĥà¸Ńà¸¥
à¹ģà¸¥à¸° à¸Ħà¸£
à¸Ľà¸£ à¸²à¸£à¸ĸ
à¸²à¸Ĥà¸Ńà¸ĩ à¸Ń
à¸Īà¸ŀà¸£à¸° à¸¡à¸«
à¸ĩà¹ģ à¸Ľà¸¥à¸§
à¸ŀà¸£à¸°à¸£à¸²à¸Ĭà¸Ĺà¸²à¸Ļ à¹Ģà¸ŀà¸¥
à¸ļà¸Ńà¸ģ à¸ĭ
à¸Ļ à¸Ľà¸£à¸°à¹Ģà¸Ĺà¸¨à¸Ĺ
à¸Ńà¸¢ à¸Ĥ
à¸ŀà¸£à¸° à¸¡à¹Ģà¸«à¸ª
on y
à¸²à¸ķ à¸²à¸¥
Ġà¹Ģà¸Ķ à¸¥
à¸¢à¸į à¹Ģà¸ĩ
à¸ŀà¸£à¸°à¸Ļà¸²à¸¡ à¹Ģà¸Ķ
Ġà¸ĺà¸Ļ à¸²à¸Ħà¸²à¸£
à¸Ķ à¸²à¸ª
à¸° à¸ģà¸Ķ
à¸¢à¸ļ à¹Ħà¸Ķ
à¹Ħà¸£ à¸ķ
à¹ Ĵ
Ġà¸Ħ à¸Ńà¸Ļ
à¸ĩà¹ĥà¸Ļ à¸Ī
Ġ5 8
à¸Ļà¸Ĺà¸²à¸ĩ à¸«à¸¥à¸§à¸ĩ
à¹ĥà¸Ļà¸ª à¸łà¸²à¸ŀ
à¸Ļà¸²à¸¢ à¸ŀà¸¥
à¸¥à¸Ķ à¸²
à¸įà¸« à¸²à¸Ķ
à¸Ķ à¸Ńà¸£
à¹Ħ à¸Ļà¸Ĺ
Ġà¹ģà¸¥à¸° à¸Ĺà¸³
à¸ŀà¸£à¸° à¹Ģà¸Ĭà¸©à¸Ĳ
Ġà¸Ļ à¸ŀ
à¸Ļà¸¡ à¸²à¹Ħà¸Ķ
à¸Ńà¸²à¸£ à¸°à¹Ģà¸ļ
à¹ģà¸Ńà¸Ľ à¹Ģà¸Ľ
à¸¢ à¸Ķà¸Ĺ
à¸ģà¸²à¸£ à¸Ĥà¸Ńà¸ĩ
à¹Ģà¸Ĺ à¸²
à¸ĩà¸²à¸¡ à¸Ī
à¸¡ à¸¤à¸Ĺà¸ĺ
à¸ļ à¸ĩ
à¸Īà¸²à¸ģ à¸Ĭ
à¸Īà¸²à¸ģ à¸¡à¸«à¸²à¸§
à¸§à¸ĩ à¹Ħà¸Ķ
à¸ŀà¸¢ à¸²à¸ĺ
à¸Ļà¸ļ à¸²à¸Ĺ
à¹Ĥà¸ŀ à¸ªà¸ķ
à¸ªà¸ł à¸²à¸§à¸°
à¸ĩ à¸ķà¸£à¸ĩà¸ģ
à¸¥ à¸ĺà¸£à¸£à¸¡
à¸¢ à¹Ģà¸ª
à¹ģà¸¥ à¸Ĥà¸Ńà¸ĩ
à¸Ħà¸£ à¸Ĺ
à¸Ńà¸£ à¸Ńà¸ĩà¸£
Ġà¸Ń à¸²à¸ģ
Ġà¹ģ à¸Ħà¸Ļ
Ġà¸£ à¸²à¸§
à¸²à¸Ń à¸²à¸£
à¸Ļà¸Ń à¸²à¸¨
Ġà¸Īà¸° à¹Ģà¸£
Ġà¹ģà¸Ļà¸§ à¸Ħ
O R
à¹ģà¸Ńà¸Ļà¸ķ à¸²à¸£
à¸Ńà¸ĩà¹Ĥà¸Ĺà¸£à¸Ĺ à¸£à¸£à¸¨à¸Ļ
à¸²à¸ģ à¸Ńà¸ĩà¸Ĺ
à¸ŀà¸£à¸° à¹Ģà¸Ļà¸ķà¸£
à¸įà¸į à¸²à¸Ļ
Ġà¹Ģà¸Ń à¸¥
à¸Ļà¹Ĥà¸£ à¸Ķà¸¡
à¸§ à¸ģà¸¥à¸²à¸ĩ
à¸ļ à¸²à¸Ķ
à¸²à¸¡ à¸¡
à¸¢à¸Ļ à¸ģà¸²à¸£à¸ª
à¸¢à¸§ à¸ĭ
Ġà¸ģà¸²à¸£ à¸ĸ
Ġ9 9
à¸²à¹ģ à¸£à¸ĩ
op e
Ġr ec
à¸ģ à¸²à¸ª
à¸¡ à¸ªà¸¡
à¸¥ à¹Ģà¸Łà¸£
à¸Ķ à¸²à¸ŀà¸£à¸°à¸Ńà¸ĩà¸Ħ
à¸Ĭ à¸³à¸£à¸°
à¸²à¸§ à¸Ī
à¸ĩà¸ª à¸Ļà¸²à¸¡
à¹ĥà¸Ļà¸ģà¸²à¸£ à¸ĸ
à¹Ĥà¸«à¸¥ à¸Ķ
P ro
à¸Ļ à¸«à¸¡à¸Ķ
à¸¢ à¹ģà¸£à¸ģ
à¸ķ à¹Ģà¸Ĭ
à¸Ħ à¸²à¸ĭ
à¸²à¸¢ à¹Ģà¸ĩ
à¸ĵ à¸²
er o
à¸ªà¸Ńà¸ļ à¸ªà¸§à¸Ļ
Ġ à¸Ĩ
à¸Ķ à¸£à¸²à¸Ĭà¸ļ
à¸ģà¸²à¸£ à¸ģà¸£à¸°à¸Ĺà¸³
à¸Ńà¸£ à¸«
à¸ªà¸ķ à¸²
à¸Ķà¸ª à¸ĩà¸Ĥà¸¥à¸²
à¸Ľà¸£à¸°à¸Ĭ à¸²à¸¡à¸ķ
le ge
à¸Ļà¸Ĥ à¸ļà¸§à¸Ļ
à¸²à¸Ľà¸£à¸° à¸ģà¸²à¸¨
à¸ľà¸¥à¸ĩà¸²à¸Ļ à¸Ĭ
ĠW h
à¸Ń à¸ŀà¸£à¸°à¸ŀ
à¸¡ à¸Ħà¸Ļ
à¸Ľ à¸ªà¸²à¸¡à¹Ģà¸«à¸¥
à¸²à¸¢ à¹Ģà¸ŀ
à¸ĺ à¸¡
à¹Ģà¸Ĥ à¸²à¸Ļ
Ġà¸Ħ à¸²à¸Ķà¸§
à¸Ļà¸ª à¸³à¸Ļ
à¹Ħà¸Ĺà¸¢ à¹Ħà¸Ķ
em ent
à¸²à¸ī à¸¥à¸²à¸¡
à¹ĥà¸Ļà¹Ģà¸§à¸¥ à¸²à¸Ļ
à¸Ľ à¸Ńà¸£
à¹ĥà¸Ļ à¹Ĥà¸£à¸ĩà¹Ģà¸£
Ġà¹ĥà¸Ļ à¸ļà¸Ĺ
à¸Ļà¸§ à¸Ńà¸¥à¹Ģà¸¥à¸¢
à¸¨à¸²à¸ª à¸Ļà¸ªà¸ĸà¸²à¸Ļ
Ġ5 4
à¸²à¸ł à¸²à¸Ħ
à¸§à¹Ħà¸Ľ à¸§
à¸Ļà¹Ĥ à¸ķà¸£
iz ation
à¸ĩ à¸Ħà¸§
à¸Ľ à¸Ńà¸Ķ
à¸Ĥ à¹ģà¸«
à¹Ĥ à¸ĩ
à¸²à¸¢ à¹Ģà¸ª
à¸ģà¸£ à¸²à¸ģ
à¸¢à¸Ļ à¹Ħà¸§
à¸ľà¸¥ à¸Ľà¸£à¸°à¹Ĥà¸¢à¸Ĭà¸Ļ
à¸«à¸¥à¸²à¸¢ à¸Ĺ
he l
à¸Ħà¸§à¸²à¸¡à¸ª à¸°à¸Ńà¸²à¸Ķ
à¸²à¸ªà¸¡ à¹Ģà¸Ķ
ap p
à¹ģà¸Ķà¸Ļ à¸ĭ
à¹ģ à¸Ķà¸Ķ
à¸²à¸ĩ à¸¥à¸ĩ
Ġà¸Ń à¸³à¸Ļà¸²à¸Ī
à¸Ńà¸¥ à¸ķ
à¸ĩà¸Ĥà¸Ńà¸ĩ à¸§
à¸Ļà¸ļ à¸§à¸£
à¸§à¸¢à¸Ħà¸§à¸²à¸¡ à¹Ģà¸£
à¸³à¹Ĥà¸Ĥ à¸ĩ
à¸Ļ à¹Ĥà¸¡
à¸Ń à¹Ģà¸ĺà¸Ń
à¸¡ à¸ĩà¸Ħ
à¸´ -
à¸Ĭ à¸§à¸Ļ
à¹Ģà¸£ à¸Ķ
à¸ªà¸²à¸¡à¸²à¸£à¸ĸ à¹Ģà¸Ľ
à¸Ļà¸Ħà¸£ à¸£à¸²à¸Ĭà¸ª
is ion
Ġà¹Ħ à¸ķ
à¸Ń à¸²à¸¡
à¸Ķ à¸Ľà¸ı
à¸ķà¸£ à¸Ĭ
à¸ĩà¸ģà¸²à¸£ à¸Ĺ
à¸Ĥà¸Ńà¸ĩà¸ª à¸«à¸łà¸²à¸ŀà¹Ĥà¸ĭà¹Ģà¸§
à¸Ľà¹ģà¸ļà¸ļ à¸ķ
à¸ģ à¹ģà¸ľ
à¸§ à¸Ķà¸Ĺ
à¸ŀà¸£à¸° à¹ģà¸¡
à¸§à¸Ļ à¹Ħà¸Ķ
à¸Ńà¸ĩà¸Ħ à¸Ļ
âĢ ¢
à¸Īà¸ŀà¸£à¸° à¸Ľà¸ģà¹Ģà¸ģà¸¥
à¸ĺà¸¢à¸¡ à¸Ľà¸¥à¸²à¸¢
à¸Ļà¸łà¸²à¸© à¸²à¸Ĺ
à¹ģà¸ģà¸° à¸ªà¸¥
B l
à¹Ģà¸ Ĵ
à¸¢ à¸«à¸£
à¸ģà¸²à¸£ à¸ªà¸³à¸£à¸§à¸Ī
à¸Īà¸³ à¹Ģà¸ŀà¸²à¸°
à¸ļà¸ª à¸²à¸¢
à¸ļà¸Ļ à¹Ĥà¸¥à¸ģ
ĠW ar
à¹Ĳ à¹Ĳ
à¸ģ à¸Ľà¸£à¸°à¸ŀ
à¹ģ à¸Ĭà¸£
à¸· à¹Ĭ
à¸¢à¸ĩ à¹Ģà¸£
à¸Ńà¸° à¸Ļ
à¸ļà¸¡ à¸²à¸Ń
Ġà¹ ķ
à¸°à¸ģ à¸°
à¸ļà¸²à¸£ à¸¡
à¸Ļ à¸ļà¸£à¸£à¸¢à¸²à¸ģà¸²à¸¨
à¸¡ à¹ģà¸ķ
Ġà¸ģ à¸İ
à¸Ĺà¸£à¸ĩ à¸ŀà¸£à¸°à¸ģà¸£
à¸§à¸²à¸ĩ à¸ķ
à¹ģà¸ªà¸ķ à¸¡à¸Ľ
à¸Ļ à¸Ļà¸Ĺ
à¸Ķ à¸īà¸²à¸ģ
à¸Ĭ à¸Ĭà¸²
Ġà¸ģà¸²à¸£ à¸Ľà¸ı
à¹Ĥà¸ļà¸£à¸²à¸ĵ à¸ªà¸ĸà¸²à¸Ļ
Ī Ĵ
à¸Ń à¹ĥà¸Ļà¸Ľ
à¸Īà¸° à¸Ļ
à¸¢à¸Ļ à¸ĭ
à¹ģà¸ļà¸ļ à¸ļ
à¸¢à¸ģ à¹Ħà¸Ķ
à¸Ļà¹ĥà¸Ļ à¹Ģà¸£
à¸ĩà¸Ĥà¸Ńà¸ĩ à¸ķ
à¸Ĭà¸²à¸¢ à¸«à¸²à¸Ķ
à¸ģà¸©à¸ĵà¸° à¸ŀ
à¸ģà¸£à¸°à¸Ī à¸ģ
st r
à¸£à¸²à¸ģ à¸Ĳà¸²à¸Ļ
à¸¤à¹ħ à¸©
à¸Ĺà¸²à¸ĩ à¸ļ
à¸Ńà¸¡à¸² à¹ĥà¸Ļà¹Ģà¸Ķ
à¹ģà¸Ļà¸§ à¹Ģà¸ŀà¸¥à¸ĩ
ous e
att le
C W
à¸Ķ à¹Ģà¸ĭ
à¸° à¸Ĥ
à¹ĥà¸Ļ à¸«à¸¥
à¸ģà¸¥ à¸Ńà¸ĩ
à¸§à¸ĩ à¸Ń
à¸¢à¸¡ à¸Ĥà¸Ńà¸ĩ
ĠA g
à¸ģà¸³à¸«à¸Ļ à¸Ķà¸§
à¸ļà¸£à¸²à¸Ĭ à¸ģà¸²à¸£à¹Ģà¸Ľ
ĠEntertain ment
P h
à¸Ļ à¸łà¸²à¸Ħ
à¹Ĥ à¸Łà¸¥
à¸¢à¸§ à¸ķ
à¹Ĥà¸£ à¸Ħà¸Ļ
à¹Ģà¸īà¸ŀà¸²à¸° à¸Ĺ
à¸£à¸§ à¸²à¸Ĺ
à¸²à¸ĩ à¹ģà¸Ļ
à¸Ńà¸¢ à¸¢
à¸ģà¸¥ à¸¢
à¸Ľà¸£à¸°à¸Ĭ à¸²à¸Ļ
Ġà¹Ħà¸¡ à¹Ĥà¸Ħà¸£
à¸Ļà¸²à¸¢ à¸ª
à¹Ĥà¸Ĺà¸£ à¸Ħà¸¡à¸Ļà¸²à¸Ħà¸¡
à¸²à¹ģ à¸Ķà¸ĩ
à¸ģà¸¡ à¸Ńà¸ĩà¸§
à¸Ħà¸Ħ à¸Ńà¸£
Ġà¹Ģà¸Ł à¸Ńà¸£
à¸Ľà¸£à¸°à¸¡à¸§à¸¥ à¸ģà¸İà¸«à¸¡à¸²à¸¢
à¸¡à¸«à¸²à¸Ń à¸³à¸Ļà¸²à¸Ī
à¸ģ à¹Ĥà¸Ĭà¸§
à¸Ķ à¹ģà¸¡
à¸¡à¸« à¸²à¸Ļ
à¸Ńà¸° à¸¥
à¸Ĵà¸Ļ à¸²à¸§
ro l
à¸Ĳà¸ļà¸²à¸¥ à¹Ħà¸Ķ
à¸§à¸¢à¸ĩà¸²à¸Ļ à¸Ĺ
à¸² à¹Ģà¸«à¸¢
à¸Ĺà¸¢ à¸²à¹ģà¸¥à¸°
à¸ĩà¹ĥà¸Ļ à¹Ģà¸Ķ
à¸Ńà¸Ľ à¸ģà¸Ľ
à¸ĩà¹ģ à¸£
Ġà¸ªà¸¡ à¸ļ
à¸Ĥà¸Ńà¸ĩà¸ª à¸«à¸£à¸²à¸Ĭà¸Ńà¸²à¸ĵà¸²à¸Ī
à¸²à¸Ĭà¸į à¸²à¸ģà¸£à¸£à¸¡
à¸ŀà¸£à¸°à¸ļà¸£ à¸¡à¸¡à¸«à¸²à¸£à¸²à¸Ĭà¸§
Ġ à¹ĥà¸ķ
à¸Ń à¹Ģà¸Ħ
à¸ģ à¸¢à¸²à¸§
à¸ĩ à¹Ģà¸ĺà¸Ń
à¸Ĥ à¸Ĺ
à¸Īà¸²à¸ģ à¸ģà¸²à¸£à¸Ĺ
à¸¢à¸ģ à¹ĥà¸«
Ġ19 20
Ġs c
ur g
à¸Ķà¸Ħà¸§à¸²à¸¡ à¹Ģà¸ª
M ar
à¸£ à¸²à¸Ł
à¸Ķ à¸Ķà¸²à¹ĥà¸Ļ
à¸ĭ à¸²à¸¥
à¸§à¸ĩ à¹Ĥà¸Ħà¸Īà¸£
à¹Ģà¸ĺ à¸Ļà¸ª
à¹Ĥà¸ĭ à¹Ĥà¸Ĺ
à¹Ģà¸Ł à¸Ļ
Ġc ell
à¸²à¸Ħà¸§à¸²à¸¡ à¸ª
à¸Ńà¸Ńà¸Ł à¹Ģà¸Ķà¸Ńà¸°
ĠTha iland
à¸²à¸¢ à¹Ģà¸«à¸Ļ
à¸²à¸Ļ à¹Ģà¸¥
à¸¢à¸ĩ à¸¥à¸³à¸Ķ
à¸Ķà¸Ļ à¸Ļà¸Ĺà¸ļ
à¸ģà¸Ķ à¸²à¸£à¸²à¸¨à¸²à¸ªà¸ķà¸£
à¸¢à¸Ļà¹ģà¸Ľà¸¥à¸ĩ à¸ģà¸²à¸£à¸Ľà¸ģà¸Ħà¸£à¸Ńà¸ĩ
à¹ĥà¸Ļà¸Ľà¸£à¸°à¹Ģà¸Ĺà¸¨ à¸Ī
Ġ197 2
à¸Ķ à¹ĥà¸Ļà¸ª
à¹Ĥà¸Ķà¸¢ à¸§
ĠA m
re en
Ġà¸Ĺà¸£à¸ĩ à¸¡
à¸¥ à¸ģà¸£
à¹ģà¸¥à¸° à¸«à¸¥
à¹Ģà¸Ĺ à¸ģà¸ĭ
à¸§à¸¡ à¹ĥà¸Ļà¸ģà¸²à¸£
à¸Ĭà¸²à¸§ à¹Ģà¸ģà¸²à¸«à¸¥
Ġb egin
Ġn e
Ġà¸¡ à¸ģ
Ġà¸ģ à¸£à¸°à¸ļ
à¸¢à¸ĩ à¹ģà¸«
à¹ģà¸ģ à¸Ļà¸Ķ
r en
à¸ĩ à¸ŀà¸¢à¸²à¸¢à¸²à¸¡
à¸Ľ à¸Ī
à¸Ńà¸¢ à¸Ħ
à¸Ļà¸¡à¸²à¸ģ à¸¡à¸²à¸¢
Ġ197 5
t a
à¸Ķ à¸Ĺà¸³à¸ģà¸²à¸£
Ġà¹ģà¸¥à¸° à¸Ŀ
Ġà¸ª à¸ķà¸²à¸£
à¸²à¸Ĺ à¸Ńà¸ĩ
Ġà¹ģ à¸ŀà¸£
à¸ķà¸Ńà¸Ļ à¸ģà¸¥à¸²à¸ĩ
à¸ĩà¹Ģà¸¨à¸ª à¹Ħà¸Ķ
à¸¡à¸Ĭ à¸Ļà¸Ĺ
Ġ248 1
à¸ļà¸£à¸£à¸ŀ à¸Ĭ
Ġ ex
Ġà¹ģà¸¥à¸° à¹Ģà¸Ń
à¹Ģà¸§ à¸ģ
Ġà¹Ĥà¸Ķà¸¢ à¹Ģà¸Ļ
Ġà¹Ģà¸¡ à¸Ńà¸£
er v
Ġà¸ŀà¸£à¸° à¸Ħà¸£
à¸ģà¸©à¸² à¹Ģà¸ģ
à¸¢à¸° à¸Ĭ
à¸Īà¸ŀà¸£à¸° à¸Ļà¹Ģà¸£
à¸£à¸ª à¸Ĭ
à¸ģà¸ģà¸²à¸£ à¸°
à¸ķà¸¢à¸ģà¸£à¸£à¸¡ à¸¨à¸²à¸ªà¸ķà¸£
à¸²à¸¢à¸¡ à¸²à¸Ńà¸¢
S P
à¸Ķ à¸²à¸Ĭ
à¸® à¸°
à¸ĩà¸Ļ à¸Ńà¸£
à¸Ļà¸Ĭ à¸¡
Ġ256 3
à¹ Ĵà¹
à¸Ńà¸ĩ à¸ªà¸³à¸Ħ
Ġà¸Ń à¸¥
à¸§à¸¡ à¸ŀ
Ġb e
Ġ248 5
à¸Ńà¸ĩ à¸¨à¸£
à¸Ĺà¸²à¸ĩ à¸Ŀ
à¸ļà¸Ļ à¹Ģà¸§à¸Ĺ
à¸«à¸¥à¸²à¸ļ à¸§
à¸§à¸¢ à¸ŀà¸£à¸°
à¸¢à¸ģ à¸Ĳà¸²à¸Ļà¸°à¹Ģà¸Ľ
à¸ļà¸ģà¸²à¸£ à¸ģà¸¥
à¸Īà¸ŀà¸£à¸° à¸Ļ
ic a
à¸Ńà¸ģà¸²à¸£ à¸ķ
à¹Ģà¸ģà¸©à¸ķà¸£ à¸ģà¸£
ĠIn s
à¸£ à¸²à¸£
à¸¡ à¸£à¸§à¸¡
à¸ģà¸²à¸£ à¸Īà¸³à¹ģà¸Ļà¸ģ
Ġà¹Ĥà¸Ķà¸¢ à¸Ļà¸³
à¸ľà¸¥ à¸ļ
Ġ247 8
à¸¢ à¹Ģà¸Ĺà¸Ħà¸Ļ
à¸Ĺ à¸ļ
à¸ļ à¹ģà¸ľ
à¸Ļà¸ģà¸²à¸£ à¹Ģà¸Ľ
à¸ĩà¸«à¸¡à¸Ķ à¹Ģà¸Ľ
Ġà¸Ħà¸§à¸²à¸¡ à¹Ģà¸Ľ
s y
à¸Ń à¹ģà¸Ĥ
à¸§ à¹ĥà¸Ļà¸Ľ
à¸²à¸Ļ à¹ĥà¸«
à¸²à¸Ħ à¸§à¸£
à¹Ģà¸Ĭ à¸¥
Ġà¸Ī à¸Ļà¹Ģà¸Ľ
Ġà¹Ĥ à¸ŀ
à¸Ļà¸Ń à¸²à¸ĵà¸²à¸Ļ
Ġà¸¥ à¸Ńà¸£
à¸Ĵà¸Ļ à¸²à¹Ģà¸Ľ
à¸ģà¸Ńà¸ĩà¸Ĺ à¸«à¸²à¸£
à¸īà¸²à¸¢ à¸²
Ġà¹Ģà¸ļ à¸¥
Ġà¸ªà¸ĸ à¸²à¸Ľà¸Ļ
C om
V D
à¸ĩ à¸ŀà¸£à¸£à¸Ħ
à¸Ķ à¸£à¸²à¸Ĭ
à¸ļ à¸Ńà¸²à¸ģà¸²à¸¨
à¹ģ à¸§à¸Ļ
à¸Ħ à¹Ħà¸Ķ
à¸²à¸ĩ à¹ģà¸¥
Ġà¹ģà¸¥à¸° à¸ķà¸³à¸ļà¸¥
à¸ļà¸ģà¸²à¸£ à¸ªà¸ĸà¸²à¸Ľà¸Ļ
ĠS m
ir st
ri m
à¸²à¸Ļà¸Ľ à¸Ńà¸Ļà¸Ķ
à¸ŀà¸£à¸°à¸ļà¸£à¸¡à¸£à¸²à¸Ĭ à¸²à¸Ļ
à¹ģà¸¡à¸Ħ à¸Ķà¸²à¸§à¸Ļ
Ġ à¸Ľà¸£à¸°à¸ģà¸Ńà¸ļ
à¸ģ à¸ĩ
à¸ļ à¹ģà¸£à¸ĩà¸ļ
à¸Ī à¸Ļà¹Ħà¸Ķ
à¸£à¸° à¸¢à¸Ńà¸ĩ
à¹ģà¸¥à¸° à¸Ŀ
à¸§à¸¢ à¹Ģà¸ŀà¸¥à¸ĩ
à¸¢à¸§ à¹Ģà¸Ľ
à¸ŀà¸¥ à¸²à¸ªà¸ķ
à¸Ķà¹Ģà¸Ī à¸Ļà¸§
à¸Ļà¸Ńà¸³à¹Ģà¸ł à¸Ńà¸«à¸Ļ
à¸ª à¸łà¸²à¸ľ
Ġà¹ģà¸¥à¸° à¸Ńà¸²à¸Ī
à¸ģà¸£à¸£à¸¡ à¸ª
al k
Ġà¸Ńà¸³à¹Ģà¸ł à¸Ńà¸ª
à¸Ħà¸ĵà¸°à¸ģà¸£à¸£à¸¡ à¸²à¸ĺ
à¸ģ à¹ģà¸¡
à¸¡ à¹ģà¸ŀ
à¸²à¸ģ à¹Ģà¸Ľ
à¸Īà¸²à¸ģ à¹Ĥà¸£à¸ĩà¹Ģà¸£
Ġà¸ŀ à¸Ļà¸¡
à¸£à¸²à¸Ĭ à¸¡à¸ĩà¸Ħà¸¥
à¸Ķà¸ģà¸²à¸£ à¸ķ
à¸įà¸« à¸²à¸Ĺà¸²à¸ĩ
ow s
Ġà¹Ĥà¸Ľà¸£ à¸Ķà¹Ģà¸ģà¸¥
à¸¢à¸¢à¸¨ à¹Ģà¸Ľ
O S
à¸Ļ à¸«à¸§
à¸Ķ à¹Ģà¸Ľà¸¥
à¸Ķ à¹ĥà¸ª
à¸²à¸ĩ à¸ŀà¸£à¸°à¸£à¸²à¸Ĭà¸ļ
à¸łà¸²à¸ ¥
à¸Īà¸° à¸ģà¸¥à¸²à¸¢à¹Ģà¸Ľ
à¸¥à¸ĩ à¸ªà¸Ļà¸²à¸¡
à¸ľà¸¥ à¸ģà¸²à¸£à¹ģà¸Ĥ
à¸²à¸Ĥà¸Ńà¸ĩ à¸ľ
à¸Ńà¸³à¸Ļà¸§à¸¢à¸ģà¸²à¸£ à¸ªà¸£
à¸ļà¸Ĺà¸Ħà¸§à¸²à¸¡ à¸«à¸¥
à¸ģ à¸Ĭà¸²à¸ķ
à¸¥ à¹Ģà¸§à¸Ńà¸£
à¸Ķ à¸¡à¸²à¸ģ
à¹Ģà¸¡ à¸ĺ
à¹Ģà¸Ī à¹Ħà¸Ķ
Ġà¹Ĥà¸Ķà¸¢ à¸«à¸¥
à¸Ńà¸Ńà¸ģ à¸Ĺ
à¸ļà¸Ĺ à¸Ĺ
à¸łà¸²à¸© à¸²à¸®
à¸«à¸¥à¸²à¸¢ à¸ŀ
à¸²à¸Ĥà¸Ńà¸ĩ à¸ķ
à¸ĩà¹ģà¸£à¸ģ à¹ĥà¸Ļà¸§
à¸ļà¸Ń à¸²à¸£
Ġ197 4
o ch
à¸Ļ à¸Ľà¸£à¸°à¸ķ
à¸ģ à¹Ģà¸¢à¸²à¸§à¸Ĭà¸Ļ
à¸ª à¹Ģà¸£
à¸ļ à¹Ģà¸Ħ
à¸§à¸Ļ à¸¢
Ġà¹Ĥà¸Ķà¸¢ à¹ĥà¸Ļ
à¸Ħà¸¥ à¸²à¸¢
à¸ªà¸Ńà¸ĩ à¸Ĭ
à¸£à¸°à¸¢à¸° à¸ª
à¸ģà¸²à¸£à¸Ľà¸ģà¸Ħà¸£à¸Ńà¸ĩ à¸Ĥà¸Ńà¸ĩ
uc le
à¸ģ à¸Ńà¸¥
à¸¥ à¸Ĭà¸Ļà¸°à¹Ģà¸¥
à¸ŀà¸£à¸° à¹Ģà¸¢à¸²à¸§
Ġà¸Ħ à¸ĵ
à¸Ńà¸¡ à¸Ľà¸£à¸²à¸ģà¸²à¸£
Ġà¸Ĺ à¸°à¹Ģà¸¥
à¸Ńà¸Ķ à¸³à¸Ļ
à¸Ļà¸Ń à¸²à¸£
à¸ªà¸²à¸¡à¸²à¸£à¸ĸ à¸Ĥ
à¸Ĥà¸²à¸¢ à¸Ķ
à¹Ģà¸Ĺà¸Ļà¹Ģà¸¡ à¸Ļà¸Ĺ
à¸ģ à¹Ĥà¸ļà¸£à¸²à¸ĵ
à¸¡ à¸Ĺà¸³
à¸§ à¹ĥà¸«à¸į
à¸¢ à¸ªà¸¡à¹Ģà¸Ķ
à¸Ĺ à¸ģà¸ł
à¸Ħ à¸°
à¹Ħ à¸ļà¹Ģà¸ļ
Ġà¸£ à¸Ńà¸ĩà¸Īà¸²à¸ģ
à¸Ļà¹ģ à¸£
Ġ5 6
à¸Īà¸ŀà¸£à¸° à¸Ļà¸²à¸£à¸²à¸¢à¸ĵ
Ġ8 5
à¸Īà¸³à¸Ļà¸§à¸Ļ à¸Ľà¸£à¸°à¸Ĭà¸²à¸ģà¸£
à¸ķà¸¥à¸²à¸Ķ à¸«à¸¥
à¹ģà¸Ńà¸¥ à¸ģà¸Ńà¸®à¸Ńà¸¥
à¸Ĺà¸£à¸£à¸¨ à¸ģà¸²à¸£
8 00
à¸¡ à¸²à¸¢à¸Ĺ
à¹Ĥ à¸£à¸ģ
à¸Ĥà¸Ńà¸ĩ à¸Ħà¸¥
à¸§à¸Ļ à¸Ĥ
à¸ģà¸§ à¸²à¸ĩ
à¸ģà¸£à¸£à¸¡ à¸²à¸ĺ
à¸«à¸¥à¸²à¸¢ à¸Ľà¸£à¸°à¹Ģà¸Ĺà¸¨
à¸ģà¸©à¸£ à¸¨à¸²à¸ªà¸ķà¸£
à¸Ļà¸Ĺà¸²à¸ĩà¸ģà¸²à¸£ à¸§
B F
à¸ŀ à¸²à¸ģà¸¢
à¹Ĥà¸Ķà¸¢ à¹Ģà¸£
Ġà¹ĥà¸Ļ à¸ļ
Ġà¸ģà¸²à¸£ à¹Ģà¸£
à¸ªà¸²à¸£ à¸°
Ġà¹Ģà¸Ī à¸Ńà¸£
à¸Ļà¸« à¸Ńà¸¡
à¸Ľà¹ģà¸ļà¸ļ à¸«à¸Ļ
à¸ģà¹ģà¸ªà¸Ķà¸ĩ à¸Ĭà¸²à¸§à¹Ħà¸Ĺà¸¢
Ġà¸ŀà¸§à¸ģ à¹Ģà¸Ĥà¸²à¹Ħà¸Ķ
à¸Ħ à¹Ģà¸ķà¸Ńà¸£
à¸Ī à¹Ģà¸¡
à¸Ńà¸ģ à¸ļà¸ı
à¹Ĥà¸¡ à¸¢
à¹Ĥà¸Ń à¹Ģà¸ŀà¸¥à¸ĩ
à¸£à¸Ńà¸ļ à¸ª
à¸Ķà¸Ľ à¸²à¸ģ
Ġ197 8
ep h
Ġ 00
à¸Ń à¹ĥà¸Ļà¸Ĭ
à¸¥ à¸§à¸Ķà¸¥à¸²à¸¢
à¸ģà¸¥ à¹Ħ
à¸Ħà¸§à¸²à¸¡ à¹ģà¸Ĥ
à¸¢à¸£ à¸łà¸²à¸ŀ
à¹Ģà¸ªà¸Ļ à¸²à¸ĺ
à¸Ķà¸ķà¸¥à¸Ńà¸Ķ à¸ģà¸²à¸¥
à¸ķ à¸Ħà¸£
à¸²à¸Ļ à¹Ģà¸Ī
à¸Ħà¸§à¸²à¸¡ à¸ģà¸§
à¸§à¸¢ à¸ªà¸¡à¸²à¸Ĭ
à¸Ńà¸Ķ à¹Ģà¸¥
à¸Ľà¸£à¸°à¹Ģà¸Ĺà¸¨ à¹Ģà¸ģà¸²à¸«à¸¥
à¸Ļà¸¡ à¸ģ
à¹Ħà¸Ł à¸Ļà¸Ńà¸¥
à¹Ħà¸£ à¸Ļ
à¸ģà¸©à¸£ à¸Ī
à¹Ģà¸ĸ à¸£à¸§à¸²à¸Ĺ
à¸Ľ à¸«
à¸ŀ à¸²à¸«à¸Ļà¸°
à¸Īà¸° à¸Ĺ
à¸²à¸ķ à¸¥à¸Ńà¸Ķ
Ġà¹ģ à¸Ĭ
à¹ģà¸ļà¸ļ à¸ķ
Ġà¸ģà¸²à¸£ à¸¡
Ġà¸ģà¸²à¸£ à¹Ģà¸Ķ
à¸Ħà¸³ à¸Ńà¸ĺ
à¸ŀà¸§à¸ģ à¹Ģà¸Ĥà¸²à¹Ħà¸Ķ
n a
o le
à¸² à¹Ĩ
à¸£ à¸Ł
à¸¡ à¸²à¸Ĺà¸³
à¸Ńà¸Ļ à¸Īà¸³
à¸ģà¸£ à¸ŀ
à¸ķà¸£ à¸Ńà¸ĩ
Ġà¹ģ à¸Ħà¸£
à¸ģà¸Ń à¸ĺ
Ġ Â
à¸Ń à¸«à¸¥à¸§à¸ĩ
à¹Ģà¸ Į
à¸§ à¸Ńà¸Ńà¸ģà¸Īà¸²à¸ģ
à¸Ńà¸ĩ à¹Ģà¸ĭ
à¸į à¸ŀà¸£à¸°
à¸Ńà¸ģ à¸Ń
à¹Ģà¸Ĥ à¸²à¸§
à¸²à¸ķ à¸²à¸£
à¸§à¸¡ à¹ĥà¸Ļ
à¸ĩà¸ª à¸²à¸¢
Ġà¸£ à¸²à¸¡
ĠD ay
à¸Ľà¸¥à¸ĩ à¸ŀà¸£à¸°à¸Ĭà¸Ļà¸¡
k i
à¸Ī à¹ĥà¸Ļà¸ģà¸²à¸£
à¸Ńà¸Ļ à¸Īà¸°à¸¡
à¹Ĥà¸Ķ à¹Ģà¸Ļ
à¹Ģà¸Ĺ à¸Ľ
à¸Īà¸° à¹Ģà¸Ķ
à¸ªà¸²à¸£ à¹Ģà¸Ħà¸¡
Ġ7 00
à¸Ńà¸« à¸²à¹Ģà¸ģ
Ġà¸Ľà¸£à¸°à¹Ģà¸Ĺà¸¨ à¸ªà¸§
Ġà¹ ĸ
m on
à¸Ķ à¹Ģà¸¢
à¸Ī à¹Ĥà¸Ī
à¹Ģà¸§ à¸¨à¸§
à¹ģà¸ļà¸ļ à¸¡
à¸Ħà¸Ļ à¸¥à¸°
à¸Ļà¹ĥà¸Ļ à¸ŀ
à¸Ľà¸£à¸°à¸ª à¸ļà¸ģ
à¸ļà¸²à¸Ĺ à¸«à¸¥à¸§à¸ĩ
à¸Ńà¸Ĥ à¸²à¸¢
et er
ĠN et
à¸Ļà¹ĥà¸Ī à¸§
à¸Ļà¹Ģà¸§à¸¥ à¸²à¸«à¸¥à¸²à¸¢
k e
Ġ at
à¸² à¹Ģà¸Ł
à¸µà¹Ī ,
à¸ģà¸²à¸£ à¸Ńà¸Ńà¸ģ
à¸Ńà¸ģ à¹Ħà¸Ķ
Ġà¸ª à¸Ļà¸ĺ
Ġà¸Ī à¸Ļà¹ĥà¸Ļà¸Ĺ
à¸Ļà¹ĥ à¸¢
à¸² à¹Ĥà¸£à¸ĩà¹Ģà¸£
à¸¢ à¹Ģà¸¢à¸²à¸§
à¹ĥà¸Ļ à¹Ģà¸§à¸¥à¸²
à¹Ģà¸¡ à¸ķ
à¸Ł à¹Ģà¸Ł
à¸ģà¸© à¸²à¸ŀà¸£à¸°
à¸²à¸« à¸§à¸²à¸Ļ
à¸ĩà¸Ĺ à¸£
à¸²à¹Ĥ à¸ģà¸°
à¸ĩà¹ģà¸£à¸ģ à¸ģ
25 0
Ġ194 2
à¸ģ à¹Ħà¸¥
à¸¥ à¸³à¸Ļ
à¸¥à¸ĩ à¸¡à¸ķ
à¸£à¸²à¸Ĭ à¸Ķà¸³à¹Ģà¸Ļ
à¸ĩà¸ģ à¸Ńà¸¥
à¸Ļà¸ģà¸²à¸£ à¸§
à¸¥à¸¥ à¸Ńà¸®
à¸ªà¸²à¸£ à¸ŀ
Ġà¸Ł à¸Ńà¸Ļ
à¸¢à¸²à¸§ à¸Ĺ
à¸Ńà¸³à¹Ģà¸ł à¸Ńà¸Ĺ
Ġ248 0
ord er
à¸¢à¸Ļà¹Ģà¸£ à¸¨à¸§à¸£
à¸ª à¸«à¸łà¸²à¸ŀ
à¸ļ à¹Ģà¸ģà¸¡
à¸« à¸ģ
à¸Ńà¸ĩ à¹Ħà¸«
à¸Ĥ à¸²à¸Ħà¸ĵ
Ġà¸Ń à¸²à¸§
à¸ļà¸ģà¸²à¸£ à¹Ģà¸£
à¸Ļà¸Ī à¸Ļà¸ĸ
ĠS uper
à¸¥à¸Ľ à¸°à¸Ĺ
à¸Ļà¸Ľà¸¥ à¸²à¸ªà¸§à¸¢à¸ĩà¸²à¸¡
à¸Ļà¸§à¸ĩ à¸Ķà¸Ļà¸ķà¸£
g ram
à¸ª à¹Ģà¸Ń
à¸ļ à¸ŀà¸£à¸°à¸£à¸²à¸Ĭ
à¸ļ à¹Ģà¸Ńà¸ģà¸£à¸²à¸Ĭ
à¸Ĥà¸Ńà¸ĩ à¸Ħà¸ĵà¸°
à¸Ńà¸¢ à¸«à¸Ļ
à¸ªà¸¡ à¸¡
à¸Ļà¸Ĺà¸²à¸ĩ à¸ķ
à¹Ģà¸īà¸ŀà¸²à¸° à¸ķ
à¸²à¸ĩà¸ª à¸£à¸£à¸ŀà¸ª
à¸Ĺà¸«à¸²à¸£ à¹Ģà¸£
Ġà¸ķà¸³à¸ļà¸¥ à¸ļ
Ġà¸«à¸²à¸ģ à¹ģà¸ķ
à¸Ń à¸Ĺà¸³à¸ģà¸²à¸£
à¸ļ à¸²à¸Ľ
à¹ģà¸¥à¸° à¸ľà¸¥
Ġà¸Ī à¸Ļà¸ª
à¸ŀà¸¥ à¸Ĥà¸Ńà¸ĩ
Ġà¸ģà¸²à¸£ à¹ĥà¸«
à¸ªà¸²à¸£ à¸Ľà¸£à¸°à¸ģà¸Ńà¸ļ
à¸Ń à¹Ģà¸§
à¸ķ à¹ĥà¸Ļà¸§
à¸ļ à¸Ŀà¸£
à¸ŀ à¸Ĭ
à¹Ĥà¸Ķà¸¢ à¹Ģà¸īà¸¥
à¸§à¸¢ à¹Ħà¸Ĺà¸¢
Ġà¸ª à¹Ģà¸Ľ
à¸ĩà¹ĥà¸Ļ à¸Ķ
à¸ĩà¸Īà¸²à¸ģ à¸¡
à¸ģà¸²à¸£à¸ķ à¸Ńà¸ļà¸ªà¸Ļ
à¸Ń à¹ģà¸ļà¸Ħà¸Ĺ
à¸Ĥ à¸Īà¸£
à¸¢à¸§ à¹Ħà¸Ķ
à¸Ļà¸ģà¸²à¸£ à¹ģà¸ªà¸Ķà¸ĩ
à¸«à¸¢ à¸²à¸ĩ
à¸¡à¸£ à¸ĵà¸°
à¸²à¸Ļ à¹Ģà¸«à¸£
à¸ķà¸£ à¸ª
à¸§à¸Ļ à¸ģà¸¥
ĠA meric
à¸ªà¸Ńà¸ĩ à¸Ĥà¸Ńà¸ĩ
à¸Ķà¸£ à¸²à¸ģ
Ġà¹Ģà¸Ħ à¸¥
à¸Ļà¸ªà¸ĸ à¸²à¸Ľ
à¸¡à¸Ńà¸ļ à¹ĥà¸«
à¸¥à¸Ł à¸Ńà¸Ļà¹Ĥà¸ĭ
à¸Ĺà¸²à¸ĩà¸ģà¸²à¸¢ à¸łà¸²à¸ŀ
à¸Ń à¸Ńà¸Ķ
à¸¡ à¹ģà¸¥
à¸Ńà¸ĩ à¸ĩ
à¸²à¸ĩ à¸ªà¸Ńà¸ĩ
à¸²à¸Ĺ à¸«à¸²à¸£
à¸Ļà¸Ĥà¸Ńà¸ĩ à¸Ļ
à¸ģà¸Ħ à¸ĵ
à¹Ģà¸«à¸¡à¸²à¸° à¸ģ
à¸Ļ à¸§à¸ĩà¸¨
à¸Ľ à¹Ĥà¸łà¸Ħ
à¸µà¹Ī )
à¸Ĥ à¸Ńà¸£
à¸¢à¸¡ à¸¡
à¸¢à¸¡ à¹Ħà¸Ķ
à¸¨à¸²à¸ª à¸Ļà¸Ī
à¸Ĭà¸²à¸¢ à¸²
ĠM ag
Ġc or
à¸¡à¸²à¸ª à¹Ģà¸ķà¸Ńà¸£
ĠCol lege
à¸Ļ à¹ģà¸Ĺà¸Ļ
à¸¡ à¹Ģà¸§à¸Ĺ
à¸§ à¹Ģà¸ģà¸¡
à¸§à¸ĩ à¸Ħ
ti s
à¸ļà¸ģà¸²à¸£ à¹Ģà¸Ľà¸¥
à¸Ĵà¸Ļ à¸²à¸Ń
Ġà¹Ģà¸Ĺ à¸£
20 12
à¸Ļà¸Īà¸²à¸ģ à¸ķà¸³à¹ģà¸«à¸Ļ
à¸Ńà¸³à¸Ļà¸²à¸Ī à¸Ĥà¸Ńà¸ĩ
à¸ļà¹Ħà¸Ľ à¸Ĺ
Ġà¹ģà¸ģà¸£ à¸Ļà¸Ķ
à¸Ļ à¸Ŀà¸£
à¸Ń à¸ķà¸£
à¸¡ à¸²à¸§
à¸¡ à¹ĥà¸Ļà¸Ľ
à¸²à¸¢ à¸Ħà¸£
à¸§à¸¢ à¸²à¸ģà¸£à¸ĵ
à¸Ļà¸£ à¸§à¸¡
à¸Ļà¸ģà¸²à¸£ à¸ļ
à¸ªà¸²à¸¡à¸²à¸£à¸ĸ à¹Ģà¸Ńà¸²à¸Ĭà¸Ļà¸°
à¸²à¸Ĥà¸Ńà¸ĩ à¸§
à¸Ļà¸Ĥà¸Ńà¸ĩ à¸§
à¹Ĥà¸Ħà¸£ à¹Ĥà¸¡
à¸Ļà¹ģà¸¥à¸° à¸ª
à¹Ĥà¸Ħ à¸Ī
à¹Ģà¸ŀà¸¨ à¸ľ
à¸ģà¸° à¹Ģà¸«à¸£
à¸Īà¸Ķ à¸Īà¸³
à¸£à¸ŀ à¸²
à¸¢à¸įà¸Ĺà¸Ńà¸ĩ à¹ģà¸Ķà¸ĩ
à¸ģ à¹Ģà¸Ħà¸£
à¸¥ à¹ĥà¸«
à¸ļ à¸Ľà¸£à¸°à¹Ģà¸Ĺà¸¨à¹Ħà¸Ĺà¸¢
à¸Ńà¸£ à¸ª
à¸ķà¸²à¸¡ à¸Ķ
à¸Ńà¸« à¸¢
à¸Ļà¹Ģà¸ª à¸¡
à¸¡à¸²à¸Ļ à¸²à¸Ļ
b le
à¸ĩ à¸į
à¸ĩ à¸¡à¸Ļ
à¸§ à¸Ł
à¸£à¸° à¸¢
à¸£à¸£ à¸²à¸Ĭ
Ġà¹ĥà¸Ļ à¸łà¸²à¸©à¸²à¸Ń
à¸¢à¸ĩ à¸Ľ
Ġà¸Ī à¸Ļà¸ķ
à¸Ńà¸ª à¸ª
à¸Ĺà¸ĺ à¸£à¸ĵ
à¸ķà¸²à¸¡ à¸¡à¸²
à¹ĥà¸Ļà¸ģà¸²à¸£ à¸Ķ
Ġà¹Ģà¸ŀ à¸£
in i
à¸ģà¸ģ à¸İà¸«à¸¡à¸²à¸¢
Ġà¸Ł à¸¥
tic al
Ġà¹Ģà¸Ńà¸Ł à¹Ģà¸Ń
à¸²à¸ı à¸¨
Ġ à¸ģà¸¥à¸²à¸ĩ
à¸Ļ à¹Ĥà¸Ħà¸£à¸ĩà¸ªà¸£
à¸¡ à¹ģà¸«
à¸ľà¸¥ à¹Ģà¸Ľ
Ġà¹Ĥ à¸Ħà¸Ļ
ur n
Ġà¹Ĥà¸£à¸ĩ à¹ģà¸£à¸¡
Ġ196 7
à¸ĩ à¹Ģà¸§à¸¥à¸ª
à¸¡ à¹ģà¸£à¸ģà¸Ĥà¸Ńà¸ĩ
à¸ļ à¸Ĭà¸²à¸¢
à¸Ħ à¸«à¸¥
à¹Ĥ à¸ļà¸Ļ
à¸Ĥà¸Ńà¸ĩ à¹Ģà¸ĭà¸¥à¸¥
à¸¥à¸° à¸ģà¸¥
à¸Ļà¸³ à¹Ģà¸Ń
à¸Ńà¸ĩà¸Ĺ à¸£à¸ĩ
à¸²à¸Ĥà¸Ńà¸ĩ à¸ª
ĠS ing
à¸ģà¸©à¸² à¹Ħà¸§
Ġà¹Ģà¸Ħ à¸²à¸Ļà¸ķ
à¸²à¹ģà¸¥à¸° à¸¡
à¸įà¸« à¸²à¸Ļ
Ġà¹Ģà¸¥ à¸¢
ĠN e
ĠJ ohn
ĠAl l
A P
à¸Ļ à¸łà¸²à¸©à¸²à¹Ħà¸Ĺà¸¢
à¸ķ à¸²à¹Ģà¸¥
à¹ģ à¸¢à¸£
Ġà¹ĥà¸Ļ à¹Ģà¸§à¸¥à¸²à¸ķ
Ġà¹Ĥ à¸ŀà¸ĺ
Ġà¸ģà¸²à¸£ à¹ģà¸ªà¸Ķà¸ĩ
à¸Ĭà¸²à¸§ à¸®
ĠP ar
à¸ģà¸Ĭ à¸§à¸Ļ
à¸ļà¸Ńà¸ģ à¹Ģà¸¥
à¸£à¸²à¸ļ à¸Ĺ
à¸²à¸¢à¸Ĺà¸Ńà¸Ķ à¸ªà¸Ķ
à¸² à¹ĥ
à¸§ à¸¥à¸³
à¹Ħ à¸Ļ
à¸Ńà¸ģ à¸Ħ
à¸Īà¸²à¸ģ à¸«à¸Ļ
à¸§à¸Ļ à¸«à¸¥
à¸¢à¸§ à¸Ķà¸¢
Ġà¸ªà¸²à¸¡à¸²à¸£à¸ĸ à¹ĥà¸Ĭ
à¸§à¸Ħ à¸²à¸ªà¹Ģà¸ĭ
r ac
à¸Ń à¸Ńà¸Ńà¸ģ
à¸Ķ à¸²à¸ģ
à¹Ĥ à¸«à¸¡
à¸ĸ à¸¥
à¸²à¸Ĭ à¸²à¸Ķ
à¸²à¸ª à¸ģ
Ġà¸ª à¸°à¸ŀà¸²à¸Ļ
à¸²à¸¨ à¸ģ
ĠT o
à¸¢à¸ª à¸ĩà¸Ħà¸£à¸²à¸¡
ag on
à¸Ńà¸ªà¸²à¸¢ à¸Ī
à¸ģà¸²à¸£ à¸Ńà¸Ļ
à¸į à¸Ķ
à¹Ĥà¸Ķà¸¢ à¹Ħà¸Ķ
à¸£à¸²à¸Ĭ à¸²à¸Ļ
à¸§à¸¡ à¹Ģà¸ŀà¸¨
Ġà¹Ĥà¸Ķà¸¢ à¸ļà¸£
à¸Ńà¸Ķ à¸³à¹Ģà¸Ļ
à¸łà¸²à¸ŀ à¹Ģà¸Ľ
he m
à¸Ķà¹ĥà¸Ļ à¸¢
à¸«à¸²à¸¢ à¸²à¸ģ
à¸Ľà¸²à¸ģ à¹ģà¸¡
à¸Ķà¸Ļà¸Ħà¸£ à¸Ľà¸Ĳà¸¡
à¸Ń à¸Ńà¸ķà¹Ĥà¸ķà¸¡
à¸§ à¹Ģà¸ª
à¸« à¸ĩ
à¸į à¸¡à¸²à¸ģ
Ġà¸ª à¸ł
à¸ļà¸ģà¸²à¸£ à¹ģà¸ªà¸Ķà¸ĩ
à¸ªà¸Ńà¸ĩ à¸ķ
à¸Ļà¸° à¸Ļà¸³
à¹ģà¸ĭ à¸Ļà¹Ħà¸Ĺà¸Ļ
à¸Ńà¸²à¸Ĭà¸į à¸²à¸ģà¸£à¸£à¸¡
à¸ģ à¸²à¸Ī
à¸ģà¸²à¸£ à¸Ĥà¸¢à¸²à¸¢
à¹Ĥà¸Ķà¸¢ à¸Ľà¸ģà¸ķ
à¸ģà¸¥ à¸ĩà¸Ĺ
à¸Ńà¸¥ à¸³
à¸ģà¸©à¸² à¹ĥà¸«
à¸Ļà¸Ĥà¸Ńà¸ĩ à¸ľ
à¸Ĭà¸Ļà¸° à¸ģà¸²à¸£à¹ģà¸Ĥ
à¸ªà¸« à¸Ľà¸£à¸°à¸Ĭà¸²à¸Ĭà¸²à¸ķ
ord s
à¹ĥà¸Ļ à¹ģà¸ĸ
à¸²à¸ª à¸ĸà¸²à¸Ļ
à¸¢à¸§ à¹ģà¸¥à¸°
à¸Ļà¸Ļ à¸²à¸Ļ
à¹Ģà¸ļ à¸Ļ
à¸²à¸Ľ à¸²à¸£
ĠN ational
à¸¡à¸Ńà¸ĩ à¹Ĥà¸ģà¸¥
à¸ļà¸ģà¸²à¸£à¸ķ à¸Ńà¸ļà¸£
Ġà¹ģà¸Ń à¸Łà¸£
à¸ļ à¹Ģà¸Ĥà¸ķà¸ģà¸²à¸£à¸Ľà¸ģà¸Ħà¸£à¸Ńà¸ĩ
à¸²à¸§ à¸²
à¸Ńà¸ª à¹Ģà¸Ļ
à¸Ĺà¸ĺ à¸ª
à¹Ĥà¸£ à¸Ĭ
Ġà¸Īà¸²à¸ģ à¹Ĥà¸£à¸ĩà¹Ģà¸£
ol ar
à¸¨à¸²à¸¥ à¹Ģà¸Ī
à¸¡à¸ĩ à¸§à¸Ķ
à¸Ļ à¸łà¸²à¸¢à¹ĥà¸ķ
à¸¢ à¸²à¸ķ
à¸ļ à¸Ļà¸ģ
à¹Ĥ à¸Ĥà¸Ļ
à¸ģà¸²à¸£ à¸£à¸§à¸¡
à¸ĺ à¸Ľ
à¸Ĳ à¹Ħà¸Ķ
Ġà¹Ĥà¸Ķà¸¢ à¸Ľ
à¸¥à¸° à¸¡
à¸ĺà¸£à¸£à¸¡ à¸Ĺ
à¸¡à¸Ń à¸ļà¸£à¸²à¸ĩà¸§
à¸Ķà¸³à¸£à¸ĩ à¸Ńà¸¢
à¸Ĵà¸Ļà¸ĺà¸£à¸£à¸¡ à¸Ĺ
à¸ļà¸Ńà¸Ļ à¹Ħà¸Ķ
à¸ĩ à¸ŀà¸ļà¸§
à¹ĥà¸Ļ à¸ĸ
Ġà¹ģà¸¥à¸° à¸£à¸²à¸ĩà¸§
à¸²à¸§ à¹Ħà¸Ĺà¸¢
à¹Ģà¸Ļ à¸ªà¹Ĥà¸ģ
à¸Ļà¸ª à¸²à¸Ĥ
tic s
A L
à¸²à¸Ļ à¸²à¸ĩ
à¸Īà¸° à¸ļ
Ġà¹ĥà¸Ļ à¹ģà¸ķ
à¸Ļà¸ŀ à¸²à¸£
à¸Ńà¸ĩà¸Īà¸²à¸ģ à¸Ĺ
à¸Ĺà¸³à¸¥à¸²à¸¢ à¸¥
à¸ķà¸£à¸ģà¸£à¸£à¸¡ à¸Ŀà¸²à¸ľà¸Ļ
v en
à¸Ħà¸§à¸²à¸¡ à¸Ĭà¸Ńà¸ļ
à¸ļà¸ģà¸²à¸£ à¸Ľà¸£
à¹ĥà¸Ļà¸ģà¸²à¸£ à¸Ľà¸ģà¸Ħà¸£à¸Ńà¸ĩ
à¹Ĥà¸ģ à¸Ħ
ĠP er
am b
à¹Ģà¸Ħà¸¡ à¸ļà¸£
à¸ĭà¸²à¸ģ à¸°
à¸ĩ à¸Ļà¸ģ
à¸¡ à¸ĺ
à¸ķà¸£ à¸ĸ
à¸§à¸¢ à¹Ģà¸Ī
à¸ĩà¹ĥà¸Ļ à¸ªà¸¡à¸²à¸Ĭ
à¸£à¸°à¸ļà¸ļ à¸Ĺ
ĠM od
à¸£à¸§à¸¡ à¹Ħà¸Ľà¸ĸ
et y
à¸Īà¸²à¸£à¸ĵ à¸²à¸Ħà¸Ķ
à¸ªà¸Ļà¸²à¸¡ à¸«à¸¥à¸§à¸ĩ
à¸§ à¹ģà¸¡
à¸Ķ à¸Ĥà¸Ńà¸ĩà¸ª
à¸Ī à¸²à¸ĩ
à¸²à¸Ļ à¹Ģà¸ª
à¸Ńà¸¡ à¹Ģà¸ļ
à¸łà¸²à¸ŀ à¸£à¸§à¸¡
à¸ĩà¸Ļ à¸Ħà¸£
à¸ļà¸ģà¸²à¸£ à¸Ľà¸¥
à¹Ģà¸ŀà¸¥à¸ĩ à¸Ľà¸£à¸°à¸ģà¸Ńà¸ļ
Ġ14 0
ation s
à¸ĩà¸ľà¸¥ à¸ķ
ĠSt ar
Ġ196 9
à¸Ń à¹Ģà¸ķà¸£
à¸ļ à¸ĺ
à¸« à¸¢à¸ģ
à¸²à¸ĩ à¸ªà¸³à¸Ħ
à¸²à¸ĩ à¸ĸà¸Ļà¸Ļ
à¹Ģà¸Ĺ à¸¥
à¸§à¸Ļ à¹Ģà¸ª
Ġà¸Ļ à¸²à¸Ħ
à¸ĩà¸Ļ à¸²à¸¢
à¸Ńà¸ģà¸²à¸£ à¸¨
à¸Ļà¹Ĥ à¸Ńà¸¥
à¸¡à¸²à¸ķ à¸¥à¸Ńà¸Ķ
à¸Ħ à¸²à¸ĸ
à¸Ńà¸¡ à¸¥
à¹ģà¸Ĺ à¸ļ
à¸Ńà¸ģà¸²à¸£ à¹ĥà¸Ĭ
à¸Ļà¸¡à¸² à¹Ģà¸ŀ
à¸Ń à¸Łà¸£
à¸Ń à¸łà¸²à¸©à¸²à¸Ń
à¸ķ à¸Ľ
à¸ª à¸£à¸£à¸ŀ
à¸Ħ à¸²à¸ļà¸ªà¸¡
à¸Ĥà¸Ńà¸ĩ à¸ł
Ġà¸Ħ à¸¥à¸Ńà¸ĩ
à¸Ļà¸Ķ à¸²à¸¡
à¸ĩà¸Ħ à¸²
Ġà¸ģà¸²à¸£ à¸ļà¸£
à¸Ħà¸³ à¸¨
à¸ģà¸©à¸² à¹ģà¸«
ĠG l
Ġà¹Ģà¸® à¸Ńà¸£
à¸Ļ à¹ģà¸ª
à¹Ĥà¸Ķà¸¢ à¸ķ
à¸Ĺà¸³ à¸Ĺ
Ġà¹ģ à¸Ķ
Ġà¹Ĥ à¸Ĩ
à¸ģà¸©à¸² à¹Ģà¸ŀ
à¸¢à¸° à¸®
ĠD is
à¸łà¸²à¸§à¸° à¸Ĺ
à¸¥à¸²à¸Ļ à¸Ļà¸Ĺ
à¹Ĥà¸ķà¸£ à¹Ģà¸¥
à¸¡à¸§à¸¢ à¸Ľà¸¥
à¸£ à¸Ń
à¸Ķ à¸«à¸¡
à¸ķ à¹ģà¸¥
à¸Ī à¹ģà¸¥à¸°à¸ª
Ġà¸¡ à¸²à¸¢
ec tr
Ġ" (
Ġà¹Ĥà¸Ķà¸¢ à¸¡à¸²à¸ģ
à¹ĥà¸Ļà¸ģà¸²à¸£ à¸ļà¸£
à¸ŀà¸£à¸£ à¸Ħà¸Ļ
à¸ļà¸ģ à¸§à¸Ļ
à¹Ĥà¸Ī à¸Ĺà¸¢
à¸ķà¸³à¸£à¸§à¸Ī à¹ģà¸«
à¸ĩà¸Ĺà¸²à¸ĩ à¸ģà¸²à¸£à¹Ģà¸¡
à¸Ńà¸²à¸Ħà¸²à¸£ à¹Ģà¸£
à¸Ĭà¸Ĭ à¸²à¸Ĭ
C T
à¸§ à¸ģà¸£à¸°à¸ķ
à¸Ńà¸¡ à¹Ģà¸¡
à¸²à¸ļ à¸²à¸ĩ
à¸Ĳà¸ļà¸²à¸¥ à¸Ĥà¸Ńà¸ĩ
à¸²à¹ģà¸¥à¸° à¸ª
à¸ĩà¸ĩà¸²à¸Ļ à¸Ļ
à¸ļ à¸¡à¸²à¹ĥà¸Ĭ
à¸Ĭ à¹Ħà¸Ķ
Ġà¹ģà¸¥à¸° à¹ĥà¸Ļà¸Ĺ
à¸Īà¸²à¸ģ à¹Ģà¸£
Ġà¸Ħ à¸Ļà¸Ħ
Ġà¹ĥà¸Ļ à¸¨
à¸£à¸²à¸Ĭ à¸ªà¸ģ
à¸Ļà¸Ń à¸²à¸ĵà¸²à¸Ī
Ġ6 3
à¸ľà¸¥à¸ĩà¸²à¸Ļ à¸Ķ
Ġà¸Ľà¸£à¸°à¹Ģà¸Ĺà¸¨ à¹Ģà¸¢à¸Ńà¸£à¸¡à¸Ļ
ur a
à¹ģà¸¢à¸ģ à¹Ģà¸Ľ
à¸¢à¸Ļà¸ª à¸§à¸Ļà¸ģ
à¹Ĥà¸® à¸¥
à¸ĩà¸ªà¸²à¸¡à¸²à¸£à¸ĸ à¹ĥà¸Ĭ
ĠSt ud
d er
à¸Ļ à¸²à¸¨
à¸Ķ à¸£à¸°à¸«à¸§
à¹ĥà¸Ļ à¸£à¸²à¸Ĭà¸ģ
à¸ķà¸£ à¸Ħà¸Ļà¸Ĺ
à¸Īà¸° à¹ģà¸ªà¸Ķà¸ĩ
à¸ĩà¸ģ à¸£à¸°à¸Ķ
Ġà¸£ à¸²à¸Ħ
à¸ļà¸ģà¸²à¸£ à¸ĸ
à¹ĥà¸Ļà¸ģà¸²à¸£ à¸Ķà¸³à¹Ģà¸Ļ
à¸¡à¸¡ à¸²à¸ª
à¸²à¹ģ à¸£
20 10
à¸Ļà¹Ĥà¸Ķà¸¢ à¸¡
ang e
à¸ĩ à¸ļà¸²à¸ĩ
à¸¥ à¸«à¸Ļ
à¹ģ à¸¢à¸°
à¹Ħ à¸Ńà¸ŀ
à¸²à¸¢ à¹Ģà¸£
à¹Ģà¸£ à¸Ļà¸ĭ
à¸ĵ à¸Ĳà¸²à¸Ļ
à¹Ģà¸ļ à¸ģ
à¸ļà¸ģà¸²à¸£ à¸Ń
à¹ĥà¸Ī à¸§
à¸Ļà¹ĥà¸Ļ à¸Ľà¸£à¸°à¹Ģà¸Ĺà¸¨
à¸ªà¸²à¸£ à¸Ļ
à¸²à¸ĩà¸ģ à¸²à¸¢à¸Ĥà¸Ńà¸ĩ
Ġà¸ķà¸³ à¸£à¸§à¸Ī
if e
Ġ à¸£à¸²à¸Ĭà¸Ńà¸²à¸ĵà¸²à¸Ī
à¸Ļ à¸Ħà¸§à¸£
à¸ķà¸£ à¸ĩà¸Ĺ
à¹Ģà¸¥ à¹Ĥà¸Ń
à¸ªà¸¡ à¸²à¸£
à¹Ģà¸ĭ à¸¡
à¸Ħà¸Ļ à¹Ģà¸¥
à¸ı à¸Ī
à¸ªà¸²à¸¡à¸²à¸£à¸ĸ à¸Ħà¸§
à¹Ĥà¸¡ à¹Ģà¸Ķà¸¥
à¸ĩà¹ĥà¸Ļ à¹Ģà¸£
à¸ĩà¹ģà¸ķ à¸ģà¸ķ
à¸Ļà¸Ĥà¸Ńà¸ĩ à¸ª
Ġà¸ļà¸Ĺ à¹Ĥà¸Ĺà¸£à¸Ĺ
Ġà¸ģà¸³à¸«à¸Ļ à¸Ķà¹ĥà¸«
à¸Ļ à¸ģà¸£à¸ĵ
à¸Ļ à¹ģà¸£à¸ģà¸Ĺ
à¸ª à¸ĩà¸ª
à¸ļ à¸£à¸°à¸Ķ
Ġà¸ª à¸§à¸Ļ
à¸ĩà¸ģà¸²à¸£ à¹ģà¸Ĥ
à¸ĩà¸ªà¸ĸ à¸²à¸ļ
à¸ģà¸£ à¸§à¸¢
à¸²à¸Ĥ à¸²à¸Ķ
à¹ĥà¸Ļà¸ģà¸²à¸£ à¸§
à¸Ļà¹ĥà¸Ļ à¸ļà¸£
ic t
ing s
à¸ģà¸ŀ à¸²à¸ķ
à¸ĩà¸¨ à¸²à¸¥
à¹Ĥà¸Ńà¸£à¸ª à¸²à¸ĺ
à¸ªà¸ł à¸ĵ
à¸Ľà¸°à¸Ĺ à¸°à¸ģ
à¸Ļ à¹Ħà¸ĭ
à¸ģ à¸Ĥà¸Ńà¸ĩà¸ª
à¸¡à¸²à¸ģ à¸£
à¸«à¸²à¸£ à¸ŀà¸£à¸£à¸Ħ
à¹Ģà¸Ĥà¸² à¹Ģà¸Ĥ
à¸²à¸ł à¸²
Ġà¸ªà¸ĸ à¸²à¸Ľ
à¸ªà¸§à¸Ļ à¸ª
à¸Ħ à¸²à¹Ĥà¸ģ
à¹Ĥ à¸«à¸Ļ
à¸²à¸ª à¸Ĺ
Ġà¹ĥà¸Ļ à¸£à¸°à¸¢à¸°
à¸Ńà¸Ķ à¸Ķà¸³
à¸Ļà¸¡ à¸£à¸Ķà¸ģà¹Ĥà¸¥à¸ģ
à¸Ļà¸ĺ à¸ª
à¹Ģà¸ļ à¹Ģà¸Ļ
à¸Ńà¸ĩà¸ª à¸ĩà¸ª
à¹Ģà¸§à¸ĵ à¸«à¸Ļ
Ġs h
à¸ªà¸łà¸²à¸ŀ à¸ł
à¹Ģà¸§à¸Ĭ à¸¨à¸²à¸ªà¸ķà¸£
M S
à¸² à¹ĥà¸«à¸į
à¸Ī à¹ĥà¸Ļ
à¸²à¸¢ à¸ģà¸§
à¸ĺ à¸§
à¸į à¸¡à¸ĵ
à¸Ħà¸§à¸²à¸¡ à¸ŀà¸£
à¹ĥà¸Ļà¸ģà¸²à¸£ à¸Ĭ
Ġà¹Ģà¸Ĥ à¸²à¸ģà¸¥
à¸ªà¸¡à¸²à¸Ħà¸¡ à¸Ł
à¸ļà¹Ģà¸Ĥà¸ķà¸ģà¸²à¸£à¸Ľà¸ģà¸Ħà¸£à¸Ńà¸ĩ à¸Ĥ
u ch
Ã ¼
Ġ à¹Ĥà¸¥à¸ģ
à¸ģ à¸ŀà¸£à¸°à¸Ńà¸ĩà¸Ħ
à¸ĩ à¸Ľà¸£à¸°à¸ģà¸²à¸¨
à¸ŀ à¸ģà¸¥
à¸²à¸¢ à¹ĥà¸Ļà¸Ľ
à¸Ńà¸Ļ à¸Ľà¸£à¸°à¸§
à¸²à¸§ à¸ģà¸£
à¸Ľà¸£ à¸²à¸ģà¸£
à¸Ļà¸ĺ à¸°
à¸Ľà¸¥ à¸Ńà¸¡
à¹ģà¸£à¸ģ à¹Ģà¸£
à¸Īà¸³ à¸Ļà¸Ļ
à¸ĩà¹ĥà¸Ļ à¸«
Ġà¹Ħ à¸Ĭ
Ġà¸ªà¸Ļà¸²à¸¡ à¸ģ
à¸Ļ à¸£à¸°à¸¢à¸°à¸Ĺà¸²à¸ĩ
à¸Ķ à¸²à¸Ħ
à¸Ķ à¹Ģà¸¥à¸¢
à¸ŀ à¸Ķ
à¸Ĭ à¸²à¸ª
à¸Ĭ à¸ģà¸£à¸£à¸¡
à¸ĩà¸Ħ à¸ĩà¸£
à¸£à¸²à¸¢ à¸§
à¸Ńà¸ĩà¸ª à¸§
à¸Ľà¸£à¸°à¸Īà¸³ à¸ªà¸³à¸Ļ
ĠP art
à¸ĩà¸¢ à¸²à¸ģ
à¸Ĺà¸³à¸ĩà¸²à¸Ļ à¸ģ
Ġà¸¢à¸ģ à¸ķ
à¸Ļà¹ģà¸Ļà¸§ à¸Ħ
Â Ń
á »
à¹ ĵ
à¸ģ à¸ŀà¸ļ
à¸ģ à¹Ĥà¸¢à¸ĺ
à¸¡ à¹Ģà¸Ī
à¸§ à¹Ĩ
à¸ķ à¸ģà¸Ńà¸¢
à¸Ī à¸ªà¸¡à¸ļ
à¸Ķà¸ª à¸£à¸°
ĠW rest
à¸ķà¸³à¸£à¸§à¸Ī à¹Ģà¸Ńà¸ģ
à¹ģà¸® à¸¡
à¸Łà¸¥ à¸Ńà¹Ģà¸£à¸Ļà¸ĭ
à¸²à¸ĩà¸Ħà¸§à¸²à¸¡ à¹Ģà¸ª
à¸Ń à¹Ģà¸ªà¸£
à¸²à¸Ļ à¹Ģà¸Ĺ
à¹ģà¸¥à¸° à¹ģà¸¡
à¹Ģà¸¡ à¸ķà¸ķ
à¹Ģà¸Ĥ à¸²à¸Ī
ec h
à¹Ģà¸ķ à¸Ļ
à¸¢à¸° à¸«
à¸ļà¸Ń à¸²à¸Ĭ
ro und
Ġà¸Ħà¸§à¸²à¸¡ à¸ªà¸²à¸¡à¸²à¸£à¸ĸ
à¸ĩà¸ªà¸Ńà¸ĩ à¹Ħà¸Ķ
à¸Ĺà¸³à¸Ļ à¸Ńà¸ĩ
à¸Ńà¸ģ à¸Ĭ
en a
à¸²à¸Īà¸° à¹ĥà¸Ĭ
à¸Ļà¸²à¸¢ à¸Ĺà¸«à¸²à¸£
à¸ļà¸²à¸¢ à¸ĸ
Ġà¸Ľà¸£ à¸²à¹Ĥà¸¡
à¸Īà¸ŀà¸£à¸°à¸ļà¸£à¸¡ à¹Ĥà¸Ńà¸£à¸ªà¸²à¸ĺ
à¸³à¸Ļà¸§à¸¢ à¸Ħà¸§à¸²à¸¡à¸ªà¸°à¸Ķà¸§à¸ģ
à¸Ħ à¹Ģà¸Ħ
à¸Ľ à¸²
à¸ŀ à¸ļà¸ļ
à¸Ĭ à¸§à¸¥
à¸ģà¸²à¸£ à¸Ľà¸£à¸°à¹Ģà¸¡
ec hn
à¸Ļà¹ģà¸¥à¸° à¹Ģà¸Ľ
à¸Ļà¹Ĥ à¸®
à¸Ļà¸§à¸ĩ à¸ģà¸¥à¸¡
à¹Ĥà¸Īà¸£ à¸ªà¸¥
à¸Ĺ à¸°à¸¥
à¹Ĥ à¸Ħà¸§
à¹ĥà¸Ļ à¸Ľà¸£
à¸²à¸ģ à¸£à¸°à¸Ķ
à¹Ħà¸Ľ à¹Ģà¸¥
à¸²à¸Ķ à¸°
à¸²à¸Ķ à¸³à¸£à¸ĩ
à¸¢à¸§ à¸Ī
Ġà¸ŀà¸£à¸° à¸ĺ
Ġ6 8
à¸ĩà¸Ķ à¸²à¸§
à¸Ķà¸¥ à¸ŀà¸ļ
Ġà¹Ģà¸§ à¸Ĭà¸Ĭà¸²à¸Ĭ
à¸ģà¸Ńà¸ĩ à¸ŀà¸¥
à¸Ńà¸¡à¹Ĥ à¸¢à¸ĩà¸ģ
à¸ģ à¹Ģà¸«
à¸ģ à¸¤à¸©
à¸Ļà¸¡ à¸²à¸Ĺ
à¸¡à¸« à¸²à¸ģ
ĠâĢ ĭ
à¸łà¸²à¸©à¸² à¹Ģà¸¢à¸Ńà¸£à¸¡
à¸ģà¸²à¸¢ à¹Ĥà¸£à¸¡
Ġ197 1
Ġ197 6
à¸¥à¸²à¸Ńà¸Ńà¸ģà¸Īà¸²à¸ģ à¸ķà¸³à¹ģà¸«à¸Ļ
Ġ à¹Ģà¸Ńà¸£
à¸² à¹Ģà¸«
à¸ļ à¸Ļà¸Ĺ
à¸Ńà¸ĩ à¹ģà¸£
à¹Ģà¸§ à¸Ł
Ġà¹Ĥ à¸¢à¸Ĭ
à¸¥à¸° à¹Ģà¸¥
à¸Ļà¸ģà¸²à¸£ à¹Ĥà¸Ķà¸¢
à¸ĩà¹ĥà¸Ļ à¸ªà¸¡
à¸ĩà¸£ à¸Ńà¸ĩ
à¸²à¸Īà¸° à¹Ģà¸ģ
à¸ĩà¸ģà¸£à¸° à¸Ļ
à¸¢à¸ĵ à¸Ńà¸²à¸¢
S c
b it
Ĩ Ĵ
à¹ Ķ
à¸¡ à¸¥à¸²à¸¢
à¸§ à¹Ģà¸Ń
à¸Īà¸° à¸ľ
à¸Ńà¸ª à¸ĩà¸Ħà¸£à¸²à¸¡
à¸£à¸°à¸ļà¸ļ à¸Ľà¸£à¸°à¸ªà¸²à¸Ĺ
à¹Ħà¸Ń à¹Ģà¸Ń
à¸ĩà¸«à¸²à¸£ à¸«à¸¡
à¹Ĥà¸ł à¸Ĭà¸Ļ
Ġà¸ķà¸²à¸£ à¸²à¸ĩ
Ġà¹Ģà¸¨à¸£à¸©à¸Ĳ à¸ģ
E N
à¸¢ à¸²à¸ļà¸²à¸¥
à¹Ħ à¸ļà¸£à¸Ń
à¸ĵ à¹ģà¸¡
à¸¢à¸Ļ à¹ģà¸«
à¸Ļà¸¢ à¸²à¸Ļ
à¹Ģà¸§à¸¥ à¸²à¸ª
Ġ6 2
Ġ6 6
Ġà¹Ħ à¸ļà¸£à¸Ń
Ġf l
Ġ196 4
à¸Ľà¸£à¸°à¸Ī à¸§
à¸Ļ à¸£à¸²à¸Ĭà¸Ńà¸²à¸ĵà¸²à¸Ī
à¸ļ à¹ģà¸ª
à¸Ľ à¸²à¸Ļ
Ġà¹ģà¸¥à¸° à¹Ĥà¸£à¸ĩà¹Ģà¸£
à¸ĩà¸Ħ à¸¡à¸ª
Ġ6 7
à¸Ńà¸Ľ à¸²à¸ģ
à¸ģà¸ģ à¸°
à¸¬ à¸²à¸Ł
à¸§à¸²à¸ĩ à¸Ĥà¸²à¸¢
à¸¥à¸Ľà¸° à¸ģà¸²à¸£à¸ķ
Ġà¸£à¸²à¸¢ à¸ĩà¸²à¸Ļ
u z
à¸Ķ à¸ģà¸§
à¸« à¸¤à¸Ĺ
à¸²à¸ĩ à¹Ģà¸Ĺ
à¸ģà¸© à¸²à¸Ĺà¸²à¸ĩ
à¸Ĺà¸²à¸ĩ à¸ł
à¸Ļà¸Ĺà¸²à¸ĩ à¹Ģà¸Ķ
ĠP e
ur al
à¸ªà¸° à¸ģà¸Ķ
à¹ģà¸Ł à¸Ļà¸Ħà¸¥
à¸Ĺà¸§ à¸²à¸£
à¸Ńà¸Ńà¸ģà¸ĭ à¸Łà¸Ńà¸£
i us
à¸¡ à¸Īà¸°à¸ķ
à¸ļ à¸īà¸²à¸¢à¸²à¸§
à¹ĥà¸Ļ à¸£à¸²à¸Ĭà¸ªà¸³à¸Ļ
à¸ķà¸£ à¸ķ
à¸«à¸§ à¸²à¸Ķ
à¸ģà¸ĩà¸²à¸Ļ à¹Ģà¸Ĥà¸ķà¸ŀ
Ġ196 8
à¸ķà¸ĭ à¸Ńà¸¥
à¸ģà¹ģà¸ªà¸Ķ à¸ĩà¸Ĺ
- -
à¸Ń à¸łà¸²à¸ŀà¸¢à¸Ļà¸ķà¸£
à¸Ķ à¹Ģà¸ªà¸£
à¸¢à¸Ļ à¸£à¸°à¸Ķ
à¸§à¸Ļ à¹ģà¸ķ
Ġà¸Ń à¸Ńà¸Ł
à¸Ĺà¸£ à¸ªà¸²à¸Ħà¸£
à¸ĩà¹ĥà¸Ļ à¸Ľà¸£à¸°à¹Ģà¸Ĺà¸¨
à¹ĥà¸Ļà¸ª à¸ĩà¸Ħà¸£à¸²à¸¡à¹Ĥà¸¥à¸ģà¸Ħà¸£
à¸Ĳà¸ļà¸²à¸¥ à¸Ī
Ġà¸Ľà¸£à¸°à¹Ģà¸Ĺà¸¨ à¹Ģà¸ģà¸²à¸«à¸¥
Ġ248 3
y a
à¸² à¹ĥà¸Ļà¸Ĭ
à¸Ĥà¸Ńà¸ĩ à¹Ģà¸Ĭ
à¸Ńà¸ª à¸«à¸£
Ġ13 0
Ġà¹Ĥà¸Ľà¸£ à¸ķ
à¸ĩ à¹Ħà¸Ł
à¸ŀ à¸²à¸¥
à¸ģà¸²à¸£ à¸Ńà¸¢
à¸ģà¸© à¸²à¸Ľà¸£
à¸ĩà¸ª à¸£à¸£à¸Ħ
à¹ĥà¸Ļà¸ģà¸²à¸£ à¹Ģà¸£
à¸ªà¸²à¸¡à¸²à¸£à¸ĸ à¸¡
à¹Ģà¸ĺà¸Ń à¹Ħà¸¡
à¸£à¸°à¸ļ à¸²à¸¢
20 11
à¸ĩà¹Ģà¸Ĺ à¸£à¸²
à¸ĩ à¸ĺ
à¸¢ à¹Ģà¸ĭ
à¸ļ à¸Ĭà¸¡
à¸Ī à¸Ļà¸¡
à¹ĥà¸Ļ à¹Ģà¸Ī
à¸ŀà¸£à¸° à¸ļà¸²à¸ĩ
à¸¡à¸« à¸²à¸Ĭ
à¸²à¸ģà¸²à¸£ à¸£
à¹Ģà¸ŀà¸¥à¸ĩ à¸®
à¸Ļà¸³ à¸ģà¸¥
à¸Ńà¸ĩà¸£ à¸Ńà¸¢
à¹ģà¸ªà¸Ķ à¸ĩà¸ģ
à¸ĩà¹Ģà¸ģà¸ķ à¹Ħà¸Ķ
à¸¡à¸§à¸¥ à¸Ĭà¸Ļ
à¸Ļ à¹Ĥà¸Ń
à¸Ľ à¸ľ
à¸²à¸¡ à¸£
à¸²à¸¡ à¸²à¸Ĺ
à¹ģà¸¥à¸° à¸Ĺà¸³à¹ĥà¸«
à¸Īà¸²à¸ģ à¸¡
à¸¢à¸Ļ à¸²à¸Ĺ
à¸ªà¸¡ à¸²à¸ĺ
à¸²à¸ķ à¸²
à¸Ńà¸Ńà¸ģ à¸Ļà¸Ńà¸ģ
à¸ļà¸Ĺ à¸§
à¸Ĺà¸£à¸ĩ à¸Ń
Ġà¸ŀà¸£à¸°à¸ļà¸£à¸¡à¸£à¸²à¸Ĭ à¸Ĭà¸Ļà¸Ļ
à¸ĩà¸ªà¸ĸ à¸²à¸Ļà¸Ĺ
à¸ĩ à¸£à¸²à¸¢
à¸¢ à¸²à¸£
à¸Ĺ à¸¨à¸§à¸£à¸£à¸©à¸Ĺ
à¹Ħ à¸Ńà¸§
à¸Ĭà¸Ļ à¸Ĭà¸²à¸ķ
à¸Ĺà¸ĺ à¹Ģà¸¥
à¸¡à¸²à¸ģ à¸¢
Ġ7 7
à¸Ħà¸ĵà¸° à¹ģà¸ŀà¸Ĺà¸¢à¸¨à¸²à¸ªà¸ķà¸£
à¸ļà¸Ń à¸²à¸«à¸²à¸£
à¹Ĥà¸Ĭ à¸ĭ
. /
à¸Ļ à¸ģà¸£à¸°à¸Ķ
à¸ĩ à¸Īà¸³à¸Ļà¸§à¸Ļ
à¸¢ à¹Ĥà¸¥à¸ģ
à¸²à¸¢ à¹ĥà¸Ī
à¸Ńà¸Ļ à¹Ģà¸Ĭ
à¸į à¸Ĥ
à¸į à¸Īà¸£
à¸Ļà¸ģà¸²à¸£ à¸¢
à¸Ľà¸£à¸°à¸ģà¸§ à¸Ķà¸¡
ens is
k a
o ver
à¸ĩ à¸łà¸²à¸¢à¸«à¸¥
à¸§ à¸Īà¸°à¸¡
à¸Ĭ à¹Ģà¸Ľ
à¸Ńà¸Ļ à¹Ģà¸Ĺ
à¹Ģà¸£ à¸ģ
à¸§à¸£ à¸ĸ
ĠB ro
à¸Īà¸²à¸ģà¸ģà¸²à¸£ à¸£
ĠY ear
à¸¢ à¹Ģà¸¥
à¹ģ à¸§à¸ģ
à¸²à¸£ à¸²à¸ĩà¸§
à¹Ħà¸Ľ à¹Ģà¸¡
à¸§à¸¢ à¸Ĺà¸«à¸²à¸£
à¸Ļà¸ª à¹Ĥà¸¡à¸ªà¸£
à¸Ĺà¸³ à¸Ń
à¹Ģà¸ĭ à¸ģ
à¸įà¸į à¸²à¸Ķ
à¸Ńà¹Ģà¸Ľ à¸£
à¹Ģà¸ģà¸²à¸° à¸Ń
à¸Ńà¸ªà¸²à¸¢ à¸¡à¸²à¸Īà¸²à¸ģ
à¹Ħà¸ŀ à¸¨à¸²à¸¥
oy al
à¸²à¸łà¸²à¸¢ à¸«à¸¥
à¸Ļ à¹ĥà¸ģà¸¥
à¸Ńà¸ģ à¹Ĥà¸¥à¸ģ
Ġà¸ģ à¸²à¸¥
à¸¨à¸²à¸ªà¸ķà¸£ à¸ļ
ĠA ir
à¸ģà¸Ĥà¸Ńà¸ĩ à¸Ĺ
à¹Ģà¸Ħà¸¢ à¹ĥà¸Ĭ
Ġà¸Ľà¸£à¸°à¹Ģà¸Ĺà¸¨ à¸Ĺ
à¸ģà¸©à¸£ à¸Ĺ
à¹Ģà¸ŀà¸¨ à¹Ģà¸¡
Ġ197 7
à¸ļà¸ļà¸Ĺ à¸ļà¸²à¸Ĺ
à¸ģà¸£à¸°à¹ģà¸ª à¸Ļ
à¹Ģà¸Łà¸£ à¹Ģà¸Ķà¸Ńà¸£
à¸Ļ à¹Ģà¸«à¸¢
à¸ģ à¸²à¸ĩà¹Ģà¸Ĥ
à¹ģà¸¥à¸° à¹Ģà¸Ĭ
à¹Ĥà¸Ķà¸¢ à¸Ī
à¸ģà¸Ķ à¸²à¸«à¸²à¸£
à¸¡à¸Ľ à¸Ĺà¸²à¸Ļ
ĠM ic
à¹ĥà¸Ļà¸ª à¸Ļà¸ĺ
à¸Ĥà¸Ńà¸ĩà¸Ĺ à¸§
à¸²à¹ĥà¸Ī à¸ģ
à¹ģà¸Ķ à¸ĩà¸Ĺ
à¸ķà¸Ńà¸ļà¸ªà¸Ļ à¸Ńà¸ĩà¸ķ
Ġ li
à¸Ń à¸ļà¸£à¸£à¸Ĺ
à¸§ à¸Ľà¸£à¸°à¸ģà¸Ńà¸ļ
à¸²à¸ĩ à¸¥à¸°à¹Ģà¸Ń
à¸Ńà¸Ļ à¸ģà¸²à¸£
à¸²à¸ķ à¸³à¹ģà¸«à¸Ļ
à¸Ńà¸¥ à¹Ģà¸¥
à¸Ĺà¸ĺ à¸²
à¸ļà¸ģà¸²à¸£ à¸ªà¸£
à¸Ļà¹ĥà¸Ļ à¸Ķ
Ġà¸Ĥ à¸ļà¸§à¸Ļ
à¸²à¸Ľà¸£à¸° à¸¢
à¸£à¸°à¸Ļ à¸²à¸ļ
g en
à¸Ļ à¹Ģà¸§à¸Ĺ
à¸¡ à¸Ķà¸³à¹Ģà¸Ļ
à¸§ à¹Ħà¸«à¸¥
à¹ĥà¸Ļ à¹ģà¸ļà¸ļ
à¹ģà¸¥à¸° à¸ł
à¸µà¹ī ,
à¸²à¸Ķ à¸²à¸£
à¸ģà¸£à¸° à¸Ļ
à¸ļà¸ģà¸²à¸£ à¸Ĥ
à¸ŀà¸£ à¸²à¸Ļ
Ġà¹Ģà¸Ĥ à¸²à¹Ģà¸Ĥ
à¸Ļà¹Ģà¸Ķ à¸Ńà¸°
à¸Ħà¸ĵà¸° à¸Ĺ
à¸Ħà¸ĵà¸° à¸¨
à¸Ńà¸²à¸Ī à¸ĸ
à¸£à¸²à¸¢à¸ģà¸²à¸£ à¸Ļ
" (
A c
Ġ ti
à¸ļ à¹ģà¸£à¸ĩ
à¸Ħà¸£ à¹Ģà¸Ĥ
à¹Ģà¸¡ à¸Ī
à¸§à¸¢ à¸¥à¸Ķ
Ġà¹ĥà¸Ļ à¸«
à¸Ļà¸ª à¹Ĥà¸¡à¸ªà¸£à¸Ł
Ġà¸ļ à¸Ńà¸£
à¸Ļà¸³ à¸£
à¸ŀà¸¢ à¸²à¸ĩà¸Ħ
à¸Ĥà¸Ļà¸²à¸Ķ à¸ģà¸¥à¸²à¸ĩ
à¸Ļà¸²à¸ĩ à¹Ģà¸ĺà¸Ń
à¸Ľà¸£à¸°à¸¡ à¸ĩ
à¹Ĥà¸Ķà¸¢à¹Ģà¸īà¸ŀà¸²à¸° à¸Ńà¸¢
à¹Ħà¸ļ à¹ģà¸ĭà¸Ļà¹Ħà¸Ĺà¸Ļ
Ġ à¸«à¸¡à¸²à¸¢à¹Ģà¸¥à¸Ĥ
à¸ĩ à¹ĥà¸Ķ
à¸Ķ à¹Ģà¸«à¸Ļ
à¸²à¸§ à¹Ĥà¸ŀ
Ġà¸Ĭ à¸¡
à¸Ļà¹ĥà¸Ļ à¸Ĳà¸²à¸Ļà¸°
à¸ªà¸²à¸¡à¸²à¸£à¸ĸ à¸ĸ
à¸«à¸¥à¸²à¸¢ à¸§
à¸ĩà¸Ĥà¸Ńà¸ĩ à¸ª
à¸¢à¸ļ à¹Ģà¸ªà¸¡
à¸ļà¸Ħà¸§à¸²à¸¡ à¸¥
à¸ĩà¸Īà¸° à¸Ĺà¸³à¹ĥà¸«
à¸īà¸²à¸ģ à¸Ĺ
à¸£ à¸ģà¸£à¸£à¸¡
à¸ģ à¹ĥà¸«à¸į
à¸ķ à¹ģà¸ļà¸ļ
à¸ª à¸ªà¸Ļ
à¸Ħ à¹Ģà¸ģ
à¹ĥà¸Ļ à¹Ģà¸ŀà¸¥à¸ĩ
à¸²à¸ĩ à¸Ľà¸£à¸°à¸¡à¸²à¸ĵ
à¸Ńà¸Ļ à¸ģà¸³à¸¥
à¸Īà¸° à¸Ĺà¸£à¸ĩ
à¸ģà¸ª à¸²à¸ģà¸¥
à¸Ľà¸£à¸°à¸ģà¸Ńà¸ļ à¸ģà¸²à¸£
à¸¥à¸Ķ à¸Ńà¸£
ĠB o
à¸§à¹Ħà¸Ľ à¸¡
à¸£à¸Ńà¸ļ à¹ģà¸£à¸ģ
à¸«à¸¢ à¸§à¸Ļ
à¸īà¸° à¹Ģà¸Ĭ
Ġ z
à¸§ à¹ģà¸ļà¸ļ
à¸¨ à¸«à¸¥
Ġà¸ķ à¸¥à¸²à¸Ķ
à¸ªà¸²à¸¡à¸²à¸£à¸ĸ à¸Ĺà¸³à¹ĥà¸«
à¸ĩà¹ĥà¸Ļ à¸ķ
à¸ĩà¹ĥà¸Ļ à¸ŀ
le t
Ġ197 3
og rap
à¸Ħà¸²à¸Ķ à¸ģà¸²à¸£à¸ĵ
Ġà¹Ģà¸ī à¸ŀà¸²à¸°
à¸ŀà¸£à¸°à¸ļà¸£à¸¡ à¸§à¸ĩà¸¨à¸²à¸Ļ
à¹ģà¸ĸà¸¥à¸ĩ à¸ģà¸²à¸£à¸ĵ
à¸Ļ à¸Ħà¸§à¸²à¸¡à¸ª
à¸Ń à¹ģ
Ġà¹ģà¸¥à¸° à¹ģà¸ķ
à¸Īà¸²à¸ģ à¸ģà¸£
à¹Ģà¸Ĥ à¸²à¸ŀ
Ġà¸Ħ à¸³à¸Ļ
à¸łà¸²à¸ŀ à¸Ķ
à¹ĥà¸Ļà¸ģà¸²à¸£ à¸Ľà¸£à¸°à¸Ĭ
Ġà¸Ĥà¸Ńà¸ĩ à¸Ħ
à¸Ħà¸ĵà¸° à¸ľ
à¹Ģà¸ģà¸²à¸° à¸Ļ
à¸Ļà¸Ħà¸§à¸²à¸¡ à¸ľ
à¸¡à¸§à¸¢ à¹Ħà¸Ĺà¸¢
à¸Ħ à¸Ńà¸Ł
à¸Ńà¸Ķ à¸Ļ
à¸Ĺà¸²à¸ĩ à¸ģ
à¸¥à¸° à¸§
à¸Ļà¹ģ à¸Ķà¸ĩ
Ġà¸Ĥà¸Ńà¸ĩ à¸Ľà¸£à¸°à¹Ģà¸Ĺà¸¨à¹Ħà¸Ĺà¸¢
à¸£à¸°à¸ļà¸ļ à¸Ľà¸ı
à¸ªà¸Ńà¸ĩ à¸Ĥ
à¹Ĥà¸Ĺà¸£ à¹Ģà¸¥à¸Ĥ
à¸Ļà¸¨ à¸²à¸¥
à¸ĩà¹ĥà¸Ī à¸Ĺ
cl ude
à¸ķà¸£à¸° à¸«à¸Ļ
S O
Ġ as
Ġ à¹ĥà¸Ħà¸£
à¸° à¹Ģà¸ģ
à¸Ī à¸³à¸Ļà¸§à¸Ļà¸Ĺ
à¸Ńà¸ĩ à¸Ĥà¸§
à¸į à¹Ģà¸£
Ġà¹ģà¸¥à¸° à¹ĥà¸Ļà¹Ģà¸Ķ
à¸Īà¸° à¹Ģà¸ª
à¹Ģà¸Ī à¸Ń
à¸Ķà¸Ļ à¸²à¸ĩ
à¸ªà¸ķ à¸²à¸Ł
Ġà¸Īà¸²à¸ģ à¸ģà¸²à¸£à¸Ī
à¸Ľà¸£à¸°à¸Īà¸³ à¸Ĺ
Ġ17 0
à¸§à¸²à¸£ à¸ªà¸²à¸£
à¸Ķà¹ģà¸Ľà¸¥à¸ĩ à¹Ģà¸Ľ
à¸§à¸ķà¸£ à¸Ńà¸Ļ
ubl ic
à¸¬à¸²à¹Ĥà¸¥à¸ģ à¸¡à¸«à¸²à¸£à¸²à¸Ĭ
Ġ à¸«à¸¡à¸²à¸¢à¸Ħà¸§à¸²à¸¡à¸§
à¸£ à¸§à¸ĩà¸¨
à¸Ńà¸ĩ à¸Īà¸²à¸ģà¸Ļ
à¸²à¸Ļ à¹ĥà¸ķ
Ġà¸ģà¸²à¸£ à¸¢
à¸Īà¸ŀà¸£à¸° à¸ļà¸£à¸¡à¸£à¸²à¸Ĭ
à¸ķà¸ļà¸Ńà¸¥ à¹ģà¸«
ĠF ran
à¸¢à¸Ĥà¸Ńà¸ĩ à¸ŀà¸£à¸°à¸Ńà¸ĩà¸Ħ
à¹ĥà¸Ļà¸Ĳà¸²à¸Ļà¸° à¸Ĺ
à¸Ļà¸²à¸ĸ à¸§
à¸¥à¸ĩà¸Ĺ à¸°à¹Ģà¸ļ
Ġ246 0
à¸Ļà¸ķà¸°à¸Ľà¸²à¸Ľ à¸²
o f
s u
à¸§ à¸ģà¸£
à¸Ķ à¸Ĳà¸²à¸Ļ
à¸Ĺ à¸Ķà¸¥à¸Ńà¸ĩ
à¸Ľ à¸§à¸ĩ
à¸Ńà¸ĩ à¸Ńà¸ģ
à¸²à¸Ļ à¹ģà¸«
à¸ķà¸£ à¸²à¸¢à¸ģà¸²à¸£
à¸£à¸²à¸Ĭ à¸²à¸ł
Ġà¹Ĥà¸Ķà¸¢ à¹Ģà¸¥
à¸ĩà¸Ĺ à¸Ńà¸ĩ
à¸Ļà¸Ń à¸²à¸ģà¸²à¸¨
à¹Ĥà¸£ à¹Ģà¸Ľ
à¸Ļà¸Ħ à¸ĩà¹ģà¸«
ĠA ng
à¸Ńà¸Ĥà¸Ńà¸ĩ à¹Ģà¸Ĥà¸²
ĠD r
ĠD es
à¸²à¹Ģà¸Ī à¸¡à¸ª
à¸Ńà¸Ħà¸§à¸²à¸¡ à¸Ĺ
Ġà¸ŀà¸£à¸°à¸£à¸²à¸Ĭ à¸ĺ
à¸£à¸² à¹Ģà¸Ńà¸¡
Ġà¹ģà¸ľ à¸Ļà¸ģ
à¸¢ à¸§à¸Ļà¸³
à¸Ķ à¹ģà¸Ĺà¸Ļ
à¹ģà¸£à¸ģ à¸Ħ
Ġà¸Ĥà¸Ńà¸ĩ à¸ŀ
à¸Ļà¸Ĺà¸²à¸ĩ à¸ľ
ap an
à¹ģà¸Ľà¸¥ à¹Ģà¸Ľ
Ġà¸ģà¸£à¸¡ à¸ŀà¸£à¸°
à¸ķ à¹Ģà¸ŀà¸¥à¸ĩ
à¸²à¸Ļ à¸ĺ
à¸ĸ à¸ģà¹Ģà¸ĸ
à¸Ńà¸¢ à¹Ħà¸Ľ
à¸§à¸ĩ à¸ļ
à¸Ĺà¸¢ à¸²à¸Ĺ
Ġà¹ģ à¸£à¸¡
à¸ģà¸©à¸ĵà¸° à¸ķ
as on
à¹Ħà¸Ĺ à¸Ķ
à¸ļà¸Ńà¸Ļà¹Ħà¸Ķ à¸Ńà¸Ńà¸ģà¹Ħà¸ĭà¸Ķ
Ġ æ
à¸² à¹Ģà¸Ĺà¸¨
à¸§ à¹Ģà¸Īà¸Ńà¸£
à¸Ķ à¸ģà¸³à¹Ģà¸Ļ
à¸ŀ à¸ļà¸Ĺ
à¸ŀà¸£à¸° à¸Īà¸Ńà¸¡à¹Ģà¸ģà¸¥
à¸§à¸¢ à¸²à¸§
à¸Ńà¸Ķ à¸Ńà¸Ńà¸ģ
à¸²à¸ļ à¸²à¸§
à¸¡à¸¡ à¸Ńà¸ĩà¸Ĥà¸Ńà¸ĩ
à¸²à¸Ľà¸£à¸° à¹Ģà¸łà¸Ĺ
à¸¢à¸Ńà¸Ķ à¸Īà¸³à¸«à¸Ļ
à¸Ķà¸²à¸Ĥà¸Ńà¸ĩ à¸ŀà¸£à¸°à¸Ńà¸ĩà¸Ħ
à¸Ľà¸£à¸¡ à¸²à¸ł
à¹Ħ à¸ŀà¸ļ
à¸Ńà¸Ļ à¹ĥà¸Ī
à¸²à¸Ī à¸²à¸£
à¸Ļà¸ķ à¸²à¸¢
à¸¢à¸ĩ à¸«
Ġ5 9
à¸łà¸²à¸¢ à¹ĥà¸Ļà¸Ľ
à¸Ħà¸³ à¸Ľà¸£
à¸Ļà¸Ħà¸£ à¸Ļ
à¸£à¸Ńà¸ļ à¸ķ
ĠW e
Ġà¸Ĭà¸²à¸§ à¸Ń
à¹Ħà¸Ńà¸Ń à¸Ńà¸Ļ
à¸¡ à¹Ħà¸§
à¹ĥà¸Ļ à¸Ħà¸ĵà¸°à¸ģà¸£à¸£à¸¡à¸ģà¸²à¸£
Ġà¹ģà¸¥à¸° à¸Ńà¸ĩà¸Ħ
à¸²à¸§ à¹Ģà¸Ĥ
à¸²à¸° à¸ģ
à¸²à¸ļ à¸²à¸ĩà¸ª
à¸ļà¸Ĺ à¸ģà¸§
à¸įà¸į à¸²à¹Ģà¸Ľ
le d
Ġà¹Ģà¸ŀà¸£à¸²à¸° à¹Ħà¸¡
à¹Ģà¸§à¸¥à¸²à¸ģà¸¥ à¸²à¸ĩà¸Ħ
à¸³ à¹ģà¸¡
à¸ģà¸£ à¸łà¸ŀ
à¹Ģà¸ļ à¸¥à¸ª
à¸«à¸²à¸£ à¸Ļ
er g
à¹Į) ,
à¹Ģà¸Īà¸£ à¸Īà¸²à¸ģ
Ġà¸ªà¸²à¸Ĥ à¸²à¸Ļ
à¸Ļ à¹Ħà¸Ł
à¸ĩ à¸ªà¸¡à¹Ģà¸Ķ
à¸§ à¹ģà¸¥
à¸Ķ à¹ģà¸Ī
à¸§à¸¢ à¹Ģà¸ĩ
Ġà¸Ń à¸§à¸Ńà¸£
à¹Ĥà¸ĭ à¸Ł
à¸ªà¸²à¸§ à¹Ĩ
à¸Ńà¸²à¸į à¸²
Ġ à¸£à¸°à¹Ģà¸ļ
à¸Ń à¸²à¸ĭ
à¹Ħ à¸ļà¸ķ
à¸§à¸¢ à¹Ħà¸Ķ
à¸²à¸Ĺ à¸²à¸¢
à¹Ģà¸Ĥà¸ķ à¸Ĺ
à¸¥à¸°à¸Ħà¸£ à¸Ĺ
à¸«à¸¢ à¸²à¸ļ
20 13
à¸Ļà¸ķà¸£ à¸²à¸¢à¸ķ
à¸ģà¸ŀ à¸²à¸ģà¸¢
Ġà¸ķà¸³à¸ļà¸¥ à¸Ĺ
à¸ģà¸° à¹Ĥà¸«à¸¥
T S
à¸¡ à¹Ģà¸ĩ
à¸ŀ à¸²à¸ģ
à¸Ńà¸ĩ à¸ŀà¸¥
à¹ĥà¸Ļ à¸Ńà¹Ģà¸¡à¸£
à¹Ĥà¸Ķà¸¢ à¹ĥà¸«
à¸ªà¸¡ à¸ģà¸²à¸£
à¸Ńà¸ļ à¸ķ
à¸«à¸¡ à¸²à¸¢à¸Ļ
à¸Ļà¸ĺ à¸Ļ
Ġà¹Ģà¸Ĥ à¸²à¸£
à¸ĩà¹ĥà¸Ļ à¹Ģà¸¡
ĠD o
à¸Ń à¸ģà¸²à¸£à¸Ĺ
à¸ģ à¹ģà¸Ĺ
à¸²à¸ª à¸§
ĠA nd
à¸£à¸°à¸¢à¸° à¸¢à¸²à¸§
à¸ģà¸Ĥ à¸²à¸Ķ
à¹ģà¸¢à¸ģ à¹ģà¸¢à¸°
um b
à¸Ĥà¸²à¸¢ à¹Ħà¸Ķ
à¸Īà¸ģà¸£à¸£à¸¡ à¸Ĺ
à¸² à¹Ģà¸ĺ
à¸² à¹ĥà¸ª
à¸ģ à¸ªà¸³à¸«à¸£
à¸ķ à¸Ħà¸£à¸Ńà¸ļà¸Ħà¸£
à¸Ĥà¸Ńà¸ĩ à¸ŀà¸£à¸£à¸Ħ
à¸Ħà¸£ à¸¡à¹Ģà¸«à¸ª
Ġà¸ŀ à¸Ļ
à¹Ħà¸Ľ à¹ĥà¸«
à¸¢à¸Ļ à¸Ľ
à¹Ħà¸¡ à¸¥
à¸Ļà¸Ń à¸ĺ
à¸ģà¸¥à¸²à¸ĩ à¸Ľ
à¸Ľà¸¥à¸²à¸¢ à¹Ģà¸Ķ
20 14
à¸£ à¸²à¸¨
à¸ĩ à¸²à¸§à¸°
à¸Ķ à¹Ĥà¸Ĺà¸©
à¸Ĥà¸Ńà¸ĩ à¸ªà¸ĸà¸²à¸Ļ
à¸ļà¸ģà¸²à¸£ à¸Ľà¸ı
à¸²à¸Ľ à¸²à¸ģ
Ġà¸¢ à¸²à¸Ļ
à¸ļà¸Ħà¸§à¸²à¸¡ à¸ķ
à¸Ħà¸£à¸Ńà¸ĩ à¹Ģà¸¡
à¸Ńà¸ŀà¸£à¸° à¸§à¸ĩà¸¨
hy d
à¸²à¸ģà¸£à¸£ à¹Ħà¸ģà¸£
à¸Ľà¸£à¸²à¸¨ à¸Īà¸²à¸ģ
F C
R e
Ù Ħ
à¸£ à¸Ĭ
ti f
Ġà¹Ĥà¸Ķà¸¢ à¸ļ
à¸Ńà¸Ķ à¸Ńà¸ģ
à¸Ĭà¸Ļ à¹ģà¸Ļà¸¥
à¹Ĥà¸Ħà¸£ à¹Ģà¸Ńà¹Ģà¸Ĭ
à¸¬ à¸²à¸£
à¹Ĥà¸£à¸Ľ à¹ģà¸¥à¸°
à¸§à¹Ģà¸Ńà¸ĩ à¸§
à¸²à¸ĩà¸Ħ à¸²à¸§
à¸Ń à¸ŀà¸¥
à¸ģ à¸Ħà¸§à¸ļà¸Ħ
à¸ĩ à¹Ģà¸Ħà¸¥
à¸į à¸Ĺà¸²à¸ĩ
Ġà¸Ħ à¸Ļà¹ĥà¸Ļ
à¸¢à¸Ļ à¹Ģà¸ª
à¹Ģà¸Ń à¸Ķ
à¸łà¸²à¸Ħ à¹ģà¸£à¸ģ
or th
Ġà¹Ģà¸Ĭ à¸Ńà¸£
ĠS ystem
à¸ĩà¸ģà¸²à¸£ à¹ĥà¸Ĭ
à¸Ķà¹ĥà¸Ļ à¸Ń
Ġà¸Ł à¸²à¸£
ĠL a
Ġ194 3
à¸ģà¹Ģà¸¢à¸²à¸§à¸Ĭà¸Ļ à¸¤à¸Ķ
à¹Ģ à¸Ńà¸ļ
à¸ĩ à¹ĥà¸ķ
à¹ĥà¸Ļ à¹ģà¸ľ
ĠC D
à¸ĩà¸Ńà¸¢ à¸Ľà¸²à¸ģ
à¸¡à¸Ń à¸²à¸Ĭ
à¸ŀà¸§à¸ģ à¸Ļ
od y
à¹ĥà¸Ļà¸ķ à¸³à¸Ļà¸²à¸Ļ
Ġ248 7
à¸ĩà¹Ħ à¸«à¸¡
à¸ģ à¹Ģà¸«à¸Ļ
à¸¢ à¸²à¸Ļà¸Ĺ
à¸Ĺ à¸§à¸ĩà¸¨
à¸Ľ à¸Ħ
à¸²à¸ĩ à¹ĥà¸Ļà¸Ľ
à¸Ĥà¸Ńà¸ĩ à¸ŀà¸§à¸ģà¹Ģà¸Ĥ
à¸ģà¸¥ à¸ĩà¹Ħà¸Ľ
à¸Ĳ à¹Ģà¸Ĺ
à¸ģà¸© à¸²à¸¨à¸²à¸ªà¸ķà¸£
à¸Ĺà¸ĺ à¸¨à¸²à¸ª
à¹Ģà¸ŀà¸¥à¸ĩ à¸Ĭà¸²à¸ķ
Ġ11 0
à¸¨à¸²à¸ªà¸Ļ à¸²à¸®
à¸Ķà¹Ģà¸Ķ à¸Ńà¸£
à¸ªà¹Ĥà¸ķ à¹Ģà¸Łà¸Ńà¸£
à¹Ĥà¸¢à¸° à¸Ĭ
I D
à¸¡ à¸£à¸²à¸Ĭ
à¸¡ à¸Ħà¸¥
à¸¡ à¹Ģà¸Ľà¸Ńà¸£
à¸²à¸Ļ à¹Ģà¸«à¸Ļ
Ġà¹ģà¸¥à¸° à¸®
à¸Īà¸²à¸ģ à¸«
à¸Ļà¸Ķ à¸Ńà¸£
à¸Īà¸³ à¸ķ
in clude
à¸Ļà¹ģà¸¥à¸° à¸ķ
à¸Ńà¹Ħà¸Ľ à¹Ħà¸Ķ
ĠG e
à¸ģà¸ļ à¸²à¸¨à¸ģ
Ã ³
à¸ģ à¸Ńà¸Ĺ
à¸¡ à¸²à¸ļ
à¸Ħ à¸Ĥà¸Ńà¸ĩ
à¹ĥà¸Ļ à¸¡à¸«à¸²à¸§
à¸²à¸ĩ à¸²à¸Ļ
à¸²à¸ģ à¸İ
à¸Ńà¸¢ à¸Ńà¸¢
à¸µà¹ī )
à¸§à¸Ļ à¹Ģà¸Ĭ
à¸Ļà¸ķ à¸°
à¸¢à¸§ à¸£
à¹ģà¸¥à¸°à¸ª à¸«à¸ģà¸£à¸ĵ
Ġ247 7
... "
à¸¢à¸§à¸Ĭà¸²à¸į à¸Ķ
à¹Ģà¸Ĺà¸¨à¸ģà¸²à¸¥ à¸łà¸²à¸ŀà¸¢à¸Ļà¸ķà¸£
à¸Ļ à¸£à¸²à¸Ĭà¸§à¸ĩà¸¨
à¸Ļ à¸«à¸¡à¸²à¸¢à¸ĸ
à¸Ń à¹Ĩ
à¸Ĭ à¸²à¸¡
à¹Ģà¸ŀ à¸£à¸ª
à¸Īà¸° à¸Ń
à¸¢à¸Ļ à¸ģà¸²à¸£
Ġà¹ģ à¸£à¸ģ
à¸Ńà¸ĩà¸Īà¸²à¸ģ à¸§
à¸Ńà¸° à¸®
à¸£à¸°à¸¢à¸° à¸«à¸Ļ
à¸²à¹Ĥà¸£ à¸¥
à¸Ĥà¸Ńà¸ĩà¹Ģà¸Ĥ à¸²à¸Ĺ
à¹Ģà¸Ńà¸Łà¹Ģà¸Ń à¸Ħ
o ft
Ġ à¸Ľà¸£à¸²à¸ģà¸ıà¸ķ
à¸Ĥ à¸¡
à¸²à¸¢ à¹ĥà¸Ļà¸£
à¸Ĥà¸Ńà¸ĩ à¸Ńà¸²à¸ĵà¸²à¸Ī
à¸²à¸§ à¸²à¸£
à¸¢à¸Ļ à¸²
Ġà¹Ĥà¸Ķà¸¢ à¹Ģà¸ª
âĢ Ķ
à¸¡à¸² à¹Ģà¸Ĥ
à¸Ļà¸ŀà¸£à¸° à¸ł
ĠG roup
à¸²à¸Ľà¸£à¸°à¸ģà¸§ à¸Ķ
à¸ĩ à¹Ģà¸ĭà¸¥à¸¥
à¸Ķ à¸£à¸°à¸§
à¹ģ à¸§à¸Ķ
à¸Ĭ à¸²à¸Ĥà¸Ńà¸ĩ
à¸Ńà¸Ļ à¹Ģà¸Ļ
à¹Ģà¸Ĥ à¸²à¸Ńà¸¢
Ġà¹ģ à¸Łà¸£
à¸ªà¸²à¸¡à¸²à¸£à¸ĸ à¸«
à¸ĩà¸Ń à¸²à¸Ħà¸²à¸£
à¸²à¹Ĥ à¸®
ro ss
à¸ªà¸²à¸¡ à¸ª
à¸§à¸²à¸ª à¸£à¸²à¸Ĭ
p ort
à¸Ħ à¹Ģà¸£
à¸²à¸Ļ à¸Ķà¸Ļà¸ķà¸£
à¸ŀà¸£à¸° à¹Ħà¸ķà¸£à¸Ľ
à¹Ģà¸¡ à¸ĭ
Ġà¸Ĺ à¸Ńà¸¡
Ġà¸£ à¸«
à¸ģà¸²à¸£à¸ª à¸³à¸Ļ
à¹Ĥà¸Ī à¹Ģà¸ĭà¸Ł
à¹Ĥà¸Ľ à¹Ģà¸¥
à¸²à¸ģà¸²à¸£à¸ģà¸£à¸°à¸Ĺà¸£à¸§à¸ĩ à¸¡à¸«à¸²à¸Ķà¹Ħà¸Ĺà¸¢
à¸ķà¸£à¸° à¹Ģà¸§
à¸ĩ à¸ĺà¸£à¸£à¸¡
à¸Ĭ à¸³à¸Ļà¸²à¸į
Ġà¹ģ à¸Ńà¸¡
à¹Ģà¸ĭ à¹Ģà¸§
à¸Ļà¸Ń à¸³à¸Ļà¸²à¸Ī
à¹Ĥà¸¡ à¸Ĺ
à¸ĩà¸ģà¸¥ à¸²à¹Ģà¸Ĺà¸¨
à¸²à¸ĩà¸Ľà¸£à¸°à¹Ģà¸Ĺà¸¨ à¸Ĺ
Ġà¹Ħà¸Ľ à¹Ģà¸Ľ
c ol
à¸Ń à¸łà¸²à¸ŀ
à¸¡ à¸£à¸°à¸Ķ
à¹ĥà¸Ļ à¹Ģà¸Ļ
à¹Ħà¸Ľ à¸Ĺà¸²à¸ĩà¸Ĺ
à¸²à¸ª à¸³à¸Ļ
à¸ŀà¸¥ à¸¨
à¸¢à¸ļ à¸§
à¸Ļà¸²à¸Ļ à¸«à¸¥
à¸Ļà¹Ĩ à¸Ĺ
à¸Ńà¸Ļà¸ª à¹Ģà¸ķà¸Ńà¸£
E P
à¸§ à¸Ļà¸Ĺà¸²à¸ĩ
à¸¢ à¸Ńà¸£
à¸Ĭ à¸²à¹ĥà¸Ļ
à¸Ĳ à¸Ľà¸£à¸°à¸¨à¸²à¸ªà¸Ļ
à¸ģà¸© à¸²à¹Ģà¸Ľ
à¸Ļà¸ª à¸°à¸ŀà¸²à¸Ļ
à¹Ģà¸Ħ à¸§
à¸Ļà¸ģà¸²à¸£ à¸Ľà¸ı
Ġà¸Ĥà¸Ńà¸ĩ à¸ª
al d
à¸¡à¸ķ à¸°à¸§
à¸¢à¸ļ à¸ŀà¸¥
à¸Ľà¹ģà¸ļà¸ļ à¸Ń
Ġ247 9
Ġà¹Ģà¸¥à¸Ĥ à¸Ĺ
à¸¥ à¸ĸ
à¸ļ à¹Ĥà¸Ħà¸£à¸ĩà¸ªà¸£
à¸Ħ à¸Ī
à¸Ńà¸ĩ à¹ģà¸¡
à¸ģà¸²à¸£ à¸«à¸¥
à¸²à¸ĩ à¸²à¸¡
à¸²à¸ĩ à¹Ħà¸Ľà¸Īà¸²à¸ģ
à¸²à¸Ļ à¸ģà¸²à¸£à¸£
Ġà¹ģà¸¥à¸° à¸Ľà¸¥
à¸Ł à¸Ńà¸ª
à¸ĩà¸ª à¸Ńà¸ĩà¸¡
à¸ĩà¸ª à¹Ģà¸Ľà¸Ļ
à¹ĥà¸Ļà¸ģà¸²à¸£ à¸¢
à¸ĩà¸Īà¸²à¸ģ à¸Ī
à¸ŀà¸§à¸ģ à¹Ģà¸Ĥà¸²à¸ģ
à¸Ķà¸ŀà¸£à¸° à¸¨à¸£
à¸Īà¸£à¸²à¸Ĭà¸ģà¸²à¸£ à¹ģà¸Ĺà¸Ļà¸ŀà¸£à¸°à¸Ńà¸ĩà¸Ħ
à¸²à¸Ĥà¸Ļà¸²à¸Ķ à¹ĥà¸«à¸į
I V
à¹ ĸ
à¸ģ à¸Ĭà¸Ļà¸°
à¸ĩ à¹Ħà¸Ĥ
à¸¡ à¸Ľà¸£à¸°à¹Ģà¸Ĺà¸¨
à¸Ķ à¹ģà¸ģ
à¸¤à¸© à¸Ķ
à¸Ľà¸£à¸°à¸ģà¸²à¸¨ à¸ķ
à¸Ńà¸Ĥà¸Ńà¸ĩ à¸Ľà¸£à¸°à¹Ģà¸Ĺà¸¨
à¸²à¸ĩà¸Ĺ à¸Ńà¸ĩ
à¸įà¸Ĭà¸²à¸ģà¸²à¸£à¸Ĺà¸«à¸²à¸£ à¸ª
à¸ĩà¸ķà¸°à¹Ģà¸ł à¸²
à¸Ľà¸® à¸Ńà¸Ľ
U N
à¸ģ à¸łà¸²à¸Ħ
à¸§ à¸ł
à¸ª à¹Ģà¸ģ
à¸ģà¸²à¸£ à¸ķà¸£à¸§à¸Īà¸ªà¸Ńà¸ļ
à¸Ļà¸Ĺ à¸Ļà¸²
à¹ģà¸Ĥ à¸§à¸Ļ
à¸ļà¸²à¸ĩ à¸ķ
à¹ģà¸ľ à¸Ļ
à¸Ļà¸ļ à¸Ńà¸¥
à¸Ľà¸£à¸°à¸Īà¸³ à¸Ĺà¸²à¸ĩ
à¸ªà¸²à¸¡ à¸¡
ad em
Ġd i
à¸Ļà¹ģà¸ŀ à¸Ĺà¸¢
à¸Ļ à¹ģà¸£à¸ģà¸Ĥà¸Ńà¸ĩ
à¸Ķ à¹Ģà¸Ħà¸£
à¸ļ à¸Ļà¸Ķ
à¸Ľ à¸²à¸Ļà¸ģà¸¥à¸²à¸ĩ
à¸Ī à¸ĩà¸£
à¸Ĥà¸Ńà¸ĩ à¸ªà¸ĸà¸²à¸ļ
à¸Ļà¸Ĺ à¸²
à¸²à¸§ à¹ĥà¸«
à¸ģà¸£ à¸Ńà¸¢
à¸Ħà¸§à¸²à¸¡ à¸ģà¸¥
à¸§à¸¢ à¸ģà¸²à¸£à¸ª
à¸Ńà¸¡ à¹ĥà¸ª
à¸²à¸ķ à¸Ńà¸ļ
à¸ľà¸¥ à¸Ĥà¸Ńà¸ĩ
Ġs ystem
à¸ģà¸Ľà¸£ à¸²à¸Ĭà¸į
G N
à¸ª à¸²
à¹ĥà¸Ļ à¸¥à¸³à¸Ķ
Ġà¹Ĥ à¸ļ
à¸ĩà¸ģà¸²à¸£ à¸Ī
à¸¡à¸²à¸ĵ à¸Ĺ
à¸Ĵà¸Ļ à¸²à¸£à¸°à¸ļà¸ļ
à¹ģà¸Ħ à¹Ĥà¸£
à¸ĩà¸Ħà¸§à¸²à¸¡ à¸¡
Ġ à¸ĩà¸²à¸Ļà¸§
à¸§ à¸Ńà¸Ńà¸ģ
à¸Ĥ à¸¥
à¸ĭ à¸²à¸Ń
à¸ĺ à¸²
à¸© à¸£
à¸ļà¸£ à¸§à¸¡à¸ģ
à¸ļà¸Ĺ à¸«à¸²à¸£
à¹ĥà¸Ļà¸ģà¸²à¸£ à¸ļ
à¸ģà¸ª à¸łà¸²à¸
ĠS ong
à¸ĩà¸ģà¸²à¸£ à¹Ģà¸¥
à¸Ļà¹ģà¸¥à¸° à¸£
Ġà¸Ħà¸§à¸²à¸¡ à¸§
à¸¡à¸£ à¸ª
à¸Ńà¸Ńà¸ģà¸Īà¸²à¸ģ à¸ķà¸³à¹ģà¸«à¸Ļ
Ġ194 7
200 8
tr y
iel d
T C
u ro
à¸Ļ à¹Ģà¸ªà¸£
à¸³ à¹Ģà¸Ĥ
à¸Ńà¸ģ à¹Ģà¸ģ
à¸ķà¸£ à¹Ħà¸Ķ
à¸ģà¸© à¸²à¸ľ
à¸Ļà¸ķ à¸ķ
à¸§à¸¡ à¸Ńà¸¢
ĠP rin
à¸Ķà¹ĥà¸Ļ à¸Ľà¸£à¸°à¹Ģà¸Ĺà¸¨à¹Ħà¸Ĺà¸¢
em ber
à¸¢à¸²à¸ģ à¸Ĺ
à¸Ļà¸Ħà¸³ à¸§
B O
r ad
à¸¡ à¹Ģà¸¢
à¸ķ à¸«à¸£
à¸ķ à¸Ńà¸ļà¸£
à¸ļ à¸į
à¸«à¸Ļ à¸²à¸¡
à¹Ħà¸Ľ à¸Ī
Ġà¹ģ à¸Ľ
à¸Ńà¸ĩà¸Ħ à¸Ńà¸¡à¸ŀ
à¸Ļà¸£ à¸²à¸§
à¸ģà¸³ à¹Ģà¸£
à¸łà¸²à¸© à¸²à¸ļà¸²à¸¥
à¸¬ à¸²à¸łà¸£à¸ĵ
à¹Ģà¸§à¸ĵ à¸ŀ
à¸ŀà¸§à¸ģ à¹Ģà¸ĺà¸Ń
à¹Ĥà¸£à¸Ħ à¸Ĺ
Ġà¹ Ļ
à¸Ķà¸Ĭ à¸²à¸£
ĠO ne
Ġ248 6
Ġà¸Ńà¸²à¸Ī à¹Ģà¸Ľ
oci ation
S M
à¸Ļ à¸Ńà¸§
à¸ģà¸²à¸£ à¸ģà¸³à¸ģ
à¹Ħà¸Ľ à¸«
à¸§à¸ĩ à¸Ľà¸¥à¸²à¸¢à¸Ľ
in o
à¸Ļà¸³ à¸ķ
à¸Ļà¸² à¹Ģà¸¡à¸Ļà¸ķ
à¸Ļà¹ģà¸¥à¸° à¸Ļ
à¸ªà¸ĩà¸Ħà¸£à¸²à¸¡ à¸ģà¸¥à¸²à¸ĩà¹Ģà¸¡
Ġà¸ŀà¸§à¸ģ à¸¡
Ġ196 3
ĠCh ar
à¸£à¸°à¸¢à¸°à¹Ģà¸§à¸¥ à¸²à¸Ĺ
J ohn
U n
r ist
à¸Ń à¹ģà¸£
à¸ĩ à¸Ķà¸³à¸£à¸ĩà¸ķà¸³à¹ģà¸«à¸Ļ
à¸²à¸¢ à¹Ģà¸ģ
à¸²à¸ĩ à¹Ĥà¸¥à¸ģ
à¸²à¸ĩ à¹Ĥà¸£à¸ĩà¹Ģà¸£
à¸ĭ à¸²à¸ļ
à¸«à¸Ļ à¸§à¸Ķ
Ġà¸ŀ à¸ļà¹Ħà¸Ķ
à¸Ńà¸ļ à¸Ħ
Ġà¸Ī à¸Ļà¹Ģà¸¡
à¸²à¸ģà¸²à¸£ à¸ģà¸£à¸°à¸Ĺà¸£à¸§à¸ĩà¸¨
Ġà¸Ħà¸§à¸²à¸¡ à¸ķ
Ġà¸ķà¸²à¸¡ à¸Ĭ
à¸ķà¸³à¸ļà¸¥ à¸Ĺ
à¸²à¸Ĺà¸³ à¸¥à¸²à¸¢
à¸ĩà¸Ńà¸²à¸Ī à¹Ģà¸Ľ
Ġ Ð
à¸£ à¸²à¸¥
à¸ģ à¸²à¸ļ
à¸ģ à¸ľà¸ªà¸¡
à¸Ľ à¸²à¹Ģà¸¥à¸ªà¹Ħà¸ķà¸Ļ
à¹ģà¸¥à¸° à¹Ģà¸Ļ
à¸ķà¸£ à¸²à¹Ģà¸£
à¹ĥà¸Ļà¸ģà¸²à¸£ à¸Ħà¸§à¸ļà¸Ħ
Ġà¸ģà¸²à¸£ à¸¥
ĠC enter
à¸§à¹Ħà¸Ľ à¹Ģà¸Ľ
ĠF ilm
Ġà¸Ħà¸§à¸²à¸¡ à¸Ħ
om a
à¸¡ à¸Īà¸²à¸ģà¸ģà¸²à¸£
à¹Ĥ à¸¢à¸¡
à¸²à¸ģ à¸Ĳà¸²à¸Ļ
à¹ģà¸¥à¸° à¸Ħà¸§à¸²à¸¡à¸£
à¹Ģà¸ģ à¸Ļ
à¸ĩà¹ĥà¸Ļ à¸£à¸°à¸Ķ
à¹ģà¸ļ à¸ĩà¸ģ
à¸Ķà¸ģ à¸²à¸įà¸Īà¸Ļà¸ļ
à¸Ľà¸£à¸°à¸Ĭà¸²à¸Ĭ à¸Ļà¹Ģà¸ŀ
Ġp h
Ġ194 9
à¸ļà¸£à¸£à¸Ķ à¸²à¸ľ
out h
à¸Ľà¸£à¸²à¸£ à¸ĸà¸Ļ
7 00
à¸° à¸¡à¸°
à¸ķ à¸²à¸Ļ
à¸Ĥ à¸ĩà¸Ī
à¸²à¸¢ à¹Ħà¸Ľà¸¢
à¹Ģà¸ģ à¸¢
Ġà¸Ħ à¸Ńà¸¡
Ġà¸ķ à¸°
Ġà¸ŀà¸£à¸° à¸Ļ
à¹ģà¸Ĺ à¸ļà¸Ĺ
à¸ŀà¸£à¸°à¸£à¸²à¸Ĭ à¸Ľà¸£à¸°à¸§
ĠS w
à¸ĩà¸ģà¸²à¸£ à¸Ħ
à¸Ļà¹ģà¸¥à¸° à¸Ń
à¸¡à¸²à¸ª à¸Ħ
à¸Ľà¸£à¸°à¸ĸ à¸¡
yp e
g an
Ġ $
à¸ĩ à¹Ĥà¸Ķ
à¸Ķ à¸ļà¸²à¸ĩ
à¹Ħ à¸§à¸¢à¸²à¸ģà¸£à¸ĵ
à¸Ĥà¸Ńà¸ĩ à¹Ģà¸Ļ
Ġà¹ĥà¸Ļ à¸ķà¸Ńà¸Ļ
à¸Ħà¸Ļ à¸Ľ
à¸«à¸²à¸£ à¸£à¸²à¸Ĭà¸ģà¸²à¸£
à¸¡à¸« à¸²à¸¡
Ġà¸¥ à¸²
Ġà¸Ĥ à¸Ļà¸¡
à¸Īà¸³à¸Ļà¸§à¸Ļ à¸¡à¸²à¸ģà¸Ĺ
Ġà¸Ľà¸£à¸° à¸Ĺ
à¹ģà¸£à¸ĩ à¹Ĥà¸Ļ
à¹Ģà¸ģà¸©à¸ķà¸£ à¹ģà¸¥à¸°à¸ªà¸«à¸ģà¸£à¸ĵ
Ġ196 5
à¸ĸà¸Ļ à¸Ńà¸¡
à¸ĩ à¸³
à¸Ĭ à¸²à¸Ń
à¸ĸ à¸Ńà¸Ļà¸ķ
à¸Ħà¸£ à¹Ģà¸Ľ
à¸ķà¸£ à¸Ń
à¸ĩà¸¡ à¸§à¸¥à¸Ĭà¸Ļ
à¸²à¹Ĥ à¸£à¸ģ
Ġà¸Ļà¸²à¸¢ à¹ģà¸ŀà¸Ĺà¸¢
à¸Ļà¹Ĥà¸Ķà¸¢ à¹Ħà¸¡
à¸Ĥà¸Ńà¸ĩà¸Ľà¸£à¸°à¹Ģà¸Ĺà¸¨ à¸Ń
Ġà¸ģà¸£à¸¡ à¸ŀà¸£à¸°à¸¢
à¸ľà¸¥à¸ģà¸£à¸°à¸Ĺ à¸ļà¸ķ
à¸ķà¸£à¸² à¹ģà¸ľ
enc y
à¸®à¸²à¸§ à¸²à¸¢
illi am
P l
à¸ĩ à¸Ńà¸ģ
à¸Ķ à¸£à¸°à¸Ķ
à¸Ľ à¹Ģà¸Ķ
à¸²à¸Ļ à¸Īà¸²à¸ģ
à¸Īà¸° à¸Ĺà¸³à¸ģà¸²à¸£
Ġà¸¡ à¸²à¸Ĭ
à¸Ĺà¸²à¸ĩ à¸ĺà¸£à¸£à¸¡à¸Ĭà¸²à¸ķ
er c
Ġ19 18
à¸²à¹Ģà¸Ľ à¸Ńà¸£
ar b
à¸Ħà¸³ à¸Ĥà¸§
à¸£à¸§à¸¡ à¸Ńà¸¢
ĠT ime
à¹Ĥà¸Ī à¸¡
à¸²à¸© à¸ı
ot t
Ġà¹ĥà¸Ļà¸£ à¸Ńà¸§
à¸ļà¸Ĺà¸Ńà¸Ķ à¸ķà¸³à¹ģà¸«à¸Ļ
Ġà¹ģà¸ªà¸Ķà¸ĩ à¹ĥà¸«
à¸Ļ à¸Ĥà¸Ļà¸²à¸Ķà¹ĥà¸«à¸į
à¸Ļ à¹Ģà¸Ĥà¸²à¹Ħà¸Ķ
à¸§ à¸Ķà¸³
à¸Ħ à¸Ł
à¸Ńà¸ĩ à¹Ģà¸Ľà¸¥
à¹Ĥ à¸ļà¸Ń
à¸ģà¸²à¸£ à¸ŀà¸£à¸£à¸Ħ
à¸ªà¸¡ à¸ĵà¸¨
à¸¢à¸ĩ à¹Ģà¸ª
à¸²à¸« à¸§
er y
à¸ķà¸²à¸¡ à¸ŀ
à¸Ļà¸ģà¸²à¸£ à¹Ģà¸ŀ
Ġà¹Ģà¸Ĥ à¸²à¸ŀ
à¸Ļà¸Ħà¸Ļ à¸£
à¸Ľà¸£à¸°à¸ªà¸²à¸Ĺ à¸Ĺ
à¸ģà¸£à¸°à¸ļà¸§à¸Ļ à¸ģà¸²à¸£à¸Ĺ
à¸Ļ à¸Ľà¸£à¸°à¹Ģà¸Ķ
à¸¥ à¹Ģà¸®
à¸Ĺ à¸Ķà¸ªà¸Ńà¸ļ
à¸ŀ à¹Ģà¸¢à¸Ńà¸£à¸¡
à¸Ńà¸Ļ à¸ģà¸§
à¸į à¸Ĭà¸Ļ
Ġà¹ģà¸¥à¸° à¸łà¸²à¸ŀà¸¢à¸Ļà¸ķà¸£
Ġà¹ģà¸¥à¸° à¹ĥà¸Ļà¸Ĭ
à¸¢à¸Ļ à¹Ģà¸¡
à¸Ļà¸Ĺà¸£ à¸ł
à¸Ķà¹ĥà¸Ļ à¸Ľà¸£à¸°à¹Ģà¸Ĺà¸¨
à¸³à¸£ à¸§à¸¢
à¸ĩà¸ŀà¸£à¸° à¸ļà¸£à¸¡
à¸ķà¹Ĥà¸Ķà¸¢ à¸ļà¸£
Ġà¹ģà¸£à¸ĩ à¸¡
Ġteam s
H z
à¸Ń à¹ģà¸ļ
à¸ģ à¸Ľà¸£à¸°à¹Ģà¸łà¸Ĺ
à¸ģ à¹ģà¸ĭ
Ġà¸¡ à¸°
à¸¢à¸ĩ à¹ĥà¸Ļ
à¸Ĺà¸³ à¸ģà¸²à¸£à¸ļ
à¸¢à¸§ à¸«à¸£
à¸Ńà¸ª à¹Ģà¸ķà¸Ńà¸£
à¹ĥà¸Ļà¸ģà¸²à¸£ à¸Ĺà¸³à¸ĩà¸²à¸Ļ
à¸ģà¸ª à¸Ńà¸ĩ
à¸¢à¸Ĥà¸Ńà¸ĩ à¸ŀà¸£à¸°à¹Ģà¸Ī
à¸ģà¸£à¸°à¸Īà¸²à¸¢ à¸Ńà¸¢
à¸ĩà¸Ĺà¸£à¸ĩ à¹Ģà¸Ľ
à¸ĩà¹Ģà¸ģà¸ķ à¹Ģà¸«
à¸ķà¸£à¸Ĭà¸²à¸¢ à¸Ĥà¸Ńà¸ĩ
à¹Ģà¸Īà¸²à¸° à¸Ī
A s
L e
à¸Ń à¹Ģà¸ĩ
à¸° à¸¢à¸²à¸Ļ
à¸ļ à¸ŀà¸£à¸°à¸Ńà¸ĩà¸Ħ
à¸ļ à¸Ľà¸£à¸°à¸ģà¸²à¸¨à¸Ļ
à¹ģà¸¥à¸° à¸ķà¸°à¸§
Ġà¹ĥà¸Ļ à¸£à¸°à¸ļà¸ļ
à¹ģà¸ļà¸ļ à¸ŀ
Ġà¸ģà¸²à¸£ à¸Ĥ
à¸Ļà¸ģà¸²à¸£ à¸Ľ
à¸ªà¸²à¸¡à¸²à¸£à¸ĸ à¸Ĺà¸³à¹Ħà¸Ķ
à¸Ķà¸ª à¸²à¸¡
à¸ļà¸Ħ à¸Ļà¸Ĺ
à¸Ĥà¸Ļà¸²à¸Ķ à¸Ĺ
à¸ĩà¸« à¸¢
ul ti
à¸ªà¸²à¸¢ à¸ª
à¸Ļà¸ĺà¸£à¸£à¸¡ à¸Ĭà¸²à¸ķ
Ġà¸Ħà¸ĵà¸° à¸Ļ
à¹Ģà¸ŀà¸¨ à¸Ĭà¸²à¸¢
ik e
r ay
à¸Ļ à¸£à¸°à¸¢à¸°à¹Ģà¸§à¸¥à¸²
à¸Ń à¸Ľà¸£à¸°à¸Ĭà¸²à¸ĺ
à¸ģ à¸²à¸§
à¸¡ à¸īà¸¥
Ġà¸ŀ à¸į
à¸Īà¸° à¸§
Ġà¹Ĥà¸Ķà¸¢ à¸¥
Ġà¹Ĥà¸Ķà¸¢ à¸Ĺà¸£à¸ĩ
à¸¢à¸¡ à¸Īà¸²à¸ģ
à¸Ħà¸¥ à¸Ńà¸ĩà¸ª
à¹ĥà¸Ļà¸ģà¸²à¸£ à¸Ľà¸ı
à¸Ĭà¸²à¸¢ à¹ģà¸Ķ
à¸ĩà¹ģ à¸ĭ
à¹Ĥà¸Ľà¸£ à¸ķà¸Ńà¸Ļ
à¸²à¸ĩà¸ª à¸ĩà¸Ħà¸£à¸²à¸¡à¹Ĥà¸¥à¸ģà¸Ħà¸£
20 15
à¹ģà¸Ħà¸¥ à¹Ģà¸ĭ
à¸²à¹Ħ à¸«à¸£
ĠQ u
à¸Ľà¸£à¸°à¸Īà¸§ à¸ļà¸Ħ
" ;
v el
à¸Ĺ à¸²à¸¢à¸²à¸Ĺ
à¸²à¸¢ à¹Ģà¸¥
à¹Ģà¸Ķ à¸ª
à¸¢à¸§ à¹ĥà¸Ļ
à¹ģà¸ļà¸ļ à¹ĥà¸«à¸¡
Ġà¸£à¸§à¸¡ à¸ģ
à¸£à¸°à¸¢à¸° à¹Ħà¸ģà¸¥
ter s
ot or
à¸Ļ à¸ģà¸£à¸°
à¹Ģ à¸Ļà¸Ĺ
à¸ģ à¸²à¸ķà¸°à¸§
à¸¢ à¹Ģà¸Ļ
à¸Ńà¸Ļ à¸ł
à¸²à¸Ĭ à¸²à¸¥à¸ª
Ġà¸ŀ à¸Ńà¸£
à¸Ńà¸Ķ à¸ķ
à¹ĥà¸Ļà¸ģà¸²à¸£ à¸Ľ
à¸Ĥà¸Ļà¸²à¸Ķ à¸¢
à¸Ľà¸£à¸°à¸Īà¸³ à¸Ĭà¸²à¸ķ
à¸²à¹Ħà¸Ľ à¸Ńà¸¢
Ġà¸Ħà¸§à¸²à¸¡ à¹Ģà¸£
Ġà¸Ĺà¸²à¸ĩ à¸«à¸¥à¸§à¸ĩ
Ġà¸ªà¸²à¸§ à¹Ĩ
Ġà¹ģà¸¡à¸Ļ à¹Ģà¸Ĭà¸ªà¹Ģà¸ķà¸Ńà¸£
ĠIns tit
Ġà¸Ľà¸£à¸²à¹Ĥà¸¡ à¸Ĭ
à¸ģ à¸§à¸Ļà¸Ń
à¸¥ à¸Ńà¸Ļ
à¸Ľ à¸«à¸Ļ
à¹ĥ à¸ļà¸¡
Ġà¸ŀà¸£à¸° à¸ļ
Ġà¸Ĥ à¸§
à¸Ļà¸ĭ à¸²à¸ģ
à¸£à¸ĸ à¹Ĥà¸Ķà¸¢à¸ªà¸²à¸£
à¹ģà¸Ī à¸ģ
à¸Īà¸ģà¸£à¸£à¸¡ à¸ķ
Ġà¸ŀà¸£à¸£ à¸©
unc tion
à¸£ à¸²à¹Ģà¸¡
à¸ĩ à¸Ńà¸Ńà¸ģà¸Īà¸²à¸ģ
à¸ĩ à¸Ĭà¸²à¸§à¹Ħà¸Ĺà¸¢
à¸Ķ à¸łà¸²à¸§à¸°
à¸ª à¹Ģà¸ķà¸£
à¸Ńà¸ĩ à¹ĥà¸Ļà¸§
à¸Ńà¸ĩ à¸Ļà¸Ħà¸£à¸¨à¸£
à¸Ĥ à¸§à¸²à¸ĩ
à¸²à¸Ļ à¸łà¸²à¸¥
à¹ģà¸¥à¸° à¸Ł
à¸ķà¸£ à¸Ľà¸£
à¸Ħà¸§à¸²à¸¡ à¸¥à¸°à¹Ģà¸Ń
Ġà¸ķ à¸Ńà¸Ļà¸Ļ
à¸Ĺà¸²à¸ĩ à¸£
à¸Ķà¸Ĥà¸Ńà¸ĩ à¸Ľà¸£à¸°à¹Ģà¸Ĺà¸¨
à¸²à¸ªà¸¡ à¸²à¸Ĭ
à¸ŀà¸£à¸°à¸Ĭà¸Ļà¸¡ à¸ŀà¸£à¸£à¸©à¸²
à¸ģà¸³à¹ģà¸ŀ à¸ĩà¹Ģà¸ŀà¸Ĭà¸£
ev el
à¸Ļ à¹ģà¸ªà¸Ķà¸ĩ
à¸Ļ à¸ŀà¸£à¸£à¸Ħ
à¸ģ à¸Ĺà¸³
à¸¡ à¸Ķà¸³
à¸¢ à¸ļà¸Ĺ
à¹Ĥ à¸ģà¸ķ
à¸²à¸Ļ à¹Ģà¸¨à¸£à¸©à¸Ĳà¸ģ
Ġà¹Ģà¸ŀ à¸Ńà¸£
à¸ļà¸ª à¸²à¸«
Ġà¸ŀà¸£à¸° à¸Ńà¸Ļ
Ġ6 1
à¸Ńà¸³à¸Ļà¸²à¸Ī à¸«à¸Ļ
à¹Ģà¸ŀà¸£à¸²à¸° à¹Ģà¸Ľ
Ġ193 8
Ġà¸Ĭà¸Ļà¸° à¸Ħà¸°à¹ģà¸Ļà¸Ļ
à¸¡à¸«à¸²à¸Ķ à¹Ģà¸¥
Ġà¸ģà¸£à¸°à¸Ĺà¸£à¸§à¸ĩ à¸¡à¸«à¸²à¸Ķà¹Ħà¸Ĺà¸¢
à¹ģà¸ĸà¸¥à¸ĩ à¸Ĥ
A A
o int
à¸ĩ à¹ĥà¸ģà¸¥
à¸¡ à¸²à¸«
à¸Ńà¸ĩ à¸Īà¸£à¸²à¸Īà¸£
à¹Ģà¸£ à¸ķà¸ª
à¸¥à¸ĩ à¸¡à¸²
à¸£à¸ģ à¸ķ
Ġà¸ģà¸²à¸£ à¹Ģà¸ģ
à¹Ģà¸ŀà¸¥à¸ĩ à¸¥
à¸ªà¸²à¸¡à¸²à¸£à¸ĸ à¸Ĭ
à¸Ļà¸Ħ à¸Ļà¸ª
ĠM on
à¸Ĳà¸ļà¸²à¸¥ à¹Ħà¸Ĺà¸¢
à¸²à¸į à¸Ī
ur y
Ġà¸ŀà¸¥ à¹Ģà¸£
b y
à¸£ à¸²à¸Ļ
à¹ģ à¸§à¸ĩ
à¹ģà¸¥à¸° à¸Ńà¸ĩà¸Ħ
à¸ĭ à¸°à¸ģ
à¹Ĥà¸Ķà¸¢ à¸ļà¸£
à¸ļà¸£ à¸²à¸®
à¸ķà¸²à¸¡ à¸Ħà¸³à¸ª
à¹Ĥà¸£ à¸Ī
à¸Ńà¸ģà¸²à¸£ à¸Ī
à¸Ķà¸¡ à¸Ħà¸ķ
à¸ľà¸¥à¸ĩà¸²à¸Ļ à¹Ħà¸Ķ
à¹Ħà¸«à¸¥ à¹Ģà¸§
Ġ247 3
Ġà¸Ńà¸Ńà¸ģà¸Ńà¸²à¸ģà¸²à¸¨ à¸Ĺà¸²à¸ĩà¸Ĭ
Ġ195 8
à¸ģà¸²à¸£à¸Ĭ à¸ģ
à¸ģà¸ĩà¸²à¸Ļà¸Ħà¸ĵà¸°à¸ģà¸£à¸£à¸¡à¸ģà¸²à¸£ à¸ģà¸²à¸£à¸¨
à¸ģ à¸²à¹Ģà¸Ľ
à¸ģ à¸Ľà¸£à¸°à¸«à¸²à¸£à¸Ĭ
à¸ĩ à¸łà¸²à¸ŀà¸¢à¸Ļà¸ķà¸£
à¸¡ à¸¥à¸°
à¸ŀ à¸ļà¸£
à¸²à¸Ļ à¸«à¸¡
à¸Ļà¸¡ à¸²à¸Ńà¸¢
à¹Ĥà¸£ à¸ļ
à¸ªà¸²à¸¡à¸²à¸£à¸ĸ à¸¡à¸Ńà¸ĩà¹Ģà¸«
à¸ķà¸ļà¸Ńà¸¥ à¸Ń
à¸Ĳà¸ļà¸²à¸¥ à¹Ĥà¸Ĭà¸ģ
à¸Ľà¸£à¸²à¸ģà¸ı à¸Ĥ
à¸Ļà¸²à¸Ļ à¸Ļ
ĠN o
à¸§à¸Ń à¸²à¸Ħà¸²à¸£
à¸Ķà¸Ĺà¸³ à¸ģà¸²à¸£à¸ªà¸Ńà¸Ļ
Ġà¸ªà¸¢à¸²à¸¡ à¸¡à¸ģ
sp an
Ġ à¸Ľà¸£à¸°à¸ªà¸ļà¸Ħà¸§à¸²à¸¡à¸ªà¸³à¹Ģà¸£
à¸£ à¸§à¸Ķà¹Ģà¸£
à¸¡ à¸ģà¸£
à¸Ħà¸£ à¸¡
à¹Ģà¸¥ à¸§à¸£
à¸§à¸¢ à¸ŀà¸£à¸°à¸Ńà¸ĩà¸Ħ
à¸Ļà¸¡ à¸²à¹ĥà¸Ļ
Ġà¹ģà¸ķ à¸ģà¸ķ
Ġà¸Ĥ à¸¢à¸²à¸¢
à¸Ļà¸Ĺà¸²à¸ĩ à¸£à¸ĸà¹Ħà¸Ł
à¸ĩà¸Īà¸²à¸ģ à¸ª
ĠA t
à¸°à¸Ĺ à¸°à¸ģ
à¹Ĥà¸ł à¸Ĭ
à¸² à¹Ĥà¸¥à¸ģ
à¸ĩ à¸Ľà¸£à¸°à¹Ģà¸łà¸Ĺ
à¸§ à¹Ģà¸ĺà¸Ń
à¸ķ à¹Ħà¸¡
à¸ļ à¸Ļà¸ľ
à¸ģà¸²à¸£ à¹Ģà¸«
à¹ĥà¸Ļ à¸Ħà¸£à¸Ńà¸ļà¸Ħà¸£
à¸į à¸īà¸ļ
à¸ģà¸£ à¸¡à¸Ĺà¸«à¸²à¸£
à¸Ĳ à¸£
à¸¥à¸° à¸Ľà¸£à¸°à¹Ģà¸Ĺà¸¨
à¸ī à¸ģ
à¸Ļà¹ĥà¸Ļ à¹ģà¸ķ
à¹Ĥà¸¡ à¸¥
à¸ªà¸ĸà¸²à¸Ļ à¹ģà¸«
à¸ĩà¸ģà¸¤à¸© à¸ģ
à¸įà¸« à¸²à¸Ħà¸§à¸²à¸¡
à¸Ńà¸³à¸Ļà¸²à¸Ī à¸Ĺ
à¹Ģà¸Ķà¸Ńà¸° à¸ĭ
Ġà¸§à¸ĩ à¸©
à¸Ńà¸¢à¸Ħà¸¥ à¸²à¸Ļ
à¸ģ à¹ĥà¸Ļà¸Ĺ
à¹Ģà¸ļ à¸£à¸ģ
à¹ģà¸ª à¸ĩà¸ªà¸§
en z
à¸ĩà¸Ĥà¸Ńà¸ĩ à¸Ľà¸£à¸°à¹Ģà¸Ĺà¸¨
à¹Ĥà¸Ħ à¹Ĥà¸¥
à¸¡à¸²à¸Īà¸²à¸ģ à¸Ĭ
us e
ol i
ĠD i
Ġà¸Ńà¸³à¹Ģà¸ł à¸Ńà¸Ĺ
200 9
Ġà¹ģà¸ªà¸Ķà¸ĩ à¸§
à¸ģ à¹Ģà¸Ļà¸£à¹Ģà¸Ĺà¸¨
à¸µ (
à¸¢ à¸²à¸ģà¸£
à¸ģà¸²à¸£ à¸§à¸²à¸ĩ
à¹ĥà¸Ļ à¹Ħà¸Ĺà¸¢
à¸²à¸Ļ à¸ģà¸İà¸«à¸¡à¸²à¸¢
à¸Ńà¸¢ à¸Ńà¸Ķ
à¹Ģà¸ģ à¸¨
à¹Ģà¸Ķ à¸°
à¸§à¸Ļ à¸Ľ
à¸Ńà¸ļ à¹Ģà¸Ĥà¸ķ
à¸Ħà¸Ļ à¸ģ
à¸ĩà¸ķ à¸³à¸ļà¸¥
à¸Ļà¸ģà¸²à¸£ à¸Ļà¸³
à¸²à¹Ĥ à¸ŀà¸ĺ
à¸ĩà¹Ģà¸ģ à¸Ńà¸£
à¸Ńà¸ŀ à¸²à¸¢
ri b
à¸Ļ à¸©
à¸ª à¸§à¸¢
à¸ŀ à¸¤à¸ģà¸©
à¸Ĥà¸Ńà¸ĩ à¹Ģà¸§
à¸Ĥà¸Ńà¸ĩ à¸Ļà¸²à¸ĩ
à¸Īà¸²à¸ģ à¸Ľ
à¸Īà¸° à¸«à¸¢
à¸§à¸ĩ à¹Ģà¸£
à¹Ĥà¸£ à¸¥à¸¥
à¸Ńà¸Ń à¸ĺ
à¸Ķà¸Ħ à¸Ńà¸Ļà¹Ģà¸ª
à¸Ńà¸¨à¸²à¸ªà¸Ļ à¸²à¸Ħà¸£
à¸¥à¹Ĥà¸Ļ à¹Ģà¸ļà¸¥à¸ª
à¸Ĳà¸Ľà¸£à¸°à¸¨à¸²à¸ªà¸Ļ à¸¨à¸²à¸ªà¸ķà¸£
W F
à¹Ħ à¸ªà¸¢
à¹Ħ à¸Ńà¸Ķà¸Ńà¸¥
à¸Ĭ à¹Ģà¸Ĭà¸Ńà¸£
à¸į à¹Ħà¸Ľ
à¸ģà¸© à¸Ļ
Ġà¹Ĥ à¸¡à¹Ģà¸Ķ
Ġà¸ģà¸²à¸£ à¸Ńà¸Ńà¸ģà¹ģà¸ļà¸ļ
à¸ªà¸Ńà¸ĩ à¸Ľ
ĠH D
à¸Ļà¹Ģà¸Ĥ à¸²à¸ģ
à¹Ħà¸® à¸Ķà¸£
Ġ194 8
à¸ŀà¸£à¸°à¸ª à¸Ļà¸¡
à¸Ĺà¸£à¸²à¸ļ à¸Ĥ
à¹ĥà¸Ļà¸Ĳà¸²à¸Ļà¸° à¸Ļ
à¸ģà¸©à¸²à¸Ħà¸§à¸²à¸¡à¸ªà¸ĩà¸ļ à¹ģà¸«
m ed
à¸Ń à¹Ħà¸§à¸£
à¸ĩ à¸£à¸°à¸ļ
à¸Ńà¸ĩ à¹ģà¸£à¸ģà¸Ĥà¸Ńà¸ĩ
à¸Ĥà¸Ńà¸ĩ à¸ģà¸©
à¸Īà¸° à¸Ľà¸¥
à¸Ļà¸ª à¸łà¸²à¸ŀ
Ġà¹Ĥà¸Ķà¸¢ à¸Ħà¸£
à¸Ļà¸Ļ à¸Ħà¸£
ĠA C
à¸Ńà¸ĩà¸Īà¸²à¸ģ à¸ģà¸²à¸£
à¹Ĥà¸Ħ à¸ª
am a
à¸Ĺà¸«à¸²à¸£ à¸ļà¸ģ
à¸Ļà¸¡à¸² à¹ĥà¸Ĭ
b ack
à¸Ļ à¸¨à¸£
à¸Ń à¹ģà¸Ĺ
à¸ģ à¸ĺà¸²à¸ķ
à¸ģ à¸Īà¸³à¸ģ
à¸²à¸ĩ à¸Ł
à¹Ģà¸Ĥ à¸²à¸Ĭ
à¸¢à¸Ļ à¸¥
à¸Ĺà¸²à¸ĩ à¸ģà¸İà¸«à¸¡à¸²à¸¢
à¸Ļà¸¡ à¸²à¸Ĭ
à¸²à¸Ń à¸ł
Ġà¸ģà¸²à¸£ à¹Ģà¸Ľ
à¸Ĭà¸²à¸¢ à¸Ĭ
Ġ6 9
à¸²à¹Ĥ à¸Ľ
à¸²à¸ł à¸²à¸¢à¹ĥà¸Ļ
Ġ10 1
à¹Ĥà¸¥à¹Ģà¸¡à¸ķà¸£ à¸Ĺ
à¸ģà¸²à¸¢ à¸§
ĠWrest ling
" >
S E
à¸Ń à¸Īà¸²à¸ģà¸ģà¸²à¸£
Ġà¹ģà¸¥à¸° à¸£à¸°à¸ļà¸ļ
à¸ķà¸£ à¸£à¸ģ
à¹Ģà¸Ĺ à¸Ħ
à¸Ļà¸Ķ à¸Ńà¸Ļ
à¸Ĭà¸²à¸§ à¸ģà¸£
à¸¥à¸³ à¹Ģà¸¥
à¸Ļà¹Ħà¸Ľ à¹Ħà¸¡
à¸ļà¸£à¸¡à¸£à¸²à¸Ĭ à¸²à¸ł
à¸ªà¸łà¸²à¸ŀ à¹Ģà¸Ľ
à¸Ļ à¸²à¸ª
à¸Ļ à¹Ģà¸¥à¸Ĥà¸²à¸ĺ
à¸ļ à¸ŀà¸£
à¸ļ à¹ĥà¸«à¸¡
à¸ŀ à¸Ńà¸¢
à¹Ħ à¸ļà¸Ī
à¸Ĥà¸Ńà¸ĩ à¸ŀà¸¥
à¸Īà¸²à¸ģ à¹Ģà¸Ķ
à¸łà¸²à¸ ķ
Ġà¸ŀ à¸ĩà¸¨
Ġà¹ĥà¸Ļ à¸ŀà¸£à¸°à¸ļà¸£à¸¡à¸£à¸²à¸Ĭ
Ġà¹Ĥ à¸Ńà¸ļ
à¸ļà¸ģà¸²à¸£ à¹Ģà¸Ĥ
à¸ķà¸²à¸¡ à¸Ĭ
à¸¬ à¸²à¸§
Ġà¹Ħ à¸Ńà¸£
à¸ģà¸Ĥ à¸£à¸°
Ġw as
à¹ĥà¸Ļà¸ķà¸Ńà¸Ļ à¸Ļ
à¸Ĥà¸Ļà¸²à¸Ļ à¸Ļà¸²à¸¡à¸§
H e
O r
Ġ à¹Ģà¸Ńà¸Ļ
à¸Ļ à¹Ģà¸ĭà¸¥à¸¥
à¸ģ à¹Ĥà¸Ĺà¸£
à¸¥ à¹Ģà¸Ĺ
à¸Ħ à¸«
à¸Ńà¸ĩ à¸«à¸¢
à¸Ĥ à¸£
à¸²à¸§ à¹Ģà¸ŀ
à¸§à¸¢ à¹Ģà¸¥
on ly
à¸§à¸Ļ à¸§
à¹Ģà¸Ń à¹Ģà¸¥
âĢ į
à¸ĩà¸ķ à¸Ńà¸Ļ
Ġà¸ģà¸²à¸£ à¸ľà¸¥
à¸Ļà¸ģà¸²à¸£ à¹ĥà¸«
à¸ªà¸²à¸¡à¸²à¸£à¸ĸ à¸Ħà¸§à¸ļà¸Ħ
à¸Ķà¸ģà¸²à¸£ à¹Ģà¸¥
el f
ĠW ind
à¸Ļà¸Ħà¸Ļ à¹ģà¸£à¸ģà¸Ĺ
à¸Ļà¸Ĺà¸³ à¸ĩà¸²à¸Ļ
Ġ196 2
Ġ247 2
i ew
l ine
à¹ ķ
à¹Ĥ à¸ªà¸¡
Ġà¸Ħ à¸Ļà¹Ħà¸Ķ
à¸²à¸¥ à¸°
à¹ĥà¸Ļà¸ģà¸²à¸£ à¹ģà¸ªà¸Ķà¸ĩ
à¸©à¸¢ à¸Ĭà¸²à¸ķ
à¸Ļà¹Ģà¸Ĺ à¸Ļà¹Ĥà¸Ķ
à¸°à¸Ĺ à¸°
à¸£à¸²à¸Ĭà¸ģà¸²à¸£ à¹Ħà¸Ķ
200 7
Ġà¹Ĥà¸Ī à¹Ģà¸ĭà¸Ł
à¸ĩ à¸łà¸²à¸ŀ
à¸Ķ à¸²à¹Ħà¸Ķ
à¹ĥà¸Ļ à¸Ħà¸§à¸²à¸¡
à¹ĥà¸Ļ à¸Ŀ
à¸Īà¸²à¸ģ à¸¥
Ġà¸Ķ à¸²
Ġà¹Ģà¸ŀ à¸¥à¸¢
à¹ģà¸Ĺ à¸ļà¸Ńà¸¥
à¸ªà¸²à¸¡à¸²à¸£à¸ĸ à¹Ģà¸ģ
à¸Ĺà¸£à¸ĩ à¹Ģà¸Ĥ
à¸Ļà¹ģà¸¥à¸° à¹Ħà¸Ķ
à¹Ģà¸§à¸ĵ à¸£
Ġà¹Ħ à¸ŀà¸£
à¸£à¸°à¸¢à¸° à¸«
0 9
I P
à¸£ à¸²à¸¢à¸Ļà¸²à¸¡
à¸Ĺ à¸Ńà¸£
à¸ª à¸Ĥ
à¸Ħ à¸ĩà¸Ĺ
à¸į à¹Ģà¸ŀ
Ġà¸ª à¹Ģà¸Ľà¸Ļ
à¸Ĳ à¸Ľà¸£à¸°à¸Ĭà¸²à¸ĺ
à¸¥à¸ĩ à¹Ħà¸Ķ
à¸Ľà¸£ à¸²à¸Ħà¸²
à¸Ĺà¸³ à¸ļ
Ġà¹ģ à¸Ĭà¸¡à¹Ģà¸Ľ
à¸Ļà¸ģ à¸İà¸«à¸¡à¸²à¸¢
à¹Ĥà¸£ à¸Ķ
à¸Ľà¸£à¸°à¸Ĭ à¸²à¸Ħà¸¡
Âł à¹Ģà¸Ľ
ĠB oy
à¸ģà¸¥à¸¡ à¸ģà¸¥
à¸ĭà¸²à¹Ģà¸ļ à¸ĺà¸Ĺ
E x
à¸Ļ à¹Ħà¸Ĥ
à¸ĩ à¸Ľà¸£à¸°à¸ªà¸ĩà¸Ħ
à¹Ĥ à¸ļà¸§
à¸ŀà¸£à¸° à¸Ľà¸£à¸¡à¸²à¸ł
à¸²à¸ª à¸²à¸ªà¸¡
à¸Ļà¸Ħ à¸Ńà¸¥
à¸ļà¸²à¸ĩ à¸£
à¸ĩà¹ģ à¸«à¸¥
à¸Ńà¸²à¸Ī à¹Ħà¸¡
à¸Ńà¸Ħ à¹ģà¸¡à¸Ļ
à¸§à¸¥ à¸²à¸¥
à¸¨à¸§ à¸£à¸¡
à¸²à¸Ńà¸²à¸ģà¸²à¸¨à¸¢à¸²à¸Ļ à¸ª
à¸Ĵà¸Ļà¸²à¸¡ à¸²à¸Īà¸²à¸ģ
W h
à¸ģ à¸Ļà¸³à¹Ħà¸Ľà¹ĥà¸Ĭ
à¸ŀ à¸ŀà¸¡
à¹ĥà¸Ļ à¸¡à¸«à¸²à¸ªà¸¡
à¸²à¸ĩ à¹Ģà¸Ľà¸¥
à¹Ħà¸Ľ à¸¨
Ġà¸¡ à¸²à¸Ļ
à¸Ńà¸ļ à¹Ĥà¸ķ
à¹Ģà¸Ĭ à¸¥à¸¥
à¸Ńà¸ķ à¹Ĥà¸ķ
à¸łà¸²à¸© à¸²à¸¨à¸²à¸ªà¸ķà¸£
à¸ĩà¸Īà¸²à¸ģ à¸ŀ
à¹Ģà¸§à¸ĵ à¸§
à¸ªà¸Ńà¸ĩ à¸Ħà¸£
à¸Ļà¹Ĥà¸Ķà¸¢ à¹ĥà¸Ĭ
à¸ģ à¸ļà¸Ńà¸¥
à¸ŀ à¸²à¸Ķ
à¹Ĥà¸Ķà¸¢ à¸ļ
à¸²à¸¥ à¸°à¸§
Ġà¹ĥà¸Ļ à¹Ģà¸ŀà¸¥à¸ĩ
à¸Ļà¸ª à¸Ńà¸ĩà¸Ħ
à¹Ģà¸ķ à¸Ļà¹ĥà¸«à¸į
à¸ģà¸ª à¸ĸ
à¸ģà¸ª à¸łà¸²à¸Ļ
à¸łà¸²à¸© à¸²à¸Ļ
Ġ8 4
à¹Ģà¸ľ à¸²à¹Ħà¸«à¸¡
à¸Ĺà¸³à¸ĩà¸²à¸Ļ à¸Ķ
ĠL ive
iss ion
à¹ģà¸ªà¸Ķà¸ĩà¸Ħ à¸Ńà¸Ļà¹Ģà¸ª
à¸¡ à¸ģà¸³à¹Ģà¸Ļ
à¸Ħ à¸²à¸¢
à¹Į ]
Ġà¹ģà¸¥à¸° à¸Ńà¸³à¹Ģà¸ł
à¸§à¸¢ à¸¨
à¸¢à¸Ļ à¹Ģà¸Ĥ
à¸§à¸ĩ à¹ģà¸«à¸§à¸Ļ
à¸ĩà¸ģà¸¤à¸© à¹Ģà¸Ľ
à¸Ļà¸²à¸Ļ à¸Ķ
à¸²à¹Ģà¸¥ à¸ĭ
Ġ194 6
à¸§à¸²à¸ªà¸£à¸²à¸Ĭ à¸Ļà¸Ħà¸£
u x
à¸Ń à¸ŀà¸¢
à¸ļ à¹Ģà¸Ĥà¸ķ
à¸Ńà¸ĩ à¸Ńà¸Ńà¸ģ
à¸²à¸ĩ à¹ģà¸Ħ
à¸²à¸Ĺ à¸²à¸ĩà¸Ĺ
à¸¥à¸ĩ à¸Ľà¸£à¸°à¸Ĭà¸²à¸¡à¸ķ
à¸Ļà¸ª à¹Ģà¸ķà¸Ńà¸£
à¸¢à¸° à¸¥à¸²
à¸²à¹Ĥ à¸Ńà¸£
à¹Ĥà¸Ħ à¸ķ
Ġà¸Īà¸° à¹Ģà¸ģ
ĠâĢľ "
ĠR ock
à¸²à¸Ľà¸£à¸° à¸ķ
Ġà¸Ļà¸²à¸¢ à¸ģ
à¸įà¸Ĭ à¸²à¸Ĥà¸Ńà¸ĩ
ect or
ĠSh ow
à¹ ĺ
à¸Ļ à¹Ħà¸¥à¸Ĺ
à¸¢à¸Ļ à¸Ŀ
à¸Ļà¸ª à¸Ńà¸ĩà¸ª
à¸²à¸ļ à¸Ńà¸Ķ
à¸ŀà¸£à¸°à¸£à¸²à¸Ĭ à¸Ľà¸£à¸°à¸ªà¸ĩà¸Ħ
à¸Ńà¸ĩà¸ģà¸²à¸£ à¸Ľà¸ģà¸Ħà¸£à¸Ńà¸ĩ
à¸¢à¸Ńà¸¡ à¹ģà¸ŀ
ang u
Ġ245 7
à¸ļà¸£à¸£à¸ĵ à¸²à¸ģà¸²à¸£
ï ľ
à¸£ à¸ŀà¸¥
à¸Ķ à¹ģà¸ļ
à¸ķ à¹Ģà¸£
à¸ģà¸²à¸£ à¸«à¸¡
à¸Ĥà¸Ńà¸ĩ à¸ªà¸¡
à¸Ńà¸Ļ à¸Īà¸°à¸ĸ
à¸Ńà¸¡ à¹Ħà¸Ķ
à¸ĩà¸ª à¸ķ
à¸ģà¸³ à¸ŀà¸£
à¸Ļà¹ĥà¸Ļ à¸£à¸²à¸¢à¸ģà¸²à¸£
Ġà¹Ħ à¸ģ
Ġà¹ģà¸¡ à¸£
à¸§à¸¢à¸ģà¸²à¸£ à¹ĥà¸Ĭ
à¸Ļà¸ªà¸ĸ à¸²à¸Ľà¸Ļ
à¸«à¸²à¸Ķ à¹ĥà¸«à¸į
Ġà¹ģà¸Ħà¸Ļ à¸²à¸Ķà¸²
Ġ à¸ļà¸£à¸£à¸Ī
à¸¡ à¸Īà¸°
à¸§ à¹ĥà¸Ĭ
à¸Ķ à¹Ĩ
à¸Ķ à¹Ģà¸ķ
à¸ļ à¹ģà¸Ł
à¸¸ )
à¸¨ à¸Ń
à¸²à¸§ à¹Ģà¸Ķ
à¸Īà¸²à¸ģ à¸ģà¸²à¸£à¸ª
à¸¹à¹Ī )
on ic
à¸ļà¸Ĺ à¸°à¹Ģà¸¥
à¹Ģà¸ŀà¸¥à¸ĩ à¸£
à¸ģà¸¥à¸²à¸ĩ à¸Ĺ
à¹Ģà¸§à¸ĵ à¸ª
Ġà¸ļà¸£ à¸²à¸§à¸Ļ
Ġà¹Ģà¸Ĺ à¸Ńà¸£
Ġà¸Ļà¸²à¸¢ à¸§
à¹Ĥà¸Ħà¸£à¸ĩà¸ģà¸²à¸£ à¸Ļ
à¸¥à¸¡ à¸²à¸Ķà¸£
Ġ196 1
à¹Ģà¸ŀà¸²à¸° à¹Ģà¸¥
à¸²à¸ªà¹Ģà¸ģ à¸ķà¸ļà¸Ńà¸¥
r us
à¸£ à¸Ļ
à¸¢ à¸Ĺà¸£
à¹Ħ à¸Ńà¸ļ
à¸ģà¸²à¸£ à¹ģà¸ŀà¸£
à¸²à¸§ à¹Ģà¸ģ
à¸ķà¸£ à¸£
à¹Ģà¸¡ à¸Ļà¸Ĺ
à¸£à¸¡ à¸«à¸²à¸§
à¸Ļà¸ĺ à¸²à¸ķ
Ġ3 60
Ġà¸ģà¸²à¸£ à¹Ģà¸Ħà¸¥
Ġà¸ļ à¸²à¸ĩà¸Ĺ
Ġà¸Ĥà¸Ńà¸ĩ à¸ļà¸£
à¸ĩà¹ģ à¸Ħ
à¸ĩà¹Ģà¸¨à¸ª à¹ģà¸¥à¸°
à¸Ļà¸Ĳà¸²à¸Ļ à¸Ńà¸¢
à¹Ħà¸ŀ à¹Ģà¸£à¸²à¸°
à¸Ķà¹ģà¸Ľà¸¥à¸ĩ à¸¡à¸²à¸Īà¸²à¸ģ
Î ±
à¸Ń à¸Ħà¸§à¸ļà¸Ħ
à¸¡ à¸Ĺà¸²à¸ĩ
à¸ļ à¸ī
Ġà¸ŀ à¸¢à¸²à¸¢à¸²à¸¡
à¹Ħà¸Ľ à¹ĥà¸Ļ
à¸Īà¸° à¸Ķà¸³à¹Ģà¸Ļ
à¸Ńà¸¡ à¸£à¸°à¸«à¸§
à¸²à¸¥ à¸³à¸Ķ
Ġà¹ĥà¸Ļ à¸ģà¸¥
à¹Ģà¸§ à¸¨à¸Ļ
à¸§à¸¡ à¸ª
à¹Ģà¸ļ à¸²
à¹Ĥà¸¡ à¹Ģà¸¡à¸Ļà¸ķ
à¸ĩà¸Īà¸²à¸ģ à¹Ģà¸«à¸ķ
à¸ļà¸Ħà¸§à¸²à¸¡ à¹Ģà¸Ľ
à¸Ľà¸£à¸°à¸Ĭà¸²à¸Ĭ à¸Ļà¸Ĭà¸²à¸§
à¸Ĺà¸£à¸²à¸ļ à¸ĸ
à¸ģ à¸Ńà¸ĩà¸ļ
à¸¡ à¹ģà¸£à¸ģà¸Ĺ
à¸ŀ à¸Ħ
à¸Ńà¸ĩ à¸ļà¸£
à¸Ńà¸ĩ à¸£à¸°à¸«à¸§
à¸²à¸Ļ à¸«à¸£
à¸²à¸Ļ à¸Ĥà¸²à¸¢
à¸ĩà¸ª à¸¢à¸²à¸¡
à¸Ħà¸¥ à¸²à¸ª
Ġà¸ŀà¸£à¸° à¹Ģà¸Ĭà¸©à¸Ĳ
à¸ĩà¸Ĥà¸Ńà¸ĩ à¸ľ
à¸Ńà¸Ń à¹Ĥà¸ķ
à¹Ĥà¸¢ à¸®
à¸ģà¹ģà¸ªà¸Ķà¸ĩ à¸ªà¸¡à¸Ĺ
à¸Ķà¸Ħà¸§à¸²à¸¡ à¸Ĥ
à¸ĩà¸Ħà¸ĵà¸° à¸ģà¸£à¸£à¸¡à¸ģà¸²à¸£
à¸Ńà¸²à¸£à¸²à¸¡ à¸«à¸¥à¸§à¸ĩ
à¸£ à¸Ńà¸Ļ
à¸ģ à¹ģà¸¡à¸Ļ
à¸ģ à¹Ĥà¸¥à¸ģà¸Ĺ
à¸Ķ à¸¤à¸Ķ
à¸Ľ à¸Ńà¹Ģà¸£à¸Ĭ
à¹Ħ à¸Ī
à¹ĥà¸Ļ à¸łà¸²à¸ŀ
à¸¢à¸Ļ à¸¨
à¸¢à¸ĩ à¸Ĭà¸Ļ
à¸¢à¸§ à¹Ģà¸Ļ
ĠC ont
à¸ģà¸©à¸ĵà¸° à¸Ķ
à¸¢à¸ĩà¸ŀ à¸Ńà¸Ĺ
ener al
à¸ĩà¸ľà¸¥à¸ģà¸£à¸°à¸Ĺ à¸ļà¸ķ
S S
Ġ are
à¸ĩ à¸īà¸²à¸ģ
à¸ķ à¸Ľà¸£à¸°à¸ĺà¸²à¸Ļ
à¹ģ à¸Ļà¸Ļ
à¹Ħ à¸Ħà¸¥
à¹Ĥ à¸¨à¸ģ
à¹ĥà¸Ļ à¹ĥà¸Ī
à¸²à¸¢ à¹Ģà¸Ĺ
à¹ģà¸¥à¸° à¹Ģà¸Ķ
à¹ģà¸ª à¸ĩà¸ª
à¸ļà¸Ĺ à¸§à¸Ļ
à¸Ļà¹ĥà¸Ļ à¸¤à¸Ķ
à¸Ķà¸ģà¸²à¸£ à¹Ģà¸Ľà¸¥
à¸ģà¸©à¸ĵà¸° à¹Ģà¸«à¸¡
à¸£à¸§à¸¡ à¹Ģà¸Ľ
à¸Ļà¹ģà¸£à¸ĩ à¸ļ
à¸²à¸£à¸²à¸Ĭà¸ģà¸²à¸£ à¸ģà¸£
à¸§à¸Ļà¸Ļ à¸§à¸¡
Ġâ ĨĴ
i ber
v ent
à¸Ń à¸Īà¸°à¹Ħà¸Ķ
à¸Ńà¸ĩ à¸ªà¸£
à¸³ à¸Ĥà¸Ńà¸ĩ
à¸²à¸Ļ à¸«à¸į
Ġà¸Ń à¸²à¸ģà¸²à¸¨
à¸²à¸Ķ à¸łà¸²à¸ŀ
Ġà¸£ à¸ŀ
à¸Ľà¸£à¸°à¸ª à¸ļà¸Ń
à¸ĺà¸£à¸£à¸¡ à¸¢
Ġà¹ Ĺ
Ġp ar
à¸Ħà¸§à¸²à¸¡à¸ªà¸²à¸¡à¸²à¸£à¸ĸ à¸ŀ
ra in
à¸Ļà¸ŀà¸£à¸°à¸£à¸²à¸Ĭ à¸Ļ
à¸¢à¸«à¸²à¸¢ à¸Ńà¸¢
R O
à¸Ń à¸Ħà¸³
à¸§ à¸Ĺà¸³
à¸ļ à¸Ľà¸ı
à¸ŀ à¸ªà¸«à¸£
à¸³ à¹Ģà¸¥
à¹Ģà¸Ľ à¸£à¸¡
à¸Ĥà¸Ńà¸ĩ à¸ŀà¸£à¸°à¸ļà¸²à¸Ĺà¸ªà¸¡à¹Ģà¸Ķ
à¸į à¸²
à¸Ńà¸ģ à¸³à¸¥
à¸ģà¸£ à¹ģà¸¥à¸°
à¸Ńà¸¡ à¸Ńà¸£
à¸¢à¸§ à¸Ĭ
à¸Ĺà¸£ à¸ªà¸ĩà¸Ħà¸£à¸²à¸¡
à¹ĥà¸Ļà¸ģà¸²à¸£ à¸Ĥ
à¸Ļà¸ģà¸²à¸£ à¸ĸ
at ure
à¸ĩà¸«à¸¡à¸Ķ à¸Ĥà¸Ńà¸ĩ
om an
à¸ģà¹ĥà¸Ļ à¸Ĳà¸²à¸Ļà¸°
à¸¢à¹ģà¸¥à¸° à¸ŀ
T H
à¸Ļ à¸ŀà¸£à¸£à¸Ħà¸ģà¸²à¸£à¹Ģà¸¡
à¸ĩ à¸Ĭà¸²à¸¢
à¸ĩ à¹Ģà¸§à¸¥à¸²
à¸¥ à¹Ģà¸«à¸£
à¸¥ à¹Ģà¸Ńà¸Ĭ
à¸Ĺ à¹Ĥà¸ĺ
à¸Ħ à¸Ńà¸ª
à¹ģà¸¥ à¸ª
à¸¢à¸Ļ à¸Ł
à¸Ńà¸¡ à¸«
à¸® à¸²
à¹Ĥà¸Ń à¸Ĭà¸²
à¹Ĥà¸ĭ à¸Ļà¸£
à¸Ľà¸ģà¸Ħà¸£à¸Ńà¸ĩ à¹Ĥà¸Ķà¸¢
à¸Ķà¸Ĥà¸Ńà¸ĩ à¸Ī
à¸ªà¹ģà¸¥ à¸¡
à¹ Ļ
à¸¢ à¸ªà¸¡
à¸ļ à¸Ĭà¸Ļ
à¸²à¸¢ à¸«à¸£
à¸²à¸ĩ à¹ģà¸Ĥ
à¸Ńà¸ģ à¸£à¸°à¸Ķ
Ġà¸Ĥà¸Ńà¸ĩ à¸§à¸ĩ
à¸Ļà¸² à¹Ħà¸Ķ
à¹Ģà¸ĺà¸Ń à¸Ħ
à¸¥à¸³ à¹Ģà¸Ļ
Ġà¸ķà¸²à¸¡ à¸Ľà¸£à¸°à¸ģà¸²à¸¨
à¸Ķà¸§à¸ĩ à¸Ķà¸²à¸§
à¸Ľà¸£à¸°à¸ģà¸²à¸¨à¸ľà¸¥ à¸£à¸²à¸ĩà¸§
a ul
à¸ĩ à¸¡à¸²à¸ģà¸Ĺ
à¸¡ à¹ĥà¸Ī
à¸§ à¸Ľà¸£à¸°à¸¡à¸²à¸ĵ
à¸Ńà¸ĩ à¸ģà¸²à¸£à¸ª
à¸³ à¹Ģà¸«à¸¥
à¸²à¸ĩ à¹Ģà¸§
à¸ĭ à¸²à¸¢
à¸ŀà¸£à¸° à¸ļà¸²à¸Ĺ
à¸ķà¸£ à¸²à¸Ķ
à¹Ģà¸¥ à¸Ķ
à¸§à¸¢ à¸£à¸°à¸ļà¸ļ
à¸²à¸¥ à¸²à¸¡
Ġà¸ķ à¸³à¸Ļà¸²à¸Ļ
à¸Ļà¸Ļ à¸²à¸¢à¸ģ
à¸Ńà¸¥ à¸Ķ
à¸²à¸ĩà¸ģ à¸²à¸¢à¸Ĺ
à¸Ńà¹Ģà¸£ à¸Ńà¸£
Ġà¸ķà¸²à¸¡ à¸«à¸¥
à¸ĩà¸Ńà¸²à¸Ī à¸¡
à¸ĩà¸ģà¸£à¸° à¸Ī
ĠPl ay
i ver
à¸¢ à¸ģà¸£à¸°à¸Ķ
à¸Ķ à¸Ľà¸£à¸°à¸ķ
à¸ķ à¹Ģà¸ģ
à¹ģ à¸Ńà¸ģ
à¸Ńà¸ĩ à¹ģà¸¥à¸°à¸Ļ
à¸ŀà¸£à¸° à¸Ńà¸²à¸Īà¸²à¸£à¸¢
à¸Īà¸° à¹ģà¸ļ
à¸Ļà¸ģà¸²à¸£ à¹Ģà¸Ĥ
à¸ĩà¹ĥà¸Ļ à¸Ħà¸£
à¸ĩà¸Īà¸²à¸ģ à¸£
Ġà¸Ļà¸²à¸¢ à¸ŀà¸¥
Ġf rom
Ġà¹Ģà¸ŀà¸¥à¸ĩ à¸Ĺ
Ġà¸Ļà¸³ à¹Ħà¸Ľà¸ª
Ġ196 6
à¸ĩà¸¡à¸« à¸²à¸ªà¸¡
C on
Ġ Â°
à¸Ļ à¹Ĥà¸Ī
à¸ģ à¸²à¸Ĥà¸Ńà¸ĩ
à¸Ĺ à¸Ķà¸¥
à¸ķ à¹Ģà¸Ħà¸£
à¸³ à¸Ŀ
à¸Ľà¸£à¸° à¸¥à¸Ńà¸ĩ
à¸Ļà¸Ĺ à¸²à¸¢à¸²à¸Ĺ
à¹Ģà¸Ĥà¸ķ à¸ģà¸²à¸£à¹Ģà¸¥
à¸ķà¸¢ à¸ªà¸ĸà¸²à¸Ļ
ĠR ob
à¸įà¸« à¸²à¹Ģà¸£
à¸¨à¸²à¸ªà¸Ļ à¸²à¸Ĺ
à¹Ģà¸ªà¸Ļà¸Ń à¸ķ
à¹ģà¸¥à¸° à¸ĺ
Ġà¹Ģà¸ ĸ
à¸Ńà¸¢ à¸«à¸£
à¸ĵ à¸ļà¸Ķ
à¸¥à¸ĩ à¸ģ
à¸ĩà¸²à¸Ļ à¸ģ
à¸²à¸ĺ à¸£
à¸įà¸į à¸²à¸¢
Ġà¸Ĥà¸Ńà¸ĩ à¸Ľ
à¸Ķà¸£ à¸ĸ
à¸ļà¸§ à¸Ļà¸Ĺ
à¸Ļà¸ķà¸£ à¸ĩà¸ģ
à¸ģà¸²à¸£à¸Ļà¸³ à¸Ĥà¸Ńà¸ĩ
hy l
à¹Ĥà¸ī à¸¡
à¹ĥà¸Ļà¸§à¸ĩ à¸ģà¸²à¸£à¸ļ
Ã ¶
à¸¥ à¸²à¸Ń
à¸²à¸ĩ à¸Ħà¸§à¸²à¸¡à¸ª
à¸²à¸§ à¹Ħà¸¡
à¸Īà¸²à¸ģ à¸Ľà¸£à¸°à¹Ģà¸Ĺà¸¨
à¹Ĥà¸¥ à¸¡
Ġà¸ģà¸²à¸£ à¸Ķ
Ġà¸ģà¸²à¸£ à¸Ľ
à¹ģà¸Ļà¸§ à¸ķ
à¸ľà¸¥à¸ĩà¸²à¸Ļ à¸§
à¸²à¹Ħà¸Ľ à¸Ĺ
à¹Ģà¸ģà¸²à¸° à¸ķ
ed er
à¹Ģà¸ŀà¸£à¸²à¸° à¹Ħà¸¡
à¸Ńà¸¡à¸£à¸Ńà¸ļ à¸Ķ
à¸Īà¸³à¸Ľ à¸²à¸¨
G A
l er
Ġ ad
à¸ĩ à¸Ľà¸£à¸°à¸Ĭà¸²à¸Ĭà¸Ļ
à¸¥ à¸²à¸¥
à¸¢ à¸²à¸ļ
à¸Ķ à¸Ķà¸³à¹Ģà¸Ļ
à¸Ķ à¹ģà¸ŀà¸£
à¸ĭ à¸Ńà¸¢
à¹Ĥà¸Ķ à¸§
à¸Īà¸° à¸Ľ
à¸¢à¸Ļ à¸Ńà¸Ļ
Ġà¹Ĥà¸Ķà¸¢ à¸Ńà¸¢
à¸ĩà¸²à¸Ļ à¸Ń
à¸¥à¸³ à¸ĺà¸²à¸£
à¸Ķà¸Ń à¸²à¸¢
Ġà¹Ģà¸ª à¸Ļà¸Ń
à¸ķà¸¥à¸Ńà¸Ķ à¸ģà¸²à¸¥
à¸Ńà¸²à¸ª à¸²à¸ªà¸¡
à¸²à¸Ĥà¸Ļà¸²à¸Ķ à¹Ģà¸¥
Ġ un
à¸Ļ à¸įà¸²à¸ķ
à¸Ńà¸ĩ à¸ł
à¹Ĥ à¸ľà¸¥
à¹Ĥ à¸Īà¸Ļ
à¸Ĥà¸Ńà¸ĩ à¸ŀà¸£à¸°à¸ŀ
à¸ģà¸£ à¸Ĭ
Ġ1 000
à¸Ħà¸§à¸²à¸¡ à¹Ģà¸Ħà¸£
Ġà¸ª à¸ģà¸²à¸¢
Ġà¸ĭ à¸²à¸Ļ
à¸Ĺà¸²à¸ĩ à¸Ħà¸ĵ
Ġ7 4
à¸Ľà¸£à¸²à¸ģà¸ı à¹Ģà¸Ľ
am il
20 16
à¹Ĥà¸Ħà¸£à¸ĩà¸ģà¸²à¸£ à¸Ī
à¸°à¸ķ à¸Ńà¸¡
à¸²à¸ģà¸²à¸£à¸ģà¸£à¸°à¸Ĺà¸£à¸§à¸ĩ à¸ģà¸²à¸£à¸ķ
à¸§à¸Ļà¸³ à¸¢à¸§à¸Ķà¸¢
à¸Ļà¸Ķà¸²à¸§ à¹Ģà¸Ħà¸£à¸²à¸°à¸«
à¸ĩ à¸ĺà¸Ļ
à¸§ à¸²à¸ķ
à¸Ńà¸ĩ à¹Ģà¸«à¸¥
à¸ŀà¸£à¸° à¸Ľ
à¸Ľà¸£ à¸²à¸ĩà¸Ħ
Ġà¹Ģà¸¡ à¸Ĺ
Ġà¹Ĥ à¸Ļ
an ti
à¹Ģà¸Ńà¸ģ à¸łà¸ŀ
à¸ªà¸²à¸£ à¸ª
à¸Ļà¹Ħà¸Ľ à¸ĸ
à¹Ħà¸Ĥ à¹Ģà¸ŀ
à¸«à¸²à¸¢ à¸ķ
à¸ĩà¸Ļà¸³ à¹Ħà¸Ľà¸ª
à¸§à¸Ļà¸ª à¸²à¸ĺà¸²à¸£à¸ĵà¸°
à¹Ĥà¸«à¸§ à¸ķ
à¸ŀà¸«à¸¥ à¹Ĥà¸¢à¸ĺ
B e
à¸ĩ à¹Ĥà¸£à¸ĩà¸ŀà¸¢à¸²à¸ļà¸²à¸¥
à¸§ à¹Ĥà¸Ķà¸¢
à¸Ľ à¸ŀ
à¸²à¸¢ à¹Ĥà¸Ńà¸Ļ
à¹Ģà¸Ĺ à¸Ħà¸§
à¸Ł à¸¥à¸²à¸¢à¹Ģà¸§à¸Ĺ
à¸Ĳ à¸ŀ
à¸Ļà¸ª à¸§à¸£à¸£à¸Ħ
à¸¢à¸ĩ à¹Ģà¸Ĭ
à¹Ĥà¸£ à¹Ĥà¸£à¸°
à¸ĩà¹ĥà¸Ļ à¸ģà¸¥
ĠA b
à¸Ńà¸ĩà¸Īà¸²à¸ģ à¸Ń
à¸¥à¸°à¸Ħà¸£ à¸Ĭ
Ġ8 8
à¸Ļà¸²à¸¢ à¹ģà¸ŀà¸Ĺà¸¢
à¸¡à¸Ń à¸³à¸Ļà¸²à¸Ī
à¸Ķà¹ĥà¸Ļ à¸£
à¸¢à¸²à¸Ļ à¸ŀà¸²à¸«à¸Ļà¸°
à¸Ļà¸Ħà¸§à¸²à¸¡ à¸ĸ
à¸ģà¸£à¸Ķ à¹Ħà¸Ĥà¸¡
Ġà¹Ģà¸ľ à¸¢
à¸¥ à¹Ģà¸£
à¸Ķ à¸ĺ
à¸ª à¹Ģà¸¡
à¸ģà¸²à¸£ à¸Ńà¸Ļà¸²à¸¡
à¸Ńà¸£ à¸²à¸¢à¸ģà¸²à¸£
à¸ªà¸¡ à¸£
à¹Ģà¸Ħ à¸²à¸Ļà¸ķ
à¸ļà¸ļ à¸¥
à¸Ĺà¸²à¸ĩ à¹ģà¸¢à¸ģ
à¹ģà¸ļà¸ļ à¸¢
à¸Ħà¸Ļ à¹Ħà¸Ķ
à¸ļà¸ª à¸³à¸Ļ
Ġ7 6
à¸²à¸ĩà¸ģ à¸İà¸«à¸¡à¸²à¸¢
Âł à¸ĭ
à¹Ģà¸ģà¸£ à¸ĩà¸§
à¸ŀà¸£à¸°à¸Ń à¸²à¸Ĺ
à¸Ħà¸§à¸²à¸¡à¸¢à¸²à¸§ à¸Ľà¸£à¸°à¸¡à¸²à¸ĵ
oun g
h am
à¸¥ à¸¡à¸²à¸£
à¸¢ à¹Ģà¸«à¸Ļ
à¸Ķ à¹ģà¸£à¸ģà¸Ĥà¸Ńà¸ĩ
à¸ģà¸²à¸£ à¹Ģà¸Īà¸£
Ġà¹ģà¸¥à¸° à¸ªà¸¡à¸²à¸Ĭ
à¸Ļà¸Ļ à¸§à¸Ļ
à¹Ģà¸ļ à¸ĩà¸ģà¸Ńà¸¥
à¹Ģà¸ĺ à¸Ńà¸Ļ
à¸Ńà¸° à¸ĭ
à¹Ģà¸ģà¸£ à¸Ķ
à¸Ľà¸£à¸°à¸ŀ à¸²à¸ª
uc k
à¸Ķà¸Ļà¸Ħà¸£ à¸ªà¸§à¸£à¸£à¸Ħ
à¸ĩà¸Ħà¸¡à¸ª à¸ĩà¹Ģà¸Ħà¸£à¸²à¸°à¸«
à¸ģ à¸ķà¸²à¸¡
à¸¥ à¸Ĳà¸²à¸Ļ
à¹Ħ à¸ļà¸£
à¹Ĥ à¸ĵ
à¸²à¸Ļ à¸ļà¸£
à¸Ńà¸ģ à¸Ķ
à¸Ńà¸Ķ à¸Ķ
ĠR ep
Ġà¸® à¸Ńà¸£
Ġà¹Ģà¸ŀà¸£à¸²à¸° à¸ķ
à¹Ģà¸ŀà¸¨ à¸ª
à¸²à¹Ģà¸Ķ à¸¡
à¸ķà¸Ńà¸ļ à¹Ĥà¸ķ
à¸Ħà¸ŀ à¸Ńà¸¢à¸Ĺ
j i
à¹Ģà¸ ĳ
à¸²à¸ĩ à¸ļà¸£
à¸§à¸ĩ à¸¡
à¸¡à¸² à¹Ĥà¸Ķà¸¢à¸ķà¸¥à¸Ńà¸Ķ
ĠT op
Ġà¸£à¸§à¸¡ à¹Ģà¸Ľ
à¹Ĥà¸Ħ à¸¥à¸ĩ
à¸£à¸°à¸ļ à¸²à¸¢à¸Ļ
à¸ģà¸£à¸¡ à¸ķà¸³à¸£à¸§à¸Ī
Ġd es
à¸Ĵà¸Ļà¸ĺà¸£à¸£à¸¡ à¹ģà¸«
à¸Ļà¹ģà¸£à¸ĩ à¸Ĺ
à¸ĸà¸§à¸²à¸¢ à¸ŀà¸£à¸°
Ġâ ĪĴ
Ġ à¸£à¸²à¸Ĭà¸ļ
à¸ª à¹ģà¸Ħà¸§à¸£
à¸ļ à¹ģà¸Ħ
à¹ĥà¸Ļ à¸Ŀà¸£
à¸¢à¸Ļ à¸«
Ġà¸¡ à¸²à¸Ķ
à¸¢à¸ĩ à¹Ĥà¸Ķ
à¸Ńà¸ĩà¸Ħ à¸ĵà¸°
à¸Ļà¸Ĺà¸²à¸ĩ à¸¡à¸²à¸ĸ
Ġ8 3
à¹Ĥà¸¢ à¸Ĭà¸Ļ
à¸Ķà¸² à¹ģà¸«
à¸¢à¸Ķà¸Ļà¸²à¸¡ à¹ĥà¸ķ
à¸Ĺà¸³à¸Ļ à¸Ńà¸ĩà¹Ĥà¸Ķà¸¢
à¸Ļ à¸ŀà¸¢
à¸Ń à¹ĥà¸Ļà¸£à¸°à¸Ķ
à¸§ à¸ģà¸²à¸£
à¸¢ à¹Ģà¸Ī
à¸³ à¸ģà¸£
à¹Ĥà¸Ķà¸¢ à¸Ľà¸£
à¹Ģà¸Ħ à¸ªà¸ķà¸£
à¸ĩà¸Ħ à¸ĩà¸ķ
à¸Ļà¸Ĺà¸£ à¸²
Ġ7 3
Ġà¹Ģà¸§ à¸ªà¸ķ
à¸Ħà¸Ħà¸¥ à¸Ļ
à¸Ħà¸²à¸£ à¸²à¸§
à¸²à¸¥à¸ĩ à¹Ģà¸¥
à¸Ħà¸§à¸²à¸¡à¸«à¸¡à¸²à¸¢ à¸Ĥà¸Ńà¸ĩ
à¸Ńà¸Ńà¸Ł à¸Ł
Ġh ad
N ew
à¸Ļ à¹Ĥà¸Ľà¸£à¸Ķ
à¸Ń à¹Ģà¸Ĥà¸²
à¸µ :
à¹Ģà¸Ľ à¸£à¸ªà¸Ĭ
à¸® à¸¢
à¸Ńà¸Ń à¸²à¸«à¸²à¸£
Ġ7 1
à¸ļà¸Ķ à¸¡
Ġ9 8
à¸ģà¸²à¸£à¸ķ à¸ģà¹ģà¸ķ
Ġà¹Ħ à¸«à¸¥
à¸Īà¸²à¸ģà¸ģà¸²à¸£ à¸ĸ
à¸Ĺà¸«à¸²à¸£ à¸Ĺ
Ġ247 4
à¸£à¸²à¸¡ à¸²à¸ĺ
ers on
Ġ195 9
à¸²à¸Ħà¸£à¸Ńà¸ļ à¸Ħà¸£
à¸Ĭ à¸ļ
à¸Ł à¸²à¸ģ
à¸¢à¸ĩ à¸ªà¸£à¸°
à¸Ļà¸Ļ à¸²à¸ĩà¸Ĺ
à¸¢à¸¡ à¸Ĭà¸¡
à¸¢à¸ģ à¸Ļ
Ġà¸ŀà¸£à¸° à¸¡à¹Ģà¸«à¸ª
à¸Ļà¸Ħ à¸²à¸£
à¸²à¸Ĥà¸Ńà¸ĩ à¹Ģà¸Ĥà¸²
à¸Ļà¸² à¹ģà¸«
à¸Ļà¸ŀ à¸Ļ
à¸Ńà¸ĩà¸Īà¸²à¸ģ à¸Ľ
à¸¢à¸Ńà¸¡ à¸Īà¸³à¸Ļà¸Ļ
à¸²à¸£à¸²à¸Ĭ à¸§à¸ĩà¸¨
o e
à¸Ļ à¸Ĥà¸Ļ
à¸ĩ à¸ļà¸ª
à¸Ķ à¸ªà¸ķ
à¸Ńà¸Ļ à¹Ģà¸¥
à¸Ħà¸§à¸²à¸¡ à¹ĥà¸ģà¸¥
à¸§à¸¢ à¸ŀà¸¥
à¸ļà¸£ à¸²à¸¢à¸ģà¸²à¸£
à¸¢à¸ĩ à¸ķà¸²à¸¡
à¸® à¸Ńà¸Ļà¸Ķ
Ġ3 50
Ġà¸ģà¸²à¸£ à¸Ĭ
à¹Ģà¸ĺ à¸Ńà¸§
à¹Ħà¸§ à¹Ģà¸§à¸Ńà¸£
à¸ļà¸Ļ à¹Ģà¸Ħà¸£
al a
à¸Ľà¸£à¸°à¸ģà¸²à¸¨ à¹Ģà¸Ľ
Ġà¹ ĺ
à¹ģà¸Ĺà¸Ļà¸£ à¸²à¸©à¸İ
à¸²à¸¡à¸²à¸ģ à¸¡à¸²à¸¢
ne y
Ġà¹Ģà¸¥à¸Ĥ à¸²à¸ĺ
Ġ à¹Ģà¸Ńà¸ģà¸ªà¸²à¸£
à¸į à¹Ĥà¸į
à¸²à¸§ à¸ļ
à¹Ħà¸Ľ à¹ĥà¸Ļà¸Ĺ
à¸¢à¸Ļ à¸¡à¸²à¹ĥà¸Ĭ
à¸Ńà¸¡ à¸²à¸ķ
à¸Ŀ à¸Ļà¸ķà¸ģ
à¹Ģà¸ĺ à¸Ńà¸Ķ
ĠC an
à¸Ńà¸ĩà¸ª à¸Ńà¸Ļ
à¸ĩà¸«à¸¡à¸Ķ à¹Ħà¸Ķ
à¸Ļà¸° à¸£
à¸ģà¸©à¸£ à¸ķ
à¸²à¸ĩà¸¡à¸²à¸ģ à¸¡à¸²à¸¢
à¸ªà¸łà¸²à¸ŀ à¹ģà¸§à¸Ķà¸¥
b um
à¸¡ à¸¥à¸°à¸¥à¸²à¸¢
à¸ļ à¹ģ
à¹ĥ à¸ļà¸ª
à¹Ħ à¸£à¸¡
à¸Ĥ à¸Ńà¸¡
à¸²à¸ĩ à¹Ģà¸Ī
à¸ł à¸²à¸¡à¸«à¸²à¸§
à¹Ģà¸¥ à¸§
à¸¢à¸§ à¸«
à¸Ńà¸ª à¸²à¸£à¸ģ
à¸¢à¸¡ à¹ĥà¸Ļ
à¸ļà¸ª à¸łà¸²à¸ŀ
à¸²à¸ģà¸²à¸£ à¸ķ
à¸Ļà¹ĥà¸Ļ à¸Ī
à¸Ľà¸£à¸°à¸ģà¸Ńà¸ļ à¸ĺ
à¸¡à¸ķ à¸Ńà¸Ļ
à¸Ļà¹Ħà¸Ľ à¸Ń
as k
à¸²à¸Ł à¸ķ
à¸Ļà¹Ĥ à¸Ńà¸ģà¸²à¸ª
à¹ģà¸ĭ à¸£
à¸ģà¸²à¸£à¸Ĺà¸³à¸ĩà¸²à¸Ļ à¸Ĥà¸Ńà¸ĩ
à¸Ńà¸¨à¸²à¸ªà¸Ļ à¸²à¸Ń
à¸ģ à¸²à¸įà¸Īà¸Ļ
à¸ĩ à¸£à¸²à¸¢à¸ģà¸²à¸£
à¸ļ à¹Ģà¸ķ
à¸Ī à¸¥
à¹Ħà¸Ľ à¸ŀà¸£
à¹Ģà¸§ à¸ª
à¸Ĺà¸³ à¸ªà¸ĩà¸Ħà¸£à¸²à¸¡
à¸Ĺà¸²à¸ĩ à¸¨
er r
à¸ŀà¸£à¸°à¸£à¸²à¸Ĭ à¸ģ
or a
à¹ĥà¸Ļà¸ª à¸³à¸Ļ
à¸ķà¸ļà¸Ńà¸¥ à¸Ĭà¸²à¸§
à¸Ļà¸²à¸ĩ à¹ģà¸ļà¸ļ
à¸²à¸ľ à¸ªà¸¡
à¸ķà¸£à¸§à¸Ī à¸§
à¸ģà¸³à¹ģà¸ŀ à¸ĩ
Ġ à¸Ľà¸£à¸°à¸Īà¸³à¸§
à¸ļ à¹ĥà¸Ļà¸Ľà¸£à¸°à¹Ģà¸Ĺà¸¨à¹Ħà¸Ĺà¸¢
à¸Ńà¸ĩ à¸«à¸į
à¸²à¸¡ à¸²à¸Ķ
à¸į à¹ģà¸¥à¸°
à¸§à¸Ļ à¸ļà¸Ļ
ec k
à¸ŀà¸£à¸°à¸£à¸²à¸Ĭ à¸Ńà¸³à¸Ļà¸²à¸Ī
Ġà¸Ĥà¸Ńà¸ĩ à¸ªà¸«à¸£
à¸Ļà¸Ĺà¸²à¸ĩ à¸Ĥ
al s
à¸ªà¸²à¸£ à¸ģ
à¸²à¸ĸ à¸§à¸²à¸¢
à¹Ĥà¸Ħà¸£ à¸ĩà¸Ĥ
Ġà¸Ħà¸§à¸²à¸¡ à¹Ģà¸Ĭ
à¸ĩà¸Ħà¸¡ à¸§
Ġp er
Ġà¸Īà¸Ļ à¹Ģà¸ģ
à¸Ķà¸³à¸£à¸ĩ à¸ŀà¸£à¸°à¸Ń
Ġb l
à¸§à¸¡à¸¡ à¸ĩà¸ģ
à¸Ńà¸ªà¸²à¸£ à¸¡à¸§à¸¥à¸Ĭà¸Ļ
Ġ195 4
à¸²à¸ı à¸ģà¸£à¸£à¸¡
à¸²à¸Ķà¸³à¸£à¸ĩ à¸£à¸²à¸Ĭà¸²à¸Ļ
C ar
à¸ģ à¸Ļà¸ģ
à¸ķ à¸Ļà¸²
à¸²à¸ĩ à¹Ģà¸«à¸¡
à¸²à¸ĩ à¹ģà¸£à¸ĩ
à¸Ńà¸¢ à¸«à¸¥
à¸ģà¸ª à¸²à¸¡à¸²à¸£à¸ĸ
à¸Ľà¸£à¸°à¸ģà¸Ńà¸ļ à¸Ĥà¸Ńà¸ĩ
Ġà¸«à¸¥ à¸§à¸ĩ
ĠB ar
it ch
à¸ľà¸¥à¸ĩà¸²à¸Ļ à¸ģà¸²à¸£à¹ģà¸ªà¸Ķà¸ĩ
Ġà¹Ģà¸« à¸¢
à¸Ńà¸Ļà¸£ à¸Ńà¸ĩà¸Ĭà¸Ļà¸°à¹Ģà¸¥
P A
à¸Ļ à¸³à¸Ļ
à¸ģ à¸ģà¸²à¸£à¸Ĺ
à¸§ à¹Ģà¸ªà¸Ķ
à¸Ķ à¹Ħà¸Łà¸Ł
à¸Ńà¸ģ à¸¥à¸Ńà¸ĩ
à¸Ħà¸§à¸²à¸¡ à¸ªà¸Ļ
à¸²à¸Ħ à¸ķ
Ġà¸ĭ à¸²à¸¡
Ġà¹Ĥà¸Ķà¸¢ à¹ĥà¸Ļà¸Ĭ
Ġà¹Ĥ à¸£à¸ª
à¸ļà¸Ļ à¸ĸà¸Ļà¸Ļ
à¸ĩà¸Īà¸²à¸ģ à¸ľ
ĠC ity
à¸Ħà¸§à¸²à¸¡à¸ª à¸§à¸¢à¸ĩà¸²à¸¡
à¸ļà¸ļà¸Ĺ à¹Ĥà¸Ķà¸¢
à¸Ľà¸£à¸°à¸ģà¸§ à¸Ķà¸£
Ġà¸ļà¸Ĺ à¸Ľà¸£à¸°à¸ŀ
p s
Ġ à¹ĥà¸«à¸¡
à¹ģ à¸Ļà¸Ľ
à¸²à¸ĩ à¸£à¸°à¸Ķ
à¸²à¸Ļ à¹Ģà¸Ħà¸£
à¸© à¸ķ
à¸¢à¸Ļ à¸¡à¸²à¹Ģà¸Ľ
Ġà¸ģà¸²à¸£ à¸Ń
à¸Ļà¸ģà¸²à¸£ à¸Ķ
ĠS ec
à¸Ļà¸²à¸¢ à¸Ī
el s
à¸²à¹Ħà¸Ľ à¸ª
Ġà¸Īà¸Ļ à¸ģà¸¥à¸²à¸¢à¹Ģà¸Ľ
à¸Ľà¸£à¸°à¸Ĭà¸²à¸ģà¸£ à¸ª
à¸Ļà¹ģà¸Ķ à¸Ļà¸ª
à¹ģà¸ªà¸§à¸ĩ à¸ļ
à¸¥à¸²à¸Ī à¸¥
' t
p ar
Ã ¨
à¸Ļ à¸ļà¸²à¸ĩà¸ª
à¸Ń à¹ĥà¸«à¸į
à¸§ à¸Ńà¸Ļ
à¸²à¸ĩ à¸ŀà¸¥
à¸ĭ à¸Ń
à¸Ńà¸¢ à¸Ńà¸Ńà¸ģà¸¡à¸²
à¸Ļà¸ª à¸°à¹Ģà¸Ĺ
à¹Ģà¸Ń à¸Ī
Ġà¸Ļ à¸³à¸¡
à¸¢à¸§ à¹Ģà¸Ĥ
Ġà¹Ĥ à¸¡à¸£
à¸Ľà¸£à¸°à¸ģ à¸Ńà¸ļà¸£
ĠH igh
à¸²à¹Ģà¸Ĺ à¸§
à¸Ħà¸²à¸Ķ à¸«à¸§
Ġà¹Ĥà¸Ī à¸Ļà¸ª
à¸²à¸ĩà¸ĸ à¸²à¸§à¸£
à¸ªà¸¢ à¸Ńà¸ĩà¸Ĥà¸§
à¸ªà¸¡à¸£à¸£à¸ĸ à¸łà¸²à¸ŀ
m in
Ã Ń
à¸Ļ à¸īà¸²à¸ģ
à¸¥ à¸²à¸¢à¸Ļ
à¸ļ à¸Ļà¸ķ
à¸Ńà¸¡ à¸²à¸¢
à¸Ĺà¸£ à¸Ńà¸Ļ
à¸ĩà¸ķ à¸¥à¸Ńà¸Ķ
à¹Ĥà¸ķ à¹Ĥà¸¢à¸ķ
à¸Īà¸Ļ à¸ģà¸¥à¸²à¸¢à¹Ģà¸Ľ
à¸ĩà¸Ĥà¸Ńà¸ĩ à¸Ĭ
à¸§à¸£ à¸Ļ
à¸²à¸Īà¸° à¸ª
à¸ĩà¹ģà¸£à¸ģ à¹Ĥà¸Ķà¸¢
ĠP A
à¸Ľà¸£à¸°à¸ģà¸²à¸¨ à¸Ī
Ġà¸Ĺà¸£à¸ĩ à¹Ħà¸Ķ
Ġà¸Īà¸Ļ à¸ģà¸§
Ġà¸«à¸²à¸ģ à¸¡
à¸Ļ à¹Ģà¸īà¸ŀà¸²à¸°
à¸Ń à¹Ģà¸Ł
à¸ķ à¸³à¸Ļ
à¹ĥà¸Ļ à¹Ĥà¸Ħà¸£à¸ĩà¸ģà¸²à¸£
à¹Ģà¸Ľ à¸į
à¸²à¸§ à¹Ĩ
à¸Īà¸° à¸Ńà¸Ńà¸ģ
à¸Ńà¸¡ à¸²à¸ª
à¹Ģà¸Ħà¸£ à¸Ķ
à¸ªà¸²à¸¡à¸²à¸£à¸ĸ à¸Ķ
à¸ļà¸Ļ à¸«à¸Ļ
Ġà¸ķà¸²à¸¡ à¸¡à¸²à¸Ķ
Ġà¹Ģà¸§ à¸Ĺ
à¸¡à¸° à¸ŀà¸£
à¹Ĥà¸£à¸Ľ à¸²à¸¥
ad y
à¸Ńà¸ĩà¸Ń à¸ĺ
Ġ246 3
u rop
à¸Ļ à¸Ļà¸ª
à¸Ń à¹Ģà¸īà¸¥
à¸ģ à¹Ħà¸ģ
à¸Ĺ à¸Ħ
à¸Ľ à¸łà¸²à¸ŀ
à¸Ńà¸ĩ à¸Ńà¸³à¸Ļà¸²à¸Ī
à¹ĥà¸Ļ à¸Ĥà¸ĵà¸°à¹Ģà¸Ķ
à¸ŀà¸£à¸° à¸Ńà¸ł
à¸Ł à¸ģ
à¸Ńà¸¡ à¸Ī
à¸²à¸ķ à¸²à¸ģà¸ª
à¸¥à¸ĩ à¸ķ
à¸§à¸¡ à¸Ħ
à¸§à¸¡ à¹Ħà¸ŀà¸£
Ġà¹Ĥà¸Ķà¸¢ à¸ŀà¸£à¸°à¸Ńà¸ĩà¸Ħ
à¸ĩà¸²à¸Ļ à¸ķ
à¸ĩà¸Ħ à¸²à¸¢à¸Ļ
à¸ŀà¸¥ à¸¨à¸²à¸ªà¸ķà¸£
à¸ģà¸ª à¸ĩà¸Ĩ
à¸Ķà¸ª à¸ģà¸¥à¸Ļà¸Ħà¸£
ro c
à¸ªà¸łà¸²à¸ ª
à¹ģà¸ķà¸ģ à¹ģà¸¢à¸ģ
à¸ĩà¸Ĥà¸Ļà¸²à¸Ķ à¹ĥà¸«à¸į
à¸ªà¸³à¸£ à¸²à¸į
à¸ĩ à¹Ħà¸Ĺ
à¸° à¸«à¸§
à¸ŀ à¹Ħà¸Ķ
à¸Ńà¸ĩ à¹Ģà¸Ĺà¸¨
à¸²à¸ĩ à¸¢à¸²à¸§
à¸²à¸¡ à¸²à¸Ļ
à¸ģà¸£ à¹Ħà¸Ķ
à¸ŀà¸£à¸° à¸§à¸£
à¹Ģà¸Ĥ à¸²à¸ģà¸¥
Ġà¹ĥà¸Ļ à¸Ĥ
Ġà¹ĥà¸Ļ à¸£à¸Ńà¸ļ
à¸ªà¸³ à¸Ń
à¸ģà¸£à¸£à¸¡ à¸ģà¸²à¸£à¸ª
à¹Ĥà¸ģ à¸¨à¸¥
à¹Ĥà¸Ħ à¸Ķ
à¸ĩà¸ļ à¸§à¸£
à¸Ńà¸Ĥà¸Ńà¸ĩ à¸£
à¸Ńà¸Ł à¸Ł
à¸§à¹Ģà¸Ńà¸ĩ à¹Ģà¸Ľ
Ġà¹ĥà¸Ļà¸Ĳà¸²à¸Ļà¸° à¸Ĺ
Ġà¹Ģà¸Ħà¸¢ à¸Ķà¸³à¸£à¸ĩà¸ķà¸³à¹ģà¸«à¸Ļ
à¸Ńà¸¨à¸²à¸ªà¸Ļ à¸²à¸ŀ
à¸ĩà¸Ĥà¸¥ à¸²à¸Ļà¸Ħà¸£
C H
i i
z e
à¸ģ à¸Īà¸°à¸ķ
à¸ģ à¸Ľà¸¥à¸Ķ
à¸¡ à¸£à¸ĵà¸łà¸²à¸ŀ
à¸¢ à¸Ľà¸£à¸°à¸¡à¸²à¸ĵ
à¸ģà¸²à¸£ à¸ģà¸³à¸«à¸Ļ
à¸Ļà¸Ĺ à¸²à¸ª
à¸ĵ à¸ģ
Ġà¸Ń à¸²à¸Ĭ
Ġà¸«à¸¥ à¸§à¸ĩà¸Ľ
à¹Ĥà¸Ħ à¸Ľ
à¸Ļà¸ŀà¸£à¸° à¸¡à¹Ģà¸«à¸ª
Ġà¸ĺ à¸²à¸ķ
à¸Ļà¸Ļà¸²à¸ĩ à¹ģà¸ļà¸ļ
p e
à¸Ń à¸¨à¸²à¸¥
à¸ģ à¸¨à¸£
à¸ĩ à¸£à¸²à¸Ĭ
à¸§ à¸ī
à¸¢ à¸²à¸Ĥà¸Ńà¸ĩ
à¸ķ à¸²à¸ģ
à¸ŀ à¸Ħà¸£
à¸³ à¹Ħà¸ŀ
à¹ĥà¸Ļ à¹Ģà¸«à¸ķ
à¸ŀà¸£à¸° à¸«
à¸¢à¸Ļ à¸Ħà¸£
à¸Ĺà¸³ à¸ķ
à¸ľà¸¥ à¹ĥà¸«
à¸Ļà¸ģà¸²à¸£ à¸Ĥ
à¸ªà¸²à¸¡à¸²à¸£à¸ĸ à¹Ģà¸Ķ
à¸ļà¸Ńà¸¥ à¸ķ
à¸Ĥà¸Ļà¸²à¸Ķ à¸Ĥà¸Ńà¸ĩ
à¸²à¸Ľà¸£à¸° à¸§
à¸ĩà¹ģà¸¥à¸° à¹Ģà¸Ľ
à¸Ħà¸ĵà¸°à¸ģà¸£à¸£à¸¡à¸ģà¸²à¸£ à¸ļà¸£
à¸Ħà¸§à¸²à¸¡à¸ķ à¸²à¸¢
à¸§à¹Ģà¸£ à¸²à¸°
Ġà¸ªà¸²à¸¢ à¸ģà¸²à¸£à¸ļ
Ġà¹Ħà¸Ĺà¸¢ à¸¥
à¸ģà¸©à¸²à¸ŀ à¸¢à¸²à¸ļà¸²à¸¥
Ġ à¸īà¸²à¸ģ
à¸ģ à¹Ģà¸Ħà¸¥
à¸¡ à¸¡à¸Ļ
à¸ķ à¸«à¸¥
à¸Ī à¸«à¸¥
à¸²à¸§ à¹ģà¸¥à¸°
à¸ģà¸£ à¸¡à¸ª
à¹Ģà¸¥ à¸Ļà¸ª
à¹Ģà¸Ī à¸Ļà¸Ĺ
à¸Ĺà¸³ à¸ľ
Ġà¹Ĥà¸Ķà¸¢ à¹Ģà¸Ĭ
à¸ĩà¸ª à¸Ńà¸ĩà¸Ĺ
à¸ĩà¸ª à¸Ńà¸ĩà¸Ļ
Ġà¸£ à¸²à¸ģ
à¸ĩà¸Ĥà¸Ńà¸ĩ à¹Ĥà¸¥à¸ģ
à¸ĩà¹ģ à¸Ķà¸ĩ
à¸£à¸§à¸¡ à¹Ģà¸Ĥ
ĠT echn
at us
à¸ļà¸ķ à¸£à¸°à¸ģ
Ġà¹ģà¸¡ à¸Ħ
Ġà¸Ńà¸Ńà¸ģ à¸Īà¸²à¸ģ
Ġà¸Ńà¸Ńà¸ģ à¸¡à¸²
à¸Ļà¸ķà¸£ à¸ĩà¸ķ
à¸¢à¸Ļà¹ģà¸Ľà¸¥à¸ĩ à¸Ĺ
ĠO f
à¹Ĥà¸ļà¸£à¸²à¸ĵ à¸Ĺ
à¸©à¸Ĳà¸²à¸Ļ à¸Ńà¸¢
à¸ľà¸¥à¸ģà¸£à¸°à¸Ĺ à¸ļ
only include
" âĢĿ
0 8
b e
r id
à¸Ńà¸ĩ à¸ģà¸³à¹Ģà¸Ļ
à¸³ à¹ģà¸«
à¸Ńà¸Ļ à¸²à¸¢
à¹Ģà¸¥ à¸Ħ
à¸ģà¸¥ à¸²à¸ª
Ġà¸¡ à¸²à¸ĭ
Ġà¸¡ à¸²à¹ĥà¸Ĭ
à¸Ńà¸ļ à¸Ķ
à¸Ļà¸ķ à¸Ńà¸Ļà¸Ĺ
à¸¢à¸ĩ à¹Ģà¸Ĺ
Ġà¹Ĥà¸Ķà¸¢ à¸Ĺà¸²à¸ĩ
à¸²à¸Ķ à¸Ĺ
à¸Ļà¸Ń à¸²à¸ģà¸²à¸£
à¹Ĥà¸Ń à¹Ģà¸Ķ
à¸Ļà¸²à¸¢ à¸§
ac ter
à¸ĩà¸ĩà¸²à¸Ļ à¹Ħà¸Łà¸Ł
à¸Ļà¸Ħà¸Ļ à¸Ń
ĠU p
Ġ193 3
à¸§à¸²à¸Ķ à¸łà¸²à¸ŀ
m et
à¹Ĥ à¸Ļà¹Ģà¸Ľ
à¸Ńà¸¢ à¸Ńà¸Ńà¸ģà¹Ģà¸Ľ
à¸²à¸§ à¸«à¸¡
Ġà¸ģà¸²à¸£ à¸Ľà¸£
à¸łà¸²à¸© à¸²à¸ĭ
à¹Ħà¸§ à¸ģ
Ġà¹Ģà¸Ĥ à¸²à¹Ħà¸¡
à¸ļà¸Ļ à¹Ģà¸ª
à¸Ļà¸Ĺà¸²à¸ĩ à¸¡à¸²à¸¢
ĠC ent
à¸£à¸ĸ à¸Ī
ol ution
à¸ľà¸¥à¸ĩà¸²à¸Ļ à¸łà¸²à¸ŀà¸¢à¸Ļà¸ķà¸£
à¸įà¸« à¸²à¸ģ
ent s
Ġà¹Ħà¸Ľ à¸ª
Ġ246 8
à¸Ļà¸£à¸ĸ à¸¢à¸Ļà¸ķ
à¸Ļ à¸£à¸ģ
à¸Ń à¸«à¸§
à¸Ń à¸²à¸ļ
à¸Ķ à¹Ĥà¸ŀà¸ĺ
à¸Ĺ à¹Ģà¸Ľ
à¸ļ à¹Ĥà¸Ľà¸£à¸Ķà¹Ģà¸ģà¸¥
à¸Ħ à¸¡à¸Ĥà¸Ńà¸ĩ
à¸Ĭ à¸²à¸¥à¸ª
à¸²à¸Ĺ à¸°à¹Ģà¸¥
à¹Ģà¸ļ à¸²à¸«à¸§à¸²à¸Ļ
à¸ĩà¸Ĥ à¸¢à¸²à¸¢
à¸§à¸ģ à¸ģ
ĠM c
à¹Ħà¸Ĥ à¸§
ĠG old
ĠH ar
à¸ģà¸£à¸£à¸¡à¸ģà¸²à¸£ à¸ľ
os a
à¸²à¹Ģà¸Ĥ à¸²à¹Ģà¸Ľ
her e
à¸Ķà¸ŀà¸£à¸£à¸Ħ à¹Ģà¸ŀ
à¸²à¸Ľà¸£à¸°à¹Ģà¸Ĺà¸¨ à¹Ħà¸Ĺà¸¢
Y P
à¸¡ à¹Ģà¸ļà¸£
à¸£à¸° à¸ŀ
à¸Ńà¸¡ à¸ĸ
à¸²à¸¥ à¸ĩà¹Ħà¸Ľ
Ġà¹ĥà¸Ļ à¸Īà¸³à¸Ļà¸§à¸Ļà¸Ļ
à¸ķà¸²à¸¡ à¸§
à¸Ľà¸£à¸°à¸Ĭ à¸²à¸£
à¹Ĥà¸Ļ à¸ĭ
Ġà¸Īà¸²à¸ģ à¸ģà¸²à¸£à¸Ĺ
à¹Ĥà¸ĭ à¹Ģà¸Ķ
à¸Ļà¸²à¸¢ à¸Ħà¸§à¸²à¸¡
Ġà¹Ħ à¸Ĭà¸¢
à¸ŀà¸£à¸£à¸Ħ à¹Ģà¸ŀ
à¸²à¹Ħà¸Ľ à¸Ķ
Ġà¸Ħà¸§à¸²à¸¡ à¸ľ
à¸Ħà¸Ħà¸¥ à¸Ń
ent al
à¸Ļà¸Ħà¸§à¸²à¸¡ à¸Īà¸£
à¸¡à¸Ńà¸ļ à¸«à¸¡à¸²à¸¢à¹ĥà¸«
à¸Ļà¸Ķà¸£ à¸¨
à¸ģà¹Ĥà¸¥à¸ģà¸Ĺ à¸Ńà¸ĩà¸Ħà¸³
R E
à¸Ļ à¸²à¸Ļà¸Ĺ
à¸ģ à¹ĥà¸ķ
à¸§ à¹Ģà¸Ħà¸£
à¸Ķ à¸²à¸«
à¸Ī à¸ŀ
à¸Ĭ à¸£à¸£
à¸³ à¸«
à¸²à¸¢ à¸«à¸¥
Ġà¹ģà¸¥à¸° à¹Ģà¸Ħà¸¢
à¹Ģà¸Ĥ à¸²à¸«
à¸Īà¸° à¹Ģà¸Ĭ
à¸¥à¸ĩ à¸§
à¹Ģà¸Ń à¸²à¸Ĭ
à¸¢à¸ĩ à¹Ģà¸ŀà¸¥à¸ĩ
à¸Ĺà¸³ à¸Ńà¸°à¹Ħà¸£
à¸Ĺà¸²à¸ĩ à¸Ħà¸¥
à¹Ģà¸Ńà¸ĩ à¹Ħà¸Ķ
es e
ĠP ark
re ak
ĠL ife
à¸Ļà¸Ħà¸§à¸²à¸¡ à¸¥
à¸§à¸¢à¸Ħà¸§à¸²à¸¡ à¸Ĭ
ĠAss ociation
Ġà¸ķà¸²à¸£à¸²à¸ĩ à¹Ģà¸¡à¸ķà¸£
ĠInstit ute
à¸Ń à¸Ľà¸£à¸°à¸ªà¸²à¸Ĺ
à¸ĩ à¸Ľà¸£à¸°à¸ª
à¸ĩ à¸¥à¸ļ
à¸ĩ à¸ŀà¸£à¸°à¸ŀ
à¸ĩ à¸Ĺà¸²à¸ĩà¸Ķ
à¸Ķ à¸²à¸Ńà¸ĩà¸Ħ
à¸Ķ à¸¥à¸³à¸Ľà¸²à¸ĩ
à¸Ńà¸ĩ à¹ģà¸Ħà¸¥
à¸ģà¸²à¸£ à¸Ľà¸£à¸°à¸Ĺ
à¹ģà¸¥ à¸ķ
Ġà¹ģà¸¥à¸° à¸¡à¸«à¸²à¸§
à¸ĩà¸ª à¸Ńà¸ĩà¸ķ
à¸Ļà¸ģà¸²à¸£ à¸ģà¸£à¸°à¸Ĺà¸³
à¸ĩà¸ģà¸²à¸£ à¹Ģà¸Ľà¸¥
à¸§à¸£ à¸²à¸£à¸²à¸¡
à¹ĥà¸Ļà¸ª à¸²à¸Ĥà¸²à¸§
à¸Ļà¹Ħà¸Ľ à¹Ģà¸Ľ
Ġà¸Ħà¸§à¸²à¸¡ à¸Ķ
ĠI II
à¸ĩà¸Ńà¸Ńà¸ģ à¸Ńà¸²à¸ģà¸²à¸¨
Ġà¸ªà¸²à¸Ĥ à¸²à¸ģà¸²à¸£
th er
Ġ195 7
D e
W WE
n et
à¸Ķ à¹Ĥà¸Ĺà¸£à¸¡
à¸Ńà¸ĩ à¸Ľà¸£à¸°à¸Ĭ
à¸Ńà¸Ļ à¹Ĥà¸ķ
à¸²à¸§ à¸ĩ
à¸ģà¸£ à¸²à¸Ļà¸Ĥà¸Ńà¸ĩ
à¸Ħà¸§à¸²à¸¡ à¹Ģà¸Ī
à¹Ģà¸Ĭ à¸Ļ
à¸ĩà¸Ĺ à¸§
à¸ĩà¸Īà¸²à¸ģ à¸Ń
à¸ļà¸²à¸ĩ à¸ģà¸¥
à¸§à¹Ħà¸Ľ à¸Ĥà¸Ńà¸ĩ
à¸ĩà¸ļ à¸Ńà¸ģà¸§
à¸Ķà¸Ĥà¸Ńà¸ĩ à¸Ń
à¸§à¸¥à¸°à¸Ħà¸£ à¹ĥà¸Ļ
Ġ193 7
à¹ģà¸Ńà¸Ľ à¸ŀà¸¥
à¹Ģà¸Łà¸ĭ à¸ļ
à¸ģ à¹ĥà¸ª
à¸ģ à¸Ľà¸£à¸°à¸Ķ
à¸§ à¸Ĭà¸Ļ
à¹ĥà¸Ļ à¸ŀà¸£
à¸²à¸ĩ à¹Ģà¸«à¸¥
à¸Ńà¸¢ à¹Ģà¸Ĺ
à¸į à¸ľ
Ġ2 20
à¸ķà¸£ à¸²à¸Ĭ
à¸ģà¸¥ à¸Ķ
à¸ļà¸£ à¸Ńà¸Ķ
à¸Ļà¸ķ à¸ģà¸ķ
à¸£à¸²à¸Ĭ à¸§à¸£à¸§
Ġà¹Ĥà¸Ķà¸¢ à¸ªà¸£
à¸¡à¸« à¸į
à¹Ĥà¸Ĺ à¸Ħà¸Ńà¸¥
Ġà¹Ħ à¸ŀ
à¹ģà¸¢à¸ģ à¸¢
à¸Ļà¸¡à¸² à¹Ģà¸¥
à¹Ħà¸Ń à¹Ģà¸Ĺ
à¸Ńà¸ĩà¸£à¸²à¸Ĭ à¸¢
à¸Ļà¸²à¸ĸ à¹Ģà¸Ńà¸¥
Ġà¸Ńà¸Ńà¸ģà¸Ńà¸²à¸ģà¸²à¸¨ à¸Ħà¸£
Ġ195 6
Ġà¹Ģà¸Ķà¸Ńà¸° à¸¡
Ġà¸£à¸ĸ à¹Ħà¸Ł
à¸Ĳà¸Ń à¸²à¸«à¸£
à¹Ĥà¸¡à¸ª à¸£à¸ģ
T D
à¸§ à¸ŀà¸£
à¸Ĺ à¸²
à¸ª à¸ļà¸²à¸¢
à¸« à¸²à¸Ħ
à¸Ħ à¸¤à¸«à¸²à¸ªà¸Ļ
à¸Ńà¸£ à¸§à¸¡
à¹Ħà¸Ľ à¸Ĺà¸²à¸ĩ
Ġà¸ª à¹ģà¸ķ
à¸§à¸ĩ à¸Ĥà¸Ńà¸ĩ
Ġà¸ģà¸²à¸£ à¹ģà¸ķ
à¸ĩà¸ģà¸²à¸£ à¸Ľà¸ı
à¸Ļà¸²à¸Ļ à¸ĸ
Ġà¹Ĥà¸Ī à¸§
Ġ245 6
à¸ªà¸ĩ à¸§à¸Ļ
à¸ķà¸£ à¸²à¸Ĺ
à¸Ħà¸§ à¸²à¸¢
à¹Ģà¸Ń à¸²à¸Ĺ
à¸Ĺà¸£ à¸²à¸Ļà¸ª
à¸ĩà¸¡ à¸§à¸¥
ĠF e
à¸Ńà¸³à¹Ģà¸ł à¸Ńà¸ŀ
à¸Ńà¸³à¹Ģà¸ł à¸Ńà¹ģà¸¡
à¹Ĥà¸£à¸Ľ à¸Ĺ
à¹ģà¸Ł à¸¡
à¹ģà¸Ńà¸Ļ à¸Ł
Ġ247 0
ou g
M y
u le
à¸¢ à¸ģà¸£à¸£à¸¡
à¸ģà¸¥ à¸²à¸¢à¸ŀ
à¹ģà¸ļà¸ļ à¸Īà¸³à¸¥à¸Ńà¸ĩ
à¸¥à¸° à¸Ĭà¸Ļ
à¸Īà¸Ī à¸²à¸£à¸°
à¹Ĥà¸¥à¸ģ à¸Ļ
à¸ģà¸©à¸² à¹Ģà¸£
à¸Ńà¸¡à¸² à¹Ģà¸Ĥà¸²à¹Ħà¸Ķ
à¸Ńà¸ģà¸²à¸£ à¸ģ
à¸Ľà¸ģà¸Ħà¸£à¸Ńà¸ĩ à¸Ķ
à¸Ļà¸« à¸²
à¹Ĥà¸£à¸Ħ à¸Ī
Ġc ol
à¹ģà¸Ł à¸Ļà¹Ģà¸ŀà¸¥à¸ĩ
à¸²à¸Ĭà¸²à¸¢ à¸§
à¸ģà¹ģà¸ªà¸Ķà¸ĩ à¸Ĭ
Ġ247 1
Ġà¸Ħà¸³ à¸ª
ug h
à¸Ķà¸® à¸Ńà¸ķ
à¹Ħà¸Łà¸Ļà¸Ńà¸¥ à¹ģà¸Łà¸Ļà¸ķà¸²à¸ĭ
à¸² à¹Ģà¸Ĺà¸ŀ
à¸Ķ à¹Ģà¸ŀà¸¥
à¸ª à¸Ńà¸£
à¸ģà¸²à¸£ à¹ģà¸¢à¸ģ
à¸²à¸Ļ à¸Ĭà¸²à¸¢
Ġà¹ģà¸¥à¸° à¸ļà¸²à¸ĩà¸ª
à¹Ģà¸ª à¸Ļà¸²
à¸Ļà¸ķ à¸²
à¸ģà¸£à¸° à¸«à¸¡
à¸ģà¸ª à¸ĩà¸Ħà¸£à¸²à¸¡
à¸Ļà¹ĥà¸Ļ à¸ķ
à¸ģà¸¥à¸²à¸ĩ à¸§
à¸Ļà¸²à¸¡ à¸Ľà¸²à¸ģ
à¸Ńà¸²à¸Ī à¹ĥà¸Ĭ
à¹ Ĺ
à¸¥ à¹Ģà¸ĩ
à¸Ķ à¸Ľà¸£à¸°à¸Ĭ
à¸ķ à¸ģà¸§
à¸Ħ à¸¢
à¸Ńà¸ĩ à¹ģà¸Ĥ
à¹Ģà¸£ à¸ķà¸ķ
à¸Īà¸° à¸ŀà¸ļ
à¸Ńà¸¡ à¸²à¸Ľ
à¸Ńà¸ļ à¸ģ
à¸Ĺà¸³ à¸ģà¸²à¸£à¸£
à¸Ńà¸Ķ à¸ģ
à¸¥à¸° à¸Ĥ
à¸ĩà¸ģà¸²à¸£ à¸ŀ
à¸Īà¸Ļ à¸²à¸Ļ
à¸Īà¸Ļ à¹Ħà¸¡
à¸ĩà¹Ģà¸ģ à¸©
à¸Ńà¸° à¹Ħà¸£à¸ģ
à¸ŀà¸§à¸ģ à¸Ĺ
à¸Ĺà¸³à¸ĩà¸²à¸Ļ à¹ĥà¸«
à¸Ńà¸ĩà¸ģà¸²à¸£ à¹ĥà¸Ĭ
à¸²à¹Ħà¸Ľ à¹Ģà¸¥
Ġn ucle
à¹Ħà¸ķà¸£ à¸łà¸²à¸Ħ
à¹Ħà¸¡à¹Ĥà¸Ħà¸£ à¸ĭà¸Ńà¸Łà¸Ĺ
à¸Ĭà¸Ńà¸Ľ à¹ģà¸«
à¸Ń à¸Ĭà¸Ļ
à¸ģ à¸ī
à¸ģ à¹Ģà¸ľ
à¸ģ à¹ĥà¸Ħà¸£
à¸ĩ à¸°à¸§à¸°
à¸¥ à¸Ńà¸ªà¹ģà¸Ńà¸Ļà¹Ģà¸Īà¸¥
à¹ĥà¸Ļ à¸ĺà¸£à¸£à¸¡à¸Ĭà¸²à¸ķ
à¸Ĥà¸Ńà¸ĩ à¹Ģà¸¢à¸Ńà¸£à¸¡à¸Ļ
à¸Ńà¸Ļ à¹Ħà¸§
à¸Ńà¸¢ à¹ģà¸¥à¸°
à¸Ńà¸¡ à¸²à¸Ļ
à¸Ļà¸ª à¸³à¹Ģà¸£
à¸§à¸¡ à¸ļ
à¸ªà¸²à¸¡à¸²à¸£à¸ĸ à¹Ģà¸Ľà¸¥
à¸ŀà¸£à¸°à¸£à¸²à¸Ĭ à¸ģà¸£à¸ĵ
à¹Ĥà¸ķ à¹Ģà¸Ļ
à¹Ģà¸§à¸ĵ à¸Ń
Ġà¹Ħ à¸¥
os is
à¸ļà¸Ńà¸ģ à¸ģ
à¸ªà¹Ģà¸ķ à¹Ģà¸Ķ
à¸Ĺà¸²à¸ĩà¸ģà¸²à¸£ à¹Ģà¸ģà¸©à¸ķà¸£
à¸ĩ à¹Ģà¸§à¸¥
à¸¢ à¹Ģà¸Ĺ
à¸Ĥà¸Ńà¸ĩ à¸Ńà¸Ļ
à¸Ħà¸§à¸²à¸¡ à¹Ģà¸«à¸¡à¸²à¸°à¸ªà¸¡
à¸µà¹ī .
à¸¢à¸Ļ à¹Ħà¸¡
à¹Ĥà¸¥ à¸ģà¸Ķ
à¸«à¸¥à¸²à¸¢ à¸Ľà¸£à¸°à¸ģà¸²à¸£
à¸Ńà¸Ń à¸³à¹Ģà¸ł
à¸ĩà¸«à¸¡à¸Ķ à¸¡
us s
à¹Ĥà¸Ĭ à¸Ħà¸Ĭ
Ġà¸ģà¸£à¸° à¹ģà¸ª
à¸ªà¸²à¸§ à¸Ļ
200 6
Ġà¹Ĥà¸Ľà¸£ à¹ģà¸ģà¸£à¸¡
Ġà¸Ĭà¸Ļà¸° à¸Ļ
à¸Ļ à¹Ģà¸ī
à¸ģ à¹Ĥà¸Ħ
à¸ģ à¹ģà¸¢à¸ģ
à¸¡ à¹ģà¸ģ
à¸Ķ à¸Ļà¸£à¸²à¸ĺ
à¸ª à¸ľ
à¸Ħ à¹ģà¸¥à¸°
à¹Ĥà¸Ķà¸¢ à¸Ńà¸²à¸¨
à¸§à¸Ļ à¸Ľà¸¥à¸²à¸¢
à¸Ĺà¸²à¸ĩ à¸ģà¸²à¸£à¸Ħ
à¸Ļà¹ĥà¸Ļ à¸«à¸¡
Ġà¸¢ à¸²à¸¡
à¹Ĥà¸Ħà¸£ à¸ĩà¹Ģà¸£
à¸Ĵà¸Ļ à¸²à¸ŀ
à¸²à¹ģà¸¥à¸° à¸Ń
à¸ģà¸²à¸£à¸ļ à¸³à¸ļ
à¸ģà¸«à¸¥ à¸²à¸Ļ
A d
à¸Ļ à¹Ĥà¸£à¸ĩà¸ŀà¸¢à¸²à¸ļà¸²à¸¥
à¸¡ à¹Ģà¸Ľà¸¥
à¸ª à¸Ńà¸ĩà¸ª
à¹Į âĢĭ
à¹ĥà¸Ļ à¹Ģà¸ª
à¹ģà¸¥à¸° à¸«à¸į
à¸ģà¸£ à¹ģà¸«
à¸£à¸²à¸Ĭ à¹Ģà¸Ī
Ġà¹Ĥà¸Ķà¸¢ à¸ĭ
à¸²à¸Ķ à¸Ļ
à¸Ĺà¸²à¸ĩ à¸ģà¸²à¸£à¸Ĺ
Ġà¸§ à¸²
à¸²à¸ŀ à¸ļà¸ģ
à¸Ļà¹ĥà¸Ļ à¸Ľà¸£à¸°à¹Ģà¸Ĺà¸¨à¹Ħà¸Ĺà¸¢
à¸ªà¸ķ à¸²à¸¥
à¸Ĥà¸Ļà¸²à¸Ķ à¸ķ
Ġà¹Ģà¸Ħ à¸¢à¹Ħà¸Ķ
Ġà¸Ľà¸£à¸°à¹Ģà¸Ĺà¸¨ à¸Ł
à¸ĩà¸Ħà¸¡ à¹ģà¸¥à¸°
à¸ķà¸³à¸ļà¸¥ à¸ļà¸²à¸ĩ
à¸Ķà¸Ħà¸§à¸²à¸¡ à¸ªà¸²à¸¡à¸²à¸£à¸ĸ
à¸ķà¸¢à¸ģà¸£à¸£à¸¡ à¸Ĺ
ĠAr t
ĠPro gram
à¸² à¹Ģà¸ľ
à¸Ń à¸Ĥà¸Ńà¸ĩà¸ª
à¸§ à¹ģà¸Ĺà¸Ļà¸Ĺ
à¸Ĺ à¸ľ
à¸« à¸²à¹Ħà¸Ķ
à¸ŀ à¸Ĥ
à¸³ à¹Ģà¸Ĭ
à¹ģà¸¥ à¸Ļ
à¸ŀà¸£à¸° à¸¨
Ġà¸Ħ à¸²à¸¥
Ġà¹ĥà¸Ļ à¹Ģà¸§à¸¥à¸²
Ġà¹Ĥà¸Ķà¸¢ à¸Ńà¸Ńà¸ģà¸Ńà¸²à¸ģà¸²à¸¨
à¸²à¸« à¸°
à¹Ģà¸ĭ à¸ķà¸ª
à¸Ľà¸¥ à¸²à¸Ļ
à¸Ķà¸ķ à¸²à¸ģ
Ġà¸Ĥà¸Ńà¸ĩ à¸ķ
à¸Ĺà¸£à¸ĩ à¸¢
Ġ9 6
à¸Ļà¹Ĥà¸Ķ à¸£
à¸Ķà¸²à¸£ à¸²à¸¡
Ġ245 3
à¸ŀà¸Īà¸Ļ à¸²à¸Ļ
à¸Ľà¸£à¸°à¸ªà¸²à¸Ļ à¹Ģà¸ª
à¸Ļ à¸Ľà¸£à¸°à¸Ķ
à¸ģ à¹Ģà¸Ħ
à¸ĩ à¸Ľà¸£à¸°à¸ªà¸ļà¸Ħà¸§à¸²à¸¡à¸ªà¸³à¹Ģà¸£
à¸Ķ à¸ĸà¸Ļà¸Ļ
Ġà¹ģà¸¥à¸° à¸ªà¸ĸà¸²à¸Ļ
à¸Ńà¸ģ à¹Ģà¸£
à¸ķà¸£ à¸¨
Ġà¸Ķ à¸²à¸ļ
Ġà¸ŀà¸£à¸° à¸§
à¹Ģà¸ŀà¸¨ à¸«à¸į
à¸ĩà¸Ĺà¸£à¸ĩ à¸ŀà¸£à¸°à¸ģà¸£
à¸ĩà¹Ģà¸Ļ à¹Ģà¸ĺà¸Ńà¸£
à¸ĩà¹Ħ à¸Ĭà¸¢
ĠBl ack
W A
à¸Ń à¹ĥà¸Ķ
à¸¡ à¸ģà¸§
à¸Ĥà¸Ńà¸ĩ à¸ªà¸¡à¸²à¸Ħà¸¡
à¸ł à¸²à¸£à¸°
à¸łà¸²à¸ Ĺ
à¸Ĺà¸³ à¸ģà¸²à¸£à¹ģà¸Ĥ
Ġà¸ķ à¸Ļà¸Ī
à¸²à¸ĵ à¸²à¹Ģà¸Ĥà¸ķ
à¹Ĥà¸£ à¸ĺ
à¸ļà¸ª à¸«à¸£
à¸Ļà¹ĥà¸Ļ à¸«
à¸ĩà¸ģà¸²à¸£ à¹ĥà¸«
Ġà¸Ħà¸Ļ à¹Ħà¸Ĥ
Ġà¸Ľà¸£à¸° à¸¢
à¸²à¸Ĺà¸³ à¹Ħà¸¡
à¸£à¸ĸà¹Ħà¸Ł à¹ģà¸«
à¸ļà¸£à¸²à¸Ĭ à¸ªà¸¡à¸ļ
à¸Ļà¸Ńà¸²à¸«à¸²à¸£ à¸Ĺ
à¸²à¸ģà¸²à¸£à¸ģà¸£à¸°à¸Ĺà¸£à¸§à¸ĩ à¸ģà¸¥à¸²à¹Ĥà¸«à¸¡
à¹Ĥà¸Ľà¸£à¸Ķ à¸Ľà¸£
à¸ĩà¸Ħà¸²à¸£ à¸Ĺ
à¸Ķà¸ģà¸£à¸° à¸«à¸¡
à¸¡ à¹Ģà¸ĭà¸¥à¸¥
à¸ª à¹Ģà¸§
à¸ŀà¸£à¸° à¹Ģà¸Ńà¸ģ
à¸Ħà¸§à¸²à¸¡ à¹Ĥà¸Ķà¸Ķà¹Ģà¸Ķ
Ġà¸ª à¸Ńà¸ĩ
à¸§à¸ĩ à¹Ģà¸Ľ
à¸§à¸ĩ à¸ģà¸§
à¸ĩà¸ª à¸Ńà¸ĩà¸ģ
à¸Ľà¸¥ à¸²à¸ª
à¸¢à¸ģ à¸Ħ
à¸Ļà¹ĥà¸Ļ à¸Ļ
à¸Ļà¸Ħ à¸ĩà¸Ĥà¸Ńà¸ĩ
Ġà¸Ĥà¸Ńà¸ĩ à¹Ģà¸Ĥà¸²
à¸²à¸Ĥà¸Ńà¸ĩ à¸ļ
à¸²à¸Īà¸° à¸£
à¸¬ à¸²à¹Ģà¸Ĥ
à¸ĩà¸ŀ à¸Ńà¹ĥà¸Ī
à¸§à¹Ģà¸Ńà¸ĩ à¹Ħà¸Ķ
um an
à¸£à¸ĸà¹Ħà¸Ł à¹ĥà¸ķ
à¸ĩà¸ģà¸£ à¸²à¸Ļà¸ķ
à¸²à¸ī à¸ļ
à¸ļà¸£à¸ĸ à¹Ħà¸Łà¸Ł
à¸²à¹ĥ à¸Ķà¸Ļ
l o
à¸Ļ à¹Ģà¸ĺà¸Ń
à¸Ń à¸ŀà¸£
à¸Ķ à¸ģà¸¥à¸²à¸ĩ
à¸Ĺ à¸Ĥà¸Ńà¸ĩ
à¸Ńà¸ĩ à¸ĺ
à¸Ļà¸ª à¸²à¸ĺà¸²à¸£à¸ĵà¸£
à¹ģà¸£à¸ģ à¹Ģà¸ģ
à¸ŀà¸¥ à¸Ĥ
à¹ĥà¸Ī à¸ģà¸¥à¸²à¸ĩ
Ġà¸ļ à¸Ńà¸Ļà¸Ķ
à¸ĺà¸£à¸£à¸¡ à¸§
à¸Ļà¸Ĥà¸Ńà¸ĩ à¸Ī
à¸Ńà¸ģà¸²à¸£ à¸Ľà¸ı
am i
à¸Ļà¹Ħ à¸Ĭà¸ª
à¸ĺà¸¢à¸¡ à¸ķ
Ġ246 1
à¸²à¹Ĥà¸Ľà¸£ à¸Ķà¸ģà¸£à¸°à¸«à¸¡
à¸Ĺà¸²à¸ĩà¸«à¸¥à¸§à¸ĩ à¸«à¸¡à¸²à¸¢à¹Ģà¸¥à¸Ĥ
à¹ģà¸Ńà¸ļ à¸ļ
à¸ģà¸§à¸²à¸Ķ à¸¥
à¸ĩ à¹Ģà¸¢
à¸§ à¸Ĺà¸³à¹ĥà¸«
à¸¢ à¹ģà¸¡
à¹Ģà¸Ĺ à¹Ģà¸ģà¸Ńà¸£
à¸§à¸ĩ à¸£à¸°à¸¢à¸°à¹Ģà¸§à¸¥
à¸ĩà¸²à¸Ļ à¸ª
à¸¥à¸° à¸ļ
Ġ19 19
à¸Ńà¸ķ à¸³à¹ģà¸«à¸Ļ
in ess
à¸Ļà¸Ī à¸²
à¸ķà¸Ļ à¸²à¸¢à¸ģà¸£
à¸§à¸Ķ à¸¡à¸Ļà¸ķ
is c
à¸Ļà¸ŀà¸£à¸° à¸Ńà¸Ļ
à¸ļà¸Ńà¸ģ à¹ĥà¸«
à¸ļà¸²à¸¢ à¹Ħà¸Ķ
à¸Ńà¸¡à¸²à¹Ģà¸Ľ à¸¥
à¹Ģà¸Ķà¸Ń à¸°à¸§
à¹Ĥà¸łà¸Ĭà¸Ļ à¸²à¸ģà¸²à¸£
à¸¨à¸§à¸£à¸¡ à¸«à¸²à¸£à¸²à¸Ĭ
à¸Ń à¹ģà¸Ķà¸ĩ
à¸Ī à¸Ļà¹Ģà¸Ľ
à¹ĥà¸Ļ à¸ªà¸ĸà¸²à¸Ļà¸Ĺ
à¸Ńà¸ģ à¸«à¸Ļ
à¹Ģà¸Ĥ à¸ķà¸Ļ
à¹Ħà¸Ľ à¸ĭ
à¹Ĥà¸£ à¸¥
à¹Ģà¸ŀà¸¥à¸ĩ à¸Ń
à¸´à¹Į )
Ġ7 8
Ġ7 9
à¹Ĥà¸ģ à¸®
à¸Ńà¸Ħà¸§à¸²à¸¡ à¹Ģà¸Ľ
à¹Ħà¸Ĺ à¸¡à¸ª
à¸Ļà¸Ħà¸Ļ à¹Ģà¸Ķ
Ġà¸Ĭà¸²à¸§ à¸Ī
à¸Ńà¸¢à¸²à¸ģ à¹ĥà¸«
à¸£à¸£à¸ĵ à¸ģà¸£à¸£à¸¡
sy ch
à¸¡ à¸²à¸ŀà¸£
à¸¡ à¹Ĥà¸Łà¸Ļ
à¸Ľ à¸°à¸ģ
à¸²à¸Ļ à¸ŀà¸¥
Ġà¹ģà¸¥à¸° à¸Ľà¸£à¸°à¹Ģà¸Ĺà¸¨
Ġà¹ģà¸¥à¸° à¸Īà¸°à¸¡
Ġà¸Ļ à¸²à¸ĩà¸ª
à¸Ļà¸¡ à¸²à¸¢
à¸¥à¸° à¸£
à¸Ļà¸Ħ à¸Ļà¸Ķ
ĠS ur
à¸ĩà¸ģà¸²à¸£ à¸¥
Ġà¸ģà¸£ à¸¡à¸Ĥ
ĠT H
à¸Ļà¸Ńà¸Ńà¸ģ à¹Ģà¸Ľ
à¸ļà¸¡ à¸²à¸ª
Ġc od
à¸Ļà¹Ħ à¸Ļà¸Ļ
à¸ģà¸Ĭ à¸§à¸Ļà¹ĥà¸«
à¸Ĭà¸¥ à¸Ľà¸£à¸°à¸Ĺà¸²à¸Ļ
à¸Ń à¹Ģà¸Ħà¸¥
à¸¡ à¸²à¸Ħà¸£
à¸§ à¸ģà¸ķ
à¸ģà¸²à¸£ à¹Ģà¸ķà¸£
à¹ĥà¸Ļ à¸ªà¸Ļà¸²à¸¡
à¸²à¸ĩ à¹ģà¸ķ
à¸²à¸ĩ à¸¢à¸²à¸§à¸Ļà¸²à¸Ļ
à¸²à¸Ļ à¹Ģà¸¢
à¸ķà¸£ à¸ĩà¸ķ
à¸Īà¸²à¸ģ à¸¢
à¸Ĺà¸²à¸ĩ à¸ģà¸²à¸£à¸Ĺà¸«à¸²à¸£
à¹Ģà¸ĭ à¸ª
à¸²à¸Ń à¸²à¸ģà¸²à¸£
à¸¢à¸¡ à¸ĭ
à¸Īà¸Ļ à¸Ľ
à¸²à¸Īà¸° à¸Ńà¸¢
à¸Ļà¸Ł à¸Ńà¸£
à¸ģà¸£à¸°à¸Ī à¸²à¸¢à¸ķ
à¸Ķà¸§à¸ĩ à¸ķ
à¹Ĥà¸Ķà¸¢à¸ªà¸²à¸£ à¸Ĺ
à¸ļà¸Ľà¸£à¸°à¸Ĺà¸²à¸Ļ à¸Ńà¸²à¸«à¸²à¸£
Ġà¹Ģà¸«à¸¡ à¸²à¸°
à¸Ńà¸Ńà¸ģà¸īà¸²à¸¢ à¹ĥà¸Ļà¸Ľ
Ġà¹Ģà¸ľà¸¢ à¹ģà¸ŀà¸£
y o
à¸Ĺ à¸¯
à¸ķ à¹Ĥà¸ķ
à¸²à¸Ļ à¸ģà¸²à¸£à¸ª
Ġà¹ģà¸¥à¸° à¸ģà¸²à¸£à¸ª
à¸²à¸§ à¸ĭ
à¸ĩà¸ª à¸Ńà¸ĩà¸ª
à¹Ĥà¸¥ à¸ģà¸ķ
à¸ļà¸ª à¸Ļà¸ģ
il le
ĠE m
à¸²à¸Ļà¸Ĭ à¸²à¸¥
à¸Ľà¸£à¸°à¹Ģà¸Ĺà¸¨à¸Ń à¸Ńà¸ªà¹Ģà¸ķà¸£à¹Ģà¸¥
à¸ªà¸¡à¸Ńà¸ĩ à¸ģà¸¥
à¸Ķà¸ŀà¸£à¸£à¸Ħ à¸Ľà¸£à¸°à¸Ĭà¸²à¸ĺ
ener ation
Ã Ĺ
à¸¡ à¸Ĭà¸²à¸¢
à¸Ķ à¸Īà¸°à¸¡
à¸³ à¸Īà¸²à¸ģ
à¸ģà¸²à¸£ à¹Ģà¸ľà¸¢à¹ģà¸ŀà¸£
à¹ĥà¸Ļ à¸ķà¸¥à¸²à¸Ķ
à¸¥à¸ĩ à¹ĥà¸Ļ
à¸Ľà¸£ à¸ģà¸ķ
à¸ģà¸§ à¸²à¸ĩà¸ķ
à¸łà¸²à¸ŀ à¸ŀ
à¸Ļà¸¡ à¸²à¸ĸ
à¸ĩà¸Ħ à¸²à¸¡à¸ª
à¸ģà¸£à¸° à¸Ĭ
à¸ľà¸¥ à¸ģà¸²à¸£à¹Ģà¸¥
Ġà¸ļ à¸Ļà¸Ĭà¸²à¸£
à¸´à¹Į ,
à¸Ħà¸³ à¸ģà¸¥
à¸ĩà¸Ĥà¸Ńà¸ĩ à¸¡
à¸²à¸£à¸¢ à¸ĺà¸£à¸£à¸¡
Ġà¹Ģà¸« à¸§
ĠN ight
à¹Ħà¸Ĺ à¸Ľ
Ġm us
à¸¢à¸į à¸£à¸²à¸ĩà¸§
Î ¿
Ġ à¸ļà¸£à¸£à¸Ķ
à¸ģ à¹Ģà¸ŀà¸¥à¸ĩ
à¸Ĭ à¸²à¸ŀ
à¸Ńà¸¢ à¹Ģà¸ģ
à¹Ģà¸£ à¸¥
à¸²à¸§ à¹Ģà¸«à¸Ļ
à¹Ĥà¸Ķà¸¢ à¸ģà¸¥
à¸Ļà¸ķ à¸¥à¸²à¸Ķ
à¹Ģà¸ĭ à¹Ģà¸£
à¸ľà¸¥ à¸Ĥ
à¸¡à¸« à¸²à¸ªà¸²à¸£à¸Ħà¸²à¸¡
à¸ļà¸ª à¸ĩà¸Ħà¸£à¸²à¸¡
Ġà¸ŀà¸£à¸° à¸ªà¸ĩà¸Ĩ
à¸ŀà¸£à¸°à¸£à¸²à¸Ĭ à¸Ń
à¸Ńà¸Ĺ à¹Ĥà¸Ĺ
à¸ĩà¸Ń à¸²à¸§
Ġ8 1
à¸£à¸ĸ à¸Ĺ
à¹Ģà¸® à¸¢
à¹Ħà¸ĭ à¸ļ
un e
à¹ģà¸ªà¸Ķ à¸ĩà¸¡
Ġà¸ķà¸³à¸ļà¸¥ à¸ļà¸²à¸ĩ
à¸Ľà¸²à¸ģ à¸Ļ
Ġ193 6
à¸Ļà¸£à¸²à¸Ĭ à¸ł
à¸ģà¸©à¸²à¸Ĥ à¸Ļà¸²à¸Ķ
à¹ģà¸Ħà¸Ĺ à¹Ģà¸ĺà¸Ńà¸£
ĠRec ords
à¸Ķ à¸Ĺà¸£
à¸ª à¹Ģà¸Ĭ
à¸Ī à¹Ģà¸£
à¸²à¸ĩ à¹ģà¸«
à¸²à¸Ļ à¸£à¸°à¸ļà¸ļ
à¸²à¸¡ à¸²à¸¥
à¸Ļà¸Ĺ à¸¤à¸©à¸İ
Ġà¹ģà¸¥à¸° à¹Ģà¸§
Ġà¸ŀ à¸Ń
Ġà¸Ĺ à¸²à¸ĩà¸ª
Ġà¹ĥà¸Ļ à¸¡
à¹Ģà¸Ń à¸Ķà¸ª
à¹Ģà¸ķ à¸°
Ġà¸Ĥ à¸Ńà¸£
ĠP ri
Ġt r
à¸ĩà¸ļ à¸¨
à¸Ķà¸² à¹ģà¸¥à¸°
à¹Ģà¸¨à¸© à¸Ĥà¸Ńà¸ĩ
à¹Ĥà¸£à¸Ħ à¸¡à¸°à¹Ģà¸£
à¸ĩà¹Ģà¸Ĺà¸ŀà¸¡à¸«à¸²à¸Ļà¸Ħà¸£ à¹ģà¸¥à¸°à¸Ľà¸£
à¸Ļà¸Ĭà¸²à¸§ à¸Ī
Ġà¸ŀà¸£à¸£à¸Ħ à¸Ľà¸£à¸°à¸Ĭà¸²à¸ĺ
à¸£à¸²à¸ģ à¸¨
Ġr es
à¸ļà¸£à¸£à¹Ģà¸¥ à¸ĩ
à¸Ļà¹Ĥà¸¢à¸ļ à¸²à¸¢à¸Ĥà¸Ńà¸ĩ
à¸²à¸Ľà¸£à¸°à¸ª à¸ļà¸Ħà¸§à¸²à¸¡à¸ªà¸³à¹Ģà¸£
Ġ/> <
Ġ à¹Ģà¸Ńà¸ģà¸ĭ
à¸Ń à¸Īà¸³à¸Ļà¸§à¸Ļ
à¸ļ à¹ģà¸«
à¸²à¸ĩ à¸¥à¸°
à¹Ģà¸£ à¸Ń
à¸ŀà¸£à¸° à¹Ģà¸¡à¸£
à¸Ńà¸¡ à¸²à¸ŀà¸£à¸°
à¹Ģà¸§ à¸Ļà¸ª
Ġà¹ģ à¸§à¸Ļ
à¹ĥà¸Ļà¸Ľ à¸ı
Ġà¸ŀà¸£à¸° à¸Ńà¸²à¸Īà¸²à¸£à¸¢
à¸²à¸ĺ à¸²à¸Ļ
à¹Ģà¸ĩ à¸²
à¸²à¹ģ à¸Ħ
à¸ĩà¸Īà¸° à¹Ħà¸¡
2 000
à¸Ļ à¸²à¸ĩà¸ª
à¸¢à¸ĩ à¹Ģà¸¡
à¸Ĺà¸³ à¸ķà¸²à¸¡
à¸Ĺà¸³ à¸ģà¸²à¸£à¸ª
à¸ĩà¸²à¸Ļ à¸Ļ
à¸Ńà¸ª à¸Ĺ
à¸Ĺà¸ĺ à¸ļà¸²à¸Ĺ
à¸ĩà¸Ĥ à¸§
à¹ģà¸¡ à¸§
à¸Ļà¸Ĺà¸²à¸ĩ à¸ģà¸²à¸£à¸Ħ
à¹Ĥà¸Ĺ à¸¡
em p
à¸ķà¸ªà¸²à¸«à¸ģà¸£à¸£à¸¡ à¸Ĺ
à¸Ļà¹Ģà¸ŀà¸¥à¸ĩ à¸Ľà¸£à¸°à¸ģà¸Ńà¸ļ
à¸ģ à¸Ńà¸²à¸¢
à¸ģ à¸¡à¸²à¸ģà¸Ĺ
à¸¢ à¹ģà¸ķ
à¸Ķ à¹Ĥà¸£à¸ĩà¹Ģà¸£
à¸Ĺ à¸Ńà¸¡
à¸« à¸Ńà¸¢
à¸Ľ à¹ģà¸ļà¸ļà¸£
à¸Ńà¸ĩ à¹ģà¸£à¸ģà¸Ĺ
à¸¸ :
à¸³ à¸¡à¸²à¸ģ
à¹ĥà¸Ļ à¸łà¸²à¸§à¸°
à¸²à¸Ļ à¸²à¸Ħ
à¸²à¸§ à¸¨à¸£
à¸¢à¸¡ à¸¡à¸²à¸ģ
à¸Ļà¹ĥà¸Ļ à¸£à¸Ńà¸ļ
à¸ªà¸²à¸¡à¸²à¸£à¸ĸ à¹ģà¸ļ
à¸ĩà¸Ĥà¸Ńà¸ĩ à¹Ģà¸¡
à¸²à¸Īà¸° à¹ĥà¸«
Ġ8 2
à¸§à¸£à¸£à¸Ħ à¸ķ
à¸ģà¸Īà¸° à¹Ħà¸¡
à¸²à¹Ħ à¸Ĭà¸¢
Ġ246 6
Ġà¸Ħà¸¥ à¸²à¸£
D P
à¸¢ à¹Ĥà¸Ķà¸¢
à¸Ķ à¸Ńà¸¥
à¸Ķ à¸ĩà¸Ħ
à¸ª à¹Ģà¸ŀ
à¸Ńà¸ģ à¸Ĥ
à¸¢à¸Ļ à¹Ģà¸ĭà¸Ļà¸ķ
Ġà¹ģ à¸Ńà¸Ķ
à¸Ļà¸¡ à¸²à¸Ļ
Ġà¹Ģà¸ŀ à¸¨
Ġà¸ŀà¸£à¸° à¸Ī
à¸ģà¸²à¸¥ à¹ģà¸£à¸ģ
à¹Ģà¸§à¸ĵ à¸£à¸Ńà¸ļ
Ġà¹Ģà¸Ħ à¸¢à¸¡
à¸Ńà¸³à¹Ģà¸ł à¸Ńà¸Ļ
à¸Ĭà¸²à¸ģà¸²à¸£ à¸¨
à¸Ĭà¸Ńà¸ļ à¸Ķ
à¸ĭà¸²à¸ģ à¸Ķ
à¸ļà¸¡à¸Ńà¸ļ à¸«à¸¡à¸²à¸¢à¹ĥà¸«
M an
à¸² à¹Ģà¸ĭà¸Ńà¸£
à¸£ à¸²à¸Ķ
à¸Ń à¸Ĺà¸£
à¸Ń à¸ĺà¸£à¸£à¸¡à¸Ĭà¸²à¸ķ
à¸ģ à¸Īà¸°à¹Ħà¸Ķ
à¸ĩ à¹Ģà¸¢à¸Ńà¸£à¸¡à¸Ļ
à¸ļ à¹Ģà¸«
à¸Ĭ à¸²à¸łà¸²à¸©
Ġà¹ģà¸¥à¸° à¸ł
à¸«à¸¥ à¸ĩà¸£
Ġà¹Ĥà¸Ķà¸¢ à¸Ķ
à¸ĩà¸²à¸Ļ à¸Ĥà¸Ńà¸ĩ
à¸Ļà¸Ī à¸Ńà¸¡
à¸²à¸ĩà¸ģ à¸Ńà¸ĩà¸Ĺ
à¹Ĥà¸ģ à¹Ģà¸¥
à¸ķà¸ļà¸Ńà¸¥ à¸«à¸į
à¸Ńà¸Ĥà¸Ńà¸ĩ à¸ķ
à¸ģà¸Ĥà¸Ńà¸ĩ à¸ģà¸¥
om b
à¸¢à¸ª à¸¥à¸°
à¸ŀà¸Ń à¹Ģà¸ŀ
à¸Ħà¸§à¸²à¸¡à¸ķ à¸ģà¸¥
200 5
à¸²à¸£à¸²à¸Ĭà¸ģà¸²à¸£ à¸ŀà¸¥à¹Ģà¸£
à¸Ńà¸£à¸£à¸ĸ à¸ģà¸ĸ
à¸Ķà¸¡à¸« à¸²à¸ªà¸²à¸£à¸Ħà¸²à¸¡
tiv al
M P
S C
à¸Ļ à¸ģà¸£à¸°à¸ļà¸§à¸Ļà¸ģà¸²à¸£
à¸ĩ à¸«à¸¡à¸²à¸¢à¸Ħà¸§à¸²à¸¡à¸§
à¸¡ à¸Ńà¸ĩà¸§
Ġà¹ģà¸¥à¸° à¸Ħà¸ĵà¸°
à¸ģà¸£ à¹Ĥà¸£à¸¡
à¸¢à¸Ļ à¹Ĥà¸Ľà¸£à¹ģà¸ģà¸£à¸¡
à¸Ĳ à¹Ģà¸ŀ
Ġà¸Ī à¸³à¹Ģà¸Ľ
Ġà¹ģ à¸ģà¸¥
à¸ĩà¸Ħ à¸¡à¸Ń
Ġà¸Ľà¸£à¸° à¹Ģà¸ŀà¸ĵ
255 7
à¸Ĭà¸²à¸¢à¹ģà¸Ķà¸Ļ à¸łà¸²à¸Ħà¹ĥà¸ķ
à¸Ĺà¸Ńà¸Ķ à¸Ńà¸ģà¸ĭ
Ġà¹Ĥà¸ģà¸¥ à¸Ķ
I A
l a
n ing
à¸ģ à¸Īà¸³à¸Ļà¸§à¸Ļ
à¸Ńà¸ĩ à¹Ĥà¸¥à¸ģ
à¸Ĥ à¸²
à¸Īà¸° à¸ľà¸¥
à¹Ģà¸Ń à¸¥à¸²
à¹Ģà¸Ħ à¸Ĺ
à¸Ļà¸Ķ à¸²à¸ļ
à¸²à¸° à¸¥
à¸Ļà¸£ à¸³
à¸Ļà¸ģà¸²à¸£ à¹Ģà¸Ľà¸¥
à¸Ńà¸ĩà¸Ĺ à¸°à¹Ģà¸¥
Ġà¸Īà¸²à¸ģ à¸Ī
à¸Ĵà¸Ļ à¸°
Ġà¹Ģà¸Ń à¸Ńà¸£
à¸ļà¸¡ à¸²à¸Ńà¸¢
à¸Ľà¹ģà¸ļà¸ļ à¸Ķ
à¹Ħà¸ĭ à¸¥
à¸¡à¸° à¸Ļ
à¹ģà¸ĸ à¸ļà¸Ļ
Ġ246 9
à¸ģà¸£à¸¢à¸²à¸Ļ à¸¢à¸Ļà¸ķ
à¸Ħà¸§à¸²à¸¡à¸ŀà¸¢à¸²à¸¢à¸²à¸¡ à¸Ĺ
à¸¢à¸§à¸¢ à¸²à¸§
à¸Ļà¹Ĥà¸¡ à¸Ĩ
à¸¥ à¹Ģà¸®à¸¥
à¸´ âĢĿ
à¹Ĥ à¸Ļà¸Ń
Ġà¹ģà¸¥à¸° à¸Ĺà¸²à¸ĩ
Ġà¹ģà¸¥à¸° à¸Ńà¸Ńà¸ģ
à¸Ħà¸£ à¸²à¸Ĭ
à¸§à¸¢ à¸Ńà¸²à¸ģà¸²à¸£
Ġà¸¡ à¸Ńà¹Ģà¸ķà¸Ńà¸£
in c
à¸ĩà¸ģà¸²à¸£ à¸Ľà¸ģà¸Ħà¸£à¸Ńà¸ĩ
à¸²à¸Īà¸° à¸¢
à¸Ħà¸Ħà¸¥ à¸ľ
à¹ģà¸Ī à¸ģà¸Ī
à¹Ĥà¸ļà¸£à¸²à¸ĵ à¸§
à¹Ħà¸® à¸Ļ
à¹Ħà¸Ń à¹Ĥà¸ĭà¹Ĥà¸Ĺ
à¸ķà¸° à¸ļ
Ġà¹Ĥà¸ĭ à¸¥
à¸Ńà¸ĩà¸Ļà¸Ħà¸£ à¸£à¸²à¸Ĭà¸ª
à¸ģà¸£à¸²à¸ļ à¸ļ
à¸ģ à¹Ģà¸«à¸¡
à¸§ à¸®
à¸ļ à¹ģà¸Ļà¸§
à¸Ńà¸ĩ à¹Ģà¸Ļ
à¸²à¸¢ à¹ģà¸«
à¸²à¸ĩ à¸Ĭà¸Ļ
à¸²à¸§ à¹Ģà¸£
ec tive
à¹Ģà¸Ļ à¹Ģà¸§
Ġà¹ģ à¸Ńà¸Ļà¸Ļ
à¸Ļà¸ģà¸²à¸£ à¹Ģà¸ģ
à¸Ĭà¸²à¸§ à¸Ł
à¸ªà¸²à¸¡à¸²à¸£à¸ĸ à¸Ľ
à¸Ļà¹ģ à¸ĭ
à¹Ĥà¸¡ à¸ģ
à¹ģà¸ªà¸Ķà¸ĩ à¸ķ
à¸²à¸Ĥà¸Ńà¸ĩ à¸Ļ
à¸ģà¸©à¸ĵà¸° à¸Ĺà¸²à¸ĩà¸ŀ
à¸Ļà¹ģà¸¥à¸° à¸Ĺ
à¸ļà¸Ń à¸³à¸Ļà¸²à¸Ī
Ġà¹Ħ à¸Ħ
et s
à¸ģà¸©à¸£ à¹Ĥà¸£à¸¡
à¹Ĥà¸Ĭ à¸Ħà¸Ķ
à¹Ĥà¸¥à¹Ģà¸¡à¸ķà¸£ à¸ķ
à¸Ńà¹Ģà¸¥ à¸ªà¹Ģà¸ķà¸Ńà¸£
ab il
ĠAc adem
ann el
o ice
r ont
à¸¢ à¹ĥà¸Ļà¸Ĭ
à¸Ķ à¸£à¸°à¸ļà¸ļ
à¸Ńà¸ĩ à¸ģà¸£
à¸Ĥ à¸Ī
à¸²à¸ģ à¸ģà¸§
Ġà¹ģà¸¥à¸° à¸ŀà¸£à¸°à¹Ģà¸Ī
à¸Īà¸²à¸ģ à¸Ķ
à¸«à¸¥ à¸ĩà¹Ģà¸«à¸¥
Ġà¹Ĥà¸Ķà¸¢ à¹Ģà¸Ī
Ġà¹ģ à¸Ķà¸ĩ
à¹Ĥà¸¥ à¸Ķ
à¸Ĵà¸Ļ à¸²à¸£
à¸ļà¸¡ à¸²à¸Ĭ
à¸Ķà¸²à¸§ à¸Ń
à¸ªà¸ł à¸²à¸Ļ
à¸¡à¸«à¸²à¸¢ à¸²à¸Ļ
à¸Ńà¸ĩà¹Ĥà¸ģ à¹Ģà¸¥
à¸Īà¸ŀà¸£à¸°à¸Ļà¹Ģà¸£ à¸¨à¸§à¸£à¸¡à¸«à¸²à¸£à¸²à¸Ĭ
n ess
Ġ à¸Ľà¸£à¸²à¸ģà¸ıà¸ģà¸²à¸£à¸ĵ
à¸ĩ à¸§à¸£
à¸ĩ à¹Ģà¸ļà¸¥à¹Ģà¸¢
à¹ģ à¸«à¸§
à¹ĥà¸Ļ à¹ģà¸«à¸¥
à¸²à¸Ļ à¸ģà¸²à¸£à¹Ģà¸¡
à¸© à¸¢à¸§
à¹Ĥà¸Ķà¸¢ à¸Ĭ
à¸£à¸£ à¸Ńà¸ļ
à¹Ģà¸§ à¸Ĺà¸¢
à¸Ļà¸ķ à¸Ļà¹Ģà¸Ńà¸ĩ
à¸Ńà¸Ńà¸ģ à¸¡à¸²à¸ķ
à¹Ħà¸Ĺà¸¢ à¸ģ
à¸ķà¸²à¸¡ à¸Ļ
à¸Īà¸³ à¸ŀà¸£à¸£à¸©
à¸Ĳà¸²à¸Ļ à¸§
à¸Ķà¸ª à¸£à¸°à¸ļ
à¸Ļà¹ģ à¸Ħà¸§
à¹Ĥà¸¡ à¹Ģà¸ª
à¸ĩà¸Ń à¹Ģà¸¡à¸£
à¸Ļà¸Ĥà¸Ńà¸ĩ à¸ķà¸Ļ
à¸Ńà¸ĩà¸Īà¸²à¸ģ à¸£
Ġ8 7
à¹Ĥà¸Ħà¸£à¸ĩà¸ģà¸²à¸£ à¸ŀ
à¹ĥà¸Ļà¸ªà¸¡ à¸Ńà¸ĩ
ĠIn ter
Ġà¸ļà¸²à¸ĩ à¸Ĭà¸Ļ
ok e
oci ety
Ù İ
à¸Ń à¸ªà¸¡à¸²à¸Ĭ
à¸¥ à¸ģà¸¥
à¸¥ à¸łà¸²à¸ŀà¸¢à¸Ļà¸ķà¸£
à¸¢ à¹ģà¸ģ
à¸¢ à¸Ķà¸Ĭ
à¸ļ à¸ªà¸£
à¸Ńà¸¢ à¸§
à¸Ńà¸ģ à¸¢
à¸ģà¸£ à¸²à¸§
à¹Ģà¸Ļ à¸§
Ġà¹ĥà¸Ļ à¸ªà¸²à¸Ĥ
à¸Ļà¸ª à¸§
à¸Ħà¸Ļ à¸Ĥ
à¹ĥà¸Ļà¸ģà¸²à¸£ à¹ģà¸ģ
or i
à¸Ĺà¸£à¸ĩ à¸ŀà¸¥
Ġ8 6
à¹Ģà¸Ł à¸ķ
à¸ķà¸ļà¸Ńà¸¥ à¸ĸ
Ġà¸Ńà¸³à¹Ģà¸ł à¸Ńà¸ŀ
Ġà¸«à¸¡ à¸§à¸Ķ
oc ial
à¸ªà¸ĭ à¸²à¸Ĭ
Ġà¹ĳ à¹Ĳ
à¸Ĥà¸Ńà¸ĩà¹Ģà¸£ à¸²
Ġà¹Ĵà¹ķà¹ ķà¹
r ing
à¸ĩ à¸Ħà¸§à¸£
à¸¥ à¹Ģà¸ļà¸£
à¸Ķ à¸Ńà¸Ńà¸ģà¹Ħà¸Ľ
à¸Ńà¸ĩ à¸Īà¸£
à¸³ à¹ĥà¸Ī
à¸ģà¸²à¸£ à¹ģà¸Ľà¸¥
à¸ŀà¸£à¸° à¸ģ
à¸Īà¸²à¸ģ à¸ģà¸¥
à¸§à¸¢ à¹Ģà¸ģ
à¸ªà¸¡ à¸Ĭà¸²à¸¢
à¸Ļà¸ª à¸²à¸ģà¸¥
es tival
à¸¢à¸° à¸¡à¸°
à¸¬ à¸²à¸Īà¸²à¸ģ
us h
à¸Ļà¸Īà¸° à¹ĥà¸Ĭ
à¸¨à¸²à¸¥ à¸İ
à¸ģà¸³à¹ģà¸ŀ à¸ĩà¹Ģà¸¡
à¸Ħà¸°à¹ģà¸Ļ à¸Ļà¸ª
B T
X T
Ġ à¸ļà¸Ĺà¸ļà¸²à¸Ĺ
à¸£ à¸²à¸¥à¸ĩà¸ģà¸£à¸ĵ
à¸Ķ à¸¥à¸³à¸Ķ
à¸Ĺ à¸ľà¸¥
à¸ª à¹Ĥà¸Ĺ
à¸²à¸ģ à¸¡
à¸Ńà¸¢ à¸ģà¸¥
à¸ĵ à¸ķ
Ġà¸ª à¸«à¸ŀ
ti m
à¸ĩà¸²à¸Ļ à¸Ĭ
Ġà¸ģà¸²à¸£ à¸Ľà¸£à¸°à¸Ĭ
à¹Ĥà¸¡ à¸Ĭ
à¹Ģà¸Ĥà¸ķ à¸Ń
à¸Ļà¸Ńà¸¢ à¸ª
à¸¬ à¸²à¸Ń
Ġ9 4
ro me
à¸²à¸ĩà¸ª à¸°à¸ŀà¸²à¸Ļ
à¹Ģà¸¨à¸© à¸Ń
ĠJ apan
à¸²à¸¡à¸² à¹ĥà¸Ĭ
à¸Ĺà¸³à¸Ļ à¸Ńà¸ĩà¹Ģà¸Ķ
à¸²à¸ļà¸£à¸£ à¸Ī
à¸Ńà¹Ħà¸£ à¸Ķ
f e
à¸¡ à¹Ģà¸ĭ
à¸¥ à¹Ĥà¸Ķ
à¸Ńà¸ĩ à¸Īà¸³
à¸į à¹ĥà¸Ī
à¸Ńà¸¡ à¹Ģà¸«à¸¥
Ġà¸¡ à¸²à¸Ĺ
à¸²à¸« à¸¡à¸Ń
à¸Ļà¸ģà¸²à¸£ à¸Ľà¸£
à¸Ļà¸Ĥà¸Ńà¸ĩ à¹Ģà¸Ĥà¸²
à¹Ĥà¸Ĺ à¸ģ
à¸Ĭà¸£ à¸²
à¸Ńà¸ĸ à¸Ļà¸Ļ
à¸²à¸Ħà¸§à¸²à¸¡ à¸Īà¸£
Ġ195 2
à¸Ĭà¹Ģà¸Ĭ à¸ª
à¸ĩà¸ļà¸Ńà¸ģ à¸ĸ
à¸§à¸¥à¸³ à¸ł
a ut
à¸ĩ à¹Ģà¸Ł
à¸¥ à¹Ģà¸ģà¸¥
à¹ģ à¸Ńà¸ĩà¹Ĥà¸ģà¸¥
à¸Ńà¸ĩ à¸ģà¸²à¸£à¸ķ
à¹Ħ à¸Ļà¹Ĥà¸ķà¸£
à¸Ĭ à¸Ĭà¸Ļ
à¸²à¸ĩ à¸¥à¸³à¸ķ
à¸ģà¸£ à¸ŀà¸ĩà¸©
Ġà¸ŀ à¸¤à¸ķ
à¸§à¸¢ à¹ģà¸ģ
à¸¢à¸Ļ à¹Ģà¸ķ
on es
à¸¡à¸²à¸ģ à¹Ģà¸Ľ
à¸¥à¸° à¸Ļ
à¸ļà¸Ĺ à¸Ļ
à¸Ķà¸Ĺ à¸£à¸ĩ
Ġà¸Ĥ à¸ļà¸§à¸Ļà¸ģà¸²à¸£
à¸Ľà¸£à¸°à¸ª à¸ļà¸ł
à¸Īà¸Ļ à¸«à¸¡à¸Ķ
à¸ĩà¸Ĥà¸Ńà¸ĩ à¸Ļ
à¸Ĭà¸²à¸¢ à¸«à¸Ļ
à¸Īà¸ŀà¸£à¸° à¸§à¸Ĭ
à¸ªà¸²à¸£ à¸Ńà¸²à¸«à¸²à¸£
à¸ĩà¸§ à¸²à¸¥
à¸¢à¸²à¸¢ à¸Ĭ
à¸Ńà¸Ĥà¸Ńà¸ĩ à¸ľ
us tr
à¹ģà¸ĭ à¸Ļà¸Ķ
Ã ł
à¸ĩ à¹Ħà¸«à¸¥
à¸ļ à¸łà¸²à¸©à¸²à¸Ń
à¸³ à¹Ħà¸«à¸¥
à¸²à¸§ à¸Ĥà¸Ńà¸ĩ
à¸¢à¸Ļ à¹Ģà¸ŀà¸¥à¸ĩ
à¸Ĳ à¹Ģà¸Ľ
à¸ªà¸¡ à¸²à¸Ħà¸¡à¸Ļ
à¸³à¸Ļ à¸¡
à¸£à¸²à¸¢ à¸ª
à¸¡à¸²à¸£ à¸§à¸¡à¸ģ
à¸Ľà¸£à¸°à¸ģà¸²à¸¨ à¹Ģà¸Ńà¸ģà¸£à¸²à¸Ĭ
Ġà¸Ł à¸Ńà¸ĩ
Ġà¹Ģà¸ŀà¸£à¸²à¸° à¸ĸ
à¸Ńà¸Ħà¸§à¸²à¸¡ à¸ķ
à¸Ļà¹ģà¸ļà¸ļ à¸Ĺ
à¸Ļà¸Ľà¸¥ à¸²
p os
à¸£ à¹Ģà¸ģà¸¥
à¹Ħ à¸ŀà¸¥
à¸³ à¸ªà¸²à¸¢
à¸ģà¸²à¸£ à¸ģà¸£à¸°à¸Īà¸²à¸¢à¸ŀ
à¸²à¸Ļ à¸Ńà¸Ļ
à¸ŀà¸£à¸° à¸¨à¸£
à¸ķà¸£ à¹Ģà¸Ľ
à¸Īà¸° à¹ģà¸ķà¸ģà¸ķ
Ġà¸Ħ à¸²à¸ĭ
:::: "
à¸łà¸²à¸ŀ à¹Ģà¸«à¸¡
à¸¢à¸¡ à¹Ĥà¸ĭà¹Ģà¸§
Ġà¹Ģà¸¡ à¸Ķ
à¸Ĺà¸£ à¸Ńà¸²à¸£
à¹Ĥà¸£ à¸ĭ
Ġ19 00
à¸Ħà¸³ à¸ķ
à¸ļà¸²à¸ĩ à¸Ĭ
à¸Ńà¸« à¸²à¸ª
Ġ10 8
Ġ9 00
à¸£à¸ĵ à¸Ľà¸ı
ĠL eg
à¸ģà¸©à¸£ à¸¥à¸°à¸ķ
Ġà¸ŀà¸§à¸ģ à¹Ģà¸Ĥà¸²
à¸ļà¸§à¸ĩ à¸¡à¸«à¸²à¸§
à¸Ĺà¸ª à¸Ļà¸¡à¸ģ
ĠAs ia
à¸Ļ à¹Ģà¸«à¸£
à¸ļ à¸ŀà¸£à¸°à¸Ļà¸²à¸ĩ
à¸ļ à¹Ģà¸Ńà¸¡
à¸Ĭ à¸¥à¸ļ
à¹Ħà¸Ķ à¹Ĥà¸Ļà¹Ģà¸ªà¸²à¸£
à¸ĵ à¸¡
à¸Īà¸²à¸ģ à¸ĭ
à¸Ħà¸§à¸²à¸¡ à¹Ģà¸Ńà¸Ļà¹Ģà¸Ń
à¸¢à¸Ļ à¸Ľà¸£à¸°à¸Īà¸³
à¸Ńà¸ļ à¸²à¸ĩà¸Ħà¸£
à¸ĩà¸ª à¸¥
à¸łà¸²à¸ŀ à¸ģ
Ġà¸£ à¸ª
à¸²à¸Īà¸° à¹Ģà¸£
Ġà¸Īà¸° à¹Ģà¸«
à¸ķà¸Ńà¸Ļ à¸Ľà¸¥à¸²à¸¢
Ġà¸Ħà¸§à¸²à¸¡ à¹Ģà¸ª
à¸ģà¸Īà¸° à¹Ģà¸£
à¸¢à¸Ķà¸Ļà¸²à¸¡ à¹Ģà¸«à¸Ļ
à¸³à¸ķà¸²à¸¥ à¹Ģà¸Ĥ
à¸ģà¸£à¸°à¸ª à¸§à¸¢
à¸¥à¹Ģà¸§ à¹Ģà¸Ļ
E D
E l
o ff
Ġ à¸Ĳ
à¸Ļ à¹Ģà¸īà¸¥
à¸Ķ à¸Īà¸³à¸ģ
à¸Ķ à¸Ńà¸Ļà¹Ģà¸¡
à¹Ģà¸Ķ à¸Ńà¸¡à¸Ńà¸£
à¸Ł à¸²
à¹Ĥà¸Ķà¸¢ à¸Ħ
à¸£à¸²à¸Ĭ à¸Ļà¸²à¸§
à¸²à¸Ń à¸³à¸Ļà¸²à¸Ī
à¸Ĭà¸²à¸§ à¸ĭ
à¸ªà¸²à¸¡à¸²à¸£à¸ĸ à¸ļ
à¸Ļà¸Ħà¸£ à¸ļà¸²à¸¥
à¹Ĥà¸Ń à¹Ģà¸Ļ
à¸¡à¸ª à¹Ģà¸ķà¸Ńà¸£
à¸¡à¸¡ à¸Ńà¸ĩ
à¸ģà¸£à¸°à¸Ĺà¸£à¸§à¸ĩ à¸ģà¸¥à¸²à¹Ĥà¸«à¸¡
à¸ģà¸İà¸«à¸¡à¸²à¸¢ à¸Ĺ
à¸²à¹Ģà¸Ķ à¸¥
à¸ªà¹Ĥà¸¡à¸ªà¸£ à¸Ĺ
ĠSc ience
Ġà¹Ģà¸¢à¸Ńà¸£ à¸¡
0 6
à¸Ļ à¸Ĩ
à¹Ģ à¸Ńà¸Ļà¸Ķ
à¸ģà¸²à¸£ à¸ŀà¸ļ
à¸Ĥà¸Ńà¸ĩ à¹Ģà¸ģà¸¡
à¸§à¸¢ à¹Ģà¸Ļ
à¸Īà¸° à¹ģà¸ķ
Ġà¸Ħ à¸Ļà¸£
à¸Ĺà¸ĺ à¸ģà¸²à¸¥
à¸²à¸Ĥ à¸ĵà¸°
Ġà¹Ĥ à¸ļà¸ªà¸ĸ
à¸Īà¸³ à¹Ģà¸¥à¸¢
à¸Ļà¸³ à¸ŀ
à¹ģà¸ªà¸Ķà¸ĩ à¸¥à¸°à¸Ħà¸£
à¸ĩà¸Ń à¸³à¸Ļà¸§à¸¢à¸Ħà¸§à¸²à¸¡à¸ªà¸°à¸Ķà¸§à¸ģ
Ġà¹Ģà¸£ à¸Ķ
Ġà¸Īà¸²à¸ģ à¸Ĥ
à¸Ĵà¸Ļ à¸²à¸Ĥà¸Ńà¸ĩ
à¸ļà¸Ń à¸²à¸¢
Ġà¹Ģà¸Ħ à¸Ńà¸£
ol a
à¹Ħà¸ĭ à¸Ħà¸¥
à¸ģà¸²à¸£à¸Ħ à¸²à¸Ķ
à¸Ńà¸Ńà¸ģà¸Īà¸²à¸ģ à¸ļ
à¹ģà¸Ł à¸Ļ
à¹ģà¸ªà¸Ķ à¸ĩà¸Ļà¸³
à¸ģà¸ĸ à¸Ńà¸Ķ
Ġà¹Ĥà¸Ľà¸£ à¸Ķà¹ĥà¸«
à¸§à¹ģà¸Ĺ à¸Ļà¸Īà¸²à¸ģ
ens e
à¸²à¸¢à¸Ķ à¸²à¸¢
ber g
à¸ŀà¸¥à¸ķ à¸Łà¸Ńà¸£
à¹Ħà¸®à¹Ĥà¸Ķà¸£ à¹Ģà¸Īà¸Ļ
à¸¥à¸²à¸Ī à¸²à¸£
Ġcor tex
à¸² à¹ģà¸ª
à¸Ļ à¹Ģà¸ģà¸£
à¹Ī :
à¸ģ à¸²à¸ģà¸¥à¸²à¸ĩ
à¸Ķ à¸ŀà¸£
à¸Ķ à¸ªà¸ĸà¸²à¸Ļ
à¸ª à¹Ģà¸Ļà¸Ńà¸£
à¸Ľ à¹Ģà¸Ĺ
à¸ģà¸²à¸£ à¸Ńà¸ł
à¸ģà¸²à¸£ à¹Ģà¸Īà¸£à¸Ī
à¹ģà¸¥à¸° à¸łà¸²à¸ŀà¸¢à¸Ļà¸ķà¸£
à¸Ĥà¸Ńà¸ĩ à¹Ģà¸ģà¸²à¸«à¸¥
à¹Ģà¸Ķ à¸Ĭà¸²
à¸¢à¸Ļ à¸Īà¸ļ
à¸§à¸ĩ à¸¡à¸²à¸¥
ec ial
à¹Ģà¸Ń à¸§
à¸§à¸¡ à¸²à¸£
Ġà¸¥ à¸Ńà¸Ļà¸Ķà¸Ńà¸Ļ
à¹ģà¸ªà¸Ķà¸ĩ à¹ĥà¸Ļ
à¸ģà¸Ķ à¸²à¸§
Ġà¸Ĥà¸Ńà¸ĩ à¸¡à¸«à¸²à¸§
à¸łà¸²à¸¢ à¹ĥà¸Ļà¸Ĺ
à¹Ĥà¸£à¸Ħ à¸«
Ġà¸Ħà¸§à¸²à¸¡ à¹ģà¸ķà¸ģà¸ķ
ir d
à¸ĩà¹Ħà¸Ľ à¸ģà¸§
à¸Ļà¹Ģà¸ŀà¸¥à¸ĩ à¸Ĭà¸²à¸ķ
à¸ģà¸£à¸°à¹ģà¸ª à¹Ģà¸¥
all y
à¸ģ à¸¢à¸°
à¸Ńà¸£ à¸ļ
à¹Ģà¸ŀà¸¥à¸ĩ à¸Ľ
à¹Ħà¸Ł à¸ķ
à¸ĩà¸Īà¸²à¸ģ à¸ķ
à¸ĩà¸Īà¸²à¸ģ à¹Ģà¸£
is ter
ĠP op
à¸¸à¹Į .
à¹ģà¸Ħ à¸Ľ
Ġà¸Ľà¸£à¸° à¹Ĥà¸¢à¸Ħ
ĠH ot
ur es
à¸Ĭà¸²à¸ģà¸²à¸£ à¸Ĺ
à¹Ĥà¸® à¸Ī
à¸Ļà¸ľà¸¥ à¸ªà¸³à¹Ģà¸£
à¸Ļà¸ķà¸²à¸¡ à¸¥à¸³à¸Ķ
Ġ245 9
à¸Īà¸ªà¸§à¸£à¸£à¸Ħà¸ķ à¹Ģà¸¡
A m
à¸Ļ à¸Ľà¸£à¸°à¸ª
à¸Ļ à¸Ľà¸£à¸²à¸ªà¸²à¸Ĺ
à¸Ķ à¹Ģà¸Ĺà¸ŀà¸¨
à¸ķ à¸¡à¸«à¸²à¸§
à¸ª à¸ªà¸£
à¸ļ à¸Īà¸²à¸ģà¸ģà¸²à¸£
à¸Ńà¸ģ à¸£à¸Ńà¸ļ
Ġà¸Ħ à¸Ķ
à¸Ĺà¸¢ à¸²à¸ª
à¸²à¸ķ à¸²à¸Ļ
à¸Ļà¸Ļ à¸ģà¸Ĺ
à¸Ľà¸£à¸°à¹Ģà¸Ĺà¸¨ à¹Ģà¸¢à¸Ńà¸£à¸¡à¸Ļ
à¸ļà¸Ĺ à¸ļ
à¸łà¸²à¸© à¸²à¸ŀ
al es
Ġà¸Ĺà¸³ à¸¥à¸²à¸¢
à¸ļà¸Ħ à¸²à¸£
à¸Ńà¸Ń à¸°à¹Ħà¸£
à¹Ĥà¸Ĺ à¸¥à¸Ħ
à¸§à¸²à¸ĩ à¹Ħà¸§
à¹Ĥà¸Ħà¸£à¸ĩà¸ģà¸²à¸£ à¸Ĺ
Ġm et
ell a
o ot
à¸ĩ à¸Ľà¸¥à¸²à¸¢
à¸¡ à¸Ľà¸ı
à¸¡ à¸Ħà¸§à¸ļà¸Ħ
à¸¡ à¸Ĭà¸Ļà¸°à¹Ģà¸¥
à¸§ à¸ªà¸£
à¸Ĭ à¸²à¹Ģà¸Ľ
à¸Ĥà¸Ńà¸ĩ à¸Ľà¸£à¸°à¸Ĭà¸²à¸Ĭà¸Ļ
à¸§à¸ĩ à¸«
Ġà¸Ī à¸²à¸ĩ
à¸²à¸Ķ à¸²à¸¥
à¸ģà¸£à¸° à¸Ĺà¸³à¸ģà¸²à¸£
an o
à¹Ĥà¸Ħà¸£ à¸²à¸Ĭ
à¸Ńà¸ģà¸²à¸£ à¹Ģà¸Ľà¸¥
re g
à¸ĩà¸Ī à¸Ńà¸ģ
à¸Ķà¸Ĥà¸Ńà¸ĩ à¸Ĺ
ol f
à¸ģà¸Ħ à¸Ļà¸ķ
à¸²à¸ĩà¸Īà¸²à¸ģ à¸Ĺ
ub e
Ġ193 4
Ġà¸ŀà¸ļ à¸ģà¸£à¸°à¸Īà¸²à¸¢à¸ŀ
aw a
à¹ĥà¸Ļà¸£à¸°à¸¢à¸° à¹ģà¸£à¸ģ
O H
y cl
à¸Ń à¹Ĥà¸Ħ
à¸ĩ à¸Ħà¸§à¸ļà¸Ħ
à¸¡ à¸Ħà¸§
à¹ģ à¸Ńà¸Ļà¸Ĺ
à¸Ľ à¸¨
à¸Ī à¸Ļà¸ķ
à¸¸ -
à¹Ĥ à¸ģà¸Ĺ
à¹ĥà¸Ļ à¸®
à¸§à¸¢ à¸Ħà¸§à¸²à¸¡à¸ª
à¹Ģà¸Ĭ à¸¥à¸ĭ
Ġà¸Ļ à¸²à¸ĩà¸ªà¸²à¸§
à¹Ģà¸Ĺà¸¨ à¸Ļà¸²
à¹Ģà¸Ĺà¸¨ à¸¡à¸ĵà¸ĳà¸¥
à¹Ħà¸Ĺà¸¢ à¸ŀ
à¸ªà¸³ à¸¡à¸°
Ġ19 17
à¸Ļà¹ģ à¸Ľà¸£
à¹Ĥà¸¡ à¹Ģà¸Ļ
à¸Ĥà¸Ļ à¸²à¸Ļà¸ģ
ĠT w
ĠT our
à¸Ħà¸ĵà¸° à¸ª
à¸Ĳà¸ļà¸²à¸¥ à¸ŀà¸¥à¹Ģà¸Ńà¸ģ
ĠD VD
ĠO ut
à¸²à¸£à¸²à¸Ĭ à¸ļà¸£
à¸ªà¹Ģà¸ķ à¸Ńà¹Ĥà¸£
à¸§à¸ļ à¸²
Ġ245 4
à¸ķà¸ģà¸¥ à¸ĩà¸ģ
à¸ģà¸ĭà¸²à¸Ļ à¸Ķà¸£
à¸ģà¸ĭà¸²à¸Ļ à¹Ģà¸Ķà¸£
à¹Ħà¸Ĭ à¸¢à¸²
à¸£à¸²à¹Ģà¸Ńà¸¡ à¸Ńà¸Ļ
T P
p is
à¸Ļ à¹Ģà¸Ńà¹Ģà¸Ĭ
à¸§ à¹ģà¸£à¸ģ
à¸¢ à¸²à¸¥
à¸Ķ à¹Ģà¸ķà¸£
à¸Ĺ à¸Ķ
à¸ª à¹Ĥà¸ĭ
à¸ļ à¸ĩà¸ļà¸Ľà¸£à¸°à¸¡à¸²à¸ĵ
à¸Ĥ à¸¡à¸ĵà¸ĳà¸¥
à¹Ĥ à¸¢à¸ģà¸¢
à¸³ à¸«à¸¥
à¸ģà¸²à¸£ à¸£à¸°à¸ļ
à¸²à¸Ļ à¸Ŀ
à¹Ģà¸£ à¸²à¸ªà¸²à¸¡à¸²à¸£à¸ĸ
à¸Ńà¸ģ à¹Ĥà¸Ķà¸¢
à¸§à¸¢ à¸ģà¸²à¸£à¸ķ
à¸Ľà¸£à¸°à¹Ģà¸Ĺà¸¨ à¸ªà¸«à¸£
à¸Ľà¸¥ à¸²à¸ķà¸°
à¸Ļà¸Ĺà¸²à¸ĩ à¸Īà¸²à¸ģ
à¸¡à¸²à¸Īà¸²à¸ģ à¸Ħà¸³à¸§
à¸ģà¸Ĥà¸Ńà¸ĩ à¸Ī
à¸ķà¸Ńà¸Ļ à¸¥
Ġà¹Ģà¸Ĺ à¸Ħà¸Ļ
à¸įà¸« à¸²à¸ķ
à¸ªà¹Ģà¸ĭ à¸¥à¸ª
Ġà¹Ģà¸ļ à¸Ļ
oc al
à¸Īà¸ŀà¸£à¸°à¸£à¸²à¸Ĭ à¸ªà¸¡à¸łà¸ŀ
à¸¢à¸ĩà¸Ĺ à¸Ńà¸ĩà¸Ħà¸³
200 4
à¸²à¸ģà¸²à¸£à¸ģà¸£à¸°à¸Ĺà¸£à¸§à¸ĩ à¸ģà¸²à¸£à¸Ħà¸¥
à¸ŀà¸£à¸°à¹Ĥà¸Ńà¸£à¸ª à¸ĺ
ĠRo ad
r u
Ġ à¸¨à¸²à¸ªà¸Ļà¸²
à¸Ļ à¸Ńà¸ª
à¸ĩ à¹Ģà¸ŀà¸£à¸²à¸°
à¸¥ à¸²à¸ķ
à¸« à¸°
à¸Ńà¸ĩ à¸ªà¸³à¸Ń
à¸²à¸Ļ à¸ģà¸²à¸£à¸ŀ
à¸ªà¸¡ à¸²à¸Ļ
à¸Ļà¸ª à¹Ħà¸ķà¸Ļ
à¸Ļà¸ķ à¸ģà¸Ĺ
à¸§à¸¡ à¸«
à¸Ńà¸ķ à¸Ļ
à¸ĩà¸Ħà¸£ à¸²à¸§
à¹Ĥà¸Ń à¹Ģà¸£
à¸ªà¸²à¸£ à¸¥à¸°à¸¥à¸²à¸¢
à¸Ńà¸ĩà¸Īà¸²à¸ģ à¸ĸ
Ġà¹Ħ à¸Ĺà¸£
à¸ĩà¸ªà¸Ńà¸ĩ à¸Ħà¸£
à¸¢à¸į à¸ªà¸«à¸£
à¸ĩà¸ģà¸£ à¸«à¸¢à¸ģ
ĠPro duc
Ġst yle
à¸Ļà¸¢à¸Ńà¸Ķ à¹Ģà¸¢
c a
c il
à¸Ļ à¸ªà¸¡à¸ļ
à¸£ à¸²à¸ĩà¸Ħ
à¸ª à¸²à¸ĺ
à¸³ à¹Ģà¸¡
à¸²à¸¢ à¹Ħà¸¡
à¸ĺ à¸³à¸£à¸ĩ
à¸²à¸¥ à¸°à¸ķ
Ġà¹ĥà¸Ļ à¸ķà¸Ńà¸Ļà¸Ĺ
à¸ĩà¸¡ à¸²à¸ķ
à¹Ģà¸¢ à¸Ńà¸°
à¸łà¸²à¸Ħ à¸¨à¸²à¸ªà¸ķà¸£
à¸Ļà¹ģ à¸Ńà¸£
à¸įà¸į à¸²à¸ģà¸²à¸¨
à¸ĩà¸Ĥà¸Ńà¸ĩ à¸ŀ
à¸²à¹Ĥ à¸Ĭ
at s
à¸Ķà¸Ĥà¸Ńà¸ĩ à¹Ģà¸Ĥà¸²
à¸Ľà¹ģà¸ļà¸ļ à¸ģà¸²à¸£à¹Ģà¸¥
à¹Ĥà¸£à¸Ħ à¸ķ
à¸Ķà¸²à¸§ à¸£
à¸²à¸£à¸° à¸¢à¸°
à¸ªà¸ĩà¸Ħà¸£à¸²à¸¡ à¸Ħà¸£
à¸Ļà¹Ħ à¸ª
hy s
à¹Ĥà¸« à¸Ķà¸£
Ġà¹Ĥà¸Ĭ à¸ķ
à¸ŀà¸£à¸°à¸ļà¸£à¸¡ à¸¨à¸ŀ
à¸£à¸°à¸Ļ à¸Ńà¸ĩ
ĠHe art
ĠNet work
à¸ĩ à¸Ńà¸Ķ
à¹Ģà¸ Ĩ
à¸Ķ à¸Īà¸³
à¸³ à¹Ģà¸«à¸Ļ
à¸Ĥà¸Ńà¸ĩ à¹Ģà¸ĭ
Ġà¸ģ à¸°
à¸Ļà¸ķ à¸Ļà¸²
à¸Ļà¸Ļ à¹Ĥà¸¢à¸ļà¸²à¸¢
Ġà¹ģ à¸Ķà¸Ļ
à¸Ńà¸ª à¸Ńà¸ļ
à¸Ļà¸ģ à¸³à¹ģà¸ŀ
à¸Ļà¸¢ à¸²à¸£
à¹Ĥà¸¡ à¸ĭ
à¸Ĵà¸Ļ à¸²à¸Ńà¸¢
à¸Ńà¸²à¸Ī à¸ķ
à¸Ľà¸£à¸°à¸Īà¸³ à¸ª
à¸Ķà¸Ĥà¸Ńà¸ĩ à¸ķ
id d
à¸¢à¸Ļà¹ģà¸Ľà¸¥à¸ĩ à¸Ĥà¸Ńà¸ĩ
à¸²à¸® à¸²à¸£
st e
à¸Ĭà¸Ńà¸ļ à¸ĺà¸£à¸£à¸¡
ati ng
ĠPro ject
à¸Ļà¹Ĥà¸ķ à¸Ļ
L a
M D
k s
Ġ à¸¥à¸°
Ġ à¸¤à¸Ĺà¸ĺ
à¸¡ à¸Ńà¸Ļà¸Ķ
à¸Ķ à¹ģà¸¥à¸°à¸¡
à¸ģà¸²à¸£ à¸ĩà¸²à¸Ļ
Ġà¹ģà¸¥à¸° à¸ªà¸³à¸Ļ
à¸ģà¸£ à¸ģà¸¥
à¸Īà¸° à¸«à¸¥
à¸Īà¸° à¸¥à¸ĩà¹Ģà¸¥
à¸Ļà¸¡ à¸Ľ
Ġà¸ģà¸²à¸£ à¸ģà¸£à¸°à¸Ĺà¸³
Ġà¸¥ à¸Ńà¸§
or ge
à¸ģà¸² à¹Ģà¸¡
à¹Ģà¸Ł à¸£à¸¡
Ġl a
à¸°à¸Ķ à¸°
à¸ĵà¸łà¸²à¸ŀ à¸Ĭ
0 3
F A
à¸ª à¸£à¸£à¹Ģà¸ªà¸£
à¹ģ à¸ŀà¸¥
à¸« à¸²à¸Ĺ
à¸Ĭ à¸²à¹ģà¸¥à¸°
à¸ģà¸²à¸£ à¸¥à¸ĩà¸Ĺ
à¹Ģà¸Ķ à¸ļ
à¹Ģà¸Ĥ à¸²à¸Ń
à¸¢à¸ĩ à¹Ħà¸§
à¸ķà¸²à¸¡ à¹Ģà¸Ķ
à¸ļà¸ª à¸Ńà¸ĩà¸Ĥà¸Ńà¸ĩ
à¸łà¸²à¸© à¸²à¸ģ
à¸²à¸Ĥà¸Ńà¸ĩ à¸ļà¸£
re l
Ġà¹Ħ à¸Ńà¸ĭ
à¸ģà¸£à¸¡ à¸ŀà¸£à¸°à¸£à¸²à¸Ĭà¸§
à¸²à¸¡à¸²à¸ģ à¸Ĺ
à¸ļà¸Ħà¸³ à¸Ĭà¸¡
à¸ªà¸¡à¸£à¸£à¸ĸ à¸Ļà¸°
à¸£ à¹Ģà¸Ķà¸Ĭ
à¸Ń à¸Ħà¸£à¸Ńà¸ĩ
à¸¡ à¸Ńà¸Ńà¸ģ
à¸Ķ à¹ģà¸§à¸£
à¸³ à¸Ħà¸£
à¸³ à¹Ħà¸£
à¸²à¸Ļ à¸ģà¸§
à¸Īà¸²à¸ģ à¹Ģà¸«à¸ķ
à¹Ĥà¸Ķà¸¢ à¸ªà¸³à¸Ļ
Ġà¸Ĺ à¸°à¹Ģà¸¥à¸ªà¸²à¸ļ
à¸Ħà¸Ļ à¸ŀ
à¹Ĥà¸Ń à¹Ģà¸Ĭ
à¸ļà¸Ķ à¸²à¸£
à¸ĩà¹Ģà¸¨ à¸ªà¸ģ
ĠD ream
om y
à¸Ńà¸³à¹Ģà¸ł à¸Ńà¸ģ
à¸Ļà¹Ĥ à¸ŀ
Ġm od
à¸Ļà¹ģà¸ļà¸ļ à¸Ńà¸¢
à¸¥à¸Ľà¸° à¸ģà¸²à¸£à¹ģà¸ªà¸Ķà¸ĩ
à¸¥à¸ģ à¸²à¸ģà¸£
ep tor
à¸§à¹Ģà¸£ à¸ĭ
à¸ķà¸£à¸Ĭà¸²à¸¢ à¸Ħà¸Ļà¹Ĥà¸ķ
ĠCon c
ĠPart y
à¸Ļ à¹Ĥà¸ģ
à¸¡ à¸Ńà¸¥
à¸Ķ à¹Ģà¸Ńà¸Łà¹Ģà¸Ń
à¸ļ à¸¡à¸²à¸ģ
à¸Ĥ à¸²à¸¢à¸Ĺ
à¹ĥà¸Ļ à¸Ħà¸§à¸²à¸¡à¸Ķ
à¸²à¸¢ à¸ģà¸²à¸£à¸ļ
à¸Ĥà¸Ńà¸ĩ à¹Ģà¸Ĥà¸²à¸ģ
à¸Ľà¸£à¸° à¸ªà¸¡
Ġà¸Ĺ à¸²à¸ģ
à¸§à¸ĩ à¸Ĥ
à¸Ĳ à¸¢
à¸Ļà¸¡ à¸²à¸ª
à¹ģà¸¡ à¸ªà¸ĭà¸²à¸Ĭ
à¸Ľà¸£à¸°à¸Īà¸³ à¹Ģà¸Ķ
Ġà¸Īà¸° à¸ª
à¸£à¸ĵ à¸²à¸ģà¸²à¸£
à¸¢à¸²à¸§ à¸ģà¸§
Ġà¸ķà¸²à¸¡ à¸ŀà¸£à¸°à¸£à¸²à¸Ĭà¸ļ
Ġà¸Ĥà¸ĵà¸° à¸¡
à¸Ļà¹Ģà¸§à¸¥ à¸²à¸ª
Ġ246 5
à¸ªà¸« à¸¨
à¸²à¸ŀà¸£à¸°à¸¢ à¸²à¸ª
à¸ĩà¸£à¸§à¸¡ à¹Ħà¸Ľà¸ĸ
M L
Ġ im
à¸Ļ à¹Ģà¸¥à¸Ĥ
à¸Ļ à¹Ģà¸Ĺà¸¨à¸ļà¸²à¸¥
à¸Ń à¹ĥà¸ļ
à¸ģ à¹ģà¸ŀ
à¸¥ à¸²à¸¨
à¸¢ à¸Ķà¸¡
à¸ª à¹Ģà¸¥
à¸ŀ à¹ģà¸Ķà¸ĩ
à¹Ģà¸£ à¸Ĭ
à¸ķà¸£ à¸²à¸ŀà¸£à¸°
à¸Ļà¸¡ à¸²à¸Ī
à¸ªà¸³ à¹Ĥà¸£à¸ĩ
à¸¢à¸ģ à¹Ģà¸Ľ
à¸Ħà¸³ à¸¡
à¸Ńà¸Ń à¸²à¸ģà¸²à¸¨
Ġà¹Ģà¸Ħ à¸²à¸Ļ
Ġà¹Ģà¸ª à¸¡
à¸Ľà¸£à¸°à¹Ģà¸łà¸Ĺ à¸Ĥà¸Ńà¸ĩ
à¸Ńà¸Ńà¸ģà¸Ńà¸²à¸ģà¸²à¸¨ à¸Ĺà¸²à¸ĩà¸Ĭ
à¸Ļà¸ªà¸²à¸¡ à¹Ģà¸ĵà¸£
à¸Ļ à¸Īà¸²à¸ģà¸Ļ
à¸Ļ à¹ĥà¸ª
à¸Ļ à¹Ĥà¸Ĺà¸©
à¸ļ à¸Ľà¸£à¸°à¸ģ
à¸Ī à¸³à¸Ļ
Ġà¹ģà¸¥à¸° à¸ĩà¸²à¸Ļ
à¹Ĥà¸Ķ à¹Ģà¸¡
à¸Ĺà¸³ à¹Ħà¸¡
à¸ĩà¸ª à¸³à¹Ģà¸£
Ġà¸Ļ à¸²à¸£
à¸ĩà¸ģ à¸Ńà¸ĩà¸ģà¸¥à¸²à¸ĩ
à¸Ļà¹ĥà¸Ļ à¸Ħ
à¸Ĭà¸²à¸§ à¸£
Ġà¸Ĥ à¸Ńà¹ĥà¸«
à¸²à¸Ĥà¸Ńà¸ĩ à¸Ī
à¹Ĥà¸Ń à¸Ħ
à¸Ńà¸Ĥà¸Ńà¸ĩ à¸Ĺ
à¸ģà¸«à¸¥à¸²à¸¢ à¸Ħà¸£
Ġ195 3
Ġ245 5
à¸²à¸ŀà¸£ à¸«à¸¡
à¸²à¸¡à¸«à¸²à¸§ à¸Ĭ
à¸Ńà¹Ģà¸ļ à¸ª
ĠSer ies
à¸Ľà¸Ĳ à¸¡à¸Ĺ
c ip
ä ¸
à¸Ń à¸«à¸¥à¸²à¸¢
à¸Ń à¸Ľà¸£à¸²à¸ļ
à¸ŀ à¹Ħà¸Ľ
à¸Ĥà¸Ńà¸ĩ à¹Ģà¸Ĥà¸²à¹Ħà¸Ķ
à¸Īà¸²à¸ģ à¸«à¸¥
à¸¢à¸Ļ à¹ĥà¸«à¸¡
à¸Ńà¸¡ à¸²à¸«à¸¥
ti d
Ġà¹ĥà¸Ļ à¸ªà¸«à¸£à¸²à¸Ĭà¸Ńà¸²à¸ĵà¸²à¸Ī
à¸¢à¸ĩ à¸Ķà¸Ļà¸ķà¸£
à¸ĩà¸ª à¸²à¸§à¸Ĺ
à¸łà¸²à¸ŀ à¸ļ
à¸Ńà¸Ńà¸ģ à¸¡à¸²à¸ģ
à¸¢à¸ģ à¸ģà¸³à¸¥
à¹Ģà¸ĺ à¸Ńà¸ģà¸¥
or ation
à¹Ĥà¸¥à¸ģ à¹Ħà¸Ķ
à¸Ńà¸ĩà¸Īà¸²à¸ģ à¸ª
ĠT eam
à¸¬ à¸²à¸¡à¸«à¸²à¸§
Ġ9 3
à¸ģà¸Ĥà¸Ńà¸ĩ à¸Ļ
Ġà¸Ħà¸§à¸²à¸¡ à¸«à¸¡à¸²à¸¢
à¸Ľà¸£à¸°à¹Ģà¸łà¸Ĺ à¸Ń
à¹ĥà¸Ħà¸£ à¸£
à¸Ħà¸§à¸²à¸¡à¸«à¸¡à¸²à¸¢ à¸Ĺ
N e
à¸Ļ à¸łà¸²à¸Ħà¸ķ
à¸Ń à¹Ħà¸Ĥ
à¸į à¸Ľ
Ġà¹ģà¸¥à¸° à¸ģà¸³à¸¥
à¸ķà¸£ à¸ģà¸²à¸£à¸¨
Ġà¸Ń à¸§
à¸Ĺà¸²à¸ĩ à¹Ģà¸£
à¸Ļà¸ģà¸²à¸£ à¸¥
à¸¡à¸ŀ à¸²à¸ķ
à¹ģà¸ªà¸Ķà¸ĩ à¸£
à¸Ļà¸Ħà¸£ à¸Ńà¸ļà¸Ħà¸£
à¸ĩà¸Īà¸²à¸ģ à¸ģà¸²à¸£à¸ª
à¸ģà¸²à¸£à¸ª à¸«à¸Ľà¸£à¸°à¸Ĭà¸²à¸Ĭà¸²à¸ķ
à¸Ľà¸£à¸²à¸ģà¸ı à¸«à¸¥
à¹Ģà¸ģà¸²à¸° à¸ª
à¸ªà¸²à¸¢ à¸¥
à¸¥à¸Ĺ à¸£à¸£à¸¨à¸Ļ
ad a
Ġà¸Ħà¸ĵà¸° à¸Ĺ
à¸ļà¸£à¸²à¸Ĭ à¸ģà¸²à¸£à¸Ĺà¸«à¸²à¸£
Ġ195 5
à¸ĩà¸Ħà¸ĩ à¸Ķà¸³à¹Ģà¸Ļ
à¸Ļ à¸Ľà¸£à¸²à¸ģà¸ıà¸ģà¸²à¸£à¸ĵ
à¸ĩ à¸ķà¸£à¸ĩà¸Ĥ
à¸§ à¹ĥà¸Ļà¸Ĭ
à¸ļ à¹Ģà¸ĭà¸¥à¸¥
à¸Ħ à¹Ģà¸Ľ
à¸Ľ à¸ģà¸²à¸£à¸Ľà¸ģà¸Ħà¸£à¸Ńà¸ĩ
à¹Ĥ à¸ªà¸łà¸ĵ
à¹ĥà¸Ļ à¹ģà¸¡
à¸²à¸ģ à¸Ļ
à¸ł à¸²à¸§à¸Ķ
à¸Ńà¸¢ à¹Ģà¸Ńà¸ģ
Ġà¹ģà¸¥à¸° à¸ģà¸£
Ġà¹ģà¸¥à¸° à¸Ľà¸ı
à¸ĩà¸ģ à¸£à¸°à¸ļà¸§à¸Ļ
à¸Ļà¸¡ à¸²à¸Ķ
à¸Ńà¸ķ à¸Ńà¸ļà¸ªà¸Ļ
à¸Ļà¹ĥà¸Ļ à¸£à¸°à¸«à¸§
à¸Ĭà¸²à¸§ à¸Ķ
Ġà¹Ģà¸Ĥ à¸²à¸ª
à¸Ļà¸Ĥà¸Ńà¸ĩ à¸¡
à¸Ļà¹Ģà¸Ķ à¸£
à¸Ńà¸Ń à¸²à¸£
à¸ªà¸²à¸£ à¸ķ
à¸ģà¸©à¸ĵà¸° à¸£
à¸Ńà¸ģà¸²à¸£ à¸ªà¸£
Ġ9 7
ĠR ed
à¸²à¸ģà¸¥ à¸²à¸ĩà¸Ī
Ġà¸ł à¸£à¸£à¸¢à¸²à¸Ĥà¸Ńà¸ĩ
Ġ246 4
Ġ246 7
Ġ193 5
à¸Ķà¸ŀà¸£à¸° à¸ĺà¸²à¸ķ
ill a
à¸Ħà¸ĵ à¸ļà¸Ķ
à¸Īà¸²à¸Ħ à¹Ģà¸ĩ
à¸²à¸Ńà¸Ńà¸ģà¸Īà¸²à¸ģ à¸ķà¸³à¹ģà¸«à¸Ļ
à¸ļà¸ģà¸²à¸£à¸ªà¸ĸà¸²à¸Ľà¸Ļ à¸²à¹Ģà¸Ľ
P C
b urg
à¸Ļ à¸Ńà¸§à¸ģà¸²à¸¨
à¸ģ à¹ģà¸¥à¸°à¸ª
à¸ģ à¸ŀà¸£à¸°à¸£à¸²à¸Ĭà¸§
à¸Ķ à¸ŀà¸ļ
à¸ķ à¹Ģà¸Ķ
à¹ģ à¸§à¸Ļà¸ķ
à¸Ī à¸¢
à¸ŀ à¸Ŀ
à¸³ à¸ķà¸²
Ġà¹ģà¸¥à¸° à¸ŀà¸£à¸°à¸Ńà¸ĩà¸Ħ
à¸Ħà¸§à¸²à¸¡ à¸«à¸Ļ
à¸Ĳ à¸Ħ
à¹Ĥà¸¥ à¸ģà¸ķà¸°à¸§
Ġà¹Ģà¸¡ à¸¢
à¸²à¸ģà¸²à¸£ à¹Ģà¸Ľà¸£
à¸ĩà¹ĥà¸Ļ à¸Ńà¸Ķ
à¸ŀà¸ļ à¸ģà¸£à¸°à¸Īà¸²à¸¢à¸ŀ
à¸Īà¸Ļ à¹Ģà¸ª
à¸ģà¸²à¸¢ à¸łà¸²à¸ŀ
Ġ246 2
à¸Ķà¸ŀà¸£à¸° à¸Ļà¸Ħà¸£
à¹ģà¸¥à¸°à¸Ħà¸§à¸²à¸¡ à¸¡
Ġà¸Łà¸£ à¸²à¸Ļà¸ĭ
à¸ŀà¸£à¸£à¸Ħà¸Ļ à¸²à¸ĭ
à¸Ķ à¹ĥà¸ļ
à¸Ĺ à¸²à¸Ī
à¸ª à¹Ĥà¸ķà¸£
à¸Ī à¹Ģà¸¢
à¹ĥà¸Ļ à¹ģà¸Ńà¸Łà¸£
à¹ģà¸¥à¸° à¹ĥà¸Ļà¸Ľ
Ġà¹ģà¸¥à¸° à¸ļà¸²à¸ĩà¸Ħà¸£
Ġà¸ŀ à¸ļà¹ĥà¸Ļ
à¸§à¸ĩ à¸ĭ
à¸ªà¸¡ à¸¨
Ġà¸ģ à¸³à¹ģà¸ŀ
à¸«à¸²à¸£ à¸Ĥà¸Ńà¸ĩ
à¸ĩà¹ĥà¸Ļ à¸Ľà¸£à¸°à¸§
à¸ļà¸Ļ à¹Ģà¸£
à¸ĩà¸Īà¸²à¸ģ à¸ĸ
à¸ĩà¹ģ à¸Ħà¸§
à¸ªà¸²à¸¡ à¹Ģà¸ĵà¸£
ent h
à¹ģà¸Ń à¸ĭ
à¹ĥà¸Ļà¸Ľà¸£à¸°à¹Ģà¸Ĺà¸¨ à¸Ŀà¸£
Ġ0 9
à¸Ļà¹ģà¸Ķà¸Ļ à¹ģà¸«
à¸Ķà¸ļ à¸§à¸£à¸Ļ
à¹Ģà¸«à¸¡à¸²à¸°à¸ªà¸¡ à¸Ĺ
E A
v es
à¸Ļ à¸«à¸¥à¸§à¸ĩ
à¸ģ à¹Ģà¸ĭà¸¥
à¸¥ à¸«
à¸ļ à¹ģà¸Ľ
à¸ļ à¹Ĥà¸Ńà¸ģà¸²à¸ª
à¸ķà¸£ à¸²à¸ļ
à¸ĩà¸Ħ à¸³à¸§
à¸²à¸Ń à¸²à¸ĵà¸²à¸Ļ
an i
à¸ĩà¹ĥà¸Ļ à¸Ľà¸£à¸°à¹Ģà¸Ĺà¸¨à¹Ħà¸Ĺà¸¢
à¸Ļà¸Ĺà¸²à¸ĩ à¸Ļ
à¸°à¸§ à¸Ńà¸Ķà¸ª
à¸Ĭà¸²à¸¢ à¸¢à¸Ńà¸Ķà¹Ģà¸¢
à¹Ĥà¸ĭ à¹Ĥà¸¥
à¸¥à¸Ķ à¸£
as c
à¸Ķà¹ĥà¸Ļ à¸ļà¸£à¸£à¸Ķ
à¸ĩà¸¢ à¸Ńà¸£
ĠF estival
os p
ot her
[...]
