{"<s>":0,"<pad>":1,"</s>":2,"<unk>":3,"<mask>":4,"!":5,"\"":6,"#":7,"$":8,"%":9,"&":10,"'":11,"(":12,")":13,"*":14,"+":15,",":16,"-":17,".":18,"/":19,"0":20,"1":21,"2":22,"3":23,"4":24,"5":25,"6":26,"7":27,"8":28,"9":29,":":30,";":31,"<":32,"=":33,">":34,"?":35,"@":36,"A":37,"B":38,"C":39,"D":40,"E":41,"F":42,"G":43,"H":44,"I":45,"J":46,"K":47,"L":48,"M":49,"N":50,"O":51,"P":52,"Q":53,"R":54,"S":55,"T":56,"U":57,"V":58,"W":59,"X":60,"Y":61,"Z":62,"[":63,"\\":64,"]":65,"^":66,"_":67,"`":68,"a":69,"b":70,"c":71,"d":72,"e":73,"f":74,"g":75,"h":76,"i":77,"j":78,"k":79,"l":80,"m":81,"n":82,"o":83,"p":84,"q":85,"r":86,"s":87,"t":88,"u":89,"v":90,"w":91,"x":92,"y":93,"z":94,"{":95,"|":96,"}":97,"~":98,"¡":99,"¢":100,"£":101,"¤":102,"¥":103,"¦":104,"§":105,"¨":106,"©":107,"ª":108,"«":109,"¬":110,"®":111,"¯":112,"°":113,"±":114,"²":115,"³":116,"´":117,"µ":118,"¶":119,"·":120,"¸":121,"¹":122,"º":123,"»":124,"¼":125,"½":126,"¾":127,"¿":128,"À":129,"Á":130,"Â":131,"Ã":132,"Ä":133,"Å":134,"Æ":135,"Ç":136,"È":137,"É":138,"Ê":139,"Ë":140,"Ì":141,"Í":142,"Î":143,"Ï":144,"Ð":145,"Ñ":146,"Ò":147,"Ó":148,"Ô":149,"Õ":150,"Ö":151,"×":152,"Ø":153,"Ù":154,"Ú":155,"Û":156,"Ü":157,"Ý":158,"Þ":159,"ß":160,"à":161,"á":162,"â":163,"ã":164,"ä":165,"å":166,"æ":167,"ç":168,"è":169,"é":170,"ê":171,"ë":172,"ì":173,"í":174,"î":175,"ï":176,"ð":177,"ñ":178,"ò":179,"ó":180,"ô":181,"õ":182,"ö":183,"÷":184,"ø":185,"ù":186,"ú":187,"û":188,"ü":189,"ý":190,"þ":191,"ÿ":192,"Ā":193,"ā":194,"Ă":195,"ă":196,"Ą":197,"ą":198,"Ć":199,"ć":200,"Ĉ":201,"ĉ":202,"Ċ":203,"ċ":204,"Č":205,"č":206,"Ď":207,"ď":208,"Đ":209,"đ":210,"Ē":211,"ē":212,"Ĕ":213,"ĕ":214,"Ė":215,"ė":216,"Ę":217,"ę":218,"Ě":219,"ě":220,"Ĝ":221,"ĝ":222,"Ğ":223,"ğ":224,"Ġ":225,"ġ":226,"Ģ":227,"ģ":228,"Ĥ":229,"ĥ":230,"Ħ":231,"ħ":232,"Ĩ":233,"ĩ":234,"Ī":235,"ī":236,"Ĭ":237,"ĭ":238,"Į":239,"į":240,"İ":241,"ı":242,"Ĳ":243,"ĳ":244,"Ĵ":245,"ĵ":246,"Ķ":247,"ķ":248,"ĸ":249,"Ĺ":250,"ĺ":251,"Ļ":252,"ļ":253,"Ľ":254,"ľ":255,"Ŀ":256,"ŀ":257,"Ł":258,"ł":259,"Ń":260,"à¸":261,"à¹":262,"à¸²":263,"à¸Ļ":264,"à¸²à¸":265,"à¸£":266,"à¸Ń":267,"à¹Ģ":268,"à¹Ī":269,"à¸ģ":270,"à¸±":271,"à¸ĩ":272,"à¹Ģà¸":273,"à¹ī":274,"à¸µ":275,"à¸¡":276,"à¸¥":277,"à¸Ļà¸":278,"à¸´":279,"à¸¢":280,"à¸§":281,"à¸Ķ":282,"à¸°":283,"à¸ª":284,"à¸ķ":285,"à¸Ĺ":286,"à¸ļ":287,"à¹ģ":288,"à¸«":289,"à¸Ħ":290,"à¹ĥ":291,"à¹Į":292,"à¸Ī":293,"à¸²à¸£":294,"à¸Ľ":295,"à¸Ńà¸ĩ":296,"à¸·":297,"à¹Ħ":298,"à¸ŀ":299,"à¸¸":300,"à¸µà¹Ī":301,"à¹ĩ":302,"à¸¹":303,"à¹Ĥ":304,"à¸£à¸°":305,"à¸Ĥ":306,"à¸Ĭ":307,"à¸ģà¸²à¸£":308,"à¸³":309,"à¹Ģà¸Ľ":310,"à¸²à¸¢":311,"à¸²à¸ĩ":312,"à¹ģà¸¥":313,"à¸¶":314,"à¸¨":315,"à¸²à¸ģ":316,"à¹ģà¸¥à¸°":317,"à¸²à¸¡":318,"à¸·à¹Ī":319,"à¸±à¹ī":320,"à¹Ħà¸Ķ":321,"à¸ĸ":322,"à¹ĥà¸Ļà¸":323,"à¸Ĥà¸Ńà¸ĩ":324,"à¸ĭ":325,"à¸Ļà¸Ĺ":326,"Ġà¹Ģà¸":327,"à¸²à¸Ļ":328,"à¸©":329,"à¸Ńà¸¢":330,"à¹ĥà¸«":331,"à¹Ģà¸£":332,"Ġ2":333,"à¸ĵ":334,"à¹ĥà¸Ļ":335,"Ġà¹ģà¸¥à¸°":336,"à¸Ľà¸£à¸°":337,"à¸į":338,"à¸Ńà¸ģ":339,"à¸ľ":340,"à¸²à¸§":341,"à¸ł":342,"à¸ģà¸£":343,"à¸ĺ":344,"à¹Ģà¸ģ":345,"à¹Ĥà¸Ķ":346,"à¹Ģà¸¡":347,"Ġà¸ŀ":348,"à¸²à¸Ĭ":349,"à¸Ħà¸£":350,"à¸Ńà¸£":351,"Ġ(":352,"à¹Ģà¸Ķ":353,"à¸Ļà¸ķ":354,"Ġ1":355,"à¹Ģà¸¥":356,"à¸¶à¹Ī":357,"à¹Ģà¸Ĥ":358,"à¸Īà¸²à¸ģ":359,"à¸Ńà¸Ļ":360,"à¹Ĥà¸Ķà¸¢":361,"à¸¹à¹ī":362,"à¸Ħà¸§":363,"à¹Ģà¸Ĺ":364,"à¸ģà¸¥":365,"à¸ķà¸£":366,"à¸Ł":367,"à¸¹à¹Ī":368,"à¹Ģà¸ŀ":369,"à¸«à¸¥":370,"à¹Ħà¸Ľ":371,"à¸ŀà¸£à¸°":372,"à¸²à¸Ħ":373,"Ġà¸Ħ":374,"à¸µà¹ī":375,"à¸²à¸ª":376,"à¸«à¸Ļ":377,"à¸§à¸¢":378,"à¸Ħà¸§à¸²à¸¡":379,"à¸²à¸Ļà¸":380,"à¹ģà¸ķ":381,"Ġà¸¡":382,"Ġà¸Ĺ":383,"Ġà¸ª":384,"à¹Ħà¸¡":385,"à¸Ńà¸¡":386,"à¸£à¸£":387,"à¹Ģà¸«":388,"à¸Īà¸°":389,"à¸²à¸¥":390,"à¸²à¸Ī":391,"à¸§à¸ĩ":392,"à¸²à¸Ĺ":393,"à¹Ģà¸ª":394,"à¸Ļà¸ª":395,"à¸«à¸£":396,"à¹Ģà¸Ī":397,"à¸Ĺà¸¢":398,"à¸Ńà¸ļ":399,"à¸²à¸ķ":400,"à¸ģà¸©":401,"Ġà¹Ģà¸Ľ":402,"à¸Ĳ":403,"à¸²à¸ŀ":404,"à¸ļà¸£":405,"à¸Ļà¸§":406,"à¸£à¸ĩ":407,"à¹Ģà¸§":408,"Ġ\"":409,"à¸¥à¸ĩ":410,"Ġà¸ĭ":411,"Ġà¸Ń":412,"à¸Ļà¸Ķ":413,"à¸´à¹Ī":414,"à¸ªà¸¡":415,"Ġà¸ģ":416,"Ġ25":417,"à¹ĥà¸Ĭ":418,"à¸±à¹Ī":419,"à¹Ģà¸Ļ":420,"à¹Ģà¸Ń":421,"Ġà¸Ī":422,"à¸¢à¸ĩ":423,"Ġà¹Ĥà¸Ķà¸¢":424,"à¸£à¸²à¸Ĭ":425,"à¸§à¸¡":426,"à¹Ģà¸Ĭ":427,"Ġà¸ķ":428,"à¸Ĺà¸³":429,"à¹Ģà¸Ħ":430,"à¸Ľà¸£":431,"à¸¶à¹ī":432,"à¸ĩà¸ª":433,"à¸ļà¸ļ":434,"à¸¸à¹Ī":435,"à¸²à¸Ķ":436,"à¸«à¸¡":437,"à¸Ļà¸Ħ":438,"à¸¢à¸§":439,"à¹Ĩ":440,"à¹ĥà¸Ļà¸Ľ":441,"à¸Ńà¸Ķ":442,"à¸Ļà¸¡":443,"à¸ģà¸§":444,"à¹Ģà¸Ĺà¸¨":445,"Ġà¸Ļ":446,"Ġà¹ģ":447,"à¸«à¸§":448,"à¸²à¸«":449,"à¸Ļà¸Ļ":450,"à¹Ģà¸ķ":451,"à¸Ńà¸Ńà¸ģ":452,"Ĥà¸Ńà¸ĩ":453,"à¸·à¹ī":454,"à¸Ļà¸«":455,"à¸Ĺà¸²à¸ĩ":456,"Ġà¸£":457,"à¸ĩà¸ģ":458,"à¸²à¸¨":459,"à¸¢à¸Ļ":460,"à¸®":461,"à¹Ģà¸ĭ":462,"à¸£à¸ģ":463,"à¸Ļà¸Ī":464,"à¸£à¸¡":465,"à¸ĵà¸°":466,"00":467,"à¸¤":468,"à¸²à¸Ħà¸¡":469,"à¸łà¸²à¸ŀ":470,"à¸²à¸°":471,"à¹Ĥà¸¥":472,"à¸Ńà¸ª":473,"à¸Ńà¸¥":474,"à¸²à¸Ń":475,"à¸ĩà¸Ħ":476,"à¸Ļà¸ŀ":477,"à¸Ńà¸ĩà¸Ħ":478,"Ġà¹ģà¸ķ":479,"à¸²à¸ļ":480,"à¸Ńà¸§":481,"à¸Ļà¸ĺ":482,"à¹ģà¸«":483,"Ġà¹Ħà¸Ķ":484,"à¸Ļà¸ģ":485,"Ġà¸Ľ":486,"à¸ĩà¸Ĺ":487,"à¸ªà¸³":488,"Ġà¹Ģà¸¡":489,"à¸Ĺà¸ĺ":490,"à¸²à¸ĵ":491,"à¸¢à¸¡":492,"à¹Ģà¸ļ":493,"on":494,"à¸§à¸Ļ":495,"à¹ģà¸ģ":496,"à¸Īà¸³":497,"âĢ":498,"à¸Ŀ":499,"à¸Ļà¸Ń":500,"à¸Ĺà¸£":501,"à¹ģà¸ª":502,"à¹Ħà¸Ĺà¸¢":503,"à¸ĩà¸¡":504,"à¹ģà¸ļà¸ļ":505,"Ġ3":506,"à¸Ļà¸ķà¸£":507,"à¸Ľà¸£à¸°à¹Ģà¸Ĺà¸¨":508,"à¸ĩà¹Ģà¸Ľ":509,"Ġà¸Ķ":510,"Ġà¹Ĥ":511,"à¸²à¸¡à¸²à¸£":512,"à¹ĥà¸Ļà¸ģà¸²à¸£":513,"à¸Ļà¸³":514,"Ġà¹ĥà¸Ļà¸":515,"à¸Ħà¸¥":516,"Ġà¸Ĭ":517,"::":518,"à¸ľà¸¥":519,"à¸Ļà¸Ľ":520,"à¸²à¸¡à¸²à¸£à¸ĸ":521,"à¸ĩà¸Ĥ":522,"à¹ģà¸¡":523,"à¸ªà¸£":524,"Ġà¹Ĩ":525,"à¸¥à¸°":526,"à¸ģà¸£à¸°":527,"à¹ģà¸£à¸ģ":528,"à¸¡à¸²à¸ģ":529,"à¸«à¸²à¸£":530,"à¸Ķà¸ĩ":531,"à¸ļà¸ģà¸²à¸£":532,"à¸¢à¸ģ":533,"à¸ı":534,"er":535,"Ġà¸§":536,"à¸Ľà¸¥":537,"à¸Ļà¸Ĭ":538,"ti":539,"Ġà¸«à¸£":540,"à¸²à¸©":541,"à¸Ļà¸¢":542,"Ġà¹Ģà¸ŀ":543,"à¸ķà¸²à¸¡":544,"à¹ĥà¸«à¸į":545,"Ġ19":546,"à¹ĥà¸Ī":547,"à¸ĩà¸Ļ":548,"à¸ģà¸£à¸£à¸¡":549,"à¸¨à¸²à¸ª":550,"à¸¡à¸²":551,"Ġà¸ļ":552,"à¹Ĥà¸£":553,"à¸²à¸Ľ":554,"à¸Ļà¸£":555,"à¹ģà¸Ĥ":556,"à¸²à¸¢à¸Ļ":557,"à¸ĩà¸²à¸Ļ":558,"à¸¡à¸«":559,"à¸ŀà¸¥":560,"à¸Ńà¸ķ":561,"à¸Ļà¸ľ":562,"Ġà¸ŀà¸£à¸°":563,"à¸Ļà¸ļ":564,"à¹Ģà¸«à¸¥":565,"an":566,"à¸ļà¸ª":567,"Ġà¸ģà¸²à¸£":568,"à¸İ":569,"à¸ģà¸ª":570,"à¸£à¸£à¸¡":571,"à¸ĩà¸ķ":572,"à¸ī":573,"à¸ļà¸Ĺ":574,"à¸ģà¸ķ":575,"à¸²à¸ģà¸²à¸£":576,"à¸Ķà¸Ĺ":577,"à¹Ģà¸Ħà¸£":578,"à¸²à¸ĺ":579,"in":580,"Ġà¹ĥà¸Ļ":581,"à¸Ļà¸°":582,"à¸´à¹ī":583,"à¸Ļà¸ģà¸²à¸£":584,"à¸Ľà¸£à¸°à¸ģ":585,"à¹Ģà¸¢":586,"à¸ģà¸³":587,"à¸Ļà¸Ĥà¸Ńà¸ĩ":588,"à¹Ģà¸ŀà¸¥à¸ĩ":589,"Ġà¸¥":590,"à¸Ļà¹ģ":591,"à¸²à¹Ģà¸Ľ":592,"à¸¡à¸ŀ":593,"à¸Ĭà¸²à¸ķ":594,"à¸Ĵ":595,"Ġ20":596,"à¹Ģà¸§à¸¥":597,"Ġ4":598,"à¸¤à¸©":599,"à¸ªà¸ķ":600,"à¸Īà¸Ī":601,"à¹Ĥà¸¥à¸ģ":602,"à¹Ģà¸ĺ":603,"à¸¢à¸§à¸ģ":604,"à¸¡à¸Ļ":605,"à¸Ńà¸ĩà¸Ĺ":606,"à¸ªà¸²à¸¡à¸²à¸£à¸ĸ":607,"à¹Ģà¸¨":608,"à¹ĥà¸Ļà¸ª":609,"à¸ŀà¸£":610,"à¹ģà¸ªà¸Ķà¸ĩ":611,"à¹ĥà¸«à¸¡":612,"à¹ģà¸Ĺ":613,"à¹Ħà¸§":614,"à¹Ģà¸ł":615,"à¸Ķà¸ª":616,"à¸§à¸ģ":617,"Ġà¹Ģà¸Ĥ":618,"à¸ģà¸Ķ":619,"Ġ255":620,"à¸Ļà¹Ģà¸Ľ":621,"à¸Ļà¸Ĺà¸²à¸ĩ":622,"à¸įà¸į":623,"à¸Ļà¸«à¸Ļ":624,"à¹Ĥà¸¡":625,"à¸ĩà¸«à¸§":626,"à¸£à¸°à¸«à¸§":627,"à¸ĩà¸Īà¸²à¸ģ":628,"à¹Ģà¸ī":629,"à¸Ħà¸Ļ":630,"à¹ĥà¸ķ":631,"à¹Ĥà¸£à¸ĩ":632,"or":633,"à¸«à¸¡à¸²à¸¢":634,"à¸¨à¸²à¸ªà¸ķà¸£":635,"à¸Ļà¸Ħà¸£":636,"Ġ5":637,"Ġà¸ľ":638,"ar":639,"à¸Ĺà¸¢à¸²à¸¥":640,"à¸ķà¸³":641,"Ġà¹Ģà¸Ĭ":642,"Ġ24":643,"à¸ªà¸ĸ":644,"Ġà¸ĸ":645,"en":646,"à¸ĩà¸²à¸Ļà¸":647,"à¸Ļà¸²à¸¡":648,"à¸¥à¸²à¸¢":649,"tion":650,"Ġà¸Ĥ":651,"à¸²à¸Ĥà¸Ńà¸ĩ":652,"à¸Ĭà¸²à¸§":653,"à¹Ĥà¸ķ":654,"à¸Ĭà¸Ļ":655,"à¸§à¸£à¸£":656,"à¸ģà¸Ħà¸£":657,"à¸Ľà¸£à¸°à¸Ĭ":658,"Ġà¸Ĥà¸Ńà¸ĩ":659,"à¸«à¸¥à¸²à¸¢":660,"à¸Ķà¸ķ":661,"al":662,"à¸ĺà¸£à¸£à¸¡":663,"à¸ĩà¹Ħà¸Ķ":664,"à¸Ļà¸²":665,"à¸°à¸§":666,"à¸Ńà¸³":667,"à¸ŀà¸£à¸°à¸£à¸²à¸Ĭ":668,"à¸´à¹Į":669,"à¸²à¸Ĥ":670,"Ġà¸¢":671,"à¹Ģà¸Ĥà¸²":672,"à¸Ħà¸³":673,"à¸¢à¸£":674,"ĠS":675,"à¸ĩà¹ģà¸ķ":676,"à¸ĩà¸ģà¸²à¸£":677,"à¸Ńà¸Ĺ":678,"ec":679,"à¸¥à¸¥":680,"à¸²à¸Īà¸²à¸ģ":681,"à¸Ļà¹Ħà¸Ķ":682,"à¹Ģà¸ķà¸Ńà¸£":683,"à¸ŀà¸¢":684,"à¸²à¸Ļà¸Ĺ":685,"à¸ļà¸¥":686,"à¸Ľà¸£à¸°à¸ª":687,"à¸£à¸°à¸Ķ":688,"à¸Ĺà¸³à¹ĥà¸«":689,"à¸ģà¸¥à¸²à¸ĩ":690,"à¸£à¸²à¸¢":691,"à¸łà¸²à¸©":692,"Ġà¸Īà¸²à¸ģ":693,"à¸Ĺà¸£à¸ĩ":694,"à¹Ħà¸Ł":695,"à¸Ļà¸ĸ":696,"à¸Ńà¹Ģà¸¡":697,"à¹ĥà¸Ļà¸§":698,"à¸ŀà¸£à¸£":699,"à¹Ģà¸Ńà¸ĩ":700,"à¹Ģà¸Ľà¸¥":701,"à¸ģà¸Ĺ":702,"à¸Ķà¸³":703,"à¸ģà¸²":704,"à¸ŀà¸ļ":705,"à¹ĥà¸Ļà¸Ĭ":706,"Ġ201":707,"à¸łà¸²à¸¢":708,"à¸Ļà¸Ĥ":709,"à¸ĩà¸Ń":710,"à¸§à¸ĩà¸¨":711,"à¸¡à¸²à¸ĵ":712,"Ġà¸«à¸¥":713,"à¹Ĥà¸Ń":714,"Ġà¸Ĺà¸³":715,"à¹Ĭ":716,"à¸ĩà¸Ĥà¸Ńà¸ĩ":717,"ĠC":718,"à¸Ļà¹Ģà¸Ķ":719,"à¸Ķà¸Ĥ":720,"à¸ĩà¸Ħà¸£":721,"à¸Ļà¸²à¸Ķ":722,"à¸Ļà¸ŀà¸£à¸°":723,"à¹Ģà¸«à¸Ļ":724,"Ġà¹Ģà¸£":725,"à¸¡à¸ķ":726,"à¹ģà¸«à¸Ļ":727,"à¸¢à¸Ļà¸ķà¸£":728,"à¸Ļà¸Ĺà¸£":729,"es":730,"à¸²à¸ĩà¸§":731,"à¸²à¸ģà¸²à¸¨":732,"à¸¡à¸Ĺ":733,"à¸¢à¸ļ":734,"à¸ģà¸©à¸²":735,"à¸ļà¸²à¸¥":736,"Ġ6":737,"à¸Īà¸£":738,"à¸łà¸²à¸Ħ":739,"à¹ģà¸ŀ":740,"à¸Ńà¸Ľ":741,"à¸ĩà¸£":742,"à¸²à¸ĭ":743,"à¸ļà¸Ħ":744,"à¸ĳ":745,"à¹Ģà¸«à¸ķ":746,"à¸¥à¸ļ":747,"à¹Ģà¸Ńà¸ģ":748,"à¸Ľà¸£à¸°à¸ģà¸Ńà¸ļ":749,"à¹ģà¸ľ":750,"à¸ķà¸Ļ":751,"à¸Ńà¸¡à¸²":752,"à¸Īà¸ŀà¸£à¸°":753,"à¸¢à¸°":754,"à¸Ĭà¸²à¸¢":755,"à¹Ģà¸ĩ":756,"à¸§à¸²à¸¡":757,"à¸Ļà¸ł":758,"à¸Ńà¸ĩà¸ģ":759,"à¸²à¹Ĥ":760,"à¸¡à¸Ľ":761,"à¸§à¸£":762,"ĠâĢ":763,"à¹Ģà¸ĺà¸Ń":764,"à¸Ļà¸Ľà¸£à¸°":765,"à¹Ģà¸Ĥà¸ķ":766,"à¹Ĥà¸£à¸ĩà¹Ģà¸£":767,"à¸Ļà¸ĭ":768,"à¸ļà¸Ļ":769,"Ġà¹ĥà¸Ļà¸Ľ":770,"à¸Ľà¸ı":771,"à¸ģà¸ģ":772,"he":773,"à¸«à¸¡à¸Ķ":774,"Ġ254":775,"à¸Ńà¸ģà¸Īà¸²à¸ģ":776,"à¸£à¸²à¸°":777,"à¸ķà¸¢":778,"à¸Ńà¸Ń":779,"à¸ģà¸²à¸¥":780,"à¸ĩà¸Ńà¸¢":781,"à¸Ńà¸ĩà¸Īà¸²à¸ģ":782,"à¸ĵà¸ĳ":783,"à¸£à¸°à¸ļà¸ļ":784,"Ġ7":785,"à¸²à¸ĩà¸ģ":786,"ĠM":787,"Ġà¹Ģà¸ģ":788,"ĠA":789,"à¸ĩà¹ģ":790,"Ġà¸«":791,"à¸ªà¸²à¸£":792,"à¸¨à¸£":793,"à¸ķà¸§":794,"à¸ªà¸Ļ":795,"à¸Ļà¸Ńà¸¢":796,"Ġà¸ģà¸£":797,"Ġà¹Ģà¸Ī":798,"à¸ĩà¸ģà¸¥":799,"à¸§à¸Ķ":800,"à¸ĩà¸ģà¸¤à¸©":801,"à¸Ļà¹Ĥ":802,"à¸Ķà¸ģà¸²à¸£":803,"à¸¡à¸²à¸£":804,"Ġ200":805,"Ġà¸Ħà¸Ļ":806,"à¸²à¸Īà¸°":807,"à¸ªà¸¡à¹Ģà¸Ķ":808,"à¸²à¸ĸ":809,"à¸¥à¸³":810,"à¹Ħà¸£":811,"à¸Ļà¹Ħà¸Ľ":812,"à¸§à¸Ī":813,"à¹ĥà¸Ļà¸Ĺ":814,"à¸£à¸§à¸¡":815,"à¸Ńà¹Ģà¸¡à¸£":816,"ection":817,"à¸Ĩ":818,"à¸ĩà¹Ģà¸ģ":819,"Ħà¸£":820,"à¸ļà¸Ńà¸¥":821,"à¸¥à¸Ľ":822,"à¹Ģà¸«à¸¡":823,"à¸ĩà¸Ħà¸£à¸²à¸¡":824,"à¸Īà¸°à¸¡":825,"à¸²à¸ģà¸£":826,"Ġà¹Ģà¸Ķ":827,"ĠT":828,"à¸ģà¸ĭ":829,"Ġà¸Ĺà¸³à¹ĥà¸«":830,"à¸¥à¸°à¸Ħà¸£":831,"à¸ļà¸Ķ":832,"à¸Ļà¹ģà¸¥à¸°":833,"à¸ĩà¸«":834,"à¸²à¸ĩà¸ª":835,"à¸Ńà¸°":836,"à¸©à¸Ĳ":837,"à¸¡à¸ª":838,"à¸ļà¸Ħà¸§à¸²à¸¡":839,"à¸Ļà¹Ģà¸¡":840,"à¸Ľà¸£à¸°à¸¡à¸²à¸ĵ":841,"à¸Ńà¸Ļà¸Ĺ":842,"ic":843,"Ġà¸Ńà¸¢":844,"is":845,"à¸Ńà¸²à¸ģà¸²à¸¨":846,"à¸ģà¸©à¸ĵà¸°":847,"à¸£à¸°à¹Ģà¸Ĺà¸¨":848,"Ġ8":849,"::::":850,"à¹ģà¸Ľ":851,"à¸ĩà¸«à¸¡à¸Ķ":852,"Ġà¸Ħà¸£":853,"à¸ŀà¸£à¸°à¸Ńà¸ĩà¸Ħ":854,"Section":855,"Âł":856,"à¸ĩà¸Ĭ":857,"Ġà¹Ħà¸¡":858,"at":859,"à¸Ńà¹Ģà¸Ľ":860,"à¸ķà¸°à¸§":861,"à¹Ĥà¸ģ":862,"à¸²à¸£à¸ĵ":863,"à¸Ļà¸Īà¸°":864,"à¸¬":865,"à¸Ļà¸²à¸¢":866,"à¸ģà¸İ":867,"à¸ĩà¹ģà¸£à¸ģ":868,"à¸Ńà¸ģà¸²à¸£":869,"à¸«à¸¥à¸§à¸ĩ":870,"à¸ªà¸³à¸«à¸£":871,"à¸²à¸ľ":872,"à¸ĩà¸§":873,"Ġà¸£à¸§à¸¡":874,"à¸Ńà¸ĩà¸ª":875,"Ġà¹Ģà¸Ń":876,"à¹Ģà¸§à¸ĵ":877,"à¸ªà¸³à¸Ħ":878,"à¹Ĥà¸ĭ":879,"à¸²à¸Ńà¸¢":880,"à¸ĩà¸Ľ":881,"à¸Ļà¸Ńà¸Ńà¸ģ":882,"à¸ķà¸³à¹ģà¸«à¸Ļ":883,"à¸Ĵà¸Ļ":884,"à¸²à¸ł":885,"à¸ģà¸²à¸£à¸ª":886,"à¸Ķà¸Ļ":887,"à¸Ńà¸«":888,"à¸łà¸²à¸ŀà¸¢à¸Ļà¸ķà¸£":889,"Ġ18":890,"ĠB":891,"à¸Ńà¸²à¸Ī":892,"à¸ŀà¸²à¸°":893,"à¹ĥà¸Ļà¸£":894,"à¸ļà¸²à¸Ĺ":895,"à¹Ģà¸Ĺà¸ŀ":896,"à¸¸à¹ī":897,"à¹ģà¸ļ":898,"à¸ĩà¸ļ":899,"à¸¥à¸Ķ":900,"à¸Ĥà¸Ļà¸²à¸Ķ":901,"Ġà¸ªà¸¡":902,"Ġ-":903,"à¸ģà¸²à¸£à¸ĵ":904,"à¹Ĥà¸Ļ":905,"à¹Ģà¸īà¸ŀà¸²à¸°":906,"Ġ10":907,"à¸¨à¸Ļ":908,"Ġà¸Īà¸°":909,"à¸ģà¸²à¸£à¸Ĺ":910,"à¹Ģà¸Ł":911,"à¸¡à¸Ń":912,"à¸Ķà¸ģ":913,"ĠP":914,"à¹Ĥà¸Ħà¸£":915,"à¹Ĥà¸Ľà¸£":916,"à¸Īà¸³à¸Ļà¸§":917,"à¹ģà¸Ļà¸§":918,"à¸¡à¸²à¸Īà¸²à¸ģ":919,"à¸ģà¸³à¸¥":920,"à¸Ļà¸¡à¸²à¸ģ":921,"à¸²à¸«à¸²à¸£":922,"à¸Ĳà¸¡":923,"Ġ9":924,"à¸¢à¸²à¸¢":925,"à¹Ĥà¸Ħ":926,"à¸ģà¸£à¸ĵ":927,"âĢĿ":928,"à¹Ģà¸ªà¸£":929,"Ġt":930,"Ġà¹Ģà¸Ļ":931,"à¸¡à¸²à¸¢":932,"à¹Ģà¸ľ":933,"à¸¢à¸²":934,"Ġà¹Ĥà¸Ķà¸¢à¸¡":935,"le":936,"à¸¢à¸Ĭ":937,"à¸§à¸¡à¸ģ":938,"à¸ļà¸Ń":939,"à¹Ģà¸ģà¸¥":940,"Ġà¹Ħ":941,"à¸Ľà¸ģà¸Ħà¸£":942,"ĠâĢľ":943,"à¸ªà¸Ńà¸ĩ":944,"à¸¡à¸«à¸²à¸§":945,"à¹Ĥà¸Ĺà¸£":946,"à¸ªà¸ģ":947,"ro":948,"it":949,"à¸§à¹Ħà¸Ľ":950,"Ġà¸Ľà¸£à¸°":951,"à¸Ĳà¸ļà¸²à¸¥":952,"à¸²à¹Ħà¸Ķ":953,"à¸Ńà¸ģà¸Īà¸²à¸ģà¸Ļ":954,"à¸ķà¸ļà¸Ńà¸¥":955,"à¸Ļà¸¥":956,"as":957,"à¸ĩà¸Ī":958,"à¸²à¸ģà¸ı":959,"à¸Ńà¸²à¸ĵ":960,"à¸Ńà¹Ģà¸£":961,"à¸¢à¸ģà¸§":962,"Ġà¹ģà¸¥à¸°à¸¡":963,"à¹ĥà¸Ļà¸Ľà¸£à¸°à¹Ģà¸Ĺà¸¨":964,"à¸²à¸«à¸¥":965,"à¸Ļà¹ĥà¸Ļ":966,"à¸©à¸¢":967,"à¸Ńà¸ĩà¸£":968,"Ġà¸ģà¸¥":969,"à¸ŀà¸£à¸°à¹Ģà¸Ī":970,"à¸ļà¸ģ":971,"re":972,"à¸Ļà¸¨":973,"à¸ļà¸ķ":974,"000":975,"à¸Ńà¸Ĥà¸Ńà¸ĩ":976,"à¸ĩà¸Ķ":977,"à¸ĩà¸ĸ":978,"à¸ģà¸Ĥà¸Ńà¸ĩ":979,"à¸²à¸Ļà¸°":980,"à¸ģà¸Ħ":981,"à¸ŀà¸§à¸ģ":982,"Ġà¹ģà¸¡":983,"à¹Ħà¸Ĥ":984,"à¸ļà¸¡":985,"à¹ģà¸¥à¸Ļà¸Ķ":986,"Ġ253":987,"à¸ļà¸§":988,"à¹Ĥà¸Ĺ":989,"à¹ĭ":990,"à¸£à¸ĸ":991,"à¸Ķà¸Ń":992,"à¸¡à¸¡":993,"Ġà¸Ł":994,"à¸Ľà¸£à¸°à¸ģà¸²à¸¨":995,"à¸§à¸²à¸ĩ":996,"à¸²à¸¢à¸Ĺ":997,"à¸£à¸ĵ":998,"à¸²à¸Ħà¸²à¸£":999,"à¸Ķà¸Ĥà¸Ńà¸ĩ":1000,"à¸³à¸Ļà¸§":1001,"à¸ĩà¸¢":1002,"us":1003,"à¸Ķà¸²":1004,"à¸Ķà¸¡":1005,"à¹Ĥà¸¢":1006,"à¸ªà¸³à¹Ģà¸£":1007,"à¸Ļà¹Ģà¸ŀ":1008,"Ġà¸Ħà¸§à¸²à¸¡":1009,"à¹ĥà¸Ļà¸ŀ":1010,"Ġà¸ĵ":1011,"à¸Ļà¹Ģà¸£":1012,"Ġà¸ĺ":1013,"à¸Ľà¸£à¸²à¸ģà¸ı":1014,"à¸ĩà¹Ħà¸¡":1015,"à¸«à¸į":1016,"à¸³à¸Ļ":1017,"à¸¥à¸Ńà¸Ķ":1018,"à¸£à¸°à¸ļ":1019,"à¹Ģà¸Ħà¸¥":1020,"à¸«à¸²à¸§":1021,"à¸Ńà¹ĥà¸«":1022,"à¸°à¹Ģà¸¥":1023,"à¸¸à¹Į":1024,"à¸Ļà¸Īà¸²à¸ģ":1025,"am":1026,"à¸²à¹Ģà¸£":1027,"à¸ļà¸²à¸ĩ":1028,"à¸Ħà¸ĵà¸°":1029,"à¸Ńà¸ģà¸ķ":1030,"ac":1031,"à¸ĩà¹Ģà¸¨":1032,"à¸ģà¸²à¸£à¸ķ":1033,"à¸ķà¸ª":1034,"ol":1035,"à¸Ķà¸£":1036,"ĠD":1037,"à¸²à¸ķà¸£":1038,"à¸²à¸¢à¹Ģà¸Ľ":1039,"à¹ĥà¸Ļà¸ķ":1040,"à¹Ĥà¸Ī":1041,"à¸¯":1042,"à¹ĥà¸Ļà¸«":1043,"Ġà¹ģà¸¥à¸°à¹Ħà¸Ķ":1044,"ĠR":1045,"à¸ĺà¸²à¸Ļ":1046,"à¸ļà¸£à¸£":1047,"à¹Ģà¸§à¸¥à¸²":1048,"à¸²à¸ŀà¸£à¸°":1049,"à¸Ńà¸ĩà¸ģà¸²à¸£":1050,"à¸Ńà¸Ħ":1051,"à¸Ĭà¸¡à¸Ľ":1052,"à¸²à¸Ł":1053,"à¹ģà¸Ħ":1054,"Ġà¸Ľà¸£à¸°à¹Ģà¸Ĺà¸¨":1055,"à¹Ģà¸Ħà¸¢":1056,"el":1057,"Ġ15":1058,"à¸ĩà¹ĥà¸Ļ":1059,"Ġà¹ĥà¸«":1060,"à¸Ĳà¸¡à¸Ļà¸ķà¸£":1061,"à¸ªà¸«à¸£":1062,"à¸²à¸ªà¸ķà¸£":1063,"à¸£à¸°à¸¢à¸°":1064,"à¸§à¸£à¸£à¸©":1065,"à¸Ľà¸ģà¸Ħà¸£à¸Ńà¸ĩ":1066,"à¸Ļà¹Ħà¸¡":1067,"à¸²à¸ĩà¸Ĺ":1068,"à¸«à¸Ļà¸Ķ":1069,"à¸Ļà¸«à¸¥":1070,"à¸ģà¸²à¸£à¸¨":1071,"à¸ķà¸ķ":1072,"à¸³à¸«à¸£":1073,"à¸¢à¸²à¸§":1074,"ĠG":1075,"Ġ12":1076,"à¹Ģà¸®":1077,"à¹Ģà¸¡à¸ķà¸£":1078,"à¸ģà¸¡":1079,"à¹ĥà¸Ļà¸ł":1080,"à¸²à¹ģà¸¥à¸°":1081,"Ġà¹Ģà¸ª":1082,"à¸Ħà¸§à¸²à¸¡à¸£":1083,"à¹Ģà¸¨à¸©":1084,"ĠL":1085,"à¸²à¸ĩà¹Ĩ":1086,"Ġo":1087,"à¸Ńà¹Ħà¸Ľ":1088,"à¸Ńà¸³à¹Ģà¸ł":1089,"Ġà¸®":1090,"à¸Ļà¸²à¸ĩ":1091,"à¸¢à¸Ķ":1092,"à¸ĩà¹Ģà¸¨à¸ª":1093,"à¸ģà¸Ĥ":1094,"à¸ĵà¸°à¸Ĺ":1095,"à¸Ľà¹ģà¸ļà¸ļ":1096,"à¸Ńà¸²à¸£":1097,"à¸²à¸Ļà¸ª":1098,"à¹Ħà¸ĭ":1099,"Ġà¸ļà¸£":1100,"à¸Ļà¸²à¸Ļ":1101,"à¹ģà¸Ľà¸¥à¸ĩ":1102,"Ġà¹Ģà¸Ĺ":1103,"à¸¥à¸²":1104,"à¸ªà¸ĸà¸²à¸Ļ":1105,"à¹Ħà¸¥":1106,"Ġà¹ģà¸¥":1107,"à¹Ĥà¸£à¸Ħ":1108,"Ġà¹ģà¸¥à¸°à¹Ģà¸Ľ":1109,"à¸²à¸ģà¸¥":1110,"à¸Ķà¸³à¹Ģà¸Ļ":1111,"à¸Ĭà¸Ļà¸°":1112,"ĠW":1113,"à¸ģà¸Ļ":1114,"à¸Ńà¸Ł":1115,"à¸Ńà¸ĩà¸Ļ":1116,"à¸Ļà¸²à¸Ī":1117,"ĠF":1118,"Ġà¹ģà¸«":1119,"à¸ªà¸²à¸¡":1120,"à¸²à¹ģ":1121,"à¸Ļà¸ªà¸¡":1122,"à¸ģà¹Ģà¸£":1123,"à¸ĩà¸Ĭà¸²à¸ķ":1124,"à¹ĥà¸Ļà¸ļ":1125,"à¸Ŀà¸£":1126,"Ġ16":1127,"à¹Ģà¸¥à¸Ĥ":1128,"à¹Į\"":1129,"ĠH":1130,"à¸¤à¸Ķ":1131,"à¸Ńà¸²à¸ĵà¸²à¸Ī":1132,"à¸²à¸Ľà¸£à¸°":1133,"Ġà¸¨":1134,"à¹ĥà¸ģà¸¥":1135,"à¸²à¹Ħà¸Ľ":1136,"ĠI":1137,"à¸¡à¸Ĥ":1138,"à¸²à¸¨à¸²à¸ªà¸ķà¸£":1139,"à¸§à¸¥":1140,"il":1141,"Ġà¹Ģà¸ŀà¸£à¸²à¸°":1142,"à¸ģà¸£à¸£à¸¡à¸ģà¸²à¸£":1143,"Ġà¸Ļà¸Ńà¸ģà¸Īà¸²à¸ģà¸Ļ":1144,"à¸Ľà¸£à¸°à¸Īà¸³":1145,"à¸Ļà¹Ģà¸Ĺ":1146,"à¸¢à¸ª":1147,"à¸²à¸£à¸¢":1148,"om":1149,"à¸Ńà¸ŀ":1150,"à¸²à¸Ļà¸ķ":1151,"à¸Ńà¸Ĥ":1152,"à¸§à¸Ļà¹ĥà¸«à¸į":1153,"à¹Ĥà¸Ĺà¸£à¸Ĺ":1154,"à¸Ńà¸³à¸Ļà¸²à¸Ī":1155,"à¹Ģà¸ģà¸¡":1156,"à¸Ńà¸Ļà¸ģ":1157,"à¸²à¸Ļà¸«":1158,"à¸Ľà¸£à¸°à¸Ĭà¸²à¸Ĭ":1159,"à¸²à¸į":1160,"à¹Ģà¸¢à¸Ńà¸£":1161,"à¹Ģà¸ģà¸²à¸°":1162,"Ġof":1163,"à¹Ģà¸ķà¸£":1164,"à¸Īà¸²à¸ģà¸ģà¸²à¸£":1165,"à¸ŀà¸£à¸£à¸Ħ":1166,"à¸ªà¸³à¸Ļ":1167,"à¸¢à¸Ńà¸Ķ":1168,"Ġà¸ķà¸²à¸¡":1169,"Ġ11":1170,"à¸§à¸ª":1171,"ing":1172,"âĢĵ":1173,"à¸ĩà¸«à¸Ļ":1174,"à¸Īà¸°à¹Ģà¸Ľ":1175,"à¸ģà¸²à¸£à¹Ģà¸¡":1176,"à¸ªà¸¡à¸²à¸Ĭ":1177,"à¸ĩà¸ŀ":1178,"à¸Īà¸Ļ":1179,"à¸ļà¸ªà¸Ļ":1180,"à¸Ńà¸Ļà¸ķ":1181,"à¸ľà¸¥à¸ĩ":1182,"à¸Ńà¸Ļà¸Ķ":1183,"à¹Ĥà¸¡à¸ªà¸£":1184,"à¸Ńà¸Ĭ":1185,"à¸³à¹Ģà¸ł":1186,"à¹ĥà¸ļ":1187,"à¸Ļà¸Ł":1188,"Ġà¹Ģà¸§":1189,"à¸Ńà¹Ģà¸ª":1190,"à¸ĩà¸¨":1191,"à¸Ńà¸ĩà¸ķ":1192,"à¸ŀà¸£à¸£à¸Ķ":1193,"à¸ĩà¹ĥà¸«":1194,"à¸ģà¸ļ":1195,"à¸ģà¸£à¸ŀà¸£à¸£à¸Ķ":1196,"à¸¡à¸Ĭ":1197,"Ġs":1198,"à¸ķà¸ĸ":1199,"Ġà¹Ģà¸«":1200,"à¸Ħà¸§à¸²à¸¡à¸ª":1201,"à¸¥à¸¢":1202,"à¸Ķà¸²à¸§":1203,"ul":1204,"ur":1205,"à¸ģà¸²à¸£à¸Ī":1206,"à¸ªà¸¡à¸ļ":1207,"Ġà¸Ļà¸²à¸¢":1208,"Ġà¹Ģà¸¥":1209,"à¸ĩà¹Ģà¸£":1210,"à¸¥à¸Ńà¸ĩ":1211,"à¸²à¸£à¸°":1212,"à¹ĥà¸Ļà¸Ħ":1213,"à¸įà¸«":1214,"et":1215,"Ġ17":1216,"à¸£à¸°à¸Ĺ":1217,"à¸ªà¹Ģà¸ĭ":1218,"à¸Ĳà¸Ńà¹Ģà¸¡à¸£":1219,"à¸ĩà¹Ģà¸Ķ":1220,"à¸Ĥà¸Ńà¸ĩà¸ª":1221,"à¹Ģà¸§à¸Ńà¸£":1222,"à¸ģà¸£à¸¡":1223,"à¸Ńà¸²à¸¢":1224,"à¹Ģà¸łà¸Ĺ":1225,"Ġà¹":1226,"à¸Ńà¸ĩà¸¡":1227,"à¸Ļà¹Ģà¸Ī":1228,"ĠE":1229,"Ġà¸ŀà¸£à¸°à¸Ńà¸ĩà¸Ħ":1230,"à¸ģà¸©à¸ĵ":1231,"Ġà¸«à¸Ļ":1232,"à¹ĥà¸Ļà¸Ń":1233,"Ġ14":1234,"à¸Ķà¸Ħ":1235,"à¸Ĺà¸«à¸²à¸£":1236,"Ġ252":1237,"à¹Ħà¸Łà¸Ł":1238,"à¸Ħà¸Ħà¸¥":1239,"un":1240,"Ġc":1241,"à¹ģà¸¢à¸ģ":1242,"Ġà¹Ģà¸ĭ":1243,"Ġ256":1244,"à¸¥à¸²à¸Ħà¸¡":1245,"à¸£à¸Ńà¸ļ":1246,"ed":1247,"à¸¢à¸²à¸¡":1248,"à¸Ļà¸²à¸Ħà¸¡":1249,"à¸łà¸²à¸Ħà¸¡":1250,"à¸¨à¸Ī":1251,"id":1252,"à¸ģà¸Ńà¸ĩà¸Ĺ":1253,"à¹Ģà¸¨à¸£":1254,"à¸Ĭà¸²":1255,"Ġà¹Ģà¸Ħ":1256,"à¹ģà¸£à¸ĩ":1257,"à¹Ģà¸¥à¸¢":1258,"à¸ĩà¹ģà¸¥à¸°":1259,"à¸²à¸ĩà¹Ģà¸Ľ":1260,"à¸²à¸ĩà¸Ĥ":1261,"à¸Ļà¸ķà¸ģ":1262,"à¸Īà¸²à¸£à¸ĵ":1263,"19":1264,"à¸Ķà¸§":1265,"and":1266,"Ġ13":1267,"à¸¤à¸©à¸łà¸²à¸Ħà¸¡":1268,"à¸ĩà¹Ģà¸Ĺà¸ŀ":1269,"à¹Į,":1270,"Ġ23":1271,"à¸§à¸Ĺ":1272,"à¸Ļà¸§à¸²à¸Ħà¸¡":1273,"à¹ĥà¸Ķ":1274,"à¸£à¸²à¸¢à¸ģà¸²à¸£":1275,"à¸²à¸Ļà¸Ĥà¸Ńà¸ĩ":1276,"à¸²à¸ĩà¹Ħ":1277,"à¹Į)":1278,"à¸¡à¸£":1279,"à¸Ńà¸ªà¸£":1280,"à¸ģà¸£à¸²à¸Ħà¸¡":1281,"à¸§à¸«à¸Ļ":1282,"Ġà¸Ńà¸Ńà¸ģ":1283,"ĠN":1284,"à¸Ļà¹Ĩ":1285,"à¸£à¸§à¸Ī":1286,"à¸°à¹ģ":1287,"à¸Ĺà¸£à¸§à¸ĩ":1288,"ter":1289,"Ġ,":1290,"à¸¥à¸²à¸Ķ":1291,"à¸Ļà¸¡à¸²":1292,"à¸ģà¸³à¸«à¸Ļà¸Ķ":1293,"à¸£à¸£à¸Ħ":1294,"à¸ªà¸ĩà¸Ħà¸£à¸²à¸¡":1295,"à¸ªà¸§":1296,"Ġ199":1297,"à¹Ħà¸Ľà¸¢":1298,"Ġà¸Ńà¸³à¹Ģà¸ł":1299,"à¹ĥà¸ª":1300,"à¸ĩà¸¥":1301,"à¸ªà¸¥":1302,"à¸ļà¸²à¸Ĺà¸ªà¸¡à¹Ģà¸Ķ":1303,"à¸ģà¸Ń":1304,"à¸ģà¸²à¸£à¸Ħ":1305,"à¸³à¸ģ":1306,"Ġà¹Ģà¸ĺ":1307,"à¸ļà¸ľ":1308,"à¸Ļà¸¢à¸²à¸¢à¸Ļ":1309,"à¸ĩà¸«à¸²à¸Ħà¸¡":1310,"à¸©à¸²à¸¢à¸Ļ":1311,"à¹Ĥà¸£à¸Ľ":1312,"à¸Ńà¸ĩà¸ļ":1313,"à¸²à¸Ļà¸Ħ":1314,"à¹ģà¸ŀà¸Ĺà¸¢":1315,"à¸³à¸ļà¸¥":1316,"à¸ģà¸Ī":1317,"à¹ĥà¸Ļà¸¢":1318,"à¸ģà¸İà¸²à¸Ħà¸¡":1319,"Ġà¸ŀà¸£":1320,"à¸ªà¸°":1321,"à¸Ħà¸§à¸ļà¸Ħ":1322,"à¸«à¸¢":1323,"à¸Ĺà¸¢à¸²à¸¨à¸²à¸ªà¸ķà¸£":1324,"à¸Ļà¸²à¸¢à¸Ļ":1325,"à¸£à¸²à¸Ĭà¸§à¸ĩà¸¨":1326,"à¸¡à¸°":1327,"à¸ĩà¸ªà¸Ńà¸ĩ":1328,"à¸Ľà¸£à¸°à¸ģà¸Ńà¸ļà¸Ķ":1329,"25":1330,"à¸Ħà¸£à¸Ńà¸ĩ":1331,"à¸ķà¸²à¸¥":1332,"à¸Ķà¸Ĭ":1333,"à¹ĥà¸Ļà¸ªà¸¡":1334,"à¸ļà¸£à¸¡":1335,"Ġà¸Ĺà¸²à¸ĩ":1336,"à¸¤à¸¨à¸Ī":1337,"à¸¢à¸Ĺ":1338,"à¸Ļà¹Ģà¸ª":1339,"à¸§à¸Ńà¸¢":1340,"à¸ģà¸¥à¸²à¸¢à¹Ģà¸Ľ":1341,"à¸ģà¸²à¸£à¹ģà¸Ĥ":1342,"à¸²à¸¢à¸ģ":1343,"à¸ļà¸Ĭ":1344,"à¹Ģà¸ŀà¸£à¸²à¸°":1345,"Ġà¸Ĺà¸£à¸ĩ":1346,"à¸Ľà¸£à¸°à¸Ĺ":1347,"Ġf":1348,"à¸ģà¸Ĭ":1349,"à¸ģà¸²à¸¢à¸Ļ":1350,"à¹Ģà¸ĭà¸Ńà¸£":1351,"à¹ģà¸Ķà¸ĩ":1352,"à¹ģà¸ŀà¸£":1353,"à¸§à¸£à¸£à¸©à¸Ĺ":1354,"à¸ļà¸Ľà¸£":1355,"à¸²à¹Ģà¸Ī":1356,"à¸Ńà¸¡à¸ģ":1357,"à¸¡à¹Ģà¸Ľ":1358,"à¸Ľà¸£à¸°à¹Ģà¸Ĺà¸¨à¹Ħà¸Ĺà¸¢":1359,"à¸²à¹Ģà¸¡":1360,"à¸ªà¸²à¸¢":1361,"à¸Ķà¹Ģà¸Ľ":1362,"à¸Ļà¸Ħà¸§à¸²à¸¡":1363,"à¸Ĭà¸²à¸ģà¸²à¸£":1364,"à¸²à¸«à¸Ļ":1365,"ation":1366,"à¸²à¸©à¸İ":1367,"à¸Ļà¹Ħ":1368,"à¸ģà¸ŀ":1369,"à¸ĩà¸Ħà¸¡":1370,"à¸ªà¸Ķ":1371,"à¸¥à¸Ĺ":1372,"à¹Ģà¸ģà¸©":1373,"à¸Ļà¹ĥà¸«":1374,"à¸ģà¸©à¸£":1375,"à¸Ńà¸²à¸«à¸²à¸£":1376,"à¸Ĭà¸£":1377,"à¸²à¸ĺà¸²à¸£à¸ĵ":1378,"à¸¢à¸Ńà¸¡":1379,"à¸Ĳà¸²à¸Ļ":1380,"à¸£à¸°à¸ģ":1381,"à¸²à¸§à¸°":1382,"à¸²à¸Ļà¸ŀ":1383,"20":1384,"à¸Ńà¸ĩà¸ĸ":1385,"ch":1386,"à¸ģà¸²à¸£à¸£":1387,"à¸Ńà¸Ī":1388,"à¹Ģà¸ģà¸£":1389,"à¸ĩà¸ľ":1390,"à¹ģà¸¥à¸°à¸ª":1391,"à¸Ļà¹ĥà¸Ī":1392,"à¹ģà¸ķà¸ģà¸ķ":1393,"à¹ģà¸Ł":1394,"),":1395,"à¸«à¸²à¸¢":1396,"à¸ĩà¸Īà¸°":1397,"à¸ĩà¹Ģà¸¡":1398,"os":1399,"à¸Ļà¸ĺà¸£à¸£à¸¡":1400,"Ġà¸łà¸²à¸¢":1401,"à¸¡à¸łà¸²à¸ŀ":1402,"à¹Ģà¸Īà¸£":1403,"à¸¥à¸ª":1404,"ad":1405,"à¸§à¸¢à¸ģ":1406,"à¸²à¸Ļà¸Ħà¸£":1407,"à¹Ĥà¸Ńà¸£":1408,"à¸Īà¸³à¸«à¸Ļ":1409,"à¸¢à¸ķ":1410,"à¸Ńà¸²à¸¨":1411,"à¹Ģà¸Ńà¹Ģà¸Ĭ":1412,"Ġà¸¡à¸«à¸²à¸§":1413,"à¸²à¸©à¸İà¸£":1414,"à¸²à¸ĩà¸Ľà¸£à¸°à¹Ģà¸Ĺà¸¨":1415,"à¸²à¸ĩà¹Ħà¸£à¸ģ":1416,"à¸Ļà¸łà¸²à¸ŀ":1417,"à¸Ļà¹Ĥà¸Ķ":1418,"à¸Ļà¹Ĥà¸Ķà¸¢":1419,"à¸¢à¸Ļà¸ķ":1420,"à¸«à¸¡à¸²à¸¢à¸ĸ":1421,"à¸²à¸¢à¸Ĥà¸Ńà¸ĩ":1422,"Ġà¸«à¸¡":1423,"à¸ªà¸ł":1424,"à¹Ģà¸¨à¸£à¸©à¸Ĳ":1425,"à¹ĥà¸Ļà¸Ĥ":1426,"à¹Ĥà¸Ĭ":1427,"à¸²à¸ĩà¸ķ":1428,"à¸¥à¸³à¸Ķ":1429,"à¹Ĥà¸Ńà¸ģ":1430,"à¸Ńà¸ĩà¸Ĥà¸Ńà¸ĩ":1431,"..":1432,"ent":1433,"à¸Ķà¹Ģà¸¡":1434,"âĢĭ":1435,"à¸Ńà¸Ļà¸ª":1436,"à¸²à¹Ģà¸¥":1437,"Ġà¸ŀà¸¤à¸©à¸łà¸²à¸Ħà¸¡":1438,"à¸ģà¸²à¸£à¸ļ":1439,"à¸¡à¸²à¸ģà¸ģà¸§":1440,"Ġà¹ĥà¸Ļà¸Ĭ":1441,"à¸Ńà¸Ńà¸ģà¸Īà¸²à¸ģ":1442,"Ġ251":1443,"à¸Ļà¸ģà¸£à¸°à¸Ĺ":1444,"à¸Ķà¸Ķ":1445,"à¸Ńà¸ľ":1446,"Ġthe":1447,"à¸¡à¸Ĥà¸Ńà¸ĩ":1448,"à¸²à¸ªà¸¡":1449,"à¸§à¸ķ":1450,"Ġp":1451,"à¸Ļà¸ģà¸¥":1452,"à¸ĩà¸Īà¸²à¸ģà¸Ļ":1453,"à¸ģà¹ģà¸ªà¸Ķà¸ĩ":1454,"Ġà¸¡à¸ģà¸£à¸²à¸Ħà¸¡":1455,"à¸ĸà¸²à¸Ļ":1456,"à¸Ľà¸£à¸°à¸§":1457,"à¹ĥà¸Ļà¹Ģà¸Ķ":1458,"à¸²à¸Ļà¸ļ":1459,"à¸³à¹ģà¸«à¸Ļ":1460,"à¹Ģà¸ªà¸Ķ":1461,"à¸²à¸°à¸«":1462,"à¹Ģà¸§à¸Ĺ":1463,"à¸ģà¸Ľ":1464,"Ġà¹ģà¸¥à¸°à¸¢":1465,"à¸Ļà¹Ģà¸ģ":1466,"à¹Ĥà¸¥à¹Ģà¸¡à¸ķà¸£":1467,"à¸£à¸ª":1468,"à¸ĩà¸ĭ":1469,"à¹ģà¸Ī":1470,"Ġà¹Ģà¸¡à¸©à¸²à¸¢à¸Ļ":1471,"à¸²à¸Ļà¸§":1472,"à¸Ĺà¸³à¸ĩà¸²à¸Ļ":1473,"à¸Ńà¸Ħà¸§à¸²à¸¡":1474,"à¸²à¸ļà¸²à¸¥":1475,"à¸²à¸Īà¸²à¸£à¸¢":1476,"à¸Ńà¸ĩà¸Ķ":1477,"Ġà¹ĥà¸Ĭ":1478,"à¸²à¸Ĭà¸²à¸¢":1479,"à¸Ńà¸ĸ":1480,"à¸ģà¹Ģà¸Ľ":1481,"à¸£à¸°à¹Ģà¸ļ":1482,"à¸ļà¸£à¸²à¸ĵ":1483,"à¸ĺà¸¢à¸¡":1484,"à¸¢à¸Ļà¹ģà¸Ľà¸¥à¸ĩ":1485,"Ġà¸ģà¸£à¸ģà¸İà¸²à¸Ħà¸¡":1486,"à¸ģà¸£à¸°à¸Ī":1487,"à¸Ļà¹Ģà¸Ĭ":1488,"à¸ķà¸§à¸£à¸£à¸©à¸Ĺ":1489,"à¹ģà¸ĭ":1490,"Ġà¹ĥà¸Ļà¸§":1491,"à¹Ĥà¸£à¸¡":1492,"à¸²à¸ĩà¸£":1493,"à¹Ĥà¸Ľ":1494,"ig":1495,"ĠK":1496,"Ġà¸Īà¸²à¸ģà¸Ļ":1497,"à¸Ļà¸Ĳ":1498,"à¸Ļà¸Ŀ":1499,"à¸²à¸¢à¸²à¸¡":1500,"à¹ģà¸¥à¸°à¸¡":1501,"à¸º":1502,"à¸Īà¸°à¸ķ":1503,"à¸Ĺà¸³à¸ģà¸²à¸£":1504,"à¸²à¸ĩà¸¡à¸²à¸ģ":1505,"Ġ30":1506,"à¸ļà¸ŀ":1507,"Ġà¹Ĥà¸£à¸ĩ":1508,"à¸Ńà¸Ļà¸¡":1509,"à¸§à¸¢à¸ģà¸²à¸£":1510,"à¹Ģà¸Ħà¸£à¸²à¸°à¸«":1511,"à¸§à¸Ĥà¸Ńà¸ĩ":1512,"à¸ģà¸£à¸°à¸Ĺà¸£à¸§à¸ĩ":1513,"ĠO":1514,"à¸Ļà¹Ģà¸Ĥ":1515,"à¸ĩà¸Ħà¸§à¸²à¸¡":1516,"à¸Ĵà¸Ļà¸²":1517,"à¸Ńà¸ļà¸Ħà¸£":1518,"à¸£à¸ĩà¸ķà¸³à¹ģà¸«à¸Ļ":1519,"à¸Ħà¸Ńà¸¡":1520,"Ġà¸ŀà¸¤à¸¨à¸Ī":1521,"à¸¢à¸Ļà¸Ĭ":1522,"à¸²à¸«à¸į":1523,"Ġ21":1524,"à¹Ĥà¸Ńà¸£à¸ª":1525,"à¸¡à¸ģ":1526,"à¸²à¸ĩà¸Ń":1527,"à¸ģà¸²à¸¢":1528,"à¸§à¹Ģà¸Ńà¸ĩ":1529,"à¸ĵà¸°à¸Ļ":1530,"à¸ŀà¸¢à¸²à¸¢à¸²à¸¡":1531,"Ġà¹ĥà¸Ļà¸ģà¸²à¸£":1532,"à¸²à¸Ħà¸§à¸²à¸¡":1533,"à¸²à¸ģà¸©":1534,"Ġd":1535,"à¹Ģà¸Ľà¸Ńà¸£":1536,"à¸Ńà¹Ħà¸Ķ":1537,"Ĳà¸²à¸Ļà¸°":1538,"Ġà¸ªà¸³à¸«à¸£":1539,"à¸²à¸ĩà¸Ħ":1540,"à¹Ĥà¸¥à¸¢":1541,"um":1542,"à¸Ĭà¸Ļà¸¡":1543,"Ġà¹ģà¸¥à¸°à¸ķ":1544,"à¸Ħà¹Ĥà¸Ļ":1545,"ir":1546,"à¸²à¸ĩà¸Ļ":1547,"à¸ģà¸Ńà¸¢":1548,"ag":1549,"Ġm":1550,"à¸²à¸Ĺà¸³":1551,"à¸īà¸ļ":1552,"à¸¤à¸ķ":1553,"à¸Ħà¹Ĥà¸Ļà¹Ĥà¸¥à¸¢":1554,"à¸Ńà¸ĩà¸Ń":1555,"à¸²à¸Ļà¸Ķ":1556,"ot":1557,"à¸Ńà¹Ģà¸¥":1558,"à¸ģà¸°":1559,"à¸Ķà¸¥":1560,"à¹Ģà¸īà¸¥":1561,"Ġà¹Ģà¸ļ":1562,"à¹Ĥà¸ŀ":1563,"à¸Ļà¸³à¹Ħà¸Ľ":1564,"à¸ĩà¸ªà¸£":1565,"à¸ļà¸Ľ":1566,"à¸Ķà¸Ľ":1567,"à¸ĩà¸ĩà¸²à¸Ļ":1568,"Ġà¹Ģà¸¡à¸ķà¸£":1569,"à¸īà¸²à¸¢":1570,"à¸ļà¸§à¸Ļ":1571,"à¸Ķà¹Ģà¸Ķ":1572,"à¸¢à¸Ļà¸Ĺ":1573,"Ġà¸£à¸§à¸¡à¸Ĺ":1574,"à¸Ńà¸Īà¸²à¸ģ":1575,"à¸ķà¸³à¸ļà¸¥":1576,"à¹Ĥà¸Ńà¸ģà¸²à¸ª":1577,"à¹Ģà¸Ńà¸ª":1578,"à¸Ńà¹Ģà¸Ķ":1579,"à¸ĩà¸Ńà¸Ńà¸ģ":1580,"à¸ķà¸Ĺ":1581,"à¸³à¸¥":1582,"Ġà¸Ńà¸Ķ":1583,"Ġà¹ĥà¸Ļà¸ª":1584,"à¸¢à¸£à¸ķ":1585,"à¸²à¹Ħà¸¡":1586,"ve":1587,"à¸²à¸ĩà¸Īà¸²à¸ģ":1588,"à¸¡à¸²à¹Ģà¸Ľ":1589,"à¸³à¸Ĺ":1590,"à¹Ħà¸Ĺ":1591,"à¸ķà¸£à¸§à¸Ī":1592,"à¸¢à¸Ńà¸¢":1593,"à¸Ńà¸¥à¸¥":1594,"à¸²à¸§à¸§":1595,"à¸ļà¹Ģà¸Ľ":1596,"à¹ģà¸ĸ":1597,"à¹ģà¸Ķ":1598,"à¸§à¸£à¸£à¸Ħ":1599,"à¸ģà¸İà¸«à¸¡à¸²à¸¢":1600,"à¹Ĥà¸Ħà¸£à¸ĩà¸ģà¸²à¸£":1601,"à¸°à¹ģà¸Ļà¸Ļ":1602,"à¸Ĥà¸Ńà¸ĩà¸Ń":1603,"à¸³à¹Ģà¸Ļ":1604,"à¸¨à¸²à¸ªà¸Ļ":1605,"Ġà¹ģà¸¥à¸°à¸ª":1606,"à¸ģà¹ģà¸¥à¸°":1607,"Ġà¸ł":1608,"à¸¢à¸Ļà¸ª":1609,"à¸ļà¹Ģà¸¥":1610,"à¸Ĵà¸Ļà¸ĺà¸£à¸£à¸¡":1611,"à¸²à¸¢à¸ģà¸²à¸£":1612,"od":1613,"à¸ļà¸Ĥ":1614,"à¹ģà¸«à¸¥":1615,"à¸¢à¸²à¸Ļ":1616,"à¹Ģà¸ģà¸²à¸«à¸¥":1617,"à¹ĥà¸Ļà¸ŀà¸£à¸°":1618,"Ġ198":1619,"à¸§à¸Ļà¸«à¸Ļ":1620,"à¸²à¸¢à¸ª":1621,"à¸ŀà¸Ĺ":1622,"Ġà¸ľà¸¥":1623,"à¸²à¸Ļà¸Ĭ":1624,"à¹ģà¸¢":1625,"à¸Ķà¹Ģà¸¥":1626,"à¹Ģà¸ªà¸Ļà¸Ń":1627,"à¸²à¸Ļà¸Ľ":1628,"à¸²à¸Ļà¸ģà¸²à¸£":1629,"à¹Ħà¸Ľà¸Ķ":1630,"à¸ķà¸Ńà¸Ļ":1631,"à¹Ĥà¸ļà¸£à¸²à¸ĵ":1632,"à¸Ńà¸ĺ":1633,"à¸ĩà¸Īà¸²à¸ģà¸Ĺ":1634,"à¸°à¸Ĺ":1635,"à¸³à¸Ħ":1636,"à¸ļà¸Ī":1637,"à¸Ļà¹ģà¸ļà¸ļ":1638,"Ġà¸ªà¸²à¸¡à¸²à¸£à¸ĸ":1639,"à¸ģà¸Īà¸°":1640,"à¸Ĥà¸²à¸§":1641,"à¸ļà¸ĸ":1642,"à¸Ĺà¸¢à¸²":1643,"à¸Łà¸£":1644,"à¸įà¸įà¸²à¸ĵ":1645,"à¸įà¸²à¸ķ":1646,"à¸ŀà¸£à¸°à¸£à¸²à¸Ĭà¸Ĺ":1647,"à¸ģà¸¢":1648,"à¹ģà¸¥à¸°à¸ģà¸²à¸£":1649,"Ġà¹ĥà¸Ļà¸Ĥ":1650,"à¸Ńà¸Ńà¸ģà¹ģà¸ļà¸ļ":1651,"à¸ļà¸«à¸Ļ":1652,"Ġà¹Ħà¸Ľ":1653,"à¸¢à¸§à¸Ĥ":1654,"em":1655,"à¸³à¸£":1656,"Ġ250":1657,"à¸²à¸Ħà¸£":1658,"à¸¨à¸§":1659,"à¸Ļà¹Ģà¸Ńà¸ĩ":1660,"à¸Ľà¸¥à¸²à¸¢":1661,"Ġà¸ķà¸³à¸ļà¸¥":1662,"à¹Ģà¸ĭà¸¥à¸¥":1663,"à¸ĩà¸²à¸¡":1664,"à¸§à¸Ļà¸Ĺ":1665,"à¸ļà¸Ńà¸ģ":1666,"à¸¨à¸ķà¸§à¸£à¸£à¸©à¸Ĺ":1667,"à¸Ħà¸³à¸§":1668,"à¸§à¸¥à¸°à¸Ħà¸£":1669,"à¹Ģà¸Ńà¸¥":1670,"à¸Ľà¸Ķ":1671,"à¸ģà¸£à¸°à¸Ķ":1672,"à¹Ģà¸Ĥà¸²à¹Ħà¸Ķ":1673,"à¹Ĥà¸¢à¸Ĭà¸Ļ":1674,"Ġà¸£à¸§à¸¡à¸ĸ":1675,"Ġ22":1676,"à¸§à¸Ļà¸ķ":1677,"à¸¢à¸¨":1678,"à¸¡à¸Ķ":1679,"à¸Ľà¸£à¸°à¸ķ":1680,"ĠJ":1681,"à¸²à¸Ļà¸Ī":1682,"à¸Ńà¹Ħà¸¡":1683,"à¸²à¸£à¸²à¸Ĭ":1684,"à¸Īà¸Ńà¸¡":1685,"à¹Ģà¸ģà¸©à¸ķà¸£":1686,"à¸Łà¸Ńà¸£":1687,"à¸¡à¸§":1688,"à¸ģà¹Ģà¸ģ":1689,"op":1690,"à¹Ģà¸ŀà¸¥":1691,"à¹Ģà¸ļà¸Ńà¸£":1692,"Ġà¹ģà¸¥à¸°à¸Ń":1693,"à¸Ļà¸Īà¸³à¸Ļà¸§":1694,"à¸ĩà¹Ģà¸Ĥ":1695,"à¸¢à¸į":1696,"à¸Ļà¹ģà¸£à¸ĩ":1697,"à¸Ľà¸£à¸°à¹Ģà¸łà¸Ĺ":1698,"à¸§à¹Ĥà¸¥à¸ģ":1699,"à¸Ķà¹ĥà¸Ļ":1700,"à¸§à¸¢à¹Ģà¸«à¸¥":1701,"à¸¤à¸©à¸İ":1702,"ia":1703,"à¸Ľà¸Ľ":1704,"à¸§à¸Ń":1705,"à¸ģà¸¨":1706,"à¸ŀà¸Ń":1707,"à¸ģà¸ĸ":1708,"à¸ļà¸²à¸¢":1709,"Ġ249":1710,"à¸Ĥà¸¢à¸²à¸¢":1711,"à¸ģà¸²à¸£à¹Ģà¸¥":1712,"à¸Ńà¸²à¸Ĭ":1713,"à¸Ħà¸§à¸£":1714,"à¸ĩà¹Ħà¸Ľ":1715,"à¹ĥà¸Ļà¸Ľà¸£à¸°à¹Ģà¸Ĺà¸¨à¹Ħà¸Ĺà¸¢":1716,"ay":1717,"à¸ĩà¸²à¸Ļà¸Ĺ":1718,"à¸Ńà¹Ģà¸Ļ":1719,"à¸ŀà¸¢à¸²à¸ļà¸²à¸¥":1720,"à¸Ķà¸Īà¸²à¸ģ":1721,"à¸Ńà¸ªà¹Ģà¸ķà¸£":1722,"à¸Ĥà¸Ļà¸²à¸Ķà¹ĥà¸«à¸į":1723,"à¸¥à¹Ģà¸¥":1724,"à¸ĩà¸ľà¸¥":1725,"à¸Īà¸°à¹Ħà¸Ķ":1726,"à¸ŀà¸£à¸°à¸ŀ":1727,"à¸ģà¸²à¸£à¹ĥà¸Ĭ":1728,"à¹Ģà¸¨à¸£à¸©à¸Ĳà¸ģ":1729,"à¸°à¸ģ":1730,"à¸Ńà¸ł":1731,"à¸¡à¸«à¸²à¸Ļà¸Ħà¸£":1732,"à¸Ļà¸łà¸²à¸©":1733,"à¸²à¹Ģà¸Ĥ":1734,"oc":1735,"ĠV":1736,"à¸¡à¸Ĭà¸²à¸ķ":1737,"ut":1738,"à¸Ĥà¸²à¸¢":1739,"à¹Ģà¸ŀà¸¨":1740,"à¸²à¸«à¸£":1741,"à¸§à¸£à¸£à¸ĵ":1742,"à¸²à¸ĩà¸Ĥà¸Ńà¸ĩ":1743,"à¸²à¸®":1744,"Ġb":1745,"à¸Īà¸ŀà¸£à¸°à¸£à¸²à¸Ĭ":1746,"à¸§à¸£à¸£à¸Ķ":1747,"à¹ĥà¸Ļà¸Ħà¸£":1748,"à¸ģà¸£à¸§à¸£à¸£à¸Ķ":1749,"à¹Ħà¸ķ":1750,"à¸Ķà¸Ļà¸ķà¸£":1751,"à¸Ńà¸Ļà¸Ļ":1752,"à¸ļà¸£à¸²à¸ĩà¸§":1753,"à¸ľà¸¥à¸ĩà¸²à¸Ļ":1754,"Ġà¹Ģà¸ŀà¸¥à¸ĩ":1755,"ri":1756,"à¹ģà¸ªà¸Ķ":1757,"à¸¥à¸Ļ":1758,"à¸ģà¸²à¸£à¸Ľà¸ģà¸Ħà¸£à¸Ńà¸ĩ":1759,"à¸¡à¸ĵ":1760,"à¸įà¸įà¸²":1761,"à¸²à¸¢à¹Ħà¸Ľ":1762,"à¸ļà¸ĭ":1763,"à¸ļà¸£à¸¡à¸£à¸²à¸Ĭ":1764,"à¸ļà¸Ĥà¸Ńà¸ĩ":1765,"à¹ģà¸Ĺà¸Ļà¸£":1766,"Ġà¸£à¸°à¸«à¸§":1767,"à¸ĩà¸Ĺà¸³à¹ĥà¸«":1768,"à¸ŀà¸ļà¸ģ":1769,"à¸¥à¸Ľà¸°":1770,"à¸ģà¸£à¸°à¸Ĺ":1771,"à¸Ńà¸ĩà¸§":1772,"à¹ĥà¸Ļà¸Ī":1773,"à¸Ńà¸Ńà¸ģà¸Ńà¸²à¸ģà¸²à¸¨":1774,"à¸¢à¸Ĥà¸Ńà¸ĩ":1775,"à¸Ļà¸ªà¸¡à¸²à¸Ĭ":1776,"à¸²à¸ĩà¸«à¸Ļ":1777,"¤à¸Ķ":1778,"à¸³à¸¡":1779,"à¸ķà¸Ĥà¸Ńà¸ĩ":1780,"ap":1781,"à¸Ĺà¸§":1782,"à¸²à¸¯":1783,"Ġà¹Ĥà¸Ķà¸¢à¸Ĺ":1784,"à¸ģà¸²à¸£à¸ŀ":1785,"à¹Ģà¸Ĺà¸Ħà¹Ĥà¸Ļà¹Ĥà¸¥à¸¢":1786,"à¹Ģà¸ľà¸¢":1787,"à¸ªà¸ĸà¸²à¸Ľ":1788,"Ġà¸ŀà¸£à¸°à¹Ģà¸Ī":1789,"à¸ĩà¸Ĩ":1790,"Ġà¹Ĥà¸Ķà¸¢à¹Ģà¸īà¸ŀà¸²à¸°":1791,"à¸ķà¸Ńà¸ļ":1792,"Ġà¸Ħà¸ĵà¸°":1793,"à¸²à¸ĺà¸²à¸£à¸ĵà¸£":1794,"à¸Ķà¸«à¸Ļ":1795,"à¸Ĭà¸¡":1796,"à¸Ļà¹Ģà¸Ļ":1797,"à¸Īà¸Ļà¸ĸ":1798,"à¸Ķà¹ĥà¸«":1799,"Ġà¸ŀà¸¥":1800,"à¹Ģà¸«à¸£":1801,"à¹ģà¸£à¸ģà¸Ĥà¸Ńà¸ĩ":1802,"à¸ĩà¹Ģà¸Ĺà¸ŀà¸¡à¸«à¸²à¸Ļà¸Ħà¸£":1803,"à¸ªà¸²à¸§":1804,").":1805,"à¸Ĺà¸³à¸¥à¸²à¸¢":1806,"à¸Ķà¹Ģà¸Ĭ":1807,"à¸Ĺà¸²à¸ĩà¸Ĺ":1808,"à¹Ħà¸®":1809,"à¸Ĺà¸Ńà¸ĩ":1810,"à¸Ļà¹ĥà¸Ļà¸Ľ":1811,"à¹ĥà¸Ħà¸£":1812,"à¸©à¸ĵ":1813,"ow":1814,"à¸¡à¸²à¸ģà¸Ĺ":1815,"à¹Ģà¸¢à¸Ńà¸£à¸¡":1816,"Ġà¸ŀà¸£à¸°à¸£à¸²à¸Ĭ":1817,"à¸Ļà¸Ńà¸ģ":1818,"à¸Ľà¸Ķà¸²à¸«":1819,"à¸Ķà¸ŀ":1820,"à¸ķà¸Ļà¹Ģà¸Ńà¸ĩ":1821,"à¸Ľà¸ķ":1822,"à¸ģà¸Ńà¸ĩ":1823,"à¸ģà¸ªà¸ł":1824,"à¸Ħà¸²à¸£":1825,"Ġà¸Ĭà¸²à¸§":1826,"à¸ģà¸²à¸¥à¸Ĺ":1827,"à¸§à¸²à¸¢":1828,"à¸Ķà¸Ħà¸§à¸²à¸¡":1829,"Ġ:":1830,"à¸£à¸ĸà¹Ħà¸Ł":1831,"à¸Ľà¸£à¸°à¸Ķ":1832,"à¸ķà¸ªà¸²à¸«":1833,"à¸§à¸¢à¸Ħà¸§à¸²à¸¡":1834,"à¸Ńà¸ĭ":1835,"à¸²à¹Ģà¸Ķ":1836,"à¸Ńà¸Ļà¸«à¸Ļ":1837,"à¸Ļà¸Ĺà¸²à¸ĩà¸ģà¸²à¸£":1838,"Ġà¸¡à¸²à¸£":1839,"à¸Ķà¸Ī":1840,"à¸Ĭà¸¢":1841,"à¹ĥà¸Ļà¸Ķ":1842,"à¸²à¸ĩà¸Ķ":1843,"à¸²à¹Ģà¸ģ":1844,"à¸³à¸«à¸Ļ":1845,"à¸Ľà¸£à¸°à¸Ĭà¸²à¸ģà¸£":1846,"à¸§à¹Ģà¸¡":1847,"à¸ŀà¸£à¸°à¸ļà¸²à¸Ĺà¸ªà¸¡à¹Ģà¸Ķ":1848,"Ġà¸ªà¸¡à¹Ģà¸Ķ":1849,"Ġà¸ģà¸£à¸°":1850,"à¹Ħà¸«à¸¥":1851,"Ġà¸Īà¸³à¸Ļà¸§":1852,"10":1853,"à¸ĺà¸£à¸£à¸¡à¸Ĭà¸²à¸ķ":1854,"à¹ģà¸Ľà¸¥":1855,"à¸ģà¹Ģà¸Ĥ":1856,"à¸Ńà¸ĩà¸Ī":1857,"30":1858,"à¸Ńà¸Ńà¸ģà¹Ħà¸Ľ":1859,"ver":1860,"à¸¥à¸ķ":1861,"à¸ĩà¸²à¸Ļà¸Ĥà¸Ńà¸ĩ":1862,"à¸²à¸Ļà¸Ĥ":1863,"à¸ķà¸ģ":1864,"st":1865,"à¹ģà¸Ĺà¸Ļ":1866,"à¸ĩà¸ģà¸£":1867,"à¸¢à¹ģà¸¥à¸°":1868,"à¸ļà¸Ħà¸§à¸²à¸¡à¸ªà¸³à¹Ģà¸£":1869,"à¸ĸà¸²à¸Ļà¸Ĺ":1870,"à¸Ľà¸²à¸ģ":1871,"à¸Ļà¹Ģà¸ķ":1872,"à¸Ķà¸²à¸£":1873,"à¹ĥà¸Ļà¸Ĳà¸²à¸Ļà¸°":1874,"Ġà¸ªà¸²à¸Ĥ":1875,"Ġ0":1876,"à¸¡à¸²à¸ģà¸Ĥ":1877,"ĠâĢĵ":1878,"à¹Ģà¸¢à¸Ńà¸£à¸¡à¸Ļ":1879,"à¸Ļà¹ģà¸Ķ":1880,"à¹ģà¸Ļ":1881,"à¸£à¸²à¸ĩà¸§":1882,"à¹ģà¸Ĺà¸Ļà¸£à¸²à¸©à¸İà¸£":1883,"à¸ģà¸³à¸ģ":1884,"à¸¡à¸ł":1885,"à¹Ģà¸Ķà¸Ńà¸°":1886,"Ġ197":1887,"à¸²à¹ĥà¸Ī":1888,"à¸Īà¸ŀà¸£à¸°à¹Ģà¸Ī":1889,"à¸Ľà¸£à¸°à¹Ĥà¸¢à¸Ĭà¸Ļ":1890,"à¸įà¸¥":1891,"à¸łà¸²à¸¢à¹ĥà¸ķ":1892,"à¸Ħà¸Ķ":1893,"à¸¡à¸²à¸ķà¸£":1894,"à¸ķà¸¥à¸Ńà¸Ķ":1895,"à¹Ĥà¸Ĺà¸©":1896,"à¸ļà¹Ħà¸Ľ":1897,"à¸¡à¸²à¸ķ":1898,"à¸²à¸¡à¸²":1899,"à¸Ļà¹Ģà¸¥":1900,"à¸ķà¸²":1901,"à¸Ńà¸Ļà¸ŀ":1902,"à¸Ńà¹Ģà¸Ĥ":1903,"à¹Ģà¸ĺà¸Ńà¸£":1904,"à¹Ģà¸Ķà¸Ńà¸£":1905,"Ġà¹Ģà¸Ĥà¸²à¹Ħà¸Ķ":1906,"à¸Ľà¸ģà¸£à¸ĵ":1907,"à¸Ńà¸ĩà¹Ģà¸Ĺ":1908,"à¸£à¸²à¸Ĭà¸ģà¸²à¸£":1909,"à¸¥à¸¡":1910,"à¸§à¸ĩà¸Ĺ":1911,"ĠU":1912,"à¹Ģà¸ĸ":1913,"à¸Ĥà¸Ńà¸ĩà¸£":1914,"à¹Ĥà¸®":1915,"à¹Ĥà¸Īà¸¡à¸ķ":1916,"im":1917,"à¸¢à¸²à¸ģ":1918,"The":1919,"à¸łà¸²à¸©à¸²":1920,"à¸¢à¸ģà¸²à¸£":1921,"à¸²à¸§à¸Ļ":1922,"à¸ľà¸ªà¸¡":1923,"Ġà¸Ļà¸³":1924,"à¸Ńà¸³à¸Ļà¸§":1925,"à¸¨à¸²à¸¥":1926,"à¸ļà¸ļà¸Ĺ":1927,"à¸Ńà¸«à¸Ļ":1928,"à¸Ńà¸Ļà¸Ĥ":1929,"à¸ªà¸Ļà¸²à¸¡":1930,"à¸ļà¸£à¸²à¸Ĭ":1931,"Ġ100":1932,"à¸Ľà¸£à¸°à¸ªà¸²à¸Ĺ":1933,"Ġà¹ģà¸¥à¸°à¸ģà¸²à¸£":1934,"à¸ķà¸ªà¸²à¸«à¸ģà¸£à¸£à¸¡":1935,"à¹ģà¸£":1936,"Ġà¸Ľà¸£":1937,"à¸¡à¸ļ":1938,"50":1939,"à¸Ķà¸Ńà¸¢":1940,"Ġ248":1941,"à¸Ļà¸Ĭà¸²à¸§":1942,"à¹ĥà¸Ļà¸£à¸°à¸Ķ":1943,"à¸Ķà¸³à¸£à¸ĩà¸ķà¸³à¹ģà¸«à¸Ļ":1944,"à¹Ģà¸ªà¸Ļ":1945,"à¸¨à¸²à¸ªà¸Ļà¸²":1946,"à¸Ńà¸ĩà¸£à¸²à¸§":1947,"à¸Ńà¸Ļà¸Īà¸°":1948,"à¸ĸà¸Ļ":1949,"Ġà¸ªà¸£":1950,"à¸Ļà¹Ģà¸ŀà¸¥à¸ĩ":1951,"orm":1952,"ce":1953,"à¸Ħà¸Ļà¸Ĺ":1954,"à¸ĺà¸¢à¸¡à¸¨":1955,"à¸ĭà¸²":1956,"à¸ļà¸Ĺà¸ļà¸²à¸Ĺ":1957,"à¸¥à¸Ń":1958,"Ġà¹Ģà¸Ħà¸£":1959,"Ġ194":1960,"à¸¢à¸ĩà¹ĥà¸«à¸¡":1961,"à¸ĩà¹ģà¸¡":1962,"à¸Ĥà¸Ńà¸ĩà¸Ĺ":1963,"à¸§à¸Ļà¸Ĥà¸Ńà¸ĩ":1964,"à¸ªà¸Ĺ":1965,"à¸Ľà¸£à¸°à¸ĺà¸²à¸Ļ":1966,"à¹ģà¸£à¸ģà¸Ĺ":1967,"à¸²à¸Ĭà¸Ļà¸°":1968,"à¸łà¸²à¸©à¸²à¸Ń":1969,"à¸ģà¸©à¸²à¸ķ":1970,"Ġà¹ģà¸¥à¸°à¸Ļ":1971,"à¸Īà¸°à¸ĸ":1972,"à¸ĩà¹Ĥà¸Ķà¸¢":1973,"à¸²à¸Ĭà¸Ńà¸²à¸ĵà¸²à¸Ī":1974,"à¸ªà¹Ģà¸ķà¸Ńà¸£":1975,"à¸Ļà¸«à¸£":1976,"à¹Ģà¸Ĺà¸¨à¸ļà¸²à¸¥":1977,"à¸¡à¸ľ":1978,"à¸Ńà¸ģà¸¥":1979,"à¸²à¸ĩà¸¢":1980,"à¸ĩà¹Ģà¸ŀ":1981,"à¹Į-":1982,"Ġà¸ŀà¸§à¸ģ":1983,"à¸¢à¸Ńà¸¡à¸£":1984,"à¸Ħà¸§à¸²à¸¡à¹Ģà¸Ľ":1985,"th":1986,"à¸Ľà¸£à¸°à¸ªà¸ĩà¸Ħ":1987,"à¸Īà¸ģà¸£à¸£à¸¡":1988,"à¸Į":1989,"à¸¬à¸²":1990,"à¸Ńà¸²à¸ģà¸²à¸£":1991,"à¸ªà¸ª":1992,"à¸įà¸Ĭ":1993,"Ġà¸Īà¸³à¸ģ":1994,"à¸¥à¸ģ":1995,"à¸Ļà¸ģà¸§":1996,"à¸²à¸¢à¸ķ":1997,"Ġ26":1998,"à¹ģà¸Ĭà¸¡à¸Ľ":1999,"à¸£à¸²à¸ļ":2000,"à¸Ķà¹ģà¸¥à¸°":2001,"à¸Ķà¸¢":2002,"Ġà¸Īà¸Ļà¸ģà¸£à¸°à¸Ĺ":2003,"à¸ĩà¸ªà¸²à¸¡à¸²à¸£à¸ĸ":2004,"Ġà¹Ĥà¸£à¸ĩà¹Ģà¸£":2005,"Ġà¹Ĥà¸£":2006,"à¸ķà¸°":2007,"à¸ĩà¹ĥà¸Ĭ":2008,"à¸Ńà¸Ńà¸ģà¸¡à¸²":2009,"à¸Ľà¸£à¸°à¸ŀ":2010,"à¸Ļà¸Ĺà¸³":2011,"à¸ªà¸¡à¸²à¸Ħà¸¡":2012,"à¹Ģà¸«à¸¡à¸²à¸°":2013,"à¸ŀà¸¡":2014,"à¸²à¸ĩà¸Ĭ":2015,"à¹Ħà¸Ń":2016,"à¸Ĥà¸Ńà¸ĩà¸Ī":2017,"à¸£à¸²":2018,"Ġà¹ĥà¸Ļà¸Ĥà¸ĵà¸°à¸Ĺ":2019,"ion":2020,"à¹ĥà¸Ļà¸Ļ":2021,"à¸Ľà¸£à¸°à¸ªà¸ļà¸Ħà¸§à¸²à¸¡à¸ªà¸³à¹Ģà¸£":2022,"à¸Ľà¸£à¸°à¸Ĭà¸²à¸ĺ":2023,"à¹Ģà¸¢à¸²à¸§":2024,"à¸ģà¸¡à¸§à¸¢":2025,"à¸Ļà¸ľà¸¥":2026,"à¸Ńà¸ĩà¸ŀ":2027,"Ġn":2028,"à¸ĩà¸Ħà¸¥":2029,"à¸µ)":2030,"à¸ªà¸ĸà¸²à¸ļ":2031,"à¸ģà¸ĩà¸²à¸Ļ":2032,"\",":2033,"à¸łà¸²à¸¢à¹ĥà¸Ļ":2034,"à¸Ńà¸ĩà¸Ĥ":2035,"à¸Ľà¹Ħ":2036,"à¸ģà¹Ģà¸ª":2037,"à¸Ļà¸ļà¸Ĺ":2038,"à¸Ķà¹Ģà¸Ī":2039,"à¸Īà¸°à¹Ħà¸¡":2040,"à¸ªà¹Ģà¸ķ":2041,"à¸Ĺà¸²à¸ĩà¸Ķ":2042,"à¹Ģà¸Ńà¸Ł":2043,"ĠSt":2044,"à¸Ħà¸°à¹ģà¸Ļà¸Ļ":2045,"à¸ªà¸£à¸°":2046,"ra":2047,"à¸«à¸²à¸ģ":2048,"à¸ªà¸Ńà¸ļ":2049,"Ġ196":2050,"à¸Ľà¹Ħà¸ķà¸¢":2051,"à¸¡à¸¢":2052,"à¸ĺà¸£à¸£à¸¡à¸Ļ":2053,"à¸²à¸§à¸ĸ":2054,"à¸ĵà¸«":2055,"à¸ķà¸³à¸£à¸§à¸Ī":2056,"à¸ªà¸ĭ":2057,"à¸Ĥà¸Ńà¸ĩà¸ķ":2058,"à¸Ļà¹Ģà¸Ħà¸£":2059,"à¸²à¹ģà¸Ĥ":2060,"à¸¢à¸Ķà¸Ļà¸²à¸¡":2061,"à¸Ļà¸ļà¸£":2062,"à¸ļà¸ªà¸ĸ":2063,"à¸Ńà¹ģà¸¥à¸°":2064,"à¸ĩà¹ģà¸Ĭà¸¡à¸Ľ":2065,"à¹Ħà¸«à¸§":2066,"à¸²à¸ĩà¸¡":2067,"à¸²à¸ªà¸²à¸Ĺ":2068,"à¸ĺà¸²à¸ķ":2069,"Ġ2554":2070,"à¸Ĺà¸°à¹Ģà¸¥":2071,"ard":2072,"ĠCh":2073,"à¸¨à¸ķà¸°à¸§":2074,"à¸Ĺà¸£à¸²à¸ļ":2075,"à¸Ħà¸§à¸²à¸¡à¸ªà¸²à¸¡à¸²à¸£à¸ĸ":2076,"à¹Ģà¸Ľà¸£":2077,"à¸ģà¸²à¸£à¸ģ":2078,"à¸ĵà¸ĳà¸¥":2079,"à¸²à¸Ĺà¸²à¸ĩ":2080,"à¸Ħà¸£à¸Ńà¸ļà¸Ħà¸£":2081,"à¸ĩà¸«à¸¥":2082,"ĠThe":2083,"à¸Ħà¸³à¸ª":2084,"à¸Ĺà¸³à¸«à¸Ļ":2085,"à¸¢à¸Ļà¸¡":2086,"à¸ĩà¸ŀà¸£à¸°":2087,"à¸ªà¸Ļà¹ĥà¸Ī":2088,"à¸²à¸Ĭà¸²à¸ķ":2089,"à¸«à¸łà¸²à¸ŀ":2090,"à¸²à¸ĩà¹Ģà¸Ĭ":2091,"Ġà¸Ńà¸²à¸£":2092,"Ġà¹ĥà¸Ļà¸£":2093,"à¸Ĥà¸Ńà¸ĩà¸Ļ":2094,"à¸¢à¸Ļà¸£":2095,"Ġà¸Īà¸Ļà¸ĸ":2096,"à¸¥à¸Ħ":2097,"à¸²à¸Ļà¸ģ":2098,"à¸ĩà¸«à¸²à¸£":2099,"à¸Ľà¸ģà¸ķ":2100,"à¸ĩà¸ģà¸§":2101,"à¸Ķà¸²à¸Ĥà¸Ńà¸ĩ":2102,"à¹Ĥà¸Ķà¸¢à¸Ĺ":2103,"Ġ247":2104,"à¸Ńà¸¡à¸²à¹Ħà¸Ķ":2105,"à¸²à¸Ļà¸Ļ":2106,"à¸Īà¸³à¹Ģà¸Ľ":2107,"à¸ķà¸²à¸£":2108,"à¸Ķà¸§à¸ĩ":2109,"à¸§à¹ĥà¸Ī":2110,"à¸¢à¸ĩà¸ģ":2111,"à¸¢à¸Ń":2112,"à¸¡à¸²à¸ª":2113,"à¹Ģà¸Ħà¸¡":2114,"Ġand":2115,"à¸²à¸¥à¸ĩ":2116,"à¸ģà¹Ģà¸¥":2117,"à¸Ļà¸ķà¸²à¸¡":2118,"à¸ĩà¸²à¸Ļà¸§":2119,"à¸Īà¸ģà¸²à¸£":2120,"à¸¡à¸²à¸ģà¸¡à¸²à¸¢":2121,"Ġà¹ģà¸¥à¸°à¸Ĺ":2122,"à¸Ĭà¸Ńà¸ļ":2123,"à¸Ķà¹Ħà¸Ķ":2124,"Ġà¸Ŀ":2125,"à¸µ\"":2126,"à¸Ķà¹Ģà¸ģà¸¥":2127,"à¸§à¸Ĥ":2128,"ĠIn":2129,"à¸Ńà¸Ļà¸£":2130,"Ġ27":2131,"à¹Ħà¸Ľà¸ĸ":2132,"à¸§à¸²":2133,"à¸²à¸£à¸ģ":2134,"og":2135,"Ġà¸Ńà¸²à¸Ī":2136,"15":2137,"à¹Ĥà¸ĭà¹Ģà¸§":2138,"Ġà¸ģà¸£à¸¡":2139,"à¸ļà¸ŀà¸£à¸°":2140,"Ġà¹ģà¸¥à¸°à¸£":2141,"à¸§à¹Ģà¸ķà¸Ńà¸£":2142,"à¸²à¸Ļà¸«à¸Ļ":2143,"à¸Ńà¸ĩà¹Ģà¸ŀà¸¥à¸ĩ":2144,"à¸ĩà¹ĥà¸«à¸į":2145,"Ġ28":2146,"à¸²à¸Ńà¸Ńà¸ģ":2147,"Ġà¸Ħà¸³":2148,"Ġ2550":2149,"à¹ģà¸®":2150,"à¸Ļà¸Ńà¸Ńà¸ģà¹Ģà¸ī":2151,"à¸Ļà¹Ģà¸ķà¸Ńà¸£":2152,"à¸§à¸§":2153,"à¸²à¸§à¸£":2154,"à¹ģà¸ģà¸£":2155,"à¸ģà¸£à¸²à¸Ĭ":2156,"à¸ģà¸ªà¸łà¸²à¸ľ":2157,"à¹ģà¸¥à¸°à¸Ļ":2158,"Ġà¸«à¸²à¸ģ":2159,"à¸Ĥà¸Ńà¸ĩà¸ģà¸²à¸£":2160,"à¸§à¸¡à¸¡":2161,"à¸ªà¹Ģà¸Ľ":2162,"à¸ĩà¸Ĺà¸²à¸ĩ":2163,"à¸²à¸Ŀ":2164,"à¸Ńà¸Łà¸£":2165,"à¸ļà¹Ģà¸ļ":2166,"à¸Ķà¸ļ":2167,"à¹Ĥà¸Ĥ":2168,"à¸Īà¸³à¸Ļà¸§à¸Ļ":2169,"à¸ĩà¹ĥà¸Ī":2170,"à¸Ńà¸Ńà¸¢":2171,"à¸ªà¸§à¸£à¸£à¸Ħ":2172,"ab":2173,"à¸Īà¸³à¸ģ":2174,"à¸Ľà¸£à¸°à¸¡":2175,"à¸ģà¸Ńà¸ļ":2176,"à¹ĥà¸Ļà¹Ģà¸£":2177,"à¹Ĥà¸Ħà¸£à¸ĩà¸ªà¸£":2178,"à¸ļà¸ģà¸²à¸£à¸¨":2179,"à¸Ĭà¸²à¸£":2180,"à¸Ńà¸¡à¸ķ":2181,"à¸²à¸ĩà¸ģà¸²à¸¢":2182,"à¸²à¸ŀà¸¢à¸Ļà¸ķà¸£":2183,"à¸¡à¸«à¸²à¸ģà¸©":2184,"à¸Ļà¹ģà¸¥":2185,"18":2186,"à¸Ńà¸¢à¸Ĺ":2187,"Ġà¸Ńà¸ĩà¸Ħ":2188,"à¸£à¸£à¸¢":2189,"à¹Ĥà¸Ńà¸¥":2190,"à¸Ļà¸ŀà¸£à¸°à¸£à¸²à¸Ĭ":2191,"à¸²à¸Ļà¸Ĺà¸²à¸ĩ":2192,"à¸łà¸²à¸§à¸°":2193,"à¸¢à¸ģà¸£":2194,"à¸Ķà¸ĸ":2195,"ess":2196,"à¸ĩà¸Ĺà¸£à¸ĩ":2197,"à¸ģà¸ľ":2198,"à¸¡à¸Ħ":2199,"à¸ĺà¸¢à¸²":2200,"ĠY":2201,"à¸ģà¸ĩà¸²à¸Ļà¸":2202,"à¹Ĥà¸¥à¸ģà¸Ħà¸£":2203,"à¸ģà¸ģà¸²à¸£":2204,"à¸Ĳà¸ĺà¸£à¸£à¸¡à¸Ļ":2205,"à¸²à¸ĩà¸Ħà¸£":2206,"à¸²à¹Ģà¸«à¸ķ":2207,"ine":2208,"à¸Ĥà¸Ńà¸ĩà¸Ľà¸£à¸°à¹Ģà¸Ĺà¸¨":2209,"à¸²à¸¢à¸ŀ":2210,"à¸Ļà¸®":2211,"à¸ģà¸²à¸¨":2212,"à¸ķà¸Ĭ":2213,"à¸ĩà¹ģà¸ģ":2214,"à¸«à¸²à¸£à¸²à¸Ĭ":2215,"Ġà¸«à¸¡à¸²à¸¢à¸ĸ":2216,"à¸Ńà¸ŀà¸£à¸°":2217,"à¸Ńà¹Ģà¸ŀ":2218,"Ġà¸Ĥà¸ĵà¸°à¸Ĺ":2219,"à¸ĸà¸²à¸ļ":2220,"à¸ģà¹Ħà¸Ķ":2221,"à¸ĩà¹Ģà¸ª":2222,"à¸²à¸ĩà¸Ľ":2223,"ak":2224,"est":2225,"à¸ļà¸§à¸Ļà¸ģà¸²à¸£":2226,"Ġin":2227,"à¹Ģà¸«à¸¢":2228,"à¸²à¸Ļà¸¡":2229,"à¸Ļà¸ĺà¸¡":2230,"à¸ļà¸¢":2231,"à¸£à¸ªà¸ģ":2232,"à¸ĩà¹Ģà¸¥":2233,"Ġà¹ĥà¸Ļà¸Ĺ":2234,"à¸ªà¹Ĥà¸¡à¸ªà¸£":2235,"à¸Ĥà¸Ļà¸²à¸Ķà¹Ģà¸¥":2236,"à¸¡à¸¥":2237,"à¸ļà¹ģà¸ķ":2238,"à¸Ħà¸§à¸²à¸¡à¸Ħ":2239,"à¸ļà¹Ħà¸Ķ":2240,"à¸ĺà¸Ļ":2241,"à¸Ńà¸ĩà¹Ģà¸Ľ":2242,"à¸Ħà¸Ńà¸Ļ":2243,"à¸ģà¸ªà¸¡":2244,"à¸ĩà¹Ģà¸ªà¸£":2245,"à¸Īà¸Ńà¸¡à¹Ģà¸ģà¸¥":2246,"à¸£à¸§":2247,"à¹ĥà¸Ļà¹Ģà¸Ĥà¸ķ":2248,"à¸²à¸ģà¸«à¸¥à¸²à¸¢":2249,"Ġ29":2250,"à¸Ńà¸Ļà¸§":2251,"à¸ķà¸£à¸ĩà¸ģ":2252,"ang":2253,"à¸Ĳà¸²à¸Ļà¸°":2254,"à¸Ļà¸Ńà¸Ļ":2255,"à¸²à¸Ļà¸ĭ":2256,"à¸Ĥà¸Ńà¸ĩà¸ľ":2257,"à¸Ļà¸łà¸²à¸ŀà¸¢à¸Ļà¸ķà¸£":2258,"à¸ĩà¸©":2259,"à¸Ļà¸Ľà¸¥":2260,"à¸ķà¸£à¸ĩ":2261,"à¹ģà¸¥à¸°à¹Ģà¸Ľ":2262,"tic":2263,"à¹Ĥà¸ķà¸°":2264,"à¸¢à¸Ļà¹Ģà¸Ľ":2265,"Ĵà¹":2266,"Ġ2551":2267,"li":2268,"Ġà¸¥à¸³":2269,"à¸²à¹Ģà¸ª":2270,"à¸¨à¸ŀ":2271,"à¸°à¸Ļ":2272,"à¸ģà¸©à¸²à¸Ĺ":2273,"à¸ĩà¹ĥà¸Ļà¸Ľ":2274,"à¸§à¹Ģà¸Ľ":2275,"à¸ģà¸£à¸°à¸Ĺà¸³":2276,"à¸§à¸¢à¸§":2277,"à¸Ľà¸£à¸°à¸ģà¸§":2278,"Ġà¸Ľà¸£à¸°à¸ģà¸Ńà¸ļà¸Ķ":2279,"à¸Ńà¸³à¹Ģà¸łà¸Ń":2280,"à¸ģà¸Ł":2281,"à¸ļà¸£à¸§à¸¡":2282,"Ġà¹Ĥà¸Ķà¸¢à¹Ģà¸Ľ":2283,"12":2284,"à¸²à¹Ģà¸ĭ":2285,"à¸Ļà¸£à¸°à¸«à¸§":2286,"à¸²à¸Ļà¹Ħà¸Ķ":2287,"à¸Ńà¸ĩà¸Ĭ":2288,"à¸Ĭà¸Ĭ":2289,"Ġà¹Ħà¸£":2290,"à¸²à¸Īà¸°à¹Ģà¸Ľ":2291,"ae":2292,"à¸ļà¹Ĥà¸ķ":2293,"à¸Īà¸ī":2294,"à¹ģà¸¥à¸°à¸£":2295,"à¸Ńà¹ĥà¸Ĭ":2296,"Ġà¹ģà¸Ĺ":2297,"à¸§à¸Ķà¸¥":2298,"à¹ĥà¸Ļà¸ļà¸£":2299,"Ġ50":2300,"à¹ģà¸¥à¸°à¸Ń":2301,"Ġà¹Ĥà¸Ķà¸¢à¹Ħà¸Ķ":2302,"à¸§à¸ļ":2303,"à¸Ńà¸ĩà¹Ģà¸£":2304,"à¹ģà¸¥à¸°à¸ķ":2305,"à¸ģà¹ĥà¸Ĭ":2306,"à¸£à¸²à¸§":2307,"à¸£à¸£à¸ĵ":2308,"ep":2309,"Ġà¹Ģà¸®":2310,"à¹Ģà¸¥à¸Ńà¸£":2311,"à¹ģà¸¡à¸Ļ":2312,"à¸Ļà¹ĥà¸«à¸¡":2313,"à¸£à¸ļ":2314,"à¸Ńà¸Ļà¸Ĥà¸Ńà¸ĩ":2315,"Ġ2553":2316,"à¸¡à¸²à¹ĥà¸Ĭ":2317,"à¹ĥà¸Ļà¹Ģà¸¡":2318,"à¹Ĥà¸£à¸ĩà¸ŀà¸¢à¸²à¸ļà¸²à¸¥":2319,"à¸Ĥà¸Ńà¸ĩà¸ŀà¸£à¸°":2320,"à¸Ńà¸ĩà¸¥":2321,"à¸ķà¸¢à¸ªà¸²à¸£":2322,"à¸£à¸°à¸§":2323,"à¸¢à¸¥":2324,"à¸Ħà¸§à¸²à¸¡à¸ķ":2325,"à¸ķà¸¢à¸ģà¸£à¸£à¸¡":2326,"à¸Ĥà¸²à¸Ķ":2327,"à¸¡à¹Ģà¸ķ":2328,"à¹Ĥà¸¥à¸«":2329,"Ġw":2330,"à¸ŀà¸ļà¸§":2331,"à¹ģà¸ªà¸Ķà¸ĩà¹Ĥà¸Ķà¸¢":2332,"à¸Ĵà¸Ļà¸²à¸ģà¸²à¸£":2333,"...":2334,"à¸Īà¸³à¸Ļà¸§à¸Ļà¸¡à¸²à¸ģ":2335,"ity":2336,"à¹Ģà¸©":2337,"à¸įà¸Ĭà¸²à¸ģà¸²à¸£":2338,"Ġà¹Ĥà¸Ķà¸¢à¹ĥà¸Ĭ":2339,"à¸Ńà¸¢à¸¥à¸°":2340,"à¸Ńà¸Ńà¸Ļ":2341,"ng":2342,"à¹Ĥà¸Ħà¸¥":2343,"à¸Ľà¸£à¸°à¸«à¸²à¸£":2344,"à¸¤à¸Ĺà¸ĺ":2345,"à¹Ģà¸Ńà¸Ļ":2346,"à¸Ļà¸Ĳà¸²à¸Ļ":2347,"à¸Ńà¸ĩà¸¨":2348,"à¹Ģà¸Ĥà¸²à¸ģ":2349,"16":2350,"à¸ģà¸«à¸Ļ":2351,"à¸ĩà¸Ľà¸£à¸°à¹Ģà¸Ĺà¸¨à¹Ħà¸Ĺà¸¢":2352,"à¸§à¸Ĭ":2353,"à¸¥à¸°à¹Ģà¸Ń":2354,"à¸²à¹ĥà¸«":2355,"à¸²à¸ģà¸ģà¸§":2356,"à¸§à¸Ļà¸ª":2357,"à¸Ķà¸ķà¸²à¸¡":2358,"hi":2359,"à¹ģà¸Ń":2360,"Ġà¹ģà¸ª":2361,"up":2362,"à¸ģà¸«":2363,"Ġà¸Ĭà¸Ļ":2364,"à¸°à¹Ģà¸ļ":2365,"à¸ģà¸£à¸°à¹ģà¸ª":2366,"à¹Ģà¸Ńà¸²":2367,"à¸Ļà¹Ģà¸§à¸¥":2368,"à¹Ħà¸Ľà¸Ĺ":2369,"à¸Ńà¸²à¸Ħà¸²à¸£":2370,"Ġ2549":2371,"à¸ļà¸Ńà¸¢":2372,"à¸¡à¸²à¸Ļ":2373,"br":2374,"Ġà¸Īà¸³à¸Ļà¸§à¸Ļ":2375,"à¸Ķà¸¥à¸Ńà¸ĩ":2376,"à¹Ħà¸ģà¸¥":2377,"à¸ģà¸²à¸£à¹Ģà¸Ľ":2378,"à¸Ħà¸Ĺ":2379,"à¹Ģà¸ŀà¸Ĭà¸£":2380,"à¸Ħà¸§à¸²à¸¡à¸«à¸¡à¸²à¸¢":2381,"à¸Ľà¸Ĺ":2382,"à¸ļà¹Ģà¸Ĭ":2383,"à¸Ļà¸ī":2384,"à¹Ĥà¸ł":2385,"à¸£à¸²à¸Ĭà¸Ńà¸²à¸ĵà¸²à¸Ī":2386,"à¹Ģà¸¡à¸Ńà¸£":2387,"à¹Ĥà¸Ľà¸£à¸ķ":2388,"à¸²à¸«à¸¡à¸²à¸¢":2389,"à¸Ķà¹Ģà¸£":2390,"à¸ªà¸łà¸²à¸ŀ":2391,"à¸Ļà¹ĥà¸«à¸į":2392,"à¸łà¸²à¸¢à¸«à¸¥":2393,"à¸Ĭà¸ģà¸²à¸¥à¸Ĺ":2394,"à¸Ĭà¸Ĺ":2395,"Ġ2557":2396,"Ġ2555":2397,"à¸ŀà¸£à¸°à¸£à¸²à¸Ĭà¸ļ":2398,"à¸¥à¸³à¸ķ":2399,"à¸µ,":2400,"Ġà¸¢à¸ģ":2401,"à¸²à¹Ģà¸Ĺ":2402,"à¹Ģà¸ªà¸¡à¸Ń":2403,"Ġ2552":2404,"Ġà¹Ģà¸Ĥà¸ķ":2405,"à¸įà¸Ĺ":2406,"Ġà¸£à¸Ńà¸ļ":2407,"Ġà¸ī":2408,"à¸ļà¸«":2409,"à¸§à¸Ķà¹Ģà¸£":2410,"Ġà¹ģà¸¥à¸°à¸ĸ":2411,"à¸Ļà¹ģà¸¡":2412,"à¸Ļà¸Ńà¸ģà¸Īà¸²à¸ģà¸Ļ":2413,"à¸Ńà¸ªà¹Ģà¸ķà¸£à¹Ģà¸¥":2414,"à¸Ńà¸ĩà¸£à¸²à¸Ĭ":2415,"à¸Ńà¸¡à¸Ĺ":2416,"Ġ2560":2417,"à¸²à¹Ĥà¸£":2418,"à¸ļà¸²à¸£":2419,"Ġà¹ģà¸¥à¸°à¸Ī":2420,"à¸³à¸ķà¸²à¸¥":2421,"à¸ļà¸Ńà¸Ļ":2422,"à¹ģà¸Ļà¸°":2423,"à¹Ĥà¸Ķà¸¢à¸ªà¸²à¸£":2424,"à¸Ļà¸ŀà¸£à¸°à¸Ĭà¸Ļà¸¡":2425,"à¸Ńà¸ĩà¸ĭ":2426,"à¸²à¸Ļà¸¢":2427,"à¸¥à¸²à¸§":2428,"à¹ĥà¸Ļà¸ªà¸«à¸£":2429,"à¸¸à¹Ĭ":2430,"à¹Ĥà¸Ĩ":2431,"à¸¢à¸ĩà¸Ĺ":2432,"Ġà¹ĥà¸Ļà¸ł":2433,"à¸²à¹ģà¸ģ":2434,"à¸²à¸Ĭà¸Ļ":2435,"Ġà¸Īà¸°à¸¡":2436,"à¹ģà¸Ħà¸¥":2437,"14":2438,"à¸¡à¸Ńà¸ĩ":2439,"à¹Ģà¸ľà¸¢à¹ģà¸ŀà¸£":2440,"à¸¡à¸¨":2441,"à¸Ļà¸²à¸ĸ":2442,"à¸°à¸ķ":2443,"à¸²à¸ªà¸Ļ":2444,"à¹ĥà¸Ļà¸Ħà¸§à¸²à¸¡":2445,"Ġà¸Ńà¸²à¸Ĺ":2446,"à¹ĥà¸Ļà¸Ĥà¸ĵà¸°à¸Ļ":2447,"à¸Ńà¸¢à¸ģà¸§":2448,"à¹Ģà¸ģà¸Ńà¸£":2449,"à¸Ķà¸Ńà¸ģ":2450,"Ġà¸Ķà¸£":2451,"à¸Ļà¸Ńà¸²à¸«à¸²à¸£":2452,"à¹Ģà¸Ńà¸²à¸Ĭà¸Ļà¸°":2453,"à¹ĥà¸Ļà¸«à¸Ļ":2454,"Ġà¸ļà¸²à¸Ĺ":2455,"à¹ģà¸Ńà¸¥":2456,"à¸³à¹Ģà¸£":2457,"à¹Ĥà¸Ķà¸¢à¹Ħà¸¡":2458,"à¸ģà¹ģà¸«":2459,"à¸¡à¹Ħà¸Ķ":2460,"à¸Ĥà¸Ńà¸ĩà¹Ģà¸Ĥà¸²":2461,"à¸²à¸£à¸°à¸Ķ":2462,"à¸ĵà¸«à¸ł":2463,"à¸²à¸Ķà¹Ģà¸Ī":2464,"à¹ģà¸¥à¸°à¸§":2465,"à¸Ļà¸Īà¸£":2466,"Ġà¹ĥà¸Ļà¹Ģà¸Ķ":2467,"à¸ĩà¸Ńà¸²à¸Ī":2468,"à¸ĩà¹Ģà¸Ĭ":2469,"à¹ģà¸Ĭ":2470,"à¸Ńà¹ģà¸¡":2471,"à¸§à¹Ĥà¸¡":2472,"à¸§à¸Ħà¸£":2473,"à¸¥à¸ĩà¸Ĺ":2474,"à¸¢à¸Ļà¸§":2475,"Ġà¸Ľà¸¥":2476,"à¸ĩà¹ģà¸¥":2477,"ub":2478,"à¹Ģà¸Ķà¸Ĭ":2479,"à¸¢à¹Ħà¸Ķ":2480,"ula":2481,"à¸«à¸¥à¸²à¸ģà¸«à¸¥à¸²à¸¢":2482,"à¸Īà¸°à¹ĥà¸Ĭ":2483,"à¸²à¸¢à¸£":2484,"à¸ķà¸Ń":2485,"à¸Ļà¸ªà¸²à¸¡à¸²à¸£à¸ĸ":2486,"à¸¨à¸§à¸£à¸£à¸©":2487,"Ġl":2488,"à¸Ĭà¸²à¸§à¸Ń":2489,"all":2490,"à¹Ģà¸«à¸¡à¸²à¸°à¸ªà¸¡":2491,"200":2492,"à¸Ńà¹Ģà¸Ĺ":2493,"Ġ2556":2494,"11":2495,"à¸²à¸¬":2496,"à¸Ľà¸¥à¸Ńà¸Ķ":2497,"uc":2498,"Ġà¹Ģà¸ĭà¸Ļà¸ķ":2499,"à¸Ļà¸¡à¸²à¸£":2500,"Ġ\"\"":2501,"à¸Īà¸ŀà¸£à¸°à¸Ī":2502,"à¸²à¸¥à¸ĩà¸ģà¸£à¸ĵ":2503,"Ġ40":2504,"ha":2505,"Ġà¹Ĥà¸Ľà¸£":2506,"Ġg":2507,"à¸įà¸Ĥà¸Ńà¸ĩ":2508,"à¸Ļà¸Ħà¸³":2509,"à¸°à¸ŀ":2510,"à¸£à¸²à¸Ĭà¸ļ":2511,"à¸Ńà¸³à¸Ļà¸§à¸¢à¸ģà¸²à¸£":2512,"Ġ/":2513,"à¸²à¹Ģà¸Ĭ":2514,"à¸Ńà¸ĩà¹ģà¸¥à¸°":2515,"à¸Ļà¸²à¸£":2516,"à¸ģà¸²à¸£à¸ļà¸£":2517,"à¸Ńà¸Ļà¹Ħà¸«à¸§":2518,"à¸²à¸Ļà¸«à¸¥":2519,"à¸ģà¹Ĩ":2520,"à¸ģà¸²à¸£à¹Ģà¸Ľà¸¥":2521,"à¸²à¹ĥà¸Ĭ":2522,"à¸Ńà¸²à¸Ĺ":2523,"à¸§à¹ģà¸Ĺ":2524,"à¹ĥà¸Ļà¸łà¸²à¸©":2525,"Ġ2558":2526,"à¸ķà¸²à¸¢":2527,"à¸Ļà¹ĥà¸Ļà¸Ĭ":2528,"à¸Ńà¹Ģà¸ģ":2529,"à¸Ĭà¸Ļà¸°à¹Ģà¸¥":2530,"à¸²à¹Ģà¸Ļ":2531,"à¸³à¸«à¸Ļà¸Ķ":2532,"à¸ģà¸Ĳ":2533,"à¸¢à¸«à¸²à¸¢":2534,"à¸¢à¸Ļà¸Ļ":2535,"à¸ģà¸²à¸£à¸Ĺà¸³":2536,"à¹ĥà¸Ļà¸¨":2537,"Ġ2559":2538,"igh":2539,"à¸Ļà¹Ģà¸ĭ":2540,"à¸²à¸Ļà¸¨":2541,"à¹ģà¸Ńà¸Łà¸£":2542,"à¸ªà¸ĸà¸²à¸Ļà¸Ĺ":2543,"Ġà¸łà¸²à¸©":2544,"à¸Ĭà¸ªà¸¡":2545,"à¸ŀà¸£à¸°à¸£à¸²à¸Ĭà¸Ĺà¸²à¸Ļ":2546,"à¹Ĥà¸Ķà¸¢à¸¡":2547,"à¸¢à¸ĩà¹Ģà¸«à¸Ļ":2548,"Ġà¹ģà¸ľ":2549,"à¸²à¸Ńà¸²à¸ģà¸²à¸¨":2550,"à¸¢à¸ĩà¹ĥà¸ķ":2551,"à¹Ģà¸ªà¸ĺ":2552,"Ġà¹ģà¸ģ":2553,"à¸Ńà¸Ńà¸Ł":2554,"à¸²à¹Ģà¸ŀ":2555,"Ġà¹Ģà¸§à¸¥à¸²":2556,"à¸ģà¸Ŀ":2557,"à¸Ńà¸ĩà¸«à¸¥à¸§à¸ĩ":2558,"à¸ģà¸²à¸£à¸§":2559,"à¸Ļà¹Ģà¸Ń":2560,"ate":2561,"à¸Ńà¸ĩà¸«":2562,"à¸Ļà¸Īà¸³à¸Ļà¸§à¸Ļà¸¡à¸²à¸ģ":2563,"à¹ģà¸Ļà¸§à¸Ħ":2564,"à¹ģà¸Ńà¸Ļ":2565,"à¸Ħà¸¡":2566,"à¸¢à¸ļà¹Ģà¸Ĺ":2567,"à¸Ļà¹ģà¸«":2568,"à¸Ļà¹Ģà¸Ńà¸ģ":2569,"à¹Ħà¸ĭà¸ķ":2570,"Ġà¸łà¸²à¸Ħ":2571,"à¸£à¸²à¸¡":2572,"à¸²à¹Ħ":2573,"à¹Ĥà¸ģà¸°":2574,"à¸ģà¹ģà¸ķ":2575,"Ġà¹Ģà¸ķ":2576,"à¸Ńà¸Ńà¸ģà¹Ģà¸Ľ":2577,"Ġa":2578,"Ġ2561":2579,"à¸Ļà¹ģà¸ķ":2580,"à¸Ńà¸Ħà¸£":2581,"à¸°à¸¥":2582,"à¸ļà¸Ħà¸§à¸²à¸¡à¸Ļ":2583,"à¸Ĺà¸²à¸ĩà¸ģà¸²à¸£à¹Ģà¸¡":2584,"à¸¤à¸ģà¸©":2585,"à¸ģà¸³à¹Ģà¸Ļ":2586,"à¸£à¸²à¸¢à¹Ħà¸Ķ":2587,"à¸§à¸¡à¸Ĺ":2588,"à¸Ľà¸£à¸°à¸ĺà¸²à¸Ļà¸²à¸ĺ":2589,"à¸Łà¸¥":2590,"Ġà¸ķà¸¥à¸Ńà¸Ķ":2591,"à¸Ħà¸§à¸²à¸¡à¸¢à¸²à¸§":2592,"à¸ĩà¹Ģà¸ŀà¸¥à¸ĩ":2593,"à¸Ĥà¸łà¸²à¸ŀ":2594,"à¸¡à¸Ī":2595,"à¸§à¸¢à¸ª":2596,"à¸ļà¹ĥà¸«":2597,"17":2598,"à¸ģà¸Ļà¸³":2599,"à¸ŀà¸£à¸°à¸Ĭà¸Ļà¸¡":2600,"à¸¢à¸§à¸Ĺ":2601,"à¸Ńà¸ªà¸²à¸£":2602,"à¸ļà¹ĥà¸Ĭ":2603,"à¹ĥà¸Ļà¸¤à¸Ķ":2604,"à¸²à¸Ļà¸Ń":2605,"Ġà¸ķà¸²à¸£":2606,"à¸§à¸ĩà¹Ģà¸§à¸¥":2607,"à¸²à¸Ľà¸£":2608,"à¸ļà¸Īà¸²à¸ģ":2609,"à¸¢à¹Ģà¸Ľ":2610,"à¸ŀà¸£à¸°à¸ª":2611,"à¸Ńà¸²à¸Īà¸²à¸£à¸¢":2612,"à¸Ńà¸¢à¸Ķ":2613,"à¸Ńà¸ļà¸ª":2614,"à¸Ľà¸ª":2615,"à¸Ļà¸«à¸¡":2616,"ell":2617,"à¸Ļà¹ģà¸£à¸ģ":2618,"à¹Ĥà¸ļà¸ªà¸ĸ":2619,"tr":2620,"à¸ģà¸«à¸¥à¸²à¸¢":2621,"à¸Ķà¹ģà¸¢":2622,"à¸Ĭà¸į":2623,"Ġ2012":2624,"à¸§à¸ĩà¸ķ":2625,"à¸Ĥà¸Ńà¸ĩà¸ŀà¸£à¸°à¸Ńà¸ĩà¸Ħ":2626,"à¹Ĥà¸ģà¸¥":2627,"à¸²à¸ĩà¸Ħà¸§à¸²à¸¡":2628,"à¹Ģà¸§à¸¢":2629,"Ġ246":2630,"à¸µ.":2631,"à¸Ńà¸ģà¸ĭ":2632,"Ġà¹ĥà¸Ļà¸ļ":2633,"à¸Ħà¸Ħ":2634,"à¸Ńà¸ģà¸§":2635,"Ġ2014":2636,"à¸Ķà¸ĭ":2637,"Ġà¸łà¸²à¸¢à¸«à¸¥":2638,"à¸¡à¸²à¹Ģà¸¥":2639,"à¸²à¸¢à¹ģà¸ŀ":2640,"à¸§à¸¢à¸Ĺ":2641,"à¸ŀà¸§à¸ģà¹Ģà¸Ĥ":2642,"à¸ªà¸²à¸Ĥ":2643,"à¸Ńà¸ĩà¸Ľ":2644,"à¹Ģà¸Ļà¸Ńà¸£":2645,"Ġà¸ªà¸«à¸£":2646,"à¸µ-":2647,"à¸Ńà¸ļà¸Ĺ":2648,"à¸Ńà¸ĩà¹ĥà¸Ĭ":2649,"à¸§à¹Ģà¸£":2650,"à¸§à¹Ģà¸Ħà¸¥":2651,"à¸²à¸ģà¸²à¸£à¸ģà¸£à¸°à¸Ĺà¸£à¸§à¸ĩ":2652,"Ġ2010":2653,"à¹Ģà¸Īà¸Ńà¸£":2654,"à¸Ńà¸²à¸§":2655,"Ġ2016":2656,"à¸¢à¸Ńà¸Ķà¹Ģà¸¢":2657,"Ġà¹ģà¸¥à¸°à¹Ģà¸¡":2658,"à¸Ĥà¸§":2659,"à¸ŀà¸£à¸£à¸ĵ":2660,"à¸£à¸§à¸¡à¸Ĺ":2661,"24":2662,"à¸Ķà¸«":2663,"à¸Ńà¸Ńà¸ģà¸¡":2664,"ormula":2665,"à¸ķà¸ł":2666,"à¹Ģà¸ļà¸¥":2667,"à¸§à¸ĭ":2668,"à¸Ļà¸Ļà¸²à¸ĩ":2669,"13":2670,"à¸²à¸¢à¸¡":2671,"à¸Ĥà¸Ļà¸ª":2672,"à¹Ģà¸¡à¸£":2673,"à¸Ľà¸¥à¸Ńà¸Ķà¸ł":2674,"à¸®à¸²à¸£":2675,"Ġà¸¨à¸£":2676,"à¹ĥà¸Ļà¸ģà¸¥":2677,"ou":2678,"Ġ2548":2679,"à¹ģà¸Ļà¸°à¸Ļà¸³":2680,"à¸Ńà¸§à¸ģà¸²à¸¨":2681,"à¸¢à¸ļà¸ģ":2682,"à¹Ģà¸Ĺà¸Ńà¸£":2683,"à¸ķà¸Ńà¸¢":2684,"à¸§à¸²à¸£":2685,"à¹ģà¸¥à¸°à¹Ħà¸Ķ":2686,"à¸¬à¸²à¸¥à¸ĩà¸ģà¸£à¸ĵ":2687,"Ġ2562":2688,"à¸¡à¸Ļà¸ķà¸£":2689,"à¸įà¸įà¸²à¸ķà¸£":2690,"à¹ĥà¸Ļà¸ģà¸²à¸£à¹ģà¸Ĥ":2691,"à¸Ńà¸ĩà¹ĥà¸«":2692,"à¸ĩà¹ĥà¸Ļà¸ª":2693,"à¸Ńà¸Ļà¸²à¸Ħ":2694,"à¸ļà¹Ģà¸£":2695,"à¸²à¹Ĥà¸Ľà¸£":2696,"à¸Ĥà¸Ńà¸ĩà¸¡":2697,"à¸ĩà¸¡à¸²à¸ģ":2698,"à¸Ĺà¸²à¸ĩà¸ģà¸²à¸£":2699,"\"\"":2700,"te":2701,"à¸Īà¸ģà¸²à¸£à¸¨":2702,"à¸Ľà¸£à¸²à¸ļ":2703,"à¹ģà¸ģà¸£à¸¡":2704,"Ġà¹Ĵà¹":2705,"Ġà¹ģà¸¥à¸°à¸§":2706,"à¸¡à¸Īà¸²à¸ģ":2707,"à¸²à¸¢à¸«à¸¥":2708,"à¸§à¸ľ":2709,"à¹Ħà¸¥à¸Ļ":2710,"à¸ªà¸³à¸£à¸§à¸Ī":2711,"à¸Ļà¹ĥà¸Ļà¸§":2712,"à¸Ħà¸§à¸²à¸¡à¸ªà¸³à¸Ħ":2713,"à¸Ļà¸²à¸Ĺ":2714,"à¹ģà¸ªà¸ĩ":2715,"Ġà¸Ĭà¸Ļà¸°":2716,"à¸²à¸ĩà¹Ģà¸Ķ":2717,"à¸Ńà¸¥à¸¥à¸²à¸£":2718,"Ġà¸¤à¸Ķ":2719,"Ġà¸Ħà¸¥":2720,"à¸Ńà¸¡à¸²à¹ĥà¸Ļà¸Ľ":2721,"à¹Ģà¸ŀà¸²à¸°":2722,"à¹ģà¸Ĺà¸Ļà¸Ĺ":2723,"à¸ĩà¹Ģà¸Ī":2724,"à¸ķà¸ĭ":2725,"à¸©à¸²":2726,"à¸²à¸ĩà¸ĸ":2727,"à¹Ĥà¸Ķà¸¢à¹Ģà¸īà¸ŀà¸²à¸°":2728,"à¸²à¸ī":2729,"à¸ļà¸ķà¸³à¹ģà¸«à¸Ļ":2730,"à¹ģà¸ļà¸£":2731,"à¸Ĭà¸²à¸§à¹Ħà¸Ĺà¸¢":2732,"à¸§à¸°":2733,"à¸²à¸Ķà¸²":2734,"Ġh":2735,"à¸ŀà¸²à¸¢":2736,"à¹Ĥà¸Ķà¸¢à¹ĥà¸Ĭ":2737,"à¸²à¹ģà¸«":2738,"à¹ĥà¸Ļà¹Ģà¸§à¸¥":2739,"Ġ2015":2740,"à¹Ģà¸ļà¸£":2741,"ne":2742,"à¸¡à¹Ģà¸Ĥ":2743,"Ġà¸Ľà¸£à¸°à¸ķ":2744,"à¹Ĥà¸Ķà¸¢à¸ģà¸²à¸£":2745,"à¸Ńà¸ĩà¸«à¸Ļ":2746,"Ġ193":2747,"à¸ĸà¸²à¸¡":2748,"à¸Ĺà¸Ĺ":2749,"ers":2750,"à¸ĵà¸łà¸²à¸ŀ":2751,"à¸ĩà¸«à¸¥à¸²à¸¢":2752,"Ġà¹Ģà¸Ł":2753,"Ġà¹ģà¸¥à¸°à¹Ģà¸£":2754,"ok":2755,"Ġà¸£à¸²à¸¢":2756,"Ġà¸§à¸ĩ":2757,"à¸²à¸¢à¸²à¸Ĺ":2758,"à¸°à¸Ķ":2759,"à¹ĥà¸Ļà¸¥":2760,"à¸Ļà¹Ģà¸«à¸ķ":2761,"à¸ļà¹Ģà¸Ī":2762,"à¸ģà¸ķà¸£":2763,"à¸ļà¸ģà¸¥":2764,"à¸Ńà¸ļà¸£":2765,"à¸²à¸§à¸Ĺ":2766,"Ġà¹ģà¸ļ":2767,"à¸Ļà¹Ĥà¸Ķà¸Ļ":2768,"à¸ĸà¸²à¸Ľ":2769,"à¹ģà¸¥à¸°à¸Ĺ":2770,"à¸Ńà¸ªà¸²à¸¢":2771,"à¸Ńà¸ĩà¸«à¸¥":2772,"ue":2773,"à¸¡à¸ĵà¸ĳà¸¥":2774,"Ġà¸Ńà¸Ńà¸ģà¸Ńà¸²à¸ģà¸²à¸¨":2775,"à¸ķà¸£à¸§à¸Īà¸ªà¸Ńà¸ļ":2776,"Ġ31":2777,"à¸İà¸«à¸¡à¸²à¸¢":2778,"ud":2779,"à¸¢à¸ĺà¸£à¸£à¸¡":2780,"à¹Ħà¸ķà¸£":2781,"à¸ŀà¸Ļ":2782,"Ġà¹ģà¸¥à¸°à¸ľ":2783,"à¹ĥà¸Ļà¸ģà¸£":2784,"à¸ģà¸ģà¸¥":2785,"à¸ĩà¸ľà¸¥à¹ĥà¸«":2786,"ob":2787,"à¹ģà¸Ħà¸§":2788,"à¸Ħà¸²à¸Ķ":2789,"à¸Ĥà¸Ńà¸ĩà¸§":2790,"à¸Ķà¸¥à¸ĩ":2791,"Ġà¹Ģà¸«à¸¥":2792,"à¹ģà¸Ľà¸£":2793,"à¸§à¸¢à¸ĩà¸²à¸¡":2794,"à¸ĩà¹Ģà¸Ĺ":2795,"à¸ļà¹Ģà¸Ĥ":2796,"à¸ŀà¸£à¸°à¸Ļà¸²à¸¡":2797,"à¸ĺà¸ł":2798,"Ġà¸ªà¸³à¸Ļ":2799,"à¹Ħà¸Ļà¹Ģà¸ķ":2800,"Ġ195":2801,"'s":2802,"à¸ĵà¸°à¸ģà¸£à¸£à¸¡à¸ģà¸²à¸£":2803,"à¸Ļà¹Ĥà¸¢à¸ļ":2804,"à¸ŀà¸²à¸ģà¸©":2805,"à¸Ńà¸Ļà¹Ģà¸¡":2806,"à¸Ńà¸ĩà¹Ģà¸¥":2807,"à¸²à¸£à¸²à¸Ĭà¸ģà¸²à¸£":2808,"à¸ģà¸Ħà¸Ļ":2809,"Ġà¸Ńà¸ĩà¸¨":2810,"à¸Ļà¸«à¸¥à¸²à¸¢":2811,"à¸Ħà¸ķ":2812,"à¸¡à¹ģà¸¥à¸°":2813,"à¸²à¸ļà¸£à¸¡":2814,"à¹ģà¸£à¸¡":2815,"à¸²à¸ĩà¹Ħà¸¡":2816,"à¸²à¸¡à¹Ģà¸Ļ":2817,"à¸ŀà¸¢à¸ŀ":2818,"Ġ2013":2819,"Ġà¸¡à¸«":2820,"à¹Ģà¸Ħà¸¢à¹Ģà¸Ľ":2821,"à¸Ķà¸ŀà¸£à¸°":2822,"à¸įà¹Ģà¸ª":2823,"à¸ģà¸£à¸°à¸Īà¸²à¸¢":2824,"Ġà¸łà¸²à¸¢à¹ĥà¸ķ":2825,"Ġ2008":2826,"à¸Ħà¸ĵà¸°à¸ģà¸£à¸£à¸¡à¸ģà¸²à¸£":2827,"à¸²à¸łà¸£à¸ĵ":2828,"à¸Ħà¸£à¸Ńà¸ļ":2829,"à¸Ĺà¸²à¸ĩà¸§":2830,"Ġformula":2831,"à¸ģà¸Ĺà¸£":2832,"à¸ĩà¹Ģà¸ģà¸ķ":2833,"à¸Ļà¸Ľà¸£":2834,"à¸ģà¸²à¸£à¹Ģà¸£":2835,"à¸Ńà¸ĩà¹Ħà¸Ķ":2836,"à¸²à¸¡à¸²à¸ģ":2837,"Ġà¸£à¸°à¸ļà¸ļ":2838,"à¸ļà¸²à¸ĩà¸ª":2839,"Ġà¹ģà¸ļà¸ļ":2840,"à¸²à¹Ģà¸Ń":2841,"ill":2842,"à¸§à¹ģà¸¥à¸°":2843,"à¸£à¸ĩà¸Ħ":2844,"à¸§à¸ĩà¸Ľ":2845,"à¸ĩà¸ªà¸²à¸¡":2846,"Ġà¹Ĥà¸Ī":2847,"à¸Ļà¸Ńà¸ĩà¸Ħ":2848,"à¸ļà¸¡à¸²":2849,"à¸Ķà¸ªà¸Ńà¸ļ":2850,"à¸Ļà¸Ĺà¸³à¹ĥà¸«":2851,"Ġà¹ģà¸¥à¸°à¸ŀ":2852,"à¹Ģà¸Ĺà¸Ħà¸Ļ":2853,"à¸ģà¸©à¸²à¸£à¸°à¸Ķ":2854,"Ġà¹Ĥà¸ĭ":2855,"à¸¡à¸Ĭà¸Ļ":2856,"à¸īà¸²à¸ģ":2857,"à¸ļà¸£à¸£à¸Ī":2858,"our":2859,"à¹Ģà¸ŀà¸ĵ":2860,"à¸Ļà¸Ĺà¸Ļ":2861,"Ġà¸¯":2862,"ni":2863,"à¸ĩà¸«à¸¡":2864,"à¸°à¸Ľ":2865,"à¸ģà¸²à¸£à¸Ļà¸³":2866,"Ġà¸ģà¸Ńà¸ĩà¸Ĺ":2867,"à¸Ńà¹Ħà¸Ľà¸Ļ":2868,"à¸²à¸Ļà¸ŀà¸£à¸°":2869,"Ġà¹ĥà¸Ļà¸ŀ":2870,"à¹Ģà¸ĺà¸Ńà¹Ħà¸Ķ":2871,"à¸¨à¸§à¸ģà¸£à¸£à¸¡":2872,"Ġà¹Ĥà¸Ħ":2873,"à¸¡à¸Ńà¸ļ":2874,"à¸ķà¸£à¸Ĭà¸²à¸¢":2875,"à¸Ľà¸£à¸²à¸ªà¸²à¸Ĺ":2876,"à¸Ľà¸£à¸°à¹Ģà¸Ĺà¸¨à¸Ń":2877,"Ġ2017":2878,"à¸Ļà¹ĥà¸Ļà¸ģà¸²à¸£":2879,"à¸ģà¸²à¸£à¹ģà¸ªà¸Ķà¸ĩ":2880,"Ġà¹ĳ":2881,"à¸Ļà¹ģà¸ľ":2882,"à¹Ĥà¸Ĩà¸©à¸ĵ":2883,"à¸²à¸ĩà¸ŀ":2884,"à¸Ĺà¸²à¸ĩà¸«à¸¥à¸§à¸ĩ":2885,"à¹ĥà¸Ļà¸«à¸¡":2886,"à¸«à¸¡à¸²à¸¢à¹Ģà¸¥à¸Ĥ":2887,"à¸Ĳà¸ªà¸ł":2888,"à¹Ģà¸Ļà¸ª":2889,"à¸ģà¸²à¸£à¸ªà¸£":2890,"à¸Ļà¸Ħà¸¥":2891,"à¸²à¹Ģà¸Ĥà¸ķ":2892,"Ġà¸łà¸²à¸ŀà¸¢à¸Ļà¸ķà¸£":2893,"à¸£à¸²à¸Ĭà¸ģ":2894,"à¹Ģà¸Łà¸Ńà¸£":2895,"à¸Ħà¸Ńà¸¡à¸ŀ":2896,"Ġà¹ģà¸ŀ":2897,"à¸ªà¸²à¸ļ":2898,"à¸ŀà¸§à¸ģà¹Ģà¸Ĥà¸²":2899,"à¸Ĥà¸Ńà¸ĩà¹Ģà¸Ĥ":2900,"Ġà¹ĥà¸Ļà¸ķ":2901,"Ġ2011":2902,"Ġà¹Ģà¸Ķà¸Ńà¸°":2903,"à¹Ĥà¸ļ":2904,"Ġà¸ªà¸ĸà¸²à¸Ļ":2905,"à¹Ģà¸ĭà¸Ļà¸ķ":2906,"oun":2907,"à¸ĩà¸ļà¸£":2908,"ect":2909,"à¸§à¸Ļà¸£":2910,"à¸²à¸¢à¸ģà¸£":2911,"à¸²à¸ĵà¸²à¸Ī":2912,"à¸£à¸²à¸¢à¸Ĭ":2913,"à¹Ħà¸ŀ":2914,"à¸Ļà¹Ħà¸Ľà¹Ħà¸Ķ":2915,"à¸ĩà¹Ģà¸Ń":2916,"à¸Ľà¸£à¸²à¸ģà¸ıà¸ķ":2917,"Ġà¸ŀà¸£à¸°à¸ļà¸²à¸Ĺà¸ªà¸¡à¹Ģà¸Ķ":2918,"à¸²à¸Ļà¸¥":2919,"à¸Ļà¹Ģà¸Ĺà¸Ńà¸£":2920,"à¸Ĥà¸Ńà¸ĩà¸Ħ":2921,"à¸²à¸ĩà¸£à¸§à¸Ķà¹Ģà¸£":2922,"à¸¥à¸Ķà¸¥à¸ĩ":2923,"à¸ķà¸£à¸°à¸ģ":2924,"à¹ĥà¸Ļà¸łà¸²à¸Ħ":2925,"à¸ģà¸²à¸£à¸Ĭ":2926,"à¸Īà¸Ĺ":2927,"à¸Ĺà¸Ļ":2928,"à¸Ķà¸Ĺà¸³":2929,"Ġ2018":2930,"à¸Ļà¸²à¸¢à¸ģà¸£":2931,"à¸Ķà¸Ĭà¸Ńà¸ļ":2932,"à¸Ħà¸Ħà¸¥à¸Ĺ":2933,"à¸ĩà¹Ģà¸Ļ":2934,"à¸Ńà¸¢à¸ķ":2935,"à¹Ĥà¸ī":2936,"à¸²à¸ļà¸£":2937,"à¸Ńà¸Ļà¸Ħà¸£":2938,"à¸¨à¸²à¸ªà¸ķà¸£à¸²à¸Īà¸²à¸£à¸¢":2939,"Ġà¸¥à¸ĩ":2940,"à¸Ńà¸ĩà¸Ħà¸³":2941,"à¸Ļà¸Ľà¸£à¸°à¹Ģà¸Ĺà¸¨":2942,"à¸¥à¸§":2943,"à¸Īà¸°à¸ª":2944,"à¸§à¸¢à¹ĥà¸«":2945,"à¹ģà¸¥à¸°à¸ľ":2946,"à¸ĩà¸²à¸Ļà¸ª":2947,"à¸Ľà¸£à¸°à¸Ī":2948,"à¸ģà¸©à¸²à¸ĺ":2949,"à¸²à¸Ļà¹Ģà¸Ĥ":2950,"à¸²à¸ªà¸²à¸¡à¸²à¸£à¸ĸ":2951,"à¸ģà¸£à¸°à¸ķ":2952,"ist":2953,"à¸¡à¸«à¸²à¸ªà¸¡":2954,"Ġ2547":2955,"à¸Ļà¸Ńà¸£":2956,"à¸£à¸°à¸¢à¸°à¹Ģà¸§à¸¥":2957,"à¸ļà¹Ĥà¸Ķà¸¢":2958,"à¸ļà¹Ħà¸ĭà¸ķ":2959,"à¸ªà¸ķà¸£":2960,"à¸²à¸¢à¸Ń":2961,"à¸²à¸Ļà¸£":2962,"à¹Ĥà¸Ĭà¸§":2963,"à¸¢à¸ģà¸¢":2964,"à¸¥à¸Īà¸Ńà¸¡à¹Ģà¸ģà¸¥":2965,"à¸Ħà¸§à¸²à¸¡à¹Ģà¸Ĭ":2966,"à¸ĩà¸Ńà¸Ńà¸ģà¹Ģà¸Ľ":2967,"à¸²à¸ĩà¸Ī":2968,"à¸ķà¸²à¸¡à¸Ĺ":2969,"à¸ģà¸Ĭà¸²à¸¢":2970,"à¸Ľà¸¥à¸§":2971,"Ġà¸ļà¸Ĺ":2972,"Ġ245":2973,"à¸ģà¸«à¸¥":2974,"à¸²à¸¢à¸Ļà¸Ńà¸ģ":2975,"à¸§à¸Ħ":2976,"à¹ģà¸¥à¸°à¸ŀ":2977,"à¸ĩà¹Ģà¸«à¸¥":2978,"à¸²à¸£à¸²à¸¡":2979,"à¸§à¸²à¸¥":2980,"à¸Ńà¸ĩà¸¢à¸Ļà¸ķ":2981,"à¸Ļà¸ģà¸¥à¸²à¸ĩ":2982,"Ġ'":2983,"à¸¢à¸Ī":2984,"ph":2985,"à¸ģà¸¤à¸ķ":2986,"à¸£à¸²à¸Ħ":2987,"à¸ŀà¸£à¸°à¸Ń":2988,"à¸¡à¹Ģà¸ļ":2989,"à¸Ķà¸«à¸¡à¸²à¸¢":2990,"ack":2991,"à¸ĩà¸Ĺà¸³":2992,"à¸¡à¸ĭ":2993,"à¸£à¸£à¸ŀ":2994,"Ġà¹ģà¸¥à¸°à¸Ĭ":2995,"à¹ģà¸¥à¸°à¸Ī":2996,"à¸Ľà¸¥à¸Ķ":2997,"à¸ªà¸Ľ":2998,"à¸²à¸Ļà¹Ģà¸¡":2999,"Ġ2009":3000,"à¸£à¸£à¸Ķ":3001,"art":3002,"eg":3003,"à¸Ħà¸Ńà¸¡à¸¡":3004,"Ġà¸ķà¸Ńà¸Ļ":3005,"Ġto":3006,"à¸²à¸ĺà¸²à¸£":3007,"Ġà¸ªà¸²à¸¢":3008,"à¸²à¸ŀà¸£":3009,"end":3010,"à¸Ļà¹Ģà¸§à¸¥à¸²":3011,"à¸ŀà¸£à¸°à¸£à¸²à¸Ĭà¸§":3012,"à¸ļà¸«à¸¥":3013,"à¸²à¸Ļà¸ł":3014,"à¸Ńà¸Ļà¸Ķà¸Ńà¸Ļ":3015,"à¸Ļà¹Ĥà¸£à¸ĩà¹Ģà¸£":3016,"à¸Ļà¸²à¸§":3017,"à¸Ļà¸Ĺà¸²à¸ĩà¹Ħà¸Ľ":3018,"à¸Ńà¸ĩà¸ľ":3019,"à¹ĥà¸Ļà¸£à¸Ńà¸ļ":3020,"à¸ģà¸²à¸£à¸Ń":3021,"à¸Ľà¸£à¸°à¸Ĭà¸²à¸Ĭà¸Ļ":3022,"à¸Ķà¹ģà¸Ľà¸¥à¸ĩ":3023,"Ġà¹Ģà¸¢":3024,"à¸²à¸Īà¸°à¸¡":3025,"à¹ģà¸Ħà¸Ļ":3026,"à¸¡à¸²à¸¥":3027,"à¸ģà¸²à¸£à¸ĸ":3028,"à¸²à¸§à¸Ķ":3029,"à¸Ńà¸°à¹Ħà¸£":3030,"Ġà¹Ģ":3031,"60":3032,"à¸Ĺà¸²à¸ĩà¸ķà¸°à¸§":3033,"à¸¥à¸°à¸Ħà¸£à¹Ĥà¸Ĺà¸£à¸Ĺ":3034,"à¸¢à¸Ĭà¸Ļà¸°":3035,"à¸¢à¸Ļà¸ģà¸²à¸£à¸ª":3036,"à¸²à¸ŀà¸£à¸°à¸Ńà¸ĩà¸Ħ":3037,"à¸Ļà¸Ĭà¸Ńà¸ļ":3038,"à¸ģà¸²à¸£à¹Ģà¸Ĥ":3039,"à¹ĥà¸Ļà¸ľ":3040,"ong":3041,"à¹ģà¸¥à¸°à¸¢":3042,"à¸²à¹ģà¸¥":3043,"à¸¤à¸«":3044,"à¸³à¸Ī":3045,"à¸įà¸Ī":3046,"à¸²à¸«à¸¥à¸²à¸¢":3047,"Ġ2007":3048,"à¸Ĺà¸²à¸ĩà¸Ĭ":3049,"à¸§à¹Ħà¸Ķ":3050,"à¸Ļà¹ģà¸«à¸¥":3051,"à¸Ļà¸ŀà¸¥":3052,"à¹Ĥà¸ģà¸ª":3053,"ain":3054,"à¹Ģà¸¡à¸°":3055,"à¸łà¸²à¸ŀà¸Ĺ":3056,"Ġà¹ģà¸¥à¸°à¹Ħà¸¡":3057,"à¸ŀà¸¢à¸²à¸ģà¸£":3058,"à¸ĵà¸ªà¸¡à¸ļ":3059,"à¹Ĥà¸Ķà¸Ķà¹Ģà¸Ķ":3060,"à¸ģà¸¥à¸¡":3061,"à¸Ļà¸Ľà¸¥à¸²à¸¢":3062,"à¸Ĺà¸ĺà¹Ģà¸Ī":3063,"à¸Ļà¸³à¹Ħà¸Ľà¸ª":3064,"ian":3065,"à¸ĩà¹Ħ":3066,"à¸Ļà¸Ľà¸£à¸°à¸Īà¸³":3067,"à¸Ńà¸ĩà¹Ĥà¸Ķà¸¢":3068,"à¸ģà¸²à¸£à¸¢":3069,"à¹Ĥà¸Ķà¸£":3070,"à¸ģà¸©à¸²à¸Ľ":3071,"à¸¢à¸Ļà¸Ī":3072,"40":3073,"à¸´à¹Ĭ":3074,"à¸Ļà¸Ľà¸£à¸°à¸ģà¸Ńà¸ļ":3075,"à¸ļà¸¨":3076,"à¹Ģà¸ģà¸¡à¸ª":3077,"à¸ģà¸£à¸°à¸ļà¸§à¸Ļà¸ģà¸²à¸£":3078,"à¹Ĥà¸ķà¸£":3079,"Ġà¸£à¸°à¸Ķ":3080,"à¸Ĥà¸Ńà¸ĩà¸ŀ":3081,"Ġà¹ģà¸¥à¸°à¹ĥà¸Ļà¸Ľ":3082,"à¸ĩà¸ķà¸²à¸¡":3083,"à¸ĩà¹ģà¸«":3084,"à¹ģà¸¥à¸°à¸Ħà¸§à¸²à¸¡":3085,"à¸ģà¹Ģà¸Ľà¸¥":3086,"à¸ªà¸²à¸Ļ":3087,"Ġà¸ªà¸¡à¸²à¸Ĭ":3088,"à¸«à¸łà¸²à¸ŀà¹Ĥà¸ĭà¹Ģà¸§":3089,"à¹ģà¸¥à¸°à¸Ħ":3090,"Ġà¸Ńà¸Ļ":3091,"à¸²à¹ĥà¸Ļ":3092,"à¸Īà¸²à¸ģà¸Ļ":3093,"à¸ĩà¹ģà¸§à¸Ķà¸¥":3094,"à¸£à¸£à¸²à¸Ĭ":3095,"à¹Ĥà¸Ł":3096,"à¸²à¸¢à¸Ĺà¸Ńà¸Ķ":3097,"à¸¡à¹Ģà¸«à¸¥":3098,"à¹Ĥà¸¥à¸ģà¸£":3099,"à¸Ĺà¸²à¸Ļ":3100,"à¹Ĥà¸łà¸Ħ":3101,"ff":3102,"à¸ķà¸¥à¸²à¸Ķ":3103,"à¸Ĺà¸¢à¸²à¸Ļ":3104,"à¹ĥà¸Ļà¸ĭ":3105,"à¸ĩà¹ĥà¸«à¸¡":3106,"à¸¥à¸ĩà¹Ħà¸Ľ":3107,"à¸Ļà¸ªà¸ĸà¸²à¸Ļà¸Ĺ":3108,"à¸³à¸£à¸ĩà¸ķà¸³à¹ģà¸«à¸Ļ":3109,"Ġà¸ģà¸³à¸ģ":3110,"ace":3111,"à¸ªà¸ĸà¸²à¸Ľà¸Ļ":3112,"à¸²à¸§à¸²à¸ª":3113,"à¸£à¸ł":3114,"Ġà¸ŀà¸£à¸£":3115,"à¸Ńà¸ĩà¸¢":3116,"à¸¡à¹Ģà¸«":3117,"à¸¢à¸Ħ":3118,"à¸³à¸£à¸§à¸Ī":3119,"à¹Ģà¸§à¸ĵà¸Ĺ":3120,"à¸Ļà¸ģà¸£":3121,"à¸Ĺà¸ĺà¸£":3122,"à¸ĩà¸«à¸£":3123,")\"":3124,"à¸Ļà¸Ļà¸³":3125,"à¸ģà¸ªà¸£":3126,"Ġà¹Ĥà¸Ħà¸£":3127,"à¸ļà¸§à¸ĩ":3128,"Ġà¸ģà¸§":3129,"à¸Ļà¸£à¸ĸ":3130,"Ġ60":3131,"à¸³à¸ļ":3132,"à¸ªà¸ķà¸²à¸£":3133,"à¸ĩà¸Ħà¸£à¸²à¸¡à¹Ĥà¸¥à¸ģà¸Ħà¸£":3134,"Ġà¸ķà¸£":3135,"à¸Ĭà¸²à¸į":3136,"à¸łà¸ŀ":3137,"à¸¡à¹Ģà¸Ķ":3138,"à¸Ļà¹ģà¸Ļà¸§":3139,"ure":3140,"à¸¥à¸²à¸ģ":3141,"à¸¢à¸ģà¹Ģà¸¥":3142,"à¹ĥà¸Ļà¸łà¸²à¸ŀà¸¢à¸Ļà¸ķà¸£":3143,"Ġà¸ŀà¸£à¸£à¸Ħ":3144,"Ġ2006":3145,"à¸Ļà¸²à¸Ļà¸²à¸Ĭà¸²à¸ķ":3146,"à¸Ńà¸ĩà¹Ģà¸Ķ":3147,"à¸«à¸Ļà¸²à¸§":3148,"ran":3149,"à¸µà¹ĭ":3150,"à¸Ļà¸«à¸¡à¸²à¸¢":3151,"à¸ļà¹Ģà¸Ķ":3152,"à¸Ńà¸Ļà¸¢":3153,"à¸£à¸Ńà¸¢":3154,"à¸²à¸¢à¸§":3155,"à¸Ńà¸²":3156,"à¸ģà¹ĥà¸Ļ":3157,"à¸ªà¸²à¸ģà¸¥":3158,"à¸§à¸¢à¸Ńà¸£":3159,"one":3160,"à¸ĩà¸Ĭà¸Ļà¸°":3161,"à¸²à¹Ģà¸Ńà¸¥":3162,"à¹Ħà¸Ĺà¸¢à¸Ĺ":3163,"à¹ģà¸§à¸£":3164,"à¸ķà¸¨à¸²à¸ªà¸ķà¸£":3165,"à¹Ģà¸¥à¸ģ":3166,"à¸Ńà¸Ļà¹Ģà¸ª":3167,"à¸Ķà¸¡à¸¨":3168,"Ġà¸Ľà¸£à¸°à¸Īà¸³":3169,"à¸²à¸¢à¸łà¸²à¸ŀ":3170,"à¸Ĭà¸²à¸¢à¸Ŀ":3171,"ens":3172,"Ġà¸Ĥà¸ĵà¸°":3173,"à¸Ńà¸Ńà¸£":3174,"à¸Ļà¸§à¸Ļ":3175,"à¸ĩà¹Ħà¸§":3176,"à¹Ģà¸Ńà¸ģà¸ªà¸²à¸£":3177,"av":3178,"Ġà¸Ĺà¸§":3179,"Ġà¹ģà¸¥à¸°à¸ģ":3180,"à¹Ģà¸¡à¸¥":3181,"ķà¹":3182,"à¸ĭà¸²à¸ģ":3183,"à¸¡à¸ĸ":3184,"à¸Ķà¸³à¸£à¸ĩ":3185,"Ġà¹ģà¸¥à¸°à¸Ħ":3186,"à¸Ļà¸ŀà¸£à¸°à¸Ńà¸ĩà¸Ħ":3187,"Ġv":3188,"à¸ķà¹Ĥà¸Ķà¸¢":3189,"à¸Ļà¹ģà¸ģ":3190,"à¹Ĥà¸Ńà¸Ļ":3191,"à¸Ńà¸Ļà¸Ī":3192,"à¹Ĥà¸Ļà¸°":3193,"à¸§à¸¢à¸Ń":3194,"à¸²à¸¢à¹Ħà¸Ķ":3195,"à¸ĭà¸²à¸£":3196,"à¸²à¸Ļà¸ļà¸²à¸Ĺ":3197,"à¸ªà¸«":3198,"hy":3199,"à¸ªà¸¥à¸²à¸¡":3200,"à¸Ķà¸Ľà¸ģà¸ķ":3201,"à¸¢à¸ķà¸°à¸§":3202,"à¸£à¸Ńà¸Ķ":3203,"ew":3204,"à¸ģà¸ģà¸§":3205,"à¸²à¸¢à¸Ķ":3206,"à¹ģà¸Ńà¸Ļà¸Ķ":3207,"à¸¢à¸ĩà¸ķ":3208,"à¹Ĥà¸ŀà¸ĺ":3209,"à¸ĩà¸¨à¸£":3210,"à¸¢à¸ĩà¸Ķ":3211,"23":3212,"à¸ļà¹Ģà¸ª":3213,"à¸¥à¸ĩà¹Ģà¸¥":3214,"à¸Ĭà¸²à¸Ĭ":3215,"à¸Ĥà¸Ńà¸ĩà¹Ģà¸ĺà¸Ń":3216,"à¸Ńà¸ĩà¹Ģà¸ģ":3217,"ĠX":3218,"à¸²à¸ĺà¸²à¸£à¸ĵà¸°":3219,"à¸ŀà¸£à¸°à¸Ļà¸²à¸ĩ":3220,"à¸Ĺà¸ģ":3221,"à¹ģà¸Ķà¸Ļ":3222,"à¸Ļà¸ĩà¸²à¸Ļ":3223,"à¸Ħà¸§à¸²à¸¡à¹Ģà¸£":3224,"qu":3225,"à¸²à¹ģà¸¡":3226,"à¹Ĥà¸ª":3227,"à¸ģà¸²à¸£à¸Ľà¸ı":3228,"ord":3229,"à¸¢à¸ĩà¸ª":3230,"à¹Ģà¸Łà¸£":3231,"à¸³à¸ª":3232,"à¸¢à¸ŀ":3233,"ge":3234,"à¸Ĺà¸¨à¸§à¸£à¸£à¸©":3235,"à¹Ģà¸ªà¸¡":3236,"à¸ĩà¸ļà¸Ľà¸£à¸°à¸¡à¸²à¸ĵ":3237,"à¸ŀà¹Ģà¸£":3238,"à¸Ńà¸ĩà¸Ńà¸¢":3239,"à¹ĥà¸Ļà¸ķà¸³à¹ģà¸«à¸Ļ":3240,"à¸§à¸Ļà¸¡à¸²à¸ģ":3241,"à¸°à¹ģà¸Ļ":3242,"à¸Ħà¸§à¸²à¸¡à¸ľ":3243,"à¸ĩà¸ģà¸£à¸°":3244,"Ġà¹ģà¸¥à¸°à¸Ľ":3245,"à¸§à¸ĩà¸Ļ":3246,"Ġ2546":3247,"à¸ģà¹Ģà¸ŀ":3248,"à¸¢à¹ĥà¸«à¸¡":3249,"à¸²à¸Ħà¸ĵà¸°":3250,"Ġ80":3251,"Ġà¸ªà¹Ĥà¸¡à¸ªà¸£":3252,"à¸ĩà¸²à¸Ļà¸ķ":3253,"ex":3254,"à¸Ńà¸Ļà¸ļ":3255,"à¸Ńà¸Ļà¹ģà¸ģ":3256,"Ġà¸Ħà¸²à¸£":3257,"à¸²à¸Ĺà¸£à¸ĩ":3258,"à¸Ļà¸ŀà¸ļ":3259,"ass":3260,"à¸¡à¸²à¸Ķ":3261,"à¸ĩà¹ģà¸£à¸ģà¹Ģà¸¡":3262,"à¸Ĥà¸Ńà¸ĩà¸Ĭ":3263,"à¸ģà¸²à¸£à¸Ķ":3264,"à¸ĩà¸ªà¸¡":3265,"à¸²à¸Ļà¹Ģà¸Ľ":3266,"à¸£à¸°à¸¢à¸°à¸Ĺà¸²à¸ĩ":3267,"à¸Ļà¸Ħà¸£à¸¨à¸£":3268,"ight":3269,"à¹Ģà¸Ńà¸²à¹Ħà¸§":3270,"à¸£à¸Ńà¸ĩ":3271,"à¹Ģà¸Ńà¸Ĭ":3272,"ly":3273,"à¹Ģà¸ŀà¸¥à¸ĩà¸Ĺ":3274,"à¸Ńà¸¨":3275,"à¸ªà¸ĩà¸Ĩ":3276,"à¸²à¸¡à¸ģ":3277,"Ġà¸Ľà¸£à¸°à¹Ģà¸Ĺà¸¨à¸Ń":3278,"à¸įà¸²à¸ķà¹ĥà¸«":3279,"à¸Īà¸°à¹ĥà¸«":3280,"à¸Ľà¸£à¸°à¹Ģà¸¡":3281,"à¸§à¸²à¸ĩà¹ģà¸ľ":3282,"à¹ĥà¸Ļà¸ģà¸²à¸£à¹Ģà¸¥":3283,"ment":3284,"à¸³à¸Ķ":3285,"à¸²à¸ĩà¸ļ":3286,"Ġ=":3287,"à¸Ńà¸ģà¸Ĺ":3288,"à¸ŀà¸£à¸°à¸¢":3289,"Ġr":3290,"à¸Īà¸°à¹Ģà¸ģ":3291,"Ġ2544":3292,"à¹ĥà¸Ļà¸«à¸¥à¸²à¸¢":3293,"à¸ªà¸¢":3294,"à¸ªà¸¢à¸²à¸¡":3295,"à¹ģà¸Ńà¸£":3296,"à¸Ńà¸Ńà¸ģà¸ĭ":3297,"à¸Ĺà¸£à¸§à¸ĩà¸¨":3298,"à¸ĩà¸²à¸Ļà¸Ľ":3299,"à¸¥à¸Ĥà¸Ńà¸ĩ":3300,"à¸Ńà¸¢à¹Ĩ":3301,"ant":3302,"à¸Ĭà¸²à¸§à¸Ńà¹Ģà¸¡à¸£":3303,"Ġà¹ĥà¸Ļà¸Ľà¸£à¸°à¹Ģà¸Ĺà¸¨":3304,"à¸°à¸Ń":3305,"à¸£à¸²à¸ģ":3306,"à¹Ħà¸ŀà¸£":3307,"Ġà¸Ļà¸²à¸Ĺ":3308,"à¹ĥà¸Ļà¸Ńà¸Ķ":3309,"à¸Ńà¹Ģà¸Ī":3310,"à¸ģà¹Ħà¸Ľ":3311,"Ġà¸Ľà¸£à¸°à¸ģà¸Ńà¸ļ":3312,"à¸Ķà¹Ģà¸§":3313,"à¸²à¸«à¸¡":3314,"à¸²à¸§à¸ģ":3315,"à¸Ńà¸«à¸¥":3316,"à¸¥à¸ĭ":3317,"à¸²à¸ĩà¹Ģà¸Ĥ":3318,"à¸Ħà¸§à¸²à¸¡à¸§":3319,"à¸¥à¸°à¸Ħà¸£à¹Ģà¸£":3320,"à¹Ħà¸ģ":3321,"à¸Īà¸°à¹Ģà¸£":3322,"22":3323,"à¸Ńà¸Ļà¸Ĭ":3324,"à¸§à¸¢à¹Ģà¸«à¸ķ":3325,"à¸ģà¸©à¸²à¸Īà¸²à¸ģ":3326,"à¸Ľà¸£à¸°à¸Ĭà¸²à¸Ĭà¸²à¸ķ":3327,"à¸²à¸Ļà¸ľ":3328,"à¹Ĥà¸Ļà¸¡":3329,"à¸ļà¸ģà¸²à¸£à¸ĵ":3330,"à¸£à¸§à¸¡à¸ģ":3331,"à¸§à¹Ĥà¸¡à¸ĩ":3332,"à¸¢à¸¢":3333,"à¸ŀà¸ļà¹Ħà¸Ķ":3334,"à¸²à¸¢à¸Ĺà¸³":3335,"à¹ĥà¸Ļà¸£à¸°à¸«à¸§":3336,"à¸²à¸Ļà¸ĸ":3337,"à¸ĩà¹Ģà¸Ħà¸£à¸²à¸°à¸«":3338,"à¸ģà¸³à¹ģà¸ŀ":3339,"Ġà¹ģà¸¥à¸°à¸Ķ":3340,"à¹Į.":3341,"ik":3342,"à¸ĸà¸§à¸²à¸¢":3343,"à¸Ńà¸¡à¸Ķ":3344,"à¸Ńà¸¥à¹Ģà¸¥à¸¢":3345,"à¸§à¹Ģà¸Ĥ":3346,"à¸²à¸Ńà¸Ńà¸ģà¸Īà¸²à¸ģ":3347,"à¸ŀà¸£à¸°à¸ģà¸£":3348,"à¸Ļà¸Ħà¸Ļ":3349,"à¸ģà¸²à¸£à¸ľà¸¥":3350,"à¸ļà¸Ľà¸£à¸°à¸Ĺ":3351,"à¸ģà¸©à¸ĵà¸°à¹Ģà¸Ľ":3352,"à¸¥à¸Ł":3353,"Ġà¸Ľà¸£à¸°à¸ª":3354,"à¸Ńà¸ªà¸¡":3355,"à¸Ķà¸Īà¸²à¸ģà¸ģà¸²à¸£":3356,"à¸Ńà¸¡à¸ŀ":3357,"à¸²à¸łà¸²à¸ŀ":3358,"Ġà¸Ļà¸³à¹ģà¸ªà¸Ķà¸ĩà¹Ĥà¸Ķà¸¢":3359,"à¸¢à¸¡à¸Ĺ":3360,"à¹Ģà¸ģà¸ª":3361,"à¸Ļà¹Ģà¸Ķà¸Ńà¸£":3362,"Ġà¸īà¸ļ":3363,"à¸Ļà¸ģà¸£à¸°":3364,"ev":3365,"à¸Īà¸ļ":3366,"à¸²à¸Īà¸£":3367,"à¸¥à¹Ģà¸Ķ":3368,"Ġà¹Ħà¸§":3369,"à¹ģà¸ŀà¸Ĺà¸¢à¸¨à¸²à¸ªà¸ķà¸£":3370,"à¸¡à¸«à¸²à¸Ķ":3371,"à¸Ļà¸łà¸²à¸Ħ":3372,"à¸²à¸ĩà¸¥":3373,"à¸²à¸ŀà¸£à¸°à¸¢":3374,"à¹ĥà¸Ļà¹ģà¸ķ":3375,"Ġ2542":3376,"à¸ĩà¸Ĭà¸Ļà¸°à¹Ģà¸¥":3377,"à¹Ģà¸Ŀ":3378,"à¸Ńà¸ģà¹ĥà¸«":3379,"à¸Ńà¸¡à¸²à¸ģ":3380,"Ġà¹ģà¸¥à¸°à¸Ĥ":3381,"à¸ļà¹Ħà¸¡":3382,"à¸Ļà¸ªà¸²à¸¡":3383,"à¹ĥà¸Ļà¸ģà¸²à¸£à¸ķ":3384,"45":3385,"à¸Īà¸°à¸Ĺà¸³à¹ĥà¸«":3386,"à¸Ļà¸£à¸²à¸¢à¸ģà¸²à¸£":3387,"à¸ģà¹Ħà¸¡":3388,"ast":3389,"à¸ŀà¸¤à¸ķ":3390,"à¸³à¸ģà¸§":3391,"à¸Ńà¸¢à¸²à¸ģ":3392,"Ġà¹ģà¸ªà¸Ķà¸ĩ":3393,"à¸Ľà¸ģ":3394,"à¸Ĥà¸ª":3395,"à¸ļà¹Ģà¸¡":3396,"à¹Ģà¸Ĭà¸©à¸Ĳ":3397,"à¸Ļà¸ķà¸ģà¹Ģà¸ī":3398,"à¸§à¸¢à¸ķ":3399,"à¸ĩà¸®":3400,"à¸Ľà¸£à¸°à¸¢":3401,"à¸Īà¸°à¹Ģà¸Ĥ":3402,"Ġà¹ĥà¸ļ":3403,"à¸Ļà¸²à¸Ķà¹ĥà¸«à¸į":3404,"à¸Ĺà¸ĺà¸¨à¸²à¸ªà¸Ļà¸²":3405,"à¸Ľà¸£à¸²à¸ģà¸ıà¸§":3406,"à¸ŀà¸ĩà¸©":3407,"à¸Ħà¸Ļà¹Ģà¸Ķ":3408,"Ġ[":3409,"Ġà¸ªà¸§":3410,"à¸ļà¸ł":3411,"à¸°à¸£":3412,"à¸²à¸¢à¸Ħ":3413,"à¸²à¹Ĥà¸Ĺ":3414,"à¸Ľà¸ĸ":3415,"Ġà¸Ĺà¸£":3416,"à¸²à¸ĩà¸Ĥà¸§à¸²à¸ĩ":3417,"ÂłÂł":3418,"à¸Ħà¸ĭ":3419,"à¸¡à¸§à¸¥":3420,"à¸ķà¸ģà¸¥":3421,"ber":3422,"à¸ĩà¸Ł":3423,"à¸Ļà¸ŀà¸£":3424,"Ġà¸Ľà¸£à¸°à¹Ģà¸łà¸Ĺ":3425,"ational":3426,"à¸²à¸ķà¸°à¸§":3427,"à¸Ļà¸ªà¸³à¸Ħ":3428,"à¸Ķà¹Ģà¸ģ":3429,"à¸ĩà¸²à¸Ļà¸¨":3430,"Ġà¹ĥà¸Ļà¸Ħ":3431,"à¸Ķà¸ľ":3432,"à¸Ńà¸ĩà¹Ģà¸Ĭ":3433,"à¸°à¸¡":3434,"à¸²à¸ĩà¸ģà¸§":3435,"à¸Ħà¸§à¸²à¸¡à¹Ģà¸ª":3436,"à¸ĸà¸Ļà¸Ļ":3437,"à¸²à¸Ļà¸Ļà¸Ĺ":3438,"à¸²à¸§à¸Ń":3439,"Ġà¹ģà¸¥à¸°à¹Ģà¸Ĥ":3440,"à¸ģà¸²à¸£à¸Ľà¸£":3441,"à¸ģà¹Ģà¸ķ":3442,"à¸Ńà¸¡à¹Ģà¸Ī":3443,"à¹Ĥà¸Ľà¸£à¹ģà¸ģà¸£à¸¡":3444,"Ġ2545":3445,"à¸¡à¸²à¸£à¸Ķ":3446,"Ġà¹Ģà¸«à¸¡":3447,"à¸ĩà¹Ĥà¸ķ":3448,"à¸ļà¹Ģà¸ŀ":3449,"à¸²à¸ģà¸§":3450,"à¸Ńà¸Ļà¹Ģà¸Ľ":3451,"à¸ĩà¸ªà¸¡à¸²à¸Ĭ":3452,"Ġà¹Ħà¸Ĺà¸¢":3453,"à¸ĺà¸Ļà¸ļ":3454,"Ġà¸ªà¸ķ":3455,"Ġ2540":3456,"à¸Ĥà¸Ńà¸ĩà¸ŀà¸£à¸°à¹Ģà¸Ī":3457,"à¸²à¸¢à¹ĥà¸Ļ":3458,"à¹Ģà¸ĺà¸Ńà¸ģ":3459,"Ġ2535":3460,"vers":3461,"if":3462,"à¸Ķà¹Ħà¸Ľ":3463,"à¸Ľà¸£à¸°à¸ĺ":3464,"Ġà¸¡à¸²à¸Īà¸²à¸ģ":3465,"à¸¥à¸¯":3466,"à¸«à¸¥à¸Ńà¸Ķ":3467,"à¸¢à¸ļà¸£":3468,"her":3469,"à¸¢à¸Ļà¹Ħà¸Ľ":3470,"à¸ģà¸©à¸²à¸Ħà¸§à¸²à¸¡":3471,"Ġà¸£à¸²à¸ĩà¸§":3472,"à¸Ńà¸Ļà¸ģà¸£":3473,"Ġà¹Ĥà¸Ķà¸¢à¹Ģà¸£":3474,"80":3475,"per":3476,"à¸ŀà¸ĺ":3477,"à¸ĩà¸Ħà¹Ĥà¸Ľà¸£":3478,"à¸ļà¸Ĺà¸Ńà¸Ķ":3479,"à¸£à¸²à¸Ĭà¸§":3480,"Ġà¸Ńà¸³à¹Ģà¸łà¸Ńà¹Ģà¸¡":3481,"à¸Ħà¸§à¸²à¸¡à¸Ĭ":3482,"Ġà¸£à¸ĸ":3483,"à¸ļà¸£à¸ĸ":3484,"à¸Ĺà¸ĺà¸¨":3485,"à¹ģà¸Ĺà¸£à¸ģ":3486,"Ġ2539":3487,"à¸Ĥà¸Ńà¸ļ":3488,"WE":3489,"à¸£à¸²à¸Ĭà¸ªà¸³à¸Ļ":3490,"à¸Ķà¸Ħà¸£à¸Ńà¸ĩ":3491,"à¸Ńà¸²à¸ĵà¸²à¹Ģà¸Ĥà¸ķ":3492,"à¹ĥà¸Ļà¸Ĺà¸²à¸ĩ":3493,"à¹ģà¸ķà¸ģ":3494,"à¸ŀà¸ĩà¸¨":3495,"ld":3496,"à¸²à¸Ļà¸²à¸Ļ":3497,"ear":3498,"à¸ļà¸ľà¸¥":3499,"à¸²à¸§à¸Ħ":3500,"à¸ģà¸Ĳà¸²à¸Ļ":3501,"à¸Īà¸²à¸ģà¸Ĺ":3502,"Ġà¸Ńà¸³à¹Ģà¸łà¸Ń":3503,"à¸Ķà¸¡à¸²":3504,"à¸łà¸²à¸¢à¸Ļà¸Ńà¸ģ":3505,"à¸¢à¸§à¸Ĭà¸²à¸į":3506,"Ġà¸Ľà¸£à¸°à¸¡à¸²à¸ĵ":3507,"à¸Ńà¸²à¸£à¸¡à¸ĵ":3508,"à¸ªà¸²à¸ĺà¸²à¸£à¸ĵà¸£":3509,"à¹Ĥà¸¢à¸ĺ":3510,"Ġà¸Ńà¸²à¸Ħà¸²à¸£":3511,"Ġà¹Ģà¸Ľà¸¥":3512,"à¸²à¸Ĺà¸Ńà¸¥":3513,"à¸Ĺà¸³à¹Ħà¸Ķ":3514,"à¸Łà¸Ł":3515,"à¸Ħà¸Ń":3516,"à¸²à¸ªà¸ķ":3517,"à¸ĩà¸²à¸Ļà¸ģ":3518,"à¸įà¸ģ":3519,"à¸¡à¹Ģà¸«à¸ª":3520,"ary":3521,"à¸Ĥà¸Ńà¸ĩà¸Ĭà¸²à¸§":3522,"à¸Ļà¸Ľà¸£à¸°à¸ĺà¸²à¸Ļ":3523,"Ġà¸Īà¸Ńà¸«":3524,"à¸¡à¸ĩà¸Ħà¸¥":3525,"à¸ŀà¸ķ":3526,"à¸ĺà¸£":3527,"à¸įà¸ŀ":3528,"à¸§à¸¢à¸£":3529,"ati":3530,"à¸ļà¹Ģà¸Ħà¸£":3531,"à¸Īà¸°à¸£":3532,"à¸¡à¹ģà¸£à¸ģ":3533,"à¸²à¹ģà¸Ļ":3534,"à¸Ńà¸Ļà¸²à¸Ħà¸ķ":3535,"à¹Ģà¸Ķà¸Ļ":3536,"Ġà¹Ģà¸Ńà¸Ł":3537,"à¸Ńà¸Ńà¸²à¸¢":3538,"Ġà¸£à¸²à¸¢à¸ģà¸²à¸£":3539,"à¸£à¸£à¸²à¸Ĭà¸ª":3540,"à¹Ģà¸ĭà¸¥":3541,"à¸¡à¸§à¸¢":3542,"à¸Ļà¸£à¸°à¸ļà¸ļ":3543,"à¹Ĥà¸«à¸¥":3544,"Ġà¸ŀà¸ļ":3545,"Ġà¹ĥà¸Ļà¸Ĳà¸²à¸Ļà¸°":3546,"à¸§à¸²à¸Ķ":3547,"à¸ĩà¹Ģà¸§":3548,"Ġà¹Ģà¸Ĥà¸²à¹Ģà¸Ľ":3549,"à¸°à¸®":3550,"à¸Ļà¹ģà¸Ĺ":3551,"à¸Ĺà¸ª":3552,"à¸ŀà¸¥à¸Ńà¸Ķ":3553,"à¸Ńà¸ĩà¸ģà¸¥":3554,"à¸ķà¸£à¸Ĥà¸Ńà¸ĩ":3555,"à¸Ļà¸Ľà¸£à¸°à¸Ĭ":3556,"à¸Ńà¸Ļà¹ģà¸¥à¸°":3557,"à¸ĩà¸ĩ":3558,"à¸²à¸ļà¸£à¸¡à¸§à¸ĩà¸¨":3559,"à¸²à¸Ļà¹Ģà¸ģ":3560,"à¸²à¸§à¸«à¸Ļ":3561,"à¹Ģà¸Ĺà¸§":3562,"à¸ģà¸²à¸£à¸Ĺà¸«à¸²à¸£":3563,"à¹Ĳ":3564,"à¸ļà¸ģà¸²à¸£à¹Ģà¸¥":3565,"à¸Ńà¸ĩà¸ģà¸³à¸¥":3566,"à¸Ļà¸ªà¸³à¸«à¸£":3567,"ous":3568,"à¸ĩà¸ĩà¸²à¸Ļà¸ģ":3569,"à¸Ļà¹ģà¸Ĭà¸¡à¸Ľ":3570,"à¸ĵà¸²à¹Ĥà¸Ľà¸£":3571,"à¸ļà¸Ńà¸£":3572,"à¸ĩà¹ģà¸£à¸ĩ":3573,"à¸£à¸§à¸¡à¸ĸ":3574,"à¸²à¸Īà¸Ļà¸ĸ":3575,"Ġà¹Ģà¸Ķà¸Ń":3576,"Ġà¹ģà¸Ĥ":3577,"Ġà¹ģà¸Ľà¸¥à¸§":3578,"à¸²à¸Ļà¸¡à¸²":3579,"Ġà¸¯à¸¥à¸¯":3580,"à¸²à¸Ļà¹Ħà¸Ľ":3581,"à¸´à¹ĭ":3582,"à¸ļà¸ģà¸²à¸£à¸£":3583,"à¸¡à¸²à¸ĸ":3584,"ie":3585,"Ġà¸Ķà¸Ńà¸ģ":3586,"à¸ķà¹ĥà¸Ī":3587,"à¸ŀà¸£à¸°à¸Ĺ":3588,"à¸ļà¹Ģà¸ģ":3589,"à¸Ļà¹ĥà¸Ļà¸Ĺ":3590,"28":3591,"Ġà¹ģà¸Ī":3592,"à¸ĩà¸Īà¸²à¸ģà¸ģà¸²à¸£":3593,"ory":3594,"21":3595,"à¸īà¸¥à¸Ńà¸ĩ":3596,"Ġ2005":3597,"Ġà¹ĥà¸Ļà¸Ń":3598,"à¸³à¸ķ":3599,"à¹ĥà¸Ļà¸¡":3600,"à¸Īà¸°à¸¢":3601,"à¸¢à¸Ļà¸ļà¸Ĺ":3602,"à¸Ľà¸£à¸°à¹Ģà¸ŀà¸ĵ":3603,"à¸²à¸§à¸ª":3604,"à¸¡à¸Ļà¸²à¸Ħà¸¡":3605,"Ġà¹ģà¸Ļà¸§":3606,"Ġà¸Ĥà¸Ļà¸²à¸Ķ":3607,"Ġà¸¡à¸²à¸ģ":3608,"tern":3609,"à¸Ļà¹Ĥà¸£à¸Ħ":3610,"à¸įà¸²à¸ĵ":3611,"Ġà¹Ģà¸ªà¸Ķ":3612,"à¸²à¸ı":3613,"à¹ĥà¸Ļà¸§à¸ĩà¸¨":3614,"à¸§à¸ĸ":3615,"à¸ĺà¸¢":3616,"ry":3617,"à¸Ļà¸Ķà¸²à¸¥":3618,"à¹ĥà¸Ļà¸ģà¸²à¸£à¸£":3619,"à¸Ħà¸§à¸²à¸¡à¸¡":3620,"à¸ªà¸§à¸£à¸£à¸Ħà¸ķ":3621,"Ġ2543":3622,"à¸²à¸ĩà¸ģà¸²à¸£":3623,"à¸ķà¸£à¸§":3624,"à¸Ńà¹ģà¸ģ":3625,"à¸«à¸¥à¸²à¸¢à¸Ħà¸£":3626,"à¸§à¸Ħà¸£à¸²à¸§":3627,"à¸Ħà¸³à¸Ļà¸§":3628,"à¸¡à¸²à¸Ĺ":3629,"Ġà¹Ģà¸ĺà¸Ńà¹Ħà¸Ķ":3630,"ond":3631,"à¸£à¸²à¸©à¸İà¸£":3632,"à¸§à¸²à¸ĩà¸Īà¸³à¸«à¸Ļ":3633,"48":3634,"à¹Ģà¸Ļà¸Ĭ":3635,"à¸Ķà¸ģà¸²à¸£à¹ģà¸Ĥ":3636,"à¸±à¹ĭ":3637,"à¸ĺà¸Ļà¸²à¸Ħà¸²à¸£":3638,"Ġà¸ľà¸¥à¸ĩ":3639,"à¸Ļà¸Ńà¸²à¸Ī":3640,"à¸Ļà¹ģà¸Ķà¸Ļ":3641,"à¸Ĺà¸²à¸ĩà¸ª":3642,"Ġà¹Ģà¸ī":3643,"à¸§à¸¢à¸Ļ":3644,"Ġà¸ĩà¸²à¸Ļ":3645,"à¸ĵà¸²à¹Ĥà¸Ľà¸£à¸Ķà¹Ģà¸ģà¸¥":3646,"à¸ĩà¸£à¸§à¸¡":3647,"à¹ģà¸Ľà¸ĭ":3648,"à¹Ģà¸ĭà¸Ļ":3649,"à¸¢à¸ĭ":3650,"à¹Ģà¸Ħà¸¢à¸¡":3651,"à¸Ļà¸Ħà¸£à¸£à¸²à¸Ĭà¸ª":3652,"à¸Ńà¸¢à¸Ħà¸£":3653,"à¸¢à¸ģà¸ģ":3654,"ĠAl":3655,"ial":3656,"Ġà¹ģà¸¥à¸°à¸ļ":3657,"à¹Ħà¸§à¸£":3658,"à¸£à¸°à¸ļà¸Ńà¸ļ":3659,"ip":3660,"à¸Ļà¸Ĺà¸ļ":3661,"à¸Ńà¹Ģà¸ŀà¸¥à¸ĩ":3662,"à¸Īà¸ª":3663,"à¸¨à¸²à¸Ī":3664,"à¸¢à¸Ļà¸Ĥà¸Ńà¸ĩ":3665,"à¸ĩà¸²à¸Ļà¸Ī":3666,"à¸¡à¸«à¸²à¸Ĭà¸Ļ":3667,"à¹Ĥà¸Ĥà¸Ĺ":3668,"à¹Ĥà¸¥à¸ģà¸Ĺ":3669,"27":3670,"à¸ĩà¸ŀà¸¥":3671,"à¸Ļà¸Ħà¸Ļà¸Ĺ":3672,"à¸ĩà¸²à¸Ļà¸Ķ":3673,"à¸ģà¸Ľà¸¥":3674,"à¸ļà¸ļà¸£":3675,"à¸²à¸¢à¸Ħà¸¥":3676,"oy":3677,"à¸Ńà¸ĩà¹Ģà¸ª":3678,"à¸§à¸Ļà¸Ń":3679,"à¸£à¸©":3680,"à¸Ķà¸ŀà¸¥":3681,"à¸Ļà¸ķà¸°à¸Ľ":3682,"à¹Ģà¸Ńà¸¡":3683,"à¸Ļà¸ķà¸ģà¸Ĥà¸Ńà¸ĩ":3684,"à¸ģà¸²à¸£à¸Ļ":3685,"ort":3686,"ĠSh":3687,"à¸Īà¸Ļà¸ģà¸£à¸°à¸Ĺ":3688,"à¸Ńà¸Ļà¸ĺ":3689,"à¸¡à¸Ńà¸¢":3690,"26":3691,"ĠZ":3692,"à¸§à¸Ļà¸Ļ":3693,"Ġà¸Ļà¸²à¸ĩ":3694,"à¹ģà¸ªà¸Ķà¸ĩà¹ĥà¸«":3695,"à¸łà¸²à¸£à¸ģ":3696,"à¸¢à¸Ļà¹Ħà¸Ķ":3697,"à¹Ĥà¸Ľà¹ģà¸¥à¸Ļà¸Ķ":3698,"à¸Ħà¸ĵ":3699,"ĠAr":3700,"à¸Ħà¸§à¸²à¸¡à¹Ģà¸«":3701,"ĠPro":3702,"à¸¢à¹Ģà¸Ķ":3703,"à¸ļà¹Ħà¸¥":3704,"à¹Ģà¸ĭà¸Ł":3705,"à¹Ĥà¸Ľà¸£à¸Ķ":3706,"à¹Ģà¸Ĭà¸Ńà¸£":3707,"à¸Ļà¸ķà¸°à¸Ľà¸²à¸Ľ":3708,"Ġà¹ģà¸®":3709,"à¸²à¹ģà¸Ĭà¸¡à¸Ľ":3710,"Ġà¸łà¸²à¸ŀ":3711,"à¸ģà¸£à¸°à¸ļ":3712,"à¸¡à¸«à¸Ļ":3713,"à¸Ńà¸ĩà¸Ĭà¸²à¸¢":3714,"Ġà¹ĥà¸Ļà¸«":3715,"à¹ģà¸ľà¸Ļà¸ģà¸²à¸£":3716,"à¸įà¸«à¸²":3717,"29":3718,"ov":3719,"à¹ģà¸¥à¸°à¸Ĭ":3720,"à¸¡à¹Ģà¸¥":3721,"Ġà¹ĥà¸Ļà¸ªà¸¡":3722,"à¸ĸà¸¡à¸¨":3723,"à¸Ńà¸ģà¹Ģà¸Ĥ":3724,"à¸¢à¸Ļà¸ģ":3725,"à¸ģà¹Ģà¸¡":3726,"à¸²à¸§à¹Ħà¸Ķ":3727,"Ġà¹Ģà¸«à¸ķ":3728,"à¸ģà¸²à¸£à¸Ĥ":3729,"à¹Ħà¸Ľà¸ª":3730,"à¸ģà¸³à¸Ī":3731,"à¸Ĥà¸Ńà¸ĩà¸¢":3732,"Ġà¸Łà¸£":3733,"à¸¢à¸ģà¸ķ":3734,"à¹ģà¸¥à¸°à¸Ĥ":3735,"à¸Ļà¸Ħà¸£à¸Ńà¸ĩà¸£à¸²à¸Ĭ":3736,"à¸Ńà¸Ļà¸¡à¸ģà¸£à¸²à¸Ħà¸¡":3737,"à¸ļà¸ŀà¸¥":3738,"à¸Ļà¹ĥà¸Ĭ":3739,"à¸ķà¸£à¸Ķ":3740,"Ġà¸Ħà¸³à¸§":3741,"Ġà¹Ĥà¸Ĺ":3742,"à¸ļà¸ģà¸²à¸£à¸ķ":3743,"à¸Ĥà¸Ńà¸ĩà¸ļ":3744,"à¹Ģà¸Ńà¸ģà¸£à¸²à¸Ĭ":3745,"à¸Ļà¸²à¸¡à¸§":3746,"à¹Ģà¸ŀà¸¥à¸ĩà¸Ļ":3747,"à¸²à¸ĩà¹Ĥà¸Ķà¸¢":3748,"à¸ªà¸«à¸£à¸²à¸Ĭà¸Ńà¸²à¸ĵà¸²à¸Ī":3749,"à¸¢à¸ĩà¹ģà¸Ħ":3750,"ind":3751,"à¸²à¹Ģà¸ķ":3752,"à¸¡à¸łà¸²à¸©":3753,"à¸Ĳà¸Ľà¸£à¸°à¸«à¸²à¸£":3754,"Ġà¹Ĥà¸Ķà¸¢à¹Ħà¸¡":3755,"à¸«à¸²à¸£à¸ª":3756,"à¸Ĺà¸£à¸ĩà¹Ģà¸Ľ":3757,"à¹Ħà¸ĭà¸Ķ":3758,"à¹Ģà¸Ľà¸Ļ":3759,"à¹Ħà¸Ńà¸£":3760,"à¹Ĥà¸ģà¸£":3761,"à¹Ģà¸Ĺà¸¨à¸ģà¸²à¸¥":3762,"Ġ2538":3763,"à¸ĩà¹Ģà¸Ĺà¸ŀà¸¯":3764,"à¸ķà¸£à¸²à¸ģà¸²à¸£":3765,"Ġ2004":3766,"à¸²à¸Ĥà¸²à¸§":3767,"à¸ļà¸£à¸£à¸¢à¸²à¸¢":3768,"à¸Ļà¸³à¸¡":3769,"Ġ2019":3770,"ide":3771,"à¹Ħà¸Ľà¸£":3772,"à¸Ľà¸£à¸°à¸ģà¸²à¸£":3773,"à¸¡à¸²à¹ģà¸¥":3774,"à¸Īà¸ŀà¸£à¸°à¸ª":3775,"à¸Ļà¸Ńà¸Ķ":3776,"à¸Ĥà¸Ńà¸ĩà¹Ģà¸Ī":3777,"à¸ĭà¸²à¹Ģà¸ļ":3778,"Ġà¸ŀà¸§à¸ģà¹Ģà¸Ĥ":3779,"à¸§à¸ĩà¸ģà¸²à¸£":3780,"à¸ŀà¸²à¸£":3781,"à¹Ĥà¸Ľà¸£à¸Ķà¹Ģà¸ģà¸¥":3782,"à¹ĥà¸Ļà¸Ĥà¸ĵà¸°à¸Ĺ":3783,"à¸ģà¸©à¸²à¸Ķ":3784,"35":3785,"à¸Ļà¸ģà¸²à¸£à¹ģà¸Ĥ":3786,"à¹Ģà¸¢à¸²à¸§à¸Ĭ":3787,"à¸«à¸²":3788,"à¹Ģà¸©à¸ģà¸ªà¸¡":3789,"à¸ļà¸£à¸²à¸Ĭà¸ģà¸²à¸£":3790,"nd":3791,"à¹Ĥà¸¥à¸§":3792,"à¹Ĥà¸¥à¸«à¸°":3793,"à¸¢à¸ĩà¸Ħ":3794,"à¸Ĭà¸²à¸§à¸ļ":3795,"à¸Ńà¸ĩà¸Īà¸²à¸ģà¸¡":3796,"à¸Ķà¹ģà¸«":3797,"à¸Ńà¸¡à¹Ĥ":3798,"à¸²à¸¢à¹Ģà¸¡":3799,"à¸ģà¸£à¸§à¸²à¸¥":3800,"Ġà¹ģà¸¥à¸°à¹ĥà¸Ĭ":3801,"ĠCom":3802,"à¸Ļà¸īà¸ļ":3803,"à¸Ķà¹ĥà¸Ļà¹Ĥà¸¥à¸ģ":3804,"à¸ĩà¹Ģà¸Ħà¸£":3805,"à¸¡à¸²à¸Ĥà¸Ńà¸ĩ":3806,"à¸Ńà¸Ļà¸Ħ":3807,"à¹ĥà¸Ļà¸Ľà¸£à¸°à¸§":3808,"Ġà¸Ļà¸Ńà¸ģà¸Īà¸²à¸ģ":3809,"à¸ģà¸²à¸£à¸Ľ":3810,"à¹Ħà¸ķà¸Ļ":3811,"à¸Ńà¸¡à¸£":3812,"à¸²à¹Ħà¸Ĺà¸¢":3813,"à¹Ģà¸ģà¸£à¸²à¸°":3814,"Ġà¸ģà¸²à¸£à¸Ĺ":3815,"à¸Ķà¹Ģà¸Īà¸Ļ":3816,"à¸ļà¸§à¸Ĭ":3817,"199":3818,"à¹Ģà¸Īà¸Ļ":3819,"à¸¡à¸«à¸²à¸Ķà¹Ħà¸Ĺà¸¢":3820,"à¸Ĥà¸Ńà¸ĩà¸¥":3821,"à¸Ħà¸³à¸Ļà¸§à¸ĵ":3822,"à¸ķà¸¥":3823,"à¸ĩà¹Ģà¸Ĥà¸ķ":3824,"à¸ļà¸łà¸²à¸ŀà¸¢à¸Ļà¸ķà¸£":3825,"à¸²à¸ģà¸¢":3826,"à¸ķà¸£à¸ĩà¸Ĥ":3827,"à¸Ļà¸Ķà¸£":3828,"à¸¡à¸²à¹Ģà¸¥à¹Ģà¸ĭ":3829,"à¸Ħà¸§à¸²à¸¡à¹ģà¸ķà¸ģà¸ķ":3830,"à¸Ńà¸ķà¸²à¸¡":3831,"à¸¨à¸¥":3832,"à¸²à¸Ľà¸ı":3833,"à¸´\"":3834,"à¹Ħà¸Ľà¸Ńà¸¢":3835,"à¸Īà¸°à¸Ī":3836,"à¸ģà¸Ĭà¸Ļ":3837,"à¸²à¸ĩà¸Ĭà¸²à¸ķ":3838,"à¸ªà¸²à¸¡à¸²à¸£à¸ĸà¹ĥà¸Ĭ":3839,"à¸²à¸Ļà¸Ķà¸Ńà¸¥à¸¥à¸²à¸£":3840,"à¹ĥà¸Ļà¸£à¸°à¸ļà¸ļ":3841,"à¸ļà¸ģà¸²à¸£à¸Ī":3842,"à¸Ļà¹ĥà¸Ļà¸ª":3843,"à¸£à¸²à¸Ĭà¸ĺà¸²à¸Ļ":3844,"à¹ģà¸¥à¸°à¹Ħà¸¡":3845,"Ġà¹ģà¸¥à¸°à¸¥":3846,"Ġ70":3847,"Ġà¸ļà¸²à¸ĩ":3848,"Ġà¹Ģà¸Ĥà¸²à¸¢":3849,"à¸ªà¸ĩà¸ļ":3850,"à¸²à¸ĺà¸²à¸£à¸ĵà¸ª":3851,"à¸ļà¸Ħà¸³":3852,"à¸Ńà¸Ļà¸ŀà¸¤à¸©à¸łà¸²à¸Ħà¸¡":3853,"à¸ĩà¹ĥà¸Ļà¸ģà¸²à¸£":3854,"à¸£à¸°à¸ļà¸§à¸Ļ":3855,"à¸Ļà¸Īà¸°à¸¡":3856,"Ġà¸«à¸¥à¸²à¸¢":3857,"à¸Ħà¸ģ":3858,"à¸¢à¸Ļà¸ļ":3859,"à¹Ħà¸«":3860,"à¸²à¸ĩà¹Ģà¸¡":3861,"à¸¨à¸¡":3862,"Ġà¹ģà¸ĭ":3863,"Ġà¸ŀà¸£à¸£à¸©à¸²":3864,"à¸Ĺà¸³à¸Ļ":3865,"à¸Ķà¸«à¸¥":3866,"à¹ģà¸¥à¸°à¸¥":3867,"à¸Ľà¸²à¸£":3868,"à¹Ģà¸Ĺà¸Ļà¹Ģà¸¡":3869,"Ġ35":3870,"à¸ŀà¸Īà¸Ļ":3871,"à¹Ģà¸Ħà¸²à¸£":3872,"à¸¡à¸ĩà¸ģ":3873,"à¸Ħà¸Ńà¸£":3874,"à¸²à¸Ńà¸²à¸§à¸²à¸ª":3875,"à¹Ħà¸Ľà¹ģà¸¥":3876,"Ġà¸ªà¸¢à¸²à¸¡":3877,"Ġà¸ĸà¸Ļ":3878,"à¸ŀà¸Ńà¹ĥà¸Ī":3879,"à¹Ħà¸Ľà¹Ħà¸Ķ":3880,"à¸ĩà¹Ĩ":3881,"Ġà¹ģà¸¥à¸°à¸ģà¸¥":3882,"à¸Ļà¹Ģà¸§":3883,"à¸§à¸²à¸ª":3884,"Ġà¸Ħà¸Ļà¸Ĺ":3885,"à¸§à¸Ļà¸ģ":3886,"à¸¨à¹Ģà¸«à¸Ļ":3887,"Ġre":3888,"à¸Ļà¹Ħà¸«à¸§":3889,"à¸ģà¸Īà¸²à¸ģ":3890,"à¸²à¸Ļà¹Ģà¸£":3891,"à¸Ĳà¸Ń":3892,"Ġà¸ªà¸Ļà¸²à¸¡":3893,"ith":3894,"à¸ļà¸ļà¸Ĺà¹Ģà¸Ľ":3895,"à¸Ļà¸ķà¸£à¸ĩ":3896,"à¸²à¸ªà¸²à¸£":3897,"à¸ķà¸£à¸²":3898,"à¸ģà¸²à¹ĥà¸ķ":3899,"Ġ2000":3900,"Ġà¸ļà¸²à¸£":3901,"à¸Ļà¹Ģà¸ŀà¸£à¸²à¸°":3902,"Ġà¸ģà¸£à¸°à¸Ĺà¸£à¸§à¸ĩ":3903,"70":3904,"à¸ķà¹ģà¸¥à¸°":3905,"à¸ŀà¸£à¸«à¸¡":3906,"à¸ģà¸Ńà¸ĩà¸ģà¸³à¸¥":3907,"à¸ļà¸Ľà¸£à¸°à¹Ģà¸Ĺà¸¨":3908,"à¸įà¸įà¸²à¸ģ":3909,"à¸Ńà¸¡à¸¡":3910,"à¸Īà¸³à¸¥à¸Ńà¸ĩ":3911,"Ġ190":3912,"à¸²à¹Ĥà¸¡":3913,"à¸Ķà¹Ģà¸Ĺ":3914,"à¸²à¸ĩà¹Ħà¸£":3915,"à¸ķà¸³à¸«à¸Ļ":3916,"à¸²à¸Ńà¸²à¸ģà¸²à¸¨à¸¢à¸²à¸Ļ":3917,"à¸ĩà¸Ľà¸£":3918,"à¸ªà¸£à¸²à¹Ģà¸Ńà¸¥":3919,"à¸¡à¹Ģà¸ŀ":3920,"à¸Ńà¸¡à¸²à¹Ģà¸¡":3921,"à¸«à¸²à¸Ķ":3922,"à¸Ħà¸§à¸²à¸¡à¸Ļ":3923,"à¸Ľà¸£à¸°à¸ªà¸ļà¸ģà¸²à¸£à¸ĵ":3924,"Ġfor":3925,"à¸ķà¹Ħà¸Ķ":3926,"à¹Ħà¸Ľà¹Ģà¸Ľ":3927,"à¸²à¸ķà¸²à¸¡":3928,"à¸Ļà¹Ĥà¸Ħà¸£":3929,"à¹ĥà¸Ļà¸Ĺà¸§":3930,"à¸Ľà¸£à¸°à¸ģà¸²à¸¨à¸§":3931,"à¸³à¸Ļà¸²à¸Ī":3932,"ward":3933,"à¸£à¸§à¸ļà¸£à¸§à¸¡":3934,"à¸ģà¸ªà¸²à¸§":3935,"à¹Ģà¸®à¸Ļà¸£":3936,"à¸Ńà¸²à¸Ļ":3937,"à¸Ķà¸¢à¸Ńà¸Ķ":3938,"à¸§à¸¢à¸ĩà¸²à¸Ļ":3939,"à¸Ńà¸ĩà¸«à¸¡à¸²à¸¢":3940,"à¸Ħà¸Ļà¸Ń":3941,"à¸Ļà¹Ģà¸«à¸¥":3942,"à¸ģà¸¤à¸Ķ":3943,"à¸ĩà¹ģà¸ļà¸ļ":3944,"à¸²à¸ªà¸£":3945,"à¸Ļà¹Ģà¸ģà¸¡":3946,"à¸²à¸ģà¸£à¸¡":3947,"Ġà¹ĥà¸Ļà¸¢":3948,"iz":3949,"à¸¡à¹Ģà¸Ń":3950,"Ġà¸ªà¸ĸà¸²à¸ļ":3951,"à¸Ħà¸¥à¸Ńà¸ĩ":3952,"à¸Ħà¸ĵà¸°à¸£":3953,"à¸Ńà¸ŀà¸¢à¸ŀ":3954,"à¸Ķà¹ģà¸£à¸ģ":3955,"Ġà¸ªà¸ģ":3956,"à¸§à¸¢à¸Ĭ":3957,"à¸²à¸Ļà¸Ħà¸§à¸²à¸¡":3958,"à¸¡à¸°à¹Ģà¸£":3959,"à¸Ĩà¸²à¸ķ":3960,"à¸¥à¸°à¸ķ":3961,"à¹ĥà¸Ļà¸£à¸°à¸¢à¸°":3962,"à¸²à¸¢à¸Ĥ":3963,"Ġà¹Ĥà¸Ķà¸¢à¸ķ":3964,"à¸ĩà¸Ħà¸²à¸£":3965,"Ġà¹Ģà¸Ħà¸¢":3966,"à¹ģà¸¥à¸°à¸ĸ":3967,"à¸ļà¸ªà¹Ĥà¸¡à¸ªà¸£":3968,"à¸Ļà¸Ĺà¸£à¸ĩ":3969,"à¸¢à¸ĩà¹Ģà¸Ľ":3970,"255":3971,"Ã©":3972,"à¸Ńà¸¢à¸ª":3973,"à¸Ĭà¸Ļà¸Ļ":3974,"à¸Ļà¸Ķà¸²":3975,"à¸Ļà¸ģà¸³à¹Ģà¸Ļ":3976,"à¸Ľà¸£à¸°à¸¡à¸§à¸¥":3977,"à¸Ńà¸ĩà¹Ģà¸Ĥ":3978,"à¸Ńà¹Ģà¸Ĭ":3979,"à¸³à¹Ģà¸ĩ":3980,"Ġà¹ĥà¸Ļà¸Ļ":3981,"orld":3982,"à¸ªà¸ĸà¸²à¸Ļà¸°":3983,"à¸ĺà¸£à¸£à¸¡à¸£à¸²à¸Ĭ":3984,"à¸²à¸ĩà¸ªà¸£à¸£à¸Ħ":3985,"Ġà¹ģà¸Ł":3986,"Ġà¸ķà¸¥à¸Ńà¸Ķà¸Ī":3987,"à¸¢à¸Ļà¸Ķ":3988,"à¸ŀà¸Ļà¸ĺ":3989,"Ġà¸Īà¸°à¹Ħà¸Ķ":3990,"à¸Ķà¸³à¸£":3991,"à¸ģà¸£à¸Ĺ":3992,"ice":3993,"Ġà¹Ĥà¸Ķà¸¢à¸ľ":3994,"à¸Ńà¹Ģà¸ŀà¸¥":3995,"Ġà¸ķà¸²à¸£à¸²à¸ĩà¸ģ":3996,"à¸ĩà¸Ľà¸£à¸°à¹Ģà¸Ĺà¸¨":3997,"à¹ģà¸¥à¸°à¸ģ":3998,"Ġà¸ģà¸²à¸£à¸ª":3999,"à¸Ńà¸ĩà¸ģà¸ĩ":4000,"Ġà¸§à¸ĩà¸¨":4001,"à¸Ļà¸ķà¸³à¹ģà¸«à¸Ļ":4002,"à¹Ģà¸§à¸Ĭ":4003,"à¸£à¸ĵà¸°":4004,"à¹ĥà¸Ļà¸ģà¸²à¸£à¸Ī":4005,"amp":4006,"Ġà¹ĥà¸Ļà¸łà¸²à¸©":4007,"à¸£à¸°à¸¥":4008,"à¸£à¸ŀ":4009,"à¸ĩà¸ªà¸«à¸£":4010,"ai":4011,"à¸ļà¹Ģà¸Ń":4012,"à¸ªà¸°à¸ŀ":4013,"à¹Ģà¸Ńà¸ģà¸ĭ":4014,"à¸Ńà¸ĩà¸Ľà¸ı":4015,"à¸²à¸¡à¸«à¸²à¸§":4016,"à¸Ĺà¸²à¸ĩà¸ķà¸Ńà¸Ļ":4017,"à¸³à¹ģà¸Ĥ":4018,"à¸Ļà¹Ģà¸ĩ":4019,"à¸Īà¸Ńà¸«":4020,"à¸Ķà¹Ģà¸ª":4021,"à¸Ľà¸Ļ":4022,"Ġà¹Ĥà¸®":4023,"à¹Ģà¸ªà¸Ļà¸Ńà¸Ĭ":4024,"age":4025,"à¸Ķà¹ĥà¸«à¸¡":4026,"à¹Ģà¸¡à¸Ļà¸ķ":4027,"à¸Īà¸²à¸ģà¸Ń":4028,"à¸²à¸«à¸¥à¸§à¸ĩ":4029,"à¸²à¸Ļà¸ķà¸°à¸§":4030,"à¹Ħà¸ª":4031,"à¸¡à¸ģà¸²à¸£":4032,"à¸Īà¸²à¸£":4033,"à¸¥à¸°à¸¥à¸²à¸¢":4034,"à¸Ķà¹Ģà¸«à¸ķ":4035,"à¸ģà¸ł":4036,"à¸ŀà¸Ļà¸¡":4037,"à¸Ńà¸ĩà¸Ł":4038,"à¸¥à¸ĩà¸Ļà¸²à¸¡":4039,"à¸Ńà¸Ļà¸ŀà¸¤à¸¨à¸Ī":4040,"à¸Ńà¹Ģà¸¢":4041,"à¸Ĺà¸³à¸£":4042,"à¸£à¸²à¸¢à¸¥à¸°à¹Ģà¸Ń":4043,"iss":4044,"à¸«à¸¥à¸§à¸ĩà¸ŀ":4045,"Ġà¸Ķà¸²à¸§":4046,"à¸ģà¸£à¸°à¸ª":4047,"à¸Ļà¸ĩ":4048,"à¸įà¸Ĭà¸²à¸ķ":4049,"à¸ĩà¹ģà¸£à¸ģà¸Ĺ":4050,"à¸¢à¸ĩà¸Ĥà¸Ńà¸ĩ":4051,"Ġ244":4052,"à¸¢à¸Ļà¸Ĥ":4053,"à¸ķà¹Ģà¸Ľ":4054,"à¹Ħà¸Ľà¸ģ":4055,"à¹Ģà¸ľà¸Ĭ":4056,"à¸ģà¸ļà¸ı":4057,"à¸ģà¸³à¸«à¸Ļà¸Ķà¹ĥà¸«":4058,"à¸Ļà¹Ĥà¸ķ":4059,"à¸Ńà¸Łà¸ķ":4060,"Ġà¹ģà¸¥à¸°à¹ĥà¸«":4061,"à¸Ļà¸ªà¸²à¸£":4062,"à¸²à¸Ļà¸²à¸Ĭà¸²à¸ķ":4063,"Ġà¹Ĥà¸Ķà¸¢à¸ª":4064,"à¸Ļà¸«à¸¡à¸²à¸¢à¹Ģà¸¥à¸Ĥ":4065,"Ġà¹Ĥà¸Ķà¸¢à¹ĥà¸«":4066,"à¸ļà¸Ħà¸§à¸²à¸¡à¸£":4067,"à¸§à¸Ľà¸£à¸°à¹Ģà¸Ĺà¸¨":4068,"à¸²à¸ĩà¸Ńà¸¢":4069,"ove":4070,"à¸¢à¸Ĥ":4071,"à¹Ħà¸«à¸Ļ":4072,"à¸Ļà¸Ńà¸ģà¸Īà¸²à¸ģ":4073,"Ġde":4074,"à¸Ķà¸ŀà¸£à¸£à¸Ħ":4075,"à¸Ĺà¸¢à¸²à¹Ģà¸Ĥà¸ķ":4076,"à¸Ńà¸³à¸Ļà¸§à¸¢":4077,"à¸ĩà¸Ļà¸³":4078,"à¸Ĺà¸¢à¸²à¸Ļà¹ģà¸«":4079,"Ġà¸Ńà¸²à¸¢":4080,"à¸²à¸ŀà¸£à¸£à¸Ħ":4081,"à¸Ľà¸¥à¸²":4082,"idae":4083,"à¸«à¸¥à¸²à¸Ķ":4084,"à¹ģà¸ģà¸£à¸Ļà¸Ķ":4085,"à¹Ģà¸Ķà¸¥":4086,"à¸įà¸įà¸²à¹Ĥà¸Ĺ":4087,"aw":4088,"à¸ĩà¸Ŀ":4089,"à¸§à¹Ģà¸¥à¸Ĥ":4090,"à¸ģà¹Ħà¸§":4091,"à¸Ńà¸ªà¸ķ":4092,"à¸Ļà¸ķà¸£à¸²à¸¢":4093,"ĠWWE":4094,"à¹Ĥà¸£à¸°":4095,"à¹Ĥà¸¢à¸ļ":4096,"à¸ģà¸£à¸Ńà¸ļ":4097,"à¸Ńà¸²à¸Īà¸¡":4098,"Ġ2541":4099,"à¸²à¸Ĭà¸²à¸§":4100,"à¸ģà¸²à¹Ģà¸«à¸Ļ":4101,"Ġà¸Īà¸°à¸ķ":4102,"à¸¢à¸Ļà¸Ń":4103,"Ġ1990":4104,"ug":4105,"à¹ĥà¸Ļà¸ģà¸²à¸£à¸ª":4106,"à¹ģà¸¥à¸°à¸ļ":4107,"Ġà¸Ķà¸¢":4108,"à¸²à¸¢à¸«à¸Ļ":4109,"à¸Ļà¸£à¸²à¸ĩà¸§":4110,"à¸Ļà¸¤à¸Ķ":4111,"à¸Ħà¸ª":4112,"à¸²à¸¢à¸¡à¸²à¹Ģà¸Ľ":4113,"à¸¨à¹ĥà¸ķ":4114,"à¸Ľà¸£à¸²à¸ģà¸ıà¸ģà¸²à¸£à¸ĵ":4115,"à¸£à¸²à¸Ĭà¸ª":4116,"ont":4117,"Ġà¸Īà¸°à¹Ģà¸Ľ":4118,"à¸¡à¸²à¸£à¸Ķà¸²":4119,"à¸Ļà¸ªà¸ĸà¸²à¸Ļ":4120,"à¸Īà¸ŀà¸£à¸°à¸ŀ":4121,"Ġà¸ªà¸²à¸Ĥà¸²à¸§":4122,"à¸¨à¸Ĺà¸²à¸ĩ":4123,"Ġà¸¢à¸²à¸§":4124,"Ġà¸ŀà¸£à¸°à¸Ļà¸²à¸ĩ":4125,"à¸Ľà¸£à¸°à¸ģà¸§à¸Ķ":4126,"Ġà¹ģà¸¥à¸°à¹Ģà¸ŀ":4127,"à¹ģà¸ªà¸Ķà¸ĩà¸Ĺ":4128,"à¸Ĥà¸Ńà¸ĩà¸ķà¸Ļ":4129,"Ġà¹ģà¸ģà¸£":4130,"Ġà¹ģà¸¥à¸°à¸«à¸¥":4131,"à¸ģà¸©à¸°":4132,"à¸²à¸ģà¸Ĺ":4133,"Ġà¸ªà¸²à¸£":4134,"à¸¡à¹ĥà¸«":4135,"à¹Ĥà¸«":4136,"à¹ĥà¸Ļà¸ģ":4137,"à¸²à¸Ľà¸£à¸°à¸¡à¸²à¸ĵ":4138,"à¸¥à¸Ńà¸¢":4139,"à¸Ĥà¸Ļ":4140,"à¸¢à¸ĩà¸£à¸²à¸¢":4141,"Ġà¹Ĥà¸Ĭ":4142,"ock":4143,"à¸Ļà¸«à¸¢":4144,"ore":4145,"à¸ŀà¸£à¸°à¹Ģà¸ģ":4146,"à¸¡à¸ŀà¸£":4147,"à¹ĥà¸Ļà¸§à¸ĩà¸ģà¸²à¸£":4148,"à¸²à¸¡à¸§":4149,"à¹ģà¸Ĥà¸§à¸ĩ":4150,"à¸²à¸ļà¸Ĺ":4151,"à¸ķà¸¡":4152,"à¸£à¸²à¸Ĭà¸¢":4153,"Ġ90":4154,"à¸Ķà¹Ģà¸Ĥ":4155,"à¸°à¸ªà¸¡":4156,"Ġ2537":4157,"à¸§à¹ĥà¸«":4158,"Ġà¹Ĥà¸Ķ":4159,"Ġà¹ģà¸¥à¸°à¸«":4160,"à¸§à¸¡à¸ģà¸²à¸£à¹ģà¸Ĥ":4161,"à¸Ľà¸¢":4162,"à¸ģà¸©à¸ĵà¸°à¸Ĺ":4163,"à¸ķà¸ľ":4164,"à¸Ľà¸£à¸¡":4165,"à¸²à¸Ľà¸¥":4166,"à¹Ĥà¸£à¸ĩà¹ģà¸£à¸¡":4167,"à¸Īà¸°à¸Ĺà¸³":4168,"à¸Ļà¹Ħà¸Ĺà¸¢":4169,"à¸£à¸©à¸°":4170,"à¸Ļà¹Ħà¸§":4171,"à¸Ļà¸ģà¸²à¸£à¸Ĺ":4172,"à¸²à¸Ļà¸Ńà¸¢":4173,"Ġà¸¨à¸²à¸¥":4174,"à¸ĩà¸§à¸ĩ":4175,"à¹Ģà¸Ĥà¸²à¹Ģà¸Ľ":4176,"à¸ĩà¸Īà¸°à¸¡":4177,"à¸ĩà¹ĥà¸Ļà¸Ĭ":4178,"à¸§à¸Ļà¸ľ":4179,"à¸²à¸ĺà¸£à¸£à¸¡":4180,"à¸Ħà¸Ńà¸¢":4181,"à¸Ħà¸§à¸²à¸¡à¹Ģà¸Ĥ":4182,"à¸ģà¹ĥà¸«":4183,"à¸Ĺà¸¤à¸©à¸İ":4184,"Ġst":4185,"à¸ļà¸ªà¸¡":4186,"à¸²à¸ªà¸ª":4187,"à¹Ģà¸Ĺà¸¨à¸ļà¸²à¸¥à¸ķà¸³à¸ļà¸¥":4188,"à¸Ħà¸§à¸²à¸¡à¸Ķ":4189,"à¹Ģà¸«à¸§":4190,"Ġà¸ģà¸²à¸£à¸ķ":4191,"à¸ļà¹ģà¸¡":4192,"à¸Ħà¸Ĭ":4193,"à¸ĩà¹Ģà¸ķ":4194,"à¸§à¸ĩà¸ªà¸ĩà¸Ħà¸£à¸²à¸¡":4195,"ark":4196,"à¸Ļà¸Ľà¸£à¸°à¸ª":4197,"à¹Ģà¸Īà¸Ķ":4198,"à¹Ģà¸¢à¸ĭ":4199,"und":4200,"à¸łà¸²à¸©à¸²à¹Ħà¸Ĺà¸¢":4201,"à¸Ńà¸Ļà¸ģà¸£à¸ģà¸İà¸²à¸Ħà¸¡":4202,"à¸Ĥà¸Ń":4203,"à¸Ĥà¸Ńà¸ĩà¸ĭ":4204,"à¸²à¸Ļà¸Ľà¸£à¸°":4205,"me":4206,"à¸ģà¸Ĺà¸³à¸¥à¸²à¸¢":4207,"à¸ģà¸¥à¸²à¸ĩà¹Ģà¸¡":4208,"à¸ļà¹Ģà¸ĩ":4209,"à¸Ńà¸Ļà¸Ńà¸¢":4210,"à¸Ĭà¸Ĺà¸²à¸¢à¸²à¸Ĺ":4211,"à¸ļà¹Ģà¸Ľà¸¥":4212,"à¸¢à¸£à¸²à¸Ĭ":4213,"à¸«à¸Ļà¸²à¹ģà¸Ļ":4214,"à¸¢à¸ĩà¸Ī":4215,"à¹ģà¸ļà¸Ħ":4216,"à¸Ħà¸°à¹ģà¸Ļ":4217,"à¸²à¹ģà¸ķ":4218,"à¸¡à¸Ŀ":4219,"à¸²à¸Ľà¸£à¸°à¸Īà¸³":4220,"à¸ģà¸£à¸Ķ":4221,"à¸ĩà¸ķà¸°à¸§":4222,"à¹Ĥà¸Ĺà¸£à¸¨":4223,"90":4224,"à¹Ģà¸Ĺà¸£":4225,"à¸¢à¸ģà¸Ĺ":4226,"à¸Ļà¸Ķà¸²à¸§":4227,"à¸Ļà¸¥à¸ĩ":4228,"hn":4229,"à¸ªà¸Ńà¸Ķ":4230,"à¹Ģà¸¥à¸Ĥà¸²à¸ĺ":4231,"à¹Ģà¸Ļà¹Ģà¸ĺà¸Ńà¸£":4232,"à¸ĩà¸Ĺà¸«à¸²à¸£":4233,"à¸Ĥà¸Ńà¸ĩà¹Ģà¸¡":4234,"à¸¢à¸ĩà¸£":4235,"à¸Ńà¸Ļà¹Ģà¸Ķ":4236,"à¹Ģà¸§à¸¥à¸²à¸Ĺ":4237,"à¸Īà¸°à¸Ńà¸¢":4238,"à¸ªà¸£à¸ĵ":4239,"à¸ļà¸ģà¸²à¸£à¹ģà¸ķ":4240,"à¸Ńà¸ķà¹ģà¸¥à¸Ļà¸Ķ":4241,"à¸ļà¸²à¸ĩà¸Ħà¸£":4242,"Ġà¸ģà¸²à¸£à¸Ī":4243,"à¹ģà¸ªà¸Ķà¸ĩà¸§":4244,"ence":4245,"ies":4246,"à¸Ĺà¸²à¸ĩà¹Ģà¸ŀà¸¨":4247,"Ġà¹ģà¸¥à¸°à¸ªà¸²à¸¡à¸²à¸£à¸ĸ":4248,"à¸Ńà¸Ńà¸ģà¹Ģà¸ª":4249,"à¸ŀà¸£à¸°à¸¡à¸«à¸²à¸ģà¸©":4250,"Ġà¸ļà¸²à¸ĩà¸Ħà¸£":4251,"à¸Ńà¸¡à¸Ļ":4252,"à¹ģà¸ªà¸Ķà¸ĩà¸ª":4253,"à¸ķà¸ļà¸Ńà¸¥à¹Ĥà¸¥à¸ģ":4254,"à¸Ĥà¸Ńà¸ĩà¸Ľ":4255,"à¸Ńà¸®":4256,"à¸²à¸ļà¸Ķ":4257,"à¸Ļà¸į":4258,"à¸Ľà¸£à¸²à¸¡":4259,"à¸ĵà¸°à¹Ģà¸Ķ":4260,"ase":4261,"ss":4262,"à¸ªà¸Ħ":4263,"Ġ2534":4264,"à¸¨à¸ģ":4265,"Ġà¸Ħà¸§":4266,"à¹ģà¸ĩ":4267,"à¸Ĥà¸Ńà¸ĩà¹Ģà¸£":4268,"Ġà¹Ģà¸ģà¸²à¸°":4269,"à¸Ńà¸ĩà¸ªà¸²à¸§":4270,"à¸²à¸Īà¸Ńà¸¡":4271,"à¸³à¹Ģà¸ŀ":4272,"à¸²à¸ĩà¹ģà¸¥à¸°":4273,"à¸ªà¸Ļà¸ĺ":4274,"à¹Ĥà¸ĭà¸Ļ":4275,"à¸Īà¸Ńà¸£":4276,"à¸Ľà¸£à¸²à¸ģà¸²à¸£":4277,"à¸ļà¹ģà¸¥à¸°":4278,"à¸Īà¸²à¸Ħ":4279,"à¸Ĭà¸ģà¸²à¸¥":4280,"à¸¢à¸ĺà¸£à¸£à¸¡à¸¨à¸²à¸ªà¸ķà¸£":4281,"à¸²à¸ģà¸£à¸£à¸¡":4282,"à¸ĩà¹ģà¸ģà¸£":4283,"à¸Ĥà¸Ńà¸ĩà¸ģ":4284,"à¸ģà¸²à¸£à¸Ĺà¸Ķà¸¥à¸Ńà¸ĩ":4285,"à¹Ħà¸Ĭ":4286,"à¸Ķà¸ģà¸²à¸£à¸Ĺ":4287,"âĢĻ":4288,"à¸¡à¹ģà¸¡":4289,"à¸§à¹Ģà¸¥":4290,"à¸Ńà¸ķà¸ģà¸¥":4291,"à¸Ħà¸Ļà¹ģà¸£à¸ģ":4292,"à¸§à¸Ļà¸ļ":4293,"à¸Ļà¹ģà¸Ļà¸¥":4294,"à¸Ĺà¸£à¸ĩà¸¡":4295,"à¸Ļà¸Ĺà¸«à¸²à¸£":4296,"à¸Ńà¸Ĺà¸³":4297,"à¸ķà¸£à¸ģà¸£à¸£à¸¡":4298,"à¸ļà¸£à¸Ńà¸ļ":4299,"Ġà¹Ĥà¸Ķà¸¢à¸ģà¸²à¸£":4300,"à¸ŀà¸¥à¹Ģà¸£":4301,"à¸Ķà¸²à¸§à¸Ļ":4302,"à¸Ľà¸£à¸°à¸ªà¸²à¸Ļ":4303,"à¸¡à¹Ģà¸£":4304,"Ġà¹Ģà¸Ĥà¸²à¸ģ":4305,"à¸¢à¸ļà¹Ģà¸£":4306,"à¸Ľà¸°":4307,"à¸¢à¸ĩà¸Ĥ":4308,"à¸§à¸²à¸Ļ":4309,"à¸ģà¸©à¸ĵà¸°à¸Ħà¸¥":4310,"Ġà¸Ńà¸°":4311,"à¸£à¸²à¸Ĭà¸Ĺ":4312,"Ġà¸ŀà¸£à¸°à¸ŀ":4313,"à¹Ħà¸«à¸¡":4314,"à¸²à¹Ģà¸ļ":4315,"à¸Ńà¸Ļà¹Ħà¸Ķ":4316,"à¸ľà¸¥à¸Ĺ":4317,"à¸Ńà¸Ļà¹Ģà¸¡à¸©à¸²à¸¢à¸Ļ":4318,"à¸ķà¹Ĥà¸Ļà¸¡":4319,"man":4320,"à¸ģà¹Ģà¸Ĭ":4321,"à¸ķà¸Ķ":4322,"à¸Ńà¸ĩà¸¡à¸²à¸Īà¸²à¸ģ":4323,"à¸ģà¸©à¸²à¸ª":4324,"à¸²à¸Ńà¸ĩà¸Ħ":4325,"à¹ĥà¸Ķà¹Ĩ":4326,"ric":4327,"à¹Ĥà¸¡à¹Ģà¸¥à¸ģ":4328,"à¸¢à¸§à¸ļ":4329,"iv":4330,"à¸ªà¸Ń":4331,"à¸ļà¸²à¸ģ":4332,"à¸Ļà¸¡à¸²à¸Īà¸²à¸ģ":4333,"à¸Ļà¸Ķà¸²à¸¥à¹ĥà¸Ī":4334,"à¸Ķà¹Ĥà¸Ķà¸¢":4335,"à¸³à¸ŀ":4336,"à¸Ħà¸¡à¸Ļà¸²à¸Ħà¸¡":4337,"à¹Ĥà¸Īà¸£":4338,"Ġ32":4339,"à¹Ĥà¸ĭà¸¥":4340,"à¹Ĥà¸ŀà¸¥":4341,"à¸¢à¸¢à¸¨":4342,"Ġ500":4343,"à¸ģà¹Ģà¸ļ":4344,"Ġà¸ŀà¸£à¸°à¸ļà¸£à¸¡à¸£à¸²à¸Ĭ":4345,"à¸¢à¸Ļà¸Ħ":4346,"à¸²à¸¨à¸²à¸¥":4347,"à¸ķà¸£à¸²à¸ª":4348,"à¸Ļà¸Ħà¸£à¸Ńà¸ĩà¸£à¸²à¸Ĭà¸¢":4349,"à¸Ļà¸ģà¸²à¸£à¸¨":4350,"à¸²à¸ĩà¹Ħà¸Ķ":4351,"à¹Ħà¸Ĥà¸¡":4352,"à¸ģà¸Ĺà¸£à¸Ńà¸Ļ":4353,"à¸Ļà¹ĥ":4354,"à¸Ļà¸ģà¸©":4355,"à¸£à¸§à¸¡à¸ķ":4356,"à¸ģà¹Ģà¸ģà¸Ńà¸£":4357,"à¸Ńà¸ĩà¹ĥà¸Ļ":4358,"à¸§à¸Ļà¸³":4359,"à¸¢à¸ĩà¸ŀ":4360,"à¸Ļà¹Ħà¸Ľà¸ķà¸²à¸¡":4361,"à¸¡à¸Ńà¸ĩà¹Ģà¸«":4362,"à¸Ńà¸ĩà¸Ļà¸³":4363,"Ġà¹ĥà¸Ļà¸£à¸°à¸«à¸§":4364,"à¸ļà¸£à¸£à¸Ķ":4365,"à¸ĩà¹ģà¸£à¸ģà¹ĥà¸Ļà¸Ľ":4366,"Ġà¸Ľà¸£à¸°à¸ĺà¸²à¸Ļ":4367,"à¸¥à¸ŀ":4368,"à¸ķà¸ļ":4369,"à¸Ńà¸Ļà¹Ħà¸Ĥ":4370,"à¸ļà¸ģà¸²à¸£à¸ŀ":4371,"à¸¢à¹ģà¸«":4372,"à¹Ģà¸§à¸Ļ":4373,"mer":4374,"à¸Ħà¸²à¸¡":4375,"Ġà¸ģà¸²à¸£à¹ĥà¸Ĭ":4376,"à¸ģà¸©à¸²à¸§":4377,"à¸Ľà¸ģà¸Ľ":4378,"à¸Ńà¸ĩà¸ģà¸²à¸£à¹ĥà¸«":4379,"à¸Ľà¹Ģà¸Ľ":4380,"à¸²à¸ĩà¹Ģà¸£":4381,"à¹Ħà¸Łà¸¥":4382,"à¸²à¸£à¸°à¸«à¸§":4383,"à¹Ħà¸Ĺà¸£":4384,"à¸²à¸«à¸²à¸ģ":4385,"à¸Ĥà¸Ńà¸ĩà¸ģà¸¥":4386,"à¸¢à¸Ńà¸Ķà¸Ĥà¸²à¸¢":4387,"à¸±à¹Ĭ":4388,"500":4389,"à¸Ļà¸ªà¸£":4390,"à¸ľà¸¥à¸ķ":4391,"à¸ĺà¸Ĺ":4392,"à¸¡à¹Ģà¸¡":4393,"à¸¢à¸ĩà¸¥":4394,"Ġ&":4395,"à¸Ļà¸Ńà¸²à¸Ĺ":4396,"Ġ2536":4397,"à¸Ĳà¸²à¸Ļà¸°à¹Ģà¸Ľ":4398,".\"":4399,"à¸¡à¸ŀà¸¥":4400,"à¹ĥà¸Ļà¸£à¸²à¸¢à¸ģà¸²à¸£":4401,"à¸Ńà¹Ħà¸Ĺà¸¢":4402,"à¸Ļà¸ķà¸Ńà¸Ļ":4403,"à¸ŀà¸£à¸°à¸ļ":4404,"Ġà¸Ħà¸°à¹ģà¸Ļà¸Ļ":4405,"à¸Ļà¸Ĭà¸Ļ":4406,"à¸Ľà¸Ĳà¸¡":4407,"Ġà¹Ĥà¸Ķà¸¢à¸£":4408,"à¹ģà¸«à¸¥à¸¡":4409,"io":4410,"Ġ2002":4411,"à¸Ķà¸Ńà¸Ńà¸ģ":4412,"à¸²à¸Ľà¸£à¸°à¹Ģà¸Ĺà¸¨":4413,"à¹Ģà¸Ńà¸ĩà¸ģ":4414,"à¸£à¸²à¸Ĭà¸ªà¸¡à¸ļ":4415,"à¸¡à¸Ńà¸£":4416,"à¸ļà¸ŀà¸£à¸°à¸£à¸²à¸Ĭà¸Ĺ":4417,"à¸¢à¸¡à¸«":4418,"Ġ243":4419,"ĠSp":4420,"à¸ģà¸©à¸²à¸ģà¸²à¸£":4421,"à¸Ńà¸Ĺà¸²à¸ĩ":4422,"à¹ģà¸¢à¸ģà¸ķ":4423,"Ġ2003":4424,"à¸ªà¹Ħà¸Ķ":4425,"à¸§à¸ĩà¹ģà¸£à¸ģ":4426,"à¸Ļà¹Ĥà¸¢à¸ļà¸²à¸¢":4427,"à¸Ķà¹Ģà¸ŀ":4428,"à¸ĩà¹Ģà¸Ľà¸¥":4429,"à¸Ļà¸ľà¸¥à¸ĩ":4430,"à¸Īà¸Ķ":4431,"à¸ļà¸Ńà¸ģà¸§":4432,"à¹ģà¸®à¸£":4433,"à¸Ħà¸Ńà¸Ļà¹Ģà¸ª":4434,"à¸Ħà¸Ļà¸«à¸Ļ":4435,"à¹Ģà¸Īà¸²à¸°":4436,"à¸²à¸¨à¸£":4437,"Ġà¸į":4438,"à¸ĩà¸£à¸°à¸«à¸§":4439,"à¸«à¸Ľà¸£à¸°à¸Ĭà¸²à¸Ĭà¸²à¸ķ":4440,"à¸ĩà¸£à¸²à¸ĩà¸§":4441,"Ġà¸£à¸§à¸¡à¹Ħà¸Ľà¸ĸ":4442,"à¸Ļà¸ģà¸³à¸¥":4443,"Ch":4444,"à¸´)":4445,"à¸¢à¸įà¸Ĺà¸Ńà¸ĩ":4446,"à¸Ħà¸²":4447,"à¸§à¸ŀ":4448,"à¸ķà¸£à¸ģà¸£":4449,"à¸Ļà¸Īà¸°à¸ķ":4450,"ah":4451,"à¹ĮâĢĿ":4452,"à¸Ńà¹Ģà¸ķ":4453,"à¹ģà¸§":4454,"à¹ģà¸Ńà¸ļ":4455,"à¸Ļà¸£à¸Ńà¸ļ":4456,"à¸ģà¸Ķà¸Ļà¸ķà¸£":4457,"à¸¥à¹Ħà¸Ķ":4458,"nivers":4459,"à¸Ńà¸Ļà¸ĭ":4460,"à¸ŀà¸Ńà¸²à¸ģà¸²à¸¨":4461,"à¸³à¹Ģà¸Ľ":4462,"à¸Ħà¸£à¸ļ":4463,"à¸Ļà¹Ģà¸Ħ":4464,"à¸Ńà¸¢à¸¡":4465,"à¸ļà¸Ł":4466,"à¸Ĳà¸Ĺ":4467,"à¸§à¸ĩà¸Ľà¸¥à¸²à¸¢":4468,"à¸²à¸Ńà¸²à¸Ī":4469,"à¸²à¸¡à¸«":4470,"Ġà¸Ľà¸ı":4471,"Ġà¸ķà¸²à¸¡à¸¥à¸³à¸Ķ":4472,"à¸Ļà¸Ħà¸§":4473,"à¸Ļà¸łà¸²à¸¢":4474,"à¸ªà¹Ĥà¸ķ":4475,"à¸Ļà¸¢à¸Ńà¸Ķ":4476,"à¸²à¸¢à¸Ĭ":4477,"à¹ĥà¸Ļà¸ªà¸ĩà¸Ħà¸£à¸²à¸¡":4478,"à¸²à¸ĩà¸Ńà¸²à¸Ħà¸²à¸£":4479,"à¸ļà¸«à¸¡":4480,"à¸²à¸Ħà¸¥":4481,"à¸Ļà¸«à¸į":4482,"à¸£à¸«":4483,"à¸Ļà¸Ńà¸²à¸Ħà¸²à¸£":4484,"à¸ªà¸¡à¸£à¸ª":4485,"Ġà¸Īà¸ļà¸ģà¸²à¸£à¸¨":4486,"à¹ģà¸Ħà¸Ļà¸²à¸Ķà¸²":4487,"à¸Īà¸°à¸ŀ":4488,"à¸Ħà¸£à¸Ńà¸ļà¸Ħà¸¥":4489,"à¸Ľà¸¥à¸Ķà¸Ľà¸¥":4490,"à¸¢à¹Ģà¸£":4491,"à¸Ńà¸Ļà¹ĥà¸«":4492,"à¸ģà¸ĭà¸²à¸Ļ":4493,"à¹ģà¸ĸà¸¥à¸ĩ":4494,"à¸ģà¸²à¸£à¹Ģà¸Ķ":4495,"Ġ2533":4496,"Ġà¹Ĥà¸Ń":4497,"rin":4498,"Ġà¸Ľà¸£à¸°à¸ģà¸²à¸¨":4499,"à¹ĥà¸Ļà¹Ģà¸Ħà¸£":4500,"à¹Ģà¸Īà¸Ńà¸ģ":4501,"à¹Ģà¸§à¸ĵà¸Ļ":4502,"à¸įà¹ĥà¸Ļà¸ģà¸²à¸£":4503,"à¸Ľà¸£à¸°à¸«à¸¥à¸²à¸Ķ":4504,"à¸Ńà¸Ļà¸³":4505,"à¸Ńà¸Ļà¸Ľà¸¥à¸²à¸¢":4506,"99":4507,"à¸ĩà¹Ģà¸ļ":4508,"à¹ģà¸«à¸§":4509,"à¸²à¸ĩà¸ĭ":4510,"à¸Ľà¸ģà¸Ħà¸£à¸Ńà¸ĩà¸ª":4511,"à¹Ģà¸ģà¸ĵà¸ĳ":4512,"à¸ģà¹Ģà¸Ĺ":4513,"ance":4514,"à¹Ħà¸ģà¸£":4515,"à¹ģà¸¥à¸ģà¹Ģà¸Ľà¸¥":4516,"à¸«à¸¥à¸²à¸ļ":4517,"à¹Ģà¸Īà¸£à¸Ī":4518,"à¹Ģà¸Ļà¸ķ":4519,"à¸Ńà¸¢à¸¥à¸ĩ":4520,"à¸Īà¸²à¸ģà¸ª":4521,"à¸Ńà¸Ļà¸«à¸¥":4522,"à¸łà¸²à¸ŀà¸Ĥà¸Ńà¸ĩ":4523,"à¹ģà¸ļà¸ļà¸Ĺ":4524,"à¸Ńà¸°à¸ķ":4525,"à¸ĩà¸Ħà¸ĩà¸¡":4526,"Ġà¹Ĥà¸Ķà¸¢à¹Ģà¸īà¸ŀà¸²à¸°à¸Ńà¸¢":4527,"à¸ĩà¸£à¸²à¸Ĭà¸§à¸ĩà¸¨":4528,"ting":4529,"à¸ļà¸²à¸ĩà¸Ńà¸¢":4530,"à¸Īà¸į":4531,"à¸ģà¸©à¸²à¸Ĥà¸Ńà¸ĩ":4532,"à¸ŀà¸£à¸°à¹Ĥà¸Ńà¸£à¸ª":4533,"à¸§à¸«":4534,"à¸Ļà¹Ģà¸ªà¸²à¸£":4535,"Ġà¸ªà¸³à¹Ģà¸£":4536,"à¸°à¸ª":4537,"à¸Ńà¸ģà¹Ģà¸Ľ":4538,"Ġà¹Ģà¸¨":4539,"à¸Łà¸§":4540,"à¸Ķà¸Ħà¸£":4541,"à¸°à¹Ģà¸£":4542,"Ġà¸Ĭà¸²à¸£":4543,"ram":4544,"à¸Ńà¸Ľà¸£à¸°à¸¡à¸²à¸ĵ":4545,"à¸²à¸§à¸¥":4546,"à¸Ńà¸ķà¸ķ":4547,"are":4548,"à¹ĥà¸Ļà¸Ľà¸£à¸°à¹Ģà¸Ĺà¸¨à¸Ń":4549,"à¹Ģà¸ŀà¸Ĭà¸£à¸ļ":4550,"à¸ļà¹ĥà¸Ī":4551,"à¸¡à¸²à¸ķà¸£à¸Ĳà¸²à¸Ļ":4552,"à¸ļà¸Ŀ":4553,"à¸§à¸¢à¸Ĥ":4554,"à¹ģà¸ľà¸Ļà¸Ĺ":4555,"à¸¥à¸²à¸Ļ":4556,"à¸ļà¸²à¸Ķà¹Ģà¸Ī":4557,"à¸©à¸İ":4558,"à¸Ļà¹Ģà¸ļ":4559,"NA":4560,"à¸Ļà¸ģà¸²à¸£à¸ª":4561,"Ġà¹ĥà¸Ļà¸Ī":4562,"à¸Ļà¸²à¸Ķà¹Ģà¸¥":4563,"à¸Ļà¸ªà¸Ļ":4564,"à¸ĵà¸Ħ":4565,"Ġà¸ªà¸Ľ":4566,"à¸Ļà¸ĺà¸£":4567,"tin":4568,"à¸¢à¸¡à¸Ń":4569,"à¸²à¸ŀà¸§à¸ģ":4570,"à¸ŀà¸¥à¹Ģà¸Ńà¸ģ":4571,"Ġk":4572,"à¸įà¸ķ":4573,"à¹Ħà¸Ľà¸ķ":4574,"à¸Ńà¸²à¸ª":4575,"à¸²à¸Ļà¸Ńà¸²à¸«à¸²à¸£":4576,"à¸Ńà¸Ķà¸Ĺ":4577,"act":4578,"à¸¨à¸§à¸£":4579,"à¸ĭà¸²à¸Ļ":4580,"à¸ģà¸¥à¸²à¸ĩà¸Ĥà¸Ńà¸ĩ":4581,"à¸Ľà¸£à¸°à¸ģà¸Ńà¸ļà¹Ħà¸Ľà¸Ķ":4582,"à¹Ģà¸®à¸¥":4583,"à¹ĥà¸Ļà¹Ģà¸§à¸¥à¸²à¸ķ":4584,"à¸ªà¸łà¸²":4585,"à¸Ļà¸£à¸²à¸Ĭ":4586,"à¸Ķà¹Ģà¸ľà¸¢":4587,"à¹ģà¸Ļà¸ģ":4588,"à¸Ļà¸ªà¸²à¸¢":4589,"à¸Ĳà¸²à¸Ļà¸Ĺ":4590,"Ġà¹Ģà¸Ĥà¸²à¸Ī":4591,"à¸Ńà¸¢à¸ģ":4592,"à¸ļà¸ģà¸²à¸£à¸ªà¸Ļ":4593,"Ġ1980":4594,"à¸ļà¹Ģà¸Ļ":4595,"à¸¢à¸¡à¸ģ":4596,"à¸²à¸Ļà¸Īà¸²à¸ģ":4597,"à¸įà¹Ģà¸Ĭ":4598,"à¸§à¸Ļà¸Ľà¸£à¸°à¸ģà¸Ńà¸ļ":4599,"à¹ģà¸ļà¸ļà¸Ļ":4600,"à¸¢à¸²à¸łà¸£à¸ĵ":4601,"à¹Ħà¸Ĭà¸¢":4602,"à¹ĥà¸Ļà¸Ł":4603,"à¸Īà¸°à¸Ĭ":4604,"à¸Ļà¸ªà¸¡à¹Ģà¸Ķ":4605,"ost":4606,"à¸¨à¸§à¸£à¸£à¸©à¸Ĺ":4607,"Ġ36":4608,"az":4609,"ox":4610,"à¸ģà¸²à¸Ļ":4611,"ood":4612,"à¸ģà¹Ģà¸Ķ":4613,"Ġà¸ģà¸¥à¸²à¸¢à¹Ģà¸Ľ":4614,"Ġà¸ģà¸©":4615,"à¸Ńà¸Ļà¸ĸ":4616,"à¹ģà¸Ĭà¸¡à¹Ģà¸Ľ":4617,"Ġà¹Ĵà¹ķà¹":4618,"à¸²à¸Ħà¸§":4619,"à¹Ģà¸¢à¸²à¸§à¸Ĭà¸Ļ":4620,"à¸Ĺà¸£à¸²à¸¢":4621,"à¸Ĭà¸²à¸§à¸Ī":4622,"à¸²à¸ľà¸¥":4623,"à¸Ļà¸Ĭà¸²à¸¢":4624,"ite":4625,"à¸Ļà¹ĥà¸Ļà¸£":4626,"à¸²à¸ĩà¹Ģà¸ķ":4627,"à¹ģà¸ªà¸§à¸ĩ":4628,"à¸Ńà¸ģà¸²à¸£à¸£":4629,"ool":4630,"à¸ģà¸Ľà¸£":4631,"Ġà¸Ľà¸£à¸°à¸Īà¸³à¸Ľ":4632,"à¹Ģà¸«à¸ĩ":4633,"ĠBl":4634,"Ġà¸¢à¸ģà¹Ģà¸§":4635,"à¸²à¸ĩà¹ĥà¸Ķ":4636,"47":4637,"à¸Ļà¹Ģà¸Ĥà¸ķ":4638,"à¸Ļà¹Ģà¸«à¸¡":4639,"à¸ķà¸Īà¸²à¸ģ":4640,"à¸²à¸§à¹Ģà¸Ľ":4641,"à¹Ģà¸Ĥà¸¡à¸£":4642,"à¸Ļà¸Ńà¸³à¹Ģà¸ł":4643,"à¸¥à¸¥à¸²":4644,"ons":4645,"à¸Ńà¸³à¹Ģà¸łà¸Ńà¹Ģà¸¡":4646,"à¸įà¹Ģà¸ķ":4647,"à¸ļà¸£à¸²à¸ĭ":4648,"à¸©à¸Ĳà¸²à¸Ļà¸§":4649,"ical":4650,"à¸ķà¹Ģà¸¡":4651,"à¸Ļà¹Ģà¸¡à¸£":4652,"Ġ2531":4653,"à¹ĥà¸Ļà¸ªà¸¡à¹Ģà¸Ķ":4654,"à¸²à¸¡à¸Ĺ":4655,"à¸Ńà¸Ńà¸ģà¸Ń":4656,"à¸²à¹Ĥà¸¥":4657,"à¸ĩà¸²à¸Ļà¸«":4658,"à¸¡à¸²à¹Ħà¸Ķ":4659,"à¸²à¸Ļà¸Ħà¸Ļ":4660,"Ġà¹ģà¸Ħ":4661,"à¹ģà¸Ńà¸ķ":4662,"à¹Ģà¸Ńà¸ģà¸Ĭà¸Ļ":4663,"à¸ģà¸ģà¸²à¸£à¹Ģà¸¡":4664,"à¸¡à¹Ħà¸Ľà¸Ķ":4665,"ĠAc":4666,"à¹ĥà¸ļà¹Ħà¸¡":4667,"à¹Ģà¸Īà¸¥":4668,"à¸ļà¸łà¸²à¸©":4669,"à¹Ģà¸ŀà¸¥à¸¢":4670,"Ġà¸ŀà¸ļà¸§":4671,"In":4672,"à¸Ķà¸°":4673,"à¸ªà¹ģà¸«":4674,"à¸ķà¸Ī":4675,"à¹Ĥà¸Ķà¸¢à¸ª":4676,"à¸Ļà¸ŀà¸£à¸°à¸¡à¸«à¸²à¸ģà¸©":4677,"ey":4678,"à¸«à¸ŀ":4679,"à¹ģà¸¥à¸°à¸Ķ":4680,"Ġà¸£à¸Ńà¸ĩ":4681,"à¸Ĺà¸¡":4682,"à¸Ńà¸ĩà¹Ħà¸Ĺà¸¢":4683,"à¸ŀà¸ŀ":4684,"à¹Ģà¸Ĥà¸²à¸¡":4685,"ĠTh":4686,"à¸Ńà¸Ńà¸²à¸Ī":4687,"à¸Ĭà¹Ģà¸Ĭ":4688,"Ġà¸Ĺà¸«à¸²à¸£":4689,"à¸Ĥà¸Ńà¸ĩà¹Ĥà¸¥à¸ģ":4690,"à¸«à¸¥à¸Ńà¸Ķà¹Ģà¸¥":4691,"Ķà¹":4692,"à¸£à¸ĸà¸¢à¸Ļà¸ķ":4693,"à¸ĩà¸ªà¸§":4694,"Ġà¹Ĥà¸¡":4695,"à¸¥à¸³à¸ŀ":4696,"à¸ķà¹Ģà¸ķà¸Ńà¸£":4697,"à¸łà¸²":4698,"Ġà¸ģà¸²à¸£à¸£":4699,"à¸Ļà¸ªà¸Ļà¸²à¸¡":4700,"à¸Ńà¸ªà¸ģà¸²à¸£":4701,"à¸Ļà¸Ńà¸²à¸¢":4702,"à¹Ĥà¸¢à¸Ħ":4703,"à¹ĥà¸Ļà¸łà¸²à¸¢à¸«à¸¥":4704,"à¹į":4705,"à¸ļà¹Ħà¸§":4706,"à¸Ĭà¸¡à¹Ģà¸Ľ":4707,"à¸¡à¹ĥà¸Ĭ":4708,"à¸Ļà¸³à¹Ħà¸Ľà¹ĥà¸Ĭ":4709,"St":4710,"à¸Ļà¸Ľà¸£à¸°à¸¡à¸²à¸ĵ":4711,"à¸¢à¸Ļà¸ģà¸²à¸£à¸ªà¸Ńà¸Ļ":4712,"à¸¢à¸ĩà¸§":4713,"à¸¥à¸Ĭ":4714,"Ġà¸ķà¸³à¹ģà¸«à¸Ļ":4715,"à¸Ļà¸ģà¸²à¸£à¸ķ":4716,"ĠSc":4717,"uk":4718,"à¸²à¸ĩà¸«":4719,"à¸Ķà¸ģà¸¥":4720,"à¸ķà¹Ģà¸¥à¸Ńà¸£":4721,"à¸²à¸¢à¸Ī":4722,"à¸ĩà¸Ħà¸ĩ":4723,"à¸Ķà¸ªà¸¡":4724,"à¸§à¸ĩà¸Ī":4725,"à¸ģà¸£à¸£à¸¡à¸Ĺ":4726,"à¸Ķà¸ģà¸²à¸£à¹Ģà¸£":4727,"Ġà¸Ńà¸ĩà¸¨à¸²à¸ķà¸°à¸§":4728,"à¸ŀà¸į":4729,"à¸Ħà¸§à¸²à¸¡à¸ĸ":4730,"à¹Ģà¸¨à¸£à¸©à¸Ĳà¸¨à¸²à¸ªà¸ķà¸£":4731,"à¹Ħà¸ĭà¸¡":4732,"à¸ªà¸ļà¸Ķ":4733,"à¹ĥà¸Ļà¸Ŀ":4734,"à¸§à¸¢à¸¡":4735,"à¸Ļà¸Ĳà¸²à¸Ļà¸Ĥà¸Ńà¸ĩ":4736,"à¸¡à¸«à¸²à¸£à¸²à¸Ĭ":4737,"à¸ªà¸ĸà¸²à¸Ļà¸ģà¸²à¸£à¸ĵ":4738,"à¸Ĭà¸Į":4739,"à¸Ķà¸Ļà¸Ħà¸£":4740,"à¸Ńà¸ĩà¹Ħà¸¡":4741,"à¸Ńà¸ĩà¸Ĺà¸²à¸ĩ":4742,"à¹Ģà¸¡à¸Ĭ":4743,"à¸§à¸ĩà¸«à¸Ļ":4744,"à¸ģà¸²à¸£à¹Ģà¸ŀ":4745,"à¸Īà¸°à¸ªà¸£":4746,"à¹Ģà¸Ķà¸£":4747,"à¸ķà¸£à¸°":4748,"à¸²à¸£à¸Ńà¸ļ":4749,"à¸ĸà¸²à¸Ļà¸°":4750,"à¸ªà¸Ļà¹Ģà¸Ĺà¸¨":4751,"à¸Ĥà¸Ńà¸ĩà¸§à¸ĩ":4752,"à¸¡à¹Ģà¸«à¸¥à¸§":4753,"à¸ĩà¸²à¸Ļà¸ŀ":4754,"à¸Ļà¹Ĥà¸Ľà¸£":4755,"Ġ45":4756,"à¸Ľà¸Ńà¹Ģà¸¡à¸£":4757,"à¸ļà¸ģà¸²à¸£à¸ª":4758,"à¸²à¸ĩà¹Ģà¸Ħ":4759,"à¸¡à¹Ħà¸¡":4760,"à¸Īà¸ªà¸§à¸£à¸£à¸Ħà¸ķ":4761,"à¸¥à¹Ģà¸ļ":4762,"à¸Ńà¸ĩà¸ªà¸¡":4763,"à¸ģà¸²à¸£à¸¥":4764,"à¸²à¸§à¸¡":4765,"à¸Ļà¸ªà¸ģ":4766,"à¹ģà¸Ħà¸£":4767,"à¸£à¸ĸà¹Ħà¸Łà¸Ł":4768,"à¸ļà¸£à¸£à¸ŀ":4769,"Ġà¹ģà¸ĸ":4770,"à¹Ģà¸łà¸ª":4771,"à¸ļà¸Ĺà¸²à¸ĩ":4772,"à¸Īà¸¡":4773,"à¸Ńà¸ģà¸ª":4774,"tive":4775,"rop":4776,"à¹ĥà¸Ļà¸ªà¸ģ":4777,"à¸Ńà¸Ľà¸£":4778,"à¸¥à¸£":4779,"à¸§à¸ģà¸¥":4780,"à¸ķà¹Ģà¸ĭà¸Ńà¸£":4781,"à¸İà¸£à¸²à¸Ĭà¸ģ":4782,"à¸³à¸Ĺà¸°à¹Ģà¸¥":4783,"à¹Ī\"":4784,"à¸łà¸²à¸Ħà¸ķà¸°à¸§":4785,"à¸Ķà¸²à¸ļ":4786,"à¸Ńà¸ĩà¹ĥà¸«à¸¡":4787,"à¸£à¸°à¸Ļ":4788,"à¸Ļà¸Ħà¸²à¸Ĺà¸Ńà¸¥":4789,"à¸¢à¸Ļà¹Ģà¸£":4790,"à¸°à¸Ķà¸§à¸ģ":4791,"Ġà¸Ńà¸£":4792,"à¸²à¸ĩà¹Ģà¸ģ":4793,"à¸²à¸ĩà¸Ĺà¸²à¸ĩ":4794,"à¸Īà¸ŀà¸£à¸°à¸£à¸²à¸Ĭà¸Ķà¸³à¹Ģà¸Ļ":4795,"à¸Ħà¸§à¸²à¸¡à¸ªà¸Ļà¹ĥà¸Ī":4796,"à¸§à¸ļà¸£à¸§à¸¡":4797,"à¸ĩà¸Ħà¸¡à¸Ļ":4798,"à¸ªà¹Ģà¸Ľà¸Ļ":4799,"à¸²à¸ļà¸ªà¸¡":4800,"à¸Ļà¸Ĭà¸²à¸ķ":4801,"à¸Ķà¸ŀà¸¥à¸²à¸Ķ":4802,"à¸Ńà¸Ļà¸Ń":4803,"à¸²à¸Ĺà¸£":4804,"à¸¥à¹Ģà¸¡":4805,"ive":4806,"à¹Ģà¸ĺà¸Ńà¹Ģà¸Ľ":4807,"à¸«à¸²à¸¢à¹Ħà¸Ľ":4808,"à¸¡à¸łà¸²à¸©à¸ĵ":4809,"ĠAward":4810,"Ġà¸Ħà¸§à¸²à¸¡à¸£":4811,"à¹ĥà¸Ļà¹ģà¸Ļà¸§":4812,"à¸ĩà¸ªà¸³à¸Ħ":4813,"Ġ33":4814,"à¹ģà¸¥à¸Ļà¸ķ":4815,"à¹ĥà¸Ļà¸ģà¸²à¸£à¸Ĺà¸³":4816,"âĢľ":4817,"à¸²à¸Ħà¸²":4818,"à¸Ļà¸Ńà¸²à¸Īà¸²à¸£à¸¢":4819,"à¸ļà¹Ģà¸Ħà¸¥":4820,"à¸«à¸²à¸ĩ":4821,"Ġà¹ĳà¹":4822,"Ġà¸ģà¸³à¸«à¸Ļà¸Ķ":4823,"Ġà¸Īà¸Ļà¹Ħà¸Ķ":4824,"à¸ģà¸ĩà¸²à¸Ļà¸Ħ":4825,"à¸²à¹Ĥà¸£à¸«":4826,"75":4827,"à¸ģà¸Ľà¸£à¸°à¸§":4828,"à¹Ĥà¸Ķà¸¢à¸Ļ":4829,"ann":4830,"à¸Ļà¹Ĥà¸ĭ":4831,"à¸Ńà¸«à¸¡":4832,"à¸²à¸Ńà¸Ļ":4833,"à¸Ķà¸Īà¸³à¸«à¸Ļ":4834,"à¸ļà¸¡à¸²à¸£":4835,"à¸£à¸²à¸¢à¸ĩà¸²à¸Ļ":4836,"à¸Īà¹Ģà¸Ī":4837,"à¹ĥà¸Ļà¸ĩà¸²à¸Ļ":4838,"Ġà¸Ļà¸Ħà¸£":4839,"à¸ĩà¹Ĥà¸£à¸ĩà¹Ģà¸£":4840,"à¸Ńà¸¡à¸²à¹Ģà¸Ľ":4841,"à¸Ļà¸ŀà¸§à¸ģ":4842,"à¸¢à¸Ļà¸łà¸²à¸ŀ":4843,"à¸įà¸Ħ":4844,"à¸Ńà¹Ģà¸Ń":4845,"à¸ģà¸£à¸²à¸Ł":4846,"à¸Ńà¸Ńà¸ģà¸īà¸²à¸¢":4847,"à¸Ļà¸²à¸¢à¸ģ":4848,"Ġà¸ªà¸ł":4849,"à¸¢à¸Ļà¸«à¸Ļ":4850,"à¸ģà¸©à¸²à¸Ĥ":4851,"à¸²à¸Ĥà¸²à¸¢":4852,"à¸Ļà¸Ĺà¸£à¸¡":4853,"Ġà¹Ĥà¸Ķà¸¢à¸Ń":4854,"à¹ĥà¸Ļà¸ģà¸²à¸£à¸ŀ":4855,"à¸ģà¸²à¸£à¹Ģà¸ģ":4856,"à¸Ļà¸ģà¸²à¸£à¸Ī":4857,"à¹Ĥà¸Ńà¸Ń":4858,"à¸²à¸¢à¸Ĺà¸«à¸²à¸£":4859,"à¸ªà¸ķà¸ģà¸²à¸¥":4860,"à¸Ļà¸Ľà¸¥à¸²à¸Ĺ":4861,"à¸ļà¸¥à¸£à¸²à¸Ĭà¸ĺà¸²à¸Ļ":4862,"à¸²à¸£à¸¡à¸ĵ":4863,"à¸²à¸Ŀà¸£":4864,"Ġ300":4865,"à¸ļà¸ı":4866,"à¸Ľà¸Ĺà¸£à¸ĩ":4867,"à¸Ļà¸¡à¸«à¸²à¸§":4868,"à¸²à¹Ĥà¸Ńà¸¥":4869,"à¸²à¸Ļà¸²à¸¢":4870,"à¹ĥà¸Ļà¸ģà¸²à¸£à¸ªà¸£":4871,"à¸ŀà¸¥à¸ķ":4872,"à¸Ķà¸Ĺà¸°à¹Ģà¸ļ":4873,"à¹Ĥà¸Ħà¸Īà¸£":4874,"à¸Ĥà¸Ńà¸ĩà¸ļà¸£":4875,"à¸Ĳà¸§":4876,"à¸¢à¸ģà¸Ĭ":4877,"à¸Īà¸£à¸²à¸Ĭà¸ģà¸²à¸£":4878,"ork":4879,"à¸ĩà¸Ŀà¸£":4880,"à¸Ħà¸£à¹Ģà¸¥":4881,"à¸ļà¸ļà¸²à¸Ķà¹Ģà¸Ī":4882,"à¸ĩà¸Ĺà¸°à¹Ģà¸¥":4883,"à¸ŀà¸£à¸°à¸£à¸²à¸Ĭà¹Ĥà¸Ńà¸£à¸ª":4884,"à¹Ģà¸Ńà¸ĩà¸Ĺ":4885,"à¸¥à¹Ģà¸Ľ":4886,"à¸Ķà¸Ĺà¸²à¸ĩ":4887,"à¸ļà¹Ĥà¸¥à¸ģ":4888,"à¸ķà¸£à¸Ĺ":4889,"à¸ªà¸ķà¸Ī":4890,"à¸§à¸ĩà¸ª":4891,"à¸ĩà¸Ħà¸ĵà¸°":4892,"Ġà¸Īà¸²à¸ģà¸ģà¸²à¸£":4893,"Ġà¹ģà¸£à¸ĩ":4894,"à¹Ĥà¸Ńà¸°":4895,"com":4896,"à¹ģà¸£à¸ĩà¸ļ":4897,"à¸Ĺà¸ĭ":4898,"Ġ2518":4899,"à¹Ĥà¸Ķà¸¢à¸Ń":4900,"Ġà¹Ģà¸Ĥà¸²à¸¡":4901,"à¸Ħà¸§à¸²à¸¡à¸Īà¸£":4902,"à¸¢à¸«":4903,"à¸ªà¹ģà¸ķ":4904,"à¸Ļà¹ģà¸ļ":4905,"à¸Ħà¸Ļà¹Ħà¸Ĥ":4906,"Ġ2532":4907,"à¸¡à¸Ħà¸£":4908,"à¸Ķà¸Ĥà¸§à¸²à¸ĩ":4909,"à¸³à¸Ń":4910,"à¸¢à¸ĩà¹ģà¸ķ":4911,"à¸ĩà¸Ĥà¸¥à¸²":4912,"à¸ŀà¸£à¸°à¸ļà¸£à¸¡à¸£à¸²à¸Ĭ":4913,"à¸§à¸ĩà¸§":4914,"à¸Ļà¸Ľà¸ı":4915,"à¸ģà¸¡à¸²à¸ģ":4916,"à¸ģà¸Īà¸°à¸¡":4917,"à¸Ķà¹Ģà¸«":4918,"ĠMus":4919,"à¸ģà¸©à¸ĵà¸°à¸Ĥà¸Ńà¸ĩ":4920,"Ġà¹ĥà¸Ļà¸ŀà¸£à¸°":4921,"à¸Ńà¸¨à¸²à¸ªà¸Ļ":4922,"à¸²à¸ģà¸£à¸°":4923,"sp":4924,"à¸Ķà¸«à¸£":4925,"à¸³à¸£à¸ĩ":4926,"Ġà¸ªà¸²à¸¡":4927,"à¸łà¸²à¸Ħà¹ĥà¸ķ":4928,"à¹Ħà¸®à¹Ĥà¸Ķà¸£":4929,"à¹Ģà¸Ļà¸ķà¸£":4930,"à¸ĩà¸Ľà¸¥":4931,"à¸Ļà¸Ĭà¸²à¸£":4932,"Ġà¹ģà¸¥à¸°à¸Ĺà¸£à¸ĩ":4933,"à¹ģà¸ļà¸Ħà¸Ĺ":4934,"à¸Īà¸ķ":4935,"ĠAn":4936,"Ġ2001":4937,"à¹Ģà¸Ĥà¸²à¸Ĺ":4938,"à¸²à¹Ĥà¸Ī":4939,"à¸ªà¸°à¸Ĺ":4940,"Ġ2529":4941,"à¸ĸà¸²à¸Ľà¸Ļ":4942,"à¹ĥà¸Ļà¸ģà¸£à¸ĵ":4943,"à¹ģà¸Ľà¸¥à¸§":4944,"à¸Īà¸£à¸²à¸Īà¸£":4945,"à¸¥à¸¢à¹Ģà¸Ķà¸Ĭ":4946,"à¹Ģà¸ģà¸°":4947,"à¹Ģà¸®à¸Ńà¸£":4948,"à¸Ľà¸ĭ":4949,"à¸£à¸£à¸ĵà¸ģà¸£à¸£à¸¡":4950,"Ġà¸ģà¸³à¸¥":4951,"ll":4952,"Ġà¹Ģà¸ģà¸£":4953,"à¸§à¹Ģà¸ĭà¸Ńà¸£":4954,"à¸¡à¸ªà¸¥à¸²à¸¢":4955,"Ġà¸®à¸²à¸£":4956,"à¸Ħà¸§à¸²à¸¡à¸Ĥ":4957,"à¸Īà¸°à¸ªà¸²à¸¡à¸²à¸£à¸ĸ":4958,"à¸Ńà¸Ļà¸ģà¸¥":4959,"à¸ģà¸©à¸²à¸ŀ":4960,"à¸ģà¸ĺ":4961,"à¸ģà¹Ģà¸ĭ":4962,"à¸¢à¹Ģà¸ģà¸©à¸ķà¸£":4963,"à¸ļà¸³à¸£":4964,"à¸ĩà¸«à¸§à¸°":4965,"ĠSch":4966,"à¸Ļà¸²à¸ĩà¹Ģà¸Ī":4967,"à¸Ńà¸ľà¸¥":4968,"à¸£à¸£à¸Ī":4969,"à¸ĩà¸Ħà¸ĩà¹Ģà¸Ľ":4970,"Ġà¹Ģà¸«à¸£":4971,"Ġà¸ķà¸£à¸ĩà¸ģ":4972,"à¸§à¸Ļà¸«":4973,"à¸ĩà¸«à¸¡à¸²à¸¢":4974,"à¹ī\"":4975,"à¸§à¹Ģà¸Ķ":4976,"à¸ŀà¸²à¸ĵ":4977,"à¸³à¹Ħà¸Ķ":4978,"à¸¢à¸ĩà¹Ħà¸¡":4979,"à¸Ļà¸¥à¸°à¸Ħà¸£":4980,"à¸ķà¸ªà¸¡à¸²à¸Ĭ":4981,"à¹Ĥà¸Ńà¸Ķ":4982,"à¸Ļà¸ŀà¸£à¸°à¹Ģà¸Ī":4983,"ĠCl":4984,"à¸Ńà¸ĩà¹ģà¸£à¸ģ":4985,"à¸ŀà¸£à¸°à¸£à¸²à¸Ĭà¸ŀ":4986,"à¹Ģà¸ļà¸¥à¹Ģà¸¢":4987,"à¸Ńà¸Īà¸£":4988,"à¸ĩà¹ģà¸¢à¸ģ":4989,"à¸¡à¸Ħà¸£à¸Ńà¸ĩ":4990,"à¸Ńà¸ĩà¸Ħà¸£":4991,"à¹Ģà¸ªà¸ĸ":4992,"à¸²à¹Ĥà¸ģ":4993,"à¸²à¸įà¸Ī":4994,"Ġà¹ģà¸¥à¸°à¸ĭ":4995,"à¸¡à¸Ł":4996,"à¸Ľà¸£à¸°à¹Ģà¸Ĺà¸¨à¸į":4997,"ib":4998,"à¸Ľà¹Ģà¸Ľà¸Ńà¸£":4999,"à¹Ĥà¸¡à¸Ļ":5000,"à¸ŀà¸Ĥà¸Ńà¸ĩ":5001,"Ġâ":5002,"Ġà¹ĥà¸ģà¸¥":5003,"Ġà¸Ľà¸¥à¸²à¸¢":5004,"à¸ĩà¹Ģà¸ĩ":5005,"à¸«à¸¥à¸²à¸¢à¸Ńà¸¢":5006,"à¹ĥà¸Ļà¸ļà¸Ĺ":5007,"à¸²à¸ĩà¸ģà¸¥":5008,"à¸ĩà¸Ľà¸²à¸£":5009,"ach":5010,"à¹ģà¸§à¸Ķà¸¥":5011,"à¸ģà¸£à¸°à¸Ĺà¸£à¸§à¸ĩà¸¨":5012,"à¸²à¹Ĥà¸«à¸¡":5013,"à¸ļà¸²à¸ķ":5014,"Ġà¹ģà¸¥à¸°à¹Ģà¸Ī":5015,"à¹Ħà¸ķà¸¥":5016,"à¸§à¸¢à¸ľ":5017,"ism":5018,"à¸²à¹Ĥà¸ķ":5019,"II":5020,"à¸Ļà¸©":5021,"à¸¢à¹Ģà¸ŀ":5022,"à¸Īà¸Ńà¸¢":5023,"à¸Ķà¸¨":5024,"à¸Ĭà¸²à¸§à¸¢":5025,"Ġà¸¢à¸Ńà¸Ķ":5026,"à¹Ħà¸Ĺà¸¢à¸£":5027,"Ġà¸Ĺà¸²à¸ĩà¸Ĭ":5028,"à¹ģà¸ĸà¸ļ":5029,"à¸§à¸¢à¸Ħ":5030,"à¸§à¸¢à¹Ģà¸Ĭ":5031,"Ġ186":5032,"à¸ĩà¹Ĥà¸£à¸¡":5033,"à¸§à¸ĩà¹Ģà¸Ķ":5034,"à¸£à¸°à¸¢à¸°à¹Ģà¸§à¸¥à¸²":5035,"85":5036,"à¸Ķà¹ĥà¸«à¸į":5037,"à¸²à¸§à¸ķ":5038,"à¹Ģà¸Ĥà¸²à¸¢":5039,"à¸ģà¸©à¸²à¸Ĭ":5040,"à¸ĺà¸£à¸£à¸¡à¸Ķà¸²":5041,"old":5042,"à¸ªà¹Ĥà¸¡à¸ªà¸£à¸Ł":5043,"à¸ĩà¸£à¸°à¸Ķ":5044,"rom":5045,"ĠWorld":5046,"à¸§à¸¢à¹Ĥà¸£à¸Ħ":5047,"à¸ĵà¸«à¸į":5048,"Ġà¸Ķà¸²à¸£":5049,"à¹Ģà¸¥à¸Ļ":5050,"Ġà¸ªà¸ĩà¸Ħà¸£à¸²à¸¡":5051,"à¸Ĳà¸¨à¸²à¸ªà¸ķà¸£":5052,"Ġà¹Ĥà¸Ķà¸¢à¸Ī":5053,"à¸¡à¹ĥà¸«à¸į":5054,"à¸Ķà¹Ħà¸¡":5055,"à¹ģà¸ľà¸Ļà¸ģ":5056,"à¸Ľà¸£à¸²à¸ļà¸Ľà¸£à¸²à¸¡":5057,"à¸´,":5058,"ĠQ":5059,"à¹ģà¸ģà¸Ļ":5060,"à¸ĩà¸¡à¸²à¸Īà¸²à¸ģ":5061,"Ġ2530":5062,"à¸²à¹Ģà¸«à¸¥":5063,"à¸Ńà¹Ģà¸ļ":5064,"à¸§à¸ĩà¸ŀ":5065,"à¸ļà¸£à¸Ńà¸ĩ":5066,"à¸Ńà¸¡à¸ª":5067,"à¸²à¹Ħà¸£":5068,"à¸Ĭà¸ģ":5069,"à¹Ģà¸ªà¸ģà¸ªà¸¡":5070,"à¸Ļà¸³à¸Ĺ":5071,"à¸ļà¸ģà¸²à¸£à¸¢à¸Ńà¸¡à¸£":5072,"Ġà¸¥à¸³à¸ķ":5073,"à¸ķà¸£à¸ªà¸²à¸§":5074,"à¸Īà¸°à¸Ĥ":5075,"ĠÂł":5076,"à¸Ķà¹Ģà¸ľ":5077,"à¸Ľà¸²à¸ĩ":5078,"à¸²à¸ªà¸²à¸¡":5079,"Ġ2522":5080,"à¸Ńà¸Ļà¸¥":5081,"89":5082,"à¸²à¸ĩà¸ľ":5083,"à¸Ńà¸¡à¸£à¸²à¸Ĭà¸§à¸ĩà¸¨":5084,"ich":5085,"à¹Ĥà¸Īà¸§":5086,"Ġà¹Ģà¸ĺà¸Ń":5087,"à¸Ľà¸§":5088,"à¸ĺà¸²à¸£":5089,"à¸ģà¸²à¸£à¹ĥà¸«":5090,"à¹ĥà¸ļà¸«à¸Ļ":5091,"à¸Ľà¸£à¸°à¸«à¸²à¸£à¸Ĭ":5092,"à¹ĥà¸Ļà¸ĺ":5093,"à¹ĥà¸Ļà¸Ĺà¸°à¹Ģà¸¥":5094,"Ġà¹Ĥà¸¥":5095,"à¸¢à¸ĩà¸Ń":5096,"à¸²à¸¥à¸ª":5097,"à¸ļà¸Ħà¸£":5098,"à¸²à¸§à¸Ĥ":5099,"Â°":5100,"à¸ŀà¸²à¸Ĺ":5101,"à¸°à¸ĭ":5102,"à¹Ĥà¸§":5103,"à¸Ńà¹Ĥà¸£":5104,"à¸ªà¸¡à¸£à¸ªà¸ģ":5105,"à¸Ńà¸¢à¸Ļ":5106,"à¹Ģà¸ļà¸ķ":5107,"à¸²à¸ŀà¸¥":5108,"à¸¥à¸Ľà¸²à¸ģà¸£":5109,"ish":5110,"à¸Ľà¸£à¸°à¸Īà¸³à¸Ľ":5111,"à¸Ńà¸ĩà¹Ģà¸ŀ":5112,"à¹ģà¸¥à¸°à¹Ģà¸£":5113,"à¸¡à¸²à¸ģà¸Ļ":5114,"à¹Ģà¸¥à¸Ĥà¸Ĺ":5115,"à¸Ńà¸ĩà¸Ķà¸Ļà¸ķà¸£":5116,"à¸Ĺà¸²à¸ĩà¹Ģà¸¨à¸£à¸©à¸Ĳà¸ģ":5117,"Ġà¸Ĺà¸£à¸ĩà¹Ģà¸Ľ":5118,"à¸Ķà¸ªà¸£":5119,"à¸²à¸£à¸ĸ":5120,"à¸²à¸ĩà¹Ģà¸ŀ":5121,"Ġ150":5122,"ĠUnivers":5123,"à¸ķà¸ļà¸Ńà¸¥à¸Ĺ":5124,"Ġà¸Ńà¸ł":5125,"à¸Ńà¸Ŀ":5126,"à¸Ńà¸³à¹Ģà¸łà¸Ńà¸ļ":5127,"att":5128,"Ġà¹Ĥà¸Ķà¸¢à¸Ļ":5129,"à¸Ĺà¸ĺà¸¨à¸²à¸ªà¸Ļ":5130,"olog":5131,"à¸¥à¹Ģà¸¥à¸Ńà¸£":5132,"à¸Ļà¸Ľà¸£à¸°à¸Ĭà¸²à¸ģà¸£":5133,"à¸Ńà¸°à¸ķà¸Ńà¸¡":5134,"à¹ģà¸¥à¸°à¸Ľ":5135,"à¸¢à¸¡à¸ª":5136,"à¹Ħà¸Ĺà¸¢à¹Ģà¸Ľ":5137,"à¸Ļà¸¥à¸°à¸Ħà¸£à¹Ĥà¸Ĺà¸£à¸Ĺ":5138,"à¸Ńà¸Ļà¸«":5139,"à¸Ńà¸ģà¸ģ":5140,"à¸ŀà¸£à¸°à¸Ĭà¸Ļà¸¡à¸²à¸¢":5141,"à¸¥à¸°à¸Ĺ":5142,"à¹Ħà¸Ľà¸ķà¸²à¸¡":5143,"à¸Ļà¸Īà¸³à¸Ļà¸§à¸Ļ":5144,"à¹Ħà¸ļ":5145,"à¸Ļà¸¢à¸Ļà¸ķ":5146,"Ġ1970":5147,"à¹ī)":5148,"à¸Ĥà¸Ńà¸ĩà¸Ĥ":5149,"à¸Ĺà¸¢à¸²à¸ģà¸²à¸£":5150,"à¸Ħà¸³à¸Ļ":5151,"43":5152,"ft":5153,"à¹ĥà¸Ļà¸Ļà¸²à¸¡":5154,"à¸²à¸ªà¸Ļà¹ĥà¸Ī":5155,"ĠHe":5156,"à¸Ńà¸ŀà¸£à¸°à¹Ģà¸Ī":5157,"à¹Ģà¸Ħà¸Ńà¸£":5158,"à¹Ģà¸Ĺà¸¨à¸ļà¸²à¸¥à¹Ģà¸¡":5159,"à¹Ĥà¸Ńà¸ĩà¸ģà¸²à¸£":5160,"Ġà¸«à¸į":5161,"à¸Ĺà¸²à¸ĩà¸«à¸¥à¸§à¸ĩà¹ģà¸ľ":5162,"à¸ķà¸Ńà¸Ļà¸Ĺ":5163,"à¸ģà¸²à¸£à¸Ķà¸³à¹Ģà¸Ļ":5164,"à¸²à¸Īà¸°à¹Ħà¸Ķ":5165,"à¸Ħà¸§à¸²à¸¡à¸¥":5166,"à¸ĩà¸Ńà¸ĩà¸Ħ":5167,"à¸²à¸¢à¸ĭ":5168,"à¸Ĳà¸²à¸Ļà¸Ĥà¸Ńà¸ĩ":5169,"à¸ģà¹Ģà¸ī":5170,"à¸§à¹Ħà¸¡":5171,"à¸ģà¸²à¸£à¹Ħà¸Ķ":5172,"Ġ189":5173,"à¸Ļà¹ģà¸Ħ":5174,"à¸Ļà¸Ńà¸Ńà¸ģà¸Ĥà¸Ńà¸ĩ":5175,"à¹Ħà¸¥à¸Ĺ":5176,"à¸Ļà¹Ĥà¸£":5177,"à¹ģà¸¥à¸°à¹Ģà¸Ĺà¸Ħà¹Ĥà¸Ļà¹Ĥà¸¥à¸¢":5178,"Ġà¸Ńà¸²à¸Īà¸²à¸£à¸¢":5179,"à¸Ļà¸³à¹Ģà¸ªà¸Ļà¸Ń":5180,"à¸ķà¸Ļà¹Ĥà¸ģà¸ª":5181,"à¸ªà¸Ńà¸ĩà¸Ļ":5182,"Ġ2519":5183,"à¸¥à¸ļà¸Ńà¸£":5184,"à¸§à¸¢à¸ŀ":5185,"Ġà¸ĩ":5186,"à¸§à¸Ľ":5187,"à¸ģà¸²à¸£à¹Ģà¸Ħà¸¥":5188,"à¸ĩà¸ģà¸Ńà¸ĩà¸Ĺ":5189,"à¸ªà¸³à¹Ģà¸Ļ":5190,"à¸Īà¸³à¹ģà¸Ļà¸ģ":5191,"à¸¢à¸ģà¹Ģà¸§":5192,"à¹Ĥà¸ķà¹Ģà¸ģ":5193,"à¸ģà¸²à¸£à¹ģà¸ķ":5194,"à¸Ķà¹ĥà¸Ļà¸Ľ":5195,"à¸Ńà¸ĩà¹ģà¸ķ":5196,"à¹Ĥà¸Ķà¸¢à¸ķà¸£à¸ĩ":5197,"à¸ĩà¹Ģà¸«":5198,"à¹ģà¸Ńà¸Ļà¸ķ":5199,"à¸Łà¸ķ":5200,"à¸Ļà¸¡à¸«":5201,"à¸Ńà¸²à¸Īà¹Ģà¸Ľ":5202,"à¸¡à¸²à¸Ĭ":5203,"à¸Ńà¸ĩà¸Ĺà¸³":5204,"à¸ªà¸¡à¸Ĺ":5205,"Ġà¹Ģà¸¥à¸Ĥ":5206,"à¸ĩà¹ĥà¸Ļà¸§":5207,"à¸¡à¸ŀà¸£à¸°à¹Ģà¸ģ":5208,"à¸ķà¸Ńà¸ļà¸£":5209,"à¸ģà¹ģà¸ļ":5210,"à¸ľà¸¥à¸ģà¸£à¸°à¸Ĺ":5211,"à¸£à¸°à¸ļà¸²à¸Ķ":5212,"à¸Ĺà¸²à¸ĩà¹ĥà¸ķ":5213,"à¸Ļà¸Ĺà¸²à¸ĩà¸Ĺ":5214,"Ġà¹Ħà¸Ń":5215,"à¸ĩà¸ģà¸²à¸¢":5216,"à¸Ħà¸¥à¸²à¸ģà¸£":5217,"Ġà¹Ĥà¸Ħà¸£à¸ĩà¸ģà¸²à¸£":5218,"à¸ģà¸Ħà¸¥":5219,"à¸ĩà¹Ģà¸«à¸ķ":5220,"à¸³à¸§":5221,"à¸Ķà¸ĩà¸²à¸¡":5222,"yn":5223,"Ġà¸§à¸²à¸ĩ":5224,"à¸Ĥà¸Ńà¸ĩà¸¡à¸Ļ":5225,"à¸¢à¸ł":5226,"à¹Ģà¸¡à¸Ķ":5227,"ĠMar":5228,"à¸Ńà¸²à¸Īà¸Īà¸°":5229,"à¸ģà¸²à¸£à¸Ľà¸£à¸°à¸Ĭ":5230,"Ġà¸ģà¸£à¸°à¸Ĺ":5231,"à¹Ģà¸Ĥà¸²à¹Ħà¸¡":5232,"Ġ2528":5233,"à¸Ĳà¸¯":5234,"à¸ªà¸¡à¸Ńà¸ĩ":5235,"à¸¢à¸§à¸Ļ":5236,"49":5237,"à¸ªà¸²à¸¡à¸²à¸£à¸ĸà¸£":5238,"à¸²à¸Īà¸°à¹Ħà¸¡":5239,"ath":5240,"à¸Ńà¸²à¸ĵà¸²à¸Ļ":5241,"à¹ģà¸ªà¸Ķà¸ĩà¸ĸ":5242,"à¹ģà¸£à¸ĩà¸Ķ":5243,"à¸¥à¸³à¸ļà¸²à¸ģ":5244,"à¸Ńà¸²à¸¥":5245,"à¹Ħà¸Ħ":5246,"à¸Ńà¸Ńà¸ģà¸¡à¸²à¸Īà¸²à¸ģ":5247,"à¸¢à¸Ļà¹ģà¸ļà¸ļ":5248,"à¸²à¸łà¸²à¸©":5249,"Ġà¹Ģà¸Ĺà¸ŀ":5250,"ign":5251,"à¹Ģà¸ĺà¸Ńà¸¡":5252,"se":5253,"à¸Ķà¸§à¸ĩà¸Ńà¸²à¸Ĺ":5254,"à¸¥à¸²à¸¡":5255,"à¸Ľà¸£à¸°à¹Ģà¸Ķ":5256,"à¸§à¸¡à¸ĩà¸²à¸Ļà¸ģ":5257,"à¸ĩà¹ĥà¸Ļà¸Ļ":5258,"à¸ªà¹Ĥà¸ģ":5259,"oll":5260,"Ġà¸£à¸²à¸Ĭ":5261,"à¸³à¸£à¸°":5262,"à¸Īà¸ŀà¸£à¸°à¸Ļà¸²à¸ĩà¹Ģà¸Ī":5263,"à¸Ļà¹Ģà¸Ĥà¸ķà¸£":5264,"à¸¡à¹Ģà¸¨à¸£":5265,"à¸ģà¸«à¸£":5266,"à¹Ģà¸ĵ":5267,"à¹ģà¸¥à¸°à¸«":5268,"à¸Ńà¸ĩà¸Īà¸²à¸ģà¹Ģà¸Ľ":5269,"à¸²à¸ķà¸£à¸Ĳà¸²à¸Ļ":5270,"à¸ģà¹ĥà¸Ļà¸Ĭ":5271,"à¸ģà¸²à¸£à¸Ľà¸£à¸°à¸ģà¸²à¸¨":5272,"à¹ĥà¸Ļà¹Ĥà¸¥à¸ģ":5273,"à¸§à¸¢à¸Ķ":5274,"à¸ĩà¸¥à¸ĩ":5275,"Ġà¹ģà¸¥à¸°à¸ŀà¸£à¸°":5276,"à¸Ĺà¸³à¸Ľà¸£à¸°à¸ķ":5277,"ular":5278,"à¸£à¸¢":5279,"à¸¢à¸ŀà¸£à¸°à¸ļà¸²à¸Ĺà¸ªà¸¡à¹Ģà¸Ķ":5280,"à¸Ħà¸Ńà¸¥":5281,"à¸¢à¸¡à¹ĥà¸Ĭ":5282,"Ġà¹Ħà¸®":5283,"à¸¢à¸Ľ":5284,"à¸¢à¹Ģà¸¡":5285,"à¸§à¸ĩà¸Ħà¸£":5286,"à¸Ńà¸Ļà¸²à¸¡":5287,"à¸ķà¸³à¸Ļà¸²à¸Ļ":5288,"à¸¢à¸ĸ":5289,"à¸Ĥà¸Ļà¸²à¸Ļ":5290,"à¸ģà¸²à¸£à¸ªà¸Ļ":5291,"46":5292,"Ġ.":5293,"à¸¢à¸ĩà¸Ńà¸¢":5294,"Ġà¹Ħà¸¡à¸¥":5295,"à¸ĸà¸²à¸Ļà¸ģà¸²à¸£à¸ĵ":5296,"à¸²à¹Ģà¸§":5297,"Ġà¹ģà¸¥à¸°à¸Ľà¸£":5298,"à¸ļà¸Ĺà¸Ħà¸§à¸²à¸¡":5299,"Ġà¹Ģà¸ĩ":5300,"à¸¢à¸§à¸°":5301,"à¸ĩà¸²à¸Ļà¸ļ":5302,"à¸Ļà¸Ĺà¸£à¸¡à¸«":5303,"eam":5304,"à¸Ľà¸£à¸°à¹Ģà¸Ĺà¸¨à¸Ĺ":5305,"55":5306,"à¸Ļà¸Ļà¸²à¸¢à¸ģà¸£":5307,"à¸®à¸Ńà¸¥":5308,"à¸£à¸Ķà¸ģ":5309,"Ġà¹Ģà¸ľ":5310,"à¸§à¸¢à¸Ľ":5311,"Ġà¹Ģà¸Ĺà¸¨":5312,"à¸Ļà¸Ħà¸§à¸²à¸¡à¸£":5313,"à¸Ļà¸ŀà¸£à¸°à¸£à¸²à¸Ĭà¹Ĥà¸Ńà¸£à¸ª":5314,"à¹Ģà¸Ńà¸°":5315,"à¸¢à¹ĥà¸«":5316,"à¸¢à¹Ģà¸Ĺà¸Ħà¹Ĥà¸Ļà¹Ĥà¸¥à¸¢":5317,"à¸ķà¸Ĥ":5318,"à¹Ģà¸ªà¸²à¸£":5319,"à¹ģà¸¡à¸£":5320,"à¹Ģà¸§à¸¥à¸ª":5321,"à¸¢à¸£à¸²à¸Ĭà¸ł":5322,"Ġà¹ģà¸¥à¸°à¸Ĺà¸³à¹ĥà¸«":5323,"sh":5324,"à¸£à¸£à¸¢à¸²":5325,"à¹ĥà¸Ļà¸ķà¸Ńà¸Ļ":5326,"à¸Ķà¸²à¸Ļ":5327,"à¸ªà¸²à¹Ģà¸«à¸ķ":5328,"à¸²à¸¢à¸ĵ":5329,"à¸Ļà¸Ľà¸£à¸°à¸ĺ":5330,"à¹Ģà¸ģà¸©à¸ķà¸£à¸ģà¸£à¸£à¸¡":5331,"hip":5332,"à¸Ńà¸Ńà¸ªà¹Ģà¸ķà¸£à¹Ģà¸¥":5333,"à¸Ļà¸ķà¸Ńà¸Ļà¸§":5334,"à¹ĥà¸Ļà¸«à¸¥":5335,"à¸ĩà¸Ľà¸£à¸°à¸ķ":5336,"à¸§à¸²à¸Ĺ":5337,"Ġà¹ĥà¸Ļà¸Ħà¸£":5338,"Ġà¹Ħà¸ĭ":5339,"31":5340,"à¹Ħà¸Ľà¸Īà¸²à¸ģ":5341,"à¸ļà¸£à¸£à¸Ĺ":5342,"à¸¢à¸²à¸ĩ":5343,"à¹Ħà¸Ĺà¸¢à¹ģà¸¥à¸Ļà¸Ķ":5344,"out":5345,"à¸Ļà¹Ģà¸Ĭà¸ªà¹Ģà¸ķà¸Ńà¸£":5346,"à¸ķà¸Ńà¸ļà¸ªà¸Ļ":5347,"à¸ģà¸Ńà¸Ńà¸ģà¹ģà¸ļà¸ļ":5348,"à¸²à¸Ļà¸Ļà¸²":5349,"Ġon":5350,"à¸¥à¸Ńà¸£":5351,"ĠEn":5352,"à¸¡à¸Ļà¸ķ":5353,"à¸Ļà¸¡à¸²à¹Ģà¸Ľ":5354,"à¸¡à¸²à¹Ģà¸£":5355,"à¸ģà¹Ĥà¸Ĺà¸©":5356,"à¸²à¸¡à¸ķ":5357,"à¹Ģà¸Ńà¸Ńà¸£":5358,"à¸¬à¸²à¹Ĥà¸Ńà¸¥":5359,"à¸ģà¸ĭà¸²à¸Ļà¹Ģà¸Ķà¸Ńà¸£":5360,"à¸ĩà¹Ĥ":5361,"à¸ģà¸¥à¸²à¹Ĥà¸«à¸¡":5362,"à¸Īà¸°à¸ģà¸¥":5363,"ĠPl":5364,"à¸§à¹ģà¸Ĺà¸Ļà¸Ĥà¸Ńà¸ĩ":5365,"à¹Ī)":5366,"à¸Ńà¸¡à¸£à¸Ńà¸ļ":5367,"à¸Ļà¸Ķà¸²à¸£":5368,"eb":5369,"à¸Ļà¸ģà¸²à¸£à¸£":5370,"à¸Ĥà¸¢à¸²à¸¢à¸ķ":5371,"à¸Ńà¸²à¸į":5372,"à¸ķà¸Ńà¸¥":5373,"à¸Ĭà¸²à¸Ĺ":5374,"à¸ģà¸Ħà¸£à¸Ńà¸ĩ":5375,"à¸Ļà¹Ĥà¸Ľ":5376,"Ġ2525":5377,"ax":5378,"à¸Ĥà¸Ńà¸ĩà¸ķà¸Ļà¹Ģà¸Ńà¸ĩ":5379,"à¸ĩà¸°":5380,"à¸ĩà¸Ľà¸£à¸°à¸ģà¸Ńà¸ļà¸Ķ":5381,"à¸¥à¸²à¸Ńà¸Ńà¸ģà¸Īà¸²à¸ģ":5382,"Ġà¸Ķà¸³à¸£à¸ĩà¸ķà¸³à¹ģà¸«à¸Ļ":5383,"à¹ģà¸¥à¸°à¸ŀà¸£à¸°":5384,"à¸Ńà¸ªà¸ĭ":5385,"Ġà¸Ļà¸²à¸¢à¸ģà¸£":5386,"à¸łà¸²à¸Ħà¸Ĺ":5387,"à¸ģà¸£à¸°à¸Īà¸²à¸¢à¸ŀ":5388,"à¸ģà¸¡à¸²à¸ģà¸¡à¸²à¸¢":5389,"Ġà¹ĥà¸Ļà¹Ģà¸¡":5390,"à¸«à¸§à¸²à¸Ļ":5391,"à¸ªà¸²à¸£à¸ªà¸Ļà¹Ģà¸Ĺà¸¨":5392,"à¹Ģà¸Ħà¸²à¸£à¸ŀ":5393,"à¸Ńà¹Ĥ":5394,"à¸Ĥà¸Ńà¸ĩà¸Ł":5395,"à¹Ģà¸Ĥà¸²à¸ķ":5396,"à¸¢à¹Ģà¸Ĭ":5397,"Ġà¸Ķà¸³à¹Ģà¸Ļ":5398,"Ġà¸ģà¸²à¸£à¸¨":5399,"yp":5400,"39":5401,"à¸Ķà¹ĥà¸Ĭ":5402,"à¸Ļà¸Ĺà¸²à¸ĩà¸ģà¸¥":5403,"à¸Īà¸ŀà¸£à¸°à¸¡à¸ĩà¸ģ":5404,"88":5405,"à¸ĩà¸Ĭà¸²à¸§":5406,"Ġà¸¡à¸²à¹Ģà¸Ľ":5407,"row":5408,"à¹ĥà¸Ļà¸ŀà¸£à¸°à¹Ģà¸Ī":5409,"Ġà¸ģà¸¡":5410,"ple":5411,"à¸Ļà¸¥à¸³à¸Ķ":5412,"à¸§à¸Ńà¸£":5413,"à¸Ĳà¸Ļ":5414,"à¸¢à¸Ļà¹Ĥà¸Ķà¸¢":5415,"à¸§à¸ģà¸§":5416,"à¸ģà¸²à¸£à¸Ħà¸§à¸ļà¸Ħ":5417,"à¹Ģà¸Ńà¸£":5418,"à¸¥à¸²à¸¢à¹Ģà¸Ľ":5419,"Ġ180":5420,"Ġà¸ªà¸²à¸ĺà¸²à¸£à¸ĵà¸£":5421,"à¸Ľà¸°à¸Ĺ":5422,"à¸Ķà¹ģà¸ªà¸Ķà¸ĩ":5423,"Ġà¸ªà¸²à¸§":5424,"à¸Ħà¸³à¸ĸà¸²à¸¡":5425,"à¸ģà¸¡à¸§à¸¢à¸Ľà¸¥":5426,"à¸¡à¸Ńà¸Ļ":5427,"37":5428,"à¸²à¸¡à¸ģà¸¥à¸²à¸ĩ":5429,"à¸²à¸Ļà¸Ł":5430,"à¸§à¹Ģà¸ªà¸£":5431,"Ġà¸Ļà¸Ńà¸ģ":5432,"Ġà¸ĸà¸Ļà¸Ļ":5433,"à¸§à¸¡à¸£":5434,"à¸²à¹ģà¸ļà¸ļ":5435,"à¸²à¹Ħà¸§":5436,"à¸İà¹Ģà¸ģà¸¥":5437,"à¸Ļà¹Ģà¸Īà¸Ńà¸£":5438,"ternational":5439,"Ġà¸¡à¸²à¸ģà¸ģà¸§":5440,"à¸²à¸ķà¸°":5441,"à¸Ļà¹Ģà¸ģà¸²à¸°":5442,"à¸ģà¹Ģà¸ķà¸Ńà¸£":5443,"à¸µà¹Ĭ":5444,"à¸Ńà¸ģà¸£à¸°":5445,"à¹Ģà¸Ħà¸¢à¹Ħà¸Ķ":5446,"à¹ģà¸¡à¸ķà¸Ĭ":5447,"à¸Ļà¸¡à¸²à¸ģà¸ģà¸§":5448,"86":5449,"à¸§à¸¡à¹ģà¸Ĥ":5450,"à¸Ĺà¸£à¸²à¸ļà¸§":5451,"à¸§à¸¨":5452,"à¸ĩà¸ģà¸³à¸¥":5453,"à¸³à¸Ļà¸²à¸į":5454,"yst":5455,"Ġ2523":5456,"à¹Ĥà¸¡à¸£":5457,"à¸Ķà¸Ľà¸£à¸°à¸ªà¸ĩà¸Ħ":5458,"Ġ1999":5459,"Ġà¹Ģà¸Ńà¸ģ":5460,"à¸Ńà¹Ģà¸Ħà¸£":5461,"Ġà¹Ĥà¸£à¸Ħ":5462,"à¸Ĭà¸¥":5463,"à¸ģà¸²à¸£à¸Ľà¸¥":5464,"à¸²à¸¢à¸Ĭà¸Ļà¸°":5465,"à¸¡à¸²à¸ķà¸£à¸²":5466,"36":5467,"à¸ªà¸§à¸¢à¸ĩà¸²à¸¡":5468,"à¸²à¸ĩà¸ªà¸¡":5469,"Ġà¸Īà¸Ļ":5470,"à¸²à¸ŀà¸£à¸°à¸¢à¸²":5471,"pl":5472,"à¸Ńà¹ĥà¸Ļ":5473,"à¸ªà¹Ħà¸ķà¸Ļ":5474,"à¸¹-":5475,"à¸²à¸ĩà¸«à¸¥":5476,"à¸Ńà¸£à¸°à¸«à¸§":5477,"à¸ļà¸£à¸°à¸ļà¸ļ":5478,"Ġà¸ŀà¸£à¸°à¸¢":5479,"Ġà¹Ĥà¸£à¸ĩà¸ŀà¸¢à¸²à¸ļà¸²à¸¥":5480,"à¸ķà¸Ļà¸£à¸²à¸Ĭà¸ª":5481,"Ġth":5482,"à¸ªà¸³à¸£":5483,"à¸Ļà¸ŀà¸£à¸°à¸ŀ":5484,"à¸ļà¸£à¸£à¸¥":5485,"à¹ĥà¸Ļà¸łà¸²à¸ŀ":5486,"à¸ĩà¸ł":5487,"à¹ģà¸£à¸ĩà¸ĩà¸²à¸Ļ":5488,"à¸Ħà¸£à¸Ńà¸ĩà¸£à¸²à¸Ĭà¸¢":5489,"à¸ĩà¸²à¸Ļà¸Ħ":5490,"à¸ĩà¸Ĥà¸Ńà¸ĩà¸Ī":5491,"à¹Ģà¸Ńà¸Łà¹Ģà¸Ń":5492,"ress":5493,"à¹Ģà¸£à¸¢":5494,"à¸Ńà¹ģà¸ķ":5495,"à¸¥à¹Ģà¸ĭ":5496,"à¹Ħà¸ľ":5497,"à¹ģà¸ģà¸°":5498,"à¸ªà¸°à¸ªà¸¡":5499,"à¸ĩà¹ĥà¸Ļà¸£":5500,"à¸Ħà¸£à¸£":5501,"à¸²à¸ĩà¹ĥà¸«":5502,"à¸ķà¸£à¸ģ":5503,"à¸ĩà¸¡à¸²à¸£":5504,"à¸ŀà¸§à¸ģà¸¡":5505,"Ġà¹ĵ":5506,"à¹ģà¸Ńà¸¡":5507,"à¸ģà¸©à¸²à¸Ń":5508,"à¸Ńà¸Ļà¸Ľ":5509,"à¹ģà¸Ŀ":5510,"Ġ1998":5511,"à¸¡à¹Ĥà¸Ķà¸¢":5512,"Ġà¹ģà¸Ńà¸Ļ":5513,"à¹Ĥà¸Ĭà¸ģ":5514,"à¸ŀà¸¢à¸²à¸¢à¸²à¸¡à¸Ĺ":5515,"à¹Ĥà¸£à¸Īà¸Ļ":5516,"à¹ĥà¸Ļà¹Ģà¸ģà¸¡":5517,"à¸Ĥà¸Ńà¸ĩà¸ªà¸«à¸£":5518,"Ġà¸ªà¸Ļ":5519,"Ġà¸Īà¸Ńà¸£":5520,"à¸Ľà¹ģà¸ļà¸ļà¸Ĥà¸Ńà¸ĩ":5521,"Ġà¸£à¸°à¸ļ":5522,"à¸Ĳà¸ª":5523,"à¸§à¸ĩà¸ģ":5524,"à¸Ĺà¸£à¹ģà¸Ľà¸ĭ":5525,"à¸ģà¹Ħà¸Ĺà¸¢":5526,"à¸Ĭà¸ķ":5527,"à¹Ģà¸ĭà¹Ĥà¸¥":5528,"Ġà¹Ĥà¸ķ":5529,"à¸Ľà¸ªà¸£à¸£à¸Ħ":5530,"Ġ+":5531,"à¸Ļà¸£à¸°à¸Ķ":5532,"à¹Ģà¸Ķà¸Ļà¸¡à¸²à¸£":5533,"à¸Ļà¸¨à¸²à¸ªà¸ķà¸£":5534,"Ġà¸ĭà¸¡":5535,"Ġà¸Ńà¸²à¸«à¸²à¸£":5536,"ee":5537,"à¸£à¸°à¸¡":5538,"à¸²à¸Ķà¸£":5539,"à¸Ńà¸ģà¸£":5540,"à¸ªà¸²à¸¡à¸²à¸£à¸ĸà¹Ģà¸Ĥ":5541,"à¸§à¸Ļà¸Ħ":5542,"Ġà¸Ħà¸Ńà¸£":5543,"Ġà¸Ŀà¸£":5544,"à¸²à¹Ĥà¸Ķà¸¢":5545,"à¸ĩà¸ĺà¸Ļà¸ļ":5546,"à¸ģà¸²à¸£à¹ģà¸ļ":5547,"à¸įà¸ª":5548,"à¸įà¸¨":5549,"à¸Īà¸ģ":5550,"à¹ģà¸¥à¸°à¸ģà¸¥":5551,"à¸ļà¸Ĺà¸ļà¸²à¸Ĺà¸ªà¸³à¸Ħ":5552,"à¸Ńà¸ģà¹Ħà¸¡":5553,"à¸²à¸«à¸¡à¸ĵ":5554,"à¸¢à¸Ļà¸Ńà¸¢":5555,"à¸łà¸²à¸Ħà¹Ģà¸«à¸Ļ":5556,"à¸Ĵà¸Ļà¸²à¸Ĥ":5557,"à¸Ļà¸ķà¸°à¸§":5558,"à¸²à¹ĥà¸«à¸¡":5559,"à¸Ħà¹ģà¸«":5560,"à¸²à¸¡à¸Ļ":5561,"à¸įà¸«à¸²à¸Ĺ":5562,"Ġà¸ģà¸£à¸£à¸¡à¸ģà¸²à¸£":5563,"à¸¹\"":5564,"à¹Ģà¸Ńà¸Ļà¹Ħà¸ĭà¸¡":5565,"à¸Ĺà¸ĺà¸¨à¸²à¸ªà¸ķà¸£":5566,"à¸ģà¸¡à¸§à¸¢à¸ªà¸²à¸ģà¸¥":5567,"Ġe":5568,"à¸ļà¸Ľà¸¥":5569,"à¸¢à¸²à¸¢à¸²à¸¡":5570,"Ġà¸Ħà¸§à¸²à¸¡à¸ª":5571,"à¸§à¸Ļà¸Ī":5572,"à¸Ńà¸ĩà¹Ħà¸Ľ":5573,"Ġà¸ªà¸¡à¸²à¸Ħà¸¡":5574,"Ġà¸Ħà¸ĵà¸°à¸ģà¸£à¸£à¸¡à¸ģà¸²à¸£":5575,"à¸ģà¸§à¸²à¸Ķ":5576,"à¸įà¸Ĭà¸²à¸ģà¸²à¸£à¸Ĺà¸«à¸²à¸£":5577,"à¸ģà¸¤à¸©à¸İ":5578,"à¸ªà¸²à¸ĺà¸²à¸£à¸ĵà¸ª":5579,"à¸ļà¸ģà¸²à¸£à¸Ħ":5580,"Ġpro":5581,"à¸£à¸£à¸Ĺ":5582,"Ġ1960":5583,"à¸Ķà¸ªà¸Ńà¸Ļ":5584,"à¸£à¸²à¸¢à¸ĩà¸²à¸Ļà¸§":5585,"87":5586,"à¸Ĺà¸¥":5587,"à¸ģà¸²à¸£à¹ģà¸ŀà¸Ĺà¸¢":5588,"à¸Ļà¸Ĺà¸°à¹Ģà¸¥":5589,"à¸«à¸¥à¸ļà¸«à¸Ļ":5590,"à¸ģà¸ĩà¸²à¸Ļà¸Ħà¸ĵà¸°à¸ģà¸£à¸£à¸¡à¸ģà¸²à¸£":5591,"à¸¢à¹Ģà¸ģà¸©à¸ķà¸£à¸¨à¸²à¸ªà¸ķà¸£":5592,"à¸Ĥà¸ĵà¸°":5593,"à¸§à¸Ķà¸¥à¸²à¸¢":5594,"à¸²à¸Ńà¸²à¸ģà¸²à¸¨à¸¢":5595,"Ġà¹Ħà¸Ł":5596,"à¸¥à¹Ģà¸ģ":5597,"à¸¥à¸Īà¸²à¸ģ":5598,"à¸Ńà¸ļà¸ªà¸Ļ":5599,"ound":5600,"Ġà¸ªà¸¡à¸£à¸ªà¸ģ":5601,"à¹Ģà¸Ļà¸Ľ":5602,"à¸ģà¸®":5603,"à¸§à¸¡à¸ªà¸¡":5604,"Ġ2516":5605,"à¸Ļà¹Ģà¸Ļà¸Ńà¸£":5606,"à¹Ģà¸ŀà¸Ńà¸£":5607,"à¸Ļà¸Ļà¸²à¸¢":5608,"ans":5609,"à¸§à¸Ļà¸Ĭ":5610,"à¹Ĥà¸«à¸§":5611,"à¸ļà¸ģà¸²à¸£à¹Ģà¸ªà¸Ļà¸Ńà¸Ĭ":5612,"à¸ļà¸®":5613,"à¹Ĥà¸ķà¸¡":5614,"Ġ2527":5615,"à¸Ńà¸ĩà¸ŀà¸£à¸°":5616,"Ġà¹ģà¸¥à¸°à¸Ħà¸§à¸²à¸¡":5617,"à¹Ĥà¸Ĺà¸Ļ":5618,"à¸£à¸£à¸ĸ":5619,"à¸Ļà¸Īà¸°à¹Ģà¸Ľ":5620,"à¸Ńà¸Īà¸°":5621,"Ġà¸Ńà¸ĺ":5622,"Ġ2526":5623,"Ġà¹ģà¸¥à¸°à¸«à¸Ļ":5624,"Ġ2524":5625,"à¸ªà¸°à¸Ķ":5626,"à¸¢à¸«à¸¥":5627,"à¸ļà¸£à¸£à¸ĵ":5628,"à¸²à¹Ģà¸ĺà¸Ń":5629,"à¸²à¸¢à¸ĸ":5630,"à¹ĥà¸Ļà¸į":5631,"à¸¢à¸ĩà¸Ļ":5632,"à¹ģà¸ªà¸Ļ":5633,"à¸Ļà¹ģà¸¥à¸°à¸ģ":5634,"à¸²à¸ĵà¸²à¸Ļ":5635,"ame":5636,"à¸¢à¸¨à¸£":5637,"à¸ĺà¸ĩà¸Ĭà¸²à¸ķ":5638,"à¸¡à¸ªà¸£":5639,"à¹Ģà¸Ĥà¸ķà¸£":5640,"à¸łà¸²à¸ľ":5641,"à¸°à¹Ģà¸¢":5642,"à¹Ĥà¸¢à¸°":5643,"à¸ļà¸ŀà¸£à¸£à¸Ħ":5644,"à¸Ĺà¸Ĭ":5645,"à¸§à¸ĩà¸Ķà¸Ļà¸ķà¸£":5646,"à¹ģà¸Ļà¸§à¸£":5647,"à¸ĩà¸Ľà¸£à¸²à¸ģà¸ı":5648,"à¸Ĺà¸Ńà¸Ķ":5649,"à¸įà¸£":5650,"à¸ĩà¸Ħà¸¡à¸Ĺ":5651,"à¹ĥà¸Ļà¸Ľà¸£à¸°à¹Ģà¸Ĺà¸¨à¸į":5652,"à¸ĩà¸²à¸Ļà¸Ľà¸£à¸°":5653,"à¸Ńà¸ĩà¹Ģà¸ķ":5654,"à¸¢à¸Ļà¸ŀ":5655,"à¸Ļà¸£à¸²à¸¢":5656,"à¸Ļà¹Ģà¸Ľà¸¥":5657,"à¸Īà¸Ĥà¸Ńà¸ĩ":5658,"à¸Ĺà¸²à¸ĩà¹Ģà¸Ķ":5659,"à¹Ģà¸Ĺà¸Ļà¹Ģà¸¡à¸Ļà¸ķ":5660,"à¸Ńà¸ĩà¸ķà¸²à¸¡":5661,"à¸²à¸Ĺà¸³à¸ĩà¸²à¸Ļ":5662,"à¸²à¸Ļà¹ģà¸¥à¸°":5663,"à¸²à¸Ķà¸§":5664,"à¸²à¸ĩà¸£à¸°à¸«à¸§":5665,"à¹Ģà¸Ļà¸£":5666,"à¹Ģà¸§à¸¥à¸²à¸ķ":5667,"Ġà¸ªà¸²à¸Ĥà¸²":5668,"à¸¢à¸Ńà¸ĩ":5669,"à¸ģà¹ĥà¸Ī":5670,"à¸ģà¸£à¸°à¹Ĥà¸Ķ":5671,"Ġà¹ĥà¸Ļà¸ģà¸²à¸£à¹ģà¸Ĥ":5672,"yl":5673,"à¸¡à¹Ģà¸¡à¸Ńà¸£":5674,"à¸ªà¸ĩ":5675,"à¸ķà¸ļà¸Ńà¸¥à¸Ĭ":5676,"Ġ2517":5677,"à¸¨à¸§à¸ģà¸£à¸£à¸¡à¸¨à¸²à¸ªà¸ķà¸£":5678,"à¸Ļà¸ķà¸Ļ":5679,"ST":5680,"à¸¥à¸Ī":5681,"à¸ļà¸Ļà¸ŀ":5682,"à¸ļà¸ģà¸²à¸£à¸¢à¸ģà¸¢":5683,"à¸£à¸©à¸Ĳ":5684,"à¸ģà¹ģà¸ģ":5685,"à¸¡à¹ģà¸Ĥ":5686,"à¸§à¹Ģà¸ģ":5687,"=\"":5688,"à¸§à¸ĩà¹Ģà¸§à¸¥à¸²":5689,"à¸ĩà¹ĥà¸Ļà¸Ĺ":5690,"Ġch":5691,"à¸Ķà¸Ķà¸²":5692,"à¹Ģà¸£à¹Ģà¸Ļ":5693,"à¹ĥà¸Ļà¹Ģà¸Ĭ":5694,"à¸ļà¸ªà¸²à¸¡":5695,"à¸Īà¸ŀà¸£à¸°à¸£à¸²à¸Ĭà¸²à¸ĺ":5696,"à¸ªà¸²à¸§à¸£":5697,"Ġà¸ĺà¸£à¸£à¸¡":5698,"à¸Ļà¹ģà¸Ĥ":5699,"à¸¡à¸ļà¸£":5700,"à¸įà¸Ĭà¸Ļà¸°":5701,"à¸ĩà¸ªà¸ĩà¸Ħà¸£à¸²à¸¡":5702,"à¸Ľà¸£à¸°à¸Ĭà¸²à¸ª":5703,"à¹ĥà¸Ļà¸ģà¸²à¸£à¹Ģà¸Ĥ":5704,"à¸Ħà¸¥à¸²à¸ªà¸ª":5705,"à¸§à¸ĩà¸¤à¸Ķ":5706,"à¸ĩà¸Ħà¸£à¸£à¸ł":5707,"BC":5708,"à¸Ķà¸ģà¸£à¸°à¸Ĺà¸£à¸§à¸ĩ":5709,"à¸ģà¸²à¸¥à¸Ļ":5710,"à¸Ļà¸łà¸²à¸©à¸²à¸Ń":5711,"à¹ģà¸¥à¸°à¸Ľà¸£":5712,"à¸ģà¸£à¸Ń":5713,"à¸ªà¸§à¸¡":5714,"33":5715,"à¸Ńà¸ĩà¹ĥà¸«à¸į":5716,"à¸Łà¹Ģà¸§à¸Ńà¸£":5717,"à¸Ńà¸ļà¸Ń":5718,"à¸Ľà¹ģà¸ļà¸ļà¸Ĺ":5719,"à¸§à¸Īà¸£":5720,"à¸²à¸ĩà¸ĩ":5721,"à¸įà¸Ń":5722,"ener":5723,"à¸«à¸¥à¸²à¸¢à¸Ħà¸Ļ":5724,"à¸Ńà¹Ĥà¸ķ":5725,"à¸§à¸¢à¹Ģà¸Ľ":5726,"à¸¡à¸«à¸²":5727,"à¸Ľà¸£à¸°à¸Ĭà¸²à¸Ĭà¸Ļà¸Ĺ":5728,"44":5729,"à¸ĩà¹Ģà¸Ħ":5730,"à¸Ĥà¸ĵà¸°à¸Ĺ":5731,"à¸§à¸¢à¸«":5732,"à¸ĩà¸«à¸¡à¸²à¸¢à¸ĸ":5733,"à¸Ńà¸Ĭà¸²à¸ķ":5734,"Ġà¹ĥà¸Ļà¹Ģà¸£":5735,"à¸ĩà¸¥à¸Ńà¸Ļà¸Ķà¸Ńà¸Ļ":5736,"à¸Ħà¸Ļà¸£":5737,"ium":5738,"à¸Ľà¸¥à¸ĩ":5739,"à¹Ĥà¸¡à¸ªà¸£à¸Ł":5740,"au":5741,"à¸Ħà¸Ļà¹Ĥà¸ķ":5742,"à¸įà¸įà¸²à¹Ģà¸Ńà¸ģ":5743,"à¸§à¸łà¸²à¸ŀ":5744,"à¹Ģà¸Ĥà¸²à¹Ħà¸Ł":5745,"à¸Ńà¸¡à¸²à¹ĥà¸Ļà¸§":5746,"à¸ľà¸¡":5747,"inal":5748,"à¹ģà¸ģà¸£à¸¡à¸¡":5749,"à¹Ģà¸Ļà¸°":5750,"à¸ĩà¹ĥà¸Ļà¸ľ":5751,"à¹Ĥà¸Łà¸£":5752,"à¸ĩà¹ģà¸ªà¸Ķà¸ĩ":5753,"à¸Ĺà¸³à¸ĩà¸²à¸Ļà¸Ĥà¸Ńà¸ĩ":5754,"ĠNew":5755,"à¸ģà¸²à¸£à¹Ģà¸Ĭ":5756,"à¸Ńà¸¢à¸¡à¸²à¸ģ":5757,"Ġà¸ªà¸ĸà¸²à¸Ļà¸Ĺ":5758,"ert":5759,"ĠCon":5760,"Ġ2520":5761,"à¸Ļà¸¢à¸²à¸§":5762,"à¸Īà¸įà¸ł":5763,"à¸¥à¸²à¸ģà¸²à¸£":5764,"à¸¢à¸Ļà¸Īà¸²à¸ģ":5765,"à¸¢à¸ĩà¸Ĭ":5766,"à¸²à¸Ńà¸²à¸§à¸²à¸ªà¸§":5767,"à¸§à¹Ģà¸ŀ":5768,"à¸Ĺà¸²à¸ĩà¸Ī":5769,"à¸Ķà¸²à¸§à¹Ģà¸Ħà¸£à¸²à¸°à¸«":5770,"à¸ļà¸ŀà¸£à¸°à¸£à¸²à¸Ĭà¸Ĺà¸²à¸Ļ":5771,"à¹Ģà¸Ĺà¸ŀà¹Ģà¸Ī":5772,"à¹Ģà¸ļà¸¨à¸£":5773,"à¸Īà¸ŀà¸£à¸°à¸Ľà¸£à¸¡":5774,"à¸Ħà¸§à¸²à¸¡à¹Ģà¸ģ":5775,"à¸²à¸Ľà¸£à¸°à¸ª":5776,"100":5777,"à¸¡à¸²à¸Ńà¸¢":5778,"Ġà¹Ģà¸Ķà¸§":5779,"à¸ģà¹Ģà¸ªà¸ļ":5780,"à¸Ļà¸²à¸£à¸²à¸¢à¸ĵ":5781,"77":5782,"à¸ļà¹Ģà¸Ĥà¸²":5783,"Ġà¸Ķà¸Ńà¸¥à¸¥à¸²à¸£":5784,"ode":5785,"à¸¹à¹ĭ":5786,"à¸Ĭà¸¡à¸ŀ":5787,"à¸Īà¸²à¸ģà¸£":5788,"à¹Ĥà¸¡à¸°":5789,"à¸Ħà¸§à¸²à¸¡à¸«à¸¡à¸²à¸¢à¸§":5790,"à¸Ļà¹ģà¸¥à¸Ļà¸Ķ":5791,"à¸Ĺà¸Ķà¸¥à¸Ńà¸ĩ":5792,"ron":5793,"à¸Ķà¸Ńà¸Ļ":5794,"à¸¢à¹ĥà¸Ī":5795,"à¸ļà¸Ħà¸§à¸²à¸¡à¸ª":5796,"RI":5797,"à¸¢à¸ĩà¹Ģà¸¥":5798,"Ġà¸Ľà¸²à¸ģ":5799,"à¸ĩà¹ģà¸®":5800,"à¹Ģà¸Ĺà¸ŀà¸£":5801,"à¸ļà¸£à¸£à¹Ģà¸¥":5802,"à¸§à¹ģà¸ķ":5803,"à¸ªà¸§à¸²à¸¡":5804,"à¸ļà¸ģà¸Ńà¸ĩà¸Ĺ":5805,"à¸Ļà¸¥à¸°":5806,"42":5807,"land":5808,"Ġà¸¡à¸²":5809,"à¸Īà¸ŀà¸£à¸°à¸Īà¸Ńà¸¡à¹Ģà¸ģà¸¥":5810,"Ġ1997":5811,"à¸Ļà¹Ģà¸«à¸Ļ":5812,"à¸Ĥà¸Ńà¸ĩà¸į":5813,"à¸Ńà¸ļà¸Ħà¸¥":5814,"Ġà¸Ńà¸²à¸¨":5815,"à¸©à¸Ĳà¸²à¸Ļ":5816,"à¸¢à¸ģà¸¥":5817,"à¸ļà¸²à¸Ļ":5818,"à¸ļà¸Ĭà¸²à¸§":5819,"à¸²à¸¡à¸²à¹Ģà¸Ľ":5820,"à¸ģà¹Ģà¸Ī":5821,"à¸§à¸ĩà¸Ĭ":5822,"à¸²à¸ĩà¸ģà¸Ńà¸ģ":5823,"ust":5824,"à¸²à¸¢à¹ģà¸¥à¸°":5825,"à¸ĵà¸ĺà¸£à¸£à¸¡":5826,"Ġà¸Ńà¸Ńà¸£":5827,"à¸Ĺà¸ĺà¸ģà¸²à¸£":5828,"à¸ļà¸ģà¸²à¸£à¹ģà¸ªà¸Ķà¸ĩà¹Ĥà¸Ķà¸¢":5829,"à¸«à¸¥à¸²à¸¢à¹ģà¸«":5830,"à¸Ĥà¸Ńà¸ĩà¹Ħà¸Ĺà¸¢":5831,"à¹Ĥà¸Ķà¸¢à¸ľ":5832,"à¸Ļà¸³à¸¡à¸²à¹ĥà¸Ĭ":5833,"à¸ªà¸§à¸Ļ":5834,"à¸Ļà¹Ĥà¸Ķà¸§à¸ª":5835,"Ġà¹Ĥà¸Ļà¸°":5836,"à¸ĩà¸²à¸Ļà¸Ĭ":5837,"à¸ģà¹ģà¸¥":5838,"à¸Ķà¸ģà¸£":5839,"à¸Ļà¸ķà¸²à¸ĭ":5840,"à¸Ĺà¸£à¸ĩà¸Īà¸³":5841,"à¸Ļà¸ŀà¸£à¸°à¸Ń":5842,"à¸Ļà¸ªà¸ķ":5843,"à¸§à¸£à¸§":5844,"à¸Ļà¹Ĥà¸Ħ":5845,"à¸Ľà¸ªà¸¡":5846,"à¸ĩà¸ģà¸²":5847,"à¸Ľà¸£à¸²à¸Ĭ":5848,"à¸²à¸ĩà¹Ģà¸ªà¸£":5849,"à¹ĥà¸Ļà¸ĸ":5850,"à¸ķà¸ķà¸²à¸Ļ":5851,"cl":5852,"à¹ī,":5853,"à¸Ńà¸ĩà¸Ĭà¸Ļà¸°à¹Ģà¸¥":5854,"à¸³à¹Ģà¸Ī":5855,"à¹ĥà¸Ļà¹Ĥà¸£à¸ĩà¹Ģà¸£":5856,"à¸³à¸Ľ":5857,"Ġà¹Ģà¸ŀà¸£à¸²à¸°à¸¡":5858,"uper":5859,"à¸Ķà¸Ĥà¸²à¸Ķ":5860,"à¸«à¸¥à¸²à¸¢à¸Ĭà¸Ļ":5861,"ĠEx":5862,"tor":5863,"à¸ĩà¸£à¸°à¸ļà¸ļ":5864,"à¸Ĥà¸Ńà¸ĩà¸Ļà¸²à¸¢":5865,"à¸Ļà¸ĸà¸Ļ":5866,"à¹ģà¸Ńà¸ķà¹ģà¸¥à¸Ļà¸ķ":5867,"à¸Ńà¸ĩà¸Ŀ":5868,"à¸ģà¸¥à¸²à¸ĩà¸Ħ":5869,"à¸²à¸Īà¸°à¸ķ":5870,"à¸§à¸Ļà¸ķà¸³à¸ļà¸¥":5871,"à¹ģà¸ľà¸¥":5872,"à¸Ńà¸ĩà¹Ģà¸¡":5873,"Ġà¹ģà¸¥à¸°à¸¨":5874,"à¸ģà¸ķà¸Ńà¹Ģà¸£":5875,"à¸ķà¸§à¸£à¸£à¸©":5876,"à¸ŀà¸£à¸°à¸ļà¸£à¸¡":5877,"à¸²à¸«à¸Ļà¸°":5878,"à¸£à¸£à¸¢à¸²à¸ģà¸²à¸¨":5879,"à¸²à¸ĩà¸Ħà¸¥":5880,"à¸ĵà¸§":5881,"à¸ŀà¸£à¸°à¸§":5882,"à¸Ļà¸Ĥà¸Ńà¸ĩà¸ķ":5883,"à¸Ĭà¸§":5884,"à¸¥à¸Ńà¸Ńà¸ªà¸ģà¸²à¸£":5885,"Ġà¸Ńà¸Ńà¸ģà¸Īà¸³à¸«à¸Ļ":5886,"Ġ1996":5887,"à¸Īà¸Ńà¸¡à¸ŀà¸¥":5888,"ma":5889,"à¸Ļà¸Ńà¸¥":5890,"à¸Ńà¸Ļà¸ľ":5891,"à¸ģà¸²à¸¡":5892,"à¸ģà¸Ķà¸Ķ":5893,"à¸Ħà¸³à¹ģà¸«":5894,"à¸ĩà¹Ħà¸Ľà¸¢":5895,"à¸Ļà¹ģà¸ŀ":5896,"ĠBe":5897,"à¹ĥà¸Ļà¸Ľà¸£à¸°":5898,"à¸Ħà¸§à¸²à¸¡à¸Ĺ":5899,"à¸Ļà¸Ĺà¸²à¸ĩà¹Ħà¸Ľà¸¢":5900,"à¸ĩà¸Ńà¸²à¸¢":5901,"à¸¥à¸²à¸Ī":5902,"à¸Ńà¸¡à¸²à¸Ī":5903,"Ġ75":5904,"à¸²à¸Ļà¸³":5905,"à¸ģà¸©à¸ĵà¸°à¹Ģà¸Ķ":5906,"ree":5907,"à¸Ļà¹Ĥà¸Ħà¸£à¸ĩà¸ģà¸²à¸£":5908,"Ġal":5909,"à¸ªà¸Ńà¸ĩà¸Ħ":5910,"à¸Ļà¸³à¹Ģà¸Ĥ":5911,"à¸¡à¸«à¸²à¸Ń":5912,"Ġà¸Ľà¸£à¸°à¸ĺ":5913,"à¸Ńà¸²à¸ĵà¸²à¹Ģà¸Ĥà¸ķà¸ķ":5914,"à¸²à¸¢à¹ĥà¸«":5915,"Ġà¸Īà¸°à¸ĸ":5916,"ire":5917,"à¸Ńà¸¢à¹ĥà¸«":5918,"SA":5919,"à¸¢à¹Ģà¸ģ":5920,"à¸ķà¸Ħ":5921,"à¸Ĥà¸Ńà¸ĩà¹Ģà¸ª":5922,"à¸Īà¸°à¹Ģà¸¥":5923,"à¸ªà¸¡à¸Ħà¸§à¸£":5924,"à¸Ķà¸£à¸ĺà¸²à¸Ļ":5925,"à¸Ńà¸¡à¸§à¸¥":5926,"ĠYou":5927,"ton":5928,"à¸³à¹ģà¸ŀ":5929,"à¸²à¸§à¸Ķà¸²à¸£":5930,"à¸Ĭà¸²à¸¢à¹ģà¸Ķ":5931,"à¸ļà¹ģà¸£à¸ģ":5932,"à¹ĥà¸Ļà¹Ģà¸§à¸¥à¸²":5933,"à¸Ńà¸ģà¸³à¹Ģà¸Ļ":5934,"à¸«à¸¡à¸²à¸¢à¹ĥà¸«":5935,"32":5936,"Ġà¸£à¸²à¸Ĭà¸§à¸ĩà¸¨":5937,"à¸²à¸¢à¸¥":5938,"à¹ĥà¸Ķà¸Ĺ":5939,"à¸²à¸¢à¸Ńà¸¢":5940,"Ġ2500":5941,"à¸ģà¸£à¸£à¸¡à¸²à¸ĺ":5942,"à¸ŀà¸¥à¸Īà¸²à¸ģ":5943,"à¸ªà¸ªà¸²à¸§à¸°":5944,"à¸²à¸ªà¸²à¸£à¸Ħà¸²à¸¡":5945,"à¸ĩà¹Ģà¸ĭ":5946,"à¸²à¸Ļà¸ĺ":5947,"à¸²à¸Ľà¸£à¸°à¸Ĭ":5948,"à¸²à¸Ĺà¸³à¹ĥà¸«":5949,"à¸Ĺà¸²à¸ĩà¸ªà¸ĸà¸²à¸Ļ":5950,"Ġà¹Ĵ":5951,"à¸²à¸¡à¸°":5952,"Ġà¸ģà¸ģ":5953,"à¹Ģà¸©à¸ģ":5954,"à¸Ńà¸ĩà¸£à¸²à¸Ĭà¸Ń":5955,"à¸¡à¸«à¸£":5956,"à¸Ľà¹Ģà¸Ńà¹Ģà¸Ĭ":5957,"à¸³à¹Ĥà¸Ĥ":5958,"à¸Ļà¸Ĺà¸£à¸§":5959,"Ġ<":5960,"à¸Ĺà¸£à¸£":5961,"à¸ķà¸²à¸¡à¸¥à¸³à¸Ķ":5962,"Ġ2515":5963,"Ġà¹ĥà¸Ļà¸ªà¸«à¸£":5964,"à¸Ĥà¸Ńà¸ĩà¸Ľà¸£à¸°à¹Ģà¸Ĺà¸¨à¹Ħà¸Ĺà¸¢":5965,"à¸¨à¸§à¸ģà¸£":5966,"à¸Ľà¸£à¸°à¸Īà¸³à¸§":5967,"à¸Ķà¸®":5968,"à¸ģà¸¥à¸²à¸¢à¸¡à¸²à¹Ģà¸Ľ":5969,"ick":5970,"ise":5971,"Ġ240":5972,"à¸łà¸²à¸Ħà¸ķ":5973,"Ġà¹Ģà¸ģà¸¡":5974,"à¹Ĥà¸ģà¸£à¸ĺ":5975,"à¸Ħà¸§à¸²à¸¡à¹Ħà¸¡":5976,"Ġà¹ģà¸Ńà¸Ļà¸Ķ":5977,"à¹Ĥà¸£à¸ĩà¸ĩà¸²à¸Ļ":5978,"à¹Ģà¸Ńà¸ģà¸¥":5979,"ĠUniversity":5980,"duc":5981,"à¸Ĺà¸Ń":5982,"Ġà¹ģà¸¥à¸°à¸ļà¸£":5983,"à¹ĥà¸Ļà¸ģà¸²à¸£à¹ĥà¸Ĭ":5984,"à¸Ļà¸Ľà¸£à¸°à¸ĸà¸¡à¸¨":5985,"à¹ģà¸Ļà¸§à¸Ĺà¸²à¸ĩ":5986,"Ġà¸Ľà¸£à¸²à¸ģà¸ı":5987,"à¸Ķà¸łà¸²à¸©":5988,"à¹ĥà¸Ļà¸ķà¸¥à¸²à¸Ķ":5989,"à¸°à¸ļ":5990,"à¸ªà¸¥à¸°":5991,"Ġà¸ļà¸¥":5992,"ition":5993,"à¸ģà¸ļà¸§à¸Ĭ":5994,"à¸įà¸²à¸ģà¸£à¸£à¸¡":5995,"à¸ļà¸£à¸Ń":5996,"à¸ĩà¸Ħà¸§à¸²à¸¡à¸£":5997,"à¹Ģà¸§à¸¥à¸²à¸Ļ":5998,"à¹Ĥà¸£à¸ĩà¸łà¸²à¸ŀà¸¢à¸Ļà¸ķà¸£":5999,"form":6000,"ys":6001,"ĠLove":6002,"!\"":6003,"à¸Ļà¸²à¸Ħà¸²à¸£":6004,"à¹Ģà¸¡à¸Ĺ":6005,"à¸§à¸¡à¹Ģà¸Ľ":6006,"à¸«à¸²à¸£à¸Ī":6007,"à¹Ĥà¸Ńà¸ĭ":6008,"à¹Ĥà¸Ľà¸£à¹Ĥà¸¡":6009,"Ġà¸ģà¸£à¸°à¸Ĺà¸£à¸§à¸ĩà¸¨":6010,"à¸ľà¸ªà¸¡à¸ŀ":6011,"à¹Ĥà¸ĺ":6012,"ater":6013,"à¸²à¸¢à¹ĥà¸Ļà¸§":6014,"à¸²à¸¡à¸²à¸ķ":6015,"à¹Ģà¸Ķà¸Ń":6016,"à¹Ģà¸§à¸ªà¸ķ":6017,"à¸²à¸ĩà¸łà¸²à¸ŀ":6018,"à¸²à¸ªà¸³à¸«à¸£":6019,"à¹Ģà¸Īà¸Ļà¸ķ":6020,"à¸¥à¸Ľà¸§":6021,"79":6022,"à¸ĩà¸Ľà¸£à¸°à¸ĺà¸²à¸Ļà¸²à¸ĺ":6023,"Ġà¸ŀà¸£à¸°à¸Ń":6024,"Ġà¸Īà¸²à¸ģà¸¡à¸«à¸²à¸§":6025,"ĠMan":6026,"à¸Ļà¸Ĺà¸£à¸¡à¸«à¸²à¸ł":6027,"à¸¢à¸Ħà¸£":6028,"à¸ģà¸©à¸²à¹Ĥà¸£à¸Ħ":6029,"Ġ2521":6030,"à¸Ħà¸£à¸Ńà¸ļà¸Ħà¸£à¸Ńà¸ĩ":6031,"à¸²à¹Ģà¸®à¸Ļà¸£":6032,"à¸Īà¸Ń":6033,"à¸Ńà¸Ńà¸ģà¸Īà¸³à¸«à¸Ļ":6034,"Ġà¹Ģà¸Ńà¸ª":6035,"à¹ģà¸Łà¸£":6036,"à¸£à¸£à¸¢à¸²à¸Ĥà¸Ńà¸ĩ":6037,"à¸§à¸Ńà¸¥à¹Ģà¸¥à¸¢":6038,"à¸³à¸¢":6039,"à¸¢à¸¡à¸Ńà¸¢":6040,"Ġan":6041,"ĠOr":6042,"à¹ĥà¸Ļà¸Ńà¸Ļà¸²à¸Ħà¸ķ":6043,"Ġà¸Ľà¸£à¸°à¹Ģà¸Ĺà¸¨à¹Ħà¸Ĺà¸¢":6044,"à¸Ńà¸¢à¸Ľ":6045,"à¸Ńà¹Ĥà¸£à¸Ħ":6046,"à¸ģà¸²à¸£à¸ľ":6047,"à¸§à¸ĩà¸£":6048,"à¸Ĺà¸²à¸ĩà¸ŀ":6049,"à¸¥à¸°à¹Ģà¸¡":6050,"à¸Ńà¸Ĺà¸£à¸ĩ":6051,"à¸§à¸Ńà¸¥":6052,"à¹Ĥà¸ļà¸£à¸²à¸ĵà¸Ħà¸Ķ":6053,"à¹ĳ":6054,"à¸Ļà¸Ħà¸ĵà¸°":6055,"à¸Īà¸³à¸ŀà¸§à¸ģ":6056,"Ġà¹ĥà¸Ļà¸¤à¸Ķ":6057,"à¸īà¸¥":6058,"à¸Ĵà¸Ļà¸²à¸¡":6059,"à¸ģà¸Ļà¸³à¸¡à¸²à¹ĥà¸Ĭ":6060,"à¸ģà¸Īà¸°à¹Ģà¸Ľ":6061,"Ġà¹ģà¸¥à¸°à¹Ģà¸ģ":6062,"à¸ĩà¸ªà¸³à¸«à¸£":6063,"Ġà¸ģà¸²à¸£à¹ģà¸Ĥ":6064,"à¸ģà¹Ģà¸ĸ":6065,"à¸¡à¸²à¸£à¸Ķà¸²à¸Ĥà¸Ńà¸ĩ":6066,"Ġà¹Ģà¸§à¸¥":6067,"à¸Ńà¹Ģà¸ªà¸Ļà¸Ń":6068,"à¸ĩà¸ģà¸¥à¸²à¸¢à¹Ģà¸Ľ":6069,"à¸²à¸Ľà¸£à¸°à¸ķ":6070,"à¹ĥà¸Ļà¸łà¸²à¸©à¸²à¸Ń":6071,"section":6072,"à¸¸à¹ĭ":6073,"à¸įà¸«à¸²à¸ģà¸²à¸£":6074,"à¸Ļà¸ªà¸ĸà¸²à¸ļ":6075,"Ġà¸ģà¸²à¸£à¸ŀ":6076,"à¸ģà¸²à¸£à¸¡":6077,"à¸Ļà¹Ĥà¸Ĺ":6078,"à¹ģà¸Ĺà¸Ļà¸£à¸²à¸©à¸İà¸£à¸Ī":6079,"à¸²à¹Ģà¸¢":6080,"à¸§à¹Ģà¸ķ":6081,"à¸²à¸ĩà¸ªà¸²à¸§":6082,"à¸ĩà¹ģà¸£à¸ģà¹ĥà¸Ļ":6083,"Ġà¹Ģà¸¢à¸Ńà¸£":6084,"AN":6085,"à¸Ļà¹Ħà¸£":6086,"à¸ĩà¹Ģà¸Ħà¸¢":6087,"Ġà¸ªà¸ĸ":6088,"à¸§à¸Īà¸²à¸ģ":6089,"à¸Ķà¸Ńà¸³à¸Ļà¸²à¸Ī":6090,"à¹ģà¸Ńà¸Ľ":6091,"à¸Ĭà¸Ļà¸ģ":6092,"à¸§à¸¡à¹ģà¸ªà¸Ķà¸ĩ":6093,"à¸²à¸ªà¸ģ":6094,"Ġà¸Ĺà¸³à¸«à¸Ļ":6095,"à¸²à¹Ģà¸ĩ":6096,"à¸²à¸¢à¹Ģà¸ŀà¸¥à¸ĩ":6097,"à¸įà¸«à¸Ļ":6098,"à¹Ģà¸§à¸Ĺà¸¡à¸Ļà¸ķà¸£":6099,"à¸§à¸ķà¸£":6100,"à¸Ļà¸£à¸Ńà¸ĩ":6101,"Ġà¹ģà¸¥à¸°à¹Ģà¸ŀà¸¥à¸ĩ":6102,"à¸Ĺà¸²à¸ĩà¸Ĺà¸«à¸²à¸£":6103,"irl":6104,"à¹Ģà¸ĭà¸Ļà¸Ńà¸¥":6105,"à¸Ħà¸Ļà¸ª":6106,"à¸§à¸¢à¹Ħà¸¡":6107,"à¸Ļà¸¡à¸Ļ":6108,"mp":6109,"à¸¡à¹Ĥ":6110,"à¸ķà¸ŀ":6111,"à¸ģà¸©à¸²à¸ģ":6112,"à¸Ľà¸£à¸°à¹Ģà¸Ĺà¸¨à¸Ī":6113,"à¸Ļà¹Ģà¸ŀà¸¥à¸ĩà¸Ĺ":6114,"à¸²à¸Ĩ":6115,"à¹Ħà¸Ĺà¸¢à¸¥":6116,"ts":6117,"à¸ŀà¸£à¸°à¸Ī":6118,"Ġà¸Īà¸Ńà¸¡":6119,"à¸Ļà¸ŀà¸£à¸£à¸Ħ":6120,"Ġ1992":6121,"78":6122,"à¸ģà¸²à¸£à¸ļà¸Ķ":6123,"eng":6124,"Ġà¹Ĥà¸Ķà¸¢à¸Ĭ":6125,"à¸Ńà¸Ńà¸ģà¸¡à¸²à¹Ħà¸Ķ":6126,"34":6127,"à¸§à¹ĥà¸Ļ":6128,"à¸¡à¹Ħà¸Ľ":6129,"à¸Ķà¸ªà¸³à¸Ļ":6130,"à¸Īà¸°à¸Ħ":6131,"à¸§à¸¥à¸°à¸Ħà¸£à¸Ĺ":6132,"co":6133,"à¸ĩà¹ĥà¸Ļà¸ªà¸¡":6134,"Ġà¹ģà¸¥à¸°à¹Ģà¸ª":6135,"Ġà¸¡à¸Ļ":6136,"à¸¡à¸Ĺà¸«à¸²à¸£":6137,"à¹Ģà¸Łà¸¥":6138,"à¹Ħà¸Ńà¸Ļ":6139,"à¸ģà¸²à¸£à¸ģà¸¥":6140,"à¸³à¹ĥà¸«":6141,"à¸²à¸§à¸«":6142,"Ġà¸ģà¸²à¸£à¸Ħ":6143,"à¸ģà¸Ĩ":6144,"à¸²à¸Ļà¸ģà¸¥à¸²à¸ĩ":6145,"à¸ģà¸£à¸Ľà¸ģà¸Ħà¸£à¸Ńà¸ĩà¸ª":6146,"à¸Ĥà¸Ńà¸ĩà¸ģà¸Ńà¸ĩà¸Ĺ":6147,"à¸¢à¸ĩà¸ŀà¸Ń":6148,"Ġ120":6149,"à¸ľà¸ªà¸¡à¸ľ":6150,"65":6151,"à¸¡à¸²à¸ĭ":6152,"à¸¢à¸«à¸Ļ":6153,"à¸ģà¸²à¸£à¹ģà¸ģ":6154,"à¸²à¸¢à¸ļ":6155,"à¸²à¸Īà¸³à¸Ļà¸§":6156,"Ġsp":6157,"à¸§à¸ĩà¹Ģà¸§à¸¥à¸²à¸Ĺ":6158,"à¹Ģà¸ĵà¸£":6159,"Ġà¹Ħà¸Ľà¸¢":6160,"Ġà¹Ĥà¸Ħà¸¥":6161,"à¸ģà¸©à¸²à¸ķà¸Ńà¸Ļà¸Ľà¸¥à¸²à¸¢":6162,"à¸ģà¸©à¸²à¸Īà¸²à¸ģà¹Ĥà¸£à¸ĩà¹Ģà¸£":6163,"à¸ªà¸Ńà¸Ķà¸Ħà¸¥":6164,"à¸ªà¹Ģà¸Ĺ":6165,"à¸ŀà¸ļà¹Ģà¸«":6166,"Ġà¸Ľà¸£à¸°à¹Ģà¸Ĺà¸¨à¸į":6167,"à¸ľà¸¥à¸ĩà¸²à¸Ļà¸Ĺ":6168,"Ġà¸Ńà¸³à¹Ģà¸łà¸Ńà¸ļ":6169,"à¹ģà¸ļà¸ļà¸Ń":6170,"à¸¥à¸Ĥ":6171,"à¸ļà¸Ĭà¸²à¸ķ":6172,"à¸Ńà¸Ķà¹Ģà¸¢":6173,"à¸ľà¸¥à¸ªà¸Ńà¸ĩà¸Ļ":6174,"à¸ĩà¸£à¸ĸ":6175,"à¸Ļà¹Ģà¸Ĺà¸Ħà¹Ĥà¸Ļà¹Ĥà¸¥à¸¢":6176,"Ġà¹ģà¸Ĺà¸Ļà¸Ĺ":6177,"à¸Ńà¸Ľà¸¥":6178,"Ġ39":6179,"à¹Ĥà¸Īà¹Ĥà¸ī":6180,"à¸ģà¸ŀà¸£":6181,"à¸¡à¸Ħà¸§à¸²à¸¡":6182,"à¸ĩà¸ªà¸Ńà¸ĩà¸Ħ":6183,"own":6184,"à¸ĭà¸²à¹Ģà¸ļà¸ĺ":6185,"à¸Ńà¸²à¸£à¸²à¸¡":6186,"à¸Ĳà¸²à¸Ļà¸ª":6187,"à¸ļà¸£à¸²à¸Ĭà¸ļ":6188,"à¸Ńà¸Ļà¸Īà¸²à¸ģ":6189,"à¹Ģà¸¡à¸Ļ":6190,"à¸Ĺà¸³à¸ģ":6191,"à¸¥à¹ģà¸«":6192,"à¸ľà¸Ļ":6193,"à¸Ńà¸Ļà¹Ģà¸£":6194,"ions":6195,"à¸ĩà¸ĩà¸²à¸Ļà¸Ĺ":6196,"à¸²à¸Ļà¸²":6197,"à¸Īà¸²à¸ģà¸ķ":6198,"à¸Ńà¸¡à¸²à¸Īà¸²à¸ģ":6199,"à¸Ļà¹Ħà¸Ľà¸Ĺ":6200,"à¹ģà¸ģà¸¥":6201,"Ġ34":6202,"ung":6203,"à¸§à¸£à¸£à¸ĵà¸ģà¸£à¸£à¸¡":6204,"à¸Ļà¸²à¸ĭ":6205,"à¸ĩà¸£à¸²à¸Ĭà¸Ńà¸²à¸ĵà¸²à¸Ī":6206,"Ġà¸Ħà¸£à¸Ńà¸ļà¸Ħà¸£":6207,"à¸¡à¸²à¸Ń":6208,"à¸¡à¸Ļà¸²à¸ĸ":6209,"ĠMusic":6210,"38":6211,"à¸ŀà¸£à¸°à¸£à¸²à¸Ĭà¸Ķà¸³à¸£":6212,"à¸ŀà¸£à¸°à¸Ļà¸Ħà¸£":6213,"à¸§à¸Ļà¸ģà¸¥à¸²à¸ĩ":6214,"à¸¥à¹ģà¸ģ":6215,"à¸ĩà¸²à¸Ļà¹Ģà¸Ĥ":6216,"ash":6217,"ER":6218,"à¸ªà¸²à¸ĺà¸²à¸£à¸ĵà¸°":6219,"à¸§à¸¢à¸Ī":6220,"à¸«à¸²à¸¢à¹ĥà¸Ī":6221,"à¸£à¸£à¸ŀà¸ª":6222,"à¸²à¸§à¹Ħà¸§":6223,"ual":6224,"à¸Ĥà¸Ńà¸ĩà¸ªà¸¡à¹Ģà¸Ķ":6225,"à¸²à¸Ĳ":6226,"à¸¡à¸ģà¸¥":6227,"à¸Ńà¸Ķà¸£":6228,"à¹ģà¸Ļà¸§à¹Ĥà¸Ļ":6229,"à¸ļà¸¥à¸ĩ":6230,"à¸įà¹Ģà¸Ľ":6231,"à¸ļà¸ªà¸¥à¸²à¸ģ":6232,"à¹Ģà¸ĺà¸Ńà¸¢":6233,"ystem":6234,"à¸ļà¸³à¸ļ":6235,"à¸Ļà¸ªà¸²à¹Ģà¸«à¸ķ":6236,"à¸Ļà¸ģà¸£à¸£à¸¡à¸ģà¸²à¸£":6237,"à¸²à¸ģà¸°":6238,"Ġà¹Ģà¸Ńà¸Ĭ":6239,"ook":6240,"à¸ĩà¸£à¸°à¹Ģà¸ļ":6241,"à¸Ńà¸ĩà¹ģà¸«":6242,"Ġà¸¡à¸¡":6243,"à¹Ĥà¸Ńà¹Ģà¸ģà¸¡":6244,"à¸Ķà¸Ļà¸Ħà¸£à¸£à¸²à¸Ĭà¸ª":6245,"à¸Īà¸³à¸Ļà¸§à¸Ļà¸«à¸Ļ":6246,"à¹Ģà¸¨à¸©à¸Ĺ":6247,"à¹Ģà¸©à¸ģà¸ªà¸¡à¸£à¸ª":6248,"à¸Ńà¸Ļà¹Ħà¸Ľ":6249,"Ġy":6250,"à¸Ńà¸ĩà¸Ľà¸£":6251,"à¸²à¸¢à¸ľ":6252,"à¹ģà¸Ľà¸¥à¸ģ":6253,"ohn":6254,"à¸įà¸§":6255,"à¸ģà¸£à¸²à¸Ļ":6256,"à¸Łà¸Ĺ":6257,"à¸Ļà¸Ļà¸²à¸Ħ":6258,"Ġà¸Ķà¸§à¸ĩ":6259,"Ġ2475":6260,"Ġ/>":6261,"à¹Ĥà¸Ħà¸Ļ":6262,"Ġà¸Ľà¸Ńà¸Ļà¸Ķ":6263,"à¸¢à¸§à¸ĩà¸¨":6264,"à¸²à¸ªà¹Ģà¸ģ":6265,"à¸Ńà¸ļà¸ļ":6266,"à¹ģà¸ªà¸Ķà¸ĩà¸Ńà¸Ńà¸ģ":6267,"à¸²à¸§à¸Ľ":6268,"à¸§à¸Ļà¹Ģà¸ģ":6269,"à¸ļà¸²à¸ĩà¸Ĭà¸Ļ":6270,"à¸ĩà¸ªà¸Ńà¸ĩà¸Ŀ":6271,"à¸¢à¸²à¸ļà¸²à¸¥":6272,"à¸Ļà¸Ĥà¸Ńà¸ĩà¸Ĺ":6273,"à¸Ĥà¸ĵà¸°à¸Ļ":6274,"à¸²à¸¢à¹ģà¸£à¸ĩ":6275,"à¸Ĥà¸Ńà¸ĩà¸®":6276,"Ġ37":6277,"à¹ĥà¸Ļà¸ļà¸£à¸£à¸Ķ":6278,"à¸¡à¹Ģà¸Ĭ":6279,"à¸įà¸¢":6280,"à¸Ńà¸¡à¸²à¸ĸ":6281,"à¸ŀà¸£à¸£à¸ĵà¸ļ":6282,"à¸¹à¹Ĭ":6283,"Ġà¸Ĥà¸Ńà¸ĩà¸Ĺ":6284,"ene":6285,"à¸²à¸ĩà¹Ħà¸ģà¸¥":6286,"à¸ĩà¸Ľà¸ı":6287,"à¸¥à¹ģà¸¥à¸°":6288,"à¸Ļà¸Ķà¸Ļà¸ķà¸£":6289,"Ġà¹Ĥà¸Ķà¸¢à¸ĸ":6290,"à¸²à¹Ĥà¸Ħ":6291,"à¸Ļà¸Ľà¸£à¸°à¹Ģà¸łà¸Ĺ":6292,"à¹Ģà¸ľà¸Ķ":6293,"à¸²à¸¥à¸²":6294,"à¸£à¸ĩà¸ģ":6295,"à¹Ģà¸§à¸¥à¸¥":6296,"Ġ400":6297,"à¸Ńà¸Īà¸²à¸ģà¸Ļ":6298,"à¸§à¸£à¸£à¸ĵà¸ł":6299,"AR":6300,"à¸²à¸ģà¸ª":6301,"à¸§à¸¢à¸¢":6302,"à¸²à¸¥à¸°à¸ķ":6303,"à¸Ńà¸Ļà¸ªà¸Ļ":6304,"Ġà¸Ńà¸²à¸ĵà¸²à¸Ī":6305,"à¸Ħà¸§à¸²à¸¡à¸ªà¸°à¸Ķà¸§à¸ģ":6306,"res":6307,"à¸²à¹ģà¸ľ":6308,"à¸ļà¹Ģà¸ŀà¸¥à¸ĩ":6309,"à¸Ľà¸Ĥà¸Ńà¸ĩ":6310,"Ġà¸Ńà¸²à¸ģà¸²à¸£":6311,"oci":6312,"à¸Ńà¸ģà¸³à¸«à¸Ļà¸Ķ":6313,"à¸«à¸¡à¸§à¸Ķ":6314,"à¸Ĺà¸ĺà¸¨à¸ķà¸§à¸£à¸£à¸©à¸Ĺ":6315,"Ġà¸Ĥà¸Ńà¸ĩà¹Ĥà¸¥à¸ģ":6316,"Ġà¸ŀà¸¥à¹Ģà¸Ńà¸ģ":6317,"sc":6318,"à¸¢à¹ĥà¸Ļ":6319,"à¸Ĳà¸ªà¸łà¸²":6320,"à¸¢à¸²à¸ĩà¸Ħ":6321,"à¸«à¸²à¸£à¸ĺ":6322,"à¹Ģà¸«à¸¥à¸§":6323,"à¹Į:":6324,"à¸Ńà¸ĩà¸ģà¸²à¸£à¸Ĺ":6325,"à¹ģà¸¥à¸°à¹Ģà¸ŀ":6326,"à¸Ľà¸£à¸°à¸ģà¸²à¸¨à¹ĥà¸«":6327,"à¸¡à¸ĩ":6328,"à¸°à¸Ĭ":6329,"à¹ģà¸¡à¸Ļà¸ķ":6330,"Ġà¹Ģà¸ļà¸Ńà¸£":6331,"à¸²à¸¢à¸Ľ":6332,"à¸īà¸¥à¸²à¸Ķ":6333,"à¸Ļà¹ģà¸Ķà¸Ļà¸Ĺ":6334,"à¸Ĺà¸²à¸ĩà¸ģà¸²à¸¢":6335,"à¸£à¸§à¸¡à¸ľà¸¥à¸ªà¸Ńà¸ĩà¸Ļ":6336,"à¸Ļà¹Ģà¸Ńà¸ģà¸¥":6337,"à¸Ĺà¸²à¸ĩà¹Ģà¸«à¸Ļ":6338,"Ġà¹Ģà¸ŀà¸£à¸²à¸°à¸§":6339,"à¸²à¸Ħà¸§à¸²à¸¡à¸£":6340,"à¸ģà¸²à¸Ĺ":6341,"à¸¡à¸ĵà¸ĳ":6342,"à¸§à¹ģà¸Ľà¸£":6343,"ĠRe":6344,"à¹ĥà¸Ļà¸ŀà¸£à¸°à¸ļà¸²à¸Ĺà¸ªà¸¡à¹Ģà¸Ķ":6345,"à¸Ħà¸ģà¸¥à¸²à¸ĩ":6346,"à¸ģà¸£à¸¢":6347,"Ġ2513":6348,"95":6349,"tit":6350,"à¸Ħà¸Ļà¹Ħà¸Ĺà¸¢":6351,"à¸Īà¸ŀà¸£à¸°à¹Ģà¸Ĺà¸ŀà¸£":6352,"à¸Ļà¸¨à¸£":6353,"à¸ķà¸ģà¹ģà¸ķ":6354,"à¸Ĺà¸°à¹Ģà¸¥à¸ªà¸²à¸ļ":6355,"ara":6356,"à¹ģà¸Ńà¸Ļà¹Ģà¸Īà¸¥":6357,"à¸Ńà¸¡à¸²à¸£":6358,"à¸¥à¸°à¸Ħ":6359,"à¸ĺà¸£à¸£à¸¡à¹Ģà¸Ļ":6360,"Ġor":6361,"à¸Ķà¸²à¸Ĺ":6362,"à¸Ńà¸ĩà¸«à¸£":6363,"Ġà¸ģà¸²à¸£à¸ģ":6364,"à¹ĥà¸Ļà¸Ħà¸£à¸Ńà¸ļà¸Ħà¸£":6365,"fer":6366,"à¸¢à¸§à¸¡":6367,"à¸Ķà¸¨à¸£":6368,"à¸Ńà¸¢à¸Ĥà¸Ńà¸ĩ":6369,"à¸Ħà¸²à¸Ķà¸§":6370,"à¸Ńà¸²à¸Ķ":6371,"à¸ĩà¸Ńà¸Ļ":6372,"à¸¥à¸²à¸ª":6373,"à¸¢à¸ĵ":6374,"à¸Ķà¹ģà¸ķ":6375,"à¹Ĥà¸ŀà¸£":6376,"à¸ģà¸©à¸²à¸¡":6377,"Ġà¹ģà¸£":6378,"à¸Ķà¸ļà¸£":6379,"à¸ļà¹Ģà¸Ĺ":6380,"à¹ģà¸¥à¸°à¸ĭ":6381,"à¸¢à¸ĩà¹Ĥà¸Ķà¸¢":6382,"Ġà¸Ĭà¸Ńà¸ļ":6383,"Ġà¹ģà¸Ķ":6384,"à¸Ĺà¸³à¸ĩà¸²à¸Ļà¹Ģà¸Ľ":6385,"Ġà¹ģà¸ļà¸£":6386,"à¸ģà¸£à¸°à¸ļà¸§à¸Ļ":6387,"áĥ":6388,"à¹Ģà¸Ļà¸ĭ":6389,"à¸ĩà¸Ľà¸£à¸°à¸¡à¸²à¸ĵ":6390,"à¸ĩà¹Ĥà¸ģ":6391,"à¸²à¸ĩà¹ĥà¸«à¸į":6392,"à¸ģà¸Ľà¸ı":6393,"à¸Ĺà¸£à¸ĩà¹Ħà¸Ķ":6394,"à¸ļà¸Ļà¹Ģà¸ģà¸²à¸°":6395,"à¸²à¸£à¸°à¸ļà¸ļ":6396,"à¸§à¸ĩà¸ªà¸ĩà¸Ħà¸£à¸²à¸¡à¹Ĥà¸¥à¸ģà¸Ħà¸£":6397,"ix":6398,"à¸¥à¹Ģà¸§":6399,"à¸²à¸ĭà¸²à¸£":6400,"ĠSchool":6401,"à¸Ķà¹ģà¸¥":6402,"à¸ŀà¸£à¸°à¸Ħà¸£":6403,"à¸¡à¸²à¸ģà¸£à¸£à¸¡":6404,"à¸ļà¸£à¸¡à¸£à¸²à¸Ĭà¸ģ":6405,"à¸ŀà¸£à¸°à¸¡à¸«":6406,"à¸ĩà¸Ķà¸Ļà¸ķà¸£":6407,"rap":6408,"à¸²à¹Ģà¸Ħà¸£":6409,"à¸§à¸Ļà¸¡":6410,"à¸ļà¸ŀà¸£à¸°à¹Ģà¸Ī":6411,"à¸Ĭà¸ª":6412,"à¸Ĥà¸Ńà¸ĩà¸Ŀ":6413,"à¸§à¸¢à¹Ģà¸ª":6414,"à¸Ĺà¸£à¸Ľà¸£à¸²à¸ģà¸²à¸£":6415,"à¸Ķà¸ģà¸²à¸£à¸ģ":6416,"Ġ1991":6417,"à¸ĩà¸Ĭà¸Ļ":6418,"à¸ģà¸²à¸£à¸Ħà¸¥":6419,"à¹Ģà¸¥à¸ķ":6420,"Ġ38":6421,"à¸ľà¸¥à¸ĩà¸²à¸Ļà¹Ģà¸ŀà¸¥à¸ĩ":6422,"à¸Ľà¸ªà¸¡à¸ļà¸Ĺ":6423,"à¸Ķà¹Ħà¸§":6424,"à¸Ĥà¸Ńà¸ĩà¹ģà¸ķ":6425,"Ġà¹ģà¸¥à¸°à¹ģà¸¡":6426,"à¸Ļà¸Ħà¸ĩ":6427,"à¸ľà¸¥à¸ĩà¸²à¸Ļà¸Ĥà¸Ńà¸ĩ":6428,"Ġà¹Ģà¸ŀà¸¥à¸ĩà¸Ļ":6429,"à¹ĥà¸Ļà¸ªà¸«à¸£à¸²à¸Ĭà¸Ńà¸²à¸ĵà¸²à¸Ī":6430,"Ġà¹Ĥà¸Ľ":6431,"à¸Ļà¹ĥà¸Ļà¸ªà¸¡":6432,"à¸ªà¸Ĭ":6433,"anc":6434,"Ġà¹Ģà¸¨à¸£à¸©à¸Ĳ":6435,"à¸Ńà¸ªà¹ģà¸Ńà¸Ļà¹Ģà¸Īà¸¥":6436,"à¸²à¸Ĥà¸Ńà¸ĩà¸Ĺ":6437,"Ġ1994":6438,"à¹Ģà¸Ńà¸Ļà¹Ģà¸ķà¸Ńà¸£":6439,"à¸ģà¸«à¸¡":6440,"à¹Ģà¸Īà¸¡à¸ª":6441,"Ġà¹Ĥà¸Ķà¸¢à¸§":6442,"à¸Ńà¸ªà¸Ļ":6443,"Ġ55":6444,"à¸Ľà¸ģà¸Ħà¸£à¸Ńà¸ĩà¸Ĺ":6445,"Ġà¸Ľà¸£à¸²à¸ģà¸ıà¸§":6446,"à¸²à¸¡à¸Ħà¸³à¹ģà¸«":6447,"à¸ĩà¸«à¸¡à¸Ķà¸Ĺ":6448,"à¸ĩà¸ªà¸«à¸£à¸²à¸Ĭà¸Ńà¸²à¸ĵà¸²à¸Ī":6449,"à¸ģà¸²à¸ķ":6450,"à¸²à¸¢à¹Ĥà¸Ķà¸¢":6451,"An":6452,"à¸¡à¹Ģà¸ģ":6453,"à¸¡à¸²à¸¨":6454,"à¸įà¹ģà¸«":6455,"Ġà¸Īà¸£":6456,"à¸¢à¸ĩà¹Ħà¸Ķ":6457,"à¸Ļà¸¡à¸²à¸ķ":6458,"à¸ŀà¸£à¸£à¸Ħà¸ģà¸²à¸£à¹Ģà¸¡":6459,"à¸Ńà¸²à¸«à¸£":6460,"à¸¢à¸²à¸Ĺ":6461,"à¸°à¹Ħà¸£":6462,"à¸²à¸¡à¸ª":6463,"Ġà¸¡à¸Ńà¸£":6464,"à¸²à¹Ĥà¸ĭ":6465,"Ġà¸«à¸§":6466,"à¸ļà¸Ħà¸³à¸§":6467,"à¸ģà¸łà¸²à¸ŀ":6468,"à¸§à¸¡à¸ķ":6469,"à¸ĩà¸ŀà¸£à¸°à¸Ńà¸ĩà¸Ħ":6470,"Ġà¹ģà¸¥à¸°à¸Ńà¸Ķ":6471,"à¸Īà¸²à¸ģà¸Ĥ":6472,"à¸£à¸²à¸Ĭà¸ŀ":6473,"à¸Ļà¸Ńà¸²à¸§":6474,"ina":6475,"à¸¥à¸¢à¹Ģà¸Ķ":6476,"Ġà¸ªà¹Ģà¸ķ":6477,"à¹Ģà¸§à¸¨":6478,"Ġà¹Ĥà¸¢":6479,"à¸ªà¸²à¸¡à¸²à¸£à¸ĸà¸Ĺ":6480,"à¸Ļà¸Ĺà¸²à¸ĩà¸Ķ":6481,"à¸¬à¸²à¸Ĺ":6482,"à¸Ļà¹ĥà¸Ļà¹Ģà¸Ķ":6483,"Ġà¸ļà¸£à¸¡à¸Ļà¸²à¸ĸ":6484,"à¹ģà¸¥à¸°à¹Ģà¸¡":6485,"à¸Ķà¸²à¸§à¸¤à¸ģà¸©":6486,"Ġà¸ģà¸£à¸¡à¸«à¸¥à¸§à¸ĩ":6487,"à¸²à¹Ģà¸Ħ":6488,"Ġà¹ģà¸¥à¸°à¹Ģà¸¥":6489,"à¸Ļà¸ķà¸¥à¸Ńà¸Ķ":6490,"à¸Ļà¸Ľà¸ģà¸ķ":6491,"à¹Ĥà¸¡à¸ļ":6492,"à¸¨à¸Īà¸£à¸£à¸¢":6493,"à¸³à¸Ĥ":6494,"les":6495,"à¸²à¸ĩà¹Ģà¸ľ":6496,"à¸Ńà¸Ļà¹Ģà¸Ĥ":6497,"à¹Ģà¸ĺà¸Ńà¸ķ":6498,"à¸ļà¸Ħà¸§à¸²à¸¡à¹Ģà¸ª":6499,"à¹ĥà¸Ļà¸Ħà¸ĵà¸°":6500,"à¸Ńà¸ĩà¸£à¸²à¸§à¸Ĥà¸Ńà¸ĩ":6501,"à¸Ńà¹ĥà¸Ī":6502,"Ġà¹Ĥà¸Ķà¸¢à¸Īà¸°":6503,"Ġà¹ĥà¸Ļà¸ģà¸£à¸ĵ":6504,"à¸²à¹Ģà¸Ľà¸¥":6505,"à¸Ļà¸²à¸Ļà¸Ĺ":6506,"Ġ2512":6507,"\".":6508,"76":6509,"à¸ĩà¸ī":6510,"à¸ļà¸Ľà¸£à¸°":6511,"à¸ŀà¸Ī":6512,"à¸Ńà¸ļà¸£à¸¡":6513,"à¸Ķà¸¡à¸ªà¸¡à¸ļ":6514,"ank":6515,"Ġ48":6516,"Ġà¸ļà¸£à¸¡à¸Ļà¸²à¸ĸà¸ļà¸ŀ":6517,"à¸¡à¸²à¸Ī":6518,"à¸²à¸ģà¸£à¸£":6519,"à¸ĸà¸Ńà¸Ķ":6520,"à¹ĥà¸Ļà¸ªà¸²à¸Ĥ":6521,"à¸ĩà¸²à¸Ļà¸ľ":6522,"à¸§à¸Ļà¸Ķ":6523,"à¸¡à¸²à¹Ģà¸ŀ":6524,"à¸§à¸Ļà¸¥":6525,"à¸ĩà¸¡à¸«":6526,"ĠCol":6527,"à¹Ģà¸©à¸ģà¸ªà¸¡à¸£à¸ªà¸ģ":6528,"à¸§à¸¢à¸¥":6529,"Ġà¸ģà¸²à¸£à¸§":6530,"Ġà¸ģà¸²à¸£à¹Ģà¸¥":6531,"à¸¡à¹Ģà¸Ĺ":6532,"à¸Ĥà¸Ńà¸ĩà¸¡à¸«à¸²à¸§":6533,"à¸Ļà¸ŀà¸£à¸°à¸Ĺ":6534,"à¸ĩà¸ģà¸¥à¸²à¸ĩ":6535,"à¸Ńà¸Ķà¸Ńà¸¥":6536,"71":6537,"à¸Ļà¸¢à¸Ńà¸¡":6538,"à¸ļà¸²à¸¢à¸§":6539,"Ġà¹ģà¸Ĥà¸§à¸ĩ":6540,"AT":6541,"à¸Ńà¹ĥà¸«à¸¡":6542,"à¹ĥà¸Ļà¸Ĥà¸Ńà¸ĩ":6543,"à¹Ģà¸£à¸Ļ":6544,"Ġà¹ģà¸¥à¸°à¸Ńà¸¢":6545,"à¸ĩà¸§à¸¥":6546,"Ġà¹Ģà¸ĺà¸Ńà¹Ģà¸Ľ":6547,"à¸²à¸¢à¹Ħà¸Ľà¸Ńà¸¢":6548,"à¸ļà¹Ģà¸Ĥà¸ķ":6549,"à¸ĵà¸¢":6550,"à¹Ħà¸¡à¹Ĥà¸Ħà¸£":6551,"ata":6552,"à¸²à¸Ľà¸£à¸°à¸Ĺ":6553,"à¹ģà¸ªà¸Ķà¸ĩà¸Ħ":6554,"à¸¡à¸«à¸¥":6555,"à¸Ķà¹Ģà¸ļ":6556,"à¸ªà¸²à¸¢à¸ŀ":6557,"à¸Īà¸²à¸ģà¸ľ":6558,"Ġà¸§à¸£":6559,"à¸ĩà¸ķà¸³à¹ģà¸«à¸Ļ":6560,"orn":6561,"à¸Ħà¸ĵà¸°à¸§":6562,"Ġ1945":6563,"à¸¡à¸²à¸ŀ":6564,"à¸²à¸ªà¸Ļà¸§":6565,"à¸Ńà¸ªà¸ģ":6566,"à¸Ļà¸³à¹Ĥà¸Ķà¸¢":6567,"à¸łà¸²à¸Ħà¸§":6568,"à¸Ļà¹ĥà¸Ļà¸¢":6569,"à¸¢à¹Ĥà¸ļà¸£à¸²à¸ĵ":6570,"à¸Ķà¹Ģà¸«à¸¥":6571,"à¹ģà¸ļà¸¥":6572,"à¸įà¸ĺà¸£à¸£à¸¡":6573,"à¸Ļà¸£à¸²à¸ĺ":6574,"à¸Ĺà¸£à¸ĩà¸ķ":6575,"à¸īà¸²à¸¢à¸²à¸§":6576,"à¸ģà¹ģà¸ļà¸ļ":6577,"à¸Ħà¸ªà¸¡":6578,"à¹Ħà¸Ľà¸Īà¸Ļà¸ĸ":6579,"à¸ĩà¸ķà¸°":6580,"à¹Ħà¸Łà¸Ĺ":6581,"à¸Ļà¸Īà¸°à¸ĸ":6582,"à¹ģà¸Łà¸Ļà¸ķà¸²à¸ĭ":6583,"à¸¥à¸¢à¹Ģà¸Ķà¸Ĭà¸¡":6584,"à¸Ĭà¸²à¸Ļ":6585,"à¹ģà¸¥à¸°à¸¨":6586,"à¸Ĳà¸ļ":6587,"à¸ªà¸²à¸¡à¸²à¸£à¸ĸà¸ª":6588,"à¹ģà¸Ħà¸ļ":6589,"à¸Ńà¸Łà¸Ĺ":6590,"à¸¡à¸¡à¸²à¸ģà¸Ĥ":6591,"à¸Ķà¸ĩà¸²à¸Ļ":6592,"à¸Ħà¸³à¹ģà¸Ļà¸°à¸Ļà¸³":6593,"Ġà¸Į":6594,"à¸Ńà¹ģà¸¥":6595,"à¸Ļà¸ŀà¸£à¸°à¹Ĥà¸Ńà¸£à¸ª":6596,"ho":6597,"à¸¡à¸Ĺà¸£":6598,"à¸²à¸ĩà¹Ģà¸¥":6599,"à¸Ĥà¸Ńà¸ĩà¸ģà¸£":6600,"à¸Ńà¸¡à¸²à¸Ħ":6601,"à¸²à¹Ħà¸Ľà¸¢":6602,"à¸ªà¸²à¸¡à¹Ģà¸«à¸¥":6603,"à¸ģà¸ĩà¸²à¸Ļà¹ĥà¸«à¸į":6604,"à¸Īà¸°à¹Ģà¸Ľà¸¥":6605,"int":6606,"à¹Ħà¸Ĺà¸¡":6607,"Ġà¸Ľà¸£à¸°à¸ģà¸Ńà¸ļà¸ģ":6608,"à¸Ļà¹ĥà¸ķ":6609,"à¸Ńà¹Ģà¸«à¸¥":6610,"à¸Ĺà¸ĺà¸ģà¸²à¸£à¸Ĺ":6611,"ĠMe":6612,"à¸Ļà¹ģà¸¥à¸°à¸¡":6613,"à¸¢à¹ĥà¸Ļà¸Ľ":6614,"Ġà¹ģà¸¥à¸°à¸Ļà¸²à¸¢":6615,"à¸Ńà¸ķà¸ª":6616,"à¸¥à¸²à¸¢à¸Ľ":6617,"Ġà¹Ģà¸Ńà¹Ģà¸Ĭ":6618,"à¹ģà¸Łà¸Ĭ":6619,"à¹Į(":6620,"enter":6621,"à¸ģà¸²à¸£à¸Ĺà¸Ķà¸ªà¸Ńà¸ļ":6622,"Ġ2514":6623,"à¸²à¸Ļà¸ļà¸£":6624,"Ġx":6625,"à¸ģà¸§à¸ĩ":6626,"à¸ªà¸ģà¸²à¸£":6627,"à¸ģà¸©à¸²à¸Ńà¸¢":6628,"Ġà¹Ĥà¸Ķà¸¢à¹ģà¸ļ":6629,"ane":6630,"à¸ķà¹ĥà¸Ļà¸Ľ":6631,"à¸Ĥà¸Ļà¸¡":6632,"à¸Ńà¸¢à¸Ń":6633,"à¸Ħà¸§à¸²à¸¡à¸¢":6634,"Ġà¹Ĥà¸Ķà¸¢à¸¢":6635,"ĠCO":6636,"à¸ļà¸Ļà¸²à¸Ļà¸²à¸Ĭà¸²à¸ķ":6637,"à¸ķà¸£à¸ĩà¸ģà¸¥à¸²à¸ĩ":6638,"Ġac":6639,"à¸Ńà¸Ńà¸ģà¸¡à¸²à¹Ģà¸Ľ":6640,"83":6641,"Ġà¹ģà¸¥à¸°à¹Ģà¸Ľà¸¥":6642,"à¸Īà¸²à¸£à¸ĵà¸²":6643,"à¸Ńà¸Ħà¸¥":6644,"à¸Ħà¸§à¸²à¸¡à¸ªà¸³à¹Ģà¸£":6645,"à¸ĩà¸Ĥà¸Ńà¸ĩà¸Ĺ":6646,"à¹ĥà¸Ļà¸ļà¸²à¸ĩ":6647,"53":6648,"66":6649,"Ġ42":6650,"ors":6651,"à¸²à¹Ĥà¸Ħà¸£":6652,"à¸Ĥà¸Ńà¸ĩà¹ģà¸¡":6653,"à¸Ļà¸Ńà¹Ģà¸¡à¸£":6654,"ins":6655,"Ġà¸«à¸¢":6656,"à¸Ľà¸£à¸°à¸ģà¸²à¸¨à¸Ļ":6657,"à¸²à¸Ļà¹Ģà¸Ĭ":6658,"à¸²à¸ŀà¸£à¸°à¹Ģà¸Ī":6659,"à¸§à¸¥à¸ĩ":6660,"à¸²à¸Ħà¸³":6661,"à¸¢à¸ĩà¹ĥà¸«":6662,"à¸Ļà¸²à¸¡à¸ªà¸ģ":6663,"à¸²à¹Ĥà¸Ļ":6664,"à¹ĥà¸Ļà¸ķà¸£à¸°à¸ģ":6665,"à¹Ģà¸ŀà¸£à¸²à¸°à¸§":6666,"72":6667,"Ġà¹ģà¸«à¸¥":6668,"à¸ĩà¸Ļà¸²à¸¢à¸ģà¸£":6669,"à¸Ļà¸Ľà¸£à¸°à¸§":6670,"à¸¥à¸³à¸Ľà¸²à¸ĩ":6671,"Ġà¸Ĺà¸£à¸ĩà¸ŀà¸£à¸°à¸ģà¸£":6672,"à¸ļà¸Ľà¸§à¸Ķ":6673,"à¸ģà¸£à¸°à¸Ķà¸²à¸©":6674,"ake":6675,"à¸Ĥà¸Ńà¸ĩà¸«à¸Ļ":6676,"à¸Ļà¸Ĺà¸£à¸²à¸¢":6677,"à¸£à¸¡à¸¢":6678,"à¸ļà¸¡à¸Ńà¸ļ":6679,"à¹Ĥà¸Ļà¸§":6680,"Ġà¹Ĥà¸Ķà¸¢à¹Ģà¸Ĥ":6681,"à¸Ńà¸Ļà¹Ĩ":6682,"à¸¢à¸§à¹Ģà¸Ĺ":6683,"à¹ĥà¸Ļà¸ģà¸²à¸£à¸ľà¸¥":6684,"à¸«à¸¡à¸²à¸¢à¸Ħà¸§à¸²à¸¡à¸§":6685,"à¹Ĥà¸¢à¸ķ":6686,"à¸Ľà¸£à¸°à¸Īà¸³à¸ķ":6687,"Ġ1993":6688,"à¸Ńà¹Ģà¸Ľà¸¥":6689,"à¸Ļà¹Ħà¸ŀà¸£":6690,"à¸ĺà¸£à¸ĵ":6691,"à¸¢à¸ĩà¸Ħà¸Ļà¹Ģà¸Ķ":6692,"Ġà¸ªà¸¢à¸²à¸¡à¸ļà¸£à¸¡à¸£à¸²à¸Ĭà¸ģ":6693,"à¹Ģà¸ĭà¸¢":6694,"à¸Ķà¸ªà¸£à¸£":6695,"Ġ1995":6696,"à¸ŀà¸Ńà¸¥":6697,"à¸Ńà¸ªà¸²à¸¡":6698,"enc":6699,"à¸ŀà¸£à¸¡":6700,"à¸Ńà¹Ĥà¸Ķà¸¢":6701,"à¸Ńà¸ĩà¹ģà¸ļà¸ļ":6702,"à¸Ļà¹ģà¸Ł":6703,"ĠInternational":6704,"tain":6705,"à¤":6706,"à¸ļà¸§à¸£":6707,"Ġà¹ĥà¸Ļà¹Ģà¸Ĥà¸ķ":6708,"à¸Ħà¸³à¸ŀ":6709,"Ġà¸łà¸²à¸©à¸²":6710,"à¸Īà¸Ńà¸Ķ":6711,"à¸Īà¸°à¸ģ":6712,"ade":6713,"à¸¥à¸¢à¹Ģà¸Ķà¸Ĭà¸¡à¸«à¸²à¸£à¸²à¸Ĭ":6714,"ile":6715,"à¸¢à¸ĩà¸«à¸Ļ":6716,"à¸Ļà¹Ħà¸Łà¸Ł":6717,"à¸ĩà¹Ħà¸Ĺà¸¢":6718,"Ġà¹ģà¸¥à¸°à¹ĥà¸Ļà¸§":6719,"à¸Ĭà¸²à¸§à¸į":6720,"à¸Ļà¹Ħà¸Ľà¸¢":6721,"à¸Ĵà¸Ļà¸²à¸Ĺ":6722,"à¸Ļà¸£à¸°à¸¢à¸°":6723,"84":6724,"à¸²à¸Ħà¸Ļ":6725,"à¸łà¸²à¸Ħà¸ŀ":6726,"Ġcom":6727,"à¸Ĺà¸²à¸ĩà¸ķà¸Ńà¸Ļà¹Ģà¸«à¸Ļ":6728,"à¸ĩà¸Īà¸°à¹Ģà¸Ľ":6729,"à¸Ńà¸ĩà¸ŀà¸¥":6730,"à¸µà¹ī:":6731,"à¸Ķà¸ģà¸²à¸£à¸¨":6732,"à¸¡à¸Ńà¸Ńà¸ģà¸Ńà¸²à¸ģà¸²à¸¨":6733,"à¸°à¸¢":6734,"à¸ªà¸§à¸Ķ":6735,"Ġà¸¡à¸²à¸ķà¸£":6736,"à¸Ļà¸ģà¸£à¸°à¸Ķ":6737,"à¹ģà¸ªà¸Ķà¸ĩà¸łà¸²à¸ŀà¸¢à¸Ļà¸ķà¸£":6738,"à¸Ĥà¸Ńà¸ĩà¸Ńà¸ĩà¸Ħ":6739,"à¸Ĳà¸Ľà¸£à¸°à¸Ĭà¸²à¸Ĭ":6740,"à¸ļà¸ģà¸²à¸£à¹ĥà¸Ĭ":6741,"à¸ĩà¸ģà¸¤à¸©à¸Ĺ":6742,"à¸²à¸ģà¸²à¸ģ":6743,"Ġà¹ģà¸¥à¸°à¸ªà¸£":6744,"à¸²à¸Ľà¸£à¸°à¸ģà¸Ńà¸ļ":6745,"à¸§à¸¢à¸Ļà¸¡":6746,"à¸Ļà¸Ħà¸Ķ":6747,"à¸Ńà¸Ńà¸ģà¹Ħà¸ĭà¸Ķ":6748,"Ġà¸§à¸Ńà¸£":6749,"à¹Ģà¸ĺà¸Ńà¸Ĺ":6750,"Ġà¹Ģà¸Īà¸¡à¸ª":6751,"Ġà¹Ģà¸ĺà¸Ńà¸Ī":6752,"à¸Ĺà¸£à¸£à¸¨":6753,"now":6754,"à¸§à¸Ļà¸ŀà¸£à¸°à¸Ńà¸ĩà¸Ħ":6755,"à¸ªà¹ģà¸¥à¸°":6756,"à¸ĸà¸§":6757,"à¹Ģà¸¥à¸¢à¸Ĺ":6758,"Ġà¸Ĥà¸§à¸ļ":6759,"ĠAd":6760,"à¸¡à¸ªà¸²à¸¡":6761,"ĠBr":6762,"à¸ªà¸°à¹Ģà¸ģà¸©":6763,"à¸Ļà¸«à¸¡à¸Ķ":6764,"à¸Īà¸ŀà¸£à¸°à¸¨à¸£":6765,"à¸ĩà¹ģà¸ļ":6766,"Ġà¸Ńà¸Ńà¸ģà¸īà¸²à¸¢":6767,"Ġà¸īà¸°à¸Ļ":6768,"to":6769,"Ġà¸Ľà¸£à¸°à¸ŀ":6770,"à¹ĥà¸Ļà¸ī":6771,"à¹Ģà¸Ĥà¸²à¸Ħ":6772,"à¸§à¸¢à¸ĭ":6773,"Ġà¸Ĥà¸ĵà¸°à¸Ļ":6774,"à¸Ńà¹Ģà¸£à¸Ĭ":6775,"à¸ģà¸Ħà¸²à¸¡":6776,"à¸§à¸ĩà¸ģà¸¥à¸²à¸ĩ":6777,"Ġà¹Ĥà¸Ķà¸¢à¸ŀ":6778,"Ġà¹ģà¸Ńà¸¥":6779,"à¸Ļà¸Īà¸°à¹Ħà¸Ķ":6780,"41":6781,"à¸Īà¸§":6782,"à¸ģà¸²à¸£à¸Ńà¸Ńà¸ģà¹ģà¸ļà¸ļ":6783,"à¹ģà¸ªà¸ĩà¸Ń":6784,"à¸ĩà¸¡à¸«à¸²à¸§":6785,"à¸ĩà¸Ĥà¸Ļà¸²à¸Ķ":6786,"à¸«à¸²à¸£à¸Ĺ":6787,"ĠCar":6788,"ĠDe":6789,"à¹Ĥà¸ŀà¸£à¸ĩ":6790,"à¸ĩà¸Ĩà¸£à¸²à¸Ĭ":6791,"à¸ļà¸§à¸ģ":6792,"à¸Ńà¸¢à¹Ģà¸Ľ":6793,"à¸¥à¸ĩà¸¡":6794,"à¸ĩà¸ªà¸²à¸£":6795,"à¸łà¸²à¸©à¸²à¸Ī":6796,".,":6797,"à¸§à¸Ĺà¸£à¸ĩ":6798,"à¸³à¸Ļà¸²à¸Ļ":6799,"Ġ1950":6800,"à¸ļà¸°":6801,"à¸Ńà¸¢à¸ĭ":6802,"à¸Īà¸Īà¸²à¸Ļ":6803,"à¸²à¸ĭà¸²à¸ģ":6804,"à¸ĩà¸ģà¸¤à¸©à¹ģà¸¥à¸°":6805,"à¸Ĥà¸Ńà¸ĩà¸Ķ":6806,"à¸Ĭà¸²à¸§à¸Ŀà¸£":6807,"à¹Ħà¸Ńà¸Ń":6808,"à¸Ľà¸£à¸²à¸¨":6809,"à¸¢à¸ģà¸Ĥ":6810,"à¸ĩà¸£à¸§à¸¡à¸ĸ":6811,"Ġà¹Ħà¸Ĥ":6812,"à¹Ģà¸ªà¸Ļà¸²à¸ļà¸Ķ":6813,"à¹Ģà¸ªà¸Ļà¸Ńà¸§":6814,"à¸ŀà¸¢à¸²à¸ģà¸£à¸ĵ":6815,"ior":6816,"à¸¡à¸īà¸¥à¸Ńà¸ĩ":6817,"à¸²à¸ªà¹Ģà¸ķà¸Ńà¸£":6818,"à¸Ļà¸ªà¸Ńà¸ĩ":6819,"à¸ªà¸°à¸Ķà¸§à¸ģ":6820,"à¸ģà¸Ļà¸²à¸¢à¸ģà¸£":6821,"à¸Ķà¸«à¸¢":6822,"à¸ģà¸²à¸£à¸ĭ":6823,"Ġà¹Ģà¸Ĥà¸²":6824,"à¸§à¹Ģà¸Ĺ":6825,"à¸§à¸¡à¸ĩà¸²à¸Ļ":6826,"à¸Ļà¸Ĥà¸Ńà¸ĩà¸£":6827,"à¸Ļà¸Ľà¸£à¸°à¹Ĥà¸¢à¸Ĭà¸Ļ":6828,"à¸²à¸Ńà¸²à¸ģà¸²à¸¨à¸¢à¸²à¸Ļà¸Ļà¸²à¸Ļà¸²à¸Ĭà¸²à¸ķ":6829,"à¸Ķà¸£à¸°à¹Ģà¸ļ":6830,"à¸Ńà¸ĩà¸®":6831,"à¸²à¸Ĭà¸²à¸£":6832,"à¹ģà¸Ĥà¸Ļ":6833,"Ġà¹Ģà¸Īà¸£":6834,"à¸£à¸ĵà¸£à¸ĩà¸Ħ":6835,"Ġà¹ĥà¸Ļà¸¥":6836,"ale":6837,"à¸ŀà¸£à¸£à¸Ħà¸Ħà¸Ńà¸¡à¸¡":6838,"à¸§à¸Ļà¸ľà¸ªà¸¡":6839,"à¹Ģà¸Ļà¸¢":6840,"à¸ĩà¹Ĥà¸¥à¸ģ":6841,"à¸ŀà¸£à¸°à¸Ĭ":6842,"à¸Ļà¸§à¸¥":6843,"à¸¢à¸¡à¸ķ":6844,"à¸¡à¸«à¸²à¸¢":6845,"à¸Ĭà¸²à¸¢à¸Ĺ":6846,"à¸²à¸Ľà¸£à¸°à¸ģà¸§":6847,"à¸ģà¸£à¸°à¸Īà¸²à¸¢à¹Ģà¸ª":6848,"Ġà¸Ľà¸£à¸°à¸ĺà¸²à¸Ļà¸²à¸ĺ":6849,"à¸§à¸Ļà¸ŀ":6850,"à¹Ģà¸Ķà¸¢":6851,"à¹Ģà¸Ķà¸§":6852,"à¸ģà¸©à¸²à¸Ļ":6853,"à¸Ķà¸ªà¸ĩà¸Ħà¸£à¸²à¸¡":6854,"Ġà¹Ħà¸Ĺ":6855,"à¸Ħà¹ģà¸£à¸ģ":6856,"à¹ĥà¸Ļà¹Ģà¸Ńà¹Ģà¸Ĭ":6857,"à¸ķà¸ļà¸Ńà¸¥à¸¥":6858,"à¸Ħà¸§à¸²à¸¡à¸ªà¸²à¸¡à¸²à¸£à¸ĸà¹ĥà¸Ļà¸ģà¸²à¸£":6859,"à¸Ńà¸«à¸£":6860,"Ġà¸ģà¸£à¸°à¸Ķ":6861,"à¸Ľà¸£à¸°à¸ģà¸Ńà¸ļà¸łà¸²à¸ŀà¸¢à¸Ļà¸ķà¸£":6862,"ild":6863,"à¹Ģà¸ĭà¹Ĥà¸¥à¸Ļà¸²":6864,"à¸Ńà¸¢à¹Ģà¸Ń":6865,"à¸įà¸Ĭà¸²":6866,"iti":6867,"à¸ļà¸ŀà¸§à¸ģ":6868,"à¸Ħà¸£à¸ļà¸£à¸Ńà¸ļ":6869,"à¸¡à¸²à¹ĥà¸«":6870,"Ġ49":6871,"à¸Ńà¸«à¸²":6872,"à¸ģà¹Ĥà¸Ķà¸¢":6873,"à¹Ģà¸¥à¸Ń":6874,"à¸£à¸£à¸¨à¸Ļ":6875,"à¸įà¸įà¸²à¸§":6876,"à¸¤à¸«à¸²à¸ªà¸Ļ":6877,"56":6878,"à¸ŀà¸³à¸Ļ":6879,"à¸¥à¸ĩà¹Ĥà¸Ĺà¸©":6880,"à¸Ńà¸Ķà¸ª":6881,"à¸²à¸ĩà¸§à¸²":6882,"Ġà¹Ģà¸ĭà¸Ńà¸£":6883,"à¸ĩà¸ŀà¸£":6884,"à¸²à¸£à¸«":6885,"à¸Ķà¹ģà¸ľ":6886,"à¸Īà¸³à¸Ħ":6887,"ĠUn":6888,"à¸²à¹ģà¸Ĺ":6889,"à¸Ħà¸ŀ":6890,"à¸§à¸ĩà¸Īà¸£":6891,"à¸Ļà¸¡à¸²à¸ģà¸Ĥ":6892,"BA":6893,"à¸Ńà¸£à¸°à¸Ķ":6894,"à¸¡à¸²à¸¡":6895,"à¸¢à¸Īà¸²à¸ģ":6896,"à¸Ĺà¸²à¸£":6897,"ĠSer":6898,"à¸²à¹Ģà¸¥à¹Ģà¸ĭ":6899,"à¸Ķà¸ł":6900,"à¸²à¸ĩà¸¨":6901,"à¸¬à¸²à¹ģà¸«":6902,"à¸łà¸²à¸ŀà¹ģà¸§à¸Ķà¸¥":6903,"à¹Ģà¸Ĥà¸²à¸ª":6904,"à¸°à¸ŀà¸²à¸Ļ":6905,"ãģ":6906,"à¸¢à¸Ļà¸ľ":6907,"à¹ģà¸¥à¸°à¹Ģà¸Ī":6908,"à¸Ľà¸£à¸°à¹Ģà¸ªà¸£":6909,"à¸¥à¸ĩà¸ªà¸¡":6910,"à¸¥à¸³à¹Ħà¸ª":6911,"à¹Ħà¸¥à¸Ł":6912,"à¸ªà¸Ļà¸²à¸¡à¸ģ":6913,"à¸²à¹Ĥà¸Īà¸¡à¸ķ":6914,"à¸Ļà¹Ģà¸Ł":6915,"à¸ģà¸ľà¸¥":6916,"à¸¢à¸§à¸¢":6917,"à¸Ķà¸²à¸¯":6918,"ana":6919,"à¸Ļà¹Ħà¸Ľà¸Ńà¸¢":6920,"ĠLe":6921,"à¹Ĥà¸Ĩà¸©à¸ĵà¸²":6922,"73":6923,"à¹Ĥà¸Ļà¸ļ":6924,"à¸ĩà¹Ģà¸ģà¸¥":6925,"Ġà¸ķà¸²à¸¡à¸Ĺ":6926,"à¸Ļà¸ķà¸³à¸ļà¸¥":6927,"Ġà¹Ģà¸¡à¸¥":6928,"à¸¡à¸²à¸ģà¹Ģà¸ģ":6929,"enti":6930,"ome":6931,"Ġà¸ªà¸«à¸£à¸²à¸Ĭà¸Ńà¸²à¸ĵà¸²à¸Ī":6932,"à¸Ķà¹Ĥà¸£à¸Ħ":6933,"à¸ļà¹Ģà¸ĭ":6934,"à¸įà¹ģà¸Ī":6935,"à¸Ńà¸°à¸¡":6936,"à¸¢à¸Ńà¸Ķà¸Ļ":6937,"Ġà¸Ĺà¸°à¹Ģà¸¥":6938,"Ġà¸ķà¸Ńà¸Ļà¸Ĺ":6939,"à¹Ģà¸Ħà¸Ļ":6940,"à¸łà¸²à¸Ħà¸Ń":6941,"à¹ģà¸ļà¸ļà¸£":6942,"Ġ2511":6943,"59":6944,"à¸Īà¸²à¸ģà¸ģ":6945,"à¸²à¸Ħà¸ĵ":6946,"ĠTha":6947,"Ġà¹Ħà¸¡à¹Ģà¸Ħ":6948,"à¸¡à¸«à¸¡":6949,"Ġà¸Ńà¹Ģà¸¥":6950,"Ġà¸Ļà¸²à¸¡":6951,"à¸ļà¸łà¸²à¸ŀ":6952,"Ġà¹ĥà¸Ļà¸Ľà¸£à¸°à¹Ģà¸Ĺà¸¨à¹Ħà¸Ĺà¸¢":6953,"69":6954,"à¸Ńà¹Ģà¸§à¸¥":6955,"à¸°à¸ŀà¸£":6956,"à¹ģà¸Ĺà¸£":6957,"à¸Īà¹Ģà¸Ľ":6958,"à¸Ļà¹Ĥà¸ļà¸£à¸²à¸ĵ":6959,"Ġà¸Ľà¸£à¸°à¸ģà¸Ńà¸ļà¹Ħà¸Ľà¸Ķ":6960,"à¸ĩà¹Ģà¸Ĥà¸²":6961,"à¹ģà¸¥à¸°à¸«à¸Ļ":6962,"à¸Ńà¸£à¸£à¸ĸ":6963,"à¸Ļà¸ªà¸ĸ":6964,"à¸²à¸ĩà¸ŀà¸£à¸°":6965,"à¸ŀà¸¥à¸Ńà¸¢":6966,"à¸Ļà¹ĥà¸Īà¸Ĺ":6967,"à¸Ńà¸Ńà¸Ļà¹Ħà¸¥à¸Ļ":6968,"à¹Ĥà¸Ńà¸ª":6969,"à¸Ľà¸£à¸²à¸Ħ":6970,"à¸§à¸Ļà¹ĥà¸«":6971,"Ġ2503":6972,"à¸Ĺà¸²à¸ĩà¸ģà¸²à¸£à¹ģà¸ŀà¸Ĺà¸¢":6973,"ãĥ":6974,"à¸Ĺà¹Ģà¸Ĺ":6975,"à¹ģà¸¥à¸°à¹ĥà¸Ĭ":6976,"à¸²à¸ªà¸ĭ":6977,"à¹Ģà¸Īà¸ģà¸ķ":6978,"Ġà¹Ĥà¸Ķà¸¢à¸ģ":6979,"à¹ģà¸ļà¸ļà¹Ģà¸Ķ":6980,"à¸¥à¸Ľà¸¨à¸²à¸ªà¸ķà¸£":6981,"à¹Ĥà¸Ľà¸£à¸Ķà¹ĥà¸«":6982,"à¸¡à¹Ģà¸ŀà¸¥à¸ĩ":6983,"à¸ķà¸¥à¸ĩ":6984,"à¸ļà¸Ńà¸ĩà¸Ħ":6985,"à¸²à¸£à¸²à¸¨à¸²à¸ªà¸ķà¸£":6986,"à¸Ľà¹ģà¸Ńà¸Łà¸£":6987,"à¸²à¸¢à¸¢":6988,"à¸¢à¸ĩà¸ľ":6989,"Ġà¸ŀà¸£à¸°à¸ª":6990,"à¸Ĺà¸£à¸ĩà¸ª":6991,"à¹Ģà¸Ńà¸ģà¸Ĭ":6992,"à¸Ļà¹Ĥà¸¥à¸ģ":6993,"à¸²à¸¢à¹Ģà¸Ĥ":6994,"à¹ĥà¸Ļà¸ģà¸²à¸£à¸ģ":6995,"à¸Ĺà¸³à¸ĩà¸²à¸Ļà¸£":6996,"à¸Īà¸ļà¸ģà¸²à¸£à¸¨":6997,"à¹Ĥà¸Ķà¸¢à¸ķà¸£":6998,"à¸²à¸Ħà¸£à¸Ńà¸ļ":6999,"à¸Ļà¹Ħà¸Ĺà¸Ļ":7000,"à¸Ķà¸Ńà¸ģà¹Ħà¸¡":7001,"Ġà¸Ħà¸§à¸£":7002,"à¸ĩà¸«à¸¥à¸§à¸ĩ":7003,"à¸¢à¸ģà¸¥à¸²à¸ĩ":7004,"à¸²à¸Ķà¸²à¸§":7005,"à¸ŀà¸£à¸£à¸©":7006,"à¸ĩà¹Ģà¸Ķà¸Ļà¸¡à¸²à¸£":7007,"à¸Ńà¸²à¸ģ":7008,"à¸Ńà¸Ńà¸ªà¹Ģà¸ķà¸£":7009,"à¸Ńà¸ĩà¹Ĥà¸ģà¸¥":7010,"Ġà¹ģà¸¥à¸°à¹Ģà¸Ħà¸£":7011,"à¸Ńà¸Ļà¹Ħà¸¡":7012,"à¹ĥà¸Ļà¸Ľà¸£":7013,"Ġà¸Īà¸°à¹Ħà¸¡":7014,"ĠÎ":7015,"à¸Ļà¸ªà¸ģà¸¤à¸ķ":7016,"Ġ65":7017,"à¸Ħà¸ĵà¸°à¸Ļ":7018,"à¸ĩà¹Ģà¸ģà¸ķà¸ģà¸²à¸£à¸ĵ":7019,"Ġà¸¨à¸²à¸ªà¸ķà¸£à¸²à¸Īà¸²à¸£à¸¢":7020,"à¸Ķà¹ĥà¸Ļà¸Ĭ":7021,"à¸ķà¹Ģà¸ŀ":7022,"à¸²à¸£à¸²":7023,"à¸Ĺà¸²à¸ĩà¸Ńà¸²à¸ģà¸²à¸¨":7024,"Ġà¹Ģà¸Ĥà¸²à¸ĸ":7025,"à¸Ńà¸¡à¹ģà¸ĭ":7026,"à¸Ķà¸ģà¸²à¸£à¸ª":7027,"ower":7028,"Ġà¸ķà¸²à¸£à¸²à¸ĩà¸§à¸²":7029,"à¸Ĭà¸įà¸²":7030,"Ġà¸ŀà¸£à¸°à¹Ĥà¸Ńà¸£à¸ª":7031,"à¸²à¹ģà¸Ĭà¸¡à¹Ģà¸Ľ":7032,"81":7033,"à¸ģà¹Ģà¸Ń":7034,"à¹Ĥà¸ģà¸§":7035,"à¹Ĥà¸Ķà¸¢à¸£à¸§à¸¡":7036,"à¹Ģà¸ļà¸ª":7037,"à¸ļà¸ģà¸²à¸£à¸Ĺ":7038,"à¸ŀà¸£à¸£à¸Ħà¸Ľà¸£à¸°à¸Ĭà¸²à¸ĺ":7039,"à¸ģà¸Ńà¸²à¸¨":7040,"à¹ĥà¸Ķà¸ģ":7041,"à¸²à¸£à¸²à¸ĩ":7042,"à¹Ĥà¸¢à¸Ļ":7043,"Ġà¹ģà¸Ńà¸£":7044,"à¸ļà¸ģà¸²à¸£à¸ļ":7045,"à¸¡à¸«à¸²à¸ļ":7046,"à¸ĩà¸Ńà¸²à¸ĵà¸²à¸Ī":7047,"à¸Ļà¹Ģà¸ľ":7048,"à¸ģà¸Ļà¸³à¹Ħà¸Ľ":7049,"à¸ªà¹ģà¸ģà¸£à¸Ļà¸Ķ":7050,"à¸ļà¸¡à¸²à¹Ģà¸Ľ":7051,"à¸ľà¸Ļà¸§":7052,"Ġà¸¡à¸ĵà¸ĳà¸¥":7053,"à¸§à¸¡à¸Ķ":7054,"à¸Ħà¸Ļà¹ĥà¸«à¸¡":7055,"à¸ģà¹ģà¸ªà¸Ķà¸ĩà¸Ļà¸³":7056,"à¸Ķà¹ģà¸Ĺ":7057,"à¹Ģà¸Ĺà¸Ļ":7058,"à¸Ńà¸Ńà¸ģà¹Ģà¸Ķ":7059,"à¹ģà¸ļà¸ļà¸ª":7060,"ute":7061,"à¸Ĥà¸²à¸ł":7062,"à¸²à¸ĩà¸ªà¸¡à¸ļ":7063,"à¹ģà¸¥à¸°à¹Ģà¸Ĥ":7064,"à¸Ļà¸Ĥà¸Ļà¸²à¸Ķ":7065,"à¸ªà¸«à¸ŀ":7066,"à¸°à¸Ńà¸²à¸Ķ":7067,"Ġà¹ģà¸®à¸£":7068,"82":7069,"à¸²à¸ĩà¹ģà¸ŀà¸£":7070,"à¸§à¸¡à¸ĸ":7071,"à¸¢à¸Ļà¹Ģà¸ķà¸£":7072,"à¸®à¸Ńà¸£":7073,"à¸Ļà¸Ńà¸Ńà¸ģà¹Ħà¸Ľ":7074,"à¸Ļà¸Ľà¸£à¸°à¸ªà¸²à¸Ĺ":7075,"à¸«à¸Ļà¸§":7076,"à¸ªà¸¡à¸Ķ":7077,"à¸Ĺà¸³à¸£à¸²à¸¢à¹Ħà¸Ķ":7078,"à¸Ĺà¸²à¸ĩà¸Ń":7079,"à¸Ļà¸Ĺà¸²à¸ĩà¸ģà¸²à¸£à¹Ģà¸¡":7080,"à¸łà¸²à¸©à¸²à¸ª":7081,"à¸§à¹Ħà¸Ľà¹ģà¸¥":7082,"à¸²à¸Ĭà¸²à¸¢à¹ģà¸«":7083,"à¸įà¸Ńà¸¢":7084,"Ġà¸ķà¸£à¸°à¸ģ":7085,"Ġà¸Ĥà¸Ńà¸ļ":7086,"ET":7087,"à¹ģà¸Ńà¸ª":7088,"à¸§à¸ĩà¸©":7089,"à¸¢à¸ĩà¸Īà¸²à¸ģ":7090,"à¸Ļà¸©à¸²":7091,"à¸Ļà¹Ĥà¸Ľà¹Ģà¸¥":7092,"à¸§à¹Ģà¸Ļ":7093,"à¹Ĥà¸Ńà¹Ģà¸Ľ":7094,"à¸ĩà¹ģà¸Ļà¸§":7095,"à¹Ħà¸£à¹Ģà¸Ķà¸Ńà¸£":7096,"à¸Ļà¸¡à¸²à¸ģà¸Ĺ":7097,"Ġ1989":7098,"ĠChamp":7099,"à¸ļà¹Ģà¸«à¸¥":7100,"à¹ĥà¸Īà¸ģ":7101,"à¸ĩà¸²à¸Ļà¹Ħà¸Ķ":7102,"Ġà¹Ģà¸Ħà¸¢à¹Ģà¸Ľ":7103,"à¸ļà¸¡à¸«à¸²à¸§":7104,"Ġà¹ģà¸Ĺà¸Ļ":7105,"à¸°à¹Ħà¸Ķ":7106,"à¸Ńà¸ĩà¹Ĥà¸ģ":7107,"à¸²à¸¢à¸²":7108,"à¸ĩà¸Ħà¸³":7109,"à¸Ńà¸²à¸Īà¸Īà¸°à¹Ģà¸Ľ":7110,"à¸Ńà¹Ħà¸Ľà¸¢":7111,"à¸¥à¸²à¹Ģà¸§":7112,"à¹Ĥà¸§à¸¥":7113,"à¸Ńà¸ªà¸²à¸¡à¸²à¸£à¸ĸ":7114,"à¸²à¸įà¸Īà¸Ļ":7115,"à¸ŀà¸£à¸°à¸ªà¸ĩà¸Ĩ":7116,"à¸Ĺà¹Ħà¸Ķ":7117,"à¸²à¸ĩà¸łà¸²à¸ŀà¸¢à¸Ļà¸ķà¸£":7118,"à¸Ĥà¸Ńà¸ĩà¸£à¸°à¸ļà¸ļ":7119,"à¹Ĥà¸Ķà¸¡":7120,"à¸§à¸£à¸§à¸ĩà¸¨":7121,"ris":7122,"à¸Ĭà¸²à¸Ķ":7123,"à¸²à¸Ļà¹Ģà¸Ķ":7124,"à¸Īà¸°à¸Ķ":7125,"à¸¢à¸ĩà¸ĭ":7126,"à¸ļà¸£à¸£à¸¢":7127,"à¸ĩà¸Ńà¸³à¸Ļà¸²à¸Ī":7128,"à¸Ĺà¸³à¹Ģà¸Ľ":7129,"à¸¥à¸°à¸Ĭ":7130,"à¸Īà¸³à¸Ļà¸§à¸Ļà¸Ļ":7131,"à¸ģà¸²à¸ģ":7132,"à¸ļà¸ķà¸²à¸¡":7133,"à¸Īà¹Ħà¸Ľ":7134,"à¸³à¸ĭ":7135,"à¸£à¸£à¸¡à¸Ĭà¸²à¸ķ":7136,"à¸¥à¸²à¸¢à¸ķ":7137,"ĠSe":7138,"à¸ģà¸©à¸²à¹Ħà¸Ķ":7139,"son":7140,"à¸Ĺà¸£à¸Ń":7141,"Ġà¹ĥà¸Ļà¸Ńà¸Ķ":7142,"à¹Ģà¸¢à¸£":7143,"à¹Ģà¸ŀà¸£à¸²à¸°à¸¡":7144,"Ġà¹Ħà¸Ľà¸Īà¸Ļà¸ĸ":7145,"à¸¡à¹Ģà¸ļà¸Ńà¸£":7146,"à¸ļà¸ģà¸£à¸°":7147,"à¸²à¸Ľà¸£à¸°à¸Ķ":7148,"à¹Ĥà¸Ĺà¸£à¸¡":7149,"à¹Ĥà¸Łà¸Ļ":7150,"à¸Ķà¹Ģà¸Ń":7151,"à¸ļà¸ĩà¸²à¸Ļ":7152,"à¸²à¸¢à¹Ĩ":7153,"Ġà¸Īà¸Ļà¸¡":7154,"à¸Ńà¸Ľà¸ı":7155,"à¸Ľà¸£à¸°à¸ģà¸Ńà¸ļà¸ŀ":7156,"à¸ģà¸Ħà¸Ļà¸«à¸Ļ":7157,"Ġ2505":7158,"à¹Ģà¸£à¸²":7159,"à¸§à¸Ļà¹Ģà¸Ľ":7160,"Ġà¹Ģà¸ªà¸£":7161,"à¸ģà¸²à¸£à¸Ĺà¸³à¸ĩà¸²à¸Ļà¸Ĥà¸Ńà¸ĩ":7162,"ÂłÂłÂłÂł":7163,"62":7164,"74":7165,"à¸²à¸ĩà¹Ģà¸Ħà¸£":7166,"à¹ĥà¸Ļà¸ģà¸Ńà¸ĩà¸Ĺ":7167,"à¸Ļà¸Ļà¸Ńà¸ģ":7168,"à¸²à¸Ńà¸²à¸«à¸²à¸£":7169,"à¹ģà¸Ĺà¸Ļà¸£à¸²à¸©à¸İà¸£à¹Ħà¸Ĺà¸¢à¹Ģà¸Ľ":7170,"Ã¡":7171,"à¸§à¹Ģà¸Ĥà¸²":7172,"Ġà¹Ĥà¸Ĺà¸£":7173,"à¸Ļà¸ģà¸²à¸£à¹ĥà¸Ĭ":7174,"à¸£à¸°à¸ĩ":7175,"à¸ģà¸¢à¸łà¸²à¸ŀ":7176,"Ġà¸łà¸²à¸©à¸²à¸Ń":7177,"Ġà¹Ĥà¸Ľà¸£à¸Ķ":7178,"à¸²à¹Ģà¸īà¸¥":7179,"à¸Ķà¸¡à¸«":7180,"à¸ĭà¸ĭ":7181,"à¸§à¸ĩà¸¢":7182,"à¸Ļà¸Ńà¸²à¸Ĭ":7183,"à¸ķà¸³à¸Ļ":7184,"à¸ķà¸£à¸§à¸Īà¸Ī":7185,"à¸¥à¸®":7186,"à¸ļà¹Ħà¸Ľà¸¢":7187,"à¹ģà¸ļà¸Ļ":7188,"à¸¹,":7189,"à¸²à¸ĩà¹ģà¸Ĺ":7190,"à¸Ĥà¸Ńà¸ĩà¸«":7191,"à¸Ļà¸Ĺà¸§":7192,"à¸Łà¸²à¸£":7193,"à¹Ĥà¸£à¸¡à¸²à¹Ģà¸Ļ":7194,"à¸ģà¸Ľà¸£à¸°à¸¡à¸²à¸ĵ":7195,"à¸ļà¸ģà¸£":7196,"à¸ĩà¸¡à¸Ńà¸ļ":7197,"Ġà¹Ģà¸§à¸Ńà¸£":7198,"Ġwith":7199,"cess":7200,"à¸§à¸Ħà¸¥":7201,"à¸ĸà¸²à¸§à¸£":7202,"Ġà¹ģà¸¥à¸°à¹Ģà¸Ļ":7203,"à¸ľà¸¥à¸§":7204,"à¸ŀà¸£à¸£à¸©à¸²":7205,"à¸ªà¸ĩà¸Ħà¸£à¸²à¸¡à¸ģ":7206,"Ġis":7207,"à¸Ĥà¸Ńà¸ĩà¹Ĥà¸£à¸ĩà¹Ģà¸£":7208,"Ġ44":7209,"à¸ªà¸²à¸¡à¸²à¸£à¸ĸà¸ķ":7210,"à¸Ĥà¸ļà¸§à¸Ļ":7211,"à¸²à¸ĩà¸Īà¸£":7212,"à¹ĥà¸Ļà¹Ģà¸¥":7213,"à¹ģà¸ªà¸Ķà¸ĩà¹Ģà¸Ľ":7214,"à¸ģà¸©à¸²à¸ķà¸Ńà¸Ļà¸ķ":7215,"à¸Ńà¸Ńà¸¥":7216,"à¹Ĥà¸Ńà¸ļ":7217,"à¸²à¸ĩà¹Ģà¸ª":7218,"à¸²à¸Ļà¸Ļà¸Ńà¸ģ":7219,"à¸Ńà¸Ħà¸Ńà¸¢":7220,"à¸Ľà¸£à¸°à¸Ĭà¸²à¸ģà¸£à¸Ĺ":7221,"à¸Ļà¹Ģà¸Ĥà¸²":7222,"à¸¥à¸²à¸Ńà¸Ńà¸ģ":7223,"à¸¢à¹ģà¸¥":7224,"à¹Ħà¸Ńà¸ĭ":7225,"à¸Ħà¸§à¸²à¸¡à¸Ħà¸¥":7226,"à¸Īà¸°à¸Ļà¸³":7227,"à¸ĩà¸Ħà¸ĩà¸Ńà¸¢":7228,"à¸²à¸ģà¸²à¸£à¸Ĺ":7229,"à¸ģà¸Ħà¸Ļà¸Ĺ":7230,"à¹ģà¸¡à¸¥à¸ĩ":7231,"Ġà¸Īà¸²à¸ģà¸Ĺ":7232,"à¹Ģà¸¥à¸Ĥà¸²à¸Ļ":7233,"à¹Ģà¸Ńà¸Łà¸ĭ":7234,"Ġà¹ģà¸¥à¸°à¸Ħà¸£":7235,"à¸Ľà¸£à¸°à¸ĺà¸²à¸Ļà¸ª":7236,"ology":7237,"Ġà¹ģà¸¥à¸°à¹Ģà¸Ĭ":7238,"Ġà¸Ĺà¸²à¸ĩà¸Ķ":7239,"à¹Ĥà¸Ľà¹Ģà¸ģà¸¡":7240,"SI":7241,"à¸Ńà¸£à¸°à¸ļà¸ļ":7242,"à¸¥à¸ķà¸£":7243,"à¸²à¸Ļà¸²à¸¡":7244,"à¸ŀà¸£à¸°à¸£à¸²à¸Ĭà¸§à¸ĩà¸¨":7245,"à¸Ļà¸Ľà¸£à¸°à¸¡":7246,"Ġà¹Ģà¸ģà¸¥":7247,"Ġà¹Ģà¸ªà¸Ļ":7248,"à¸£à¸°à¸ģà¸²à¸¨":7249,"à¸³à¹ģà¸¥à¸°":7250,"à¸²à¸ĩà¸«à¸²à¸ģ":7251,"Ġà¹ĥ":7252,"à¸Ħà¸Ļà¸ķ":7253,"à¹Ģà¸Ĥà¸²à¸ĸ":7254,"à¸ģà¸²à¸£à¸ķà¸¥à¸²à¸Ķ":7255,"Ġà¹ģà¸ģà¸£à¸¡à¸¡":7256,"61":7257,"tt":7258,"à¸ļà¸ģà¸§":7259,"Ġ2510":7260,"Ġ1940":7261,"Ġà¸¥à¸°à¸Ħà¸£":7262,"à¸ģà¹Ģà¸ĺà¸Ń":7263,"à¸ªà¸²à¸«":7264,"à¸Ńà¸¡à¸²à¸¡":7265,"à¸ķà¸²à¸¡à¸«":7266,"à¸Ľà¸£à¸°à¸ģà¸Ńà¸ļà¸ģ":7267,"Ġ2498":7268,"Ġà¸īà¸²à¸¢":7269,"à¸§à¸Ļà¸°":7270,"à¸ĵà¸¥":7271,"à¸ĩà¸Ħà¸Ļ":7272,"à¸Ħà¸³à¸£":7273,"à¸Ĳà¸ļà¸²à¸¥à¸Ĺ":7274,"à¸ģà¸Ĳà¸²à¸Ļà¸Ĺ":7275,"à¸ļà¹Ģà¸«à¸ķ":7276,"à¸¡à¸Ĭà¸Ļà¸ģ":7277,"à¸ģà¸ĩà¸²à¸Ļà¸ª":7278,"à¸Ńà¸Ļà¹Ģà¸ģ":7279,"à¸Ħà¸§à¸²à¸¡à¸«à¸¥à¸²à¸ģà¸«à¸¥à¸²à¸¢":7280,"à¹Ģà¸ĭà¸ķ":7281,"à¸ģà¸Ķà¸³":7282,"ĠPh":7283,"à¸²à¹ĥà¸Īà¸ľ":7284,"à¸ģà¸£à¸Ļ":7285,"à¸Ĺà¸³à¸ŀ":7286,"à¸ļà¸ģà¸²à¸£à¸Ŀ":7287,"Ġà¸Ĥà¸ĵà¸°à¹Ģà¸Ķ":7288,"à¸¡à¸ĺà¸²à¸Ļ":7289,"à¸¢à¹Ħà¸¡":7290,"à¸¢à¸Ļà¸«":7291,"Ġà¸ļà¸£à¸£":7292,"à¸ļà¸«à¸£":7293,"à¸ĭà¸°":7294,"à¸Ļà¸ģà¸²à¸£à¸ªà¸£":7295,"à¹Ĥà¸¡à¸ª":7296,"à¸ĩà¹ģà¸ľ":7297,"à¸§à¸«à¸¥":7298,"à¸²à¸¢à¹Ģà¸£":7299,"à¸²à¸§à¸«à¸²à¸§":7300,"à¸Ļà¸²à¸Ļà¸ģ":7301,"Ġ160":7302,"à¸²à¹Ģà¸¥à¸ªà¹Ħà¸ķà¸Ļ":7303,"à¸²à¸¢à¸Īà¸²à¸ģ":7304,"à¸ļà¸ģà¸²à¸£à¹Ģà¸Ľ":7305,"à¸ģà¸²à¹Ģà¸£":7306,"ier":7307,"à¸¢à¸Ļà¹ĥà¸«":7308,"à¸ŀà¸¥à¹Ģà¸¡":7309,"à¸ģà¸ªà¸²à¸¡":7310,"Ġà¸Ľà¸£à¸°à¸Ķ":7311,"à¸ļà¸£à¸£à¸¢à¸²à¸ģà¸²à¸¨":7312,"à¸łà¸Ħ":7313,"à¸Ħà¸§à¸²à¸¡à¸Ń":7314,"Ġà¹Ģà¸Ĺà¸¨à¸ļà¸²à¸¥":7315,"à¸Ńà¹Ģà¸«à¸ķ":7316,"à¸ģà¹ĥà¸Ļà¸Ľ":7317,"à¸Ĥà¸Ńà¸ĩà¸¨":7318,"à¸²à¸§à¸ªà¸²à¸£":7319,"ĠCo":7320,"Ġà¸Īà¸°à¹ĥà¸Ĭ":7321,"à¸ķà¸ļà¸Ńà¸¥à¸Ńà¸²à¸Ĭ":7322,"à¸ĩà¹ĥà¸Ļà¸ķ":7323,"à¸¢à¸§à¸Ķ":7324,"Ġà¹ĥà¸Ļà¸§à¸ĩà¸¨":7325,"à¹ĥà¸Ļà¸®":7326,"à¸ĵà¸ŀ":7327,"à¸Ħà¸§à¸²à¸¡à¸ŀà¸¢à¸²à¸¢à¸²à¸¡":7328,"à¸Ĳà¹ģà¸Ħà¸¥":7329,"à¸Ļà¸¡à¸²à¹ĥà¸Ĭ":7330,"à¸Ľà¸£à¸°à¸¡à¸§à¸¥à¸ľà¸¥":7331,"à¸¢à¸ªà¸³à¸Ħ":7332,"à¸Ķà¸Ľà¸£":7333,"à¸Īà¸Ĥ":7334,"Ġà¹ģà¸Ĭà¸¡à¸Ľ":7335,"à¸ļà¸ªà¸²à¸£":7336,"à¸Ńà¸ĩà¸ģà¸¥à¸²à¸ĩ":7337,"à¸¹)":7338,"à¸Ńà¸ģà¸Ļ":7339,"à¸ģà¸¥à¸Ļà¸Ħà¸£":7340,"à¹ģà¸¡à¸Ħ":7341,"ult":7342,"à¸²à¸Ļà¸Ľà¸£":7343,"à¸²à¹Ģà¸ĭà¸¥à¹Ģà¸ĭ":7344,"Ġà¹ĥà¸Ļà¸łà¸²à¸ŀà¸¢à¸Ļà¸ķà¸£":7345,"AC":7346,"à¸ģà¸Ĺà¸²à¸ĩ":7347,"à¹Ĥà¸Ńà¸Ĺ":7348,"à¸²à¸ĩà¹ĥà¸«à¸¡":7349,"Ġà¸Ħà¸Ļà¸ª":7350,"Ġà¸Ĥà¸Ńà¸ĩà¸£":7351,"ym":7352,"à¸ĩà¸Īà¸£":7353,"à¸ģà¸©à¸²à¸£":7354,"ĠTr":7355,"à¸Ļà¹Ĥà¸Ķà¸Ī":7356,"Ġà¸ŀà¸£à¸°à¸£à¸²à¸Ĭà¸ļ":7357,"aceae":7358,"à¸ļà¸ľà¸¥à¸ģà¸£à¸°à¸Ĺ":7359,"Ġà¹ģà¸¥à¸°à¹ĥà¸Ļ":7360,"à¹Ħà¸Ľà¸Ĭ":7361,"à¸¢à¸Ļà¹Ģà¸ģà¸¡à¸ª":7362,"à¹Ģà¸Łà¸ĭ":7363,"à¸²à¹ĥà¸Īà¸§":7364,"à¸ģà¹Ģà¸ķà¸°":7365,"à¸ģà¸²à¸£à¸Ŀ":7366,"à¸£à¸²à¸Ĭà¸²":7367,"ĠFor":7368,"à¸ĩà¸Ħà¸¡à¸¨à¸²à¸ªà¸ķà¸£":7369,"à¸Ķà¸§à¸ĩà¸Ī":7370,"à¸Ķà¸²à¸¡à¸²à¸£":7371,"à¸§à¸¢à¸ķà¸Ļà¹Ģà¸Ńà¸ĩ":7372,"à¹Ģà¸ªà¸ŀà¸ķ":7373,"à¹Ĥà¸¡à¸ĩà¸Ħ":7374,"à¸ĩà¸ģà¸²à¸£à¸ª":7375,"à¸ļà¸£à¸£à¸ŀà¸ļ":7376,"we":7377,"à¸²à¸ĩà¸Ŀ":7378,"à¸Ľà¸£à¸²à¸£":7379,"à¸Ĭà¸²à¸§à¹Ģà¸¢à¸Ńà¸£à¸¡":7380,"eth":7381,"à¸ĭà¸Ńà¸Łà¸Ĺ":7382,"à¸Ńà¸Ļà¹Ħà¸¥à¸Ļ":7383,"à¸ģà¸Ńà¸ĩà¸Ħ":7384,"Ġà¹ģà¸Ħà¸¥":7385,"à¸¢à¸Ļà¹ģà¸¥à¸°":7386,"à¸Ľà¸£à¸°à¸ªà¸²à¸Ĺà¸ª":7387,"à¸£à¸Ńà¸ĩà¸£":7388,"Ġà¹ĥà¸ª":7389,"à¸Ńà¹ģà¸ļà¸ļ":7390,"à¸Ńà¹ģà¸ªà¸Ķà¸ĩ":7391,"à¸¡à¸£à¸¡":7392,"à¸Ļà¸Ĺà¸°à¹Ģà¸ļ":7393,"Ġà¸Ĺà¸Ńà¸ĩ":7394,"Ġà¹Ģà¸Ľà¸Ńà¸£":7395,"Ġà¹ģà¸Ħà¸§":7396,"à¸Ńà¸Īà¸³à¸ģ":7397,"à¸ķà¹ģà¸«":7398,"à¸ŀà¸£à¸°à¸Ļà¸²à¸¡à¸§":7399,"Ġà¹ģà¸¢à¸ģ":7400,"Ġà¹Ĥà¸ģà¸¥":7401,"Ġà¸ģà¸²à¸£à¸Ĺà¸³":7402,"Ġà¸Łà¸Ńà¸£":7403,"à¸Ķà¸ģà¸£à¸°":7404,"à¹Ĥà¸Ķà¸Ļ":7405,"à¸Ĺà¸³à¸Īà¸²à¸ģ":7406,"Ġ2020":7407,"à¸¥à¸³à¸Ļ":7408,"à¸¥à¹ģà¸ģà¹Ģà¸£":7409,"à¸ģà¸£à¸£":7410,"à¸¢à¸¡à¹Ģà¸£":7411,"ari":7412,"Ġà¸Ĥà¸Ńà¸ĩà¸Ľà¸£à¸°à¹Ģà¸Ĺà¸¨":7413,"à¸Ļà¸Ľà¸£à¸°à¸ģà¸Ńà¸ļà¸Ķ":7414,"à¸¡à¸¥à¸ĩ":7415,"Ġà¹Ĥà¸ģ":7416,"à¸ªà¸ĩà¸Ħà¸£à¸²à¸¡à¹Ĥà¸¥à¸ģà¸Ħà¸£":7417,"à¹Ģà¸ªà¸Ļà¸Ńà¹ĥà¸«":7418,"à¸ĩà¹ĥà¸Ļà¸Ī":7419,"à¸Ķà¸Ħà¸¥":7420,"à¹Ģà¸Ĺà¸¨à¸Ļ":7421,"Ġà¹ĥà¸Ļà¸¨":7422,"à¹Ĥà¸¡à¹Ģà¸Ķ":7423,"à¸ĩà¹Ģà¸ģà¸ķà¸§":7424,"à¹Ģà¸ĸà¸£à¸°":7425,"Ġà¸ģà¸£à¸¡à¸«à¸¡":7426,"à¹Ĥà¸Ķà¸¢à¸£à¸Ńà¸ļ":7427,"reat":7428,"Ġà¹Ģà¸«à¸Ļ":7429,"Ġà¹Ģà¸ĭà¸¥à¸¥":7430,"Ġà¹Ģà¸ĺà¸Ńà¸¡":7431,"à¸ĩà¸Ķà¸³à¹Ģà¸Ļ":7432,"à¸¢à¸£à¸²à¸Ĭà¸§à¸ĩà¸¨":7433,"à¸«à¸¥à¸§à¸ĩà¸Ľ":7434,"à¹Ħà¸«à¸¥à¸ľ":7435,"à¸ĸà¸Ļà¸Ļà¸ª":7436,"à¸Ńà¸ĩà¹Ģà¸«":7437,"à¸Ńà¸ĩà¸Ļà¸Ħà¸£":7438,"à¸Ńà¸¢à¸£":7439,"Ġà¸Ļà¸Ńà¸£":7440,"Ġà¸ŀà¸£à¸°à¸£à¸²à¸Ĭà¸Ĺà¸²à¸Ļ":7441,"64":7442,"à¹Ĥà¸Ļà¹Ģà¸ªà¸²à¸£":7443,"Ar":7444,"à¸²à¹ĥà¸Ļà¸Ľ":7445,"à¸²à¸§à¹Ģà¸§à¸Ńà¸£":7446,"à¸ģà¸£à¸¥":7447,"à¸§à¸¢à¸ļ":7448,"Ġà¸Ĥà¸Ńà¸ĩà¸§":7449,"à¸Ļà¸Łà¸£":7450,"CD":7451,"à¸Ĭà¸Ļà¸ļà¸Ĺ":7452,"Ġ2506":7453,"à¸Ļà¸Ńà¸ģà¹Ģà¸«à¸Ļ":7454,"à¸Ķà¸²à¸£à¸²à¸¨à¸²à¸ªà¸ķà¸£":7455,"à¸Ļà¸Ľà¸£à¸°à¸ĺà¸²à¸Ļà¸²à¸ĺ":7456,"à¸²à¸ĩà¸¢à¸²à¸§":7457,"à¸¢à¸ģà¸Ń":7458,"à¸Īà¸ŀà¸£à¸°à¸ļà¸£":7459,"Ġ2499":7460,"ling":7461,"à¸Ńà¸ģà¸²à¸ª":7462,"Ġà¸¡à¸²à¸ķ":7463,"Ġà¸Īà¸²à¸£":7464,"à¸§à¹Ģà¸Ńà¸ģ":7465,"à¸Ļà¸ŀà¸¤à¸«":7466,"à¸Ĺà¸£à¸ĩà¸Ħ":7467,"à¸ĩà¸¨à¸ŀ":7468,"à¹ģà¸ªà¸§à¸ĩà¸«":7469,"à¸ĩà¸łà¸²à¸¢à¹ĥà¸Ļ":7470,"à¸ĩà¸ªà¸²à¸§":7471,"à¸łà¸²à¸Ħà¸Ļ":7472,"meric":7473,"à¸Ķà¸²à¹Ģà¸Ľ":7474,"Ġà¸¡à¸²à¸¥":7475,"Ġà¸Ĺà¸¤à¸©à¸İ":7476,"à¸Ļà¸ģà¸²à¸£à¸ģ":7477,"Ġ2508":7478,"Ġà¸¡à¸«à¸²à¸ªà¸¡":7479,"Al":7480,"à¸Ļà¸²à¸Ħ":7481,"à¸Ļà¹Ģà¸¢":7482,"à¹Ī,":7483,"à¸ķà¸ģà¸£à¸£à¸¡":7484,"à¹Ģà¸ģà¸¡à¸Ļ":7485,"à¸Ńà¸ķà¹Ģà¸ķà¸Ńà¸£":7486,"à¸įà¸įà¸²à¸ļ":7487,"à¸ĩà¸²à¸Ļà¸ł":7488,"à¸²à¸ģà¸£à¸ĵ":7489,"à¸ķà¸Ńà¸Ļà¹Ģà¸«à¸Ļ":7490,"Ġà¸ŀà¸£à¸°à¸£à¸²à¸Ĭà¸§":7491,"de":7492,"à¸¢à¹Ħà¸Ľ":7493,"à¸ģà¸£à¸°à¸«à¸§":7494,"à¸łà¸²à¸Ħà¸£":7495,"à¹ĥà¸Ļà¸Ĳà¸²à¸Ļà¸°à¸ľ":7496,"à¸§à¹Ģà¸Ĭ":7497,"à¸Ħà¸Ļà¸Ļ":7498,"Ġ2489":7499,"ail":7500,"à¸Ľà¹Ĥà¸Ľ":7501,"à¸¡à¸²à¹ģà¸ķ":7502,"Ġà¸Ĥà¸Ńà¸ĩà¸Ń":7503,"ĠII":7504,"à¸ģà¸Ńà¸£":7505,"à¸Ķà¹ģà¸ļà¸ļ":7506,"à¸Ńà¸¢à¸¥":7507,"à¸Īà¸²à¸ģà¸Ī":7508,"à¸Łà¸ģà¸²à¸Ļ":7509,"à¸Ļà¸ŀà¸²à¸¢":7510,"à¸Ļà¸¡à¸²à¹ĥà¸«à¸¡":7511,"Ġà¸¥à¸³à¸Ķ":7512,"à¸ĩà¹Ģà¸Ĥà¸ķà¸ģà¸²à¸£à¸Ľà¸ģà¸Ħà¸£à¸Ńà¸ĩ":7513,"à¹Ĥà¸Ńà¸¡":7514,"à¸Ńà¸Ļà¹Ĥà¸ĭ":7515,"à¸ŀà¸£à¸°à¹Ģà¸¢à¸ĭ":7516,"à¸§à¸¢à¹ĥà¸Ļà¸ģà¸²à¸£":7517,"à¸§à¸ĩà¸«à¸¥":7518,"à¸ģà¸²à¹ģà¸Ł":7519,"à¹Ĥà¸Ħà¸ģ":7520,"à¸²à¸įà¸Īà¸Ļà¸ļ":7521,"à¸ªà¹Ģà¸ķà¸Ĭ":7522,"à¸¥à¸Ńà¸Ļà¸Ķà¸Ńà¸Ļ":7523,"à¸Ķà¸Ĭà¸¥à¸ļ":7524,"à¸Ľà¸Ń":7525,"à¸²à¸ĩà¸Ńà¸Ńà¸ģà¹Ħà¸Ľ":7526,"à¸¢à¸ģà¸Ĳà¸²à¸Ļà¸°":7527,"à¸Ľà¸ģà¹Ģà¸ģà¸¥":7528,"à¸Ĭà¸Ńà¸Ľ":7529,"à¸Ńà¸²à¸ģà¸²à¸¨à¸Ĺ":7530,"à¸Ķà¸Ńà¸²à¸ģà¸²à¸£":7531,"à¸ķà¹Ģà¸§":7532,"à¸Ńà¸ĩà¸Ńà¸²à¸¨":7533,"à¸įà¹ĥà¸«":7534,"à¸Ńà¸Ļà¹ģà¸¥":7535,"à¸Ĺà¸²à¸ĩà¹Ĥà¸Ĺà¸£à¸Ĺ":7536,"à¸Ńà¸ªà¹Ĥà¸ģ":7537,"à¹ħ":7538,"à¸§à¸Ļà¸Ĥ":7539,"à¸²à¸£à¸ªà¸²à¸£":7540,"à¸²à¸¢à¹ģà¸¥":7541,"Ġà¹ģà¸¡à¸Ļ":7542,"à¸¢à¸Ńà¸Ķà¸Ł":7543,"à¸Ĭà¸²à¸§à¸ķ":7544,"à¸Ļà¸Ľà¸£à¸²à¸ģà¸ı":7545,"à¸Ľà¸¡":7546,"à¸§à¸ĩà¹Ģà¸§à¸¥à¸²à¸Ļ":7547,"à¸Ńà¹Ħà¸£":7548,"à¹Ģà¸ģà¸ķ":7549,"à¸Ļà¸Ħà¸³à¸Ĺ":7550,"ern":7551,"à¸ķà¸²à¸¡à¸«à¸¥":7552,"à¸§à¸£à¸£à¸²à¸Ĭ":7553,"con":7554,"à¸Ħà¸£à¸£à¸²à¸Ĭà¸Ĺ":7555,"Ġà¹Ĥà¸Ķà¸¢à¸ģà¸¥":7556,"à¸ĩà¸ªà¸³à¸Ļ":7557,"à¸ªà¸²à¸¡à¸²à¸£à¸ĸà¸Ĺà¸³":7558,"à¸ļà¸Ħà¸ĵà¸°":7559,"à¹Ģà¸®à¸²à¸ª":7560,"à¸ªà¸²à¸Ĥà¸²à¸§":7561,"à¸Ļà¹Ģà¸ĭà¸Ńà¸£":7562,"à¸§à¸Ļà¸ł":7563,"Ġ46":7564,"à¹Ĥà¸Ńà¸ģà¸²à¸ªà¹ĥà¸«":7565,"Ġà¸Ĭà¸²à¸§à¸ļ":7566,"à¸Ńà¹Ģà¸§à¸¥à¸²":7567,"à¸«à¸łà¸²à¸ŀà¸¢":7568,"à¸¡à¸²à¸ªà¸£":7569,"à¹ģà¸Ļà¸°à¸Ļà¸³à¹ĥà¸«":7570,"à¹ĥà¸Ļà¹ģà¸ĩ":7571,"à¸Ħà¸§à¸²à¸¡à¸Ī":7572,"à¸²à¸ŀà¸¢":7573,"à¹Ĥà¸£à¹ģà¸¡à¸Ļà¸ķ":7574,"à¸«à¸¡à¸²à¸¢à¹Ģà¸«à¸ķ":7575,"à¸²à¸Ĥà¸²":7576,"à¸Ļà¸ŀà¸£à¸°à¸ª":7577,"à¸²à¸ģà¸¥à¸²à¸ĩ":7578,"à¸Ľà¸¥à¸²à¸¢à¸Ľ":7579,"Ġà¸Ńà¸Ńà¸ģà¸Ńà¸²à¸ģà¸²à¸¨à¸Ĺ":7580,"à¸ŀà¸§":7581,"à¸Ĥà¸Ńà¹ĥà¸«":7582,"à¹Ĥà¸Ķà¸¢à¸£":7583,"à¸ģà¸¥à¸ĩ":7584,"à¸«à¸¥à¸²à¸¢à¸£":7585,"Ġà¸Ľà¸£à¸°à¸§":7586,"BS":7587,"à¸Ńà¸į":7588,"à¸ĩà¸¥à¸°":7589,"à¸Ńà¸ĩà¹Ĥà¸Ĺà¸£à¸Ĺ":7590,"Ġà¹Ģà¸Ľà¸£":7591,"à¹ģà¸¡à¸Ļà¹Ģà¸Ĭà¸ªà¹Ģà¸ķà¸Ńà¸£":7592,"Ġà¸§à¸Ńà¸¥":7593,"à¸Ļà¹ģà¸ĸ":7594,"Ġ2501":7595,"à¸Ńà¹ģà¸«":7596,"à¸²à¸ªà¹Ģà¸ĭ":7597,"à¸Ļà¸Ħà¸Ļà¹ģà¸£à¸ģ":7598,"à¸ģà¸³à¸«à¸Ļà¸Ķà¹Ħà¸§":7599,"Ġà¸Ńà¸ĩà¸¨à¸²à¹Ģà¸ĭà¸¥à¹Ģà¸ĭ":7600,"à¸Ĥà¸Ńà¸ĩà¹Ģà¸Ħà¸£":7601,"à¸Ľà¸¥à¸²à¸ģ":7602,"à¹Ģà¸®à¸Łà¸§":7603,"Sh":7604,"Ġà¹ĥà¸Ļà¸£à¸Ńà¸ļ":7605,"Ġà¸Ħà¸§à¸²à¸¡à¸¢à¸²à¸§":7606,"à¸ĩà¸ªà¸Ńà¸ĩà¸ŀà¸£à¸°à¸Ńà¸ĩà¸Ħ":7607,"à¸§à¸ķà¸²à¸¢":7608,"à¸Ļà¸Ħà¸³à¸§":7609,"Ġà¹Ĵà¹Ķà¹":7610,"Ġà¸¥à¸ĩà¸§":7611,"à¸Ĩà¸²à¸ķà¸ģà¸£à¸£à¸¡":7612,"à¸ļà¹ģà¸¥":7613,"à¹ģà¸Ńà¸Ļà¸Ļ":7614,"à¹Ĥà¸¨":7615,"à¸ŀà¸£à¸°à¸ļà¸£à¸¡à¸£à¸²à¸Ĭà¹Ĥà¸Ńà¸ĩà¸ģà¸²à¸£":7616,"à¸ĩà¸ķà¸°à¹Ģà¸ł":7617,"ww":7618,"à¸Ĺà¸¢à¸²à¸Ħà¸¡":7619,"Ġà¹ĥà¸Ļà¸Ķ":7620,"ated":7621,"à¹ĥà¸ļà¸Ńà¸Ļ":7622,"à¸Ļà¸ĩà¸²à¸Ļà¸Ĺ":7623,"à¸ļà¸Ńà¸Ķ":7624,"à¸²à¸ŀà¹Ģà¸Ī":7625,"Ġà¹ģà¸Ĭ":7626,"à¸ģà¸²à¹ģà¸¥à¸°":7627,"à¸Ļà¸Īà¸°à¹Ħà¸¡":7628,"à¸£à¸ĸà¸ĸ":7629,"à¸Ķà¸¡à¸²à¸Īà¸²à¸ģ":7630,"à¸Ńà¸¢à¸Ĭ":7631,"à¹Ĥà¸Ķà¸°":7632,"à¸§à¸¡à¸²à¸ģ":7633,"à¸ĩà¸¡à¸§à¸¥":7634,"à¸¡à¸²à¸ģà¸ĸ":7635,"à¸Ļà¸Ĳà¸²à¸Ļà¸Ĺ":7636,"à¸Ńà¸ī":7637,"à¸Ļà¸ŀà¸ļà¸§":7638,"à¸ļà¸ģà¸²à¸£à¸¢":7639,"à¸²à¸Īà¸°à¸ĸ":7640,"Ġà¹Ģà¸ĺà¸Ńà¸ģ":7641,"à¸Ĥà¸¢à¸²à¸¢à¸ŀ":7642,"à¸¡à¸²à¹Ģà¸ģ":7643,"à¸Ĺà¸£à¸ĩà¸£":7644,"à¸Ļà¸¨à¸²à¸ª":7645,"54":7646,"à¸°à¸«":7647,"à¸Īà¹ģà¸¥":7648,"à¹ĥà¸Ļà¹Ģà¸Ī":7649,"à¹Ģà¸Ĥà¸ķà¸ŀ":7650,"à¸Ńà¹Ģà¸£à¸Ļà¸ĭ":7651,"Ġà¸ŀà¸£à¸°à¸£à¸²à¸Ĭà¹Ĥà¸Ńà¸£à¸ª":7652,"Ġà¸ŀà¸²à¸£":7653,"à¹Ĥà¸ģà¸¨":7654,"Ġ1986":7655,"à¸ķà¸¥à¸Ńà¸Ķà¹Ģà¸§à¸¥à¸²":7656,"à¹ģà¸¥à¸°à¹ĥà¸«":7657,"à¸ĩà¸²à¸Ļà¸Ĥ":7658,"à¸ŀà¸£à¸°à¸£à¸²à¸Ĭà¸ģà¸¤à¸©à¸İ":7659,"ĠMy":7660,"à¹ĥà¸Ļà¸Ľà¸£à¸°à¹Ģà¸Ĺà¸¨à¸Ī":7661,"à¸ļà¸¤à¸Ķ":7662,"à¹Ģà¸ŀà¸£":7663,"à¸Ńà¸¡à¸²à¸Ĺ":7664,"à¸Ļà¹ĥà¸Ļà¸Ń":7665,"Ġcl":7666,"à¸Ľà¸£à¸°à¸ģà¸§à¸Ķà¸¡":7667,"à¸ģà¸©à¸²à¸Ħà¸§à¸²à¸¡à¸ªà¸ĩà¸ļ":7668,"ãĤ":7669,"à¸ģà¸¢à¸ģà¹Ģà¸¥":7670,"à¸ŀà¸£à¸°à¸£à¸²à¸Ĭà¸ĺ":7671,"à¸ĩà¸Ħà¸§à¸²à¸¡à¹Ģà¸Ľ":7672,"Ġi":7673,"à¸²à¸¡à¸²à¸Īà¸²à¸ģ":7674,"Ġà¸Ļà¸ģ":7675,"à¸ģà¸£à¸°à¸ļà¸Ńà¸ģ":7676,"à¸§à¸ĩà¸¨à¸²à¸Ļ":7677,"à¸Īà¸²à¸£à¸ĵà¸²à¸§":7678,"à¸Ńà¸Ĺà¸³à¹ĥà¸«":7679,"à¸¢à¸ľ":7680,"à¸Īà¸¯":7681,"à¸ªà¸¡à¸łà¸ŀ":7682,"à¸ĩà¸ªà¸Ļ":7683,"ĠâĢĶ":7684,"à¸Ĳà¸Ľà¸£à¸°à¸Ĭà¸²à¸Ĭà¸Ļà¸Ī":7685,"Ġà¹ģà¸¥à¸°à¸Ļà¸²à¸ĩ":7686,"à¸Ļà¸ĸà¸Ļà¸Ļ":7687,"à¸Ļà¹Ģà¸§à¸¥à¸²à¸Ļà¸²à¸Ļ":7688,"98":7689,"Th":7690,"iel":7691,"à¸¥à¹Ĥà¸¥":7692,"à¸ĭà¸²à¸¡":7693,"à¸ģà¸£à¸ģ":7694,"à¸ŀà¸£à¸°à¸ł":7695,"à¸§à¸¢à¹Ģà¸£":7696,"à¸Īà¸³à¸Ľ":7697,"à¸Ļà¸³à¸ª":7698,"tiv":7699,"à¸²à¸Ľà¸ģà¸ķ":7700,"à¹Ħà¸Ĥà¸Ľ":7701,"Ġ2490":7702,"à¸Ĥà¸Ńà¸ļà¹Ģà¸Ĥà¸ķ":7703,"à¸²à¸Ļà¸ģà¸²à¸£à¸Ħ":7704,"à¸§à¸ĩà¸Ńà¸²à¸Ĺ":7705,"à¸¢à¸£à¸²à¸¡à¸Ħà¸³à¹ģà¸«":7706,"à¸Ńà¸²à¸«à¸²à¸£à¸Ĺ":7707,"Ġ1988":7708,"à¸ģà¸ķà¸£à¸Ńà¸Ļ":7709,"à¸¡à¸Ĺà¸³":7710,"à¸ªà¸ŀ":7711,"à¸ªà¸Ńà¸Ļ":7712,"à¸ģà¸£à¸¡à¸¨":7713,"Ġà¸Ńà¸Ńà¸ģà¹ģà¸ļà¸ļ":7714,"à¸ķà¸Ńà¸Ļà¹ĥà¸ķ":7715,"à¸²à¹Ģà¸ĺà¸Ńà¸£":7716,"à¸§à¸Īà¸°":7717,"à¸¢à¸§à¸Ħ":7718,"à¸Ńà¸ĩà¸Ħà¸²à¸¢":7719,"ĠAs":7720,"à¹Ĥà¸ļà¸£":7721,"à¸ģà¸ªà¸Ńà¸Ļ":7722,"à¹ģà¸Ĺà¸Ļà¸ŀà¸£à¸°à¸Ńà¸ĩà¸Ħ":7723,"à¸Ļà¸ľà¸¥à¸¡à¸²à¸Īà¸²à¸ģ":7724,"MA":7725,"à¸ĩà¸ŀà¸ļ":7726,"à¸¥à¸ªà¸ĩà¸Ħà¸£à¸²à¸¡":7727,"à¸Ĥà¸Ńà¸ĩà¹Ģà¸Ń":7728,"à¹Ģà¸ģà¸¡à¸Ĺ":7729,"à¸Ħà¸Ńà¸Ľ":7730,"à¸ĵà¸£à¸ĩà¸Ħ":7731,"à¸ĩà¸ļà¸Ńà¸ģ":7732,"ĠGirl":7733,"à¹Ħà¸ķà¸£à¸Ľ":7734,"à¸Ļà¹Ģà¸«":7735,"à¸²à¸ĩà¹ģà¸ľ":7736,"à¸įà¹Ħà¸Ķ":7737,"à¹Ģà¸Ńà¸Ĺ":7738,"à¸Ļà¸Ĥà¸Ńà¸ĩà¸Ń":7739,"92":7740,"à¸§à¸«à¸£":7741,"à¸ģà¸²à¸£à¹Ģà¸ª":7742,"à¸¢à¸¡à¸§":7743,"à¸ĩà¸Ĥà¸ĵà¸°à¸Ļ":7744,"à¸ķà¸²à¸¡à¹ģà¸Ļà¸§":7745,"roup":7746,"à¹ģà¸ĸà¸ļà¸ª":7747,"à¸Ĺà¸²à¸ĩà¸ķà¸Ńà¸Ļà¹ĥà¸ķ":7748,"58":7749,"à¸ĩà¹Ģà¸ªà¸Ķ":7750,"à¸ķà¹ĥà¸«":7751,"à¸²à¸ķà¸Ļà¹Ģà¸Ńà¸ĩ":7752,"à¸Ŀà¸Ļ":7753,"à¸£à¸°à¸ļà¸ļà¸ª":7754,"à¹Ģà¸ģà¸©à¸¡":7755,"ime":7756,"à¸ģà¸Ķà¸³à¸ļà¸£à¸£à¸ŀ":7757,"ON":7758,"Ġà¸£à¸°à¸¢à¸°":7759,"à¸Ļà¸£à¸°à¸¢à¸°à¹Ģà¸§à¸¥":7760,"à¸ģà¸Ńà¸Ļ":7761,"à¹ģà¸ķà¸£":7762,"à¸²à¸ĩà¹ģà¸ļà¸ļ":7763,"à¸Ĥà¸Ńà¸ĩà¸ŀà¸§à¸ģà¹Ģà¸Ĥà¸²":7764,"Ġà¹ģà¸¥à¸°à¸Īà¸²à¸ģ":7765,"à¸Ńà¸ģà¸²à¸£à¸Ħ":7766,"ĠIs":7767,"Ġà¹Ģà¸ĺà¸Ńà¸¢":7768,"à¸ĩà¸ªà¸Ńà¸ĩà¸Ĥ":7769,"à¸¥à¹Ģà¸¡à¹Ģà¸Ļ":7770,"Ġà¸§à¸²à¸ĩà¸Īà¸³à¸«à¸Ļ":7771,"68":7772,"Ġà¸ģà¸£à¸°à¸Ī":7773,"à¸Ļà¹Ģà¸Ĺà¸ŀ":7774,"à¸¡à¹ĥà¸Ļ":7775,"à¸¡à¹ĥà¸«à¸¡":7776,"à¸§à¸¢à¹Ģà¸Ħà¸£":7777,"à¸Ļà¸ªà¹Ģà¸ķà¸Ńà¸£":7778,"à¹Ģà¸ļà¸ģà¸©à¸²":7779,"à¸ļà¸ģà¸²à¸£à¹ģà¸Ĥ":7780,"Ġà¹ĥà¸Ļà¸Ĥà¸ĵà¸°à¹Ģà¸Ķ":7781,"à¸£à¸ķ":7782,"à¸§à¸¢à¸ģà¸¥":7783,"Ġà¸Īà¸³":7784,"à¸ķà¸²à¸¡à¸£":7785,"à¸Ķà¸ķà¸¥à¸Ńà¸Ķ":7786,"à¸ļà¸²à¸ĩà¸Ħ":7787,"à¸ģà¸Ńà¸ļà¸£à¸¡":7788,"à¸²à¹Ģà¸Ŀ":7789,"à¸²à¸Ħà¸Ķ":7790,"à¹Ģà¸Ńà¸²à¸ķ":7791,"à¸ģà¸ķà¸°à¸§":7792,"Ġ2488":7793,"à¸Ķà¸£à¸²à¸¢à¸ģà¸²à¸£":7794,"à¸Ńà¸ĩà¹Ģà¸Ī":7795,"à¸ģà¸²à¸£à¸ģà¸³à¸«à¸Ļà¸Ķ":7796,"à¸²à¸«à¸²à¸į":7797,"ars":7798,"ĠâĢĿ":7799,"aster":7800,"ĵà¹":7801,"à¸ģà¸£à¸²à¸ļ":7802,"à¸§à¸¢à¸Ńà¸ĩà¸Ħ":7803,"à¸¢à¸¡à¹Ģà¸Ľ":7804,"à¸ŀà¸£à¸²à¸«à¸¡à¸ĵ":7805,"TV":7806,"à¸Ļà¸²à¸ģ":7807,"à¹Ĥà¸«à¸¡à¸Ķ":7808,"à¸ĺà¸ĩ":7809,"à¸Ńà¸¡à¸ļ":7810,"à¸łà¸²à¸ŀà¸ª":7811,"Ġà¹ĥà¸Ļà¸Ĥà¸ĵà¸°à¸Ļ":7812,"à¸Īà¸īà¸£":7813,"à¸²à¸¢à¹ĥà¸ķ":7814,"Ġà¹Ĥà¸Ķà¸¢à¸Ħ":7815,"à¸Ħà¸ĵà¸°à¸ªà¸ĩà¸Ĩ":7816,"à¸Ķà¸«à¸§":7817,"à¹ĥà¸Ļà¸ģà¸²à¸£à¹Ģà¸Ľ":7818,"à¹Ģà¸§à¸¥à¸²à¸ģà¸¥":7819,"Ġ43":7820,"à¸¢à¸ĩà¹ģà¸¥à¸°":7821,"Ġà¹Ĥà¸Ńà¸¥":7822,"à¸ģà¸©à¸ĵà¸°à¸Ļ":7823,"Ġà¹Ģà¸Ńà¸Łà¸ĭ":7824,"à¸ıà¸Ĳ":7825,"à¸Ńà¸Ńà¸²à¸Ĭ":7826,"Âł\"":7827,"aj":7828,"à¸ĩà¸Ħà¸§à¸²à¸¡à¸ª":7829,"à¹Ħà¸Ħà¸£":7830,"à¸ļà¸ªà¸Ńà¸ĩ":7831,"à¹Ĥà¸¢à¸Ĭ":7832,"à¸Ńà¸£à¸²à¸Ĭ":7833,"à¸ľà¸¥à¹Ħà¸¡":7834,"à¸ĩà¸Īà¸²à¸ģà¹Ħà¸Ķ":7835,"à¸Ķà¸Ĥà¸Ńà¸Ļà¹ģà¸ģ":7836,"à¸ģà¸²à¸£à¸Ľà¸ģà¸Ħà¸£à¸Ńà¸ĩà¸Ĥà¸Ńà¸ĩ":7837,"à¸¢à¸Ļà¸ĸ":7838,"à¸Ķà¸Īà¸°":7839,"à¸²à¸¢à¸«":7840,"à¸²à¸¢à¹ģà¸ļà¸ļ":7841,"Ġà¸Ĥà¸Ńà¸ĩà¸Ī":7842,"à¸Īà¸²à¸ģà¸ģà¸²à¸£à¹Ģà¸Ľ":7843,"à¸ªà¸²à¸¢à¸ģà¸²à¸£à¸ļ":7844,"à¸Ļà¹Ĥà¸Ķà¸¢à¸Ĺ":7845,"Åį":7846,"à¸Ķà¸ķà¸£":7847,"à¸°à¸Ħ":7848,"à¸Ľà¸Ļà¸²à¸§":7849,"à¸Ńà¸ģà¸«":7850,"à¸łà¸²à¸§":7851,"Ġ41":7852,"à¸Īà¸ŀà¸£à¸°à¸ļà¸£à¸¡à¸Ĭà¸Ļà¸ģ":7853,"à¸£à¸°à¸«à¸Ļ":7854,"à¸²à¸§à¸¢":7855,"Ġà¸ŀà¸Ńà¸¥":7856,"à¸§à¸²à¸ĩà¹ĥà¸Ī":7857,"Ġà¹Ķ":7858,"à¸ĩà¸ľà¸¥à¸ģà¸£à¸°à¸Ĺ":7859,"à¸Ķà¸Ł":7860,"à¸°à¹Ģà¸Ĺ":7861,"à¹ĥà¸Ļà¹Ģà¸§":7862,"à¸²à¸ŀà¸Ļ":7863,"à¸Ĺà¸²à¸ĩà¸£à¸ĸà¹Ħà¸Ł":7864,"Ġà¸Ĭà¸²à¸¢":7865,"ited":7866,"Ġ2502":7867,"Ġle":7868,"à¸²à¹ĥà¸ģà¸¥":7869,"à¸Ńà¹Ģà¸ķà¸Ńà¸£":7870,"à¸ĩà¸Ķà¸ĩà¸²à¸¡":7871,"à¸Ħà¸Ĩ":7872,"à¸Ńà¸¡à¹ĥà¸«":7873,"à¸ķà¸²à¸¡à¸ĺà¸£à¸£à¸¡à¸Ĭà¸²à¸ķ":7874,"à¸¡à¸«à¸²à¸ª":7875,"Ġà¸ģà¸²à¸£à¸ļ":7876,"à¸Ńà¸ĩà¸Ĺà¸Ńà¸ĩ":7877,"ĠÃ":7878,"à¸Ļà¹Ĥà¸¥à¸«":7879,"à¹ģà¸¥à¸°à¹Ģà¸ª":7880,"à¸Ļà¸Ļà¸ģ":7881,"à¸Ħà¸³à¸Ĺ":7882,"à¹Ģà¸Ĥà¸ķà¹Ģà¸¥":7883,"à¸£à¸Ńà¸Ķà¸Ĭ":7884,"Äģ":7885,"à¸ĭà¸Ńà¸Łà¸ķ":7886,"à¸Ńà¸ģà¸ļ":7887,"à¸²à¸ĺà¸²à¸ķ":7888,"à¹Ĥà¸£à¸ĩà¸¥à¸°à¸Ħà¸£":7889,"ĠâĢĺ":7890,"ĠGu":7891,"à¸²à¸§à¸£à¸§à¸ĩà¸¨":7892,"à¸Ńà¸¡à¹Ĥà¸¢à¸ĩ":7893,"à¸łà¸²à¸ª":7894,"à¹ģà¸¡à¸Ļà¸Ī":7895,"à¸³à¸Ńà¸²à¸Ĭ":7896,"à¹Ģà¸¥à¸ª":7897,"à¹Ħà¸Ľà¹Ģà¸£":7898,"Ġ2493":7899,"à¸Ńà¹Ĥà¸£à¸ĩà¹Ģà¸£":7900,"à¸ĩà¸łà¸²à¸¢":7901,"à¸¡à¹Ģà¸ª":7902,"à¸§à¸ĩà¸¥":7903,"Ġà¸Īà¸Ļà¸Ĺà¸³à¹ĥà¸«":7904,"à¸«à¸²à¸£à¸²à¸Ĭà¸§":7905,"à¸³à¹Ģà¸ªà¸¡à¸Ń":7906,"à¸ªà¸§à¸Ļà¸ª":7907,"à¸ķà¸£à¸Ĥà¸Ńà¸ĩà¸Ļà¸²à¸¢":7908,"à¸²à¹ĥà¸Ħà¸£":7909,"à¸ķà¸£à¸łà¸²à¸ŀ":7910,"51":7911,"à¸ĩà¹ĥà¸Ļà¸¢":7912,"à¸ĩà¸Ľà¸£à¸°à¸§":7913,"à¸¢à¹Ĥà¸Ļ":7914,"Ġà¸ŀà¸ĩà¸©":7915,"à¸¢à¸¡à¹Ģà¸¥":7916,"à¸ģà¸³à¹Ħà¸£":7917,"à¸Ľà¸£à¸°à¸ģà¸Ńà¸ļà¸Ńà¸²à¸Ĭ":7918,"à¹Ĥà¸Ńà¸ģà¸²à¸ªà¸Ĺ":7919,"à¸£à¸Ķà¸ģà¹Ĥà¸¥à¸ģ":7920,"à¹Ĥà¸Ńà¸§":7921,"à¸ĸà¸¡":7922,"à¸įà¸¡":7923,"à¸Ļà¸ķà¸£à¸°à¸ģ":7924,"à¸ģà¸©à¸²à¹ģà¸¥à¸°":7925,"à¸¨à¸²à¸ªà¸Ļà¸²à¸Ħà¸£":7926,"able":7927,"à¸ģà¹ĥà¸Ļà¸ģà¸²à¸£":7928,"à¸²à¸Ļà¹Ħà¸¡":7929,"à¸ŀà¸ļà¸ģà¸Ĭ":7930,"à¸Ńà¸²à¸Īà¹Ģà¸ģ":7931,"ital":7932,"à¸Ļà¸ŀà¸£à¸°à¸£à¸²à¸Ĭà¸ĺ":7933,"à¸²à¸Īà¸Ńà¸¡à¸¡à¸²à¸£à¸Ķ":7934,"à¸¢à¸Ļà¸¢":7935,"à¸²à¸ģà¸³à¸¥":7936,"à¸Ńà¸¡à¹Ģà¸Ľ":7937,"à¸Ńà¸Ńà¸ģà¸ģà¸³à¸¥":7938,"Ġ64":7939,"à¸ªà¸ģà¸Ńà¸ķà¹ģà¸¥à¸Ļà¸Ķ":7940,"à¸£à¸°à¸ļà¸§à¸Ļà¸ģà¸²à¸£":7941,"à¸¥à¹Ģà¸Ń":7942,"à¸§à¸Ľà¸£à¸°à¸§":7943,"à¸£à¸°à¸Ĩ":7944,"à¸Ńà¸¡à¸Ľ":7945,"à¸ģà¸£à¸£à¸¡à¸ģà¸²à¸£à¸ª":7946,"à¸Ńà¸ķà¹Ĥà¸ķà¸¡":7947,"à¸ªà¸²à¸¡à¸²à¸£à¸ĸà¸¢":7948,"67":7949,"à¸ĩà¹Ĥà¸Ħ":7950,"à¹ģà¸¥à¸£":7951,"à¸¢à¸ģà¸ª":7952,"ink":7953,"ose":7954,"à¸ģà¸£à¸°à¸Ĺà¸£à¸§à¸ĩà¸¡à¸«à¸²à¸Ķà¹Ħà¸Ĺà¸¢":7955,"63":7956,"oo":7957,"à¸Ļà¸£à¸°à¹Ģà¸ļ":7958,"à¸ļà¹Ģà¸§":7959,"à¸ĵà¸¨":7960,"à¸ķà¸ķà¸²":7961,"Ġà¸łà¸²à¸¢à¹ĥà¸Ļ":7962,"Ġ2509":7963,"300":7964,"Ġhe":7965,"Ġà¸£à¸°à¸¢à¸°à¸Ĺà¸²à¸ĩ":7966,"à¸£à¸£à¸Ķà¸²à¸¨":7967,"EC":7968,"à¸Ńà¸Ļà¸«à¸£":7969,"à¸łà¸£":7970,"à¹Ģà¸Ħà¸Ĭ":7971,"à¸²à¸Ńà¸²à¸¨":7972,"Ġ47":7973,"à¸ªà¸²à¸¡à¸²à¸£à¸ĸà¸Ī":7974,"à¸ĩà¸«à¸į":7975,"à¸Ĵà¸Ļà¸²à¹Ĥà¸Ķà¸¢":7976,"Ġ2504":7977,"Ġà¸Ħà¸ĵà¸°à¸£":7978,"à¹Ħà¸Ľà¸£à¸©à¸ĵ":7979,"à¸ģà¹ĥà¸«à¸¡":7980,"à¹Ħà¸Ńà¸Ĺ":7981,"à¸Ĺà¸ĺà¸¢à¸Ńà¸Ķà¸Ł":7982,"à¸²à¸¬à¸ª":7983,"Ġà¸ªà¹Ĥà¸¡à¸ªà¸£à¸Ł":7984,"Ġà¸Ļà¸Ńà¸ģà¹Ģà¸«à¸Ļ":7985,"Ġà¸ĭà¸²à¸£":7986,"Ġ52":7987,"Ġno":7988,"à¸Ļà¹Ģà¸ģà¸¥":7989,"à¸ļà¸£à¸¡à¸¡":7990,"à¸ģà¸©à¸£à¸¢":7991,"à¸¢à¸įà¸Ĺ":7992,"Sp":7993,"à¸¥à¸²à¸£":7994,"à¸Ħà¹Ģà¸ģà¸Ńà¸£":7995,"à¸ģà¸£à¸¢à¸²à¸Ļ":7996,"à¸²à¸Ħà¸Ļà¸Ĺ":7997,"à¸§à¸ĩà¸ģà¸²à¸£à¸ļ":7998,"à¸ĩà¹Ģà¸¨à¸ªà¸Ĺ":7999,"à¸Ķà¹Ģà¸ľà¸¢à¸§":8000,"93":8001,"à¸ĩà¸Ńà¸³à¹Ģà¸ł":8002,"à¸ļà¸¡à¸²à¸¢":8003,"à¸ļà¸ģà¸²à¸£à¸§":8004,"à¸ĩà¸£à¸Ńà¸ļ":8005,"à¸ĩà¸Ľà¸§à¸ĩ":8006,"à¸Ľà¸£à¸°à¸ŀà¸¤à¸ķ":8007,"à¸²à¹Ħà¸«à¸¡":8008,"ĠComp":8009,"52":8010,"ject":8011,"à¸Ńà¹ĥà¸Ļà¸ģà¸²à¸£":8012,"à¸Ħà¸²à¸¥":8013,"à¸Ĥà¸Ńà¸ĩà¹Ĥà¸£à¸Ħ":8014,"à¸Ļà¸ģà¸²à¸£à¹Ģà¸£":8015,"à¸Ľà¸£à¸°à¸Ĭà¸§à¸£":8016,"Ġà¸łà¸²à¸§à¸°":8017,"à¸§à¸Ļà¸ªà¸³à¸Ħ":8018,"à¹Ģà¸Ļà¸Ķ":8019,"à¸¢à¸§à¸Ĥà¸Ńà¸ĩ":8020,"à¸įà¸įà¸²à¸Ĺ":8021,"ĠÂłĠÂł":8022,"à¹Ģà¸Ļà¸£à¹Ģà¸Ĺà¸¨":8023,"à¸²à¹Ģà¸Ĥà¸²":8024,"à¸Ńà¸¢à¹Ħà¸Ķ":8025,"Ġà¹ģà¸¥à¸°à¸£à¸°à¸Ķ":8026,"à¹Ħà¸¡à¹Ģà¸Ħ":8027,"à¸Ŀà¸²à¸ģ":8028,"à¸Ħà¸³à¸ķà¸Ńà¸ļ":8029,"à¹Ģà¸§à¸ĵà¸Ķ":8030,"à¸Ķà¹Ģà¸ŀà¸Ĭà¸£à¸ļ":8031,"à¹ĥà¸¢":8032,"à¸¥à¸ĩà¸ª":8033,"à¸Ļà¸Ĺà¸²à¸ĩà¸ª":8034,"Ġcon":8035,"à¸ģà¹ģà¸ªà¸Ķà¸ĩà¸«à¸į":8036,"à¸ļà¸£à¸¡à¸¡à¸«à¸²à¸£à¸²à¸Ĭà¸§":8037,"à¸²à¸Ķà¸³à¸£à¸ĩà¸ķà¸³à¹ģà¸«à¸Ļ":8038,"à¸Ĺà¸ĺà¸²":8039,"Ġà¹Ģà¸ŀà¸Ĭà¸£":8040,"à¸Ļà¸ģà¸²à¸£à¸ŀ":8041,"à¸ģà¸Īà¸°à¸ĸ":8042,"rans":8043,"à¸Ĭà¸Įà¸²à¸¢":8044,"Ġro":8045,"à¸Ĭà¸Ķ":8046,"à¸²à¸Ļà¸«à¸£":8047,"Ġà¸ŀà¸£à¸«à¸¡":8048,"à¸ģà¹ģà¸Ĥ":8049,"à¸¡à¸Ľà¸£à¸°à¸ª":8050,"à¹ģà¸¥à¸°à¹Ģà¸Ħà¸£":8051,"à¸§à¸ĩà¸£à¸°à¸«à¸§":8052,"Ġà¸ģà¸²à¸£à¹Ģà¸Ľà¸¥":8053,"Ġ2507":8054,"à¹ģà¸Ħà¸Ļà¸²à¸Ķ":8055,"à¸²à¸¡à¸²à¸¢":8056,"Ġà¹ģà¸¥à¸°à¸ģà¸¥à¸²à¸¢à¹Ģà¸Ľ":8057,"à¸Ńà¸ģà¸²à¸£à¸ª":8058,"Ġà¸Īà¸°à¸Ĺà¸³à¹ĥà¸«":8059,"à¸Ķà¸²à¸§à¹Ģà¸Ĺ":8060,"à¸Ĥà¸Ńà¸ĩà¸ŀà¸£à¸°à¸Ļà¸²à¸ĩ":8061,"à¸Ĺà¸ķ":8062,"à¸²à¸¡à¸²à¸ª":8063,"à¸ģà¸£à¹Ħà¸Ĺà¸¢":8064,"à¸Ļà¸ģà¸Ńà¸ĩà¸Ĺ":8065,"à¸¥à¸°à¸Ħà¸Ļ":8066,"à¸ļà¸ģà¸²à¸£à¸Ĭ":8067,"à¸ĩà¸Ńà¸²à¸«à¸²à¸£":8068,"ator":8069,"à¹Ĥà¸ļà¸¥":8070,"Ġà¹Ĥà¸Ķà¸¢à¸Īà¸°à¸¡":8071,"à¸¢à¸¡à¸Ī":8072,"à¸ªà¸²à¸¡à¸²à¸£à¸ĸà¸ªà¸£":8073,"à¸Ńà¸ģà¸²à¸£à¸ŀ":8074,"à¸²à¸Ļà¸Īà¸°":8075,"oph":8076,"à¸Ĭà¸²à¸ģ":8077,"à¸²à¸§à¸²à¹Ģà¸£":8078,"Ġà¸Ńà¸Ńà¸ªà¹Ģà¸ķà¸£à¹Ģà¸¥":8079,"Ġà¸ķà¸²à¸¡à¸Ķ":8080,"à¸¡à¸ªà¸¡":8081,"à¹Ĥà¸Ľà¸¥":8082,"à¸§à¸¡à¸Ĭ":8083,"Ġà¹ģà¸ŀà¸Ĺà¸¢":8084,"ky":8085,"à¸²à¹Ģà¸«à¸¡":8086,"à¸Ńà¹Ħà¸§":8087,"à¸ĩà¸Īà¸³à¹Ģà¸Ľ":8088,"Ġà¹ģà¸¥à¸°à¸«à¸¡":8089,"à¸įà¸ļ":8090,"à¸įà¸ģà¸£à¸£à¸¡":8091,"à¹Ĥà¸Ķà¸¢à¹Ģà¸Ľ":8092,"à¸Ħà¸§à¸²à¸¡à¸Ľà¸¥à¸Ńà¸Ķà¸ł":8093,"Ġà¸ģà¸İà¸«à¸¡à¸²à¸¢":8094,"à¸Ļà¸ļà¸²à¸Ĺ":8095,"à¸ªà¸²à¸¡à¸²à¸£à¸ĸà¸ŀ":8096,"à¸¥à¸²à¸¢à¹Ģà¸§à¸Ĺ":8097,"Ġà¸Ľà¸£à¸°à¸Ĭà¸²à¸ģà¸£":8098,"à¸Ħà¸²à¸ļ":8099,"à¸Ńà¸ªà¸³à¸«à¸£":8100,"à¸ªà¸£à¸łà¸²à¸ŀ":8101,"à¸«à¸¥à¸²à¸¢à¸Ľ":8102,"oly":8103,"57":8104,"à¸Ķà¸ģà¸İà¸«à¸¡à¸²à¸¢":8105,"à¹Ĥà¸ĸ":8106,"à¸ĵà¸²à¸ĺ":8107,"à¸²à¸Ńà¸²à¸¢":8108,"Ġà¸¡à¸«à¸²à¸ł":8109,"à¸Īà¸²à¸ģà¸§":8110,"Ġ2492":8111,"Ġend":8112,"à¹Ĥà¸£à¹Ģà¸ļ":8113,"à¹Ĥà¸£à¸Ĵ":8114,"à¸¥à¸°à¸Ħà¸£à¹Ģà¸§à¸Ĺ":8115,"à¸Īà¸³à¸Ļà¸§à¸Ļà¸Ĺ":8116,"Ġ2491":8117,"à¸Ĥà¸Ńà¸ĩà¸Ħà¸£":8118,"à¸ģà¸£à¸ķ":8119,"à¸²à¸ªà¸§à¸¢à¸ĩà¸²à¸¡":8120,"à¸²à¸Ļà¸Ŀ":8121,"ĠGo":8122,"à¸¨à¸²à¸ªà¸Ļà¸²à¸Ń":8123,"oid":8124,"à¹Ģà¸ģà¸¡à¸Ń":8125,"à¸ŀà¸£à¸°à¸Ļ":8126,"à¸Ńà¸Ķà¸Ħà¸¥":8127,"illi":8128,"à¸Ļà¸ķà¸Ļà¸²à¸ģà¸²à¸£":8129,"à¸¡à¸®":8130,"à¸Ĭà¸°":8131,"à¸Ńà¸ģà¸¡":8132,"à¸ĩà¸ªà¸ĩà¸Ħà¸£à¸²à¸¡à¹Ĥà¸¥à¸ģà¸Ħà¸£":8133,"à¸Ļà¸Ļà¸²à¸¡":8134,"iki":8135,"à¹Ģà¸Ħà¸¢à¸£":8136,"Ġà¸Ľà¸£à¸°à¹Ģà¸Ĺà¸¨à¸Ŀà¸£":8137,"Ġ2484":8138,"Ġà¹ĥà¸Ļà¸ļà¸Ĺ":8139,"à¸¡à¸²à¸Ĥà¸Ńà¸ĩà¸Ĭ":8140,"Ġà¸Ľà¸¥à¸²":8141,"lex":8142,"Ġ2497":8143,"à¹Ģà¸ªà¸ģà¸ªà¸¡à¸£à¸ªà¸ģ":8144,"94":8145,"à¸Ļà¹Ģà¸Ħà¸¢":8146,"à¹Ĥà¸Ķà¸¢à¸ķà¸¥à¸Ńà¸Ķ":8147,"à¸įà¸įà¸²à¸ª":8148,"orp":8149,"Ġà¹Ģà¸ģà¸©":8150,"à¹ģà¸Ħà¸Ĺ":8151,"à¸ģà¸¡à¸§à¸¢à¹Ħà¸Ĺà¸¢":8152,"à¸ģà¸ŀà¸£à¸£à¸Ħ":8153,"à¸¡à¸ľà¸¥":8154,"à¸²à¸¡à¸²à¸¡":8155,"Ġà¹ģà¸¥à¸°à¸ªà¸¡à¹Ģà¸Ķ":8156,"à¹Ģà¸Ĥà¸²à¸£":8157,"à¸²à¹Ĥà¸Ń":8158,"à¸²à¹Ħà¸Ĺ":8159,"à¸ľà¸Īà¸įà¸ł":8160,"à¸Īà¸°à¹Ģà¸ŀ":8161,"à¸Ĳà¸ķ":8162,"à¸ļà¸Ļà¸²à¸ĩ":8163,"à¸ģà¸²à¸£à¹Ģà¸ķ":8164,"à¸²à¸ķà¸²à¸¢":8165,"à¸ĩà¸Ĥà¸£à¸ĵ":8166,"Ġ1930":8167,"Ġà¹ĥà¸Ļà¸ģà¸²à¸£à¹Ģà¸¥":8168,"Ġà¸Ļà¸³à¹Ĥà¸Ķà¸¢":8169,"Ġà¹Ģà¸¢à¸Ńà¸£à¸¡à¸Ļ":8170,"à¸Ļà¸ģà¸¥à¸²à¸¢à¹Ģà¸Ľ":8171,"à¸ģà¸«à¸į":8172,"à¸¥à¸¨":8173,"à¸¢à¸Ķà¸ª":8174,"à¹Ģà¸£à¸²à¸°":8175,"à¸Ńà¸¥à¸Ĺ":8176,"Ġà¸ģà¸²à¸£à¸ªà¸£":8177,"à¸ĩà¸Ĥà¸Ńà¸ĩà¸£":8178,"Ġ2476":8179,"Ġà¸Ńà¸ĩà¸¨à¸²":8180,"ner":8181,"Ġj":8182,"à¸²à¹Ĥà¸Ķ":8183,"à¸ĩà¸ķà¸£":8184,"à¸ĩà¸ŀà¸£à¸°à¹Ģà¸Ī":8185,"à¸Ħà¹Ģà¸ĭ":8186,"à¸²à¸¢à¸ķà¸£à¸ĩà¸Ĥ":8187,"à¸Ńà¸Ķà¹ģà¸Ķà¸ĩ":8188,"Ġà¹ĥà¸Ļà¸ģà¸£":8189,"à¸łà¸²à¸©à¸²à¸Ĺ":8190,"iland":8191,"à¹Ĥà¸Ĭà¸Ħ":8192,"à¸ĩà¹ĥà¸ª":8193,"à¸Ļà¸¤":8194,"à¸Īà¸ģà¸¥":8195,"à¸µà¹Ī\"":8196,"à¹Ĥà¸į":8197,"à¸Ńà¸ģà¹Ĥà¸ģ":8198,"à¸²à¸§à¸²à¸¢":8199,"à¸Ĵà¸Ļà¸²à¸ª":8200,"à¸²à¹Ħà¸Ľà¹ĥà¸Ļ":8201,"ĠChampions":8202,"96":8203,"à¸Ķà¸ľà¸¥":8204,"à¸įà¸Ĺà¸²à¸ĩ":8205,"à¹ģà¸ļà¸ļà¸Ķ":8206,"à¹ģà¸ļà¸Ļà¸Ķ":8207,"à¸Īà¸³à¸Ļà¸§à¸Ļà¸Ľà¸£à¸°à¸Ĭà¸²à¸ģà¸£":8208,"à¸ľà¸¥à¸ĩà¸²à¸Ļà¸ģà¸²à¸£":8209,"Ġà¸Ĺà¸²à¸ĩà¸ªà¸ĸà¸²à¸Ļ":8210,"air":8211,"Ġà¸Ľà¸ģà¸ķ":8212,"à¸°à¸§à¸°":8213,"à¸ªà¹ģà¸¥":8214,"à¸ļà¹ģà¸ģ":8215,"à¸ļà¹Ģà¸ŀà¸¥":8216,"à¹ģà¸¥à¸°à¸ļà¸£":8217,"Ġà¹ģà¸¥à¸°à¹Ģà¸Ķ":8218,"Ġà¸ªà¸łà¸²à¸ŀ":8219,"à¸ģà¸¤à¸ķà¸ģà¸²à¸£à¸ĵ":8220,"à¸¡à¸Ľà¸£":8221,"à¸¥à¹Ĥà¸Ļ":8222,"Ġà¸Ľà¸²à¸£":8223,"à¸¥à¸°à¸Ľ":8224,"Ġà¸ģà¸²à¸£à¹Ģà¸Ĥ":8225,"à¹ĥà¸Ļà¸ªà¸Ļà¸²à¸¡":8226,"à¸ĩà¹Ģà¸ŀà¸Ĭà¸£":8227,"à¸Īà¸ļà¸¥à¸ĩ":8228,"Ġar":8229,"à¸Ļà¹ĥà¸Ķ":8230,"à¸³à¸ķà¸ģ":8231,"Ġà¸ªà¸ķà¸£":8232,"à¸ģà¸©à¸ĵà¸°à¹Ģà¸īà¸ŀà¸²à¸°":8233,"Ġ1985":8234,"à¸Ķà¹ĥà¸Ļà¸Ľà¸£à¸°à¸§":8235,"à¸Īà¸°à¸«":8236,"à¸łà¸²à¸ŀà¸ĸ":8237,"Ġà¹ĥà¸Ļà¸ĭ":8238,"à¸Īà¸ŀà¸£à¸°à¸ļà¸£à¸¡":8239,"à¸ľà¸¥à¸ĩà¸²à¸Ļà¸Ń":8240,"à¸Ļà¸łà¸²à¸¢à¹ĥà¸ķ":8241,"à¸µà¹ī\"":8242,"à¸Ļà¸¢à¸²":8243,"à¸«à¸¥à¸²à¸¢à¸Ħ":8244,"à¹ĥà¸Ļà¸ķà¸Ńà¸Ļà¸Ĺ":8245,"Ġà¸Ħà¸ĵà¸°à¸§":8246,"ubl":8247,"à¹Ģà¸Ļà¸Ľà¸²à¸¥":8248,"à¸¢à¹ģà¸Ĭà¸¡à¸Ľ":8249,"à¸Ķà¹ĥà¸Ļà¸§":8250,"à¸²à¸ĩà¸Ĭà¸Ļ":8251,"à¸Ĳà¸Ī":8252,"à¸¢à¸Ļà¹Ģà¸ģ":8253,"à¸«à¸¥à¸²à¸¢à¹Ĩ":8254,"à¹Ĥà¸ģà¸¥à¸Ķ":8255,"à¸£à¸Ń":8256,"à¸ļà¹ģà¸Ĥ":8257,"à¸Łà¸²à¹Ĥà¸£à¸«":8258,"à¸ªà¸¡à¸²à¸ŀ":8259,"à¸ĩà¸ģà¸²à¸£à¸ķ":8260,"Ġ1984":8261,"à¸Īà¸ŀà¸£à¸°à¸ļà¸£à¸¡à¸Ĭà¸Ļà¸ģà¸²à¸ĺ":8262,"à¸ķà¸²à¸¡à¸ģà¸İà¸«à¸¡à¸²à¸¢":8263,"à¹ĥà¸Ļà¸¨à¸²à¸ªà¸Ļ":8264,"rest":8265,"à¸ģà¸²à¸£à¹Ĥà¸Īà¸¡à¸ķ":8266,"à¸¢à¸ĩà¸Ħà¸£":8267,"à¸ĩà¸ªà¸²à¸ĺà¸²à¸£à¸ĵà¸£":8268,"à¸¢à¸¡à¸Ķ":8269,"Ġà¹ĥà¸Ļà¸Ļà¸²à¸¡":8270,"ĠMed":8271,"Ġpl":8272,"Ġ1987":8273,"à¸Ńà¸Ĭà¸²à¸§":8274,"à¸Ńà¸Ľà¸£à¸°à¸Ĭ":8275,"à¸Ńà¸¢à¸Ħà¸¥":8276,"à¸ķà¸²à¸¡à¸ķ":8277,"à¸¢à¸ļà¸ĩ":8278,"itt":8279,"à¸ĩà¹ģà¸Ĺ":8280,"à¸²à¸¢à¸ļà¸£":8281,"à¸įà¸ŀà¸£à¸°":8282,"à¸Ńà¸ģà¹Ģà¸Ĥà¸²":8283,"à¸Ĺà¸²à¸ĩà¹Ģà¸Ĥ":8284,"à¸¢à¸¡à¸£":8285,"à¸ĩà¸ģà¸¤à¸©à¹Ħà¸Ķ":8286,"à¸²à¸Łà¸£":8287,"à¹ģà¸Ĺà¸£à¸ģà¸ĭ":8288,"IN":8289,"à¸ģà¸²à¸ĭ":8290,"à¸ģà¸©à¸²à¸Ħ":8291,"à¸ĩà¸ªà¸ĸà¸²à¸Ļ":8292,"à¹ĥà¸Ļà¸ģà¸²à¸£à¸Ĺ":8293,"à¸Ļà¸Ĺà¸²à¸ĩà¹Ģà¸Ĥ":8294,"à¸Ĳà¸ļà¸²à¸¥à¸ģà¸¥à¸²à¸ĩ":8295,"à¸Ńà¸Ńà¸ĩà¸Ħ":8296,"à¸§à¸²à¸£à¸°":8297,"à¸Īà¸°à¹Ģà¸«":8298,"à¸Ńà¸Ļà¸ªà¹ģà¸ķ":8299,"à¸ģà¹Ħà¸Łà¸Ł":8300,"à¸ķà¹Ģà¸Ī":8301,"à¸Ħà¸§à¸²à¸¡à¸ģ":8302,"à¸īà¸°à¸Ļ":8303,"à¸¢à¸²à¸¢à¹Ģà¸£":8304,"Ġà¹Ĥà¸£à¹Ģà¸ļ":8305,"à¸Ńà¹Ħ":8306,"à¸Ķà¹Ħà¸Ł":8307,"à¸Ĥà¸ļà¸§à¸Ļà¸ģà¸²à¸£":8308,"à¸Ńà¸¡à¸²à¸§":8309,"à¸¥à¸ĩà¹ģà¸Ĥ":8310,"Ġà¹ĥà¸Ļà¸£à¸²à¸¢à¸ģà¸²à¸£":8311,"à¸ģà¸²à¹ģà¸¥":8312,"à¸§à¹Ħà¸Ľà¸Ĺ":8313,"bo":8314,"à¸£à¸Ķ":8315,"à¸Ħà¸Ļà¸ªà¸³à¸Ħ":8316,"à¸Ńà¸¢à¸¡à¸²":8317,"à¸£à¸£à¹Ģà¸ªà¸£":8318,"à¸Īà¸Īà¸£":8319,"ĠAss":8320,"à¸ĩà¹Ģà¸ģà¸²à¸°":8321,"à¹Ĥà¸Ĭà¸ķ":8322,"ĠEnter":8323,"à¸Ńà¸Ľà¸£à¸°à¹Ģà¸Ĺà¸¨":8324,"à¸ģà¸ļà¸£":8325,"à¸ļà¸ªà¸¡à¹Ģà¸Ķ":8326,"à¹ģà¸Ĥà¸§à¸Ļ":8327,"à¸Ķà¸¡à¸ģà¸²à¸£à¸ĵ":8328,"ĠFl":8329,"à¹Ĥà¸Ńà¸ģà¸²à¸ªà¹Ħà¸Ķ":8330,"à¸¥à¹ģà¸£à¸ģ":8331,"à¸Ńà¸Ļà¹ģà¸Ń":8332,"à¸Ļà¸Ħà¸ķ":8333,"à¸Ļà¸¢à¸³":8334,"à¸²à¸ľà¸Ļ":8335,"à¸§à¸¢à¸Ħà¸§à¸²à¸¡à¸Ĺ":8336,"à¸ģà¹Ģà¸«à¸¥":8337,"à¸ģà¹Ĥà¸Īà¸¡à¸ķ":8338,"à¸¡à¸ĩà¸²à¸Ļ":8339,"à¸ªà¸«à¸łà¸²à¸ŀà¹Ĥà¸ĭà¹Ģà¸§":8340,"à¸Īà¸³à¸¥":8341,"Ġà¸Ķà¸Ļà¸ķà¸£":8342,"à¸ĩà¹ĥà¸Ļà¸Ń":8343,"à¸Ļà¹ģà¸Ķà¸Ļà¸Ĥà¸Ńà¸ĩ":8344,"ĠComm":8345,"rec":8346,"à¹ģà¸Ħà¸§à¸£":8347,"à¸Ľà¸®":8348,"à¸Ħà¸§à¸²à¸¡à¸«à¸Ļà¸²à¹ģà¸Ļ":8349,"à¸Ĺà¸ĺà¸Ńà¸ĩà¸Ħ":8350,"à¸ŀà¸£à¸°à¸£à¸²à¸Ĭà¸Ļ":8351,"Ġà¸Īà¸²à¸ģà¸Ń":8352,"ros":8353,"ream":8354,"Ġà¹Ģà¸Ĺà¸Ħà¹Ĥà¸Ļà¹Ĥà¸¥à¸¢":8355,"ĠInd":8356,"à¹ģà¸Ĺà¸£à¸ģà¹ģà¸ĭ":8357,"Ġà¹ĥà¸Ļà¸«à¸Ļ":8358,"à¸ļà¸ªà¹Ĥà¸¡à¸ªà¸£à¸Ł":8359,"ele":8360,"à¸Ľà¹Ħà¸Ķ":8361,"à¸Ńà¸ĩà¹ģà¸Ħ":8362,"Ġà¸ģà¸£à¸ĵ":8363,"ĠRo":8364,"à¸Ńà¸ŀà¸£à¸°à¸Ńà¸ĩà¸Ħ":8365,"à¸¢à¸Ł":8366,"à¸ģà¸©à¸²à¸ŀà¸£à¸°à¸Ńà¸ĩà¸Ħ":8367,"à¸Ĺà¸£à¹ģà¸Ńà¸ķà¹ģà¸¥à¸Ļà¸ķ":8368,"à¸ĩà¸¡à¸²à¸ģà¸ģà¸§":8369,"Ġà¸Ĭà¸²à¸ķ":8370,"à¸¥à¸°à¸ª":8371,"app":8372,"ĠAwards":8373,"à¸ĩà¹Ģà¸®":8374,"à¸ĩà¹Ģà¸Ńà¹Ģà¸Ĭ":8375,"à¸¢à¹Ģà¸Ĥ":8376,"à¸ĵà¸ĵ":8377,"à¸Ħà¸§à¸²à¸¡à¸ĭ":8378,"Ġ2495":8379,"Ġà¸Ńà¸¡":8380,"à¸Ĳà¹ģà¸¥à¸°":8381,"à¹ģà¸ļà¸ļà¹Ħà¸¡":8382,"à¸ĩà¸ģà¸²à¸£à¸£":8383,"atch":8384,"à¹Ģà¸«à¸¡à¸²à¸°à¸ªà¸¡à¸ģ":8385,"à¸°à¹Ģà¸¢à¸²":8386,"à¸£à¸¨":8387,"à¸ģà¹ģà¸Ĺà¸Ļà¸Ĺ":8388,"à¸ªà¸ļ":8389,"Ġà¹Ĥà¸Ķà¸¢à¸Ĥ":8390,"Ġà¸Ĥà¸Ńà¸ĩà¸Ļ":8391,"Ġà¹Ģà¸ŀà¸£à¸²à¸°à¹Ģà¸Ľ":8392,"à¸Īà¸Ļà¹Ģà¸ģ":8393,"à¸¬à¸²à¹Ĥà¸¥à¸ģ":8394,"à¸Ħà¸°à¹ģà¸Ļà¸Ļà¹Ģà¸ª":8395,"à¸²à¸¢à¸ģà¸¥":8396,"Ġà¸ŀà¸²à¸¢":8397,"à¸¡à¸Ńà¸į":8398,"à¸Īà¸³à¸Ļà¸§à¸Ļà¸ľ":8399,"à¸Ķà¸Ńà¸²à¸§":8400,"Ġà¹ģà¸¥à¸°à¸Ĺà¸³":8401,"à¸ŀà¸£à¸°à¸ĺà¸£à¸£à¸¡":8402,"à¸²à¸Īà¸Ńà¸£":8403,"à¸¢à¸¡à¹ģà¸¥à¸°":8404,"à¸īà¸°":8405,"à¸Ļà¸ŀà¸£à¸°à¸ĺ":8406,"à¸Ķà¸£à¸²à¸¡":8407,"à¸Ħà¸£à¸Ńà¸ĩà¸Ļà¸Ħà¸£":8408,"à¸§à¹Ĥà¸¥à¸ģà¹Ģà¸«à¸Ļ":8409,"ral":8410,"à¸µâĢĿ":8411,"à¸¡à¸²à¸Ĺà¸³":8412,"à¸Ķà¸ªà¸³à¸«à¸£":8413,"à¸°à¸£à¸°":8414,"à¸¢à¸ĩà¸¡":8415,"à¸Ļà¸²à¸¡à¹Ģà¸Ķ":8416,"à¸¡à¸²à¸ĵà¸Ļ":8417,"à¸ļà¸Ķà¸²à¸§":8418,"à¸Ńà¸²à¸Īà¸Īà¸°à¸¡":8419,"à¸ģà¹Ģà¸ģà¸ĵà¸ĳ":8420,"à¸Ńà¸ģà¹ĥà¸Ĭ":8421,"à¸Ńà¸£à¸²à¸§":8422,"à¸¢à¸²à¹Ģà¸ĺà¸Ń":8423,"à¸Ļà¹ĥà¸Ļà¸¥":8424,"à¸ªà¹Ģà¸ĭà¸Ńà¸£":8425,"à¸Ĺà¸²à¸ĩà¸Ĺà¸°à¹Ģà¸¥":8426,"à¸ģà¸Ĺà¸³à¹ĥà¸«":8427,"à¸ĩà¹Ģà¸Ĥà¸²à¹Ħà¸Ķ":8428,"à¸²à¸ĩà¹Ħà¸§":8429,"Ġà¸ļà¸²à¸ĩà¸ª":8430,"Ġà¸Ħà¸£à¸Ńà¸ļà¸Ħà¸¥":8431,"à¸²à¸Ļà¸łà¸²à¸ŀ":8432,"à¸¢à¸£à¸²à¸¡à¸Ħà¸³à¹ģà¸«à¸ĩ":8433,"Ġà¹ĥà¸Ī":8434,"à¸ģà¹Ĥà¸¥à¸ģ":8435,"à¸³à¹Ģà¸ª":8436,"à¸©à¸Ĺ":8437,"à¹Ĥà¸£à¸§":8438,"à¸«à¸¥à¸²à¸¢à¹Ģà¸£":8439,"à¹ĥà¸Ļà¹Ģà¸§à¸¥à¸²à¸Ļ":8440,"Cl":8441,"the":8442,"à¸Ļà¹Ħà¸Ĥ":8443,"à¸§à¸Ļà¸§":8444,"à¸Īà¸ĩ":8445,"à¸¢à¸¡à¹ģà¸«":8446,"à¹ĥà¸Ļà¸ģà¸²à¸£à¸¨":8447,"à¸Ńà¸ģà¹Ģà¸¥":8448,"à¸Łà¸²à¸Ļ":8449,"à¸²à¸ªà¸²à¸§":8450,"Ġà¹ģà¸Ń":8451,"à¸ĩà¸Ħà¸ĩà¹ĥà¸Ĭ":8452,"à¹ģà¸ªà¸ķ":8453,"à¸ĩà¸Īà¸°à¹Ħà¸Ķ":8454,"oth":8455,"à¹ģà¸ĸà¸§":8456,"à¸Ķà¸Ŀ":8457,"à¸²à¸Ļà¹ĥà¸«":8458,"à¸ķà¸£à¸Ļ":8459,"ere":8460,"Ġà¸ŀà¸£à¸°à¸Ĺ":8461,"à¸Ľà¸£à¸°à¸ģà¸Ńà¸ļà¸Ĺ":8462,"Âł(":8463,"à¹Ĥà¸£à¸Ľà¸ķà¸°à¸§":8464,"à¸ªà¸²à¸Ĥà¸²":8465,"à¸ŀà¸Ńà¸Ķ":8466,"à¸²à¸Ĭà¸¡":8467,"Ġà¸«à¸¥à¸§à¸ĩà¸ŀ":8468,"IS":8469,"ution":8470,"à¸ģà¹ģà¸¡":8471,"à¸Ĺà¸£à¸¡":8472,"à¸Ĥà¸Ńà¸ĩà¹Ģà¸¥":8473,"à¹ĥà¸Ļà¸¡à¸«à¸²à¸§":8474,"à¸§à¸¢à¸«à¸Ļ":8475,"à¸ģà¸²à¹Ħà¸Ķ":8476,"à¸Ńà¸Ńà¸ģà¸Īà¸²à¸ģà¸ģ":8477,"à¸Ńà¸ĩà¸Ĥà¸§":8478,"à¸³à¸Ĭ":8479,"à¹Ģà¸ļà¸įà¸Ī":8480,"tex":8481,"ave":8482,"à¸²à¹ģà¸ŀ":8483,"Ġà¸Ńà¹Ģà¸¡à¸£":8484,"à¸Ľà¸£à¸²à¸ģà¸ıà¸Ńà¸¢":8485,"à¸Ħà¸Ńà¸Ľà¹Ģà¸ķà¸Ńà¸£":8486,"IT":8487,"à¸Ńà¹Ģà¸«":8488,"à¸ĩà¹Ģà¸ļà¸Ńà¸£":8489,"à¸Ħà¸Ľ":8490,"à¸ĭà¸²à¹Ģà¸¥":8491,"à¸Ļà¸Ĺà¸Ńà¸ĩ":8492,"à¹Ģà¸£à¸ĭ":8493,"à¹Ĥà¸£à¸Ļ":8494,"à¸Ļà¸¡à¸²à¸ģà¸¡à¸²à¸¢":8495,"à¹Ħà¸ĭà¸Ļ":8496,"Ġ2496":8497,"à¸²à¸Ńà¸Ńà¸ģà¸Ńà¸²à¸ģà¸²à¸¨":8498,"à¹Ĥà¸Ĩà¸©":8499,"à¸ŀà¸Ńà¸£":8500,"à¸²à¸¡à¸²à¸Ńà¸¢":8501,"à¸ģà¸£à¸ļ":8502,"à¸²à¸ļà¸Ļ":8503,"unc":8504,"à¹Ĥà¸ģà¸ªà¸¥à¸²à¹Ģà¸§":8505,"à¸²à¸¡à¹ģà¸¡":8506,"à¸Ļà¸Ļà¸²à¸£":8507,"Ġà¹ĥà¸Ļà¸£à¸°à¸Ķ":8508,"à¸Ļà¸Ľà¸£à¸°à¸ķ":8509,"à¹Ĥà¸¢à¸ļà¸²à¸¢":8510,"97":8511,"à¸¢à¸¥à¸¥":8512,"à¸ķà¸ģà¹Ģà¸Ľ":8513,"à¸Ĺà¸Ńà¸ĩà¸Ħà¸³":8514,"à¸ķà¸²à¸¡à¸¥":8515,"à¸łà¸²à¸Ħà¸ģà¸¥à¸²à¸ĩ":8516,"Ġà¹Ģà¸Ńà¸²à¸Ĭà¸Ļà¸°":8517,"à¸Ńà¸«à¸²à¸Ĥà¸Ńà¸ĩ":8518,"ames":8519,"ext":8520,"Ġà¹ĥà¸Ļà¸Īà¸³à¸Ļà¸§":8521,"à¹ģà¸ªà¸ĩà¸Ńà¸²à¸Ĺ":8522,"à¸ģà¹Ģà¸¥à¸¢":8523,"à¸¡à¸Ķà¸²à¸§":8524,"à¸ŀà¹Ģà¸ŀ":8525,"à¸ģà¸²à¸£à¸Ĥà¸Ļà¸ª":8526,"Ġà¸ŀà¸Ńà¸ķà¹Ģà¸ķà¸Ńà¸£":8527,"à¸Ļà¸ªà¸ĩà¸Ħà¸£à¸²à¸¡":8528,"erm":8529,"à¸İà¸ģ":8530,"à¸ĩà¸Ńà¸Ńà¸ªà¹Ģà¸ķà¸£":8531,"pt":8532,"à¸²à¸ĩà¹ĥà¸Ļ":8533,"à¹Ħà¸Ľà¸Ĥ":8534,"à¸§à¸ĩà¸Ķ":8535,"à¹Ĥà¸ķà¸Ļ":8536,"Ġ72":8537,"à¸¡à¸Ńà¹Ģà¸ķà¸Ńà¸£":8538,"à¸³à¸¥à¸ĩ":8539,"à¹Ģà¸Ĥà¸²à¸Īà¸°":8540,"à¸Ħà¸¥à¸Ńà¸Ķ":8541,"à¸ĩà¸Ĥà¸¥":8542,"à¸¡à¸²à¸ģà¸£":8543,"à¸Ļà¹Ħà¸®":8544,"à¸Ĥà¸²à¸Ķà¹ģà¸Ħà¸¥":8545,"à¸ģà¸ģà¸£":8546,"à¸¡à¸²à¸Īà¸Ļà¸ĸ":8547,"à¸¢à¸Ļà¸Ľ":8548,"à¸ĵà¸ª":8549,"à¸²à¸§à¸Ńà¸¢":8550,"à¸²à¸¥à¸°":8551,"à¸Ļà¸§à¸ĩà¸¨":8552,"à¸ªà¸¡à¸¡à¸ķ":8553,"Ġ51":8554,"ĠOn":8555,"à¸ªà¸Ľà¸Ńà¸£":8556,"à¸ļà¸Ľà¸£à¸°à¸Ĺà¸²à¸Ļ":8557,"à¸ģà¹Ĥà¸ĭ":8558,"à¸ģà¸²à¸£à¸Ĥà¸Ńà¸ĩ":8559,"à¹Ģà¸§à¸Ļà¸ķ":8560,"à¸ªà¸°à¹Ģà¸Ĺ":8561,"à¸ªà¸²à¸«à¸ģ":8562,"à¸Ńà¹ģà¸£à¸ģ":8563,"à¸¥à¹Ģà¸ŀ":8564,"à¸ªà¸¡à¸ģ":8565,"Ġà¹Ĥà¸Ķà¸¢à¹ĥà¸Ļà¸Ľ":8566,"à¸ļà¸Ĺà¸Ľà¸£à¸°à¸ŀ":8567,"à¸Ħà¸Ļà¹ģà¸£à¸ģà¸Ĺ":8568,"Ġ600":8569,"ative":8570,"à¸¡à¸²à¸Ħ":8571,"à¸Ĥà¸¢":8572,"Ġà¸Ħà¸Ļà¸ķ":8573,"à¸Ļà¸ªà¸²à¸§":8574,"à¸Ĺà¸³à¸ĩà¸²à¸Ļà¸Ĺ":8575,"à¸Ńà¹Ģà¸ĭ":8576,"à¸ĩà¸¡à¸²":8577,"à¸Ķà¸ªà¸Ļà¸²à¸¡":8578,"ean":8579,"à¸ķà¸Ľà¸£à¸°à¸Īà¸³à¸§":8580,"à¸ļà¸ªà¸¡à¸²à¸Ĭ":8581,"à¸ļà¸Ħà¸³à¸ª":8582,"à¸²à¸¢à¹ĥà¸Ļà¸Ľ":8583,"à¸Ħà¸§à¸²à¸¡à¸Īà¸³":8584,"à¹Ģà¸§à¸ķ":8585,"Ġà¹ģà¸ļà¸¥":8586,"à¸ķà¸²à¸¡à¸Ĥ":8587,"à¸Ļà¹ĥà¸Ļà¸£à¸°à¸Ķ":8588,"à¹ĥà¸Ļà¸ŀà¸£":8589,"à¸ªà¹ģà¸ķà¸Ļà¸ķ":8590,"à¸¡à¸²à¸ļ":8591,"Ġà¹ģà¸¥à¸°à¸Ļà¸³":8592,"à¸Ħà¸§à¸²à¸¡à¸Īà¸³à¹Ģà¸Ľ":8593,"à¸Īà¸°à¸¥":8594,"à¸¥à¸°à¸Ń":8595,"à¹Ģà¸Ħà¸¢à¸ĸ":8596,"ĠIt":8597,"à¸¥à¸¢à¸²à¸ĵ":8598,"</":8599,"à¸ĩà¹Ģà¸Ħà¸¢à¹Ģà¸Ľ":8600,"à¹ģà¸¥à¸Ĥà¸Ńà¸ĩ":8601,"à¸Ĺà¸²à¸ĩà¹Ģà¸¥":8602,"à¸Ļà¹ģà¸ļà¸£":8603,"hed":8604,"à¸Ńà¸ĩà¸Īà¸²à¸ģà¹Ħà¸¡":8605,"Ġà¹ĥà¸Ļà¸Ĭà¸²à¸£":8606,"Ġà¸Ľà¸£à¸°à¸Ĭà¸²à¸Ĭ":8607,"à¸¢à¸ŀà¸£à¸°à¹Ģà¸Ī":8608,"à¸°à¸Ī":8609,"à¸Ńà¸ĩà¹Ħà¸§":8610,"à¸£à¸°à¹Ģà¸Ĥ":8611,"Ġà¹Ĥà¸Ķà¸¢à¸Ľà¸ģà¸ķ":8612,"à¸ĩà¸ģà¸³à¸«à¸Ļà¸Ķ":8613,"à¸ĩà¸Ĥà¸Ńà¸ĩà¸Ń":8614,"à¸Ļà¸Ŀà¸£":8615,"à¸Īà¸²à¸ģà¸ļ":8616,"à¹Ģà¸Ļà¸ģ":8617,"à¹ĥà¸Īà¸Ĺ":8618,"à¸²à¸Ĥà¸Ńà¸ĩà¸£":8619,"à¸łà¸²à¸©à¸²à¸ģà¸£":8620,"à¸Īà¸²à¸ģà¸ģà¸²à¸£à¹ģà¸Ĥ":8621,"à¸£à¸Ńà¸ĩà¸Ĭà¸Ļà¸°à¹Ģà¸¥":8622,"ĠChampionship":8623,"à¸Ńà¸ĩà¹Ģà¸Ń":8624,"à¸Ĥà¸Ńà¸ĩà¹Ģà¸«à¸¥":8625,"à¸Ńà¸Ļà¹Ģà¸ŀ":8626,"à¸§à¸¢à¸Ħà¸§à¸²à¸¡à¸£":8627,"à¸ľà¸¥à¸¥":8628,"Ġà¹ĥà¸Ļà¹Ģà¸Ħà¸£":8629,"à¸ļà¸Ńà¸¥à¸«à¸į":8630,"ication":8631,"Ġà¹ĥà¸Ļà¸ļà¸£":8632,"à¹ģà¸ļà¸£à¸Ļà¸Ķ":8633,"à¸ģà¸©à¸²à¸Ħà¸§à¸²à¸¡à¸Ľà¸¥à¸Ńà¸Ķà¸ł":8634,"à¸Ńà¸ģà¸ľ":8635,"à¸Ľà¸£à¸°à¸ģà¸²à¸¨à¹ĥà¸Ĭ":8636,"Ġà¸Ĺà¸²à¸ĩà¸ķà¸°à¸§":8637,"à¸Ļà¸łà¸²à¸©à¸²à¹Ħà¸Ĺà¸¢":8638,"à¸Ńà¸ªà¸¡à¹Ģà¸Ķ":8639,"à¸«à¸ģà¸£à¸ĵ":8640,"à¸¸\"":8641,"à¸¨à¸Ļà¸²":8642,"à¸Ńà¸¡à¸²à¸Ń":8643,"à¸¥à¸Ľà¸ģà¸£à¸£à¸¡":8644,"à¸¢à¸Ĥà¸Ńà¸Ļà¹ģà¸ģ":8645,"à¸ªà¸Ī":8646,"à¸ªà¸Ńà¸¢":8647,"à¸ķà¸¥à¸ģ":8648,"à¸ģà¸²à¸£à¸Ĺà¸³à¸ĩà¸²à¸Ļ":8649,"à¸Ńà¸ļà¹ĥà¸«":8650,"à¹Ģà¸ŀà¸¥à¸ĩà¸Ķ":8651,"à¸ĩà¸¢à¸Ńà¸Ķà¹Ģà¸¢":8652,"Ġà¸Ľà¸£à¸°à¹Ģà¸Ĺà¸¨à¸ªà¸«à¸£":8653,"à¸¨à¸²à¸ªà¸Ļà¸²à¸ŀ":8654,"à¸Ľà¸£à¸°à¹Ģà¸łà¸Ĺà¸Ļ":8655,"à¸¢à¸Ļà¸Ļà¸²à¸¢à¸£":8656,"way":8657,"à¸Ńà¸Ńà¸ª":8658,"à¸ĩà¹ģà¸ª":8659,"à¸ļà¹ĥà¸Ļ":8660,"à¸ģà¸²à¸£à¸Ł":8661,"à¸ŀà¸£à¸°à¸Ħ":8662,"à¸Ļà¸Ļà¸²":8663,"à¸ĩà¸ŀà¸²à¸ĵ":8664,"à¸§à¹Ĥà¸¥à¸ģà¹ĥà¸ķ":8665,"Ġà¸¡à¸²à¸ģà¸¡à¸²à¸¢":8666,"à¸Ńà¹Ģà¸ĺà¸Ń":8667,"à¸ļà¹Ģà¸ĺà¸Ń":8668,"à¸Ĥà¸Ńà¸ĩà¸£à¸²à¸Ĭà¸§à¸ĩà¸¨":8669,"Ġà¸ªà¸²à¹Ģà¸«à¸ķ":8670,"à¸¢à¸ĩà¸¢":8671,"à¸Ĺà¸²à¸ĩà¸Ļ":8672,"ĠGr":8673,"ĠKing":8674,"fl":8675,"à¸¡à¹Ģà¸Ħà¸£":8676,"à¸ļà¸Ħà¸¥":8677,"à¸Ļà¸ģà¸²à¸£à¸Ĭ":8678,"à¸²à¸ļà¸£à¸¡à¸£à¸²à¸Ĭ":8679,"à¸ĩà¹Ĥà¸ķà¹Ģà¸ģ":8680,"à¹ĥà¸Ļà¸Ŀà¸£":8681,"à¸§à¸Ĥà¸²à¸§":8682,"à¸²à¸§à¸Ī":8683,"à¸ķà¸£à¸ļ":8684,"à¸ģà¸©à¸²à¸Ľà¸£à¸°à¸ķ":8685,"à¸Ĺà¸³à¸Ļà¸²à¸¢":8686,"à¸ĩà¸ªà¸«à¸Ľà¸£à¸°à¸Ĭà¸²à¸Ĭà¸²à¸ķ":8687,"à¸¤à¸Ĺ":8688,"Ġà¹Ĥà¸£à¸¡":8689,"à¸Ńà¸Ĥà¸Ńà¸ĩà¸Ī":8690,"à¹Ħà¸Ĥà¸ª":8691,"ĠRec":8692,"à¹Ģà¸ªà¸¡à¸Ńà¸ģ":8693,"à¸ĩà¸¤à¸Ķ":8694,"à¸Ķà¹ĥà¸Ļà¸ª":8695,"à¸§à¸Ļà¸£à¸²à¸Ĭà¸ģà¸²à¸£":8696,"à¸Ńà¸«à¸²à¸Ĺ":8697,"à¸£à¸°à¸ļà¸Ńà¸ļà¸Ľà¸£à¸°à¸Ĭà¸²à¸ĺ":8698,"Ġà¸Ħà¸§à¸ļà¸Ħ":8699,"à¸Ńà¹Ģà¸Ńà¸ģ":8700,"Ġà¹ģà¸¥à¸°à¸Īà¸°":8701,"enn":8702,"à¸Ńà¸³à¹Ģà¸łà¸Ńà¸ª":8703,"à¸ªà¸²à¸¡à¸ģ":8704,"à¸Ńà¸ĩà¸Ľà¸£à¸°à¸Ķ":8705,"à¸ŀà¸²à¸Ļ":8706,"à¸ģà¸©à¸²à¹ĥà¸Ļà¸£à¸°à¸Ķ":8707,"à¸Ļà¹Ĥà¸Ī":8708,"à¸Ļà¸²à¸¢à¸ŀà¸¥":8709,"à¸Ľà¸£à¸°à¸ģà¸²à¸¨à¸Ĥ":8710,"Ġà¸Ļà¸²à¸¢à¸ª":8711,"que":8712,"à¹Ģà¸§à¸£":8713,"à¹Ĥà¸¡à¹Ĥà¸ķà¸°":8714,"à¸²à¸ĩà¸ªà¸ĩà¸Ħà¸£à¸²à¸¡":8715,"à¸Ĳà¸ļà¸²à¸¥à¸Ń":8716,"ull":8717,"Ġ;":8718,"à¸ķà¹ĥà¸Ļ":8719,"à¸Ĭà¸²à¸ª":8720,"à¹Ĥà¸Ķà¸¢à¸¡à¸²à¸ģ":8721,"à¹Ģà¸Ńà¸ĭ":8722,"à¹Ĥà¸Ľà¸£à¹ģà¸ģà¸£":8723,"Ġteam":8724,"red":8725,"05":8726,"à¸Ļà¹ĥà¸Ļà¸ķà¸³à¹ģà¸«à¸Ļ":8727,"à¸²à¸ģà¸Ńà¸Ļ":8728,"à¸Ńà¸¡à¸²à¸ģà¸ģà¸§":8729,"Ġà¹Ģà¸ªà¸¡à¸Ń":8730,"à¸²à¸Ľà¸£à¸²à¸ģà¸ı":8731,"à¸Ļà¹ĥà¸ļ":8732,"à¸Łà¸ª":8733,"à¸Ļà¸Ĥà¸Ńà¸ĩà¸ľ":8734,"à¸²à¸£à¸²à¸Ĭà¸ģà¸²à¸£à¸Ī":8735,"Ġà¸£à¸Ńà¸ļà¸Ħ":8736,"à¸ļà¸Ħà¸£à¸Ńà¸ļà¸Ħà¸£":8737,"à¸Ĭà¸¨à¸²à¸ªà¸ķà¸£":8738,"Ġà¸£à¸Ńà¸¢":8739,"à¸łà¸²à¸ŀà¸£":8740,"à¸Ħà¸Ļà¹ģà¸£à¸ģà¸Ĥà¸Ńà¸ĩ":8741,"à¸łà¸²à¸¢à¹ĥà¸Ļà¸Ľà¸£à¸°à¹Ģà¸Ĺà¸¨":8742,"ĠCoun":8743,"à¸ļà¸²à¸ĩà¸Ĺ":8744,"Ġ1982":8745,"Ġ1941":8746,"à¸²à¸Ļà¸¢à¸Ļà¸ķ":8747,"à¸Ļà¹ĥà¸Ļà¸Ħà¸£":8748,"à¸ĩà¹Ģà¸«à¸Ļ":8749,"à¸²à¸ĩà¹Ħà¸Ľ":8750,"ley":8751,"à¸¢à¸Ńà¸¡à¹ĥà¸«":8752,"à¸Ńà¹ģà¸ľ":8753,"à¸ļà¸²à¸ª":8754,"à¸ļà¸¡à¸²à¸Īà¸²à¸ģ":8755,"à¸ĩà¹ģà¸£à¸ģà¸Ĥà¸Ńà¸ĩ":8756,"Ġ2494":8757,"à¹ĥà¸Ļà¸ģà¸²à¸£à¸Ħ":8758,"à¸£à¸°à¸ļà¸ļà¸£":8759,"Ġà¸Ľà¸£à¸°à¹Ģà¸Ĺà¸¨à¸Ī":8760,"à¸Ĥà¸Ńà¸ĩà¸ªà¸²à¸ĺà¸²à¸£à¸ĵà¸£":8761,"Ġby":8762,"à¹ĥà¸Ļà¸Ĳà¸²à¸Ļà¸°à¸Ļ":8763,"à¸Ļà¸ľà¸¥à¹ĥà¸«":8764,"à¸ģà¸£à¸°à¹ģà¸ªà¹Ħà¸Łà¸Ł":8765,"91":8766,"à¸Ļà¸Ńà¸¡":8767,"à¸ļà¹ģà¸ļà¸ļ":8768,"à¸Ńà¸¡à¸«à¸¥à¸§à¸ĩ":8769,"à¸ªà¸²à¸¡à¸²à¸£à¸ĸà¹Ģà¸¥":8770,"à¹Ģà¸Ĺà¸ŀà¸¨":8771,"ES":8772,"à¸Ĭà¸Ń":8773,"à¹ģà¸¥à¸°à¸«à¸¥":8774,"à¹ĥà¸Ļà¸ģà¸²à¸£à¹Ģà¸Ķ":8775,"à¸Ļà¸Ĥà¸Ńà¸ĩà¸ķà¸Ļà¹Ģà¸Ńà¸ĩ":8776,"Ġ1979":8777,"à¹Ģà¸ªà¸ĺà¸Ĺ":8778,"Ġ1939":8779,"Ġà¸Ļà¸ŀ":8780,"à¸Ľà¸§à¸Ķ":8781,"Ġà¸¡à¸²à¹Ģà¸¥à¹Ģà¸ĭ":8782,"à¸Ļà¸ªà¸³à¹Ģà¸£":8783,"à¸ļà¸ģà¸²à¸£à¸ģ":8784,"à¸²à¸Ĥà¸Ńà¸ĩà¸ŀà¸£à¸°à¸Ńà¸ĩà¸Ħ":8785,"à¸²à¹ģà¸Ł":8786,"à¸Ńà¸§à¸ĩ":8787,"à¸ģà¸²à¸£à¸Ľà¸£à¸°à¸ģà¸§à¸Ķ":8788,"à¸²à¸Ļà¹Ģà¸ŀ":8789,"à¸§à¸¢à¸ŀà¸£à¸°":8790,"à¸Ħà¸§à¸²à¸¡à¸«à¸§":8791,"à¸ģà¸Ńà¸®à¸Ńà¸¥":8792,"à¸Ńà¸³à¸Ļà¸§à¸¢à¸Ħà¸§à¸²à¸¡à¸ªà¸°à¸Ķà¸§à¸ģ":8793,"à¸²à¸¡à¸¡":8794,"à¹Ħà¸Ľà¹ĥà¸Ĭ":8795,"à¸¢à¸§à¹Ĥà¸ķ":8796,"à¸Ńà¸Ńà¸ģà¸ª":8797,"à¸Ļà¸³à¸«à¸Ļ":8798,"à¹Ħà¸¥à¸ķ":8799,"à¸Īà¸Ļà¸ģà¸§":8800,"à¸¡à¹Ģà¸Ļ":8801,"à¸²à¸ĩà¸Ķà¸²à¸§":8802,"à¸§à¸¢à¸Ľà¸¥":8803,"oss":8804,"à¹ĥà¸Ļà¸¨à¸ķà¸§à¸£à¸£à¸©à¸Ĺ":8805,"à¸ĩà¹Ģà¸«à¸¡":8806,"à¸Ħà¸ļ":8807,"à¸ģà¸©à¸²à¸Ī":8808,"org":8809,"Ġà¸Ńà¸²à¸Īà¸¡":8810,"Ġà¹Ģà¸Łà¸£":8811,"à¸Ļà¸Ľà¸£à¸°à¸Īà¸³à¸Ĺ":8812,"à¸ĩà¸ĩà¸°":8813,"oul":8814,"à¸²à¹Ģà¸«à¸£":8815,"à¸³à¸ľ":8816,"Ġà¸Ļà¸²à¸¬":8817,"à¸Ĺà¸ĺà¸§":8818,"AM":8819,"à¸Ńà¸ĩà¹ģà¸¥":8820,"à¸Ĥà¸Ńà¸ĩà¸Ŀà¸£":8821,"Ġà¸ªà¸¥":8822,"ĠAp":8823,"à¹Ħà¸®à¹Ĥà¸Ķà¸£à¹Ģà¸Ī":8824,"oon":8825,"à¸ļà¹Ģà¸«à¸£":8826,"à¹ĥà¸Ŀ":8827,"à¹Ĥà¸Ńà¸ķ":8828,"à¸ģà¸¥à¸Ńà¸ļ":8829,"à¸Ħà¸§à¸²à¸¡à¹Ģà¸Īà¸£":8830,"Ġà¹Ģà¸ģà¸²à¸«à¸¥":8831,"à¸²à¸Łà¸Ĺ":8832,"âĢĭâĢĭ":8833,"à¸Ĺà¸³à¸ª":8834,"à¸Ļà¸¡à¸²à¸Ń":8835,"à¸Ĺà¸£à¸ĩà¸ĸ":8836,"à¹ģà¸Ľà¸£à¸£":8837,"à¸ģà¸²à¸£à¸Ńà¸¢":8838,"à¹Ģà¸Ļà¸¥":8839,"à¸¢à¸ĩà¹Ħà¸®":8840,"à¸¢à¸Ļà¹Ģà¸ŀ":8841,"à¸Ńà¸§à¸Ńà¸£":8842,"à¸Ļà¸Ĺà¸£à¸²à¸ļà¸£à¸¡à¸£à¸²à¸Ĭ":8843,"à¸ļà¸£à¸¡à¸£à¸²à¸Ĭà¸²à¸Ļ":8844,"à¸ļà¹Ĥà¸ķà¸Ĥ":8845,"à¸²à¸Ħà¸§à¸ļà¸Ħ":8846,"à¸¢à¸Ļà¸ĭ":8847,"à¹Ħà¸Ľà¸Ī":8848,"à¸ļà¸Ħà¸§à¸²à¸¡à¸ªà¸Ļà¹ĥà¸Ī":8849,"à¹Ģà¸Ńà¸Ļà¹Ģà¸Ń":8850,"Ġà¹ĥà¸Ļà¸ķà¸³à¹ģà¸«à¸Ļ":8851,"à¸Ńà¸Ļà¸ªà¹ģà¸ķà¸Ļà¸ķ":8852,"à¸ģà¸©à¸²à¸ŀà¸£à¸°":8853,"Ġà¸Ńà¸²à¸¥":8854,"à¸ļà¸Ħà¸§à¸²à¸¡à¸Ĭ":8855,"à¹Ģà¸§à¸ĵà¹ĥà¸ģà¸¥":8856,"à¸Ĺà¸³à¸ĩà¸²à¸Ļà¹Ħà¸Ķ":8857,"à¹Ģà¸ĸà¸£":8858,"à¸Ļà¸Ľà¸£à¸°à¹Ģà¸Ĺà¸¨à¸Ĺ":8859,"à¹ģà¸Ńà¸Ļà¸Ķà¸£":8860,"à¸²à¸ĩà¸«à¸£":8861,"à¸ģà¸£à¸ª":8862,"à¸¤à¹ħ":8863,"à¸²à¹ģà¸Ŀ":8864,"à¸įà¸«à¸²à¸ª":8865,"Ġà¹Ģà¸®à¸Ļà¸£":8866,"à¸ģà¹ĥà¸Ļà¸§":8867,"à¸¥à¹Ģà¸Ĭ":8868,"à¸§à¹Ģà¸Ī":8869,"à¸Ńà¸Ļà¹Ģà¸ķ":8870,"à¸Ĳà¸ģ":8871,"ĠEd":8872,"à¸²à¸ĩà¸Ńà¸²à¸Ħà¸²à¸£à¹Ģà¸£":8873,"CO":8874,"à¸ģà¸Ľà¸£à¸°à¸ģà¸²à¸£":8875,"à¸§à¸¡à¹Ģà¸Ĥ":8876,"à¹Ĥà¸£à¸ĩà¹Ħà¸Łà¸Ł":8877,"à¹Ģà¸Ĥà¸²à¹Ģà¸£":8878,"à¸łà¸²à¸Ħà¹Ģà¸Ńà¹Ģà¸Ĭ":8879,"à¸Ļà¸«à¸¥à¸§à¸ĩ":8880,"à¸ªà¸Ļà¸²à¸¡à¸ļ":8881,"Ġ1944":8882,"AD":8883,"à¸Īà¹Ħà¸Ķ":8884,"à¸Ĭà¸Ļà¸Ĭ":8885,"à¸ģà¸²à¸£à¸«":8886,"à¸³à¸Ļà¸¡":8887,"Ġà¸ģà¸Ńà¸ĩà¸ģà¸³à¸¥":8888,"à¸ģà¸£à¸°à¹Ģà¸ļ":8889,"à¸ĩà¸Ńà¸ĺ":8890,"à¸Ńà¸Ľà¸Ľ":8891,"its":8892,"à¸įà¸įà¸²à¸ĵà¸Ĺ":8893,"à¸²à¸¢à¹Ħà¸Ľà¸Ĺ":8894,"à¸ĩà¸ĩà¸²à¸Ļà¸Ī":8895,"à¸ªà¸²à¸Ħà¸£":8896,"à¸²à¸¢à¹Ģà¸Ķ":8897,"à¹ĥà¸Ļà¹Ĥà¸Ńà¸¥":8898,"Ġà¸Ńà¸Ńà¸ģà¸Īà¸²à¸ģ":8899,"à¸ªà¸°à¸Ńà¸²à¸Ķ":8900,"à¸ķà¸Ńà¸Ļà¸Ļ":8901,"à¸ľà¸ªà¸¡à¸ģ":8902,"ps":8903,"à¸ļà¸«à¸į":8904,"Ġà¹ģà¸¥à¸°à¸Ł":8905,"à¸Ļà¸ªà¸ķà¸£":8906,"à¸Ļà¸§à¸²à¸¢":8907,"à¸®à¸Ńà¸¥à¸¥":8908,"à¸²à¸łà¸²à¸ŀà¸¢à¸Ļà¸ķà¸£":8909,"à¸²à¸ĩà¹Ĩà¸Ĺ":8910,"à¹ģà¸£à¸ģà¸§":8911,"à¸£à¸²à¸ļà¸¥":8912,"Ġà¹Ĥà¸Ħà¸£à¸ĩà¸ªà¸£":8913,"400":8914,"à¸Īà¸Ķà¸«à¸¡à¸²à¸¢":8915,"Ġà¸¡à¸²à¸ª":8916,"à¹Ĥà¸£à¸ª":8917,"à¹Ģà¸Ĺà¸¨à¸ļà¸²à¸¥à¸Ļà¸Ħà¸£":8918,"Ġå":8919,"à¸Īà¹ĥà¸Ļà¸Ľ":8920,"à¸Ľà¸£à¸°à¸ĵ":8921,"à¸Ńà¸ģà¸Ńà¸ĩà¸Ĺ":8922,"Ġà¹Ĥà¸Ķà¸¢à¹ģà¸ķ":8923,"à¹ĥà¸Ļà¸ĺà¸£à¸£à¸¡à¸Ĭà¸²à¸ķ":8924,"à¸Ľà¹Ħà¸Ĥ":8925,"à¸ŀà¸¤à¸«":8926,"à¸ģà¸²à¸£à¹Ģà¸ĩ":8927,"à¸Ļà¸Ķà¸³à¸£à¸ĩà¸ķà¸³à¹ģà¸«à¸Ļ":8928,"à¸ķà¸³à¸£":8929,"à¹Ģà¸Ńà¸ģà¸Ń":8930,"à¸ªà¸²à¸£à¸Ĺ":8931,"Ġà¸Ľà¸£à¸²à¸ªà¸²à¸Ĺ":8932,"à¸Ķà¹ģà¸Ĥ":8933,"à¸ģà¸²à¸£à¸¥à¸ĩ":8934,"à¸Ļà¸ķà¸°":8935,"à¸ŀà¸£à¸°à¸ĺà¸²à¸ķ":8936,"à¸ĩà¸Ńà¸²à¸¨":8937,"à¸ĩà¸ģà¸¤à¸©à¸§":8938,"à¸²à¸«à¸¡à¸²à¸¢à¸Ĺ":8939,"à¸Ĭà¹Ģà¸Ĭà¸ªà¹ģà¸«":8940,"à¹ģà¸Ńà¸Ħ":8941,"à¸įà¸Ļ":8942,"à¸¢à¸ĩà¹Ģà¸ŀ":8943,"à¹Ģà¸ĭà¸²à¸Ĺ":8944,"ines":8945,"à¸Ńà¸ĩà¸Īà¸²à¸ģà¸ķ":8946,"ates":8947,"Ġà¸ŀà¸£à¸°à¸£à¸²à¸Ĭà¸Ĺ":8948,"à¸Ķà¹ĥà¸Ī":8949,"à¸ļà¹Ĥà¸£à¸ĩà¹Ģà¸£":8950,"à¸ģà¸²à¸£à¸ķà¸£à¸§à¸Ī":8951,"à¸Ļà¸Ńà¸Ńà¸ģà¸ģà¸¥à¸²à¸ĩ":8952,"Ġà¸Ľà¸£à¸°à¸ģà¸²à¸£":8953,"à¸ģà¸Ńà¸ĩà¹Ģà¸£":8954,"à¸Ľà¸£à¸²à¸£à¸ĸà¸Ļ":8955,"à¸ģà¸ĩ":8956,"à¸ĩà¸Ĺà¸³à¸«à¸Ļ":8957,"à¸ĩà¹ĥà¸Ļà¸Ĥà¸ĵà¸°à¸Ļ":8958,"à¸Ļà¸Ĩ":8959,"à¸ķà¸«":8960,"à¸²à¸Ļà¸ģà¸²à¸£à¸¨":8961,"à¸§à¸¢à¹Ģà¸ŀ":8962,"à¸ĩà¸Ńà¸Ńà¸ģà¹Ħà¸Ķ":8963,"à¸Ķà¹Ĥà¸Ńà¸ģà¸²à¸ªà¹ĥà¸«":8964,"à¸ļà¸¡à¸Ļ":8965,"à¸«à¸Ļà¸Ńà¸ĩ":8966,"à¸łà¸²à¸ŀà¹Ģà¸Ĥ":8967,"à¹ģà¸Łà¸£à¸ĩà¸ģ":8968,"à¸£à¸²à¸ļà¸ª":8969,"à¸Ļà¸¥à¸²à¸¢":8970,"à¸ĩà¹ĥà¸Ļà¸Ķ":8971,"à¸Ĥà¸Ńà¸ĩà¹Ģà¸Ķ":8972,"à¸Īà¸²à¸ģà¸Ħ":8973,"à¸ĩà¸ªà¸ģ":8974,"à¸ľà¸¥à¸Ķ":8975,"à¸ģà¸£à¸°à¹Ģà¸ŀà¸²à¸°":8976,"à¸Ĭà¸Ļà¹Ģà¸ľ":8977,"à¸Ļà¸łà¸²à¸©à¸²à¸Ĺ":8978,"à¸Ļà¹Ģà¸¥à¸¢":8979,"à¸²à¸Ľà¸£à¸°à¸ģà¸²à¸¨":8980,"ĠEng":8981,"à¸²à¸Ļà¸ŀà¸²à¸«à¸Ļà¸°":8982,"à¸²à¸ĩà¸Īà¸²à¸ģà¸ķ":8983,"à¹Ĥà¸ªà¸ĺà¸£":8984,"à¸ģà¹Ģà¸ĭà¸¡à¹Ģà¸ļ":8985,"à¸Ķà¸²à¸Ķ":8986,"à¸Ħà¸²à¸Ĺà¸Ńà¸¥":8987,"à¸²à¸ģà¸Ļ":8988,"à¸ĵà¸Ĺ":8989,"à¹Ģà¸ķà¸ªà¹ģà¸ķà¸Ļà¸ķ":8990,"à¸Ļà¸«à¸§":8991,"à¸Ļà¸Ľà¸¥à¸²":8992,"Ġà¹Ģà¸Ĥà¸²à¹Ģà¸£":8993,"à¸§à¸²à¸ĩà¹Ħà¸Ĥ":8994,"à¸Ļà¸łà¸²à¸ŀà¸Ĺ":8995,"Ġà¹Ģà¸īà¸¥":8996,"Ġ...":8997,"à¹ģà¸¥à¸°à¹Ģà¸ģ":8998,"à¸Ĥà¸Ńà¸ĩà¸Ķà¸²à¸§":8999,"Ġà¸ŀà¸¢":9000,"Ġà¹Ģà¸£à¸¢":9001,"à¸Ļà¹Ħà¸Ľà¸Ķ":9002,"Ġ800":9003,"à¸ªà¸ĸà¸²à¸Ľà¸Ļà¸²":9004,"cle":9005,"à¸ĩà¸ĩà¸²à¸Ļà¸Ĥà¸Ńà¸ĩ":9006,"à¸ķà¸¨":9007,"Ġà¸ŀà¸£à¸°à¸¡à¸«à¸²à¸ģà¸©":9008,"à¹Ĥà¸ķà¹Ģà¸ķ":9009,"à¸Ĵà¸Ļà¸²à¸ķ":9010,"egin":9011,"à¸Ķà¸³à¸£à¸ĩà¸Ĭ":9012,"à¸ĭà¸Ńà¸Ļ":9013,"à¸łà¸£à¸£à¸¢":9014,"à¹Ģà¸Ĺà¸¨à¸¡à¸Ļà¸ķà¸£":9015,"à¸¡à¸²à¹Ģà¸¢":9016,"à¸Ļà¸ģà¸²à¸£à¸Ħ":9017,"Ġ57":9018,"à¸Ľà¸ģà¸Ħà¸£à¸Ńà¸ĩà¸ķà¸Ļà¹Ģà¸Ńà¸ĩ":9019,"à¸Ńà¸Ħà¸§à¸²à¸¡à¸Ĭ":9020,"à¸ĩà¸Ħà¸§":9021,"à¸¥à¹ģà¸ģà¸£à¸¡à¸¡":9022,"à¸Ķà¹ģà¸¡":9023,"à¸ªà¸Ńà¸ĩà¸Ĺ":9024,"à¸¨à¸Ļà¸Ħà¸ķ":9025,"Ġà¹ģà¸¥à¸°à¸ľà¸¥":9026,"à¸Ńà¸Ļà¹ģà¸£à¸ģ":9027,"à¸ĩà¸ģà¸³à¹Ģà¸Ļ":9028,"ĠBest":9029,"à¹Ĥà¸Ħà¸¡":9030,"à¸ĩà¹ģà¸®à¸¡":9031,"à¸ŀà¸Ńà¸Ĺ":9032,"à¸ģà¸²à¸£à¹Ģà¸ģà¸©à¸ķà¸£":9033,"à¸³à¸Ńà¸¢":9034,"à¹ģà¸¥à¸°à¸ªà¸£":9035,"à¸ĸà¸¢à¸Ļà¸ķ":9036,"Ġà¸ģà¸Ńà¸£":9037,"à¸£à¸²à¸Ĭà¸į":9038,"à¹ģà¸ªà¸ĩà¸Ĺ":9039,"à¹ĥà¸Ļà¸ģà¸²à¸£à¸ĸ":9040,"à¸Ĺà¸³à¸ĩà¸²à¸Ļà¸Ńà¸¢":9041,"à¸Ńà¸²à¸ªà¸Ļà¸§":9042,"à¸Ńà¸Ľà¸£à¸°à¹Ĥà¸¢à¸Ĭà¸Ļ":9043,"à¸ļà¸Ńà¸²à¸ģà¸²à¸¨":9044,"à¹Ħà¸Ļà¸ķ":9045,"à¸Ńà¸¢à¸Ĥ":9046,"à¸Ńà¸¢à¹ģà¸¥":9047,"Ġà¹Ĥà¸Ķà¸¢à¹Ģà¸¡":9048,"Ġà¸Ĥà¸Ńà¸ĩà¸ľ":9049,"Best":9050,"à¸¢à¹ĥà¸ķ":9051,"à¸²à¸¡à¸²à¸ģà¸ģà¸§":9052,"à¹Ģà¸Ħà¹Ģà¸ļ":9053,"ĠOp":9054,"Ġdis":9055,"à¸Ľà¸£à¸°à¹Ģà¸łà¸Ĺà¸Ĺ":9056,"AS":9057,"à¸¢à¹Ĥ":9058,"à¸ķà¹ģà¸ŀà¸Ĺà¸¢":9059,"à¹Ģà¸Ĺà¸²":9060,"ĠEntertain":9061,"af":9062,"à¸ĩà¹Ĥà¸Ľà¸£à¸ķ":9063,"Ġà¸ŀà¸¡":9064,"à¸ªà¸³à¸£à¸Ńà¸ĩ":9065,"à¸¢à¸¡à¸ľ":9066,"à¸ģà¸£à¸£à¸¡à¸§":9067,"à¸Ļà¸Ĥà¸Ļà¸²à¸Ķà¹ĥà¸«à¸į":9068,"Ġ1983":9069,"à¹ĥà¸Ļà¸Ĳà¸²à¸Ļà¸°à¸Ĺ":9070,"Ġà¸łà¸²à¸Ħà¸§":9071,"à¸Ńà¸²à¸¡":9072,"à¸¡à¸ģà¸³à¸¥":9073,"à¸Ķà¸Ħà¸§à¸²à¸¡à¸ª":9074,"à¸²à¸¡à¸²à¸Ĭ":9075,"ĠRes":9076,"à¸ģà¸Īà¸°à¹ĥà¸Ĭ":9077,"à¸Ķà¸Ħà¸§à¸²à¸¡à¸£":9078,"à¸²à¸Ļà¸ģà¸¥":9079,"à¹Ħà¸Ľà¸Ń":9080,"Ġà¸ķà¸°à¸§":9081,"à¸ĩà¸Ńà¸²à¸£":9082,"Ġ95":9083,"ilm":9084,"Ġà¹ĥà¸Ļà¸Ħà¸§à¸²à¸¡":9085,"à¸Ļà¸ķà¸³à¸£à¸§à¸Ī":9086,"à¸Īà¸²à¸ģà¹Ģà¸¡":9087,"à¹Ģà¸Ĺà¸§à¸Ķ":9088,"Ġà¸¡à¸²à¹Ģà¸£":9089,"à¸Ľà¸£à¸²à¸¢":9090,"à¸Ľà¸£à¸°à¹Ģà¸Ĺà¸¨à¸ķ":9091,"à¸Ńà¸²à¸£à¸¢à¸ĺà¸£à¸£à¸¡":9092,"à¸Ńà¸ĩà¸£à¸²à¸§à¹Ģà¸ģ":9093,"earch":9094,"à¸¢à¸Ķà¸Ĥà¸Ńà¸ĩ":9095,"à¹Ħà¸£à¸ģ":9096,"à¸ŀà¹Ģà¸Ľ":9097,"à¸²à¸ĩà¹ģà¸¡":9098,"à¹ĥà¸Ļà¸ªà¸łà¸²à¸ŀ":9099,"à¹ģà¸¢à¸ģà¸ģ":9100,"à¸ģà¸Ńà¸ĩà¸ŀà¸¥":9101,"Ġà¸Īà¸Ńà¸¡à¸ŀà¸¥":9102,"à¸¡à¸¡à¸²":9103,"à¸ŀà¹Ģà¸Ĥ":9104,"à¸Ĺà¸³à¸Ķ":9105,"Ġà¹ģà¸Ľà¸¥":9106,"à¹Ĥà¸¥à¸Ļ":9107,"à¸ģà¸²à¸£à¸ªà¸Ńà¸ļ":9108,"à¸¢à¸Ļà¸ªà¸²à¸ĺ":9109,"Ġ1981":9110,"600":9111,"à¸Ńà¹Ĥà¸Ħà¸£":9112,"à¸ļà¸ĩ":9113,"à¸²à¸ĩà¹ĥà¸ģà¸¥":9114,"à¸ļà¸ģà¸²à¸£à¸Ķ":9115,"à¸ļà¸ģà¸²à¸£à¸Ńà¸Ļ":9116,"Ġ53":9117,"à¸Ĭà¸²à¸§à¹Ģà¸¡":9118,"à¸£à¸²à¸¢à¸ģà¸²à¸£à¸Ĺ":9119,"à¸Ĭà¸²à¸¢à¸²":9120,"à¸Ńà¸²à¸Īà¸Ĺà¸³à¹ĥà¸«":9121,"à¸Ńà¸Ĥà¸Ńà¸ĩà¸Ń":9122,"à¸ĩà¸Īà¸°à¸ĸ":9123,"Ġ2482":9124,"à¸Ńà¸ĩà¸£à¸²à¸§à¸Ĺ":9125,"oh":9126,"à¸Ńà¸ĩà¹Ģà¸ľà¸Ĭ":9127,"à¸Ĥà¸Ńà¸ĩà¸Ĭà¸²à¸ķ":9128,"Ġà¹ģà¸¥à¸°à¸ķà¸³à¸ļà¸¥":9129,"Ġà¹Ĥà¸Ķà¸¢à¸Ńà¸²à¸¨":9130,"à¸Ļà¸ģà¸²à¸£à¹Ģà¸¥":9131,"Ġà¹Ģà¸Ĥà¸²à¸ķ":9132,"à¸łà¸²à¸©à¸²à¸¡":9133,"à¸Ļà¹ĥà¸Ļà¸Ļà¸²à¸¡":9134,"à¸ĩà¹ģà¸¥à¸°à¸¡":9135,"à¸£à¸ªà¸Ĭà¸²à¸ķ":9136,"à¸ļà¸²":9137,"à¸²à¸ĩà¹Ģà¸«":9138,"à¸Ńà¸¢à¸Ħ":9139,"à¸Ļà¸²à¸¢à¸ª":9140,"à¸¢à¸²à¹Ģà¸ªà¸ŀà¸ķ":9141,"à¸Ļà¸ĺà¸£à¸£à¸¡à¸Ĭà¸²à¸ķ":9142,"à¸Ķà¸Ľà¸Ĺ":9143,"à¸ĩà¹Ħà¸Ľà¸Ĺ":9144,"à¸Ľà¸ģà¸Ħà¸¥":9145,"à¸Ńà¸ĩà¹ģà¸ģ":9146,"à¸ĭà¸Ńà¸£":9147,"à¹Ĩà¸ģ":9148,"à¹Ħà¸Ĺà¸¢à¹Ħà¸Ķ":9149,"Ġà¸¥à¸²à¸§":9150,"à¹Ħà¸Łà¸£":9151,"ĠEl":9152,"à¹Ģà¸ªà¸ģà¸ªà¸¡à¸£à¸ª":9153,"my":9154,"work":9155,"à¸ĩà¹ĥà¸Ļà¸Ħ":9156,"à¸Ĭà¸ŀ":9157,"à¸²à¸¢à¹Ģà¸ª":9158,"à¸ļà¸ģà¸²à¸£à¸Ńà¸Ńà¸ģà¹ģà¸ļà¸ļ":9159,"IC":9160,"Ø§":9161,"à¸Ńà¸Ħà¸§à¸²à¸¡à¸£":9162,"à¸Ħà¹ĥà¸«à¸¡":9163,"à¸Ńà¸Ļà¸ģà¸³à¸¥":9164,"Ġà¸Ĺà¸²à¸ĩà¸Ĺ":9165,"Ġà¸ĭà¸²à¸ģ":9166,"à¸¢à¸§à¸ŀ":9167,"à¹Ģà¸ļà¸¥à¸¥":9168,"Ġà¸ĸà¸§à¸²à¸¢":9169,"ĠTV":9170,"à¸²à¸Ĭà¸²à¸¢à¸Ń":9171,"EE":9172,"pro":9173,"à¸¥à¸Ńà¸ļ":9174,"à¸¢à¸§à¸Ń":9175,"à¹Ģà¸Ĺà¸¨à¸¨à¸²à¸ªà¸ķà¸£":9176,"à¸Īà¸³à¸Ļ":9177,"à¸Ļà¸Ĥà¸Ńà¸ĩà¸ª":9178,"à¹ģà¸Ľà¸Ķ":9179,"à¸§à¸¢à¸ģà¸²à¸£à¹Ģà¸Ľ":9180,"à¸²à¸Ľà¸£à¸²à¸ªà¸²à¸Ĺ":9181,"ience":9182,"à¸²à¸ģà¹Ģà¸Ľ":9183,"à¹Ĥà¸Ķà¸¢à¸¢":9184,"à¸ģà¸£à¸°à¹Ģà¸Ľ":9185,"à¸Ľà¸£à¸°à¸ªà¸ļà¸Ľ":9186,"ics":9187,"Ġà¸¡à¸²à¸ķà¸£à¸²":9188,"!!":9189,"01":9190,"à¸ļà¸Ĺà¸£":9191,"à¸²à¸¢à¹Ģà¸ŀ":9192,"à¹Ģà¸¡à¸Ĩ":9193,"à¸²à¸Ķà¸Ĺ":9194,"à¸Ļà¹ģà¸Ļ":9195,"yle":9196,"à¸°à¸ģà¸Ķ":9197,"à¸²à¸ĭà¸²":9198,"Ġà¸ĺà¸Ļà¸²à¸Ħà¸²à¸£":9199,"à¹ģà¸Ħà¸£à¸°":9200,"à¸Īà¸Ķà¸Ĺà¸°à¹Ģà¸ļ":9201,"à¸Ńà¸ĩà¹Ģà¸§":9202,"à¸²à¸Ļà¹ĥà¸Ļ":9203,"à¸Ļà¸¡à¸²à¹Ħà¸Ķ":9204,"à¸Ļà¸Īà¸Ļà¸ĸ":9205,"any":9206,"Ġà¸ģà¸²à¸£à¸ĸ":9207,"Ġà¹Ħà¸ķ":9208,"à¹Ģà¸Ńà¸¥à¸Ł":9209,"à¸Ļà¹Ĥà¸£à¸Ķà¸¡":9210,"à¸²à¸ķà¸²à¸¥":9211,"ony":9212,"Ġ58":9213,"à¸ĩà¹ģà¸Ľà¸¥à¸§":9214,"Ġà¹Ģà¸ļà¸£":9215,"à¸ģà¸ĺà¸£à¸£à¸¡":9216,"à¸ķà¹Ħà¸Ľ":9217,"à¸£à¸²à¸Ĭà¸²à¸Ļ":9218,"à¸²à¸Ĥà¸Ńà¸ĩà¸Ń":9219,"à¸¢à¸ļà¹Ħà¸Ķ":9220,"Ġà¹Ģà¸Ńà¸¥":9221,"à¸Ļà¸¨à¸²à¸ªà¸Ļ":9222,"à¹ģà¸Ľà¸¥à¸ĩà¸£":9223,"à¸§à¸Ľà¸£à¸°à¸ģ":9224,"à¸Ķà¸Ļà¸Ħà¸£à¸¨à¸£":9225,"à¸Ľà¸ģà¸²à¸£":9226,"à¹Ĥà¸Ļà¸£":9227,"à¸Ĳà¸²à¸Ļà¸Ĥ":9228,"à¸Ńà¸Ķà¸²à¸§":9229,"à¸Ńà¸ĩà¸Ħà¸Ļ":9230,"Ġà¹Ĥà¸ŀ":9231,"à¸Ļà¸Ĺà¸²à¸ĩà¸«à¸¥à¸§à¸ĩ":9232,"à¹Ĥà¸Ńà¹Ģà¸§à¸Ńà¸£":9233,"à¸Ńà¸ĩà¸ªà¸²à¸¡":9234,"à¹Ģà¸īà¸ŀà¸²à¸°à¸ģ":9235,"à¸Ĥà¸Ńà¸ĩà¸ªà¹Ĥà¸¡à¸ªà¸£":9236,"à¹Ĥà¸¥à¸§à¸²à¹Ģà¸ģ":9237,"à¸ĩà¹ĥà¸Ļà¸ŀ":9238,"à¸ļà¸²à¸ĩà¸ģà¸Ńà¸ģ":9239,"à¹ģà¸ļà¸Ĺ":9240,"à¸łà¸£à¸£à¸¢à¸²":9241,"à¸¢à¸ĩà¹Ģà¸Ķ":9242,"à¸«à¸¡à¸§à¸ģ":9243,"à¸¢à¸§à¸ª":9244,"à¹Ģà¸Ħà¸£à¸Ļ":9245,"à¸Ļà¸Ĥà¸Ńà¸ĩà¸Ļ":9246,"à¸Īà¸ŀà¸£à¸°à¸¡à¸«":9247,"à¸ŀà¸§à¸ģà¹Ģà¸Ĥà¸²à¹Ħà¸Ķ":9248,"à¸£à¸²à¸¢à¸ģà¸²à¸£à¹Ĥà¸Ĺà¸£à¸Ĺ":9249,"à¸¢à¸įà¹Ģà¸ĩ":9250,"à¹Ģà¸Ļà¸§":9251,"à¸Īà¹ģà¸¥à¸°":9252,"à¸³à¸«":9253,"Ġà¸Ńà¸²à¸ģ":9254,"à¸²à¸«à¸¢":9255,"Ġà¸Īà¸°à¹Ģà¸£":9256,"à¸©à¸¢à¸¨à¸²à¸ªà¸ķà¸£":9257,"Ġà¹ģà¸Ļà¸§à¸Ħ":9258,"à¸£à¸²à¸ĩ":9259,"à¸²à¸ĩà¸¥à¸ĩ":9260,"à¸Ķà¸ŀà¸£à¸°à¸Ļà¸Ħà¸£à¸¨à¸£":9261,"à¸ĩà¸Ľà¸£à¸°à¸Ķ":9262,"à¸Ķà¸²à¸¡":9263,"à¹ģà¸Ńà¸Ķ":9264,"Ġà¸Ħà¸¥à¸Ńà¸ĩ":9265,"à¸Ķà¹ĥà¸Ļà¸ģà¸²à¸£":9266,"à¸¨à¸Ĺ":9267,"à¸Ńà¸£à¸Ńà¸ĩà¸£":9268,"Ġ99":9269,"Ġrec":9270,"à¸Ħà¸Ļà¸Ķ":9271,"à¸ĺà¸¡":9272,"à¸ªà¸¡à¸£à¸£à¸ĸ":9273,"à¸Ļà¹ĥà¸Ļà¹Ģà¸¡":9274,"à¸ļà¸Ńà¸ģà¸ĭ":9275,"à¸ĩà¸ķà¸£à¸ĩà¸ģ":9276,"à¸Ķà¸²à¸ŀà¸£à¸°à¸Ńà¸ĩà¸Ħ":9277,"à¹Ĥà¸ĩ":9278,"à¸Ļà¸ªà¸³à¸Ļ":9279,"à¹Ħà¸§à¸ķ":9280,"à¸§à¸¢à¸Ħà¸§à¸²à¸¡à¸Īà¸³":9281,"à¸¢à¸²à¸ģà¸¥à¸³à¸ļà¸²à¸ģ":9282,"à¸Ńà¸³à¸Ļà¸§à¸¢à¸ģà¸²à¸£à¹Ĥà¸£à¸ĩà¹Ģà¸£":9283,"à¸ģà¸Ĳà¸²à¸Ļà¸Ĺà¸²à¸ĩ":9284,"à¹Ģà¸ŀà¸²à¸°à¸Ľà¸¥":9285,"Ġà¸Ĩ":9286,"à¸¥à¸ľ":9287,"à¸§à¹Ģà¸«à¸¥":9288,"à¸ļà¸³à¹Ģà¸ŀ":9289,"à¸Ńà¸Ļà¹Ģà¸Ĺ":9290,"à¸ŀà¸£à¸°à¹Ģà¸Ļà¸ķà¸£":9291,"Ġà¹Ģà¸Ķà¸¥":9292,"lege":9293,"ĠWh":9294,"à¸Ħà¸£à¸Ńà¸ĩà¹ģà¸Ĭà¸¡à¸Ľ":9295,"à¸ĩà¸²à¸¡à¸Ī":9296,"à¹Ģà¸ľà¸¢à¹ģà¸ľ":9297,"à¸Ļà¹Ģà¸§à¸Ĺ":9298,"à¸¥à¹Ģà¸Łà¸£":9299,"à¸ªà¹Ģà¸ļ":9300,"Ġà¸Ħà¸²à¸Ķà¸§":9301,"à¸ŀà¸ļà¹ĥà¸Ļ":9302,"à¹Ĥà¸Ńà¹Ģà¸ŀ":9303,"à¸²à¸Ļà¸«à¸¥à¸²à¸¢":9304,"à¹Ģà¸Ńà¸ªà¹Ģà¸Ń":9305,"Ġà¹Ģà¸Ńà¸¡":9306,"à¸²à¸ªà¹Ģà¸ģà¸ķà¸ļà¸Ńà¸¥":9307,"bl":9308,"à¹Ĵ":9309,"à¸Ńà¹ĥà¸Ļà¸Ľ":9310,"à¸Ńà¸Ħà¸§à¸²à¸¡à¸ª":9311,"à¸Ńà¸²à¹Ģà¸ĭ":9312,"à¸§à¸Ļà¸¢":9313,"à¸§à¸ļà¸Ħ":9314,"à¸ªà¹Ħà¸ķà¸¥":9315,"à¸Ľà¸Ńà¸Ķ":9316,"à¸²à¸ģà¸Ńà¸ĩà¸Ĺ":9317,"à¹ģà¸¥à¸°à¸Ħà¸£":9318,"à¹ģà¸¥à¸°à¹Ģà¸¥":9319,"à¹ģà¸¥à¸°à¸ģà¸²à¸£à¸ª":9320,"Ġ54":9321,"à¸¥à¸Ķà¸²":9322,"ement":9323,"à¸£à¸ļà¸ģà¸§":9324,"à¹Ĥà¸«à¸¥à¸Ķ":9325,"OR":9326,"à¸²à¸¤":9327,"à¸Ńà¸¥à¸ĩ":9328,"à¸²à¸¢à¸Ħà¸£":9329,"à¸Īà¸²à¸ģà¸ŀ":9330,"à¸Ĵà¸Ļà¸²à¸§":9331,"à¸ĩà¸ļà¸§à¸ģ":9332,"à¹ĥà¸Ļà¸ļà¸²à¸ĩà¸Ħà¸£":9333,"à¸ģà¸Ĳà¸²à¸Ļà¸§":9334,"ization":9335,"à¸¡à¸¤à¸Ĺà¸ĺ":9336,"à¹Ħà¸¡à¸ķà¸£":9337,"à¹Ģà¸Īà¸ķà¸Ļ":9338,"ero":9339,"à¸²à¸łà¸²à¸Ħ":9340,"ref":9341,"Ġà¹ĥà¸Ļà¸Ĺà¸²à¸ĩ":9342,"à¸¥à¸ĺà¸£à¸£à¸¡":9343,"à¸ģà¸²à¸£à¸ģà¸£à¸°à¸Ĺà¸³":9344,"à¸Ńà¸¢à¸¢":9345,"à¸łà¸²à¸£":9346,"à¸ķà¸£à¸ĺ":9347,"à¸ŀà¸£à¸°à¸ĺ":9348,"à¸²à¸Ĺà¸Ńà¸ĩ":9349,"à¸¡à¸Ńà¸Ļà¸Ķ":9350,"à¸²à¸Ļà¸łà¸²à¸ŀà¸¢à¸Ļà¸ķà¸£":9351,"à¸ĩà¹ĥà¸Ļà¸Ľà¸£à¸°à¹Ģà¸Ĺà¸¨":9352,"à¸Ķà¸²à¸Ĭ":9353,"à¸Ķà¸²à¸ª":9354,"à¹Ħà¸ĸ":9355,"à¹Ģà¸Ħà¸²à¸Ļ":9356,"à¸ĩà¸ªà¸Ļà¸²à¸¡":9357,"à¸§à¹Ħà¸Ľà¸§":9358,"à¸ĩà¸ŀà¸£à¸°à¸¨à¸ŀ":9359,"Ġà¸£à¸²à¸§":9360,"à¸Ķà¸ªà¸ĩà¸Ĥà¸¥à¸²":9361,"à¸£à¸°à¸ļà¸ļà¸Ļ":9362,"ision":9363,"à¸Ńà¸Ĥà¸¢à¸²à¸¢":9364,"à¸Ńà¸ļà¹Ģà¸Ĥà¸ķ":9365,"à¸łà¸²à¸ŀà¸Ļ":9366,"à¸Ļà¸£à¸§à¸¡":9367,"à¸¢à¸°à¸Ĭ":9368,"hel":9369,"ĠWar":9370,"à¸§à¸¢à¸Ħà¸§à¸²à¸¡à¹Ģà¸£":9371,"à¸£à¸£à¸ĵà¸²à¸ĺ":9372,"à¹Ĳà¹Ĳ":9373,"à¹ģà¸Ńà¸Ľà¹Ģà¸Ľ":9374,"à¸ĩà¹Ģà¸ĺà¸Ń":9375,"à¸Ķà¸£à¸²à¸Ĭà¸ļ":9376,"à¸Ńà¸¡à¸Ń":9377,"à¸¢à¸Ļà¹Ħà¸§":9378,"à¸«à¸¥à¸²à¸¢à¸ķ":9379,"à¸ĩà¸«à¸¡à¸Ķà¸Ļ":9380,"Ġà¹ķ":9381,"à¸²à¸ªà¸¡à¹Ģà¸Ķ":9382,"à¹Ĥà¸ŀà¸ªà¸ķ":9383,"à¸Ļà¹ĥà¸Ļà¸ķ":9384,"à¸¡à¹ģà¸ķ":9385,"à¸Ķà¸Ńà¸£":9386,"à¸Ľà¸Ĭ":9387,"à¸²à¸¢à¹Ģà¸ĩ":9388,"à¸Ĥà¸Ńà¸ĩà¸«à¸¡":9389,"à¸Ħà¸§à¸Ńà¸Ļà¸ķ":9390,"à¸ķà¸£à¸Ĭ":9391,"à¸Ļà¸§à¸ĩà¸ģà¸¥":9392,"à¸Ĺà¸³à¸Ĥ":9393,"à¸Ńà¸¥à¸ķ":9394,"à¸ļà¸²à¸ĩà¸Ħà¸Ļ":9395,"à¸įà¸«à¸²à¸Ķ":9396,"à¸Ĥà¸Ńà¸ĩà¸ªà¸ĩà¸Ħà¸£à¸²à¸¡":9397,"à¸ĩà¸²à¸Ļà¸Ľà¸£à¸°à¸ģà¸²à¸¨":9398,"à¸ļà¸Ľà¸£à¸°à¸ĸà¸¡à¸¨":9399,"à¹Ħà¸§à¸Ļ":9400,"à¸ŀà¸ģ":9401,"Ġà¸Ńà¸³à¸Ļà¸²à¸Ī":9402,"Ġà¸ģà¸İ":9403,"Ġà¹Ĥà¸Ķà¸¢à¸Ļà¸³":9404,"Ġà¸ģà¸²à¸£à¸Ľà¸ı":9405,"à¸ªà¸ķà¸²":9406,"à¸Ĺà¸£à¸ĩà¸ŀà¸£à¸°à¸ģà¸£":9407,"à¹ģà¸Ļà¸§à¸Ħà¸§à¸²à¸¡à¸Ħ":9408,"à¸ģà¸£à¸£à¸¡à¸ģà¸²à¸£à¸ļà¸£":9409,"à¸¢à¸Ļà¸ªà¸ķà¸£":9410,"à¸§à¸ģà¸¥à¸²à¸ĩ":9411,"à¸Ħà¸°":9412,"à¹Ĥà¸£à¸ģ":9413,"à¸²à¸Ļà¹Ģà¸¥":9414,"à¸²à¸§à¹Ħà¸Ĺà¸¢":9415,"à¸Ļà¸Ħà¸§à¸£":9416,"à¸¢à¸§à¸ĭ":9417,"à¸Ĭà¸²à¸§à¸ŀ":9418,"à¸Ľà¸£à¸°à¸Ĭà¸²à¸ģà¸£à¸¡":9419,"à¸ĩà¸Ĥà¸Ńà¸ĩà¸ķ":9420,"à¸¡à¸Ńà¸ĩà¹Ĥà¸ģà¸¥":9421,"Ġà¹ĥà¸Ļà¸łà¸²à¸©à¸²à¸Ń":9422,"à¹Ĥà¸Ľà¹Ģà¸ģà¸¡à¸Ńà¸Ļ":9423,"Pro":9424,"à¸ķà¸ģà¸ģ":9425,"à¹Ģà¸Ĥà¸²à¸Ļ":9426,"à¸Ńà¸¡à¸²à¹ĥà¸Ļà¹Ģà¸Ķ":9427,"à¹ģà¸ļà¸ķà¹Ģà¸ķà¸Ńà¸£":9428,"à¸²à¹ģà¸£à¸ĩ":9429,"à¹ĥà¸Ļà¸ŀà¸£à¸°à¸£à¸²à¸Ĭà¸§":9430,"attle":9431,"CW":9432,"à¸ļà¹Ĥà¸£à¸Ħ":9433,"à¸Ńà¸£à¸«":9434,"à¸Ńà¸Ļà¹ģ":9435,"à¸§à¸ĩà¹Ħà¸Ķ":9436,"à¸Ńà¸Ńà¸ģà¸¤à¸Ĺà¸ĺ":9437,"à¸Ĺà¸²à¸ĩà¸ģà¸²à¸£à¸¨":9438,"ĠAg":9439,"à¸ļà¸¡à¸²à¸Ń":9440,"ĠEntertainment":9441,"Bl":9442,"à¸£à¸ļà¸ģ":9443,"à¸Ļà¸§à¸Ńà¸¥à¹Ģà¸¥à¸¢":9444,"à¹Ħà¸£à¸ķ":9445,"à¸Ńà¸²à¸£à¸°à¹Ģà¸ļ":9446,"à¸ļà¸£à¸²à¸Ĭà¸ģà¸²à¸£à¹Ģà¸Ľ":9447,"ouse":9448,"à¸¡à¸ĩà¸Ħ":9449,"à¸łà¸²à¸ŀà¸¥":9450,"à¹ĥà¸Ļà¸ģà¸²à¸£à¸Ĭ":9451,"à¸Ļà¸ļà¸£à¸£à¸¢à¸²à¸ģà¸²à¸¨":9452,"à¹Ĥà¸¡à¹Ĥà¸ĭ":9453,"Ġà¹Ħà¸¡à¹Ĥà¸Ħà¸£":9454,"Ġà¹Ģà¸Łà¸Ńà¸£":9455,"à¸ŀà¸ĩà¸¨à¸²à¸§à¸Ķà¸²à¸£":9456,"à¸Ńà¸ŀà¸£à¸°à¸ŀ":9457,"à¸ģà¸Ľà¸£à¸°à¸ŀ":9458,"à¹Ģà¸Ĵ":9459,"à¸¢à¸ģà¹Ħà¸Ķ":9460,"à¸ģà¸¡à¸Ńà¸ĩà¸§":9461,"à¸Ħà¸Ħà¸¥à¸ªà¸³à¸Ħ":9462,"str":9463,"à¸ľà¸ªà¸¡à¸ľà¸ª":9464,"à¸ķà¹Ģà¸Ĭ":9465,"à¸ĵà¸²":9466,"à¹ĥà¸Ļà¹ģà¸ĸ":9467,"à¸²à¸Ńà¸²à¸£":9468,"à¸Īà¸ŀà¸£à¸°à¸Ľà¸ģà¹Ģà¸ģà¸¥":9469,"à¸Ļà¹Ĥà¸ķà¸£":9470,"Ġà¸ªà¸¡à¸ļ":9471,"à¸Ĳà¸ļà¸²à¸¥à¹Ħà¸Ķ":9472,"à¸ĩà¹ĥà¸Ļà¹Ģà¸Ķ":9473,"à¸Ľà¸°à¸ģà¸²à¸£":9474,"Ġà¹ĥà¸ķ":9475,"à¸Ķà¹Ģà¸ģà¸²à¸°":9476,"à¸«à¸ĩà¸ª":9477,"à¸Ľà¸ªà¸²à¸¡à¹Ģà¸«à¸¥":9478,"à¹ĥà¸Ļà¹ģà¸ļà¸ļ":9479,"à¸Ħà¸§à¸²à¸¡à¸ŀ":9480,"à¸¢à¸¡à¸Ĥà¸Ńà¸ĩ":9481,"Ġ1920":9482,"à¸Ļà¸Ĥà¸Ńà¸ĩà¸§":9483,"Ġsc":9484,"Ġà¹Ģà¸ļà¸¥":9485,"à¸ģà¸ģà¸²à¸£à¸°":9486,"à¸Ļà¹Ĥà¸¡":9487,"à¸ģà¹Ĥà¸Ĭà¸§":9488,"à¸Ĺà¸Ķà¸ªà¸Ńà¸ļ":9489,"à¸Īà¸²à¸ģà¸ģà¸²à¸£à¸Ĺ":9490,"Ġà¸¡à¸ģ":9491,"à¸Ļà¸ļà¸²à¸ĩ":9492,"à¸įà¸įà¸²à¸Ļ":9493,"à¸ªà¸ĸà¸²à¸Ļà¸¨":9494,"à¸Ńà¸Ľà¸ģà¸Ľ":9495,"rol":9496,"Ġcell":9497,"à¹ģà¸Ńà¸Ļà¸ķà¸²à¸£":9498,"ĠThailand":9499,"ĪĴ":9500,"à¸´-":9501,"à¸Ńà¸Ķà¹Ģà¸¥":9502,"à¸ĩà¸Ĥà¸Ńà¸ĩà¸§":9503,"urg":9504,"à¸ĩà¸Īà¸°à¸ķ":9505,"Ġ1972":9506,"à¸Ħà¸Ħà¸Ńà¸£":9507,"à¹ģà¸ģà¸°à¸ªà¸¥":9508,"à¸ģà¹ģà¸ľ":9509,"à¸ģà¸¢à¸²à¸§":9510,"à¸¢à¸«à¸£":9511,"à¸§à¹ĥà¸Ļà¸Ľ":9512,"à¸ķà¹Ģà¸ķ":9513,"à¸ģà¸£à¸²à¸ģ":9514,"Ġà¸£à¸Ńà¸ĩà¸Īà¸²à¸ģ":9515,"à¸Ŀà¸²à¸ľà¸Ļ":9516,"ĠAm":9517,"à¸ĩà¹ĥà¸Ļà¸ªà¸²à¸¡":9518,"à¸³à¹Ĥà¸Ĥà¸ĩ":9519,"à¸¡à¹ģà¸£à¸ģà¸Ĥà¸Ńà¸ĩ":9520,"à¸Ķà¸īà¸²à¸ģ":9521,"à¹ģà¸Ķà¸Ķ":9522,"Ġà¹ģà¸¥à¸°à¹Ģà¸Ń":9523,"à¸ķà¸²à¸¡à¹ģà¸ļà¸ļ":9524,"à¸ªà¸²à¸¡à¸²à¸£à¸ĸà¹Ģà¸Ľ":9525,"à¸ģà¸Ķà¸²à¸£à¸²à¸¨à¸²à¸ªà¸ķà¸£":9526,"à¸Ĭà¸²à¸§à¸¡":9527,"Ġà¸Ĺà¸£à¸ĩà¸¡":9528,"Ġbegin":9529,"Ġne":9530,"à¸Ĥà¹ģà¸«":9531,"à¸²à¸ĩà¹ģà¸Ļ":9532,"à¸§à¸¢à¸ĩà¸²à¸Ļà¸Ĺ":9533,"à¹Ģà¸Ĭà¸ªà¹Ģà¸ķà¸Ńà¸£":9534,"reen":9535,"à¸¡à¸²à¸Ĥ":9536,"âĢ¢":9537,"à¸ķà¸²à¸¡à¸ª":9538,"à¸Ńà¸¡à¸²à¹ĥà¸Ļ":9539,"Ġ1975":9540,"nowiki":9541,"à¸¥à¸ģà¸£":9542,"à¸§à¹ģà¸¡":9543,"à¸Ķà¹Ģà¸Ļ":9544,"à¹Ħà¸Ļà¸Ĺ":9545,"à¸ģà¸²à¸£à¸ªà¸³à¸£à¸§à¸Ī":9546,"à¹ģà¸¥à¸°à¸ľà¸¥":9547,"Ġà¸ªà¸ķà¸²à¸£":9548,"Ġà¹ģà¸ŀà¸£":9549,"Ġà¸ŀà¸£à¸°à¸Ħà¸£":9550,"à¸Ľà¸£à¸°à¸Ĭà¸²à¸¡à¸ķ":9551,"à¸Ĭà¸²à¸¢à¹ģà¸Ķà¸Ļ":9552,"Ġ2481":9553,"Ġex":9554,"Ġà¹ģà¸¥à¸°à¸Ŀ":9555,"à¸Īà¸²à¸ģà¸¡à¸«à¸²à¸§":9556,"à¸ŀà¸£à¸°à¸¢à¸²":9557,"à¸ŀà¸£à¸°à¹Ģà¸Ĭà¸©à¸Ĳ":9558,"Ġà¹Ģà¸¡à¸Ńà¸£":9559,"à¸ľà¸¥à¸ļ":9560,"à¸²à¸Ĥà¸Ńà¸ĩà¸ķ":9561,"à¸Ħà¸§à¸²à¸¡à¸ªà¸°à¸Ńà¸²à¸Ķ":9562,"ren":9563,"à¸Ľà¸Ńà¸£":9564,"Ġà¸Ńà¸¥":9565,"à¸ĩà¹Ģà¸¨à¸ªà¹Ħà¸Ķ":9566,"Ġ2563":9567,"à¸²à¸Ħà¸§à¸²à¸¡à¸ª":9568,"à¸²à¸¢à¸¡à¸²à¸Ńà¸¢":9569,"à¸ļà¸£à¸£à¸Ķà¸²à¸¨":9570,"ta":9571,"à¸Ļà¹ĥà¸Ļà¸Ħ":9572,"à¸ģà¸ĩà¸²à¸Ļà¸ķ":9573,"à¸·à¹Ĭ":9574,"à¸§à¸ĩà¸Ń":9575,"à¸¢à¸§à¸ķ":9576,"à¸ļà¸¡à¸²à¸Ĺ":9577,"Ġbe":9578,"Ġ2485":9579,"à¸Ńà¸ĩà¹Ĥà¸Ĺà¸£à¸Ĺà¸£à¸£à¸¨à¸Ļ":9580,"à¸°à¸ĩ":9581,"à¸ķà¹Ģà¸Ĺ":9582,"à¹Ħà¸ĺ":9583,"à¸Ĭà¸Ĭà¸²":9584,"à¹Ģà¸£à¸Ķ":9585,"à¸²à¸ªà¸«à¸£":9586,"à¸¢à¸ĩà¹Ģà¸£":9587,"à¸ķà¸²à¸¡à¸Ľà¸ģà¸ķ":9588,"à¸ļà¸ªà¸²à¸¢":9589,"à¹Ģà¸ĺà¸Ļà¸ª":9590,"à¸Ļà¹ģà¸¥à¸°à¸ª":9591,"à¸ŀà¸§à¸ģà¹Ģà¸ĺà¸Ń":9592,"à¸Ńà¸³à¸Ļà¸§à¸¢à¸ģà¸²à¸£à¸ªà¸£":9593,"à¸£à¸²à¸Ł":9594,"à¸ĩà¸ŀà¸¢à¸²à¸¢à¸²à¸¡":9595,"à¸Ķà¸Ľà¸ı":9596,"à¹Į/":9597,"à¸ļà¸Ļà¸²à¸¢":9598,"à¸ĩà¹ģà¸£à¸ģà¹ĥà¸Ļà¸§":9599,"à¸Ķà¸Ļà¸Ļà¸Ĺà¸ļ":9600,"à¸Ļà¹ĥà¸Ļà¹Ģà¸£":9601,"à¹ģà¸Ķà¸Ļà¸ĭ":9602,"ĠIns":9603,"à¸¡à¸«à¸²à¸Ńà¸³à¸Ļà¸²à¸Ī":9604,"Ph":9605,"ty":9606,"Ġà¹Ĥà¸Ķà¸¢à¹Ģà¸Ļ":9607,"à¸§à¸¡à¸ŀ":9608,"à¸Ĺà¸²à¸ĩà¸ļ":9609,"erv":9610,"à¸ļà¸Ļà¹Ĥà¸¥à¸ģ":9611,"à¸§à¸²à¸ĩà¸ķ":9612,"Ġ2478":9613,"à¸§à¸¢à¸ªà¸²à¸ģà¸¥":9614,"à¸Ķà¸Ĺà¸³à¸ģà¸²à¸£à¸ª":9615,"SP":9616,"à¸§à¹ģà¸Ĺà¸Ļ":9617,"à¸ģà¸¥à¸Ńà¸ĩ":9618,"à¸ģà¸§à¸Ļà¸Ń":9619,"à¸Īà¸£à¸§à¸Ķ":9620,"Ġà¸Ħà¸§à¸²à¸¡à¹Ģà¸Ľ":9621,"à¸§à¸¥à¸°à¸Ħà¸£à¸«à¸¥":9622,"à¹ģà¸ªà¸Ķà¸ĩà¸ģ":9623,"à¹ĥà¸Ļà¸Īà¸³à¸Ļà¸§":9624,"à¸ĩà¹ĥà¸Ļà¸«":9625,"à¸¢à¹Ģà¸ª":9626,"à¸¢à¹ģà¸£à¸ģ":9627,"à¸ķà¸Ħà¸£":9628,"Ġà¸Īà¸Ļà¹Ģà¸Ľ":9629,"Ġà¸¥à¸Ńà¸£":9630,"à¸ģà¸ĩà¸²à¸Ļà¸Ľ":9631,"à¸Ķà¸Ĺà¸³à¸ģà¸²à¸£":9632,"à¸¢à¸ĩà¹ģà¸«":9633,"à¸«à¸¡à¸Ķà¸ª":9634,"à¸Ļà¸Ńà¸²à¸¨":9635,"à¸¡à¸«à¸²à¸¨à¸²à¸¥":9636,"à¸Ļà¸ģà¸²à¸£à¹Ģà¸Ľ":9637,"à¹ĥà¸Ļà¸ªà¸ĸà¸²à¸Ļà¸Ĺ":9638,"ĠSm":9639,"à¸łà¸²à¸©à¸²à¸ķ":9640,"à¸Īà¸ŀà¸£à¸°à¸Ļ":9641,"à¸ģà¸£à¸¡à¸§":9642,"à¸²à¸Ļà¸Ľà¸Ńà¸Ļà¸Ķ":9643,"à¹Ĵà¹":9644,"à¸ļà¹ģà¸£à¸ĩà¸ļ":9645,"à¸ŀà¸ª":9646,"à¸Ļà¸ļà¸§à¸£":9647,"à¸ŀà¸¢à¸²à¸ģà¸£à¸ĺà¸£à¸£à¸¡à¸Ĭà¸²à¸ķ":9648,"à¸Ļà¸Ńà¸³à¹Ģà¸łà¸Ńà¸«à¸Ļ":9649,"à¹ģà¸¡à¸Ħà¸Ķà¸²à¸§à¸Ļ":9650,"à¸²à¸Ļà¹Ģà¸Ī":9651,"Ġà¹ģà¸¥à¸°à¸Ńà¸²à¸Ī":9652,"à¸ļà¸ģà¸²à¸£à¸ģà¸¥":9653,"à¸ĩà¹ģà¸£":9654,"à¸¡à¸Ĭà¸Ļà¸Ĺ":9655,"Ġà¸Ńà¸³à¹Ģà¸łà¸Ńà¸ª":9656,"à¸²à¸ĩà¹ģà¸¥":9657,"Ġà¸ŀà¸Ļà¸¡":9658,"à¸§à¸¢à¹Ģà¸ŀà¸¥à¸ĩ":9659,"Ġà¸ªà¸ĸà¸²à¸Ľà¸Ļ":9660,"à¹Ģà¸§à¸ģ":9661,"à¸Ļà¸°à¸Ļà¸³":9662,"à¸Īà¸ŀà¸£à¸°à¸Ļà¹Ģà¸£":9663,"à¹Ĥà¸Ĺà¸£à¸Ħà¸¡à¸Ļà¸²à¸Ħà¸¡":9664,"Ġà¹Ĥà¸Ľà¸£à¸Ķà¹Ģà¸ģà¸¥":9665,"à¹ĥà¸Ļà¹Ĥà¸Ħà¸£à¸ĩà¸ģà¸²à¸£":9666,"à¹Ģà¸Ĥà¸²à¸§":9667,"Ġà¹Ĥà¸Ķà¸¢à¸«à¸¥":9668,"à¸²à¸«à¸§":9669,"à¸Ļà¸Ńà¸²à¸ĵà¸²à¸Ļ":9670,"à¸Ļà¹ģà¸£":9671,"alk":9672,"à¸ĩà¸«à¸¡à¸Ķà¹Ģà¸Ľ":9673,"à¸Łà¸£à¸²à¸Ļà¸ĭ":9674,"à¸ķà¸¢à¸ģà¸£à¸£à¸¡à¸¨à¸²à¸ªà¸ķà¸£":9675,"à¸¢à¸¢à¸¨à¹Ģà¸Ľ":9676,"à¸Ķà¹Ģà¸ĭ":9677,"à¸Ľà¸£à¸°à¸«à¸¢":9678,"à¸²à¸§à¹Ģà¸Ĺ":9679,"à¹Ģà¸Łà¸Ļ":9680,"irst":9681,"Ġ1974":9682,"à¸Ĺà¸²à¸ĩà¸ģà¸²à¸£à¹Ģà¸ĩ":9683,"à¸Ħà¸²à¸ĭ":9684,"à¸Ĵà¸Ļà¸²à¹Ģà¸Ľ":9685,"à¸¡à¸Ńà¸²à¸ģà¸²à¸£":9686,"rim":9687,"ows":9688,"Mar":9689,"à¸£à¸²à¸£":9690,"à¸Ńà¸ĩà¸¨à¸£":9691,"Ġà¸Ħà¸ĵ":9692,"à¸Īà¸°à¹Ħà¸Ľ":9693,"Ġà¹ģà¸Ħà¸Ļ":9694,"à¸Ļà¸Ńà¸²à¸£":9695,"à¸¢à¸ģà¸Ĳà¸²à¸Ļà¸°à¹Ģà¸Ľ":9696,"à¸²à¹Ĥà¸ģà¸°":9697,"Ġà¸ķà¸³à¸ļà¸¥à¸ļ":9698,"à¸Ļà¸Ĺà¸²à¸ĩà¸ģà¸²à¸£à¸§":9699,"à¸ķà¸¥à¸Ńà¸Ķà¸Ĺ":9700,"OS":9701,"à¸²à¸ĩà¸ĩà¸²à¸Ļ":9702,"à¸Ľà¸£à¸°à¹Ĥà¸¢à¸Ħ":9703,"à¹Ģà¸Ĺà¸ģà¸ĭ":9704,"à¹Ģà¸Ĭà¸¥":9705,"à¹ģà¸ļà¸ļà¸ļ":9706,"à¸Ļà¸Ħà¸£à¸Ļ":9707,"Ġ56":9708,"à¸«à¸¥à¸²à¸¢à¸Ĭ":9709,"ech":9710,"à¸Ńà¸²à¸ģà¸²à¸¨à¸¢à¸²à¸Ļ":9711,"Ġ85":9712,"à¹ģà¸Ļà¸§à¹Ģà¸ŀà¸¥à¸ĩ":9713,"à¸Ľà¸£à¸°à¸Ĺà¸²à¸Ļ":9714,"à¸ªà¸«à¸Ľà¸£à¸°à¸Ĭà¸²à¸Ĭà¸²à¸ķ":9715,"à¸«à¸¥à¸²à¸ļà¸§":9716,"à¸ĩà¸§à¸Ļ":9717,"à¸Ħà¹Ħà¸Ķ":9718,"à¸¢à¸§à¹Ģà¸Ľ":9719,"à¸ļà¸ģà¸²à¸£à¸ªà¸ĸà¸²à¸Ľà¸Ļ":9720,"Ġà¸ģà¸²à¸£à¹ģà¸ªà¸Ķà¸ĩ":9721,"Ġà¹Ģà¸Īà¸Ńà¸£":9722,"à¸Ļà¸²à¸¢à¸Ĺà¸«à¸²à¸£":9723,"ucle":9724,"à¹Ģà¸Ĺà¸Ļà¹Ģà¸¡à¸Ļà¸Ĺ":9725,"à¸¥à¸Ĭà¸Ļà¸°à¹Ģà¸¥":9726,"à¸Ļà¸¯":9727,"à¸¢à¸Ķà¸Ĺ":9728,"Ġà¸ªà¹Ģà¸Ľ":9729,"à¸Ĺà¸ĺà¸¨à¸²à¸ª":9730,"à¹ģà¸ģà¸Ļà¸Ķ":9731,"à¸Ļà¸³à¸ģà¸¥":9732,"Ġà¸ģà¸²à¸£à¹Ģà¸£":9733,"à¹Ĥà¸ĭà¹Ĥà¸Ĺ":9734,"à¹Ģà¸īà¸ŀà¸²à¸°à¸Ĺ":9735,"à¸ļà¸Ńà¸²à¸£":9736,"Ġà¸ŀà¸§à¸ģà¹Ģà¸Ĥà¸²à¹Ħà¸Ķ":9737,"800":9738,"Com":9739,"och":9740,"à¸Ńà¹ĥà¸Ļà¸Ĭ":9741,"à¸ģà¸Ĭà¸²à¸ķ":9742,"à¸ĩà¸ŀà¸£à¸£à¸Ħ":9743,"à¸¡à¹ĥà¸Ļà¸Ľ":9744,"à¹Ĥà¸Łà¸¥":9745,"à¸²à¸Ħà¸§à¸£":9746,"à¸²à¸ķà¸²à¸£":9747,"à¸Ļà¸³à¸£":9748,"à¸łà¸²à¸©à¸²à¸¥à¸°à¸ķ":9749,"à¸ģà¸©à¸²à¹Ģà¸ģ":9750,"ica":9751,"à¹Ĥà¸Ľà¸£à¹Ģà¸ķà¸ªà¹ģà¸ķà¸Ļà¸ķ":9752,"à¸ģà¹ģà¸ªà¸Ķà¸ĩà¸Ĭà¸²à¸§à¹Ħà¸Ĺà¸¢":9753,"à¸ĺà¸¢à¸¡à¸Ľà¸¥à¸²à¸¢":9754,"Ġ1978":9755,"à¸ªà¸ĸà¸²à¸Ļà¸°à¹Ģà¸Ľ":9756,"BF":9757,"Ġ00":9758,"à¸ļà¹ģà¸ľ":9759,"à¸Ĥà¸Ĺ":9760,"à¸³à¹Ģà¸¥":9761,"à¹ĥà¸Ļà¹Ģà¸ŀà¸¥à¸ĩ":9762,"à¹Ĥà¸Ķà¸¢à¸§":9763,"à¸Ļà¸ļà¸²à¸ĩà¸ª":9764,"à¸ģà¸ªà¸Ļà¸²à¸Ļ":9765,"à¸Ļà¸ģà¸²à¸£à¹ģà¸ªà¸Ķà¸ĩ":9766,"à¸ļà¸ģà¸ŀà¸£":9767,"à¸Ļà¸¨à¸²à¸¥":9768,"à¸ļà¸£à¸£à¹Ģà¸Ĺ":9769,"à¸¢à¸Ļà¹ģà¸Ľà¸¥à¸ĩà¸ģà¸²à¸£à¸Ľà¸ģà¸Ħà¸£à¸Ńà¸ĩ":9770,"à¸ļà¸ĸà¸Ļ":9771,"à¸Ĺà¸§à¸²à¸£":9772,"à¸£à¸§à¸²à¸Ĺ":9773,"à¸Ńà¸Ĺà¸³à¸ģà¸²à¸£":9774,"à¸ģà¸Ńà¸¥":9775,"à¸¡à¹ģà¸¥":9776,"à¸¢à¹Ģà¸Ĺà¸Ħà¸Ļ":9777,"à¸Ĺà¸²à¸ª":9778,"à¸²à¸¢à¹Ģà¸«à¸Ļ":9779,"à¸²à¸Ĺà¸«à¸²à¸£":9780,"à¸Ļà¸³à¹Ģà¸Ń":9781,"à¹Ĥà¸Ńà¹Ģà¸ŀà¸¥à¸ĩ":9782,"à¸Ļà¸Ľà¸£à¸°à¸ģà¸²à¸¨":9783,"à¸Ķà¸Ħà¸§à¸²à¸¡à¹Ģà¸ª":9784,"à¸Ķà¹Ģà¸Īà¸Ļà¸§":9785,"à¸ģà¸²à¸ª":9786,"à¸¢à¸Ńà¸Ļ":9787,"à¸Ķà¸£à¸²à¸Ĭ":9788,"à¸²à¸ķà¸¥à¸Ńà¸Ķ":9789,"Ġà¸ģà¸²à¸£à¹Ģà¸Ķ":9790,"à¸Ķà¸ģà¸²à¸£à¸ķ":9791,"eph":9792,"à¸²à¸ĩà¸ŀà¸£à¸°à¸£à¸²à¸Ĭà¸ļ":9793,"à¸§à¸¢à¸ªà¸¡à¸²à¸Ĭ":9794,"Ġà¹ģà¸Ħà¸£":9795,"à¸Ļà¸«à¸Ńà¸¡":9796,"à¸Ĺà¸²à¸ĩà¸¨à¸²à¸ªà¸Ļà¸²":9797,"à¸ĩà¸Ļà¸Ńà¸£":9798,"à¸ªà¸²à¸¡à¸²à¸£à¸ĸà¸Ĥ":9799,"à¸²à¸Ĥà¸Ńà¸ĩà¸ľ":9800,"à¸ļà¸Ļà¹Ģà¸§à¸Ĺ":9801,"à¸ģà¸©à¸£à¸¨à¸²à¸ªà¸ķà¸£":9802,"à¸Ĺà¸ģà¸ł":9803,"ĠÂ":9804,"à¸Ķà¹Ģà¸Ľà¸¥":9805,"à¸Ńà¸ĩà¹Ģà¸ĭ":9806,"à¸Ńà¸¡à¸Ľà¸£à¸²à¸ģà¸²à¸£":9807,"Ġà¸£à¸²à¸¡":9808,"à¸²à¸Ļà¸Ĺà¸²à¸Ļ":9809,"ĠDay":9810,"à¸Ļà¹ĥà¸Ļà¸£à¸Ńà¸ļ":9811,"à¸Ķà¹ĥà¸Ļà¸Ń":9812,"à¸ļà¹Ģà¸Ħ":9813,"à¹Ĥà¸Ļà¸Ĺ":9814,"à¸Ńà¸ģà¹Ħà¸Ķ":9815,"à¸§à¸¢à¹Ħà¸Ĺà¸¢":9816,"Ġà¸Īà¸Ļà¹ĥà¸Ļà¸Ĺ":9817,"à¸Ńà¸Ńà¸ģà¸Ĺ":9818,"Ġà¸ģà¸²à¸£à¸¡":9819,"Ġ700":9820,"à¸Ńà¸°à¸¥":9821,"Ġà¸Ľà¸£à¸°à¹Ģà¸Ĺà¸¨à¸ªà¸§":9822,"Ġà¹ĸ":9823,"ke":9824,"ki":9825,"ole":9826,"à¸¡à¹ģà¸ŀ":9827,"à¹Ģà¸Ńà¸ķ":9828,"à¸¢à¸¡à¸Ļ":9829,"à¸Īà¸ŀà¸£à¸°à¸Ļà¸²à¸£à¸²à¸¢à¸ĵ":9830,"à¸Ńà¸ģà¸²à¸£à¸ķ":9831,"à¸ģà¸Ńà¸ĩà¸Ĺà¸«à¸²à¸£":9832,"Ġà¹Ģà¸Ħà¸¥":9833,"ĠNet":9834,"à¸ŀà¸£à¸°à¸Ļà¸²à¸¡à¹Ģà¸Ķ":9835,"à¹ģà¸ªà¸ķà¸¡à¸Ľ":9836,"Ġat":9837,"à¸ģà¸ģà¸³à¸«à¸Ļà¸Ķ":9838,"à¸§à¸Ńà¸Ńà¸ģà¸Īà¸²à¸ģ":9839,"à¸µà¹Ī,":9840,"Ġà¸ªà¸Ļà¸ĺ":9841,"à¸Ĺà¸²à¸ĩà¸Ŀ":9842,"à¸¢à¸ģà¹ĥà¸«":9843,"à¸Ļà¸Ĺà¸²à¸ĩà¸ķ":9844,"à¸Ľà¹ģà¸ļà¸ļà¸«à¸Ļ":9845,"à¸Ļà¹ĥà¸Īà¸§":9846,"à¸Ķà¸ķà¸¥à¸Ńà¸Ķà¸ģà¸²à¸¥":9847,"à¸²à¹Ĩ":9848,"à¸ģà¹Ħà¸¥":9849,"à¸§à¹ĥà¸«à¸į":9850,"à¸ķà¸£à¸Ńà¸ĩ":9851,"Ġà¸ķà¸°":9852,"à¸ľà¸¥à¸ľà¸¥":9853,"eter":9854,"Ġ1942":9855,"na":9856,"à¸ļà¹Ģà¸ģà¸¡":9857,"à¸Ľà¸«":9858,"à¹Ĥà¸«à¸£":9859,"à¸£à¸°à¸¢à¸Ńà¸ĩ":9860,"à¸Ļà¸§à¸ĩà¸Ķà¸Ļà¸ķà¸£":9861,"à¸Ńà¸«à¸²à¹Ģà¸ģ":9862,"Ġ2480":9863,"à¸²à¹Ģà¸«à¸¢":9864,"à¸ģà¸ŀà¸ļ":9865,"à¸¡à¸£à¸§à¸¡":9866,"à¸Ķà¸¡à¸²à¸ģ":9867,"à¸ªà¹Ģà¸£":9868,"à¸Īà¸²à¸ģà¸Ĭ":9869,"à¸£à¸²à¸Ĭà¸Ķà¸³à¹Ģà¸Ļ":9870,"à¸ģà¸£à¸£à¸¡à¸ª":9871,"ĠSuper":9872,"à¸ĩà¹ģà¸£à¸ģà¸ģ":9873,"à¸ŀà¸£à¸°à¸£à¸²à¸Ĭà¸Ĺà¸²à¸Ļà¸ŀà¸£à¸°":9874,"order":9875,"à¸¢à¸ªà¸¡à¹Ģà¸Ķ":9876,"à¸Ńà¸ģà¸ļà¸ı":9877,"à¸Ńà¸Ļà¹Ģà¸Ĭ":9878,"à¹Ĥà¸Ķà¸¢à¹Ģà¸£":9879,"à¸ĩà¸Ĺà¸£":9880,"à¸Ńà¸°à¸Ļ":9881,"à¸²à¸ŀà¸£à¸°à¸£à¸²à¸Ĭ":9882,"250":9883,"à¸ŀà¸Ńà¸ªà¸¡à¸Ħà¸§à¸£":9884,"Ġà¸«à¸²à¸ģà¹ģà¸ķ":9885,"à¸Ļà¹ģà¸£à¸ģà¸Ĥà¸Ńà¸ĩ":9886,"à¹ģà¸¥à¸°à¸Ŀ":9887,"Ġà¸Ńà¸²à¸§":9888,"Ġà¸ģà¸²à¸£à¹ĥà¸«":9889,"à¸ªà¸Ńà¸ĩà¸Ĥà¸Ńà¸ĩ":9890,"à¸Ńà¸³à¹Ģà¸łà¸Ńà¸Ĺ":9891,"à¸ģà¸©à¸£à¸Ī":9892,"VD":9893,"gram":9894,"à¸ģà¹Ĥà¸ļà¸£à¸²à¸ĵ":9895,"à¸Ńà¸ĩà¸ªà¸³à¸Ħ":9896,"à¸Ĺà¸²à¸ĩà¹Ģà¸Ħà¸¡":9897,"à¸Ĭà¸²à¸§à¹Ģà¸ģà¸²à¸«à¸¥":9898,"à¸«à¸¥à¸²à¸¢à¸ª":9899,"à¸²à¸ĺà¸²à¸£à¸ĵà¸Ĭà¸Ļ":9900,"à¸Ļà¹Ģà¸§à¸¥à¸²à¸«à¸¥à¸²à¸¢":9901,"Ġà¸Ĳ":9902,"à¸Ńà¹Ģà¸Ħ":9903,"à¸ģà¹Ģà¸Ļ":9904,"à¸¥à¹Ģà¸§à¸Ńà¸£":9905,"à¸Ħà¹Ģà¸ķà¸Ńà¸£":9906,"à¸Īà¹Ĥà¸Ī":9907,"à¸ĭà¸²à¸¥":9908,"à¹Ģà¸¡à¸ĺ":9909,"à¸§à¸Ļà¹Ħà¸Ķ":9910,"à¸Ļà¸ģà¸²à¸£à¸ļ":9911,"à¸²à¸ŀà¸£à¸°à¸ŀ":9912,"à¸²à¹ģà¸Ķà¸ĩ":9913,"à¸Łà¸¥à¸Ńà¸£":9914,"à¸²à¹Ĥà¸£à¸ĩà¹Ģà¸£":9915,"à¸£à¸°à¸¢":9916,"à¸²à¸Ļà¹Ģà¸«à¸£":9917,"Ġà¹ģà¸¥à¸°à¹ĥà¸Ļà¸Ĺ":9918,"à¹Ģà¸Īà¹Ħà¸Ķ":9919,"à¸ļà¸ģà¸²à¸£à¹Ģà¸£":9920,"à¹Ħà¸Łà¸Ļà¸Ńà¸¥":9921,"ĠAmeric":9922,"à¸Ĭà¸¡à¸£à¸¡":9923,"à¸Ļà¹Ĥà¸Ħà¸£à¸ĩà¸ªà¸£":9924,"mon":9925,"à¸Ńà¸ĩà¹Ħà¸«":9926,"à¸Ĭà¸³à¸£à¸°":9927,"à¹ĥà¸Ļà¹ģà¸¡":9928,"à¸Īà¸°à¸ģà¸¥à¸²à¸¢à¹Ģà¸Ľ":9929,"à¸Ńà¸ļà¸Ķ":9930,"à¸Ļà¸ģà¸²à¸£à¸§":9931,"à¸¡à¸Ńà¸ļà¹ĥà¸«":9932,"à¸µà¹Ī)":9933,"à¸ģà¸£à¸ŀ":9934,"à¸Ńà¸Ķà¸³à¸Ļ":9935,"à¹Ĥà¸£à¸Ħà¸Ļ":9936,"Ġà¹ĥà¸Ļà¹Ģà¸§à¸¥à¸²":9937,"à¸ĩà¸Īà¸²à¸ģà¸¡":9938,"à¸«à¸¥à¸²à¸¢à¸Ĺ":9939,"ĠMag":9940,"à¸ģà¸©à¸ĵà¸°à¸ŀ":9941,"à¸£à¸ĵà¸łà¸²à¸ŀ":9942,"Ġà¹Ģà¸Ĺà¸£":9943,"Ġcor":9944,"à¸¡à¸£à¸Ķà¸ģ":9945,"à¸¥à¸Łà¸Ńà¸Ļà¹Ĥà¸ĭ":9946,"à¸¢à¸Ļà¹Ģà¸£à¸¨à¸§à¸£":9947,"ĠCollege":9948,"à¸ļà¸Ľà¸£à¸°à¹Ģà¸Ĺà¸¨à¹Ħà¸Ĺà¸¢":9949,"à¸Ľà¸Ħ":9950,"à¸Ńà¸ģà¸Ħ":9951,"à¹Ģà¸ªà¸Ļà¸²à¸ĺ":9952,"Ġà¹ģà¸ģà¸£à¸Ļà¸Ķ":9953,"à¸Ķà¸Ļà¸Ħà¸£à¸Ľà¸Ĳà¸¡":9954,"à¸ĩà¸£à¸²à¸¢":9955,"à¹ĥà¸Ļà¸¡à¸«à¸²à¸ªà¸¡":9956,"à¹Ĥà¸Ķà¸¢à¹Ģà¸īà¸¥":9957,"à¸£à¸²à¸Ĭà¸¡à¸ĩà¸Ħà¸¥":9958,"à¸Ħà¸Ļà¹Ģà¸¥":9959,"à¸²à¸Ļà¸Ķà¸Ļà¸ķà¸£":9960,"à¹Ģà¸ģà¸©à¸ķà¸£à¸ģà¸£":9961,"à¹ģà¸Ńà¸¥à¸ģà¸Ńà¸®à¸Ńà¸¥":9962,"à¸ļà¸Ĺà¸Ħà¸§à¸²à¸¡à¸«à¸¥":9963,"à¸¡à¸²à¸§":9964,"à¸¢à¸Ļà¸ŀà¸£à¸°":9965,"à¸ļà¸²à¸Ķ":9966,"à¸Ĺà¸¢à¸²à¹ģà¸¥à¸°":9967,"à¸§à¸¡à¹ĥà¸Ļà¸ģà¸²à¸£":9968,"à¸Ńà¸ªà¸«à¸£":9969,"à¸ªà¸²à¸¡à¸²à¸£à¸ĸà¹Ģà¸Ńà¸²à¸Ĭà¸Ļà¸°":9970,"à¹Ĥà¸¡à¸¢":9971,"à¸£à¸ªà¸Ĭ":9972,"à¸¡à¸Ķà¸§à¸ĩ":9973,"à¹Ģà¸«à¸¡à¸²à¸°à¸ģ":9974,"à¸ļà¸²à¸£à¸¡":9975,"Ġà¹Ģà¸Ńà¸Łà¹Ģà¸Ń":9976,"ble":9977,"à¸¡à¹Ģà¸§à¸Ĺ":9978,"à¸Ķà¹ĥà¸ª":9979,"à¸²à¸ģà¸Ĥ":9980,"à¸Łà¹Ģà¸Ł":9981,"à¸Ħà¸§à¸²à¸¡à¸Ĺà¸£à¸ĩà¸Īà¸³":9982,"à¸¢à¸§à¹Ħà¸Ķ":9983,"tis":9984,"Ġà¹Ģà¸ŀà¸£":9985,"à¹Ħà¸£à¸Ļ":9986,"Ġà¸Łà¸¥":9987,"à¹ĥà¸Ļà¸ŀà¸£à¸°à¸ŀ":9988,"Ġà¸ģà¸¥à¸²à¸ĩ":9989,"à¸²à¹Ģà¸Ł":9990,"à¸£à¸Ł":9991,"à¸Ńà¸£à¸ª":9992,"Ġà¸Īà¸Ļà¸ķ":9993,"à¸¢à¸£à¸łà¸²à¸ŀ":9994,"Ġà¹Ĥà¸£à¸ĩà¹ģà¸£à¸¡":9995,"Ġ1967":9996,"à¸Ļà¹ĥà¸¢":9997,"à¸Ńà¸łà¸²à¸©à¸²à¸Ń":9998,"à¸¥à¹ĥà¸«":9999,"à¸¥à¸§à¸Ķà¸¥à¸²à¸¢":10000,"à¸§à¸Ļà¸Ľ":10001,"à¸ªà¹Ģà¸Ń":10002,"à¹Ħà¸ļà¹Ģà¸ļ":10003,"à¸²à¸Ļà¸²à¸ĩ":10004,"à¸ĩà¸ģà¸Ńà¸¥":10005,"ĠSing":10006,"à¸¥à¸Ľà¸°à¸Ĺ":10007,"Ġà¹Ģà¸Ħà¸²à¸Ļà¸ķ":10008,"ĠNe":10009,"ĠJohn":10010,"ĠAll":10011,"à¸¢à¸²à¸ª":10012,"à¸Ķà¸Ĭà¸Ļ":10013,"à¸ģà¸²à¸£à¸Ńà¸Ńà¸ģà¸Ńà¸²à¸ģà¸²à¸¨":10014,"à¸Ńà¸¢à¸«à¸Ļ":10015,"à¸Ńà¸ģà¸Ń":10016,"à¸Ħà¸£à¸Ĺ":10017,"Ġà¹Ĥà¸ŀà¸ĺ":10018,"ini":10019,"Ġà¹ĥà¸Ļà¹Ģà¸§à¸¥à¸²à¸ķ":10020,"à¸ªà¸²à¸£à¸Ħà¸Ķ":10021,"ĠPar":10022,"à¸ľà¸¥à¸ĩà¸²à¸Ļà¸Ĭ":10023,"à¸ģà¸Ńà¸ĺ":10024,"à¸Ļà¹Ģà¸ªà¸¡":10025,"à¸£à¸²à¸ļà¸Ĺ":10026,"tical":10027,"à¸Ńà¹ģà¸ļà¸Ħà¸Ĺ":10028,"à¸Ńà¸Ńà¸ķà¹Ĥà¸ķà¸¡":10029,"à¹ĥà¸Ļà¸£à¸²à¸Ĭà¸ªà¸³à¸Ļ":10030,"à¸Ļà¸ªà¸²à¸Ĥ":10031,"Ġà¸ķà¸³à¸£à¸§à¸Ī":10032,"à¸ļà¸Ĺà¹Ģà¸ŀà¸¥à¸ĩ":10033,"à¸ļà¸Ńà¸²à¸Ĭ":10034,"à¸ģà¸Ħà¸ĵ":10035,"Ġà¹Ģà¸¥à¸¢":10036,"Ġà¸ªà¸²à¸¡à¸²à¸£à¸ĸà¹ĥà¸Ĭ":10037,"à¸Ĥà¸Ńà¸ĩà¸ķà¸£à¸°à¸ģ":10038,"à¸Ńà¸Ńà¸Łà¹Ģà¸Ķà¸Ńà¸°":10039,"à¸Ķà¹Ģà¸¢":10040,"à¸ļà¸ŀà¸£à¸°à¸£à¸²à¸Ĭ":10041,"à¸²à¸Ļà¹Ģà¸ª":10042,"Ġà¸Ļà¸²à¸Ħ":10043,"à¸²à¸ĩà¸ªà¸£à¸£à¸ŀà¸ª":10044,"à¸Ńà¸«à¸¢":10045,"à¹ĥà¸Ļà¸ķà¸Ńà¸Ļà¸Ļ":10046,"urn":10047,"agon":10048,"à¸Ľà¸¥à¸ĩà¸ŀà¸£à¸°à¸Ĭà¸Ļà¸¡":10049,"à¸²à¸¡à¸£":10050,"Ġà¹ĥà¸Ļà¸£à¸°à¸¢à¸°":10051,"ret":10052,"à¸¢à¸²à¸§à¸Ĺ":10053,"à¸Ľà¹ģà¸ļà¸ļà¸ķ":10054,"à¹Ģà¸ŀà¸¨à¸ľ":10055,"à¸¡à¸ĩà¸§à¸Ķ":10056,"à¸ģà¹Ģà¸Ħà¸£":10057,"à¸ļà¸Ŀà¸£":10058,"Ġà¸ģà¸£à¸°à¸ļ":10059,"Ġà¹Ĥà¸Ķà¸¢à¸ļà¸£":10060,"Ġà¹ĥà¸Ļà¸ĩà¸²à¸Ļ":10061,"à¸Ļà¹ģà¸Ĺà¸Ļ":10062,"à¸¥à¸¥à¸Ńà¸®":10063,"ĠTo":10064,"à¸¢à¸įà¸Ĺà¸Ńà¸ĩà¹ģà¸Ķà¸ĩ":10065,"à¹ĥà¸Ļà¸£à¸²à¸Ĭà¸ģ":10066,"à¸Ńà¸Ķà¸³à¹Ģà¸Ļ":10067,"à¸²à¸Ĥà¸Ńà¸ĩà¸ª":10068,"à¸Ļà¸Īà¸²à¸ģà¸ķà¸³à¹ģà¸«à¸Ļ":10069,"à¸įà¸«à¸²à¸Ĺà¸²à¸ĩ":10070,"à¸īà¸²à¸¢à¸²":10071,"ords":10072,"Ġà¹Ĥà¸Ķà¸¢à¸Ľ":10073,"Ġà¹ģà¸Ńà¸Łà¸£":10074,"à¸¢à¸¡à¹Ħà¸Ķ":10075,"Ġà¸Ĥà¸Ńà¸ĩà¸Ħ":10076,"à¸ļà¸²à¸Ĺà¸«à¸¥à¸§à¸ĩ":10077,"à¹Ģà¸īà¸ŀà¸²à¸°à¸ķ":10078,"ĠNational":10079,"à¹ĥà¸Ļà¸Ĥà¸ĵà¸°à¹Ģà¸Ķ":10080,"AP":10081,"à¸§à¸Ł":10082,"à¸Ĥà¸Ńà¸£":10083,"à¸¢à¸ĩà¸Ľ":10084,"à¸ļà¸ģà¸²à¸£à¸ķà¸Ńà¸ļà¸£":10085,"à¸Ńà¸ĩà¸Ĺà¸£à¸ĩ":10086,"à¸Ħà¸Ļà¸¥à¸°":10087,"Ġà¸Īà¸²à¸ģà¹Ĥà¸£à¸ĩà¹Ģà¸£":10088,"à¸ģà¸©à¸²à¹Ħà¸§":10089,"à¸Ľà¸¥à¸²à¸¢à¸Ĺà¸²à¸ĩ":10090,"à¸£à¸ŀà¸²":10091,"à¸Ļà¹ģà¸£à¸ģà¸Ĺ":10092,"à¸Ħà¸¡à¸Ĥà¸Ńà¸ĩ":10093,"à¸Ńà¸Ļà¹ĥà¸ķ":10094,"à¸£à¸£à¸ŀà¸ļ":10095,"à¸Īà¸°à¹Ģà¸Ķ":10096,"à¸Ĵà¸Ļà¸²à¸Ń":10097,"à¸²à¹ģà¸¥à¸°à¸¡":10098,"ĠHigh":10099,"à¸ļà¹Ħà¸Ľà¸Ĺ":10100,"à¹Ģà¸ĸà¸£à¸§à¸²à¸Ĺ":10101,"à¸§à¹Ģà¸ģà¸¡":10102,"à¸ģà¸²à¸£à¸Ńà¸Ńà¸ģ":10103,"Ġà¹ģà¸¥à¸°à¸£à¸²à¸ĩà¸§":10104,"à¸Ħà¸§à¸²à¸¡à¸ģà¸§":10105,"à¸Īà¸°à¸ļ":10106,"à¸Ĺà¸ĺà¸£à¸ĵ":10107,"à¸¡à¸«à¸²à¸Ĭ":10108,"à¸Ļà¸¡à¸²à¹Ģà¸ŀ":10109,"à¸Ĥà¸²à¸¢à¸Ķ":10110,"à¹Ģà¸Į":10111,"à¸¢à¸Ļà¸Ľà¸£à¸°à¸Īà¸³":10112,"à¸Ķà¸²à¸ģ":10113,"à¸Ńà¸ĩà¸ĩ":10114,"à¸Ĭà¸²à¹Ģà¸Ľ":10115,"à¸«à¸¡à¸²à¸ģ":10116,"à¸Ļà¸¡à¸ģ":10117,"Ġà¹ĥà¸Ļà¹ģà¸ķ":10118,"à¸Ńà¸ĩà¸Īà¸²à¸ģà¸Ĺ":10119,"olar":10120,"à¸ķà¸³à¸ļà¸¥à¸ļ":10121,"ope":10122,"ven":10123,"à¸ĩà¸į":10124,"à¸ķà¸²à¹Ģà¸¥":10125,"à¹ģà¸¢à¸£":10126,"à¸Īà¸²à¸ģà¹Ĥà¸£à¸ĩà¹Ģà¸£":10127,"à¸Ńà¸Ķà¸Ļ":10128,"à¸Ńà¸ªà¸ª":10129,"ĠPer":10130,"amb":10131,"à¸Ļà¹ģà¸ª":10132,"à¸ļà¹Ģà¸Ńà¸ģà¸£à¸²à¸Ĭ":10133,"à¸²à¸Ļà¹Ģà¸Ĺ":10134,"à¹ĥà¸Ļà¹ģà¸ľ":10135,"à¸Ļà¸ŀà¸²à¸£":10136,"à¸ģà¸ģà¸İà¸«à¸¡à¸²à¸¢":10137,"ĠMod":10138,"à¸Ĳà¸ļà¸²à¸¥à¸Ĥà¸Ńà¸ĩ":10139,"à¸¢à¸ªà¸ĩà¸Ħà¸£à¸²à¸¡":10140,"à¸Ńà¸¡à¸§à¸¥à¸Ĭà¸Ļ":10141,"à¸Ĺà¸£à¸£à¸¨à¸ģà¸²à¸£":10142,"rac":10143,"à¸ĩà¸ŀà¸ļà¸§":10144,"à¸¥à¸ĩà¸ªà¸Ļà¸²à¸¡":10145,"à¸¢à¸ĩà¸¥à¸³à¸Ķ":10146,"à¸ļà¸ģà¸²à¸£à¹Ģà¸Ľà¸¥":10147,"à¹Ĥà¸£à¸Ī":10148,"Ġà¸Ĺà¸³à¸Ļ":10149,"à¸ģà¸©à¸²à¹ĥà¸«":10150,"Ġ140":10151,"ĠStar":10152,"Ġ1969":10153,"...\"":10154,"à¸ĩà¹ĥà¸Ļà¸ªà¸¡à¸²à¸Ĭ":10155,"à¸Ļà¸£à¸°à¸¢à¸°à¸Ĺà¸²à¸ĩ":10156,"à¸Ńà¸«à¸¥à¸§à¸ĩ":10157,"à¸´.":10158,"à¹Ģà¸¡à¸ķ":10159,"à¸Ĳà¹Ħà¸Ķ":10160,"à¸ļà¸ģà¸²à¸£à¹ģà¸ªà¸Ķà¸ĩ":10161,"à¸ķà¸²à¸¡à¸Ķ":10162,"hem":10163,"Ġà¸Łà¸Ńà¸Ļ":10164,"à¸įà¸«à¸²à¸Ļ":10165,"ety":10166,"tics":10167,"à¸²à¹ĥ":10168,"à¸ĩà¹ĥà¸Ķ":10169,"à¸§à¸¢à¹Ģà¸Ī":10170,"à¹ĥà¸Ļà¸ģà¸²à¸£à¸Ķ":10171,"à¸ļà¸ģà¸²à¸£à¸Ľà¸¥":10172,"à¸łà¸²à¸©à¸²à¸Ŀà¸£":10173,"à¸¡à¸²à¸ķà¸¥à¸Ńà¸Ķ":10174,"à¸£à¸Ĭ":10175,"à¸Ĺà¸¨à¸§à¸£à¸£à¸©à¸Ĺ":10176,"à¸²à¸ĩà¹Ģà¸Ĺ":10177,"à¹Ģà¸£à¸Ń":10178,"Ġà¸Ħà¸Ļà¸Ħ":10179,"à¸Īà¸°à¸Ļ":10180,"à¸§à¸ĩà¸Ħ":10181,"à¸Ļà¸ªà¸ĸà¸²à¸Ľ":10182,"à¸¡à¸«à¸²à¸ģ":10183,"Ġà¸ģà¸²à¸£à¸ļà¸£":10184,"à¸ĺà¸£à¸£à¸¡à¸Ĺ":10185,"à¸Ĭà¸²à¸¢à¸«à¸²à¸Ķ":10186,"ĠGl":10187,"à¸Ļà¸Ħà¸§à¸²à¸¡à¸ľ":10188,"Ġà¹Ģà¸®à¸Ńà¸£":10189,"der":10190,"à¸ģà¸²à¸Ī":10191,"à¸Ĥà¸Īà¸£":10192,"à¸¢à¸§à¸Ī":10193,"à¸²à¸¨à¸ģ":10194,"à¸¢à¸¡à¸¡":10195,"Ġà¹Ĥà¸Ĩ":10196,"à¹ĥà¸Ļà¸ģà¸²à¸£à¸ļà¸£":10197,"ĠDis":10198,"à¸¢à¸²à¸§à¸Ļà¸²à¸Ļ":10199,"à¸£à¸Ńà¸ļà¸Ħ":10200,"à¹Ģà¸Ļà¸ªà¹Ĥà¸ģ":10201,"à¸Ķà¸³à¸£à¸ĩà¸Ńà¸¢":10202,"à¸Ńà¸Ńà¸Ńà¸ģ":10203,"à¸Ńà¹ģà¸Ĥ":10204,"à¹Ģà¸Ńà¸¢":10205,"à¹Ĥà¸Ķà¸¢à¸Ľà¸ģà¸ķ":10206,"Ġà¸¡à¸²à¸¢":10207,"Ġ\"(":10208,"à¸Ľà¸£à¸°à¹Ģà¸Ĺà¸¨à¸Ŀà¸£":10209,"à¹ĥà¸Ļà¸ģà¸²à¸£à¸Ľà¸ģà¸Ħà¸£à¸Ńà¸ĩ":10210,"à¸ļà¸ģà¸²à¸£à¸ĸ":10211,"à¹Ĥà¸£à¸Ĭ":10212,"à¸Ļà¸ŀà¸£à¸°à¸ł":10213,"à¸²à¸ĩà¸ģà¸²à¸¢à¸Ĥà¸Ńà¸ĩ":10214,"à¸£à¸§à¸¡à¹Ħà¸Ľà¸ĸ":10215,"à¸¡à¹ģà¸«":10216,"à¸ļà¸ĺ":10217,"à¹ĥà¸Ļà¸Ńà¹Ģà¸¡à¸£":10218,"à¹Ĥà¸Ķà¸¢à¹Ħà¸Ķ":10219,"à¸ŀà¸£à¸°à¹ģà¸¡":10220,"à¸ŀà¸£à¸°à¸¡à¹Ģà¸«à¸ª":10221,"à¸«à¸²à¸£à¸ĩà¸²à¸Ļ":10222,"à¸²à¸Ĥà¸Ńà¸ĩà¸§":10223,"à¸Ĭà¸Ĭà¸²à¸Ĭ":10224,"AL":10225,"à¸įà¸¡à¸²à¸ģ":10226,"à¸ĺà¸Ľ":10227,"à¸ģà¸¥à¸ĩà¸Ĺ":10228,"à¸ŀà¸£à¸°à¸Ńà¸Ļ":10229,"à¸ĩà¸Ħà¸²":10230,"à¸¥à¸°à¸¡":10231,"Ġ63":10232,"Ġà¸Ľà¸£à¸°à¹Ģà¸Ĺà¸¨à¹Ģà¸¢à¸Ńà¸£à¸¡à¸Ļ":10233,"à¸ªà¸łà¸²à¸§à¸°":10234,"à¸ģà¸°à¹Ģà¸«à¸£":10235,"ĠStud":10236,"à¸Ļà¸Ľà¸¥à¸²à¸ªà¸§à¸¢à¸ĩà¸²à¸¡":10237,"à¸ļà¸Ńà¸Ļà¹Ħà¸Ķ":10238,"à¸Ńà¸ªà¸²à¸¢à¸Ī":10239,"à¸Ńà¹Ģà¸ķà¸£":10240,"à¸Ķà¸²à¸Ħ":10241,"à¸Ĥà¸Ńà¸ĩà¸Ħà¸¥":10242,"à¸ķà¸£à¸ª":10243,"à¸²à¸ªà¸§":10244,"Ġà¸Ńà¸²à¸Ĭ":10245,"à¸Ļà¹ģà¸¥à¸°à¹Ģà¸Ľ":10246,"ations":10247,"à¸§à¸Ħà¸²à¸ªà¹Ģà¸ĭ":10248,"à¸Ńà¸Ļà¸ł":10249,"à¸Ķà¹ĥà¸Ļà¸¢":10250,"à¸²à¸Ļà¹ģà¸¥":10251,"à¹Ģà¸Ĥà¸²à¸Ī":10252,"à¸ķà¸£à¸Ħà¸Ļà¸Ĺ":10253,"Ġà¸¡à¸°":10254,"Ġà¸ªà¸ĸà¸²à¸Ľ":10255,"à¸§à¸ĩà¹Ĥà¸Ħà¸Īà¸£":10256,"à¸Ĺà¸ĺà¸ª":10257,"à¹ĥà¸Ļà¸ģà¸²à¸£à¸Ķà¸³à¹Ģà¸Ļ":10258,"à¸ľà¸¥à¸Ľà¸£à¸°à¹Ĥà¸¢à¸Ĭà¸Ļ":10259,"à¸²à¸Ľà¸²à¸£":10260,"à¸Ļà¸ªà¸¡à¸ļ":10261,"ura":10262,"à¸Ĵà¸Ļà¸ĺà¸£à¸£à¸¡à¸Ĺ":10263,"Ġà¸£à¸²à¸Ĭà¸Ńà¸²à¸ĵà¸²à¸Ī":10264,"à¸²à¹ĥà¸Ļà¸Ĭ":10265,"à¸ĩà¹Ģà¸§à¸¥à¸ª":10266,"à¸¥à¸²à¸Ļà¸Ļà¸Ĺ":10267,"à¸Ķà¹Ģà¸Ħà¸£":10268,"à¸Ĭà¹Ħà¸Ķ":10269,"à¸ŀà¸£à¸°à¹Ģà¸¢à¸²à¸§":10270,"Ġà¹Ĥà¸Ķà¸¢à¸¡à¸²à¸ģ":10271,"à¹ģà¸ļà¸ļà¸ķ":10272,"à¸ģà¸³à¸Ļ":10273,"à¸Ľà¸£à¸°à¸ªà¸ļà¸ģ":10274,"à¹Ĥà¸Ľà¸£à¹Ģà¸Īà¸ģà¸ķ":10275,"à¸Ńà¸³à¸Ļà¸²à¸Īà¸Ĥà¸Ńà¸ĩ":10276,"à¸Ļà¹Ĥà¸Ķà¸¢à¸¡":10277,"ange":10278,"Ġà¸ļà¸Ĺà¹Ĥà¸Ĺà¸£à¸Ĺ":10279,"Ġà¸ģà¸³à¸«à¸Ļà¸Ķà¹ĥà¸«":10280,"à¸ģà¹Ģà¸¢à¸²à¸§à¸Ĭ":10281,"à¸ļà¸£à¸°à¸Ķ":10282,"à¸¨à¸ķà¸§à¸£à¸£à¸©":10283,"à¸łà¸²à¸Ļ":10284,"à¸Ļà¸ªà¹Ĥà¸¡à¸ªà¸£":10285,"à¸Ļà¸Ķà¸²à¸¡":10286,"à¸Ļà¸Ńà¸²à¸ĵà¸²à¸Ī":10287,"à¸ļà¸ªà¸ĸà¸²à¸Ļ":10288,"ectr":10289,"Ġà¹Ħà¸Ĭ":10290,"à¹ĥà¸Ļà¸Ħà¸ĵà¸°à¸ģà¸£à¸£à¸¡à¸ģà¸²à¸£":10291,"à¹ģà¸ĭà¸Ļà¹Ħà¸Ĺà¸Ļ":10292,"à¸ĭà¸²à¸ģà¸°":10293,"CT":10294,"Ġà¹Ĥà¸¥à¸ģ":10295,"à¸Ńà¸Ńà¸Ķ":10296,"à¸§à¸¥à¸³":10297,"à¸Ħà¸§à¸²à¸¡à¹ģà¸Ĥ":10298,"à¸ļà¸ģà¸²à¸£à¸Ľà¸£":10299,"à¸ªà¸²à¸¡à¸²à¸£à¸ĸà¸Ħà¸§":10300,"à¹Ģà¸Ĥà¸²à¹Ģà¸Ĥ":10301,"à¹ģà¸¢à¸ģà¹Ģà¸Ľ":10302,"à¸Ĺà¸³à¸¥à¸²à¸¢à¸¥":10303,"à¹ģà¸®à¸¡":10304,"Ġà¹Ĥà¸Ľà¸£à¸ķ":10305,"ife":10306,"à¸ĩà¸Ľà¸£à¸°à¸ģà¸²à¸¨":10307,"à¸§à¹Ģà¸ª":10308,"à¸ªà¸«à¸łà¸²à¸ŀ":10309,"à¸ļà¸¡à¸²à¹ĥà¸Ĭ":10310,"à¸²à¸¢à¸ģà¸§":10311,"à¸Ħà¸§à¸²à¸¡à¸Ŀ":10312,"à¸ĩà¹ģà¸ķà¸ģà¸ķ":10313,"à¸Ļà¹Ĥà¸®":10314,"ict":10315,"à¸Ńà¸ĩà¸ªà¸§":10316,"à¸Ļà¸Ħà¸§à¸²à¸¡à¸ª":10317,"à¹Ĥà¸Ńà¸£à¸ªà¸²à¸ĺ":10318,"à¸ĩà¸ľà¸¥à¸ķ":10319,"à¸Ńà¸ŀà¸¥":10320,"à¸¥à¸«à¸Ļ":10321,"à¸ļà¸Ļà¸ģ":10322,"à¸Ĥà¸²à¸Ħà¸ĵ":10323,"à¸§à¸¡à¹Ģà¸ŀà¸¨":10324,"à¹Ģà¸ļà¸Ļ":10325,"à¹ĥà¸Īà¸§":10326,"à¸¡à¸«à¸²à¸ģà¸£":10327,"ings":10328,"Ġsh":10329,"à¸Ĥà¸Ńà¸ĩà¸ªà¸«à¸łà¸²à¸ŀà¹Ĥà¸ĭà¹Ģà¸§":10330,"Ġà¹ģà¸ªà¸Ķ":10331,"à¸ŀà¸¥à¸Ĥà¸Ńà¸ĩ":10332,"Ġà¹Ģà¸Ĥà¸²à¸ģà¸¥":10333,"Ġà¸¢à¸ģà¸ķ":10334,"Ġà¸ªà¸Ļà¸²à¸¡à¸ģ":10335,"à¸Ļà¸²à¸¨":10336,"à¸ķà¹ģà¸¥":10337,"à¸ķà¸ģà¸Ńà¸¢":10338,"à¸ĺà¸§":10339,"à¸Ńà¸£à¸ĸ":10340,"à¸ŀà¸£à¸°à¸£":10341,"à¸ĩà¸ªà¸ĸà¸²à¸ļ":10342,"à¸ģà¸©à¸²à¹ģà¸«":10343,"à¸Ļà¹Ĥà¸Ńà¸¥":10344,"à¸²à¸łà¸²":10345,"à¸¡à¸¡à¸²à¸ª":10346,"à¸ĩà¹ĥà¸Ļà¹Ģà¸£":10347,"à¸¡à¸²à¸ªà¹Ģà¸ķà¸Ńà¸£":10348,"à¸ĩà¸²à¸Ļà¸«à¸Ļ":10349,"à¸Ķà¸«à¸¡":10350,"à¸Ķà¸£à¸°à¸«à¸§":10351,"à¸ŀà¸ģà¸¥":10352,"à¸²à¸§à¸ģà¸£":10353,"à¸Ńà¸¡à¹Ģà¸¡":10354,"à¸§à¸Ļà¹Ģà¸ª":10355,"à¸¥à¸°à¸ģà¸¥":10356,"à¸łà¸²à¸©à¸²à¸į":10357,"ĠPart":10358,"à¸²à¹ģà¸¥à¸°à¸ª":10359,"à¸Ĺà¸«à¸²à¸£à¹Ģà¸£":10360,"à¸ļà¸Ńà¸ģà¹Ģà¸¥":10361,"à¸²à¸ıà¸¨":10362,"MS":10363,"à¸ĩà¸ĩà¸²à¸Ļà¸ª":10364,"à¸Ńà¸¡à¹Ģà¸ļ":10365,"à¸Īà¸°à¸Ĺ":10366,"à¸²à¸Ķà¸°":10367,"à¸¥à¸°à¸§":10368,"à¸°à¹Ģà¸¥à¸ªà¸²à¸ļ":10369,"ĠWrest":10370,"à¸ªà¸łà¸ĵ":10371,"à¸¢à¸Ļà¸ªà¸§à¸Ļà¸ģ":10372,"à¹Ģà¸Ħà¸¡à¸ļà¸£":10373,"uch":10374,"ÂŃ":10375,"à¸Ķà¸ģà¸§":10376,"à¸Īà¸Ļà¹Ħà¸Ķ":10377,"à¸Ļà¸Ĭà¸¡":10378,"à¸Ĭà¸²à¸§à¸®":10379,"Ġà¸Ħà¸§à¸²à¸¡à¸ªà¸²à¸¡à¸²à¸£à¸ĸ":10380,"à¸ģà¸ŀà¸²à¸ķ":10381,"à¸¤à¹ħà¸©":10382,"Ã¼":10383,"à¸Ļà¸ģà¸£à¸ĵ":10384,"à¸ĩà¸Ļà¸ģ":10385,"à¸§à¸Ļà¸ĭ":10386,"à¸Ľà¸Ĳ":10387,"à¸Ľà¹Ĥà¸łà¸Ħ":10388,"à¹ĥà¸Ļà¹Ģà¸Ļ":10389,"à¹Ĥà¸Ķà¹Ģà¸Ļ":10390,"à¸ľà¸¥à¹Ģà¸Ľ":10391,"Ġà¸ŀà¸£à¸°à¸ĺ":10392,"à¸ªà¸²à¸£à¸°":10393,"à¸Ńà¸ģà¸²à¸£à¹ĥà¸Ĭ":10394,"à¹Ģà¸§à¸ĵà¸«à¸Ļ":10395,"à¸ªà¸²à¸¢à¸ķ":10396,"à¸ģà¸²à¸£à¸Ľà¸ģà¸Ħà¸£à¸Ńà¸ĩà¸Ĥ":10397,"Ġà¸Ľà¸£à¸²à¹Ĥà¸¡":10398,"à¸Ļà¸Ĭà¸²à¸§à¹Ħà¸Ĺà¸¢":10399,"á»":10400,"à¸ļà¸Ħà¸Ļ":10401,"à¸Ħà¸«à¸¥":10402,"à¸Īà¸ªà¸¡à¸ļ":10403,"à¸Ĥà¸Ńà¸ĩà¸Ħà¸ĵà¸°":10404,"à¸²à¸Ļà¹ģà¸«":10405,"à¸ģà¸¥à¸¢":10406,"à¸Ńà¸¡à¸¥":10407,"à¸Ńà¸¥à¹Ģà¸¥":10408,"à¸ĩà¸Ħà¸ĩà¸£":10409,"à¸ĩà¸Ļà¸²à¸¢":10410,"round":10411,"à¸£à¸£à¸ĵà¸Ħà¸Ķ":10412,"à¸²à¸ĩà¸Ħà¸§à¸²à¸¡à¹Ģà¸ª":10413,"à¸Īà¸ŀà¸£à¸°à¸ļà¸£à¸¡à¹Ĥà¸Ńà¸£à¸ªà¸²à¸ĺ":10414,"à¸Ńà¸ķà¸£":10415,"à¸ģà¸ĩà¸²à¸Ļà¸Ĺ":10416,"à¸°à¸ģà¸°":10417,"à¸Ľà¸²à¸¥":10418,"à¸²à¸§à¸²":10419,"à¹Ĥà¸Ķà¸¢à¸ķ":10420,"Ġà¸£à¸²à¸Ħ":10421,"ena":10422,"à¸²à¸Ĥà¸²à¸Ķ":10423,"Ġà¸Ĺà¸³à¸ĩà¸²à¸Ļ":10424,"à¸ģà¸©à¸²à¹Ģà¸ŀ":10425,"Ġ68":10426,"à¹Ĥà¸Ħà¸Ī":10427,"à¸²à¸Ľà¸£à¸°à¹Ģà¸łà¸Ĺ":10428,"Ġà¹Ģà¸§à¸Ĭà¸Ĭà¸²à¸Ĭ":10429,"à¸ķà¸³à¸£à¸§à¸Īà¹Ģà¸Ńà¸ģ":10430,"à¸ķà¸£à¸ģà¸£à¸£à¸¡à¸Ŀà¸²à¸ľà¸Ļ":10431,"à¸«à¸ģ":10432,"à¸ĸà¸¥":10433,"à¹Ħà¸Ľà¹ĥà¸Ļà¸Ĺ":10434,"Ġà¹Ĥà¸¢à¸Ĭ":10435,"ĠâĢĭ":10436,"à¸ĩà¸ªà¸Ńà¸ĩà¹Ħà¸Ķ":10437,"Ġ1971":10438,"Ġ1976":10439,"à¸Ńà¹Ģà¸§":10440,"à¸ĩà¸ĺ":10441,"à¸«à¸¢à¸ģ":10442,"à¸¢à¸§à¹ģà¸¥à¸°":10443,"à¹ĥà¸Ļà¸ģà¸²à¸£à¸§":10444,"à¸ļà¸Ĺà¸§":10445,"echn":10446,"à¸£à¸°à¸ļà¸ļà¸Ĺ":10447,"à¸²à¸Īà¸°à¹ĥà¸Ĭ":10448,"à¸ĩà¸ģà¸£à¸°à¸Ļ":10449,"à¸ģà¹Ĥà¸¢à¸ĺ":10450,"à¸§à¹Ģà¸Ń":10451,"à¸Ĺà¸ļ":10452,"à¸Īà¹ģà¸¥à¸°à¸ª":10453,"à¹Ħà¸ļà¸£à¸Ń":10454,"à¸²à¸¢à¸²à¸§":10455,"à¸įà¸Ķ":10456,"à¸²à¸Ĭà¸²à¸Ķ":10457,"à¸Ħà¸§à¸²à¸¡à¸Ĭà¸Ńà¸ļ":10458,"à¸ĩà¸ªà¸²à¸¢":10459,"à¸Ļà¸ĺà¸°":10460,"à¸ĩà¸ģà¸²à¸£à¹ģà¸Ĥ":10461,"à¸Ńà¸ģà¸²à¸£à¸¨":10462,"Ġà¸Ħà¸§à¸²à¸¡à¸ķ":10463,"2012":10464,"à¸Ľà¸°à¸Ĺà¸°à¸ģ":10465,"Ġà¹Ģà¸¨à¸£à¸©à¸Ĳà¸ģ":10466,"bit":10467,"à¸ĩà¹ģà¸Ĥ":10468,"à¸§à¹Ĩ":10469,"à¸Ħà¸²à¹Ĥà¸ģ":10470,"à¸²à¸ģà¸£à¸°à¸Ķ":10471,"à¸¢à¸§à¸Ķà¸¢":10472,"à¸Ńà¸ªà¹Ģà¸Ļ":10473,"Ġ62":10474,"Ġ66":10475,"Ġà¹Ħà¸ļà¸£à¸Ń":10476,"à¸ĩà¸¨à¸²à¸¥":10477,"Ġfl":10478,"à¸Ĺà¸³à¸ĩà¸²à¸Ļà¸ģ":10479,"à¸ļà¸²à¸¢à¸ĸ":10480,"Ġ1964":10481,"à¸ŀà¸£à¸°à¸ªà¸§à¸²à¸¡":10482,"à¸Ļà¹ĥà¸Ļà¸Ķ":10483,"à¸Ńà¸ĩà¹ģà¸¡":10484,"Ġà¹ģà¸¥à¸°à¹Ĥà¸£à¸ĩà¹Ģà¸£":10485,"à¸ģà¸£à¸²à¸Ļà¸Ĥà¸Ńà¸ĩ":10486,"à¸ŀà¸£à¸°à¸ķà¸³à¸«à¸Ļ":10487,"à¸Ľà¸£à¸²à¸ģà¸£":10488,
[...]
