{"<s>":0,"<pad>":1,"</s>":2,"<unk>":3,"<mask>":4,"!":5,"\"":6,"#":7,"$":8,"%":9,"&":10,"'":11,"(":12,")":13,"*":14,"+":15,",":16,"-":17,".":18,"/":19,"0":20,"1":21,"2":22,"3":23,"4":24,"5":25,"6":26,"7":27,"8":28,"9":29,":":30,";":31,"<":32,"=":33,">":34,"?":35,"@":36,"A":37,"B":38,"C":39,"D":40,"E":41,"F":42,"G":43,"H":44,"I":45,"J":46,"K":47,"L":48,"M":49,"N":50,"O":51,"P":52,"Q":53,"R":54,"S":55,"T":56,"U":57,"V":58,"W":59,"X":60,"Y":61,"Z":62,"[":63,"\\":64,"]":65,"^":66,"_":67,"`":68,"a":69,"b":70,"c":71,"d":72,"e":73,"f":74,"g":75,"h":76,"i":77,"j":78,"k":79,"l":80,"m":81,"n":82,"o":83,"p":84,"q":85,"r":86,"s":87,"t":88,"u":89,"v":90,"w":91,"x":92,"y":93,"z":94,"{":95,"|":96,"}":97,"~":98,"¡":99,"¢":100,"£":101,"¤":102,"¥":103,"¦":104,"§":105,"¨":106,"©":107,"ª":108,"«":109,"¬":110,"®":111,"¯":112,"°":113,"±":114,"²":115,"³":116,"´":117,"µ":118,"¶":119,"·":120,"¸":121,"¹":122,"º":123,"»":124,"¼":125,"½":126,"¾":127,"¿":128,"À":129,"Á":130,"Â":131,"Ã":132,"Ä":133,"Å":134,"Æ":135,"Ç":136,"È":137,"É":138,"Ê":139,"Ë":140,"Ì":141,"Í":142,"Î":143,"Ï":144,"Ð":145,"Ñ":146,"Ò":147,"Ó":148,"Ô":149,"Õ":150,"Ö":151,"×":152,"Ø":153,"Ù":154,"Ú":155,"Û":156,"Ü":157,"Ý":158,"Þ":159,"ß":160,"à":161,"á":162,"â":163,"ã":164,"ä":165,"å":166,"æ":167,"ç":168,"è":169,"é":170,"ê":171,"ë":172,"ì":173,"í":174,"î":175,"ï":176,"ð":177,"ñ":178,"ò":179,"ó":180,"ô":181,"õ":182,"ö":183,"÷":184,"ø":185,"ù":186,"ú":187,"û":188,"ü":189,"ý":190,"þ":191,"ÿ":192,"Ā":193,"ā":194,"Ă":195,"ă":196,"Ą":197,"ą":198,"Ć":199,"ć":200,"Ĉ":201,"ĉ":202,"Ċ":203,"ċ":204,"Č":205,"č":206,"Ď":207,"ď":208,"Đ":209,"đ":210,"Ē":211,"ē":212,"Ĕ":213,"ĕ":214,"Ė":215,"ė":216,"Ę":217,"ę":218,"Ě":219,"ě":220,"Ĝ":221,"ĝ":222,"Ğ":223,"ğ":224,"Ġ":225,"ġ":226,"Ģ":227,"ģ":228,"Ĥ":229,"ĥ":230,"Ħ":231,"ħ":232,"Ĩ":233,"ĩ":234,"Ī":235,"ī":236,"Ĭ":237,"ĭ":238,"Į":239,"į":240,"İ":241,"ı":242,"Ĳ":243,"ĳ":244,"Ĵ":245,"ĵ":246,"Ķ":247,"ķ":248,"ĸ":249,"Ĺ":250,"ĺ":251,"Ļ":252,"ļ":253,"Ľ":254,"ľ":255,"Ŀ":256,"ŀ":257,"Ł":258,"ł":259,"Ń":260,"à¸":261,"à¹":262,"à¸²":263,"à¸²à¸":264,"à¸Ļ":265,"à¸£":266,"à¸Ń":267,"à¹Ģ":268,"à¹Ī":269,"à¸ģ":270,"à¸±":271,"à¸ĩ":272,"à¹Ģà¸":273,"à¹ī":274,"à¸µ":275,"à¸¡":276,"à¸¥":277,"à¸´":278,"à¸§":279,"à¸¢":280,"à¸Ķ":281,"à¸Ĺ":282,"à¸°":283,"à¸ķ":284,"à¸ª":285,"à¸ļ":286,"à¹ģ":287,"à¸«":288,"à¸Ħ":289,"à¸Ľ":290,"à¸Ī":291,"à¹Į":292,"à¹ĥ":293,"à¸²à¸£":294,"à¸ŀ":295,"à¸Ńà¸ĩ":296,"à¸·":297,"à¹Ħ":298,"à¸¸":299,"à¸µà¹Ī":300,"à¹ĩ":301,"à¸¹":302,"à¸Ĥ":303,"à¸Ĭ":304,"à¹Ĥ":305,"à¸£à¸°":306,"à¸³":307,"à¸ģà¸²à¸£":308,"à¹ĥà¸Ļ":309,"à¹Ģà¸Ľ":310,"à¸²à¸¢":311,"à¸¨":312,"à¸²à¸ĩ":313,"à¹ģà¸¥":314,"à¸¶":315,"à¸²à¸ģ":316,"à¸²à¸Ļ":317,"à¸²à¸¡":318,"à¹ģà¸¥à¸°":319,"à¸·à¹Ī":320,"à¸±à¹ī":321,"à¸ĸ":322,"à¸Ĥà¸Ńà¸ĩ":323,"à¹Ħà¸Ķ":324,"à¸ĭ":325,"::":326,"à¸Ľà¸£à¸°":327,"à¸ľ":328,"Ġà¹Ģà¸":329,"à¸Ńà¸Ļ":330,"à¸ł":331,"à¸ĺ":332,"à¸©":333,"à¸Ńà¸¢":334,"à¹Ģà¸£":335,"à¸Ļà¸Ĺ":336,"à¸ĵ":337,"à¹ĥà¸«":338,"à¸į":339,"Ġ2":340,"Ġà¹ģà¸¥à¸°":341,"à¸Ńà¸ģ":342,"à¸²à¸§":343,"à¸Ħà¸£":344,"à¸ģà¸£":345,"à¸ŀà¸£à¸°":346,"à¸ķà¸£":347,"à¹Ģà¸ģ":348,"à¹Ĥà¸Ķ":349,"à¸«à¸Ļ":350,"à¹Ģà¸¡":351,"à¸²à¸Ĭ":352,"à¸Ńà¸£":353,"à¸Ħà¸§":354,"à¸Īà¸²à¸ģ":355,"Ġ(":356,"à¹Ģà¸Ķ":357,"à¹Ģà¸¥":358,"à¹Ģà¸Ĥ":359,"à¸¶à¹Ī":360,"Ġ1":361,"à¸«à¸¥":362,"à¹Ģà¸Ĺ":363,"à¸¹à¹ī":364,"à¸Ł":365,"à¹Ĥà¸Ķà¸¢":366,"à¸ģà¸¥":367,"à¸Ħà¸§à¸²à¸¡":368,"à¸¹à¹Ī":369,"à¹Ģà¸ŀ":370,"à¸łà¸²à¸":371,"Ġà¸ŀ":372,"à¹Ħà¸Ľ":373,"à¸§à¸¢":374,"à¸²à¸ª":375,"à¸Īà¸°":376,"à¸µà¹ī":377,"Ġà¸Ħ":378,"à¸¢à¸Ļ":379,"à¹ģà¸ķ":380,"on":381,"à¸Ńà¸¡":382,"Ġà¸¡":383,"à¹Ħà¸¡":384,"Ġà¸Ĺ":385,"à¸ļà¸£":386,"Ġà¸ª":387,"à¸§à¸Ļ":388,"à¹Ģà¸«":389,"à¸§à¸ĩ":390,"ti":391,"à¸²à¸¥":392,"à¸Ĳ":393,"à¸²à¸Ī":394,"à¸«à¸£":395,"à¹Ģà¸ª":396,"à¸²à¸Ĺ":397,"à¸ªà¸¡":398,"à¹Ģà¸Ī":399,"à¸²à¸Ħ":400,"à¸ģà¸©":401,"à¸Ĺà¸¢":402,"à¸£à¸£":403,"tion":404,"à¸²à¸ķ":405,"ec":406,"Ġà¹Ģà¸Ľ":407,"à¸Ńà¸ļ":408,"à¹Ģà¸Ļ":409,"Ġà¹ĥà¸Ļ":410,"à¹Ģà¸§":411,"à¸£à¸ĩ":412,"ection":413,"à¸¥à¸ĩ":414,"::::":415,"Section":416,"Ġ\"":417,"Ġà¸ĭ":418,"à¸´à¹Ī":419,"Ġà¸Ń":420,"à¸«à¸¡":421,"à¹ĥà¸Ĭ":422,"à¸Ľà¸£":423,"Ġà¸ģ":424,"Ġ25":425,"à¸±à¹Ī":426,"à¸Ļà¸ª":427,"à¸Ļà¸ķ":428,"à¸£à¸²à¸Ĭ":429,"à¹Ģà¸Ń":430,"à¸¢à¸ĩ":431,"à¸§à¸¡":432,"à¹Ģà¸Ĭ":433,"à¸Ĺà¸³":434,"Ġà¸Ī":435,"à¹Ģà¸Ħ":436,"Ġà¹Ĥà¸Ķà¸¢":437,"à¸ļà¸ļ":438,"Ġà¸ķ":439,"à¸ĩà¸ª":440,"à¸¸à¹Ī":441,"à¸²à¸Ķ":442,"à¸¶à¹ī":443,"Ġà¸Ļ":444,"à¸Ńà¸Ķ":445,"à¸¢à¸§":446,"à¹Ĩ":447,"à¹Ģà¸Ĺà¸¨":448,"à¸Ĺà¸²à¸ĩ":449,"à¸Ļà¸Ļ":450,"à¸ģà¸§":451,"à¸ĩà¸²à¸Ļ":452,"à¸«à¸§":453,"à¸²à¸«":454,"Ġà¹ģ":455,"à¸Ļà¸Ķ":456,"à¸łà¸²à¸ŀ":457,"à¸·à¹ī":458,"à¹Ģà¸ķ":459,"à¸Ńà¸Ńà¸ģ":460,"à¸®":461,"à¸¤":462,"à¸²à¸¨":463,"à¸ĩà¸ģ":464,"à¸³à¸Ļ":465,"Ġà¸£":466,"à¸Ľà¸£à¸°à¹Ģà¸Ĺà¸¨":467,"à¹Ģà¸ĭ":468,"à¸ĵà¸°":469,"à¸Ļà¸¡":470,"à¸£à¸ģ":471,"à¸£à¸¡":472,"00":473,"à¹Ĥà¸¥":474,"à¸²à¸°":475,"à¸Ńà¸ª":476,"à¸Ńà¸¥":477,"à¸ĩà¸Ħ":478,"à¹ģà¸«":479,"à¸²à¸Ń":480,"à¸Ŀ":481,"à¸Ńà¸ĩà¸Ħ":482,"à¸²à¸ļ":483,"à¸Ĭà¸Ļ":484,"à¸Ļà¸§":485,"à¸Ńà¸§":486,"Ġà¹ģà¸ķ":487,"à¸Ļà¸ĺ":488,"à¸¡à¸Ļ":489,"Ġà¹Ħà¸Ķ":490,"à¸ĩà¸Ĺ":491,"à¸Ĺà¸ĺ":492,"à¸²à¸ĵ":493,"à¹Ģà¸ļ":494,"à¸Ľà¸¥":495,"à¸ģà¸£à¸°":496,"à¸¢à¸¡":497,"Ġà¹Ģà¸¡":498,"à¸²à¸Ħà¸¡":499,"à¸¡à¸²à¸ģ":500,"à¹ģà¸ģ":501,"à¸ľà¸¥":502,"à¸Ĺà¸£":503,"à¸²à¸Ĥ":504,"à¹ģà¸ļà¸ļ":505,"âĢ":506,"à¹ģà¸ª":507,"Ġà¸Ľ":508,"à¹Ħà¸Ĺà¸¢":509,"à¸Ħà¸¥":510,"à¸Ħà¸Ļ":511,"à¸ªà¸³":512,"Ġ3":513,"à¸ĩà¹Ģà¸Ľ":514,"à¸²à¸¡à¸²à¸£":515,"Ġà¸Ķ":516,"Ġà¹Ĥ":517,"à¸ªà¸£":518,"à¸ĩà¸Ĥ":519,"à¸ĩà¸¡":520,"à¸Ļà¸Ń":521,"à¸²à¸¡à¸²à¸£à¸ĸ":522,"à¸¥à¸°":523,"à¸¨à¸²à¸ª":524,"à¸Ļà¸ģ":525,"à¸«à¸²à¸£":526,"à¸¢à¸ģ":527,"Ġà¹Ĩ":528,"à¸ĩà¸Ļ":529,"à¸ļà¸Ĺ":530,"à¸ı":531,"à¹ģà¸£à¸ģ":532,"à¹ĥà¸Ļà¸Ľ":533,"à¸ļà¸ģà¸²à¸£":534,"er":535,"à¸ķà¸²à¸¡":536,"Ġà¸§":537,"à¹ĥà¸Ļà¸ģà¸²à¸£":538,"à¸Ķà¸ĩ":539,"Ġà¸«à¸£":540,"à¸ģà¸£à¸£à¸¡":541,"à¸Īà¸³":542,"à¸ŀà¸¥":543,"à¹ĥà¸«à¸į":544,"Ġà¹Ģà¸ŀ":545,"à¹ĥà¸Ī":546,"à¸¡à¸²":547,"à¸ī":548,"à¹Ĥà¸£":549,"Ġ19":550,"Ġà¸Ĭ":551,"à¹ģà¸¡":552,"à¹ģà¸Ĥ":553,"à¸²à¸¢à¸Ļ":554,"à¸²à¸Ľ":555,"à¸¡à¸«":556,"à¸Ńà¸ķ":557,"à¸ģà¸ª":558,"à¸Ľà¸£à¸°à¸ģ":559,"à¸İ":560,"à¸ļà¸ª":561,"à¹Ģà¸«à¸¥":562,"Ġà¸ŀà¸£à¸°":563,"an":564,"à¸²à¸ģà¸²à¸£":565,"à¸Ļà¸£":566,"à¸ĩà¸ķ":567,"Ġà¸ģà¸²à¸£":568,"à¸ģà¸ķ":569,"à¸²à¸ŀ":570,"à¹Ģà¸Ħà¸£":571,"à¸Ķà¸Ĺ":572,"à¸²à¸ĺ":573,"à¸Ļà¸¢":574,"Ġà¸ļ":575,"à¸ŀà¸£":576,"in":577,"à¸Ĭà¸²à¸ķ":578,"à¸´à¹ī":579,"à¹Ģà¸¢":580,"à¹Ģà¸ŀà¸¥à¸ĩ":581,"à¸ģà¸³":582,"à¸Ķà¸Ļ":583,"à¸łà¸²à¸Ħ":584,"à¸£à¸£à¸¡":585,"à¸Ļà¸ģà¸²à¸£":586,"à¸Ĳà¸²à¸Ļ":587,"à¸Ĵ":588,"à¸łà¸²à¸©":589,"Ġà¸¥":590,"à¸Ļà¹ĥà¸Ļ":591,"à¹ģà¸Ĺ":592,"à¸Ļà¸³":593,"à¸ªà¸ķ":594,"à¸ªà¸ĸ":595,"à¸²à¹Ģà¸Ľ":596,"à¹Ģà¸§à¸¥":597,"à¸¡à¸ŀ":598,"à¸Īà¸Ī":599,"à¸ģà¸Ħà¸£":600,"à¸Ńà¸ĩà¸Ĺ":601,"Ġ20":602,"Ġ4":603,"à¸¤à¸©":604,"à¸Ĭà¸²à¸§":605,"à¹Ģà¸¨":606,"à¸ªà¸²à¸¡à¸²à¸£à¸ĸ":607,"à¸«à¸¥à¸²à¸¢":608,"à¸¢à¸§à¸ģ":609,"à¹Ģà¸ł":610,"à¹Ģà¸ĺ":611,"à¸¨à¸²à¸ªà¸ķà¸£":612,"à¸ķà¸³":613,"à¸«à¸¡à¸²à¸¢":614,"à¸ŀà¸£à¸°à¸£à¸²à¸Ĭ":615,"à¸Ķà¸ª":616,"à¹ĥà¸«à¸¡":617,"à¸Ļà¸Ħ":618,"à¹Ħà¸§":619,"à¸Ļà¹ģ":620,"à¹Ĥà¸£à¸ĩ":621,"à¹Ĥà¸¡":622,"à¸Ļà¸ľ":623,"à¸§à¸ģ":624,"à¸įà¸į":625,"à¹ģà¸ªà¸Ķà¸ĩ":626,"à¸ĩà¸«à¸§":627,"à¸Īà¸²à¸ģà¸Ļ":628,"à¸Ľà¸£à¸°à¸Ĭ":629,"Ġà¹Ģà¸Ĥ":630,"à¸Ļà¸Ī":631,"à¸£à¸°à¸«à¸§":632,"Ġ255":633,"à¹Ģà¸ī":634,"à¸ģà¸Ķ":635,"à¹ĥà¸ķ":636,"à¸Ļà¹Ģà¸Ľ":637,"or":638,"à¹Ĥà¸¥à¸ģ":639,"à¸Ĺà¸¢à¸²à¸¥":640,"à¸ĩà¹ĥà¸Ļ":641,"à¸ļà¸Ļ":642,"à¸§à¸£à¸£":643,"Ġ5":644,"Ġà¸ľ":645,"ar":646,"Ġà¹Ģà¸Ĭ":647,"à¹Ĥà¸ķ":648,"en":649,"Ġ24":650,"Ġà¸ĸ":651,"Ġà¸Ĥ":652,"à¸Ķà¸ķ":653,"à¸ŀà¸ļ":654,"Ġà¸Ĥà¸Ńà¸ĩ":655,"à¸Ļà¸Ĺà¸²à¸ĩ":656,"à¸ªà¸Ļ":657,"al":658,"à¸łà¸²à¸¢":659,"à¸Ľà¸£à¸°à¸ª":660,"à¸°à¸§":661,"à¸ŀà¸¢":662,"à¸²à¸Ĥà¸Ńà¸ĩ":663,"à¸¢à¸£":664,"à¸Ļà¸²":665,"à¸´à¹Į":666,"à¸ĩà¹Ħà¸Ķ":667,"à¸§à¸ĩà¸¨":668,"à¸£à¸²à¸¢":669,"à¸¥à¸¥":670,"à¹Ģà¸Ĥà¸²":671,"à¸Ńà¸Ĺ":672,"Ġà¸¢":673,"à¸ļà¸¥":674,"à¸³à¸Ļà¸§à¸Ļ":675,"à¹Ģà¸ķà¸Ńà¸£":676,"à¸ŀà¸£à¸£":677,"à¸ĩà¹ģà¸ķ":678,"ĠS":679,"à¸²à¸Īà¸²à¸ģ":680,"à¸ĩà¸Ń":681,"à¸Ħà¸³":682,"à¸Ĺà¸³à¹ĥà¸«":683,"à¸Ļà¹Ħà¸Ķ":684,"à¸ģà¸¥à¸²à¸ĩ":685,"à¹Ħà¸Ł":686,"à¸ĺà¸£à¸£à¸¡":687,"à¸ĩà¸ģà¸²à¸£":688,"à¸Ĺà¸£à¸ĩ":689,"à¸£à¸°à¸Ķ":690,"à¹Ģà¸Ľà¸¥":691,"à¸Ńà¹Ģà¸¡":692,"à¸Ļà¸Ħà¸£":693,"à¸Ļà¸Ĭ":694,"à¸Ķà¸³":695,"à¸ģà¸²":696,"à¹Ģà¸Ńà¸ĩ":697,"à¸ĩà¸Īà¸²à¸ģ":698,"à¸Ľà¸£à¸°à¸ģà¸Ńà¸ļ":699,"à¸ģà¸Ĺ":700,"à¸ķà¸Ļ":701,"à¸Ĥà¸Ļ":702,"à¸ģà¸©à¸²":703,"à¹Ĭ":704,"à¸¡à¸²à¸ĵ":705,"Ġ201":706,"à¸ĩà¸Ħà¸£":707,"à¹Ĥà¸Ń":708,"à¸Ľà¸£à¸°à¸§":709,"à¸Īà¸Ļ":710,"Ġà¸«à¸¥":711,"à¸Īà¸£":712,"à¸ĩà¸Ĥà¸Ńà¸ĩ":713,"à¸Ļà¸Ĥà¸Ńà¸ĩ":714,"à¸¢à¸Ļà¸ķà¸£":715,"à¸²à¸ģà¸²à¸¨":716,"à¹Ģà¸«à¸Ļ":717,"à¸²à¸ĩà¸§":718,"à¸Ľà¸ı":719,"ĠC":720,"à¹ģà¸«à¸Ļ":721,"à¸¡à¸ķ":722,"à¹Ģà¸«à¸ķ":723,"à¸ļà¸²à¸¥":724,"Ġà¸Ĺà¸³":725,"à¸Ķà¸Ĥ":726,"Ġà¹Ģà¸£":727,"à¸Ļà¸Ĺà¸£":728,"à¹Ģà¸Ĥà¸ķ":729,"à¸¢à¸ļ":730,"à¸Ĭà¸²à¸¢":731,"à¸Ļà¹Ģà¸Ķ":732,"à¸łà¸²à¸ŀà¸¢à¸Ļà¸ķà¸£":733,"es":734,"à¹ģà¸ŀ":735,"à¸¡à¸Ĺ":736,"à¸ĳ":737,"à¸²à¸ĭ":738,"à¸ļà¸²à¸ĩ":739,"à¸ĩà¸£":740,"Ġ6":741,"à¹Ĥà¸Ļ":742,"à¹Ĥà¸£à¸ĩà¹Ģà¸£":743,"à¹ģà¸ľ":744,"à¹Ģà¸Ńà¸ģ":745,"à¸¢à¸°":746,"à¸¥à¸ļ":747,"à¸³à¹Ģà¸ł":748,"à¸Ńà¸Ľ":749,"à¹Ģà¸ĩ":750,"à¸ļà¸Ħ":751,"à¸Ńà¸ĩà¸ģ":752,"à¸Īà¸ŀà¸£à¸°":753,"à¸Ļà¸ŀ":754,"à¸ªà¸¡à¹Ģà¸Ķ":755,"à¸Ńà¸¡à¸²":756,"à¸ªà¸ĸà¸²à¸Ļ":757,"à¸§à¸£":758,"à¸¡à¸Ľ":759,"ĠâĢ":760,"à¸Ńà¸Ń":761,"à¸ªà¸²à¸£":762,"à¸¨à¸£":763,"à¸£à¸°à¸ļà¸ļ":764,"à¸«à¸¡à¸Ķ":765,"à¸ģà¸ģ":766,"à¸ķà¸¢":767,"à¸Īà¸°à¸¡":768,"à¹Ģà¸ĺà¸Ń":769,"à¸ĵà¸ĳ":770,"à¸ģà¸²à¸¥":771,"à¸§à¸Ķ":772,"à¸£à¸²à¸°":773,"he":774,"à¸²à¹Ĥ":775,"à¸ķà¸§":776,"Ġ254":777,"à¸ĩà¸Ńà¸¢":778,"à¸Ķà¸ģà¸²à¸£":779,"à¸ĩà¹ģ":780,"à¸¥à¸²à¸¢":781,"Ġ7":782,"à¸Ļà¸ļ":783,"ĠM":784,"Ġà¹Ģà¸ģ":785,"ĠA":786,"à¸Ńà¸ĩà¸Īà¸²à¸ģ":787,"Ġà¸Ħà¸Ļ":788,"à¸ļà¸£à¸£":789,"à¹ĥà¸Ļà¸Ĭ":790,"Ġà¸«":791,"Ġà¸ģà¸£":792,"à¸ŀà¸£à¸°à¸Ńà¸ĩà¸Ħ":793,"à¸¡à¸²à¸£":794,"à¸Ļà¸Ńà¸¢":795,"Ġà¹Ģà¸Ī":796,"à¸Ĩ":797,"à¸ĩà¸ģà¸¤à¸©":798,"à¸²à¸ĩà¸ģ":799,"à¸Ļà¸²à¸¡":800,"à¸ļà¸Ńà¸¥":801,"à¹Ħà¸£":802,"à¸ģà¸©à¸ĵà¸°":803,"à¸ĩà¸ģà¸¥":804,"à¸ķà¸³à¹ģà¸«à¸Ļ":805,"à¸£à¸§à¸¡":806,"à¸¥à¸°à¸Ħà¸£":807,"à¸ķà¸°à¸§":808,"à¸²à¸ĸ":809,"à¸²à¸Īà¸°":810,"à¸²à¸ģà¸£":811,"à¸ĩà¸Ħà¸£à¸²à¸¡":812,"Ġ200":813,"à¸Ľà¸£à¸°à¸¡à¸²à¸ĵ":814,"à¸Ĭà¸Ļà¸°":815,"à¸¥à¸Ľ":816,"à¸¥à¸³":817,"Ġà¸Īà¸²à¸ģ":818,"à¹ĥà¸Ļà¸ª":819,"à¸§à¸Ī":820,"à¸ĩà¹Ģà¸ģ":821,"à¸Ļà¹Ħà¸Ľ":822,"à¸ģà¸ĭ":823,"à¹Ģà¸«à¸¡":824,"à¸Ĥà¸Ļà¸²à¸Ķ":825,"à¸Ńà¹Ģà¸¡à¸£":826,"à¸Ńà¸°":827,"à¸ļà¸²à¸Ĺ":828,"à¸ļà¸Ķ":829,"Ġà¹Ģà¸Ķ":830,"ĠT":831,"à¸Ńà¸²à¸ģà¸²à¸¨":832,"à¸ģà¸²à¸£à¸ª":833,"Ġà¸Ĺà¸³à¹ĥà¸«":834,"à¸ªà¸³à¸Ħ":835,"à¸ĩà¸«":836,"à¸¡à¸ª":837,"à¹Ĥà¸ĭ":838,"Ġà¹ĥà¸Ļà¸Ľ":839,"à¹Ĥà¸ģ":840,"à¸ļà¸Ħà¸§à¸²à¸¡":841,"à¹ģà¸Ľ":842,"à¸«à¸¥à¸§à¸ĩ":843,"à¹Ĥà¸Ħà¸£":844,"à¸Ĵà¸Ļ":845,"à¸²à¸£à¸ĵ":846,"à¸Ľà¸ģà¸Ħà¸£":847,"ic":848,"à¸Ļà¹ģà¸¥à¸°":849,"à¸Ńà¸Ļà¸Ĺ":850,"à¸ªà¸³à¸«à¸£":851,"is":852,"Ġà¸Ńà¸¢":853,"à¸Ńà¸ĩà¸ª":854,"Âł":855,"à¸¬":856,"Ġ8":857,"à¸Ļà¹Ģà¸¡":858,"à¸ģà¸İ":859,"Ġà¸Ħà¸£":860,"at":861,"à¸Ńà¹Ģà¸Ľ":862,"Ġà¹Ħà¸¡":863,"à¹ģà¸ļ":864,"à¸ĩà¸«à¸¡à¸Ķ":865,"à¹ĥà¸Ļà¸§":866,"à¸ĩà¹ģà¸£à¸ģ":867,"à¹Ĥà¸Ľà¸£":868,"à¸Ħà¸ĵà¸°":869,"à¸¨à¸Ļ":870,"à¸Īà¸³à¸Ļà¸§à¸Ļ":871,"à¸ģà¸²à¸£à¸Ĺ":872,"à¸ĺà¸²à¸Ļ":873,"à¸Ńà¸²à¸Ī":874,"à¸²à¸ł":875,"à¸ĩà¸§":876,"à¸Ńà¸«":877,"à¸ªà¸¡à¸²à¸Ĭ":878,"à¹Ģà¸§à¸ĵ":879,"Ġà¸£à¸§à¸¡":880,"à¸²à¸Ńà¸¢":881,"à¸ŀà¸£à¸°à¹Ģà¸Ī":882,"à¸Ļà¸Ńà¸Ńà¸ģ":883,"à¸¸à¹ī":884,"à¸ģà¸²à¸£à¸ĵ":885,"Ġà¹Ģà¸Ń":886,"à¹Ģà¸Ĺà¸ŀ":887,"à¸ŀà¸²à¸°":888,"à¸ªà¸Ńà¸ĩ":889,"à¸ĩà¸Ľ":890,"à¸Ļà¸²à¸¢":891,"à¹Ĥà¸Ħ":892,"à¸Ļà¸«à¸Ļ":893,"à¸¤à¸Ķ":894,"à¸Ńà¸ģà¸²à¸£":895,"à¸¥à¸Ķ":896,"Ġ18":897,"à¸Ľà¸£à¸°à¸Īà¸³":898,"ĠB":899,"à¸Ľà¸£à¸°à¹Ģà¸Ĺà¸¨à¹Ħà¸Ĺà¸¢":900,"Ġà¹Ģà¸Ļ":901,"à¹Ģà¸īà¸ŀà¸²à¸°":902,"à¸Ńà¹Ģà¸£":903,"à¹Ģà¸Ł":904,"à¸Ńà¸²à¸ĵ":905,"à¸Ļà¸ĸ":906,"à¸²à¸«à¸²à¸£":907,"à¸Ķà¸ģ":908,"Ġà¸ªà¸¡":909,"Ġ-":910,"à¸ģà¸£à¸ĵ":911,"à¸ģà¸³à¸¥":912,"à¸ªà¸ģ":913,"à¸¢à¸²":914,"Ġ10":915,"à¸¡à¸²à¸Īà¸²à¸ģ":916,"à¸Ļà¸ĭ":917,"à¹Ĥà¸Ĺà¸£":918,"Ġà¸Īà¸°":919,"à¸¡à¸«à¸²à¸§":920,"à¹Ģà¸ªà¸£":921,"ĠP":922,"à¸ļà¸Ń":923,"à¸¡à¸Ļà¸ķà¸£":924,"à¸¢à¸²à¸¢":925,"à¹Ĥà¸Ĺ":926,"Ġ9":927,"à¸§à¹Ħà¸Ľ":928,"à¸¥à¸ĩà¸²à¸Ļ":929,"à¹Ģà¸ľ":930,"âĢĿ":931,"à¸ĩà¸Ĭ":932,"à¹ģà¸Ļà¸§":933,"à¸Ħà¸§à¸²à¸¡à¸£":934,"à¸Ļà¸ŀà¸£à¸°":935,"à¸«à¸į":936,"à¸ļà¸ģ":937,"à¹Ħà¸Ĥ":938,"Ġt":939,"à¸Ĥà¸ĵà¸°":940,"le":941,"à¹Ģà¸ģà¸¥":942,"à¸ķà¸ļà¸Ńà¸¥":943,"à¸§à¸¡à¸ģ":944,"Ġà¹Ĥà¸Ķà¸¢à¸¡":945,"à¸Ķà¸£":946,"à¸Ľà¸£à¸°à¸ģà¸²à¸¨":947,"à¸Ļà¸Ľ":948,"à¸²à¸¢à¸Ĺ":949,"à¸©à¸Ĳ":950,"à¸Ķà¸Ń":951,"ro":952,"ĠâĢľ":953,"à¸©à¸¢":954,"it":955,"à¹Ĥà¸¢":956,"à¸²à¸ģà¸ı":957,"à¸Ĳà¸ļà¸²à¸¥":958,"à¸Ĥà¸Ńà¸ĩà¸ª":959,"à¸¡à¸Ń":960,"à¸ļà¸¡":961,"à¸£à¸ĸ":962,"à¸²à¸«à¸¥":963,"à¸²à¹Ħà¸Ķ":964,"à¸Ńà¸ģà¸Īà¸²à¸ģà¸Ļ":965,"à¸ļà¸ķ":966,"à¸Ĺà¸²à¸Ļ":967,"as":968,"à¸ģà¸²à¸£à¸ķ":969,"à¸Ľà¸ģà¸Ħà¸£à¸Ńà¸ĩ":970,"à¸¢à¸ģà¸§":971,"à¸ŀà¸§à¸ģ":972,"à¸Ļà¸Ĥ":973,"à¹ģà¸¥à¸Ļà¸Ķ":974,"Ġà¹ģà¸¥à¸°à¸¡":975,"à¸Ļà¸¥":976,"à¸£à¸ĵ":977,"à¸Ľà¸£à¸²à¸ģà¸ı":978,"à¸²à¸Ħà¸²à¸£":979,"à¸§à¸²à¸ĩ":980,"000":981,"re":982,"à¸¡à¸¡":983,"à¸Ńà¸ĩà¸£":984,"Ġà¹Ħ":985,"à¸ĩà¸ĸ":986,"Ġà¸ģà¸¥":987,"à¹ĭ":988,"à¸ķà¸ª":989,"à¸ĩà¸ļ":990,"à¸Ķà¸²":991,"à¸ĩà¸Ī":992,"à¸²à¸ĩà¸ª":993,"à¸Ļà¸°":994,"à¸Ķà¸¡":995,"Ġ253":996,"à¸Ńà¸Ĥà¸Ńà¸ĩ":997,"Ġà¹ģà¸¡":998,"à¸Ķà¹ĥà¸Ļ":999,"Ġà¹Ģà¸Ħ":1000,"à¸Ļà¸«":1001,"Ġà¸Ł":1002,"à¸ģà¸Ĥà¸Ńà¸ĩ":1003,"à¸ĩà¸¢":1004,"à¸ªà¸³à¹Ģà¸£":1005,"à¸¸à¹Į":1006,"à¸ģà¸²à¸£à¸¨":1007,"à¸¯":1008,"à¹Ģà¸Ħà¸¥":1009,"us":1010,"à¸°à¹Ģà¸¥":1011,"à¸Ķà¸Ĥà¸Ńà¸ĩ":1012,"à¸ķà¸¥":1013,"à¸´.":1014,"à¸ĩà¹Ħà¸¡":1015,"à¸ĩà¸Ķ":1016,"à¹Ĥà¸Ī":1017,"à¸Ńà¸ģà¸ķ":1018,"Ġà¸ĵ":1019,"à¸Ĺà¸³à¸ĩà¸²à¸Ļ":1020,"Ġà¸ĺ":1021,"à¸Ńà¹ĥà¸«":1022,"à¸Ļà¹Ģà¸ŀ":1023,"à¸²à¹Ģà¸£":1024,"am":1025,"à¸²à¸ķà¸£":1026,"à¸Ļà¹Ģà¸£":1027,"ac":1028,"à¸ĩà¹Ģà¸¨":1029,"à¸«à¸²à¸§":1030,"ol":1031,"à¸²à¸¢à¹Ģà¸Ľ":1032,"à¸£à¸Ńà¸ļ":1033,"à¸ģà¸£à¸°à¸Ĺ":1034,"à¸Ńà¸³à¸Ļ":1035,"ĠD":1036,"à¸²à¹ģ":1037,"à¸²à¸ŀà¸£à¸°":1038,"à¸Īà¸²à¸ģà¸ģà¸²à¸£":1039,"à¹Ģà¸Ħà¸¢":1040,"à¸²à¸Ł":1041,"à¸ªà¸²à¸¡":1042,"à¸Ńà¸ĩà¸ģà¸²à¸£":1043,"à¹Ģà¸§à¸¥à¸²":1044,"Ġà¹ģà¸¥à¸°à¹Ħà¸Ķ":1045,"à¸£à¸°à¸ļ":1046,"à¸Ĭà¸¡à¸Ľ":1047,"ĠR":1048,"à¸²à¸Ľà¸£à¸°":1049,"à¸²à¸Ļà¸Ĺ":1050,"à¸Ľà¹ģà¸ļà¸ļ":1051,"à¸Ŀà¸£":1052,"à¸£à¸°à¸¢à¸°":1053,"à¸Ĳà¸¡à¸Ļà¸ķà¸£":1054,"à¸ķà¸ķ":1055,"à¸Ńà¸Ħ":1056,"à¹Ģà¸®":1057,"à¸¢à¸²à¸§":1058,"el":1059,"à¸ķà¸Ńà¸Ļ":1060,"à¹Ģà¸¨à¸©":1061,"à¸Ħà¸§à¸²à¸¡à¸ª":1062,"Ġ15":1063,"à¸ļà¸§":1064,"à¹Ĥà¸£à¸Ħ":1065,"à¹ģà¸Ħ":1066,"Ġà¹ĥà¸«":1067,"à¸§à¸£à¸£à¸©":1068,"à¸Ńà¸²à¸£":1069,"à¸Ńà¹Ħà¸Ľ":1070,"à¸²à¹ģà¸¥à¸°":1071,"à¹ĥà¸Ļà¸Ĺ":1072,"à¸ľà¸¥à¸ĩà¸²à¸Ļ":1073,"à¹Ħà¸ĭ":1074,"à¸ģà¸¡":1075,"à¹Ģà¸¡à¸ķà¸£":1076,"à¸²à¸ĩà¹Ĩ":1077,"à¸Ļà¸²à¸ĩ":1078,"ĠG":1079,"Ġ12":1080,"à¸ŀà¸£à¸£à¸Ħ":1081,"à¹ģà¸Ľà¸¥à¸ĩ":1082,"à¸ĩà¹Ģà¸¨à¸ª":1083,"à¹Ħà¸¥":1084,"à¸Łà¸£":1085,"à¸²à¸ľ":1086,"à¸ªà¸«à¸£":1087,"Ġà¹Ģà¸ª":1088,"ĠL":1089,"Ġà¸Ľà¸£à¸°":1090,"Ġo":1091,"à¸Ķà¸³à¹Ģà¸Ļ":1092,"à¸¢à¸Ĭ":1093,"à¸²à¸ģà¸¥":1094,"Ġà¸®":1095,"à¸ĩà¸Ĭà¸²à¸ķ":1096,"à¸Ńà¸ĩà¸Ļ":1097,"à¸ģà¸Ļ":1098,"à¸Īà¸°à¹Ģà¸Ľ":1099,"à¸ģà¸Ĥ":1100,"à¸Ļà¹Ħà¸¡":1101,"à¸Ńà¸²à¸ĵà¸²à¸Ī":1102,"Ġà¸ļà¸£":1103,"Ġà¹Ģà¸Ĺ":1104,"à¸§à¸¥":1105,"à¸²à¸¨à¸²à¸ª":1106,"Ġà¹ģà¸¥":1107,"à¸ģà¸Ħ":1108,"à¸²à¸ĩà¸Ĺ":1109,"à¸²à¸©":1110,"Ġà¹ģà¸¥à¸°à¹Ģà¸Ľ":1111,"Ġà¸Ľà¸£à¸°à¹Ģà¸Ĺà¸¨":1112,"ĠW":1113,"à¹Ģà¸ģà¸¡":1114,"à¸ģà¸²à¸£à¹Ģà¸¡":1115,"à¸łà¸²à¸¢à¹ĥà¸Ļ":1116,"à¸ģà¹Ģà¸£":1117,"Ġà¹ģà¸«":1118,"à¸²à¸¨à¸²à¸ªà¸ķà¸£":1119,"à¸³à¸«à¸£":1120,"à¸¢à¸Ńà¸Ķ":1121,"à¸¡à¸²à¸¢":1122,"ĠF":1123,"à¹Ĥà¸Ĺà¸£à¸Ĺ":1124,"à¹ĥà¸ģà¸¥":1125,"à¸²à¹Ħà¸Ľ":1126,"à¹Ģà¸¥à¸Ĥ":1127,"à¸ģà¸²à¸£à¸Ī":1128,"à¸Ķà¸²à¸§":1129,"à¹Į\"":1130,"à¸Ľà¸£à¸°à¸Ĭà¸²à¸Ĭ":1131,"Ġ16":1132,"Ġà¸Ħà¸§à¸²à¸¡":1133,"ĠH":1134,"Ġà¸¨":1135,"om":1136,"à¸Ľà¸¥à¸²à¸¢":1137,"à¸¡à¸Ĥ":1138,"ĠI":1139,"il":1140,"à¸Ńà¸ŀ":1141,"à¸¢à¸ª":1142,"à¹Ĥà¸¡à¸ªà¸£":1143,"Ġà¹Ģà¸ŀà¸£à¸²à¸°":1144,"à¸Ļà¹Ģà¸Ĺ":1145,"à¸²à¸£à¸¢":1146,"à¸ģà¸£à¸£à¸¡à¸ģà¸²à¸£":1147,"Ġà¸Ļà¸Ńà¸ģà¸Īà¸²à¸ģà¸Ļ":1148,"à¹ĥà¸Ļà¸£":1149,"à¸Ńà¸Ĥ":1150,"à¹Ģà¸ģà¸²à¸°":1151,"à¸ªà¸¡à¸ļ":1152,"à¸Ńà¸³à¹Ģà¸ł":1153,"à¸²à¸į":1154,"à¸Ļà¸²à¸Ļ":1155,"à¸Ńà¸Ļà¸ģ":1156,"à¸§à¸Ļà¹ĥà¸«à¸į":1157,"à¹Ģà¸ķà¸£":1158,"à¹Ģà¸¢à¸Ńà¸£":1159,"à¸§à¸ª":1160,"à¸§à¸¢à¸ģà¸²à¸£":1161,"à¸Ļà¹Ĥ":1162,"à¸ĩà¸«à¸Ļ":1163,"âĢĵ":1164,"à¸ļà¸£à¸¡":1165,"à¸ĩà¸ŀ":1166,"à¸ŀà¸£à¸£à¸Ķ":1167,"à¸ļà¸ªà¸Ļ":1168,"Ġof":1169,"à¸ģà¸£à¸ŀà¸£à¸£à¸Ķ":1170,"à¸ķà¸ĸ":1171,"ing":1172,"à¸Ńà¹Ģà¸ª":1173,"à¹ĥà¸ļ":1174,"Ġà¸ķà¸²à¸¡":1175,"Ġ11":1176,"à¸¥à¸²":1177,"à¸ĩà¸ĩà¸²à¸Ļ":1178,"ul":1179,"à¸Ńà¸Ļà¸Ķ":1180,"à¸ģà¸©à¸ĵ":1181,"à¸Ķà¸¥":1182,"à¸Ĳà¸²à¸Ļà¸°":1183,"à¹Į.":1184,"à¸¢à¸²à¸¡":1185,"à¸ĩà¹ģà¸¥à¸°":1186,"à¹Ģà¸łà¸Ĺ":1187,"à¸Ńà¸Ĭ":1188,"à¸¥à¸¢":1189,"à¸ģà¸²à¸£à¹ģà¸Ĥ":1190,"à¸ĩà¹ĥà¸«":1191,"à¸ģà¸ļ":1192,"Ġà¹Ģà¸§":1193,"à¸ģà¸£à¸¡":1194,"à¸įà¸«":1195,"à¸ĩà¹Ģà¸£":1196,"à¸²à¹ĥà¸Ļ":1197,"à¸Ķà¸Ļà¸ķà¸£":1198,"Ġs":1199,"Ġà¹Ģà¸«":1200,"à¸²à¸£à¸°":1201,"à¸ģà¸²à¸£à¸Ħ":1202,"à¸ªà¹Ģà¸ĭ":1203,"à¸ªà¸ĩà¸Ħà¸£à¸²à¸¡":1204,"ur":1205,"à¹Ģà¸§à¸Ńà¸£":1206,"à¸Ńà¸ĩà¸¡":1207,"à¹Ģà¸¨à¸£":1208,"Ġà¹Ģà¸¥":1209,"à¸Ħà¸Ħà¸¥":1210,"et":1211,"Ġà¸Ļà¸²à¸¢":1212,"à¸Ńà¸ĩà¸ķ":1213,"à¹Ħà¸Łà¸Ł":1214,"à¸Ķà¸§":1215,"à¸Ĳà¸Ńà¹Ģà¸¡à¸£":1216,"à¸Ńà¸²à¸¢":1217,"à¸ĩà¹Ģà¸Ķ":1218,"Ġ17":1219,"à¸Ĺà¸«à¸²à¸£":1220,"à¸«à¸¢":1221,"à¸Ļà¸¨":1222,"à¹ģà¸¢à¸ģ":1223,"Ġà¸«à¸Ļ":1224,"à¸Ļà¹Ģà¸Ī":1225,"à¸ģà¸Ńà¸ĩà¸Ĺ":1226,"Ġà¹":1227,"à¸Īà¸²à¸£à¸ĵ":1228,"ĠE":1229,"à¸Ķà¸Ħ":1230,"Ġà¸ŀà¸£à¸°à¸Ńà¸ĩà¸Ħ":1231,"à¹ģà¸£à¸ĩ":1232,"25":1233,"à¸¢à¸²à¸Ļ":1234,"Ġ14":1235,"un":1236,"à¸Ńà¸Ļà¸ķ":1237,"Ġc":1238,"Ġà¸Ńà¸Ńà¸ģ":1239,"ed":1240,"à¹Ģà¸¥à¸¢":1241,"Ġà¹Ģà¸ĭ":1242,"id":1243,"à¸ªà¸²à¸¢":1244,"à¸¨à¸Ī":1245,"à¸ģà¸ĩà¸²à¸Ļ":1246,"Ġ256":1247,"à¸¥à¸²à¸Ħà¸¡":1248,"à¸Ļà¸ķà¸ģ":1249,"à¸Ļà¸²à¸Ħà¸¡":1250,"à¸Ĭà¸²":1251,"à¸²à¸ĩà¹Ģà¸Ľ":1252,"19":1253,"à¸Ļà¹Ĩ":1254,"à¸Ľà¸£à¸°à¸ĺà¸²à¸Ļ":1255,"à¸Ļà¸«à¸¥":1256,"à¸°à¹ģ":1257,"à¸Ľà¸£à¸°à¸ģà¸Ńà¸ļà¸Ķ":1258,"à¸ĩà¹Ģà¸Ĺà¸ŀ":1259,"à¸łà¸²à¸Ħà¸¡":1260,"à¸Ńà¸ªà¸£":1261,"à¸ªà¸¥":1262,"à¸ªà¸°":1263,"and":1264,"à¸§à¸Ĺ":1265,"à¸ģà¸³à¸«à¸Ļ":1266,"à¸§à¸«à¸Ļ":1267,"Ġ13":1268,"à¸£à¸²à¸¢à¸ģà¸²à¸£":1269,"à¹Į,":1270,"Ġ23":1271,"à¸Ĺà¸£à¸§à¸ĩ":1272,"à¸²à¸ĩà¸Ĥ":1273,"à¸Ħà¸§à¸ļà¸Ħ":1274,"à¸Ļà¸§à¸²à¸Ħà¸¡":1275,"à¸§à¸Ńà¸¢":1276,"20":1277,"à¹Į)":1278,"à¸²à¸ĩà¹Ħ":1279,"à¸¤à¸©à¸łà¸²à¸Ħà¸¡":1280,"à¸Īà¸°à¸ķ":1281,"à¸ģà¸£à¸²à¸Ħà¸¡":1282,"à¸ģà¸Ń":1283,"à¸£à¸§à¸Ī":1284,"à¸¡à¸£":1285,"à¹ĥà¸Ķ":1286,"ĠN":1287,"ter":1288,"à¸ĩà¸¥":1289,"à¹ģà¸ŀà¸Ĺà¸¢":1290,"à¸Ĭà¸¡":1291,"Ġ,":1292,"à¸§à¸²à¸¡":1293,"à¸Ļà¸Īà¸²à¸ģ":1294,"à¸¡à¸°":1295,"à¸Ļà¸¢à¸²à¸¢à¸Ļ":1296,"à¸©à¸²à¸¢à¸Ļ":1297,"à¹Ħà¸Ľà¸¢":1298,"à¹ĥà¸ª":1299,"à¹Ĥà¸£à¸Ľ":1300,"à¸īà¸ļ":1301,"à¸Ķà¸Ĭ":1302,"à¸Ħà¸£à¸Ńà¸ĩ":1303,"à¸¢à¸Ļà¸ķ":1304,"à¸Ļà¸²à¸¢à¸Ļ":1305,"Ġ199":1306,"à¸Ńà¸²à¸«à¸²à¸£":1307,"à¸²à¸¢à¸ģ":1308,"à¸ļà¸ľ":1309,"à¸ļà¸²à¸Ĺà¸ªà¸¡à¹Ģà¸Ķ":1310,"à¸Ńà¸ĩà¸ĸ":1311,"à¸Ĺà¸¢à¸²à¸¨à¸²à¸ªà¸ķà¸£":1312,"Ġà¸Ńà¸³à¹Ģà¸ł":1313,"à¸Ńà¸³à¸Ļà¸²à¸Ī":1314,"à¹ģà¸¥à¸°à¸ª":1315,"à¸ĩà¸«à¸²à¸Ħà¸¡":1316,"Ġà¹Ģà¸ĺ":1317,"à¸£à¸²à¸Ĭà¸§à¸ĩà¸¨":1318,"à¸ĩà¸Ħà¸¡":1319,"à¸ķà¸²à¸¥":1320,"à¸Ķà¹Ģà¸Ľ":1321,"à¸¢à¸Ĺ":1322,"à¸ģà¸²à¸¢à¸Ļ":1323,"à¸³à¸«à¸Ļ":1324,"à¹Ģà¸ŀà¸£à¸²à¸°":1325,"à¹Ģà¸ĭà¸Ńà¸£":1326,"à¸²à¸©à¸İ":1327,"à¸ģà¸İà¸²à¸Ħà¸¡":1328,"à¹ģà¸ŀà¸£":1329,"Ġà¸ŀà¸£":1330,"à¸ĩà¸ªà¸Ńà¸ĩ":1331,"à¸²à¹Ģà¸¡":1332,"à¸³à¸ģ":1333,"à¸ļà¸Ľà¸£":1334,"à¹ģà¸Ķà¸ĩ":1335,"à¸Ńà¸ĩà¸ļ":1336,"à¸ģà¸¥à¸²à¸¢à¹Ģà¸Ľ":1337,"à¸ģà¸²à¸£à¸£":1338,"à¸ģà¸Ī":1339,"à¸¤à¸¨à¸Ī":1340,"à¸²à¸ĺà¸²à¸£à¸ĵ":1341,"à¸²à¹Ģà¸Ī":1342,"à¸Ĭà¸²à¸ģà¸²à¸£":1343,"à¸Ļà¸ķà¸£":1344,"à¸£à¸ª":1345,"Ġà¸Ĺà¸²à¸ĩ":1346,"à¸Ħà¸£à¸Ńà¸ļ":1347,"à¹ĥà¸Ļà¸Ń":1348,"à¸Ńà¸¡à¸ģ":1349,"Ġà¸Ĺà¸£à¸ĩ":1350,"Ġf":1351,"à¸²à¸§à¸°":1352,"à¹Ģà¸ģà¸©":1353,"à¸§à¸£à¸£à¸©à¸Ĺ":1354,"à¸¥à¸Ĺ":1355,"à¸ªà¸Ķ":1356,"à¸²à¸«à¸Ļ":1357,"à¸¡à¸²à¸ģà¸ģà¸§":1358,"à¸Ļà¹Ģà¸ª":1359,"à¸¢à¸Ńà¸¡":1360,"à¸ģà¸ŀ":1361,"à¸Ļà¸Ł":1362,"à¸Ļà¹Ħ":1363,"à¸¨à¸²à¸ªà¸Ļ":1364,"à¹Ģà¸ģà¸£":1365,"à¸Ĭà¸£":1366,"à¸²à¸©à¸İà¸£":1367,"à¸ªà¸³à¸Ļ":1368,"ation":1369,"à¸ģà¸©à¸£":1370,"à¸ļà¸§à¸Ļ":1371,"à¸ķà¸³à¸ļà¸¥":1372,"à¸ģà¸²à¸£à¸ļ":1373,"à¸Īà¸³à¸«à¸Ļ":1374,"à¸Ĥà¸Ńà¸ĩà¸Ń":1375,"à¹ģà¸ķà¸ģà¸ķ":1376,"à¸ģà¸Ĭ":1377,"à¹Ģà¸¨à¸£à¸©à¸Ĳ":1378,"ch":1379,"à¸Ļà¸¡à¸²":1380,"à¸«à¸²à¸¢":1381,"à¸«à¸¡à¸²à¸¢à¸ĸ":1382,"à¸ĩà¸ľ":1383,"à¹Ģà¸Ńà¹Ģà¸Ĭ":1384,"à¹Ĥà¸Ńà¸£":1385,"à¸Ļà¸ĺà¸£à¸£à¸¡":1386,"à¸łà¸²à¸¢à¹ĥà¸ķ":1387,"à¸¥à¸ª":1388,"à¸Ńà¸²à¸¨":1389,"à¸¥à¸³à¸Ķ":1390,"à¹Ģà¸Īà¸£":1391,"à¸Ļà¹ĥà¸«":1392,"à¸Ļà¹ĥà¸Ī":1393,"à¸ĩà¹Ģà¸¡":1394,"os":1395,"à¸łà¸²à¸¢à¸«à¸¥":1396,"à¸ĸà¸²à¸Ļ":1397,"à¸ļà¸Ĭ":1398,"à¸§à¸¢à¸ģ":1399,"),":1400,"à¸Ńà¸Ī":1401,"ad":1402,"à¸Ļà¹Ĥà¸Ķ":1403,"à¸ģà¸£à¸°à¸Ī":1404,"à¸²à¸ĩà¸Ľà¸£à¸°à¹Ģà¸Ĺà¸¨":1405,"à¸Ľà¸£à¸°à¹Ģà¸łà¸Ĺ":1406,"à¸¡à¸łà¸²à¸ŀ":1407,"à¸Ķà¸Ķ":1408,"à¸Ńà¸Ł":1409,"Ġà¸¡à¸«à¸²à¸§":1410,"à¸£à¸£à¸Ħ":1411,"Ġà¸ķà¸³":1412,"à¸¨à¸ķ":1413,"à¸²à¸Ļà¸Ħà¸£":1414,"Ġ252":1415,"à¹Ĥà¸Ĭ":1416,"à¸²à¸ĩà¹Ħà¸£à¸ģ":1417,"à¸Ńà¸ĩà¸Ĥà¸Ńà¸ĩ":1418,"à¸Ļà¹Ĥà¸Ķà¸¢":1419,"à¸²à¸ĩà¸Ń":1420,"à¸Ļà¸Īà¸°":1421,"Ġà¸«à¸¡":1422,"à¹Ĥà¸Ńà¸ģ":1423,"à¸§à¸Ļà¸Ĺ":1424,"à¸°à¹ģà¸Ļà¸Ļ":1425,"à¸²à¹Ģà¸¥":1426,"à¸²à¸°à¸«":1427,"à¸¢à¸ķ":1428,"âĢĭ":1429,"à¸¡à¸Ĭ":1430,"à¸Ńà¸ľ":1431,"à¹ģà¸Ĺà¸Ļ":1432,"à¸Ķà¹Ģà¸¡":1433,"ent":1434,"..":1435,"à¸ĩà¸Īà¸°":1436,"à¸²à¸ªà¸¡":1437,"à¸łà¸²à¸©à¸²":1438,"à¸Ħà¸Ńà¸¡":1439,"à¸ĩà¸Īà¸²à¸ģà¸Ļ":1440,"à¸Ķà¹ĥà¸«":1441,"à¸²à¸Īà¸²à¸£à¸¢":1442,"à¸²à¸¢à¸²à¸¡":1443,"à¹ģà¸Ī":1444,"Ġà¸ŀà¸¤à¸©à¸łà¸²à¸Ħà¸¡":1445,"à¸Ńà¸Ńà¸ģà¸Īà¸²à¸ģ":1446,"à¸²à¸ļà¸²à¸¥":1447,"à¸ĩà¸ĭ":1448,"Ġ251":1449,"à¹Ĥà¸Ħà¸£à¸ĩà¸ģà¸²à¸£":1450,"Ġthe":1451,"à¹Ģà¸§à¸Ĺ":1452,"à¹Ģà¸ªà¸Ķ":1453,"à¹ģà¸Ł":1454,"à¹Ĥà¸ļà¸£":1455,"Ġà¹ĥà¸Ļà¸Ĭ":1456,"à¸ģà¹ĥà¸Ļ":1457,"à¸£à¸°à¸ģ":1458,"à¸Ńà¸Ħà¸§à¸²à¸¡":1459,"Ġp":1460,"à¹Ĥà¸Ľ":1461,"à¸¢à¸Ļà¹ģà¸Ľà¸¥à¸ĩ":1462,"à¸²à¸Ĭà¸²à¸¢":1463,"Ġà¸¡à¸ģà¸£à¸²à¸Ħà¸¡":1464,"à¸£à¸°à¹Ģà¸ļ":1465,"à¸ªà¸Ļà¸²à¸¡":1466,"à¹Ĥà¸£à¸¡":1467,"à¹Ģà¸Ľà¸Ńà¸£":1468,"à¹Ĥà¸¥à¹Ģà¸¡à¸ķà¸£":1469,"à¸ĺà¸¢à¸¡":1470,"Ġà¹Ģà¸¡à¸©à¸²à¸¢à¸Ļ":1471,"à¸Ńà¸ĸ":1472,"à¹Ģà¸Ħà¸£à¸²à¸°à¸«":1473,"à¹ģà¸ĭ":1474,"à¸ģà¹Ģà¸Ľ":1475,"Ġà¹ģà¸¥à¸°à¸¢":1476,"à¸Ĥà¸ĵà¸°à¸Ĺ":1477,"à¸²à¸¢à¸Ĥà¸Ńà¸ĩ":1478,"à¸²à¸ĩà¸ķ":1479,"à¹ģà¸¥à¸°à¸¡":1480,"à¸ŀà¸¢à¸²à¸¢à¸²à¸¡":1481,"à¸ĩà¸¨":1482,"Ġà¹ĥà¸Ĭ":1483,"à¸Ĭà¸Ļà¸¡":1484,"Ġà¸Īà¸Ļ":1485,"à¸Ĵà¸Ļà¸²":1486,"à¸¡à¸Ĥà¸Ńà¸ĩ":1487,"ig":1488,"à¹Ħà¸Ĺ":1489,"Ġà¸Īà¸²à¸ģà¸Ļ":1490,"à¸ģà¸£à¸°à¸Ĺà¸£à¸§à¸ĩ":1491,"à¸ļà¸ŀ":1492,"Ġà¸ģà¸£à¸ģà¸İà¸²à¸Ħà¸¡":1493,"à¸¢à¸Ķ":1494,"à¸¥à¸Ńà¸Ķ":1495,"à¸º":1496,"à¸Ļà¸Ńà¸ģ":1497,"à¸ģà¸²à¸£à¹Ģà¸¥":1498,"à¸§à¸ķ":1499,"à¸²à¸ĩà¸£":1500,"ĠK":1501,"à¹Ĥà¸Ńà¸£à¸ª":1502,"à¹ģà¸«à¸¥":1503,"à¸²à¸«à¸į":1504,"à¸Ķà¸³à¸£à¸ĩ":1505,"à¸ĩà¸ªà¸£":1506,"à¸Ńà¸ĩà¸Ń":1507,"à¸Ħà¹Ĥà¸Ļ":1508,"à¸²à¸ĩà¸¡à¸²à¸ģ":1509,"à¸ĩà¸Ħà¸§à¸²à¸¡":1510,"à¸ģà¸Ľ":1511,"à¸Ĺà¸³à¸ģà¸²à¸£":1512,"à¸¤à¸ķ":1513,"à¸³à¸Ĺ":1514,"à¹Ĥà¸¥à¸¢":1515,"Ġ30":1516,"Ġà¹Ĥà¸£à¸ĩ":1517,"à¸°à¸ģ":1518,"à¸łà¸²à¸©à¸²à¸Ń":1519,"à¸°à¸Ĺ":1520,"à¸²à¸ģà¸©":1521,"à¸Ľà¸£à¸°à¹Ĥà¸¢":1522,"à¸ģà¹ģà¸ªà¸Ķà¸ĩ":1523,"à¸Ľà¸£à¸°à¸ķ":1524,"à¸Ńà¸Ļà¸¡":1525,"à¹ģà¸ªà¸Ķ":1526,"à¸²à¸Ħà¸§à¸²à¸¡":1527,"à¸ģà¸²à¸£à¸Ľà¸ģà¸Ħà¸£à¸Ńà¸ĩ":1528,"ĠO":1529,"à¸ģà¸²à¸¢":1530,"à¸ģà¸£à¸°à¸Ķ":1531,"à¸Ļà¸ģà¸¥":1532,"à¸¢à¸£à¸ķ":1533,"à¸¡à¸ģ":1534,"à¸Ħà¹Ĥà¸Ļà¹Ĥà¸¥à¸¢":1535,"à¹Ĥà¸ŀ":1536,"Ġà¸ŀà¸¤à¸¨à¸Ī":1537,"à¸§à¸Ĥà¸Ńà¸ĩ":1538,"à¸§à¹Ģà¸Ńà¸ĩ":1539,"à¸Ļà¸Ĳà¸²à¸Ļ":1540,"à¸Ķà¸Ľ":1541,"à¸³à¸¡":1542,"Ġ21":1543,"à¸īà¸²à¸¢":1544,"à¸Ļà¹Ģà¸ģ":1545,"à¹ĥà¸Ļà¹Ģà¸Ķ":1546,"à¸Ńà¹Ħà¸Ķ":1547,"à¸Ľà¸£à¸°à¸Ĭà¸²à¸ģà¸£":1548,"um":1549,"à¸ģà¸Ńà¸¢":1550,"à¸¡à¸²à¹Ģà¸Ľ":1551,"Ġd":1552,"à¸ģà¸²à¸£à¹ĥà¸Ĭ":1553,"ir":1554,"Ġà¸ªà¸³à¸«à¸£":1555,"à¸Ĵà¸Ļà¸ĺà¸£à¸£à¸¡":1556,"ag":1557,"à¸ŀà¸£à¸°à¸ŀ":1558,"à¸ķà¸£à¸§à¸Ī":1559,"à¹Ģà¸Ńà¸ª":1560,"à¹Ģà¸īà¸¥":1561,"à¸Ķà¹Ģà¸Ķ":1562,"ot":1563,"à¸Ĺà¸¢à¸²":1564,"à¸§à¸£à¸£à¸ĵ":1565,"à¸³à¸¥":1566,"Ġm":1567,"à¸¨à¸ķà¸§à¸£à¸£à¸©à¸Ĺ":1568,"à¹ģà¸¡à¸Ļ":1569,"à¸ģà¸İà¸«à¸¡à¸²à¸¢":1570,"à¸Ķà¹Ģà¸¥":1571,"à¸ļà¸Ľ":1572,"à¸Ńà¹Ģà¸¥":1573,"Ġà¸Ĥà¸ĵà¸°":1574,"à¸§à¸£à¸£à¸Ħ":1575,"à¸ķà¸Ĺ":1576,"à¸Ļà¹Ģà¸Ĥ":1577,"à¹ģà¸ĸ":1578,"à¸¢à¸Ļà¸Ĺ":1579,"à¸Ĥà¸Ļà¸²à¸Ķà¹ĥà¸«à¸į":1580,"Ġà¹Ģà¸ļ":1581,"à¸§à¸¥à¸°à¸Ħà¸£":1582,"à¸ŀà¸Ĺ":1583,"à¸Ĥà¸²à¸¢":1584,"à¸²à¸ĩà¸Ļ":1585,"à¹Ĥà¸Ńà¸ģà¸²à¸ª":1586,"à¸įà¸²à¸ķ":1587,"à¸²à¹Ħà¸¡":1588,"Ġà¹Ģà¸¡à¸ķà¸£":1589,"à¹ģà¸Ń":1590,"Ġà¹ģà¸¥à¸°à¸ª":1591,"à¸ģà¸²à¸£à¸ŀ":1592,"à¸Ĥà¸Ńà¸ĩà¸£":1593,"à¸ĩà¸Ńà¸Ńà¸ģ":1594,"à¸Ńà¹Ģà¸Ķ":1595,"Ġà¸£à¸§à¸¡à¸Ĺ":1596,"à¸ģà¹ģà¸¥à¸°":1597,"à¸Ńà¸ĩà¸Ķ":1598,"à¹ģà¸¢":1599,"à¸Īà¸°à¹Ħà¸Ķ":1600,"à¸Ńà¸¥à¸¥":1601,"à¸Ĥà¸²à¸§":1602,"Ġà¹ģà¸¥à¸°à¸ķ":1603,"ve":1604,"à¹Ģà¸ģà¸²à¸«à¸¥":1605,"Ġà¸Ńà¸Ķ":1606,"à¸ŀà¸£à¸°à¸£à¸²à¸Ĭà¸Ĺà¸²à¸Ļ":1607,"à¸¢à¸Ńà¸¢":1608,"à¸Ĥà¸Ńà¸ĩà¸Ĺ":1609,"à¸Ńà¸²à¸Ĭ":1610,"à¹Ĥà¸ļà¸£à¸²à¸ĵ":1611,"à¸²à¸¢à¸ģà¸²à¸£":1612,"à¸¢à¸¨":1613,"à¸²à¸ĩà¸Ħ":1614,"à¸²à¸§à¸§":1615,"à¸ªà¸§":1616,"à¸Ńà¸ĺ":1617,"à¸ļà¹Ģà¸Ľ":1618,"à¹Ģà¸ªà¸Ļà¸Ń":1619,"à¸¢à¸Ļà¸Ĭ":1620,"à¸ļà¹Ģà¸¥":1621,"à¹ĥà¸Ļà¸Ľà¸£à¸°à¹Ģà¸Ĺà¸¨":1622,"od":1623,"à¸Ļà¸¡à¸²à¸ģ":1624,"à¸Ħà¸³à¸§":1625,"à¸§à¸Ļà¸«à¸Ļ":1626,"à¸Ńà¸Ńà¸ģà¹ģà¸ļà¸ļ":1627,"à¸ļà¸Ńà¸ģ":1628,"à¸Ħà¸§à¸£":1629,"à¹Ħà¸Ľà¸Ķ":1630,"à¸įà¸įà¸²à¸ĵ":1631,"à¸¢à¸§à¸Ĥ":1632,"à¸ļà¸«à¸Ļ":1633,"à¸¡à¸²à¸ģà¸Ĺ":1634,"à¹Ģà¸ĭà¸¥à¸¥":1635,"Ġà¹ĥà¸Ļà¸§":1636,"Ġ198":1637,"à¸³à¹Ģà¸Ļ":1638,"à¸²à¸ĩà¸Īà¸²à¸ģ":1639,"à¸Īà¸Ļà¸ĸ":1640,"Ġà¸ľà¸¥":1641,"à¸¨à¸§":1642,"à¸Ļà¸Ħà¸Ļ":1643,"à¸Ĥà¸¢à¸²à¸¢":1644,"à¸Ļà¹ģà¸ļà¸ļ":1645,"à¸²à¸Ĺà¸³":1646,"à¸ļà¸ĸ":1647,"à¸ĩà¸Īà¸²à¸ģà¸Ĺ":1648,"à¸ŀà¸£à¸°à¸ļà¸²à¸Ĺà¸ªà¸¡à¹Ģà¸Ķ":1649,"à¸Īà¸Ńà¸¡":1650,"à¸Ļà¹Ģà¸Ļ":1651,"Ġà¸ł":1652,"Ġà¸ªà¸²à¸¡à¸²à¸£à¸ĸ":1653,"à¸Łà¸Ńà¸£":1654,"à¸ŀà¸¢à¸²à¸ļà¸²à¸¥":1655,"à¸ģà¸¢":1656,"à¸ªà¸ł":1657,"em":1658,"à¸ļà¸£à¸²à¸ĩà¸§":1659,"à¹Ģà¸¨à¸£à¸©à¸Ĳà¸ģ":1660,"à¸Ńà¹Ģà¸Ļ":1661,"à¸Ľà¸£à¸°à¹Ĥà¸¢à¸Ĭà¸Ļ":1662,"à¸ļà¸²à¸¢":1663,"à¸ªà¸ĸà¸²à¸Ľ":1664,"à¸¤à¸©à¸İ":1665,"à¸ĩà¸²à¸¡":1666,"à¹Ģà¸Ńà¸¥":1667,"à¹Ģà¸ģà¸©à¸ķà¸£":1668,"Ġà¹Ħà¸Ľ":1669,"à¸¢à¸į":1670,"Ġà¸ģà¸£à¸°":1671,"à¸ļà¸Ĥ":1672,"à¹Ģà¸ŀà¸¥":1673,"à¸§à¹Ĥà¸¥à¸ģ":1674,"Ġ250":1675,"à¸Ļà¹Ģà¸Ĭ":1676,"à¸ĺà¸£à¸£à¸¡à¸Ĭà¸²à¸ķ":1677,"à¸¡à¸Ĭà¸²à¸ķ":1678,"à¸²à¸Ńà¸Ńà¸ģ":1679,"à¸Ħà¸§à¸²à¸¡à¹Ģà¸Ľ":1680,"à¹ģà¸¥à¸°à¸ģà¸²à¸£":1681,"à¸²à¸£à¸²à¸Ĭ":1682,"à¸ģà¹Ģà¸ģ":1683,"à¸Ľà¸Ķ":1684,"à¹Ģà¸ļà¸Ńà¸£":1685,"à¸Ĺà¸²à¸ĩà¸Ĺ":1686,"Ġà¸ķà¸³à¸ļà¸¥":1687,"à¸²à¸Ħà¸£":1688,"à¸Ńà¹Ħà¸¡":1689,"à¹Ģà¸Ĥà¸²à¹Ħà¸Ķ":1690,"à¸Ľà¸£à¸°à¸ªà¸²à¸Ĺ":1691,"à¸Ľà¸£à¸°à¸Ĺ":1692,"op":1693,"à¸ģà¸Īà¸°":1694,"à¸ŀà¸Ń":1695,"à¸Ľà¸Ľ":1696,"Ġà¸Ħà¸ĵà¸°":1697,"à¸²à¸Ļà¸ķ":1698,"à¸Ńà¸ł":1699,"Ġà¸£à¸§à¸¡à¸ĸ":1700,"à¸Ńà¸ĩà¸§":1701,"Ġ22":1702,"ĠJ":1703,"à¸ĩà¹Ģà¸Ĥ":1704,"à¸Ļà¹ģà¸£à¸ĩ":1705,"à¸ģà¸ĸ":1706,"à¸§à¸¢à¹Ģà¸«à¸¥":1707,"à¹ģà¸Ĺà¸Ļà¸£":1708,"à¸¡à¸«à¸²à¸Ļà¸Ħà¸£":1709,"à¹ĥà¸Ļà¸¢":1710,"ia":1711,"à¸ģà¸¨":1712,"à¸Ńà¸Ļà¸ª":1713,"à¸ļà¸Ī":1714,"à¸Ħà¸Ķ":1715,"à¸ļà¸Ĺà¸ļà¸²à¸Ĺ":1716,"à¸¡à¸§":1717,"à¸Ńà¸ªà¹Ģà¸ķà¸£":1718,"à¸³à¸£":1719,"à¹ģà¸Ļ":1720,"à¸Ľà¸£à¸°à¸Ķ":1721,"à¸ĩà¹Ħà¸Ľ":1722,"à¸ľà¸ªà¸¡":1723,"Ġà¹ģà¸¥à¸°à¸Ń":1724,"à¸¥à¹Ģà¸¥":1725,"à¸ªà¸²à¸§":1726,"Ġ249":1727,"à¸²à¸®":1728,"à¸ķà¸¥à¸Ńà¸Ķ":1729,"à¸Ļà¹Ģà¸Ńà¸ĩ":1730,"à¹Ģà¸ŀà¸¨":1731,"à¸ģà¸°":1732,"ay":1733,"à¸§à¸Ń":1734,"à¸§à¸£à¸£à¸Ķ":1735,"à¸ģà¸£à¸§à¸£à¸£à¸Ķ":1736,"à¸²à¸«à¸£":1737,"à¸Ńà¸ļà¸£":1738,"à¸¥à¸Ļ":1739,"à¸łà¸²à¸ľ":1740,"à¸ĩà¸ľà¸¥":1741,"à¸Ħà¸£à¸Ńà¸ļà¸Ħà¸£":1742,"à¸Ļà¸Ħà¸§à¸²à¸¡":1743,"à¸ŀà¸ļà¸ģ":1744,"à¸¨à¸²à¸¥":1745,"à¸¡à¹Ģà¸Ľ":1746,"à¸Ńà¸Īà¸²à¸ģ":1747,"à¸Ńà¸Ńà¸ģà¸Ńà¸²à¸ģà¸²à¸¨":1748,"oc":1749,"ut":1750,"à¸Īà¸ŀà¸£à¸°à¸£à¸²à¸Ĭ":1751,"à¸¡à¸ĵ":1752,"à¸Ķà¸Īà¸²à¸ģ":1753,"à¸²à¸¢à¸ª":1754,"à¸¥à¸Ľà¸°":1755,"ĠV":1756,"à¸Ĥà¸Ńà¸ĩà¸Ī":1757,"à¸įà¸įà¸²":1758,"à¹Ģà¸Ĺà¸Ħà¹Ĥà¸Ļà¹Ĥà¸¥à¸¢":1759,"à¸ļà¸£à¸¡à¸£à¸²à¸Ĭ":1760,"à¸ķà¸Ļà¹Ģà¸Ńà¸ĩ":1761,"Ġb":1762,"à¹Ģà¸«à¸£":1763,"à¸§à¸Ļà¸ķ":1764,"ri":1765,"à¸įà¸¥":1766,"Ġà¹Ģà¸ŀà¸¥à¸ĩ":1767,"à¸²à¸ĩà¸«à¸Ļ":1768,"à¸²à¸ĺà¸²à¸£à¸ĵà¸£":1769,"à¸Ħà¸²à¸£":1770,"à¸Ķà¸²à¸£":1771,"à¸ļà¸ĭ":1772,"à¸¨à¸²à¸ªà¸Ļà¸²":1773,"à¸Ĭà¸Ļà¸°à¹Ģà¸¥":1774,"à¸ĩà¸Ĺà¸³à¹ĥà¸«":1775,"à¸Ĺà¸§":1776,"à¸ĩà¸Ĩ":1777,"à¹Ģà¸ľà¸¢":1778,"à¸Ķà¸ŀ":1779,"à¹Ħà¸®":1780,"à¸Ļà¸Ŀ":1781,"Ġà¸£à¸°à¸«à¸§":1782,"à¸¡à¸²à¸ģà¸Ĥ":1783,"à¸Ķà¸«à¸Ļ":1784,"à¸ĩà¹Ģà¸Ĺà¸ŀà¸¡à¸«à¸²à¸Ļà¸Ħà¸£":1785,"à¸Ĥà¸Ńà¸ĩà¸ģà¸²à¸£":1786,"ap":1787,"à¸Ĥà¸Ńà¸ĩà¸Ļ":1788,"à¸Ľà¸²à¸ģ":1789,"à¹ĥà¸Ļà¸ªà¸¡":1790,"à¸Ķà¹Ģà¸Ĭ":1791,"à¸Ĺà¸³à¸¥à¸²à¸¢":1792,"à¸¥à¸Ńà¸ĩ":1793,"à¸£à¸ĸà¹Ħà¸Ł":1794,"à¸Ķà¸Ī":1795,"à¸²à¸¢à¹Ħà¸Ľ":1796,"à¸Ĥà¸Ńà¸ĩà¸ķ":1797,"Ġà¹Ĥà¸Ķà¸¢à¸Ĺ":1798,"à¸Ĺà¸Ńà¸ĩ":1799,"à¸©à¸ĵ":1800,"à¹ģà¸Ľà¸¥":1801,"à¸ģà¸Ńà¸ĩ":1802,"à¸ĸà¸Ļà¸Ļ":1803,"Ġà¸ŀà¸£à¸°à¹Ģà¸Ī":1804,"Ġà¸ŀà¸¥":1805,"ow":1806,"à¹Ģà¸Ķà¸Ńà¸£":1807,").":1808,"à¸¢à¸Ļà¸ª":1809,"à¹Ħà¸Ń":1810,"à¸ķà¸ªà¸²à¸«":1811,"à¸Ķà¸Ħà¸§à¸²à¸¡":1812,"Ġà¹Ĥà¸Ķà¸¢à¹Ģà¸īà¸ŀà¸²à¸°":1813,"à¸ķà¸²":1814,"à¸¡à¸ł":1815,"à¹ĥà¸Ħà¸£":1816,"à¸Ħà¸°à¹ģà¸Ļà¸Ļ":1817,"à¹ģà¸Ĺà¸Ļà¸£à¸²à¸©à¸İà¸£":1818,"à¹Ģà¸¢à¸Ńà¸£à¸¡":1819,"à¸Ĭà¸¢":1820,"à¹Ĥà¸Ĺà¸©":1821,"à¸Ľà¸ķ":1822,"à¸²à¸¯":1823,"à¹Ģà¸Ķà¸Ńà¸°":1824,"à¸Ľà¸Ķà¸²à¸«":1825,"à¹ĥà¸Ļà¸ķ":1826,"à¸Ħà¸Ńà¸Ļ":1827,"à¸Ķà¸§à¸ĩ":1828,"à¸§à¸²à¸¢":1829,"à¸²à¸Ĺà¸²à¸ĩ":1830,"Ġà¸ŀà¸£à¸°à¸£à¸²à¸Ĭ":1831,"à¸²à¹Ģà¸Ĥ":1832,"10":1833,"à¹Ħà¸«à¸¥":1834,"à¸Ļà¸²à¸Ķ":1835,"à¸ģà¸²à¸¥à¸Ĺ":1836,"à¸Īà¸°à¸ĸ":1837,"Ġà¸Ĭà¸²à¸§":1838,"à¸ĩà¸ģà¸£":1839,"Ġ:":1840,"à¸§à¹Ģà¸¡":1841,"à¸¥à¸¡":1842,"à¸µ.":1843,"à¸¢à¹ģà¸¥à¸°":1844,"à¸³à¸Ħ":1845,"à¸ķà¸ģ":1846,"à¸ªà¸ĸà¸²à¸ļ":1847,"à¸£à¸²à¸ĩà¸§":1848,"à¸Ļà¸Īà¸³à¸Ļà¸§à¸Ļ":1849,"à¸ŀà¸¡":1850,"Ġà¸¡à¸²à¸£":1851,"à¸²à¹Ģà¸ģ":1852,"à¸¥à¸Ń":1853,"à¸Ħà¸Ļà¸Ĺ":1854,"à¸ģà¹Ģà¸Ĥ":1855,"à¸Ńà¸ĩà¹Ģà¸Ĺ":1856,"à¸Ļà¸Ĺà¸²à¸ĩà¸ģà¸²à¸£":1857,"st":1858,"à¸Ńà¸ĩà¸Ī":1859,"à¸¢à¸²à¸ģ":1860,"à¸Ľà¸ģà¸£à¸ĵ":1861,"Ġà¸ªà¸¡à¹Ģà¸Ķ":1862,"à¸ļà¸£à¸²à¸Ĭ":1863,"à¸Ńà¸Ńà¸ģà¹Ħà¸Ľ":1864,"30":1865,"à¸ĭà¸²":1866,"à¹Ĥà¸Īà¸¡à¸ķ":1867,"à¸Ļà¸ªà¸¡à¸²à¸Ĭ":1868,"à¸¡à¸²à¸ķà¸£":1869,"orm":1870,"à¸¥à¸ķ":1871,"à¸§à¸¢à¸Ħà¸§à¸²à¸¡":1872,"à¹Ģà¸¢à¸Ńà¸£à¸¡à¸Ļ":1873,"à¸¥à¸²à¸Ķ":1874,"à¸ŀà¸²à¸Ļ":1875,"ver":1876,"à¹Ģà¸Ĺà¸¨à¸ļà¸²à¸¥":1877,"à¸ģà¸³à¸ģ":1878,"à¸ļà¸Ħà¸§à¸²à¸¡à¸ªà¸³à¹Ģà¸£":1879,"à¹Ĥà¸®":1880,"à¸²à¹ĥà¸Ī":1881,"à¸Ńà¸Ļà¸«à¸Ļ":1882,"à¹Ģà¸ĸ":1883,"à¸£à¸²à¸Ĭà¸ģà¸²à¸£":1884,"à¸Ľà¸£à¸°à¸¡":1885,"Ġà¸ªà¸²à¸Ĥ":1886,"Ġ0":1887,"ĠâĢĵ":1888,"à¸Ľà¸£à¸°à¸ŀ":1889,"à¹Ģà¸ĺà¸Ńà¸£":1890,"à¸Īà¸ŀà¸£à¸°à¹Ģà¸Ī":1891,"à¸Ńà¹Ģà¸Ĥ":1892,"Ġà¸Īà¸³à¸Ļà¸§à¸Ļ":1893,"à¸ģà¸Ĳà¸²à¸Ļ":1894,"Ġ197":1895,"à¸ļà¹Ħà¸Ľ":1896,"à¸ģà¸Ħà¸Ļ":1897,"à¸²à¸ĩà¸Ĥà¸Ńà¸ĩ":1898,"à¸Ńà¸²à¸ģà¸²à¸£":1899,"à¸ķà¸ªà¸²à¸«à¸ģà¸£à¸£à¸¡":1900,"à¸Īà¸ģà¸£à¸£à¸¡":1901,"à¹ĥà¸Ļà¸Ľà¸£à¸°à¹Ģà¸Ĺà¸¨à¹Ħà¸Ĺà¸¢":1902,"à¹ģà¸Ńà¸Ļ":1903,"à¸ķà¸Ĥà¸Ńà¸ĩ":1904,"à¸Ľà¸£à¸°à¸Ĭà¸²à¸ĺ":1905,"à¸Ķà¸Ńà¸¢":1906,"à¹ģà¸£":1907,"à¸Ķà¸³à¸£à¸ĩà¸ķà¸³à¹ģà¸«à¸Ļ":1908,"à¸Ńà¸«à¸Ļ":1909,"Ġà¹Ģà¸Ĥà¸²à¹Ħà¸Ķ":1910,"th":1911,"à¸Ĥà¸ĵà¸°à¸Ļ":1912,"im":1913,"à¸ªà¸Ĺ":1914,"ĠU":1915,"à¹Ĥà¸Ħà¸£à¸ĩà¸ªà¸£":1916,"à¸Ķà¹ģà¸¥à¸°":1917,"à¸§à¸ĩà¸Ĺ":1918,"à¸Ńà¸ĩà¸£à¸²à¸§":1919,"à¸ģà¸²à¸£à¸ģ":1920,"à¸ªà¹Ģà¸ķà¸Ńà¸£":1921,"à¸ªà¸£à¸°":1922,"The":1923,"à¸Ĺà¸²à¸ĩà¸Ķ":1924,"à¸¡à¸²à¸Ļ":1925,"à¹Ģà¸ªà¸Ļ":1926,"à¸²à¹Ģà¸Ķ":1927,"à¸łà¸²à¸§à¸°":1928,"à¸Ĥà¸§":1929,"à¸ļà¸ļà¸Ĺ":1930,"à¸ļà¸Ĥà¸Ńà¸ĩ":1931,"à¸Ķà¸¢":1932,"Ġà¸Ľà¸£":1933,"à¸ĺà¸¢à¸¡à¸¨":1934,"50":1935,"à¸Ľà¸£à¸°à¸ªà¸ĩà¸Ħ":1936,"à¸¢à¸Ĥà¸Ńà¸ĩ":1937,"à¹Į-":1938,"à¸Ľà¹Ħ":1939,"Ġ100":1940,"à¸Ļà¹Ģà¸¥":1941,"à¸ģà¸©à¸²à¸ķ":1942,"à¸Ńà¸ģà¸¥":1943,"à¸ªà¸ĭ":1944,"Ġ248":1945,"à¸Į":1946,"à¸¡à¸ľ":1947,"ce":1948,"à¹ģà¸Ķ":1949,"à¸²à¸Ĭà¸Ńà¸²à¸ĵà¸²à¸Ī":1950,"Ġà¸ªà¸£":1951,"à¸¢à¸Ńà¸¡à¸£":1952,"à¸¢à¸ĩà¹ĥà¸«à¸¡":1953,"à¸¬à¸²":1954,"Ġà¸Ļà¸³":1955,"à¹Ģà¸¢à¸²à¸§":1956,"à¸ķà¸³à¸£à¸§à¸Ī":1957,"à¸Ļà¹Ģà¸ŀà¸¥à¸ĩ":1958,"à¸ĩà¹Ĥà¸Ķà¸¢":1959,"à¸ªà¸ª":1960,"à¸ªà¸¡à¸²à¸Ħà¸¡":1961,"à¸¡à¸ļ":1962,"à¸ķà¸²à¸£":1963,"à¸Ĺà¸°à¹Ģà¸¥":1964,"à¹ģà¸£à¸ģà¸Ĺ":1965,"br":1966,"à¹ģà¸£à¸ģà¸Ĥà¸Ńà¸ĩ":1967,"à¸ĩà¹Ģà¸ŀ":1968,"à¸Ńà¸Ļà¸Ĥ":1969,"à¸ªà¸Ńà¸ļ":1970,"Ġ194":1971,"à¸Ļà¹ĥà¸Ļà¸Ľ":1972,"à¹ĥà¸Ļà¸ŀ":1973,"à¹ĥà¸Ļà¸£à¸°à¸Ķ":1974,"à¸£à¸£à¸¡à¸Ļ":1975,"à¸²à¸Ĭà¸Ļà¸°":1976,"Ġà¹ģà¸¥à¸°à¸Ļ":1977,"Ġà¹ģà¸¥à¸°à¸ģà¸²à¸£":1978,"à¸Īà¸°à¹Ħà¸¡":1979,"à¸ĺà¸²à¸ķ":1980,"Ġà¹Ģà¸Ħà¸£":1981,"à¸įà¸Ĭ":1982,"à¸Ļà¸ĩà¸²à¸Ļ":1983,"à¸Ľà¸£à¸°à¸ªà¸ļà¸Ħà¸§à¸²à¸¡à¸ªà¸³à¹Ģà¸£":1984,"à¹ģà¸Ĭà¸¡à¸Ľ":1985,"à¸²à¸§à¸Ļ":1986,"à¸Ļà¸³à¹Ħà¸Ľ":1987,"à¸ĩà¸ªà¸²à¸¡à¸²à¸£à¸ĸ":1988,"Ġà¸ŀà¸§à¸ģ":1989,"à¸Ĭà¸²à¸£":1990,"à¸²à¸Ļà¸ģà¸²à¸£":1991,"à¸²à¸ĩà¸¢":1992,"à¸Ħà¸³à¸ª":1993,"Ġà¸Īà¸³à¸ģ":1994,"à¹Ģà¸«à¸¡à¸²à¸°":1995,"à¸ĩà¹ĥà¸Ĭ":1996,"Ġ26":1997,"à¸Ļà¹Ģà¸ķ":1998,"à¸ĩà¸Ħà¸¥":1999,"à¸Ļà¸ľà¸¥":2000,"à¸ĩà¹ģà¸¡":2001,"à¸ªà¹Ĥà¸¡à¸ªà¸£":2002,"à¸Ļà¸Ńà¸Ļ":2003,"à¸Ħà¸§à¸²à¸¡à¸ªà¸²à¸¡à¸²à¸£à¸ĸ":2004,"à¸ķà¸°":2005,"Ġà¸Īà¸Ļà¸ģà¸£à¸°à¸Ĺ":2006,"à¸¡à¸²à¸ķ":2007,"à¸Ńà¸Ńà¸ģà¸¡à¸²":2008,"à¸¢à¸Ķà¸Ļ":2009,"à¸²à¹ģà¸Ĥ":2010,"à¸ģà¹Ģà¸ª":2011,"Ġà¹Ĥà¸£à¸ĩà¹Ģà¸£":2012,"à¸¡à¸Ĭà¸Ļ":2013,"à¸Ľà¸ģà¸ķ":2014,"Ġà¹Ĥà¸£":2015,"à¸Ħà¸ĵà¸°à¸ģà¸£à¸£à¸¡à¸ģà¸²à¸£":2016,"à¸²à¸Ļà¸ª":2017,"à¸Ĥà¸Ļà¸²à¸Ķà¹Ģà¸¥":2018,"à¹Ģà¸Ńà¸Ł":2019,"à¸ªà¹Ģà¸ķ":2020,"à¸ģà¸¡à¸§à¸¢":2021,"à¸Ľà¹Ħà¸ķà¸¢":2022,"à¸Ļà¸Ĺà¸³":2023,"à¸Ķà¹Ģà¸Ī":2024,"à¸Ńà¸ĩà¸ŀ":2025,"à¸²à¸Ĭà¸²à¸ķ":2026,"ion":2027,"à¸«à¸²à¸ģ":2028,"Ġà¹ĥà¸Ļà¸Ĥà¸ĵà¸°à¸Ĺ":2029,"à¸ĺà¸£à¸£à¸¡à¸Ļ":2030,"à¸Īà¸³à¹Ģà¸Ľ":2031,"à¸ĵà¸ĳà¸¥":2032,"à¸²à¸ªà¸²à¸Ĺ":2033,"à¸¡à¸Ķ":2034,"à¸ªà¸ĸà¸²à¸Ļà¸Ĺ":2035,"à¸£à¸²à¸ļ":2036,"à¹Ģà¸Ľà¸£":2037,"à¸ĺà¸Ļ":2038,"à¸µ)":2039,"Ġn":2040,"à¸ĵà¸«":2041,"à¸¢à¸Ķà¸Ļà¸²à¸¡":2042,"\",":2043,"à¸Ńà¸Ļà¸ŀ":2044,"à¸Īà¸³à¸ģ":2045,"à¹Ģà¸Ńà¸Ļ":2046,"à¹Ħà¸ķ":2047,"à¸²à¸ĩà¸Ķ":2048,"à¸¡à¸¢":2049,"à¸Ńà¹ģà¸¥à¸°":2050,"à¹Ģà¸Ħà¸¡":2051,"à¸ģà¸ªà¸łà¸²à¸ľ":2052,"à¸ĩà¹ģà¸Ĭà¸¡à¸Ľ":2053,"à¹Ħà¸«à¸§":2054,"à¸ŀà¸£à¸°à¸ª":2055,"à¸²à¸§à¸ĸ":2056,"ĠSt":2057,"à¸ļà¸ªà¸ĸ":2058,"à¸Ĭà¸Ńà¸ļ":2059,"à¸Ĺà¸£à¸²à¸ļ":2060,"à¹Ĥà¸Ķà¸¢à¸Ĺ":2061,"à¸Ĥà¸Ńà¸ĩà¸ľ":2062,"Ġ196":2063,"à¸£à¸²":2064,"à¸§à¹ĥà¸Ī":2065,"à¸«à¸łà¸²à¸ŀ":2066,"à¸¢à¸Ļà¸£":2067,"à¸²à¸¢à¸ķ":2068,"à¸ªà¸Ļà¹ĥà¸Ī":2069,"à¸ļà¸§à¸Ļà¸ģà¸²à¸£":2070,"à¸Ĺà¸³à¸«à¸Ļ":2071,"à¸ķà¸Ńà¸ļ":2072,"à¹ĥà¸Ļà¸Ļ":2073,"à¸ĩà¸«à¸¥":2074,"à¸¨à¸ķà¸°à¸§":2075,"ard":2076,"à¸Ħà¸§à¸²à¸¡à¸Ħ":2077,"Ġ2554":2078,"Ġà¹ĥà¸Ļà¸£":2079,"à¸ŀà¸ļà¸§":2080,"à¸ªà¸²à¸Ļ":2081,"à¸ĩà¸«à¸²à¸£":2082,"ĠCh":2083,"à¸Ķà¹Ħà¸Ķ":2084,"à¸²à¸ĩà¸¡":2085,"à¸²à¸ĩà¹Ģà¸Ĭ":2086,"à¹ģà¸®":2087,"ĠThe":2088,"à¸Ńà¸ĭ":2089,"à¸ģà¸ªà¸¡":2090,"à¸Īà¸ģà¸²à¸£":2091,"à¸Ĥà¸Ńà¸ĩà¸Ľà¸£à¸°à¹Ģà¸Ĺà¸¨":2092,"à¸£à¸§":2093,"à¸²à¹Ģà¸Ļ":2094,"à¸Ļà¹Ģà¸Ħà¸£":2095,"Ġà¸Ńà¸²à¸£":2096,"à¹Ĥà¸ĭà¹Ģà¸§":2097,"à¸ģà¹Ģà¸¥":2098,"Ġà¸Īà¸Ļà¸ĸ":2099,"à¸¢à¸ĩà¸ģ":2100,"à¸ķà¸¥à¸²à¸Ķ":2101,"à¸Ńà¸¡à¸²à¹Ħà¸Ķ":2102,"à¸§à¹Ģà¸ķà¸Ńà¸£":2103,"à¸²à¸¥à¸ĩ":2104,"à¸¡à¸²à¸ª":2105,"à¹Ħà¸Ľà¸ĸ":2106,"Ġ247":2107,"à¸ķà¸Ĭ":2108,"à¹ģà¸Ķà¸Ļ":2109,"à¸Ļà¸ªà¸ĸ":2110,"à¸¢à¸Ń":2111,"à¸ªà¸§à¸£à¸£à¸Ħ":2112,"Ġand":2113,"à¸Ļà¹Ģà¸ķà¸Ńà¸£":2114,"à¸§à¸§":2115,"og":2116,"à¸Ħà¸§à¸²à¸¡à¸«à¸¡à¸²à¸¢":2117,"à¸¡à¸²à¸ģà¸¡à¸²à¸¢":2118,"ra":2119,"à¸ªà¹Ģà¸Ľ":2120,"à¹ģà¸¥à¸°à¸Ļ":2121,"15":2122,"à¸«à¸¡à¸²à¸¢à¹Ģà¸¥à¸Ĥ":2123,"à¸ģà¸³à¸«à¸Ļà¸Ķ":2124,"à¸Ļà¸ķà¸²à¸¡":2125,"à¸µ\"":2126,"à¸¥à¸Ħ":2127,"à¸Ļà¸Ńà¸Ńà¸ģà¹Ģà¸ī":2128,"à¸ĩà¸Ĺà¸²à¸ĩ":2129,"Ġà¸Ŀ":2130,"à¹ģà¸ģà¸£":2131,"Ġà¹ģà¸¥à¸°à¸Ĺ":2132,"à¸Ķà¹Ģà¸ģà¸¥":2133,"à¸ļà¹Ģà¸ļ":2134,"ĠIn":2135,"à¸ĩà¹ĥà¸«à¸į":2136,"à¸§à¸¡à¸¡":2137,"Ġ27":2138,"à¸Ńà¸Ńà¸Ļ":2139,"à¸Ńà¸ĩà¹Ģà¸ŀà¸¥à¸ĩ":2140,"à¹Ĥà¸Ńà¸¥":2141,"à¸©à¸Ĳà¸²à¸Ļ":2142,"à¸ŀà¸£à¸°à¸¡à¸«":2143,"à¸Ļà¹ģà¸Ķà¸Ļ":2144,"à¸¨à¸ŀ":2145,"à¸ģà¸ģà¸²à¸£":2146,"à¸ŀà¸£à¸°à¸Ń":2147,"à¸²à¹Ģà¸«à¸ķ":2148,"à¸²à¸£à¸ģ":2149,"Ġà¸Ńà¸²à¸Ī":2150,"Ġà¸ģà¸£à¸¡":2151,"à¸ģà¸£à¸²à¸Ĭ":2152,"Ġà¸Ľà¸¥":2153,"à¸²à¸ĩà¸Ĭ":2154,"à¸ĩà¹ĥà¸Ī":2155,"Ġ28":2156,"Ġ2550":2157,"à¸²à¸ĩà¸ģà¸²à¸¢":2158,"à¸ģà¸£à¸°à¸Īà¸²à¸¢":2159,"à¸¢à¸ģà¸£":2160,"à¸Ļà¸Ľà¸¥":2161,"Ġà¹ģà¸¥à¸°à¸£":2162,"à¸Ńà¸Ļà¸Ļ":2163,"à¸²à¸Ŀ":2164,"à¸Ńà¸¡à¸ķ":2165,"Ġà¸«à¸²à¸ģ":2166,"à¸ĺà¸¢à¸²":2167,"à¸Ńà¸¢à¸Ĺ":2168,"à¹Ĥà¸¥à¸ģà¸Ħà¸£":2169,"à¹Ģà¸«à¸¢":2170,"à¸Ńà¸²à¸Ħà¸²à¸£":2171,"à¸Ńà¸Ńà¸¢":2172,"18":2173,"à¸³à¸Ļà¸²à¸Ī":2174,"à¸Ľà¸£à¸°à¸ģà¸§":2175,"à¸ģà¸ľ":2176,"à¸ļà¸ģà¸²à¸£à¸¨":2177,"à¸Ĳà¸ĺà¸£à¸£à¸¡à¸Ļ":2178,"à¸Ńà¸Ļà¸£":2179,"à¸ĩà¹ģà¸ģ":2180,"à¸¡à¸²à¹ĥà¸Ĭ":2181,"Ġà¸ªà¸ĸ":2182,"à¸ĩà¸Ĺà¸£à¸ĩ":2183,"à¸²à¸§à¸£":2184,"Ġà¸Ħà¸³":2185,"ess":2186,"à¸ģà¸£à¸°à¸Ĺà¸³":2187,"à¸Ķà¸ĸ":2188,"Ġà¸Ńà¸ĩà¸Ħ":2189,"à¸ªà¸łà¸²à¸ŀ":2190,"à¸Ķà¸²à¸Ĥà¸Ńà¸ĩ":2191,"à¸ĩà¹Ģà¸ª":2192,"à¸ģà¸£à¸°à¹ģà¸ª":2193,"à¸«à¸²à¸£à¸²à¸Ĭ":2194,"à¸¡à¸¥":2195,"ab":2196,"à¸Ĵà¸Ļà¸²à¸ģà¸²à¸£":2197,"à¸²à¸Ļà¸«à¸Ļ":2198,"à¸¥à¸°à¹Ģà¸Ń":2199,"ĠY":2200,"à¸Ńà¹ĥà¸Ļ":2201,"à¸ŀà¸£à¸°à¸£à¸²à¸Ĭà¸ļ":2202,"à¸Īà¸ī":2203,"à¸Ķà¸ļ":2204,"ine":2205,"à¸Ļà¸ĺà¸¡":2206,"à¸ļà¸²à¸ĩà¸ª":2207,"ak":2208,"Ġà¸Ĭà¸Ļ":2209,"à¸Ĥà¸²à¸Ķ":2210,"à¸Ļà¹ģà¸¥":2211,"à¸Ķà¸Ńà¸ģ":2212,"à¸ķà¸£à¸ĩ":2213,"à¸«à¸¥à¸²à¸ģ":2214,"à¸ģà¹Ħà¸Ķ":2215,"à¸°à¸Ļ":2216,"à¸Ńà¹Ģà¸ŀ":2217,"à¸§à¸Ļà¸Ĥà¸Ńà¸ĩ":2218,"à¸īà¸²à¸ģ":2219,"à¸ķà¸¢à¸ģà¸£à¸£à¸¡":2220,"à¸Ļà¸Ĭà¸²à¸§":2221,"à¸¥à¸ģ":2222,"Ġà¸«à¸¡à¸²à¸¢à¸ĸ":2223,"à¸Ĥà¸Ńà¸ĩà¹Ģà¸Ĥà¸²":2224,"Ġà¸Ĥà¸ĵà¸°à¸Ĺ":2225,"est":2226,"à¸Ńà¸ĩà¹Ģà¸Ľ":2227,"à¸ĩà¹Ģà¸ªà¸£":2228,"à¸ĩà¸²à¸Ļà¸§":2229,"à¸£à¸ªà¸ģ":2230,"Ġin":2231,"à¸ķà¸£à¸ĩà¸ģ":2232,"à¸Ļà¸ªà¸¡":2233,"à¸£à¸²à¸§":2234,"à¸§à¸Ķà¸¥":2235,"Ġà¹ĥà¸Ļà¸ģà¸²à¸£":2236,"à¸ļà¹ģà¸ķ":2237,"à¸ªà¸§à¸Ļ":2238,"à¸ªà¸²à¸Ĥ":2239,"à¸Ńà¸ĩà¹Ģà¸£":2240,"à¹ģà¸¥à¸°à¹Ģà¸Ľ":2241,"à¸²à¸¡à¸²":2242,"à¸Īà¸Ńà¸¡à¹Ģà¸ģà¸¥":2243,"à¹ĥà¸Ļà¸Ĳà¸²à¸Ļà¸°":2244,"à¸ĩà¸ģà¸§":2245,"à¸§à¸Ĥ":2246,"à¹Ģà¸©":2247,"à¹ģà¸¥à¸°à¸£":2248,"à¸ļà¸¢":2249,"ang":2250,"à¸Ńà¸ĩà¸Ĥ":2251,"12":2252,"à¸Ľà¸£à¸°à¸ĺà¸²à¸Ļà¸²à¸ĺ":2253,"à¸²à¹Ģà¸ª":2254,"à¸Ħà¸§à¸²à¸¡à¸ķ":2255,"tic":2256,"à¸Ńà¸ĩà¸¢":2257,"à¸Ľà¸£à¸°à¸«à¸²à¸£":2258,"li":2259,"Ġ29":2260,"à¸¢à¸Ļà¹Ģà¸Ľ":2261,"à¸¤à¸Ĺà¸ĺ":2262,"à¹Ĥà¸ķà¸°":2263,"à¸²à¹Ģà¸ĭ":2264,"à¸²à¸Ļà¸ģ":2265,"à¸Ĭà¸Ĭ":2266,"à¸ģà¸Ł":2267,"à¹Ĥà¸£à¸ĩà¸ŀà¸¢à¸²à¸ļà¸²à¸¥":2268,"à¸§à¸¢à¸ĩà¸²à¸Ļ":2269,"à¸²à¸Ļà¸Ĭ":2270,"à¸§à¹Ģà¸Ľ":2271,"à¸²à¸ĩà¸Ľ":2272,"à¸²à¸Ļà¸Ļ":2273,"à¸ļà¸£à¸§à¸¡":2274,"à¸§à¸¢à¸§":2275,"à¸ļà¸²à¸£":2276,"à¸ĩà¸©":2277,"à¸Ļà¸ģà¸§":2278,"à¸¡à¹Ģà¸ķ":2279,"à¸ļà¹Ĥà¸ķ":2280,"Ĵà¹":2281,"à¸ļà¹Ħà¸Ķ":2282,"à¸Ļà¸ŀà¸ļ":2283,"Ġ2551":2284,"à¸Ļà¸£à¸°à¸«à¸§":2285,"à¸Ńà¸Ļà¸§":2286,"à¸Ńà¹ĥà¸Ĭ":2287,"à¹Ģà¸¥à¸Ńà¸£":2288,"à¸ĩà¸ŀà¸£à¸°":2289,"à¸²à¸Īà¸°à¹Ģà¸Ľ":2290,"Ġà¸¥à¸³":2291,"à¹ģà¸¥à¸°à¸Ń":2292,"à¹Ĥà¸¥à¸«":2293,"ae":2294,"Ġà¸Ľà¸£à¸°à¸ģà¸Ńà¸ļà¸Ķ":2295,"Ġà¹Ĥà¸Ķà¸¢à¹Ģà¸Ľ":2296,"à¸ļà¸Ńà¸¢":2297,"à¸¢à¸¥":2298,"à¸Ńà¸ĩà¸¥":2299,"à¸ģà¹ĥà¸Ĭ":2300,"à¸ļà¸£à¸£à¸Ķ":2301,"à¹ģà¸¥à¸°à¸ķ":2302,"Ġà¹Ħà¸£":2303,"à¸ĩà¹Ģà¸¥":2304,"à¸§à¸ļ":2305,"ep":2306,"Ġà¹ģà¸Ĺ":2307,"à¹Ĥà¸Ľà¸£à¸ķ":2308,"Ġ50":2309,"à¸Ńà¸ĩà¸Ĭ":2310,"Ġà¹Ĥà¸Ķà¸¢à¹Ħà¸Ķ":2311,"à¹Ĥà¸Ħà¸¥":2312,"à¸Ļà¸łà¸²à¸ŀà¸¢à¸Ļà¸ķà¸£":2313,"Ġà¹Ģà¸®":2314,"à¸²à¸Ļà¸§":2315,"à¸Ńà¸ĩà¸£à¸²à¸Ĭ":2316,"à¹Ĥà¸Ĥ":2317,"à¸£à¸²à¸¢à¸Ĭ":2318,"à¸ĩà¸Ľà¸£à¸°à¹Ģà¸Ĺà¸¨à¹Ħà¸Ĺà¸¢":2319,"à¸ķà¸¢à¸ªà¸²à¸£":2320,"Ġ2553":2321,"à¹ĥà¸Ļà¹Ģà¸£":2322,"à¸§à¸ĩà¸ģà¸²à¸£":2323,"à¸ģà¸«à¸Ļ":2324,"à¸Ńà¹ģà¸¡":2325,"à¸°à¹Ģà¸ļ":2326,"ula":2327,"à¹Ĥà¸ł":2328,"à¸¡à¸Ħ":2329,"à¸ģà¸©à¸²à¸Ĺ":2330,"à¹Ģà¸¡à¸Ńà¸£":2331,"à¸įà¸Ĭà¸²à¸ģà¸²à¸£":2332,"16":2333,"à¸Ķà¸ķà¸²à¸¡":2334,"à¸©à¸²":2335,"à¸ļà¸Ńà¸Ļ":2336,"à¹ģà¸ªà¸Ķà¸ĩà¹Ĥà¸Ķà¸¢":2337,"Ġw":2338,"à¹ĥà¸Ļà¹Ģà¸Ĥà¸ķ":2339,"à¸Ķà¹Ģà¸£":2340,"à¹Ģà¸ŀà¸Ĭà¸£":2341,"à¸Ļà¸ŀà¸£à¸°à¸Ĭà¸Ļà¸¡":2342,"ity":2343,"à¹Ħà¸ģà¸¥":2344,"à¸Ļà¹ĥà¸«à¸¡":2345,"à¸Ħà¸Ĺ":2346,"à¸²à¹Ģà¸Ĺ":2347,"à¹Ģà¸Ĥà¸²à¸ģ":2348,"ng":2349,"à¸²à¹ĥà¸«":2350,"à¸ļà¹Ģà¸Ĭ":2351,"à¹Ħà¸Ľà¸Ĺ":2352,"Ġà¹Ĥà¸Ķà¸¢à¹ĥà¸Ĭ":2353,"à¸Ńà¸¢à¸¥à¸°":2354,"à¸ģà¸²à¸¨":2355,"up":2356,"hi":2357,"à¸Ńà¸ĩà¸¨":2358,"à¸ģà¸«":2359,"à¸ļà¸£à¸£à¸Ī":2360,"à¸²à¹Ģà¸Ĥà¸ķ":2361,"à¹ĥà¸Ļà¸Ħà¸£":2362,"à¸Ĭà¸Ĺ":2363,"à¸£à¸²à¸Ĭà¸Ńà¸²à¸ĵà¸²à¸Ī":2364,"à¸Ļà¹Ģà¸§à¸¥":2365,"à¸«à¸¥à¸²à¸ģà¸«à¸¥à¸²à¸¢":2366,"à¸²à¹Ĥà¸£":2367,"Ġ2549":2368,"à¸²à¸Ĭà¸Ļ":2369,"à¸Ļà¹ĥà¸«à¸į":2370,"à¸Ľà¸Ĺ":2371,"à¹Ĥà¸Ķà¸¢à¸ªà¸²à¸£":2372,"à¸įà¸Ĺ":2373,"...":2374,"à¸Ļà¸ļà¸£":2375,"à¸Ļà¸Ńà¸ģà¸Īà¸²à¸ģà¸Ļ":2376,"à¸ŀà¸£à¸°à¸Ļà¸²à¸¡":2377,"à¸Ńà¸ªà¹Ģà¸ķà¸£à¹Ģà¸¥":2378,"à¸²à¸Ļà¸Ķ":2379,"à¸³à¸£à¸ĩ":2380,"à¸¥à¸³à¸ķ":2381,"à¸Ĺà¸²à¸ĩà¸ģà¸²à¸£à¹Ģà¸¡":2382,"ht":2383,"à¹Ģà¸ªà¸¡à¸Ń":2384,"à¹ģà¸¥à¸°à¸§":2385,"à¸ŀà¸£à¸°à¸Ĭà¸Ļà¸¡":2386,"à¸ļà¸«":2387,"à¸Ĭà¸ģà¸²à¸¥à¸Ĺ":2388,"à¸§à¸Ķà¹Ģà¸£":2389,"à¸Ńà¸ĩà¸ĭ":2390,"à¸ŀà¸£à¸°à¸Ļà¸²à¸ĩ":2391,"à¸³à¸ķà¸²à¸¥":2392,"Ġà¸ļà¸²à¸ĩ":2393,"Ġ2557":2394,"Ġ2555":2395,"à¸µ,":2396,"à¸¸à¹Ĭ":2397,"Ġà¸ĩà¸²à¸Ļ":2398,"Ġà¸¢à¸ģ":2399,"à¹Ģà¸Ńà¸²":2400,"à¸§à¸Ĭ":2401,"à¹ģà¸Ńà¸¥":2402,"à¸Ĺà¸²à¸ĩà¸ģà¸²à¸£":2403,"Ġ2552":2404,"à¹Ĥà¸Ĩ":2405,"à¹ģà¸Ħà¸¥":2406,"à¸Ĥà¸Ńà¸ĩà¸¡":2407,"à¸Ńà¸¡à¸Ĺ":2408,"à¸£à¸²à¸Ĭà¸ª":2409,"à¸Ĭà¸²à¸§à¸Ń":2410,"Ġà¹Ģà¸Ĥà¸ķ":2411,"à¸Łà¸¥":2412,"14":2413,"à¸Ļà¸ŀà¸£à¸°à¸£à¸²à¸Ĭ":2414,"à¸ģà¸³à¹Ģà¸Ļ":2415,"à¸¢à¸ĩà¸Ĺ":2416,"à¹ģà¸Ļà¸°":2417,"à¹Ģà¸ľà¸¢à¹ģà¸ŀà¸£":2418,"Ġ2560":2419,"à¸®à¸²à¸£":2420,"à¸¡à¸¨":2421,"Ġà¹ģà¸¥à¸°à¸Ī":2422,"à¸²à¸Ļà¸ĭ":2423,"à¹Ģà¸ģà¸Ńà¸£":2424,"à¸Ńà¸ĩà¹ģà¸¥à¸°":2425,"à¸Ńà¸Ļà¸Īà¸°":2426,"à¸²à¸Ļà¸¡":2427,"Ġà¹ģà¸¥à¸°à¸ĸ":2428,"à¹ĥà¸Ļà¸Ķ":2429,"à¸Īà¸³à¸Ļà¸§à¸Ļà¸¡à¸²à¸ģ":2430,"200":2431,"à¸Ļà¸Ńà¸²à¸«à¸²à¸£":2432,"Ġà¸Īà¸°à¸¡":2433,"à¸²à¹ģà¸ģ":2434,"à¹Ĥà¸Ķà¸¢à¹Ħà¸¡":2435,"à¸Ľà¸¥à¸Ńà¸Ķ":2436,"à¸Ńà¸¢à¸ģà¸§":2437,"à¸Ľà¸£à¸°à¹Ģà¸Ĺà¸¨à¸Ń":2438,"à¸°à¸ķ":2439,"à¸¤à¸ģà¸©":2440,"à¸ĵà¸«à¸ł":2441,"à¸ģà¸²à¸£à¸ļà¸£":2442,"à¸Ļà¹ģà¸¡":2443,"à¸Īà¸°à¹ĥà¸Ĭ":2444,"à¸Ļà¸ł":2445,"à¸ĩà¸Ńà¸²à¸Ī":2446,"à¸Ħà¸¡":2447,"à¸Ľà¸£à¸²à¸ªà¸²à¸Ĺ":2448,"à¸³à¹ģà¸«à¸Ļ":2449,"à¸Ĥà¸Ńà¸ĩà¸§":2450,"à¸łà¸²à¸ŀà¸Ĺ":2451,"à¸Ńà¹Ģà¸Ĺ":2452,"à¸ģà¸²à¸£à¹Ģà¸Ľà¸¥":2453,"à¸²à¸Ķà¹Ģà¸Ī":2454,"à¸¥à¸²à¸§":2455,"à¹ģà¸Ĺà¸Ļà¸Ĺ":2456,"à¸ģà¸²à¸£à¸§":2457,"à¸²à¸¬":2458,"à¸²à¸£à¸°à¸Ķ":2459,"à¸Ļà¸²à¸ĸ":2460,"à¸ĩà¹Ģà¸Ĭ":2461,"ormula":2462,"à¹ĥà¸Ļà¸Ī":2463,"Ġà¸Ńà¸²à¸Ĺ":2464,"à¸¥à¸ĩà¸Ĺ":2465,"Ġà¸Ķà¸£":2466,"11":2467,"à¸Ńà¸Ńà¸Ł":2468,"Ġà¸ļà¸²à¸Ĺ":2469,"à¹Ģà¸«à¸¡à¸²à¸°à¸ªà¸¡":2470,"à¸ļà¸Ľà¸£à¸°":2471,"à¸§à¸Ħà¸£":2472,"à¸ģà¸²à¸£à¹Ģà¸Ľ":2473,"à¹Ģà¸Ķà¸Ĭ":2474,"à¸°à¸¥":2475,"à¹Ģà¸Ńà¸²à¸Ĭà¸Ļà¸°":2476,"à¸¢à¸Ńà¸Ķà¹Ģà¸¢":2477,"à¸Ĺà¸²à¸ĩà¸§":2478,"à¹ĥà¸Ļà¹Ģà¸¡":2479,"à¸²à¸¡à¸²à¸ģ":2480,"à¸²à¸Ńà¸²à¸ģà¸²à¸¨":2481,"à¸³à¹Ģà¸£":2482,"à¹ģà¸Ļà¸§à¸Ħ":2483,"à¸ģà¹ģà¸«":2484,"à¸§à¹Ĥà¸¡":2485,"à¸²à¸Ļà¸ŀ":2486,"ub":2487,"Ġà¹ĥà¸Ļà¹Ģà¸Ķ":2488,"à¸ĩà¹ģà¸¥":2489,"à¸¢à¹Ħà¸Ķ":2490,"ud":2491,"à¹ģà¸Ńà¸Łà¸£":2492,"all":2493,"à¸ĩà¹ĥà¸Ļà¸Ľ":2494,"à¹Ĥà¸ģà¸°":2495,"à¸Ļà¸²à¸£":2496,"Ġà¸£à¸Ńà¸ļ":2497,"à¹Ħà¸ĭà¸ķ":2498,"à¸¨à¸§à¸£à¸£à¸©":2499,"à¸Ńà¸Ļà¹Ħà¸«à¸§":2500,"à¸²à¹Ģà¸Ĭ":2501,"à¸Īà¸ŀà¸£à¸°à¸Ī":2502,"à¸²à¸¥à¸ĩà¸ģà¸£à¸ĵ":2503,"à¸²à¹ĥà¸Ĭ":2504,"ha":2505,"Ġl":2506,"à¹Ĥà¸Ķà¸¢à¸¡":2507,"à¸¢à¸«à¸²à¸¢":2508,"uc":2509,"à¸¡à¹Ħà¸Ķ":2510,"à¸Ńà¹Ģà¸ģ":2511,"Ġà¹ģà¸ģ":2512,"à¸Ĥà¸Ļà¸ª":2513,"à¸ķà¸²à¸¢":2514,"Ġ2556":2515,"à¸Ļà¸ªà¸²à¸¡à¸²à¸£à¸ĸ":2516,"à¸§à¸²":2517,"Ġà¹Ģà¸ĭà¸Ļà¸ķ":2518,"à¸Ńà¸ĩà¸«":2519,"Ġ\"\"":2520,"à¸Ļà¸«à¸£":2521,"Ġ40":2522,"à¹Ģà¸¡à¸£":2523,"Ġà¹Ĥà¸Ľà¸£":2524,"Ġg":2525,"à¸ģà¹Ĩ":2526,"à¸Ńà¸³à¸Ļà¸§à¸¢à¸ģà¸²à¸£":2527,"à¸¢à¸ļà¹Ģà¸Ĺ":2528,"à¸įà¸Ĥà¸Ńà¸ĩ":2529,"Ġ/":2530,"à¸ŀà¸²à¸¢":2531,"à¸Ńà¸²à¸§":2532,"à¸¢à¸Ļà¸¡":2533,"à¸¢à¸ĩà¹Ģà¸«à¸Ļ":2534,"à¸Ĭà¸ªà¸¡":2535,"à¸£à¸£à¸¢":2536,"à¸¡à¸Ī":2537,"Ġ2558":2538,"Ġà¹ģà¸ª":2539,"à¸Ńà¸ĩà¸«à¸¥":2540,"Ġà¹ģà¸ľ":2541,"à¸Ĭà¸į":2542,"à¸Ļà¹ĥà¸Ļà¸Ĭ":2543,"à¸¢à¸ĩà¹ĥà¸ķ":2544,"à¸²à¸Ļà¹Ħà¸Ķ":2545,"à¹Ģà¸ªà¸ĺ":2546,"à¸Ĥà¸Ńà¸ĩà¹Ģà¸Ĥ":2547,"à¸Ńà¸ªà¸²à¸£":2548,"à¸ĩà¸«à¸¡":2549,"Ġ2559":2550,"à¸ģà¸Ŀ":2551,"à¸Ńà¸ĩà¸«à¸¥à¸§à¸ĩ":2552,"à¸Ļà¹ģà¸«":2553,"à¸Ńà¸ĩà¹ĥà¸Ļ":2554,"à¸§à¸ĩà¸ķ":2555,"à¸²à¹Ģà¸ŀ":2556,"à¸²à¹Ħ":2557,"à¸Ļà¸¡à¸²à¸£":2558,"à¸ŀà¸£à¸°à¸£à¸²à¸Ĭà¸§":2559,"à¸ŀà¸£à¸£à¸ĵ":2560,"ate":2561,"à¸Ħà¸§à¸²à¸¡à¸¢à¸²à¸§":2562,"à¸£à¸²à¸¢à¹Ħà¸Ķ":2563,"à¹Ĥà¸ļà¸ªà¸ĸ":2564,"à¸Ĥà¸Ńà¸ĩà¸ŀà¸£à¸°à¸Ńà¸ĩà¸Ħ":2565,"à¸Ńà¸¢à¸Ķ":2566,"à¸£à¸ļ":2567,"à¹Ĥà¸ģà¸¥":2568,"à¸Ļà¹Ģà¸Ń":2569,"à¸Ńà¸Ńà¸ģà¹Ģà¸Ľ":2570,"à¸Ķà¹ģà¸¢":2571,"Ġà¹Ģà¸§à¸¥à¸²":2572,"à¸Ļà¸²à¸Ĺ":2573,"à¸Ńà¸ģà¸ĭ":2574,"à¸ģà¹ģà¸ķ":2575,"à¸§à¸¢à¸ª":2576,"Ġà¸łà¸²à¸©":2577,"à¸ªà¸³à¸£à¸§à¸Ī":2578,"à¸¢à¸Ļà¸§":2579,"à¸Ńà¸ĩà¹ĥà¸Ĭ":2580,"à¸Ħà¸§à¸²à¸¡à¸ªà¸³à¸Ħ":2581,"Ġà¸łà¸²à¸Ħ":2582,"Ġà¸ī":2583,"à¸ģà¸¥à¸¡":2584,"à¸£à¸§à¸¡à¸Ĺ":2585,"à¸ļà¸Ħà¸§à¸²à¸¡à¸Ļ":2586,"Ġà¹Ģà¸ķ":2587,"à¸Ľà¸ª":2588,"Ġa":2589,"à¸ļà¹ĥà¸Ĭ":2590,"à¸Ńà¸³à¹Ģà¸łà¸Ń":2591,"à¸¡à¸²à¹Ģà¸¥":2592,"à¸£à¸²à¸Ĭà¸ļ":2593,"17":2594,"à¸ĩà¹Ģà¸ŀà¸¥à¸ĩ":2595,"Ġ2561":2596,"à¸ģà¸Ļà¸³":2597,"à¸Ńà¸²à¸Īà¸²à¸£à¸¢":2598,"à¹Ģà¸§à¸¢":2599,"à¸¢à¸§à¸Ĺ":2600,"à¸Ķà¸ĭ":2601,"à¸§à¸¡à¸Ĺ":2602,"à¸Ļà¹Ģà¸ĭ":2603,"à¸ļà¹ĥà¸«":2604,"à¸µ-":2605,"à¸§à¸ĩà¹Ģà¸§à¸¥":2606,"à¸Ĭà¸²à¸§à¹Ħà¸Ĺà¸¢":2607,"à¹Ħà¸Ľà¸ª":2608,"à¸Ļà¸łà¸²à¸©":2609,"à¸§à¸²à¸£":2610,"à¸²à¸Ľà¸£":2611,"à¸Ľà¸¥à¸Ńà¸Ķà¸ł":2612,"Ġà¸ķà¸¥à¸Ńà¸Ķ":2613,"à¹Ģà¸Ļà¸Ńà¸£":2614,"à¸Ľà¸£à¸²à¸ļ":2615,"à¸¢à¹Ģà¸Ľ":2616,"à¸ķà¸ł":2617,"à¸³à¸Ļà¸²à¸Ļ":2618,"à¸Ħà¸Ħ":2619,"à¸§à¹Ģà¸Ħà¸¥":2620,"à¸Ĥà¸łà¸²à¸ŀ":2621,"à¸Ńà¸Ļà¸²à¸Ħ":2622,"à¹Ģà¸ļà¸¥":2623,"à¸Ļà¹Ģà¸Ńà¸ģ":2624,"tr":2625,"à¸«à¸£à¸²à¸Ĭà¸Ńà¸²à¸ĵà¸²à¸Ī":2626,"à¸Ńà¸Ħà¸£":2627,"à¹ģà¸ģà¸£à¸¡":2628,"Ġà¸ªà¸ĸà¸²à¸Ļ":2629,"à¸Ħà¸§à¸²à¸¡à¹Ģà¸Ĭ":2630,"à¸§à¹Ģà¸£":2631,"Ġà¸ķà¸²à¸£":2632,"à¸ģà¸«à¸¥à¸²à¸¢":2633,"à¹Ģà¸Īà¸Ńà¸£":2634,"à¸Ķà¸«":2635,"à¸£à¸²à¸¡":2636,"ell":2637,"à¹ĥà¸Ļà¸ģà¸²à¸£à¹ģà¸Ĥ":2638,"13":2639,"à¸²à¸«à¸¡à¸²à¸¢":2640,"à¸ŀà¸§à¸ģà¹Ģà¸Ĥ":2641,"à¸Ńà¸§à¸ģà¸²à¸¨":2642,"à¸Ńà¸ªà¸²à¸¢":2643,"à¸§à¸¢à¸Ĺ":2644,"à¸ķà¸£à¸°à¸ģ":2645,"à¹Ģà¸Ĺà¸Ńà¸£":2646,"à¸ģà¸²à¸£à¸ªà¸Ńà¸Ļ":2647,"à¹Ħà¸¥à¸Ļ":2648,"à¸Ļà¹ģà¸ķ":2649,"Ġ2012":2650,"à¸Ńà¸ĩà¸Ľ":2651,"à¸¢à¸ļà¸ģ":2652,"à¹Ģà¸ŀà¸²à¸°":2653,"à¸Ħà¸ķ":2654,"à¸§à¸ĭ":2655,"à¸²à¹ģà¸«":2656,"à¸²à¸ģà¸²à¸£à¸ģà¸£à¸°à¸Ĺà¸£à¸§à¸ĩ":2657,"Ġ246":2658,"à¸Ļà¸Ļà¸²à¸ĩ":2659,"à¸Ĺà¸¢à¸²à¸Ļ":2660,"à¹ģà¸ªà¸ĩ":2661,"Ġà¸ķà¸Ńà¸Ļ":2662,"à¸²à¸¢à¹ģà¸ŀ":2663,"à¸ģà¸²à¸£à¸Ĺà¸³à¸ĩà¸²à¸Ļ":2664,"à¸¡à¸Ńà¸ĩ":2665,"Ġ2014":2666,"24":2667,"Ġà¸łà¸²à¸¢à¸«à¸¥":2668,"à¸Ńà¹Ħà¸Ľà¸Ļ":2669,"à¸ģà¸²à¸£à¹ģà¸ªà¸Ķà¸ĩ":2670,"à¹ģà¸Ļà¸°à¸Ļà¸³":2671,"à¸Ńà¸ĩà¹ĥà¸«":2672,"à¸Ķà¸ªà¸Ńà¸ļ":2673,"à¸Ńà¸Ńà¸ģà¸¡":2674,"à¸²à¸ĩà¸Ħà¸§à¸²à¸¡":2675,"Ġ2010":2676,"Ġ2016":2677,"à¸Ńà¸²à¸Ĺ":2678,"à¸įà¸įà¸²à¸ķà¸£":2679,"à¹ģà¸¥à¸°à¹Ħà¸Ķ":2680,"Ġà¹ģà¸¥à¸°à¹Ģà¸¡":2681,"à¸ķà¸Ńà¸¢":2682,"à¸¬à¸²à¸¥à¸ĩà¸ģà¸£à¸ĵ":2683,"à¸°à¸Ķ":2684,"à¸²à¸ī":2685,"à¸Ħà¸Ńà¸¡à¸ŀ":2686,"à¸ķà¸ĭ":2687,"Ġà¸¨à¸£":2688,"Ġ2548":2689,"Ġà¸Ħà¸¥":2690,"\"\"":2691,"à¸ģà¸²à¸£à¸ªà¸£":2692,"à¸Ńà¸²à¸ĵà¸²à¹Ģà¸Ĥà¸ķ":2693,"à¸¡à¸ĵà¸ĳà¸¥":2694,"à¸§à¸ľ":2695,"à¸²à¹Ĥà¸Ľà¸£":2696,"à¹Ĥà¸Ķà¸¢à¹Ģà¸īà¸ŀà¸²à¸°":2697,"à¹ģà¸ļà¸£":2698,"à¸ĸà¸²à¸¡":2699,"Ġ2562":2700,"à¸Ńà¸ĩà¸«à¸Ļ":2701,"à¸Īà¸ģà¸²à¸£à¸¨":2702,"à¹Ĥà¸Ķà¸¢à¹ĥà¸Ĭ":2703,"à¹Ģà¸ļà¸£":2704,"à¸ļà¹Ģà¸£":2705,"à¸ģà¸²à¸£à¹Ģà¸£":2706,"à¸²à¸łà¸£à¸ĵ":2707,"à¸ŀà¸Ļ":2708,"à¸ļà¸Īà¸²à¸ģ":2709,"à¸ĩà¹Ģà¸Ī":2710,"à¸ļà¸ŀà¸£à¸°":2711,"Ġà¹ģà¸¥à¸°à¸§":2712,"te":2713,"à¸Ńà¸ŀà¸£à¸°":2714,"à¹Ĥà¸Ńà¸Ļ":2715,"Ġà¹Ĵà¹":2716,"à¹ģà¸¥à¸°à¸Ĺ":2717,"à¸ĩà¸Ļà¸³":2718,"à¸²à¸¢à¸²à¸Ĺ":2719,"à¹Ħà¸ķà¸£":2720,"Ġà¸¡à¸²à¸ģ":2721,"à¸Ńà¸¥à¸¥à¸²à¸£":2722,"ne":2723,"à¸ļà¹Ģà¸Ī":2724,"à¹Ģà¸Ĺà¸Ħà¸Ļ":2725,"Ġà¸¤à¸Ķ":2726,"à¸²à¸¢à¸¡":2727,"à¸§à¸°":2728,"à¸ļà¸ķà¸³à¹ģà¸«à¸Ļ":2729,"à¸Ńà¸ģà¸§":2730,"à¸ĺà¸ł":2731,"ok":2732,"à¸ģà¸ķà¸£":2733,"à¸¨à¸²à¸ªà¸ķà¸£à¸²à¸Īà¸²à¸£à¸¢":2734,"à¸¡à¹Ģà¸Ĥ":2735,"à¸²à¸¡à¹Ģà¸Ļ":2736,"à¸Ļà¹Ĥà¸Ķà¸Ļ":2737,"à¸ķà¸£à¸§à¸Īà¸ªà¸Ńà¸ļ":2738,"à¸Ħà¸²à¸Ķ":2739,"à¸ļà¸ģà¸¥":2740,"à¸¡à¸Īà¸²à¸ģ":2741,"à¸ģà¸£à¸°à¸ļà¸§à¸Ļà¸ģà¸²à¸£":2742,"à¹ģà¸Ħà¸§":2743,"à¹ģà¸Ľà¸£":2744,"à¸£à¸ł":2745,"ers":2746,"à¸Ļà¹ģà¸Ķ":2747,"Ġ2015":2748,"à¸Ńà¸ĩà¸Ħà¸³":2749,"à¸²à¸Ķà¸²":2750,"à¸ŀà¸²à¸ģà¸©":2751,"Ġà¸Ľà¸£à¸°à¸ķ":2752,"à¸Ļà¹Ģà¸«à¸ķ":2753,"à¸ĩà¸«à¸¥à¸²à¸¢":2754,"Ġà¸£à¸²à¸¢":2755,"à¸ĩà¹Ģà¸Ļ":2756,"Ġ193":2757,"à¸¢à¸ĺà¸£à¸£à¸¡":2758,"Ġà¸ªà¸²à¸¢":2759,"à¹Ģà¸ŀà¸ĵ":2760,"à¸Ńà¸¡à¸²à¹ĥà¸Ļà¸Ľ":2761,"à¹ģà¸¥à¸°à¸ŀ":2762,"à¸ģà¸£à¸°à¸ķ":2763,"à¸Ńà¸ĩà¹Ģà¸¥":2764,"à¸ģà¸²à¸£à¸Ļà¸³":2765,"Ġà¹Ģà¸Ł":2766,"à¸²à¸«à¸¡":2767,"à¸ģà¸²à¸£à¹Ģà¸Ĥ":2768,"Ġà¹ģà¸¥à¸°à¹Ģà¸£":2769,"à¸ĩà¹Ģà¸ģà¸ķ":2770,"à¸ģà¸Ĺà¸£":2771,"à¸ĵà¸łà¸²à¸ŀ":2772,"à¹Ħà¸Ļà¹Ģà¸ķ":2773,"ue":2774,"à¹Ģà¸¢à¸²à¸§à¸Ĭà¸Ļ":2775,"à¸Ķà¸¥à¸ĩ":2776,"à¸£à¸²à¸¢à¸ĩà¸²à¸Ļ":2777,"à¸²à¸£à¸²à¸Ĭà¸ģà¸²à¸£":2778,"à¹ģà¸£à¸¡":2779,"hy":2780,"à¸§à¸¢à¸ĩà¸²à¸¡":2781,"à¸Ńà¸Ļà¸Ķà¸Ńà¸Ļ":2782,"à¸Ľà¸£à¸²à¸ģà¸ıà¸ķ":2783,"ou":2784,"à¸²à¸Ļà¸Ĥà¸Ńà¸ĩ":2785,"à¸ļà¸²à¸ĩà¸Ħà¸£":2786,"Ġà¸Ńà¸Ńà¸ģà¸Ńà¸²à¸ģà¸²à¸¨":2787,"Ġ31":2788,"à¸¨à¸§à¸ģà¸£à¸£à¸¡":2789,"à¸¥à¸§":2790,"à¸ļà¹Ģà¸Ĥ":2791,"Ġà¹ģà¸¥à¸°à¸ľ":2792,"à¸ķà¸²à¸¡à¸Ĺ":2793,"à¸Ńà¸ĩà¹Ħà¸Ķ":2794,"à¸ĩà¸ľà¸¥à¹ĥà¸«":2795,"à¸²à¸łà¸²à¸ŀ":2796,"à¹ģà¸Ħà¸Ļ":2797,"Ġà¸§à¸ĩ":2798,"à¸²à¸§à¸Ĺ":2799,"à¸įà¹Ģà¸ª":2800,"ob":2801,"à¹Ģà¸ĭà¸Ļà¸ķ":2802,"à¹ģà¸¥à¸°à¸ľ":2803,"Ġà¸ªà¸³à¸Ļ":2804,"à¸Ĺà¸²à¸ĩà¸«à¸¥à¸§à¸ĩ":2805,"à¸²à¸ĩà¹Ģà¸Ķ":2806,"Ġà¸Ļà¸Ńà¸ģ":2807,"à¸²à¸ĩà¹Ħà¸¡":2808,"Ġà¹Ģà¸«à¸¥":2809,"à¸ģà¸²à¸£à¸Ń":2810,"'s":2811,"à¸²à¸Ļà¸Ħ":2812,"Ġ195":2813,"à¸²à¸ļà¸£à¸¡":2814,"Ġà¸Ĭà¸Ļà¸°":2815,"à¸ģà¸ģà¸¥":2816,"à¹Ģà¸Ħà¸¢à¹Ģà¸Ľ":2817,"à¸ĸà¸Ļ":2818,"à¸Ķà¸ŀà¸£à¸°":2819,"à¸ŀà¸¢à¸ŀ":2820,"à¸ĩà¹Ģà¸Ĺ":2821,"Ġà¸Ńà¸ĩà¸¨":2822,"à¸İà¸«à¸¡à¸²à¸¢":2823,"à¸Ļà¸Ĺà¸Ļ":2824,"à¸²à¸¢à¸ģà¸£":2825,"Ġà¹ģà¸ļ":2826,"à¸Ļà¸«à¸¡":2827,"à¸Ĳà¸¡":2828,"à¸Ľà¸£à¸°à¸Īà¸³à¸Ľ":2829,"à¸ªà¸²à¸ļ":2830,"à¹Ĥà¸ļ":2831,"Ġ2013":2832,"à¸Ķà¸Ĭà¸Ńà¸ļ":2833,"à¸ĩà¸ªà¸²à¸¡":2834,"Ġà¸¡à¸«":2835,"à¸Ħà¸Ńà¸¡à¸¡":2836,"à¹Ĥà¸Ĩà¸©à¸ĵ":2837,"à¸²à¹Ģà¸Ń":2838,"Ġà¸łà¸²à¸¢à¹ĥà¸ķ":2839,"à¸ªà¸ķà¸£":2840,"Ġ2008":2841,"à¸§à¹ĥà¸Ļ":2842,"à¸§à¹ģà¸¥à¸°":2843,"à¸§à¸ĩà¸Ľ":2844,"à¸Ľà¸£à¸°à¸Ī":2845,"à¸ĵà¸ªà¸¡à¸ļ":2846,"à¹Ģà¸Łà¸Ńà¸£":2847,"Ġformula":2848,"à¸²à¸Ńà¸²à¸ģà¸²à¸¨à¸¢à¸²à¸Ļ":2849,"à¸ŀà¸¢à¸²à¸ģà¸£":2850,"à¸Ħà¸Ħà¸¥à¸Ĺ":2851,"à¸ģà¸©à¸²à¸£à¸°à¸Ķ":2852,"à¸Ĥà¸Ńà¸ĩà¸ŀ":2853,"à¸Ļà¸Ńà¸ĩà¸Ħ":2854,"à¸ļà¸¡à¸²":2855,"à¹Ħà¸ŀ":2856,"à¸ļà¹Ħà¸ĭà¸ķ":2857,"ill":2858,"à¸Ļà¹Ģà¸Ĺà¸Ńà¸£":2859,"Ġà¸£à¸°à¸ļà¸ļ":2860,"à¸§à¸¢à¹ĥà¸«":2861,"Ġà¹ģà¸ļà¸ļ":2862,"à¸²à¸¢à¸£":2863,"our":2864,"à¸²à¸¢à¹ĥà¸Ļ":2865,"à¸Īà¸°à¸ª":2866,"à¸Ļà¸Īà¸³à¸Ļà¸§à¸Ļà¸¡à¸²à¸ģ":2867,"Ġà¹Ĥà¸Ī":2868,"Ġà¹ģà¸¥à¸°à¸ŀ":2869,"à¸Ĺà¸²à¸ĩà¸Ĭ":2870,"ni":2871,"Ġà¹Ĥà¸ĭ":2872,"à¸§à¸Ļà¸£":2873,"Ġà¸¯":2874,"à¸Ļà¸Ĺà¸³à¹ĥà¸«":2875,"à¹Ģà¸ĺà¸Ńà¹Ħà¸Ķ":2876,"à¸ŀà¸§à¸ģà¹Ģà¸Ĥà¸²":2877,"à¸ģà¸²à¸£à¸ĸ":2878,"Ġà¸ģà¸Ńà¸ĩà¸Ĺ":2879,"à¸Īà¸ļ":2880,"à¸¥à¸°à¸Ħà¸£à¹Ĥà¸Ĺà¸£à¸Ĺ":2881,"à¸²à¸Ļà¸Ĥ":2882,"à¸ªà¸Ľ":2883,"à¸ĩà¸ļà¸£":2884,"à¸Ļà¹ģà¸ľ":2885,"à¸ķà¸£à¸Ĭà¸²à¸¢":2886,"à¸ģà¸²à¸£à¸¢":2887,"à¸²à¸£à¸²à¸¡":2888,"à¸ģà¸²à¸£à¸Ĭ":2889,"à¸ĩà¹ģà¸«":2890,"à¸Ļà¹ĥà¸Ļà¸ģà¸²à¸£":2891,"Ġ2017":2892,"à¸Ĭà¸¡à¹Ģà¸Ľ":2893,"à¸Ļà¹Ħà¸Ľà¹Ħà¸Ķ":2894,"Ġà¹ĳ":2895,"à¸£à¸Ńà¸¢":2896,"à¸«à¸¥à¸Ńà¸Ķ":2897,"à¸ĭà¸²à¸ģ":2898,"à¸Ĺà¸²à¸ĩà¸ķà¸°à¸§":2899,"à¸łà¸²à¸©à¸²à¹Ħà¸Ĺà¸¢":2900,"à¸ĩà¹Ģà¸Ń":2901,"à¸¥à¸Ķà¸¥à¸ĩ":2902,"à¸Ńà¸Ļà¹Ģà¸¡":2903,"à¹Ĥà¸Ļà¸°":2904,"à¹Ĥà¸ī":2905,"à¸²à¸¢à¸Ļà¸Ńà¸ģ":2906,"à¸Ķà¸Ļà¸Ħà¸£":2907,"Ġà¸łà¸²à¸ŀà¸¢à¸Ļà¸ķà¸£":2908,"à¸²à¸ĩà¸£à¸§à¸Ķà¹Ģà¸£":2909,"à¸Īà¸Ķ":2910,"Ġà¹ģà¸ŀ":2911,"à¸²à¸ĩà¸ĸ":2912,"à¸²à¸Ļà¸Ń":2913,"oun":2914,"à¸Ļà¸Ńà¸£":2915,"Ġ2011":2916,"Ġà¹Ģà¸Ķà¸Ńà¸°":2917,"à¸Ńà¸¡à¸²à¸ģ":2918,"ect":2919,"à¸Ļà¹ĥà¸Ļà¸§":2920,"à¸¢à¸ģà¸¢":2921,"à¸£à¸°à¸¢à¸°à¹Ģà¸§à¸¥":2922,"à¹Ĥà¸Ĭà¸§":2923,"à¸Ļà¸²à¸§":2924,"à¸ģà¸¤à¸ķ":2925,"à¸£à¸²à¸Ĭà¸ģ":2926,"à¸²à¸ªà¸²à¸¡à¸²à¸£à¸ĸ":2927,"à¸£à¸²à¸Ħ":2928,"Ġà¸ŀà¸£à¸°à¸ļà¸²à¸Ĺà¸ªà¸¡à¹Ģà¸Ķ":2929,"à¸ĩà¹Ģà¸«à¸¥":2930,"à¸¡à¸«à¸²à¸ªà¸¡":2931,"à¸¥à¸²à¸Ļ":2932,"à¹ĥà¸Ļà¸«":2933,"à¸Ķà¸Ĺà¸³":2934,"à¸²à¸ĺà¸²à¸£":2935,"à¸ģà¸©à¸²à¸ĺ":2936,"à¸§à¸²à¸¥":2937,"à¸°à¸Ľ":2938,"à¸¡à¹ģà¸¥à¸°":2939,"Ġ2018":2940,"à¸ĩà¹Ģà¸Ĥà¸ķ":2941,"à¸¡à¹Ģà¸ļ":2942,"à¸Īà¸Ĺ":2943,"à¹Ģà¸¡à¸°":2944,"ist":2945,"Ġà¸¥à¸ĩ":2946,"à¸Ľà¸¥à¸Ķ":2947,"à¸¢à¸ļà¸²à¸¢":2948,"à¸Ńà¸ĩà¸¢à¸Ļà¸ķ":2949,"à¸£à¸ĩà¸Ħ":2950,"à¸¥à¸Īà¸Ńà¸¡à¹Ģà¸ģà¸¥":2951,"à¸Ħà¸³à¸Ļ":2952,"à¸Ńà¸Ļà¸Ĥà¸Ńà¸ĩ":2953,"à¸Ķà¹ģà¸Ľà¸¥à¸ĩ":2954,"à¸²à¸ļà¸£":2955,"à¸Ļà¸Ļà¸³":2956,"à¸Ľà¸£à¸°à¸Ĭà¸²à¸Ĭà¸Ļ":2957,"à¸ĩà¸Ńà¸Ńà¸ģà¹Ģà¸Ľ":2958,"à¹ģà¸¥à¸°à¸Ħà¸§à¸²à¸¡":2959,"Ġà¹ģà¸¥à¸°à¹ĥà¸Ļ":2960,"à¸ģà¸Ĭà¸²à¸¢":2961,"Ġà¸ŀà¸£à¸£":2962,"Ġ2547":2963,"à¸Ĺà¸Ĺ":2964,"à¹Ĥà¸ģà¸ª":2965,"à¸ªà¸²à¸ģà¸¥":2966,"à¸ģà¸«à¸¥":2967,"à¸Ńà¸ĩà¸ľ":2968,"à¸Ļà¸Īà¸£":2969,"à¸¡à¸²à¸¥":2970,"à¸Ľà¸¥à¸§":2971,"à¸Ļà¸²à¸¢à¸ģà¸£":2972,"Ġ245":2973,"ack":2974,"à¸ªà¸ĸà¸²à¸Ľà¸Ļ":2975,"à¸Ńà¸²":2976,"Ġ'":2977,"à¸²à¸Īà¸°à¸¡":2978,"Ġà¹Ĥà¸Ħ":2979,"à¸¡à¸ĭ":2980,"à¹ģà¸¥à¸°à¸Ī":2981,"art":2982,"à¸ĩà¹ģà¸§à¸Ķà¸¥":2983,"à¸²à¸Ļà¸¥":2984,"à¸²à¸§à¸Ķ":2985,"à¸²à¸§à¸²à¸ª":2986,"à¸Ĭà¸²à¸¢à¸Ŀ":2987,"eg":2988,"à¸Ńà¸°à¹Ħà¸£":2989,"à¸Ļà¸®":2990,"à¸Ńà¸ļà¸Ĺ":2991,"à¸įà¸Ī":2992,"à¸Ńà¸Ļà¸Ħà¸£":2993,"ly":2994,"Ġ2009":2995,"ain":2996,"à¹ģà¸¥à¸°à¸¢":2997,"end":2998,"Ġto":2999,"à¹Ĥà¸Ķà¸£":3000,"Ġà¹ĥà¸Ļà¸Ĺ":3001,"à¸Ļà¸ģà¸¥à¸²à¸ĩ":3002,"à¸Ľà¸ģà¸Ħà¸£à¸Ńà¸ĩà¸ª":3003,"à¸²à¸¢à¸ŀ":3004,"à¸²à¸ĺà¸²à¸£à¸ĵà¸°":3005,"à¸Ļà¹Ģà¸§à¸¥à¸²":3006,"à¹ĥà¸Ļà¸«à¸Ļ":3007,"60":3008,"à¸Ħà¸ĵ":3009,"à¹Ĥà¸Ł":3010,"à¸ĩà¸ķà¸²à¸¡":3011,"à¸ªà¸łà¸²":3012,"à¸Ĺà¸ĺà¹Ģà¸Ī":3013,"à¸Ļà¹Ĥà¸£à¸ĩà¹Ģà¸£":3014,"à¸Ńà¸ĩà¹Ĥà¸Ķà¸¢":3015,"à¹ĥà¸Ļà¸ļà¸£":3016,"à¸§à¸Ħ":3017,"à¹ĥà¸Ļà¸ģà¸¥":3018,"à¸²à¸¢à¸Ń":3019,"à¸²à¸Ļà¹Ģà¸Ĥ":3020,"à¹Ĥà¸ķà¸£":3021,"à¸¤à¸«":3022,"Ġà¸ļà¸Ĺ":3023,"à¸²à¸ŀà¸£à¸°à¸Ńà¸ĩà¸Ħ":3024,"à¸¢à¸Ī":3025,"Ġà¹Ģà¸¢":3026,"à¸Ńà¸ļà¸ª":3027,"à¸ªà¸ķà¸²à¸£":3028,"à¸²à¸Ħà¸ĵà¸°":3029,"à¹Ģà¸ģà¸¡à¸ª":3030,"à¸Ńà¸Ńà¸£":3031,"à¸³à¸ª":3032,"Ġà¹ģà¸¥à¸°à¸Ĭ":3033,"à¸²à¸«à¸¥à¸²à¸¢":3034,"ong":3035,"à¸¢à¸ĩà¸ķ":3036,"à¸ĩà¹Ħ":3037,"à¸§à¹Ħà¸Ķ":3038,"à¸łà¸ŀ":3039,"40":3040,"à¸³à¸Ī":3041,"à¹ĥà¸Ļà¸¥":3042,"à¹Ĥà¸Ķà¸Ķà¹Ģà¸Ķ":3043,"à¹Ĥà¸łà¸Ħ":3044,"à¸´à¹Ĭ":3045,"à¸Ļà¹ģà¸«à¸¥":3046,"à¸²à¸Ļà¹Ģà¸¡":3047,"à¸Ļà¸Ħà¸¥":3048,"à¸ģà¹Ģà¸Ľà¸¥":3049,"à¸²à¸ŀà¸£":3050,"à¸²à¸ĩà¸ŀ":3051,"à¸Ħà¸§à¸²à¸¡à¸ľ":3052,"à¸Ĥà¸Ńà¸ĩà¸Ħ":3053,"à¸²à¸¢à¸Ĺà¸Ńà¸Ķ":3054,"Ġ2007":3055,"à¸ŀà¸£à¸°à¸Ĺ":3056,"à¸²à¸ĩà¸Ī":3057,"à¸«à¸łà¸²à¸ŀà¹Ĥà¸ĭà¹Ģà¸§":3058,"à¹ĥà¸Ļà¸ģà¸£":3059,"à¸Ĺà¸³à¸Ļ":3060,"ian":3061,"à¸Īà¸Ļà¸ģà¸£à¸°à¸Ĺ":3062,"Ġà¹ģà¸¥à¸°à¹Ħà¸¡":3063,"à¸Ķà¸¥à¸Ńà¸ĩ":3064,"à¸ŀà¸£à¸°à¸¢":3065,"à¸ģà¸©à¸²à¸Ľ":3066,"à¸ŀà¸£à¸°à¸¡à¸«à¸²à¸ģà¸©":3067,"ph":3068,"à¸Ĺà¸ĺà¸£":3069,"à¸ļà¸¨":3070,"à¸Ńà¸¢à¸ķ":3071,"à¸Ļà¸łà¸²à¸ŀ":3072,"à¸²à¸Ļà¸Ī":3073,"à¸°à¸Ń":3074,"à¸§à¸Ļà¸Ń":3075,"à¸²à¹ģà¸¥":3076,"à¸Ļà¹ģà¸£à¸ģ":3077,"à¸¡à¹Ģà¸«":3078,"à¸¡à¹Ģà¸«à¸¥":3079,"à¸¢à¸ģà¹Ģà¸¥":3080,"à¸ĭà¸²à¸£":3081,"à¸Ļà¸²à¸Ļà¸²à¸Ĭà¸²à¸ķ":3082,"à¸Ħà¸Ļà¸Ń":3083,"à¸Ļà¸Ĺà¸²à¸ĩà¹Ħà¸Ľ":3084,"à¸Ľà¸£à¸°à¹Ģà¸ŀà¸ĵ":3085,"Ġà¸Ńà¸Ļ":3086,"Ġà¸£à¸°à¸Ķ":3087,"à¹ģà¸§à¸£":3088,"à¸¥à¸²à¸ģ":3089,"ace":3090,"à¸£à¸£à¸ŀ":3091,"à¸ĩà¸«à¸£":3092,"à¹Ģà¸Ńà¸¡":3093,"à¸²à¸Ļà¸²à¸Ļ":3094,"Ġà¸ªà¸¡à¸²à¸Ĭ":3095,"à¸ļà¹Ĥà¸Ķà¸¢":3096,"à¸ĩà¹ĥà¸«à¸¡":3097,"à¹Ĥà¸¥à¸ģà¸£":3098,"à¸¢à¸Ĭà¸Ļà¸°":3099,"à¸ģà¸²à¸£à¸ľà¸¥":3100,"à¹ĥà¸Ļà¹Ģà¸§à¸¥":3101,"à¸Ħà¸§à¸²à¸¡à¹Ģà¸£":3102,"à¸Ħà¸Ļà¸«à¸Ļ":3103,"ff":3104,"à¹ĥà¸Ļà¸ĩà¸²à¸Ļ":3105,"à¸ķà¸¨à¸²à¸ªà¸ķà¸£":3106,"à¸ģà¸ªà¸£":3107,"à¸Ļà¸ģà¸£":3108,"à¹Ģà¸§à¸ĵà¸Ĺ":3109,"à¸Ļà¸Ĭà¸Ńà¸ļ":3110,"à¹ĥà¸Ļà¸Ĥà¸ĵà¸°à¸Ļ":3111,"à¸Ĥà¸Ńà¸ĩà¹Ģà¸ĺà¸Ń":3112,"à¸Ĭà¸²à¸į":3113,"à¸«à¸Ļà¸²à¸§":3114,"à¸Īà¸²à¸ģà¸Ĺ":3115,"à¸ªà¸¥à¸²à¸¡":3116,"à¸Ļà¸ªà¸ĸà¸²à¸Ļà¸Ĺ":3117,"à¸µà¹ĭ":3118,"à¸²à¸Ļà¸Ľ":3119,"à¸Ķà¸¡à¸¨":3120,"à¹Ģà¸¥à¸ģ":3121,"Ġà¸ģà¸³à¸ģ":3122,"à¸§à¸¡à¸ĩà¸²à¸Ļ":3123,"à¸ļà¹Ģà¸Ķ":3124,"à¸Ļà¸£à¸ĸ":3125,")\"":3126,"à¸ļà¸ŀà¸£à¸°à¸£à¸²à¸Ĭà¸Ĺà¸²à¸Ļ":3127,"à¸²à¸ĵà¸²à¸Ī":3128,"à¸§à¸ĵ":3129,"Ġh":3130,"à¹ĥà¸Ļà¸Ħ":3131,"à¸Ķà¸Ľà¸ģà¸ķ":3132,"à¸²à¹Ģà¸Ńà¸¥":3133,"à¸¢à¸ķà¸°à¸§":3134,"Ġà¹Ĥà¸Ħà¸£":3135,"à¹ĥà¸Ļà¸ªà¸«à¸£":3136,"ure":3137,"à¸Ńà¸ĩà¹Ģà¸Ķ":3138,"à¸²à¸¢à¸łà¸²à¸ŀ":3139,"Ġ60":3140,"à¸§à¹ģà¸Ĺ":3141,"Ġà¸ķà¸£":3142,"à¸ªà¸«":3143,"à¸¥à¸ĩà¹Ħà¸Ľ":3144,"à¹Ģà¸Ńà¸ģà¸ªà¸²à¸£":3145,"à¸Ľà¸£à¸°à¹Ģà¸¡":3146,"à¸§à¸¢à¸Ńà¸£":3147,"à¸ŀà¸¤à¸ķ":3148,"à¹Ĥà¸ŀà¸ĺ":3149,"à¸ķà¹Ĥà¸Ķà¸¢":3150,"à¸ģà¸²à¸£à¸Ķ":3151,"Ġà¹ģà¸¥à¸°à¹ĥà¸Ļà¸Ľ":3152,"Ġ2006":3153,"Ġà¸ŀà¸£à¸£à¸Ħ":3154,"Ġà¸Ľà¸£à¸°à¸ĺà¸²à¸Ļ":3155,"ran":3156,"à¹Ģà¸¡à¸¥":3157,"à¹ĥà¸Ļà¸ļ":3158,"one":3159,"à¸§à¸¢à¸Ń":3160,"à¹Ĥà¸Ľà¸£à¹ģà¸ģà¸£à¸¡":3161,"à¸ĩà¸¨à¸£":3162,"à¸³à¸ļ":3163,"à¸ĩà¸ģà¸£à¸°":3164,"à¸Ļà¸Ľà¸£à¸°à¸ĺà¸²à¸Ļ":3165,"à¸¢à¸ĩà¸Ķ":3166,"à¸łà¸²à¸£à¸ģ":3167,"à¸³à¸£à¸ĩà¸ķà¸³à¹ģà¸«à¸Ļ":3168,"à¸Ĥà¸Ńà¸ļ":3169,"Ġà¹ģà¸¥à¸°à¸ģ":3170,"à¸ļà¸«à¸¥":3171,"à¹Ħà¸ģ":3172,"à¸ĩà¹Ħà¸§":3173,"ew":3174,"à¸§à¸ĩà¸Ļ":3175,"à¹Ģà¸ªà¸¡":3176,"à¸¢à¹ĥà¸«à¸¡":3177,"à¸Ľà¸ģ":3178,"Ġà¸ģà¸§":3179,"ens":3180,"à¸¢à¸Ħ":3181,"à¸ģà¸²à¸£à¸Ľà¸ı":3182,"av":3183,"à¸²à¸Ļà¸«à¸¥":3184,"à¸Ĭà¸²à¸§à¸Ńà¹Ģà¸¡à¸£":3185,"à¸²à¸¢à¸§":3186,"à¸Ľà¸£à¸°à¸ģà¸Ńà¸ļà¹Ħà¸Ľà¸Ķ":3187,"à¹Ĥà¸ª":3188,"ķà¹":3189,"ik":3190,"23":3191,"à¸£à¸Ńà¸Ķ":3192,"Ġà¸ªà¸«à¸£":3193,"à¸¡à¸²à¸ķà¸£à¸Ĳà¸²à¸Ļ":3194,"à¹ģà¸Ńà¸£":3195,"à¸Ńà¸ĩà¹Ģà¸ģ":3196,"à¸¥à¸ĩà¹Ģà¸¥":3197,"Ġv":3198,"Ġà¸Ĺà¸§":3199,"à¸¢à¸ŀ":3200,"à¸²à¸¢à¹Ħà¸Ķ":3201,"à¹Ģà¸Łà¸£":3202,"à¸ĩà¸ªà¸¡":3203,"à¸ĩà¹Ģà¸Ħà¸£à¸²à¸°à¸«":3204,"ex":3205,"à¸²à¸Ļà¸ļà¸²à¸Ĺ":3206,"à¹Ģà¸ŀà¸¥à¸ĩà¸Ĺ":3207,"à¸ĺà¸Ļà¸²à¸Ħà¸²à¸£":3208,"à¸ŀà¹Ģà¸£":3209,"à¸Īà¸°à¹Ģà¸ģ":3210,"à¹Ħà¸Ĺà¸¢à¸Ĺ":3211,"à¸Ĺà¸¨à¸§à¸£à¸£à¸©":3212,"à¸Ļà¸ŀà¸¥":3213,"à¸§à¸²à¸ĩà¹ģà¸ľ":3214,"à¸ļà¹Ģà¸ª":3215,"à¸Ĺà¸²à¸ĩà¸ª":3216,"à¹Ģà¸Ńà¸Ĭ":3217,"à¸ĩà¸ļà¸Ľà¸£à¸°à¸¡à¸²à¸ĵ":3218,"à¸ģà¸ģà¸§":3219,"à¸²à¸Ļà¸£":3220,"à¸¢à¸ĩà¸ª":3221,"à¸Ńà¸Ļà¹ģà¸ģ":3222,"ord":3223,"à¸³à¸Ķ":3224,"à¸ªà¸¢":3225,"à¸ģà¹Ģà¸ŀ":3226,"à¹Ħà¸ŀà¸£":3227,"qu":3228,"ĠX":3229,"à¸Ńà¸Ńà¸ģà¸ĭ":3230,"à¸Īà¸°à¹ĥà¸«":3231,"à¸ªà¸¢à¸²à¸¡":3232,"ge":3233,"à¸Ńà¸¨":3234,"à¸Īà¸°à¹Ģà¸£":3235,"à¸ļà¸ģà¸²à¸£à¸ķ":3236,"Ġà¸łà¸²à¸¢à¹ĥà¸Ļ":3237,"à¸ĩà¸²à¸Ļà¸Ĺ":3238,"à¸ļà¸ģà¸²à¸£à¸ĵ":3239,"à¸Ħà¸§à¸²à¸¡à¹Ģà¸ª":3240,"à¸ĸà¸§à¸²à¸¢":3241,"ight":3242,"à¸Ħà¸§à¸²à¸¡à¸§":3243,"à¸¡à¸²à¸Ķ":3244,"à¸²à¸Ĺà¸£à¸ĩ":3245,"à¸Ļà¹ģà¸ģ":3246,"à¸Ļà¸§à¸ĩ":3247,"à¸¥à¸Ĥà¸Ńà¸ĩ":3248,"à¸Ļà¹ģà¸Ļà¸§":3249,"à¸²à¹Ĥà¸Ĺ":3250,"à¸¥à¸ĭ":3251,"Ġ2546":3252,"ass":3253,"à¸ªà¸łà¸²à¸":3254,"à¸įà¸²à¸ķà¹ĥà¸«":3255,"Ġ80":3256,"Ġà¸ªà¹Ĥà¸¡à¸ªà¸£":3257,"à¸łà¸²à¸¢à¸Ļà¸Ńà¸ģ":3258,"à¹Ģà¸Ńà¸²à¹Ħà¸§":3259,"à¸Ľà¸£à¸°à¸¢":3260,"Ġà¸Ħà¸²à¸£":3261,"à¹ĥà¸Ļà¸ģà¸²à¸£à¹Ģà¸¥":3262,"à¸ĩà¹ģà¸£à¸ģà¹Ģà¸¡":3263,"à¸ŀà¸£à¸°à¸ļà¸£à¸¡à¸£à¸²à¸Ĭ":3264,"à¸¡à¸Ńà¸ļ":3265,"à¸ĩà¸Ħà¸£à¸²à¸¡à¹Ĥà¸¥à¸ģà¸Ħà¸£":3266,"à¸Ńà¸¥à¹Ģà¸¥à¸¢":3267,"à¸ģà¸³à¹ģà¸ŀ":3268,"à¹Ĥà¸Ķà¸¢à¸ģà¸²à¸£":3269,"à¸Ľà¸£à¸°à¸Ĭà¸²à¸Ĭà¸²à¸ķ":3270,"à¹Ĥà¸Ļà¸¡":3271,"à¸²à¸¡à¸ģ":3272,"à¹Ĥà¸Ľà¸£à¸Ķ":3273,"Ġà¹ģà¸¥à¸°à¸Ľ":3274,"ment":3275,"à¸Ńà¸ĩà¸Ńà¸¢":3276,"à¸Ħà¸ĵà¸°à¸£":3277,"à¸Ħà¸Ļà¹Ģà¸Ķ":3278,"à¸£à¸²à¸ģ":3279,"à¸ĩà¸Ĭà¸Ļà¸°à¹Ģà¸¥":3280,"Ġà¸Ľà¸£à¸°à¹Ģà¸Ĺà¸¨à¸Ń":3281,"à¸Ļà¸Ħà¸³":3282,"à¸ļà¹ĥà¸Ļ":3283,"à¸ļà¸§à¸ĩ":3284,"à¸ķà¸Ń":3285,"à¸Ńà¸¢à¹Ĩ":3286,"à¸¢à¸¡à¸Ĺ":3287,"à¸Ķà¹Ģà¸§":3288,"ant":3289,"à¸Ĺà¸£à¸§à¸ĩà¸¨":3290,"à¸Ńà¹Ģà¸Ī":3291,"à¸²à¸¢à¸Ĺà¸³":3292,"Ġà¹ĥà¸Ļà¸ª":3293,"Ġ=":3294,"à¸¡à¸ĸ":3295,"Ġr":3296,"Ġ2544":3297,"22":3298,"à¸Ńà¸ģà¸Ĺ":3299,"à¸¡à¸²à¸£à¸Ķ":3300,"à¸§à¸Ļà¸¡à¸²à¸ģ":3301,"à¸°à¸£":3302,"à¸£à¸§à¸¡à¸ģ":3303,"à¸£à¸°à¸¢à¸°à¸Ĺà¸²à¸ĩ":3304,"à¸°à¸®":3305,"à¸Ĥà¸Ńà¸ĩà¸Ĭ":3306,"à¸Ĥà¸Ńà¸ĩà¸Ĭà¸²à¸§":3307,"à¸²à¸§à¸ģ":3308,"à¸Ľà¸£à¸°à¹Ģà¸Ĺà¸¨à¸Ĺ":3309,"à¸Ĥà¸Ńà¸ĩà¸ŀà¸£à¸°":3310,"Ġà¸Ļà¸²à¸Ĺ":3311,"à¸¢à¸¢":3312,"à¸«à¸¥à¸²à¸¢à¸Ħà¸£":3313,"à¹ģà¸ŀà¸Ĺà¸¢à¸¨à¸²à¸ªà¸ķà¸£":3314,"à¸§à¹Ģà¸Ĥ":3315,"à¸ŀà¸£à¸°à¸ģà¸£":3316,"à¸Ħà¸§à¸²à¸¡à¸¡":3317,"à¸¡à¸Ļà¸²à¸Ħà¸¡":3318,"à¸¥à¸Ł":3319,"à¸¥à¸°à¸Ħà¸£à¹Ģà¸£":3320,"à¸ģà¸©à¸²à¸Īà¸²à¸ģ":3321,"à¸ŀà¸ļà¹Ħà¸Ķ":3322,"à¸¡à¸«à¸²à¸Ķ":3323,"à¸§à¸¢à¹Ģà¸«à¸ķ":3324,"à¸Ĺà¸ĺà¸¨à¸²à¸ªà¸Ļà¸²":3325,"à¸ģà¹Ħà¸Ľ":3326,"à¹ģà¸¥à¸°à¸Ħ":3327,"à¹Ģà¸ģà¸ª":3328,"à¸Ľà¸£à¸²à¸ģà¸ıà¸§":3329,"à¸ŀà¸ĩà¸©":3330,"à¸ªà¸¡à¸Ńà¸ĩ":3331,"à¸Īà¸°à¸Ĺà¸³à¹ĥà¸«":3332,"à¸Ļà¸ªà¸ĸà¸²à¸Ļ":3333,"à¸²à¸ĩà¹Ģà¸Ĥ":3334,"à¸ļà¸£à¸£à¸¢à¸²à¸¢":3335,"à¸ŀà¸ĩà¸¨":3336,"à¸ģà¸²à¸£à¸Ľà¸£":3337,"à¸²à¸Īà¸£":3338,"à¸§à¹Ĥà¸¡à¸ĩ":3339,"Ġà¹ģà¸¥à¸°à¸Ķ":3340,"à¸Ńà¸¡à¸Ķ":3341,"à¸Ĥà¸ª":3342,"à¸¥à¹Ģà¸Ķ":3343,"à¸Ķà¸Īà¸²à¸ģà¸ģà¸²à¸£":3344,"à¸ĩà¸®":3345,"à¸ĺà¸Ļà¸ļ":3346,"à¸Ĺà¸³à¹Ħà¸Ķ":3347,"à¹ĥà¸Ļà¸ģà¸²à¸£à¸ķ":3348,"ÂłÂł":3349,"à¹Ħà¸§à¸£":3350,"à¸§à¸¢à¸ķ":3351,"à¸ģà¸©à¸ĵà¸°à¹Ģà¸Ľ":3352,"à¸Īà¸°à¹Ģà¸Ĥ":3353,"à¸ļà¸Ľà¸£à¸°à¸Ĺà¸²à¸Ļ":3354,"à¸§à¸Ļà¸Ļ":3355,"à¸ªà¸ĸà¸²à¸Ļà¸°":3356,"à¸Ħà¸§à¸²à¸¡à¸Ĭ":3357,"à¸ļà¸£à¸£à¸Ĺ":3358,"à¸ŀà¸Īà¸Ļ":3359,"à¸ģà¹Ģà¸ķ":3360,"à¸²à¸ªà¸Ļ":3361,"à¹Ģà¸Ŀ":3362,"à¸Ķà¹Ģà¸ģ":3363,"à¸²à¸¢à¸Ķ":3364,"à¸Ļà¸£à¸²à¸¢à¸ģà¸²à¸£":3365,"ev":3366,"Ġà¸Ľà¸£à¸°à¸ª":3367,"45":3368,"à¹ģà¸Ĺà¸£à¸ģ":3369,"à¸Ńà¸¢à¸²à¸ģ":3370,"Ġà¸Ļà¸³à¹ģà¸ªà¸Ķà¸ĩà¹Ĥà¸Ķà¸¢":3371,"à¸ªà¸²à¸ĺà¸²à¸£à¸ĵà¸£":3372,"Ġà¸īà¸ļ":3373,"à¸ļà¹Ģà¸¡":3374,"à¸ļà¹Ħà¸¡":3375,"à¸³à¸ģà¸§":3376,"à¸ģà¸Ĭà¸Ļ":3377,"à¸ģà¹Ħà¸¡":3378,"à¸¢à¸Ļà¸ģà¸²à¸£à¸ªà¸Ńà¸Ļ":3379,"à¸Ńà¸Ļà¸²à¸Ħà¸ķ":3380,"à¸Ńà¸²à¸£à¸¡à¸ĵ":3381,"à¸¥à¸¯":3382,"à¸Ľà¸ĸ":3383,"à¸ľà¸¥à¸ģà¸£à¸°à¸Ĺ":3384,"à¸Ħà¸ĭ":3385,"à¸Ńà¸«à¸¥":3386,"à¸Ĭà¸²à¸Ĭ":3387,"à¸ģà¸²à¸£à¸Ĺà¸³":3388,"à¸ģà¸ł":3389,"à¸ĩà¸Ł":3390,"à¸Ĥà¸Ńà¸ĩà¸ŀà¸£à¸°à¹Ģà¸Ī":3391,"Ġ2542":3392,"ast":3393,"à¸ļà¸Ĺà¸Ńà¸Ķ":3394,"à¸Ļà¸ªà¸³à¸Ħ":3395,"ber":3396,"à¸Ńà¹Ģà¸ŀà¸¥à¸ĩ":3397,"à¸Ļà¸ķà¸ģà¹Ģà¸ī":3398,"à¸²à¸ĩà¸¥":3399,"à¸Ķà¸ľ":3400,"à¸Ńà¸ģà¹ĥà¸«":3401,"à¹ĥà¸Ļà¸Ĺà¸²à¸ĩ":3402,"her":3403,"à¸Ńà¸Ńà¸²à¸¢":3404,"à¹Ģà¸Ĭà¸©à¸Ĳ":3405,"à¸ĺà¸£":3406,"Ġà¹Ĥà¸Ĺ":3407,"à¸²à¸ĩà¸Ĥà¸§à¸²à¸ĩ":3408,"à¸ģà¸²à¸£à¹ģà¸ļ":3409,"Ġà¹ĥà¸ļ":3410,"à¸²à¸ķà¸°à¸§":3411,"Ġà¹ģà¸¥à¸°à¸Ħ":3412,"à¸ĩà¹Ĥà¸ķ":3413,"à¸§à¸Ļà¸ª":3414,"à¸ģà¸©à¸²à¸Ħà¸§à¸²à¸¡":3415,"Ġ[":3416,"à¸Ńà¸ĩà¹Ģà¸Ĭ":3417,"à¸ĩà¸¡à¸²à¸ģ":3418,"Ġà¸Ĥà¸Ļà¸²à¸Ķ":3419,"à¹ĥà¸Ļà¸¤à¸Ķ":3420,"à¸Īà¸°à¸£":3421,"à¸Ĥà¸Ńà¸ĩà¸ļ":3422,"Ġà¸Ĺà¸£":3423,"à¸ĩà¸Ħà¹Ĥà¸Ľà¸£":3424,"Ġà¸ĸà¸Ļà¸Ļ":3425,"à¸¡à¸§à¸¢":3426,"à¸ªà¸ĩà¸Ĩ":3427,"Ġà¸Ľà¸£à¸°à¹Ģà¸łà¸Ĺ":3428,"à¸²à¸ĩà¸ģà¸§":3429,"ational":3430,"à¸ķà¸£à¸§":3431,"à¸Ķà¸Ħà¸£à¸Ńà¸ĩ":3432,"à¸Ńà¸¡à¹Ģà¸Ī":3433,"à¸ļà¸£à¸ĸ":3434,"à¹Ģà¸Ķà¸Ļ":3435,"80":3436,"à¸ļà¹Ģà¸ŀ":3437,"à¹ĥà¸Ļà¸Ńà¸Ķ":3438,"à¸¢à¹Ģà¸Ķ":3439,"Ġà¹ģà¸¥à¸°à¹Ģà¸Ĥ":3440,"à¸¡à¸§à¸¥":3441,"à¸²à¸ªà¸ķ":3442,"à¹Ģà¸ĺà¸Ńà¸ģ":3443,"Ġ2545":3444,"Ġà¹Ģà¸«à¸¡":3445,"à¸ĩà¸°":3446,"à¸ĩà¸ªà¸¡à¸²à¸Ĭ":3447,"à¸Ħà¸Ń":3448,"à¸¢à¸ļà¸£":3449,"if":3450,"à¸²à¸ĩà¸ļ":3451,"à¸ŀà¸ķ":3452,"à¹ģà¸ķà¸ģ":3453,"Ġ2540":3454,"à¸ģà¸²à¸£à¸Ĺà¸«à¸²à¸£":3455,"à¸Łà¸Ł":3456,"vers":3457,"à¸ŀà¸£à¸«à¸¡":3458,"à¸¡à¹Ģà¸«à¸ª":3459,"à¸Ļà¸ªà¸²à¸¡":3460,"à¸¡à¹ģà¸£à¸ģ":3461,"à¸²à¸Ĺà¸Ńà¸¥":3462,"Ġà¸ªà¸ķ":3463,"à¸ŀà¸ĺ":3464,"Ġ2535":3465,"per":3466,"à¸ļà¸Ńà¸£":3467,"à¹Ĥà¸¢à¸ĺ":3468,"Ġà¸¡à¸²à¸Īà¸²à¸ģ":3469,"à¸§à¸¢à¸£":3470,"Ġà¸£à¸²à¸ĩà¸§":3471,"à¸łà¸²à¸Ħà¹ĥà¸ķ":3472,"ary":3473,"à¸įà¸ŀ":3474,"Ġà¹Ĥà¸Ķà¸¢à¹Ģà¸£":3475,"à¸Ķà¹Ħà¸Ľ":3476,"à¸²à¸Ļà¸Ĺà¸²à¸ĩ":3477,"à¸¢à¸Ļà¹Ħà¸Ľ":3478,"Ġà¹Ħà¸Ĺà¸¢":3479,"à¸įà¸ģ":3480,"à¸¢à¸§à¸Ĭà¸²à¸į":3481,"à¸¡à¸ĩà¸Ħà¸¥":3482,"à¸Ļà¹Ģà¸Ķà¸Ńà¸£":3483,"à¸°à¸ŀà¸²à¸Ļ":3484,"à¹Ĥà¸«à¸¥":3485,"WE":3486,"à¸Ħà¸¥à¸Ńà¸ĩ":3487,"Ġà¸Ńà¸³à¹Ģà¸łà¸Ńà¹Ģà¸¡":3488,"Ġà¸£à¸ĸ":3489,"ear":3490,"à¸ªà¸§à¸£à¸£à¸Ħà¸ķ":3491,"ld":3492,"Ġ2539":3493,"à¸§à¸²à¸Ķ":3494,"à¸²à¹ģà¸Ļ":3495,"à¸²à¸ŀà¸£à¸°à¸¢":3496,"à¸ªà¸Ńà¸Ļ":3497,"à¸Ķà¸¡à¸²":3498,"Ġà¸Ńà¸³à¹Ģà¸łà¸Ń":3499,"Ġà¹ģà¸ªà¸Ķà¸ĩ":3500,"à¹Ģà¸ĭà¸¥":3501,"à¸ģà¸²à¸£à¸Ľ":3502,"à¸ģà¸²à¸£à¹Ģà¸Ķ":3503,"à¸ķà¸ģà¸¥":3504,"à¸²à¸ķà¸£à¸Ĳà¸²à¸Ļ":3505,"à¸Ńà¸²à¸Ļ":3506,"à¸Ĥà¸Ńà¸ĩà¸¢":3507,"Ġà¸Ľà¸£à¸°à¸¡à¸²à¸ĵ":3508,"à¸Ľà¸£à¸²à¸ģà¸ıà¸ģà¸²à¸£à¸ĵ":3509,"à¹Ħà¸«à¸Ļ":3510,"Ġà¸Ńà¸²à¸Ħà¸²à¸£":3511,"à¸²à¸§à¸Ń":3512,"Ġà¹Ģà¸Ľà¸¥":3513,"à¸£à¸²à¸¢à¸¥à¸°à¹Ģà¸Ń":3514,"à¸ļà¹Ģà¸Ħà¸£":3515,"à¸¢à¸ģà¸Ĺ":3516,"ati":3517,"à¸¢à¹ĥà¸Ļ":3518,"à¹Ģà¸©à¸ģà¸ªà¸¡":3519,"Ġà¸Īà¸Ńà¸«":3520,"à¸Īà¸°à¸¢":3521,"à¸Ĺà¸ĺà¸¨":3522,"à¹Ģà¸ĭà¸Ļ":3523,"à¸²à¸¢à¸Ħ":3524,"à¸Ľà¸£à¸°à¸ªà¸ļà¸ģà¸²à¸£à¸ĵ":3525,"à¸¨à¸²à¸Ī":3526,"à¸£à¸§à¸¡à¸ĸ":3527,"à¸´à¹ĭ":3528,"à¸²à¸ģà¸§":3529,"à¸Ħà¸§à¸²à¸¡à¹Ģà¸«":3530,"à¸²à¸§à¸«à¸Ļ":3531,"à¸£à¸²à¸Ĭà¸ªà¸³à¸Ļ":3532,"à¸Ļà¸Ĭà¸Ļ":3533,"à¸ĩà¹Ģà¸§":3534,"à¸ķà¸£à¸Ĥà¸Ńà¸ĩ":3535,"à¸ŀà¸¥à¸Ńà¸Ķ":3536,"à¸Ħà¸Ńà¸Ļà¹Ģà¸ª":3537,"à¸ķà¹ĥà¸Ī":3538,"Ġà¹Ģà¸Ńà¸Ł":3539,"à¸ĩà¹ģà¸£à¸ĩ":3540,"à¸įà¸²à¸ĵ":3541,"à¸²à¸ı":3542,"à¸£à¸©":3543,"à¸ļà¹Ģà¸ģ":3544,"à¸ļà¸ģà¸²à¸£à¸£":3545,"Ġà¹Ģà¸Ĥà¸²à¹Ģà¸Ľ":3546,"à¸ŀà¸²à¸£":3547,"à¸Ĥà¸Ńà¸ĩà¸¥":3548,"à¸¥à¸²à¸Ńà¸Ńà¸ģ":3549,"Ġà¸£à¸²à¸¢à¸ģà¸²à¸£":3550,"à¸ļà¸Ĺà¸Ħà¸§à¸²à¸¡":3551,"à¸Ńà¸Ļà¹ģà¸¥à¸°":3552,"à¹ĥà¸Ļà¸£à¸°à¸«à¸§":3553,"à¸ĩà¸ĩà¸²à¸Ļà¸ģ":3554,"à¸³à¸ķ":3555,"à¸ģà¸£à¸°à¸ļ":3556,"à¸Ļà¹Ĥà¸£à¸Ħ":3557,"à¸²à¸ļà¸£à¸¡à¸§à¸ĩà¸¨":3558,"à¸ģà¸²à¸£à¸Ĥ":3559,"à¹Ģà¸Ĺà¸§":3560,"à¸Ķà¸ģà¸²à¸£à¹ģà¸Ĥ":3561,"28":3562,"à¸ĩà¸Ĺà¸³":3563,"à¸ļà¸ģà¸²à¸£à¹Ģà¸¥":3564,"à¸Ńà¸ĩà¸ģà¸³à¸¥":3565,"à¸Ńà¸Ļà¸Ĭ":3566,"à¸§à¸²à¸ĩà¸Īà¸³à¸«à¸Ļ":3567,"21":3568,"à¹Ĳ":3569,"à¸°à¸¡":3570,"à¹ĥà¸Ļà¸ģà¸²à¸£à¸£":3571,"à¸Ńà¹ģà¸ģ":3572,"à¸²à¸Īà¸Ļà¸ĸ":3573,"à¸²à¸Ļà¸¡à¸²":3574,"à¸Ļà¹ģà¸Ĭà¸¡à¸Ľ":3575,"à¹ĥà¸Ļà¹ģà¸ķ":3576,"à¸ķà¹ģà¸¥à¸°":3577,"ous":3578,"à¸«à¸²à¸Ķ":3579,"Ġà¹ĥà¸Ļà¸Ĳà¸²à¸Ļà¸°":3580,"à¸ĵà¸²à¹Ĥà¸Ľà¸£":3581,"ory":3582,"ie":3583,"à¸±à¹ĭ":3584,"à¸Ļà¸ªà¸³à¸«à¸£":3585,"à¸Ħà¸Ńà¸£":3586,"à¸²à¸Ļà¹Ħà¸Ľ":3587,"Ġà¹Ģà¸Ķà¸Ń":3588,"à¹ģà¸Ĭ":3589,"à¸Ļà¸Ķà¸²à¸¥":3590,"ip":3591,"Ġà¹ģà¸Ľà¸¥à¸§":3592,"Ġà¸Ķà¸Ńà¸ģ":3593,"à¸Ńà¸Ļà¹Ģà¸Ľ":3594,"à¸ªà¹Ħ":3595,"Ġà¸¯à¸¥à¸¯":3596,"à¸Ħà¸§à¸²à¸¡à¸Ķ":3597,"à¸«à¸¥à¸²à¸¢à¸Ħà¸Ļ":3598,"à¹ģà¸Ľà¸ĭ":3599,"à¹Ĥà¸Ľà¹ģà¸¥à¸Ļà¸Ķ":3600,"à¸Ńà¸¢à¸Ħà¸£":3601,"à¸¡à¹Ģà¸Ķ":3602,"à¸ĭà¸²à¸Ļ":3603,"à¸Ļà¸£à¸°à¸ļà¸ļ":3604,"à¸łà¸²à¸Ħà¸ķà¸°à¸§":3605,"à¸Ľà¸£à¸°à¹Ģà¸Ĺà¸¨à¸į":3606,"à¸Ľà¸£à¸°à¸ĸ":3607,"à¸¡à¸²à¸ĸ":3608,"à¸§à¸Ħà¸£à¸²à¸§":3609,"à¹Ĥà¸Ĥà¸Ĺ":3610,"à¸ļà¸£à¸²à¸Ĭà¸ģà¸²à¸£":3611,"à¸§à¸¢à¸Ļ":3612,"Ġà¹ģà¸Ī":3613,"Ġ2005":3614,"à¸Ńà¸Ļà¹Ģà¸ª":3615,"à¸ŀà¸¥à¸²à¸Ķ":3616,"à¸Īà¸²à¸ģà¸Ń":3617,"à¸²à¸Ļà¸Ħà¸Ļ":3618,"à¹ģà¸ľà¸Ļà¸ģà¸²à¸£":3619,"à¸²à¸§à¸ª":3620,"à¸¡à¸«à¸²à¸Ĭà¸Ļ":3621,"à¸ªà¸ĸà¸²à¸Ļà¸ģà¸²à¸£à¸ĵ":3622,"à¸ģà¸²à¸£à¸Ļ":3623,"Ġà¹Ħà¸§":3624,"à¸Ļà¸Ĺà¸ļ":3625,"Ġà¹ĥà¸Ļà¸Ń":3626,"à¸Ĥà¸Ńà¸ĩà¹Ģà¸Ī":3627,"tern":3628,"48":3629,"à¸«à¸²à¸£à¸ª":3630,"à¸Ľà¸²à¸£":3631,"ry":3632,"à¸§à¸ĸ":3633,"Ġà¹Ģà¸ªà¸Ķ":3634,"à¸Ħà¸§à¸²à¸¡à¹ģà¸ķà¸ģà¸ķ":3635,"à¸ķà¸£à¸ĩà¸Ĥ":3636,"ond":3637,"à¸§à¸Ļà¸³":3638,"à¸ķà¸³à¸«à¸Ļ":3639,"à¸¢à¸ĭ":3640,"à¸Īà¸ª":3641,"à¸ĩà¹ģà¸£à¸ģà¹ĥà¸Ļ":3642,"à¹Ģà¸Ĺà¸¨à¸ģà¸²à¸¥":3643,"Ġ2543":3644,"27":3645,"à¸²à¸¢à¸Ħà¸¥":3646,"à¸²à¸Ļà¹Ģà¸Ľ":3647,"à¸Ĭà¸²à¸§à¸ļ":3648,"Ġà¹Ģà¸ĺà¸Ńà¹Ħà¸Ķ":3649,"à¸ĩà¸£à¸§à¸¡":3650,"à¹Ħà¸Ľà¸£":3651,"à¹Ģà¸Ńà¸ģà¸£à¸²à¸Ĭ":3652,"à¸ļà¸§à¸Ĭ":3653,"à¸ļà¸ļà¸£":3654,"à¹Ĥà¸¥à¸ģà¸Ĺ":3655,"à¸Ĥà¸Ńà¸ĩà¸ķà¸Ļ":3656,"à¸Ńà¸ªà¸¡":3657,"à¸Ńà¸Ļà¸¢":3658,"à¹Ģà¸Ħà¸¢à¸¡":3659,"à¹Ħà¸ĭà¸Ķ":3660,"à¸ļà¸ł":3661,"à¸¢à¸ģà¸ģ":3662,"Ġà¸ľà¸¥à¸ĩà¸²à¸Ļ":3663,"à¹Ģà¸Ĭà¸Ńà¸£":3664,"ial":3665,"à¸ģà¸Ľà¸¥":3666,"à¸ķà¸£à¸²":3667,"à¸īà¸¥à¸Ńà¸ĩ":3668,"Ġà¹Ģà¸ī":3669,"à¸ģà¸³à¸Ī":3670,"à¸ĵà¸²à¹Ĥà¸Ľà¸£à¸Ķà¹Ģà¸ģà¸¥":3671,"à¸Ńà¸Ļà¸ģà¸£":3672,"à¸²à¸Ļà¹Ģà¸ģ":3673,"à¸Ļà¸ķà¸°à¸Ľ":3674,"à¸ŀà¸£à¸°à¸£à¸²à¸Ĭà¸ŀ":3675,"à¸ķà¸£à¸Ķ":3676,"à¸¢à¸ģà¸ķ":3677,"à¸Ļà¸Ħà¸£à¸Ńà¸ĩà¸£à¸²à¸Ĭ":3678,"à¸²à¸ĺà¸²à¸£à¸ĵà¸ª":3679,"à¹Ģà¸Īà¸Ļ":3680,"à¹Ģà¸ĭà¸Ł":3681,"ĠAl":3682,"à¸¢à¸Ļà¸ģ":3683,"à¸²à¸Ńà¸²à¸§à¸²à¸ª":3684,"à¸¢à¸Ļà¹Ħà¸Ķ":3685,"à¸²à¸§à¸Ħ":3686,"26":3687,"à¹ģà¸Ńà¸Ļà¸Ķ":3688,"ind":3689,"à¸¡à¸łà¸²à¸©":3690,"Ġà¹ģà¸Ļà¸§":3691,"à¸ļà¹Ħà¸¥":3692,"oy":3693,"à¸¨à¸¥":3694,"à¸ĺà¸¢":3695,"Ġà¹ģà¸¥à¸°à¸Ĥ":3696,"à¹Ħà¸Ńà¸£":3697,"ort":3698,"à¸Ļà¸ķà¸°à¸Ľà¸²à¸Ľ":3699,"à¸¡à¸«à¸Ļ":3700,"à¸ķà¸£à¸²à¸ª":3701,"à¸Ńà¸ģà¹Ģà¸Ĥ":3702,"29":3703,"à¸ģà¹Ģà¸¡":3704,"à¸£à¸Ńà¸ĩ":3705,"à¹Ģà¸Ľà¸Ļ":3706,"à¸ķà¸£à¸²à¸ģà¸²à¸£":3707,"à¹Ĥà¸ģà¸£":3708,"à¸ĩà¸ŀà¸¥":3709,"à¸ļà¸ŀà¸¥":3710,"à¸¡à¸²à¸Ĥà¸Ńà¸ĩ":3711,"à¸²à¸ĩà¹ģà¸¥à¸°":3712,"à¸Ļà¸ķà¸Ńà¸Ļ":3713,"à¸ģà¸£à¸°à¸ª":3714,"à¸Ĺà¸Ļ":3715,"à¹ģà¸ªà¸Ķà¸ĩà¹ĥà¸«":3716,"à¹Ĥà¸¥à¸«à¸°":3717,"à¸Ĺà¸ª":3718,"à¸«à¸²":3719,"ov":3720,"à¸ģà¹ģà¸ªà¸Ķ":3721,"à¸ļà¹ģà¸¥à¸°":3722,"à¸Ĳà¸Ľà¸£à¸°à¸«à¸²à¸£":3723,"à¹Ĥà¸¥à¸§":3724,"ĠZ":3725,"à¸Ńà¸ĩà¸Ĭà¸²à¸¢":3726,"à¸£à¸£à¸ĵ":3727,"ĠSh":3728,"à¸ĩà¹ģà¸ļà¸ļ":3729,"à¸¡à¹Ģà¸¥":3730,"à¸ģà¸©à¸²à¸Ķ":3731,"à¸¡à¸Ńà¸¢":3732,"ĠAr":3733,"Ġà¸Ļà¸²à¸ĩ":3734,"à¸²à¸ĩà¹Ĥà¸Ķà¸¢":3735,"Ġà¹ģà¸¥à¸°à¸ļ":3736,"ĠPro":3737,"à¸²à¹ģà¸Ĭà¸¡à¸Ľ":3738,"à¸Īà¸²à¸£":3739,"Ġà¹ģà¸®":3740,"199":3741,"Ġà¸łà¸²à¸ŀ":3742,"à¸Ľà¸£à¸°à¸¡à¸§à¸¥":3743,"à¸Ľà¸¥à¸²à¸¢à¸Ľ":3744,"à¸¡à¸²à¹ģà¸¥":3745,"à¸Ĩà¸²à¸ķ":3746,"à¸²à¸§à¹Ħà¸Ķ":3747,"à¸Ĺà¸£à¸ĩà¹Ģà¸Ľ":3748,"à¸¢à¸ĩà¹ģà¸Ħ":3749,"à¹Ģà¸ŀà¸¥à¸ĩà¸Ļ":3750,"35":3751,"Ġà¹Ģà¸«à¸ķ":3752,"à¸Ķà¹ģà¸«":3753,"à¸ªà¸²à¸¡à¸²à¸£à¸ĸà¹ĥà¸Ĭ":3754,"à¸ģà¸£à¸§à¸²à¸¥":3755,"Ġà¸Łà¸£":3756,"à¸Ļà¸ģà¸²à¸£à¹ģà¸Ĥ":3757,"à¸ĭà¸²à¹Ģà¸ļ":3758,"à¸Īà¸ŀà¸£à¸°à¸ª":3759,"à¸¡à¸²à¹Ģà¸¥à¹Ģà¸ĭ":3760,"à¸Ńà¸Ļà¸¡à¸ģà¸£à¸²à¸Ħà¸¡":3761,"à¸Ĥà¸Ńà¸ĩà¸ģ":3762,"à¹Ģà¸ģà¸£à¸²à¸°":3763,"Ġà¸Ħà¸³à¸§":3764,"à¸²à¹Ģà¸ķ":3765,"à¸Ńà¸Ļà¸ĺ":3766,"à¸ĩà¸Īà¸²à¸ģà¸ģà¸²à¸£":3767,"Ġà¹ĥà¸Ļà¸ªà¸¡":3768,"à¸ĩà¹Ģà¸Ĺà¸ŀà¸¯":3769,"à¸ĩà¸Ħà¸ĵà¸°":3770,"Ġà¹Ĥà¸Ķà¸¢à¹Ħà¸¡":3771,"à¸Ľà¸£à¸°à¸ģà¸²à¸£":3772,"à¸Ńà¸¡à¸ŀ":3773,"à¹Ĥà¸ĭà¸Ļ":3774,"ide":3775,"à¹Ĥà¸Ľà¸£à¸Ķà¹Ģà¸ģà¸¥":3776,"à¸¡à¸«à¸²à¸ģà¸©":3777,"Ġ2538":3778,"Ġ2004":3779,"à¸Īà¸°à¸Ī":3780,"à¸Ķà¹ĥà¸Ļà¹Ĥà¸¥à¸ģ":3781,"à¸Ķà¸«à¸¥":3782,"à¸Ħà¸ģ":3783,"à¸§à¸Ļà¸ģ":3784,"Ġ2019":3785,"à¸ļà¸łà¸²à¸ŀà¸¢à¸Ļà¸ķà¸£":3786,"à¸¢à¸Ļà¸Ļ":3787,"à¸ªà¸ĩà¸Ħà¸£à¸²à¸¡à¹Ĥà¸¥à¸ģà¸Ħà¸£":3788,"à¸²à¸¢à¹Ģà¸¡":3789,"nd":3790,"à¸Ĥà¸Ńà¸ĩà¸Ľ":3791,"à¸Ļà¹ĥà¸Ĭ":3792,"à¸¡à¸ĩà¸ģ":3793,"à¸£à¸°à¸ļà¸Ńà¸ļ":3794,"Ġà¸ŀà¸§à¸ģà¹Ģà¸Ĥ":3795,"à¸§à¸£à¸£à¸ĵà¸ģà¸£à¸£à¸¡":3796,"à¸Ļà¸ķà¸ģà¸Ĥà¸Ńà¸ĩ":3797,"à¸Ńà¸ĩà¸Īà¸²à¸ģà¸¡":3798,"à¹Ģà¸Ĺà¸¨à¸ļà¸²à¸¥à¸ķà¸³à¸ļà¸¥":3799,"à¸ªà¸«à¸£à¸²à¸Ĭà¸Ńà¸²à¸ĵà¸²à¸Ī":3800,"à¸²à¸ĩà¸Ĭà¸²à¸ķ":3801,"à¸²à¸ªà¸£":3802,"à¸¨à¸¡":3803,"à¸Ńà¸ķà¸²à¸¡":3804,"à¹Ħà¸Ľà¹ģà¸¥":3805,"à¸Ļà¹ĥà¸Ļà¸Ĺ":3806,"à¸Ļà¸Ńà¸Ķ":3807,"à¹ĥà¸Ļà¸«à¸¡":3808,"à¸Ļà¸ģà¸³à¹Ģà¸Ļ":3809,"à¸¡à¸°à¹Ģà¸£":3810,"à¸³à¹Ģà¸ĩ":3811,"à¸£à¸§à¸ļà¸£à¸§à¸¡":3812,"à¸²à¸ģà¸¢":3813,"à¸«à¸¥à¸§à¸ĩà¸ŀ":3814,"à¸Ńà¸ĩà¸«à¸¡à¸²à¸¢":3815,"Ġà¹ģà¸¥à¸°à¹ĥà¸Ĭ":3816,"à¸£à¸²à¸Ĭà¸ĺà¸²à¸Ļ":3817,"ĠCom":3818,"à¸Ļà¸Ľà¸£à¸°à¸Īà¸³":3819,"à¸Ķà¹Ģà¸Īà¸Ļ":3820,"à¸¡à¸«à¸²à¸Ķà¹Ħà¸Ĺà¸¢":3821,"à¸ĩà¹Ģà¸Ħà¸£":3822,"à¸Ľà¸Ļ":3823,"à¸²à¸Ļà¸²à¸Ĭà¸²à¸ķ":3824,"à¹Ģà¸Ķà¸¥":3825,"à¹Ħà¸Ľà¸Ńà¸¢":3826,"à¹ģà¸Ļà¸ģ":3827,"à¸´\"":3828,"à¸§à¸²à¸ª":3829,"à¸Ľà¸£à¸°à¸ģà¸²à¸¨à¸§":3830,"à¹Ģà¸Ļà¸Ĭ":3831,"à¸ģà¸²à¹ĥà¸ķ":3832,"à¸ĩà¹ĥà¸Ļà¸ģà¸²à¸£":3833,"à¸Ľà¸£à¸°à¸ªà¸²à¸Ļ":3834,"à¸ĩà¸Ľà¸£":3835,"à¹Ģà¸§à¸Ĭ":3836,"à¹Ģà¸Ħà¸²à¸£":3837,"à¸«à¸²à¸ĩ":3838,"à¸ŀà¸Ńà¹ĥà¸Ī":3839,"à¸ľà¸¥à¸ķ":3840,"à¸²à¹ģà¸¡":3841,"à¹Ģà¸Ĺà¸Ļà¹Ģà¸¡":3842,"à¸ģà¸Ńà¸ĩà¸ģà¸³à¸¥":3843,"à¹ģà¸¥à¸°à¸Ĭ":3844,"à¸²à¸Ļà¸Ķà¸Ńà¸¥à¸¥à¸²à¸£":3845,"à¸Ĺà¸¢à¸²à¸Ļà¹ģà¸«":3846,"à¸ģà¸Ľà¸£":3847,"à¸Ĺà¸²à¸ĩà¸ķà¸Ńà¸Ļ":3848,"Ġà¸ģà¸²à¸£à¸Ĺ":3849,"Ġ70":3850,"à¸ĭà¸Ńà¸Ł":3851,"à¸¢à¸Ļà¸Ī":3852,"Ġà¹Ģà¸Ĥà¸²à¸¢":3853,"à¸Ľà¸£à¸°à¹Ģà¸Ķ":3854,"à¸ļà¸£à¸£à¸ĵ":3855,"à¸¡à¸²à¸Ĺ":3856,"à¸Ńà¸¡à¸£":3857,"à¸²à¸ĩà¹Ģà¸¡":3858,"à¸²à¹Ĥà¸¡":3859,"à¸Ĳà¸Ń":3860,"à¹Ħà¸Ľà¹Ħà¸Ķ":3861,"à¸ªà¸£à¸²à¹Ģà¸Ńà¸¥":3862,"Ġà¸ŀà¸£à¸£à¸©à¸²":3863,"à¹Ħà¸Ľà¹Ģà¸Ľ":3864,"à¸¡à¹Ģà¸ŀ":3865,"à¸Ńà¸ĩà¹Ģà¸ª":3866,"à¸²à¸ĩà¹Ħà¸£":3867,"à¸Ļà¹Ģà¸ŀà¸£à¸²à¸°":3868,"à¸ģà¸ªà¸²à¸§":3869,"à¸£à¸ĵà¸°":3870,"à¸Ķà¸ĩà¸²à¸Ļ":3871,"Ġà¹ģà¸ĭ":3872,"à¸Ķà¹Ģà¸Ĺ":3873,"Ġà¸ªà¸Ļà¸²à¸¡":3874,"à¸¨à¹Ģà¸«à¸Ļ":3875,"à¸ģà¸ĭà¸²à¸Ļ":3876,"70":3877,"à¸ĩà¹Ĩ":3878,"à¸Ļà¸Ħà¸Ļà¸Ĺ":3879,"à¸§à¸²à¸Ļ":3880,"Ġ35":3881,"à¸ģà¸¤à¸Ķ":3882,"à¸ķà¹Ħà¸Ķ":3883,"à¹ĥà¸Ļà¸łà¸²à¸ŀà¸¢à¸Ļà¸ķà¸£":3884,"à¸ģà¸©à¸ĵà¸°à¸Ĺ":3885,"à¸¢à¸Ńà¸Ķà¸Ĥà¸²à¸¢":3886,"à¸Ļà¹Ħà¸«à¸§":3887,"à¸Ķà¹ģà¸£à¸ģ":3888,"Ġà¸ªà¸¢à¸²à¸¡":3889,"à¹Ģà¸Ńà¸ģà¸Ĭà¸Ļ":3890,"ith":3891,"à¸Ļà¸Ķà¸£":3892,"à¸ļà¸²à¸ĩà¸Ńà¸¢":3893,"à¸įà¸įà¸²à¸ģ":3894,"à¸Ĥà¸Ńà¸ĩà¸ģà¸¥":3895,"Ġà¹ģà¸¥à¸°à¸ģà¸¥":3896,"255":3897,"Ġà¸Ħà¸Ļà¸Ĺ":3898,"à¸Ĺà¸¤à¸©à¸İ":3899,"Ġre":3900,"à¸Ľà¸£à¸°à¸ģà¸§à¸Ķ":3901,"à¸Ħà¸Ńà¸¢":3902,"à¸Ńà¹Ģà¸ŀà¸¥":3903,"à¸ļà¸ªà¹Ĥà¸¡à¸ªà¸£":3904,"à¸Ļà¹Ģà¸ģà¸¡":3905,"à¸¢à¸ĩà¹Ģà¸Ľ":3906,"à¸Ķà¸¢à¸Ńà¸Ķ":3907,"à¸Ķà¸³à¸£":3908,"à¸ļà¸ļà¸Ĺà¹Ģà¸Ľ":3909,"à¸²à¸ĩà¸ªà¸£à¸£à¸Ħ":3910,"ai":3911,"Ġà¸ªà¸§":3912,"à¸¡à¹Ģà¸Ń":3913,"à¸ŀà¸Ļà¸¡":3914,"à¹ģà¸¥à¸°à¹Ħà¸¡":3915,"à¸§à¸ĩà¹ģà¸£à¸ģ":3916,"Ġ2000":3917,"Ġà¸ļà¸²à¸£":3918,"Ġà¸ģà¸£à¸°à¸Ĺà¸£à¸§à¸ĩ":3919,"à¸£à¸°à¸¥":3920,"à¸ŀà¸Ļà¸ĺ":3921,"à¸Ńà¸ĩà¸ģà¸¥":3922,"à¸įà¸«à¸²":3923,"à¸Ńà¹Ģà¸Ĭ":3924,"à¸³à¹ģà¸Ĥ":3925,"à¹Ģà¸¡à¸Ļà¸ķ":3926,"à¸²à¸ķà¸²à¸¡":3927,"Ġ190":3928,"à¸Ĭà¸Ļà¸Ļ":3929,"à¸²à¸Ĥà¸²à¸§":3930,"à¸ļà¸Ħà¸³":3931,"à¹ģà¸¥à¸°à¸ģ":3932,"à¸Ļà¸Ńà¸²à¸Ī":3933,"à¸Ńà¸¡à¸²à¹Ģà¸¡":3934,"ward":3935,"Ġfor":3936,"à¹Ģà¸ªà¸Ļà¸Ńà¸Ĭ":3937,"à¸ĺà¸£à¸£à¸¡à¸£à¸²à¸Ĭ":3938,"à¸²à¸ģà¸£à¸¡":3939,"à¸¢à¸ĩà¸Ħ":3940,"à¹Ģà¸®à¸Ļà¸£":3941,"à¸ģà¸ļà¸ı":3942,"à¹Ħà¸ª":3943,"à¸ļà¸£à¸£à¸¢":3944,"à¸²à¸Ļà¸ļ":3945,"à¸ĩà¸Ħà¸²à¸£":3946,"Ġà¹ĥà¸Ļà¸Ļ":3947,"à¹Ģà¸Ńà¸ģà¸ĭ":3948,"à¸ªà¸ĩà¸ļ":3949,"Ġà¹ģà¸Ĥ":3950,"à¸ŀà¸£à¸°à¹Ģà¸ģ":3951,"Ġà¹ģà¸¥à¸°à¸¥":3952,"à¸£à¸²à¸©à¸İà¸£":3953,"à¸Ĥà¸Ńà¸ĩà¹Ģà¸¡":3954,"à¸Ńà¸ŀà¸¢à¸ŀ":3955,"à¸ªà¸¡à¸£à¸ª":3956,"à¸Ńà¸ļà¸Ħà¸£":3957,"à¸ļà¸ģà¸²à¸£à¸Ī":3958,"à¸¥à¸°à¸¥à¸²à¸¢":3959,"à¸ģà¸Īà¸²à¸ģ":3960,"à¸Ńà¸ĩà¹Ģà¸Ĥ":3961,"à¸Ńà¸ĩà¸Ľà¸ı":3962,"à¸ļà¸Ħà¸§à¸²à¸¡à¸£":3963,"à¸ļà¹Ģà¸Ń":3964,"Ġà¸ªà¸ĸà¸²à¸ļ":3965,"à¸Ńà¹Ģà¸¢":3966,"à¸Ĺà¸³à¸£":3967,"à¸§à¸¢à¸Ĭ":3968,"à¹Ĥà¸Īà¸£":3969,"à¸Ķà¹Ģà¸ª":3970,"à¸Ńà¸²à¸Īà¸¡":3971,"à¸ľà¸¥à¸Ĺ":3972,"à¸¢à¸Ļà¸ļà¸Ĺ":3973,"Ã©":3974,"à¸²à¸¡à¸«à¸²à¸§":3975,"à¸Ļà¸Ĺà¸£à¸ĩ":3976,"ice":3977,"à¸²à¸Ľà¸ı":3978,"à¸ģà¸£à¸Ĺ":3979,"orld":3980,"à¸įà¸įà¸²à¹Ĥà¸Ĺ":3981,"à¹ģà¸ģà¸£à¸Ļà¸Ķ":3982,"à¸Ķà¸«à¸¡à¸²à¸¢":3983,"Ġà¸ªà¸ģ":3984,"à¸²à¸«à¸¥à¸§à¸ĩ":3985,"à¸ķà¸Ńà¸Ļà¸Ĺ":3986,"à¹ģà¸¥à¸°à¸Ĥ":3987,"Ġà¸ŀà¸ļ":3988,"à¸¥à¸Ńà¸¢":3989,"à¸Ķà¹ĥà¸«à¸¡":3990,"à¸¢à¸Ļà¸Ń":3991,"à¹Ħà¸Ĥà¸¡":3992,"à¸ļà¸£à¸£à¸¢à¸²à¸ģà¸²à¸¨":3993,"à¸Ńà¸ĩà¸Ł":3994,"à¸Ĥà¸Ńà¸ĩà¸ªà¸«à¸£":3995,"à¸³à¸ļà¸¥":3996,"à¸ķà¸¡":3997,"Ġà¹ģà¸Ł":3998,"à¹ĥà¸Ļà¸ģà¸²à¸£à¸Ī":3999,"Ġà¸Īà¸°à¹Ħà¸Ķ":4000,"à¸Ńà¸Ļà¹Ģà¸¡à¸©à¸²à¸¢à¸Ļ":4001,"à¸Ńà¸Ļà¸ŀà¸¤à¸©à¸łà¸²à¸Ħà¸¡":4002,"à¸³à¸ŀ":4003,"à¸¡à¹ĥà¸Ļ":4004,"Ġà¹Ĥà¸Ķà¸¢à¸ľ":4005,"amp":4006,"à¸Ĺà¸¢à¸²à¹Ģà¸Ĥà¸ķ":4007,"Ġà¸ķà¸²à¸£à¸²à¸ĩà¸ģ":4008,"iz":4009,"à¸ļà¸£à¸£à¸ŀ":4010,"à¸ķà¹Ģà¸Ľ":4011,"à¸Ĥà¸Ńà¸ĩà¹Ģà¸£":4012,"à¸ģà¸©à¸°":4013,"à¸Ńà¸ĩà¸ģà¸ĩ":4014,"à¹Ĥà¸£à¸°":4015,"à¸Ħà¸Ļà¹ģà¸£à¸ģ":4016,"à¸«à¸¥à¸Ńà¸Ķà¹Ģà¸¥":4017,"Ġà¸§à¸ĩà¸¨":4018,"à¸¥à¸ĩà¸Ļà¸²à¸¡":4019,"age":4020,"à¸Ķà¹Ģà¸«à¸ķ":4021,"à¹ģà¸¥à¸°à¸¥":4022,"à¸Īà¸²à¸ģà¸ª":4023,"à¸ªà¸°à¸ŀà¸²à¸Ļ":4024,"Ġà¹Ģà¸Ħà¸¢":4025,"à¸Ľà¸£à¸¡":4026,"à¸ģà¸£à¸Ńà¸ļ":4027,"à¸Ħà¸§à¸²à¸¡à¹Ģà¸Ĥ":4028,"Ġà¹Ĥà¸Ķà¸¢à¸ķ":4029,"à¸Ľà¸¢":4030,"à¸£à¸²à¸Ĭà¸¢":4031,"à¸Ħà¸Ļà¹Ħà¸Ĥ":4032,"à¸Ļà¸ķà¸³à¹ģà¸«à¸Ļ":4033,"à¸ģà¸³à¸«à¸Ļà¸Ķà¹ĥà¸«":4034,"à¸ģà¸£à¸Ķ":4035,"à¸ªà¸£à¸ĵ":4036,"à¸Ļà¹Ģà¸§":4037,"à¸Ļà¸ªà¸²à¸£":4038,"à¸įà¸Ĭà¸²à¸ķ":4039,"Ġà¹Ĥà¸®":4040,"à¹ģà¸Ĥà¸§à¸ĩ":4041,"iss":4042,"à¸Ļà¸ķà¸£à¸²à¸¢":4043,"à¹Ĥà¸Ĺà¸£à¸¨":4044,"à¸ģà¹Ħà¸§":4045,"à¸Ħà¸ª":4046,"à¹ģà¸¥à¸°à¸ĸ":4047,"à¸Ħà¸§à¸²à¸¡à¸Ļ":4048,"à¹Ģà¸ľà¸Ĭ":4049,"à¸ļà¸Ľà¸£à¸°à¹Ģà¸Ĺà¸¨":4050,"à¸ģà¸²à¹Ģà¸«à¸Ļ":4051,"à¸¢à¸ĩà¸£":4052,"à¸Ńà¸Ļà¸ŀà¸¤à¸¨à¸Ī":4053,"à¸Ĥà¸Ńà¸ĩà¸ĭ":4054,"Ġà¸Ķà¸²à¸§":4055,"à¸Ļà¹Ĥà¸ķ":4056,"à¸Ļà¸Ķà¸²":4057,"à¸Īà¸Ńà¸«":4058,"à¸Ńà¸ªà¸ķ":4059,"Ġ244":4060,"à¸«à¸¥à¸²à¸Ķ":4061,"Ġà¹ģà¸¥à¸°à¹ĥà¸«":4062,"ove":4063,"à¸§à¸¡à¸ģà¸²à¸£à¹ģà¸Ĥ":4064,"à¹Ĥà¸£à¸ĩà¸ĩà¸²à¸Ļ":4065,"à¸ĩà¹ģà¸£à¸ģà¸Ĺ":4066,"à¸²à¸ªà¸²à¸£":4067,"Ġà¸Ļà¸Ħà¸£":4068,"à¸Ķà¸ªà¸Ńà¸Ļ":4069,"à¸Ńà¸ĩà¸Ĭà¸Ļà¸°à¹Ģà¸¥":4070,"à¸Ļà¸ªà¸²à¸¢":4071,"à¸Ĥà¸Ń":4072,"à¸ĩà¸Ŀ":4073,"à¸ļà¸Ļà¸ŀ":4074,"à¸Ħà¸§à¸²à¸¡à¸ĸ":4075,"à¸Ļà¸£à¸²à¸ĩà¸§":4076,"Ġà¹Ĥà¸Ķà¸¢à¹ĥà¸«":4077,"à¸Ńà¸¢à¸ª":4078,"à¸¥à¸°à¸ķ":4079,"à¸ªà¸Ļà¸ĺ":4080,"à¸ļà¹Ģà¸Ļ":4081,"ug":4082,"à¸¨à¸Ĺà¸²à¸ĩ":4083,"ont":4084,"à¸¡à¸²à¸£à¸Ķà¸²":4085,"aw":4086,"à¸£à¸©à¸°":4087,"hn":4088,"à¸²à¸Ĭà¸²à¸§":4089,"à¹Ģà¸Ĥà¸¡à¸£":4090,"Ġde":4091,"à¸²à¸ŀà¸£à¸£à¸Ħ":4092,"à¸Ķà¸ŀà¸£à¸£à¸Ħ":4093,"à¹Ĥà¸£à¸ĩà¹ģà¸£à¸¡":4094,"idae":4095,"à¸Ńà¸Ļà¸³":4096,"à¹Ģà¸§à¸¥à¸²à¸Ĺ":4097,"à¸ªà¸Ńà¸Ķ":4098,"à¸Ħà¸²":4099,"à¸¢à¸£à¸²à¸Ĭ":4100,"à¸Ļà¸²à¸¡à¸§":4101,"à¸Ļà¸«à¸¥à¸²à¸¢":4102,"à¹Ĥà¸«":4103,"à¸£à¸ŀ":4104,"à¸Īà¸°à¸Ńà¸¢":4105,"Ġà¸Ńà¸²à¸¢":4106,"à¸²à¸¢à¸¡à¸²à¹Ģà¸Ľ":4107,"à¸«à¸Ļà¸²à¹ģà¸Ļ":4108,"à¸Īà¸ŀà¸£à¸°à¸ŀ":4109,"à¸Ļà¹Ħà¸Ĺà¸¢":4110,"à¸¨à¹ĥà¸ķ":4111,"ĠWWE":4112,"Ġà¸Īà¸°à¸ķ":4113,"Ġ2541":4114,"ore":4115,"à¸ģà¸¥à¸²à¸ĩà¹Ģà¸¡":4116,"à¸¢à¸ĩà¸£à¸²à¸¢":4117,"Ġ1990":4118,"Ġà¸Ķà¸¢":4119,"à¸Ļà¹Ģà¸«à¸¥":4120,"à¸Ļà¸īà¸ļ":4121,"à¸²à¸Ľà¸¥":4122,"à¸²à¸Ļà¸ľ":4123,"à¸ļà¸²à¸ģ":4124,"à¸Ľà¸£à¸°à¸ģà¸Ńà¸ļà¸ģ":4125,"à¸²à¸Ľà¸£à¸°à¸Īà¸³":4126,"à¸§à¹ĥà¸«":4127,"à¸Ķà¹Ģà¸Ĥ":4128,"à¸ªà¹Ĥà¸ģ":4129,"Ġà¸Ħà¸°à¹ģà¸Ļà¸Ļ":4130,"à¸§à¹Ģà¸¥à¸Ĥ":4131,"Ġà¸ŀà¸£à¸°à¸Ļà¸²à¸ĩ":4132,"à¹Ĥà¸ĭà¸¥":4133,"à¸ĩà¸§à¸ĩ":4134,"à¸²à¸ªà¸ª":4135,"à¸Ļà¸Ħà¸£à¸¨à¸£":4136,"à¸²à¸Ļà¹Ģà¸£":4137,"à¸¡à¹ĥà¸«":4138,"Ġà¸Īà¸°à¹Ģà¸Ľ":4139,"à¸ĩà¹Ģà¸ķ":4140,"à¸¢à¸²à¸łà¸£à¸ĵ":4141,"à¸Ľà¸°":4142,"à¹ĥà¸Ļà¸£à¸°à¸ļà¸ļ":4143,"à¹Ĥà¸ŀà¸¥":4144,"à¸²à¸ļà¸Ĺ":4145,"Ġà¸¢à¸²à¸§":4146,"à¹Ģà¸«à¸§":4147,"Ġà¹Ĥà¸Ķà¸¢à¸ª":4148,"à¸Ķà¸²à¸§à¸Ļ":4149,"à¸ķà¸ľ":4150,"Ġà¸ªà¸²à¸Ĥà¸²à¸§":4151,"à¸Ĭà¸Ĺà¸²à¸¢à¸²à¸Ĺ":4152,"Ġà¸ģà¸²à¸£à¸ª":4153,"Ġà¹ģà¸¥à¸°à¹Ģà¸ŀ":4154,"à¹Ħà¸Ľà¸ģ":4155,"à¸īà¸¥":4156,"à¸Ħà¸Ĭ":4157,"à¸łà¸²à¸ŀà¸Ĥà¸Ńà¸ĩ":4158,"ock":4159,"à¸§à¹Ģà¸¥":4160,"à¸²à¸ĺà¸£à¸£à¸¡":4161,"à¸²à¸Ľà¸£à¸°à¸¡à¸²à¸ĵ":4162,"à¸«à¸¡à¸§à¸Ķ":4163,"à¹ģà¸ļà¸Ħ":4164,"Ġà¹ģà¸¥à¸°à¸«à¸¥":4165,"Ġà¸ªà¸²à¸£":4166,"à¸¡à¸ģà¸²à¸£":4167,"à¸Ķà¸Ńà¸Ńà¸ģ":4168,"à¹ģà¸£à¸ĩà¸ĩà¸²à¸Ļ":4169,"à¸Īà¸³à¹ģà¸Ļà¸ģ":4170,"Ġà¹Ĥà¸Ĭ":4171,"à¸¢à¸¢à¸¨":4172,"à¸Ķà¹Ĥà¸Ķà¸¢":4173,"à¸Ķà¸ģà¸²à¸£à¸Ĺ":4174,"à¸Ńà¸¡à¸¡":4175,"Ġà¹ģà¸ģà¸£":4176,"à¸¢à¸Ĥ":4177,"à¸Ľà¸£à¸²à¸ģà¸²à¸£":4178,"à¸ļà¹Ģà¸Ľà¸¥":4179,"à¹ģà¸¥à¸°à¸ļ":4180,"à¸ĩà¸Īà¸°à¸¡":4181,"à¹Ģà¸¢à¸ĭ":4182,"Ġ90":4183,"à¸ķà¸£à¸ģà¸£à¸£à¸¡":4184,"Ġ2537":4185,"à¸ŀà¸¥à¹Ģà¸£":4186,"Ġà¹Ĥà¸Ķ":4187,"à¸Ļà¸ģà¸²à¸£à¸Ĺ":4188,"à¸ŀà¸£à¸°à¹Ĥà¸Ńà¸£à¸ª":4189,"à¸Ĺà¸²à¸ĩà¹Ģà¸ŀà¸¨":4190,"à¸²à¸įà¸Īà¸Ļ":4191,"à¸Ļà¸«à¸¡à¸²à¸¢à¹Ģà¸¥à¸Ĥ":4192,"à¸Ńà¸¡à¸Ļ":4193,"à¸¡à¸ŀà¸£":4194,"à¸Ĭà¸ģà¸²à¸¥":4195,"à¸Ĳà¸²à¸Ļà¸°à¹Ģà¸Ľ":4196,"à¸Ļà¹Ħà¸§":4197,"à¸¡à¸Ŀ":4198,"ark":4199,"à¸Īà¸Ńà¸£":4200,"à¸ļà¹Ģà¸ĩ":4201,"à¸Ľà¸¥à¸²":4202,"à¸¨à¸ģ":4203,"à¸¢à¸ĩà¸Ĥà¸Ńà¸ĩ":4204,"à¹ĥà¸Ļà¸ģà¸²à¸£à¸ª":4205,"à¹Ģà¸Ĺà¸£":4206,"Ġà¸¨à¸²à¸¥":4207,"Ġà¸ģà¸²à¸£à¸ķ":4208,"à¹Ģà¸¥à¸Ĥà¸²à¸ĺ":4209,"à¸Ńà¸Ļà¸ĭ":4210,"à¸Īà¸³à¸¥à¸Ńà¸ĩ":4211,"à¹Ģà¸§à¸Ļ":4212,"à¸Ńà¸ķà¹ģà¸¥à¸Ļà¸Ķ":4213,"à¸ĩà¸ķà¸°à¸§":4214,"à¸ļà¸ªà¸¡":4215,"à¸²à¸ĩà¸ģà¸²à¸£":4216,"Ġà¸«à¸¥à¸²à¸¢":4217,"à¸ŀà¸£à¸°à¸ļ":4218,"à¸ģà¸Ĺà¸³à¸¥à¸²à¸¢":4219,"Ġst":4220,"à¹ģà¸ªà¸Ķà¸ĩà¸§":4221,"und":4222,"90":4223,"me":4224,"à¹Ģà¸Īà¸Ķ":4225,"à¸ģà¹ĥà¸«":4226,"à¸ªà¸Ħ":4227,"à¸Ńà¸Ńà¸ģà¹Ģà¸ª":4228,"à¹Ģà¸Ńà¸£":4229,"à¸²à¸Īà¸Ńà¸¡":4230,"à¸¢à¸ĩà¸Ī":4231,"à¸Īà¸°à¸Ĺà¸³":4232,"à¸Ńà¸ĩà¸ªà¸²à¸§":4233,"à¸Ńà¸®":4234,"à¸ĩà¸Ĺà¸«à¸²à¸£":4235,"à¸Ńà¸Ļà¸ģà¸£à¸ģà¸İà¸²à¸Ħà¸¡":4236,"à¸²à¸¡à¸§":4237,"à¸Ńà¸ķà¸ģà¸¥":4238,"à¸ģà¸Ĺà¸£à¸Ńà¸Ļ":4239,"à¹Ĥà¸¡à¹Ģà¸¥à¸ģ":4240,"à¸ļà¸Ńà¸ģà¸§":4241,"à¹ĥà¸Ļà¸¡":4242,"à¸Ļà¸ŀà¸£":4243,"à¹Ħà¸«":4244,"à¸ķà¸ļà¸Ńà¸¥à¹Ĥà¸¥à¸ģ":4245,"com":4246,"à¸³à¹Ģà¸ŀ":4247,"ies":4248,"à¸§à¸Ľà¸£à¸°à¹Ģà¸Ĺà¸¨":4249,"ence":4250,"Ġà¹ģà¸¥à¸°à¸«":4251,"à¸Ľà¸£à¸²à¸¡":4252,"à¸Īà¸²à¸Ħ":4253,"à¸ļà¸ģà¸²à¸£à¹ģà¸ķ":4254,"à¹Ģà¸Ĥà¸²à¹Ģà¸Ľ":4255,"à¹ĥà¸Ļà¸§à¸ĩ":4256,"à¸ģà¸©à¸²à¸ª":4257,"à¸Ļà¸Īà¸°à¸¡":4258,"à¸ģà¹Ģà¸ļ":4259,"à¹Ģà¸Ļà¹Ģà¸ĺà¸Ńà¸£":4260,"à¸²à¸ļà¸Ķ":4261,"Ġà¸Ļà¸Ńà¸ģà¸Īà¸²à¸ģ":4262,"à¸Ħà¸¡à¸Ļà¸²à¸Ħà¸¡":4263,"à¹Ħà¸«à¸¡":4264,"à¹ĥà¸Ļà¸ĭ":4265,"à¸Ļà¹Ĥà¸¢à¸ļà¸²à¸¢":4266,"à¸ķà¹Ĥà¸Ļà¸¡":4267,"à¹Ħà¸Łà¸¥":4268,"à¸Ļà¸Ħà¸£à¸Ńà¸ĩà¸£à¸²à¸Ĭà¸¢":4269,"à¸Ħà¸£à¸Ńà¸ļà¸Ħà¸¥":4270,"à¹Ģà¸Ĭà¸ªà¹Ģà¸ķà¸Ńà¸£":4271,"Ġà¸ģà¸²à¸£à¸Ī":4272,"à¸Ļà¹ĥ":4273,"Ġà¸Ńà¸°":4274,"Ġà¹ģà¸¥à¸°à¸ªà¸²à¸¡à¸²à¸£à¸ĸ":4275,"Ġà¸ļà¸²à¸ĩà¸Ħà¸£":4276,"ss":4277,"à¸¢à¸ĩà¸¥":4278,"à¸ļà¸²à¸Ķà¹Ģà¸Ī":4279,"à¸¢à¹ģà¸«":4280,"ase":4281,"à¸²à¹ģà¸ķ":4282,"à¹Ħà¸Ĭ":4283,"à¸ģà¹Ģà¸Ĭ":4284,"à¸Ħà¸²à¸¡":4285,"à¸ŀà¸£à¸°à¸ļà¸£à¸¡":4286,"Ġà¹ĥà¸Ļà¸¢":4287,"à¸Ļà¸Ķà¸²à¸¥à¹ĥà¸Ī":4288,"à¸±à¹Ĭ":4289,"à¸Ľà¸ģà¸Ľ":4290,"à¹ĥà¸Ļà¸£à¸°à¸¢à¸°":4291,"à¸²à¸ģà¸£à¸£à¸¡":4292,"à¸ķà¸Ķ":4293,"à¸Ļà¸ģà¸²à¸£à¸¨":4294,"à¸¢à¸ĺà¸£à¸£à¸¡à¸¨à¸²à¸ªà¸ķà¸£":4295,"iv":4296,"à¸Ĺà¸£à¸ĩà¸¡":4297,"Ġ2534":4298,"à¸ģà¸²à¸Ļ":4299,"à¹Ħà¸Ĺà¸£":4300,"à¸ĩà¹ģà¸ģà¸£":4301,"Ġà¸Ħà¸§":4302,"à¸ļà¸£à¸Ńà¸ļ":4303,"Ġà¹Ģà¸ģà¸²à¸°":4304,"à¸ģà¹Ģà¸ģà¸Ńà¸£":4305,"à¸«à¸Ľà¸£à¸°à¸Ĭà¸²à¸Ĭà¸²à¸ķ":4306,"à¸¡à¹Ģà¸£":4307,"à¸ģà¸©à¸ĵà¸°à¸Ħà¸¥":4308,"à¸Ļà¸¥à¸ĩ":4309,"à¸Ńà¸ĩà¸¡à¸²à¸Īà¸²à¸ģ":4310,"à¸¥à¸ŀ":4311,"à¸ģà¸©à¸²à¸§":4312,"à¸¢à¸ļà¹Ģà¸£":4313,"à¸Ĺà¸ģ":4314,"à¸¡à¸Ńà¸£":4315,"âĢĻ":4316,"à¸¡à¸Ńà¸ĩà¹Ģà¸«":4317,"à¹ģà¸ĩ":4318,"à¸Ńà¸ĩà¸Ļà¸³":4319,"à¹Ĥà¸¡à¸Ļ":4320,"à¸²à¸¢à¸«à¸Ļ":4321,"à¸łà¸²à¸Ħà¹Ģà¸«à¸Ļ":4322,"à¸¡à¸Ńà¸Ļ":4323,"à¸¡à¹ģà¸¡":4324,"man":4325,"à¸£à¸§à¸¡à¸ķ":4326,"à¸Ļà¹Ħà¸Ľà¸ķà¸²à¸¡":4327,"Ġà¹Ģà¸Ĥà¸²à¸ģ":4328,"à¸²à¸£à¸°à¸«à¸§":4329,"à¸Ńà¸²à¸ª":4330,"à¹ĥà¸Ķà¹Ĩ":4331,"à¸¢à¸§à¸ļ":4332,"Ġà¸ŀà¸£à¸°à¸ŀ":4333,"à¸²à¸Ľà¸£à¸°à¹Ģà¸Ĺà¸¨":4334,"à¹ģà¸«à¸¥à¸¡":4335,"à¸²à¸Ļà¸ķà¸°à¸§":4336,"à¸£à¸«":4337,"à¹ĥà¸Ļà¸£à¸Ńà¸ļ":4338,"à¸ªà¹Ĥà¸ķ":4339,"à¸ģà¸²à¸£à¹Ģà¸ģ":4340,"à¸²à¸«à¸²à¸ģ":4341,"à¸²à¸¨à¸²à¸¥":4342,"à¸Ħà¸£à¸ļ":4343,"à¸ļà¸ģà¸²à¸£à¸ŀ":4344,"à¸²à¹Ģà¸ļ":4345,"à¸Ĥà¸Ńà¸ĩà¸ļà¸£":4346,"à¸Ńà¸Ļà¹Ħà¸Ĥ":4347,"à¹Ģà¸Īà¸²à¸°":4348,"à¸Ĺà¸£à¸²à¸¢":4349,"ah":4350,"Ġ32":4351,"à¹ĥà¸Ļà¸«à¸¥à¸²à¸¢":4352,"ric":4353,"à¸Ĭà¸²à¸§à¸Ī":4354,"Ġ500":4355,"Ġà¸ŀà¸£à¸°à¸ļà¸£à¸¡à¸£à¸²à¸Ĭ":4356,"à¸¡à¸ŀà¸¥":4357,"à¸Ľà¸£à¸°à¸«à¸¥à¸²à¸Ķ":4358,"à¸Ļà¸ģà¸©":4359,"à¸łà¸²":4360,"à¸Ľà¹Ģà¸Ľ":4361,"à¸°à¸ªà¸¡":4362,"à¸ŀà¸į":4363,"à¹ģà¸¢à¸ģà¸ķ":4364,"à¸ķà¸ļ":4365,"à¸¢à¸ĩà¸ŀ":4366,"à¸ĩà¹Ģà¸Ĥà¸ķà¸ģà¸²à¸£à¸Ľà¸ģà¸Ħà¸£à¸Ńà¸ĩ":4367,"à¸¢à¸ĩà¸Ĥ":4368,"à¸Ļà¸Ķà¸²à¸§":4369,"à¹ĥà¸Ļà¸ķà¸Ńà¸Ļ":4370,"à¸Ľà¸¥à¸Ķà¸Ľà¸¥":4371,"à¸Ļà¹Ģà¸ĩ":4372,"à¸Ķà¹Ģà¸ŀ":4373,"à¸ĺà¸Ĺ":4374,"à¸¡à¹Ģà¸¡":4375,"Ġà¹ĥà¸Ļà¸£à¸°à¸«à¸§":4376,"à¸ģà¸£à¸²à¸Ļ":4377,"mer":4378,"à¸ĩà¸£à¸²à¸ĩà¸§":4379,"à¸Ńà¹Ħà¸Ĺà¸¢":4380,"à¸«à¸¥à¸²à¸ļ":4381,"à¸¢à¸¡à¸«":4382,"à¸Ńà¸ĩà¸ģà¸²à¸£à¹ĥà¸«":4383,"à¸ļà¸ĩà¸²à¸Ļ":4384,"à¹ģà¸Ńà¸ļ":4385,"à¸ŀà¸£à¸£à¸Ħà¸ģà¸²à¸£à¹Ģà¸¡":4386,"à¸Īà¸°à¸ŀ":4387,"Ġà¸ģà¸²à¸£à¹ĥà¸Ĭ":4388,"à¸ģà¸©à¸²à¸ģà¸²à¸£":4389,"à¸ªà¹Ħà¸Ķ":4390,"à¹ĥà¸Ļà¸ķà¸³à¹ģà¸«à¸Ļ":4391,"à¸ŀà¸Ńà¸²à¸ģà¸²à¸¨":4392,"à¸ļà¸Ł":4393,"à¸Ļà¸Ńà¸²à¸Ĺ":4394,"500":4395,"à¸ĩà¸£à¸°à¸«à¸§":4396,"à¸Ļà¸Ńà¸ģà¸Īà¸²à¸ģ":4397,"à¸Ńà¹Ģà¸ķ":4398,"à¹ģà¸ľà¸Ļà¸Ĺ":4399,"à¹Ħà¸Ľà¸ķ":4400,"à¸²à¸Ħà¸¥":4401,"à¹Ģà¸Ńà¸ĩà¸ģ":4402,"à¸²à¸ĩà¹Ħà¸Ķ":4403,"à¸Ļà¸Ĺà¸«à¸²à¸£":4404,"à¸ķà¸£à¸ģà¸£":4405,"à¸£à¸²à¸Ĭà¸§":4406,"à¹ĥà¸Ļà¸Ĺà¸§":4407,".\"":4408,"à¸²à¸Ĭà¸į":4409,"à¸Ļà¸³à¹Ħà¸Ľà¸ª":4410,"io":4411,"à¸Ńà¸°à¸ķ":4412,"Ġ&":4413,"à¸ĩà¹Ģà¸Ľà¸¥":4414,"Ġ2536":4415,"à¸Ĳà¸Ĺ":4416,"à¸ĩà¹ģà¸£à¸ģà¹ĥà¸Ļà¸Ľ":4417,"à¸§à¸ŀ":4418,"à¸¨à¸§à¸£":4419,"à¸¢à¸įà¸Ĺà¸Ńà¸ĩ":4420,"à¸Ńà¸¢à¸¡":4421,"à¹ģà¸®à¸£":4422,"à¸Ļà¸£à¸²à¸Ĭ":4423,"à¸ĩà¸Ľà¸£à¸°à¹Ģà¸Ĺà¸¨":4424,"à¸Ķà¸²à¹ĥà¸Ļ":4425,"99":4426,"Ch":4427,"à¹ģà¸¥à¸ģà¹Ģà¸Ľà¸¥":4428,"à¸ģà¸Ķà¸Ļà¸ķà¸£":4429,"à¸°à¸ª":4430,"à¸ĵà¸Ħ":4431,"Ġ2002":4432,"Ġà¹Ĥà¸Ķà¸¢à¸£":4433,"à¸²à¸Ńà¸²à¸Ī":4434,"ĠSp":4435,"à¸ĩà¹Ģà¸ļ":4436,"à¸Ļà¸ªà¸£":4437,"Ġ243":4438,"à¸§à¸Ļà¸Ľà¸£à¸°à¸ģà¸Ńà¸ļ":4439,"à¹Ģà¸ªà¸ģà¸ªà¸¡":4440,"à¸¢à¹Ģà¸£":4441,"Ġà¹Ĥà¸Ń":4442,"Ġ2003":4443,"à¸Ļà¹Ģà¸Ħ":4444,"à¸Ĺà¸²à¸ĩà¹Ģà¸¨à¸£à¸©à¸Ĳà¸ģ":4445,"à¹ģà¸ĸà¸¥à¸ĩ":4446,"à¸Ńà¸Ĺà¸³":4447,"à¸įà¹ĥà¸Ļà¸ģà¸²à¸£":4448,"à¸²à¸Ńà¸ĩà¸Ħ":4449,"à¸Īà¸į":4450,"à¹ģà¸ļà¸ļà¸Ĺ":4451,"Ġà¸į":4452,"à¸´)":4453,"Ġà¸£à¸§à¸¡à¹Ħà¸Ľà¸ĸ":4454,"à¹ĮâĢĿ":4455,"à¸ķà¸Ī":4456,"à¹Ĥà¸Ħà¸Ļ":4457,"Ġà¹Ĥà¸Ķà¸¢à¸ģà¸²à¸£":4458,"à¸«à¸§à¸²à¸Ļ":4459,"à¹ģà¸¥à¸°à¸Ķ":4460,"à¸ĩà¹ĥà¸Ļà¸Ĭ":4461,"à¹ģà¸Ħà¸Ļà¸²à¸Ķà¸²":4462,"à¸Ńà¸¡à¹Ĥ":4463,"à¸Ĥà¸ĵà¸°à¹Ģà¸Ķ":4464,"à¸¥à¹Ħà¸Ķ":4465,"à¹Ħà¸ģà¸£":4466,"nivers":4467,"à¸²à¸ĩà¸Ńà¸²à¸Ħà¸²à¸£":4468,"à¸Ńà¸Ļà¸Ńà¸¢":4469,"à¸¢à¸Ļà¸Ķ":4470,"à¸Ĺà¸²à¸ĩà¸ŀ":4471,"à¹ĥà¸Ļà¸ªà¸ĩà¸Ħà¸£à¸²à¸¡":4472,"à¸£à¸²à¸Ĭà¸ªà¸¡à¸ļ":4473,"à¸²à¸¨à¸£":4474,"à¸Ńà¸¢à¸¥à¸ĩ":4475,"à¹Ģà¸Īà¸£à¸Ī":4476,"à¹ģà¸Ńà¸ķ":4477,"à¹Ģà¸ŀà¸¥à¸¢":4478,"Ġà¸Ľà¸ı":4479,"Ġà¸ķà¸²à¸¡à¸¥à¸³à¸Ķ":4480,"à¸¢à¸²à¸ĩ":4481,"à¸Ļà¸ĺà¸£":4482,"à¸ļà¸£à¸£à¸¥":4483,"à¸Ńà¸Ļà¹Ģà¸Ķ":4484,"à¸Ńà¸Ķà¸Ĺ":4485,"à¸²à¸¢à¸Ĭ":4486,"à¸Łà¸§":4487,"à¹Ģà¸ŀà¸Ĭà¸£à¸ļ":4488,"Ġà¸Īà¸ļà¸ģà¸²à¸£à¸¨":4489,"à¸£à¸ĸà¸¢à¸Ļà¸ķ":4490,"à¸ģà¹Ģà¸Ĺ":4491,"à¸ĩà¸£à¸²à¸Ĭà¸§à¸ĩà¸¨":4492,"à¹Ģà¸§à¸ĵà¸Ļ":4493,"Ġ2533":4494,"rin":4495,"à¸¡à¸ĩà¸²à¸Ļ":4496,"à¸Ńà¸Ļà¹Ħà¸Ķ":4497,"à¸²à¸§à¸¥":4498,"Ġà¸Ľà¸£à¸°à¸ģà¸²à¸¨":4499,"à¸Ħà¸Ļà¸£":4500,"à¸Ļà¸Ńà¸²à¸Ħà¸²à¸£":4501,"à¸²à¸¡à¸«":4502,"à¸Īà¸°à¸Ĭ":4503,"à¸Ļà¸¡à¸²à¸Īà¸²à¸ģ":4504,"à¸¢à¸¡à¸Ń":4505,"à¸ªà¹Ĥà¸¡à¸ªà¸£à¸Ł":4506,"ance":4507,"à¸©à¸İ":4508,"à¹Ģà¸®à¸¥":4509,"à¹ĥà¸Ļà¸ģ":4510,"ting":4511,"à¸ĩà¸Ħà¸ĩà¸¡":4512,"à¹ģà¸Ĭà¸¡à¹Ģà¸Ľ":4513,"à¸Ńà¸ģà¹Ģà¸Ľ":4514,"à¸¢à¸Ļà¸Ĥ":4515,"à¹Ħà¸Ĭà¸¢":4516,"à¸²à¸¢à¸Ĥ":4517,"à¸įà¸ķ":4518,"à¹Ģà¸Īà¸Ńà¸ģ":4519,"à¹ģà¸ļà¸ļà¸Ļ":4520,"à¹Ģà¸łà¸ª":4521,"ram":4522,"à¸Ķà¹Ģà¸ľà¸¢":4523,"à¸Ńà¸¢à¸ģ":4524,"Ġà¹Ĥà¸Ķà¸¢à¹Ģà¸īà¸ŀà¸²à¸°à¸Ńà¸¢":4525,"à¸ªà¹ģà¸«":4526,"à¸ļà¹ģà¸¡":4527,"à¸ŀà¸¥à¹Ģà¸Ńà¸ģ":4528,"à¸²à¸ĩà¹Ģà¸£":4529,"à¸«à¸²à¸¢à¹Ħà¸Ľ":4530,"à¸ĺà¸ĩà¸Ĭà¸²à¸ķ":4531,"à¸ļà¸Ŀ":4532,"à¸ļà¹ĥà¸Ī":4533,"à¸Ļà¹Ģà¸ªà¸²à¸£":4534,"sp":4535,"à¸Ĭà¸Ļà¸ģ":4536,"à¸²à¸£à¸ĸ":4537,"à¸Ļà¸ľà¸¥à¸ĩà¸²à¸Ļ":4538,"à¸Ļà¸ĩ":4539,"Ġà¸ªà¸³à¹Ģà¸£":4540,"à¸ªà¸²à¹Ģà¸«à¸ķ":4541,"à¸Ĥà¸Ńà¸ĩà¹Ĥà¸¥à¸ģ":4542,"à¸ģà¸²à¸£à¸¥":4543,"Ġà¹Ģà¸¨":4544,"à¸Ĺà¸²à¸ĩà¹Ģà¸Ķ":4545,"à¸łà¸²à¸Ħà¸ķ":4546,"à¸Ńà¸ģà¸²à¸£à¸£":4547,"are":4548,"à¸£à¸ĸà¹Ħà¸Łà¸Ł":4549,"NA":4550,"à¸Ĥà¸Ńà¸ĩà¸§à¸ĩ":4551,"à¹Ģà¸ģà¸ĵà¸ĳ":4552,"Ġà¸Ĭà¸²à¸£":4553,"à¸Ķà¸Ħà¸£":4554,"à¸²à¸ĩà¹Ģà¸Ħ":4555,"à¸Ńà¸Ńà¸²à¸Ī":4556,"à¸ļà¸£à¸²à¸ĭ":4557,"à¸ĩà¸Ħà¸ĩ":4558,"rop":4559,"à¸§à¸«":4560,"à¸¢à¸¡à¸ģ":4561,"à¸ĩà¸Ĥà¸Ļà¸²à¸Ķ":4562,"à¸Ńà¸Ľà¸£à¸°à¸¡à¸²à¸ĵ":4563,"à¸įà¹Ģà¸Ĭ":4564,"tin":4565,"à¹ĥà¸Ļà¸§à¸ĩà¸¨":4566,"47":4567,"à¸Ħà¸§à¸²à¸¡à¸Ĥ":4568,"à¸²à¸ŀà¸§à¸ģ":4569,"à¸ģà¸©à¸²à¸Ĥ":4570,"à¹ģà¸ªà¸§à¸ĩ":4571,"à¸Ļà¹Ģà¸ļ":4572,"à¸Ļà¸ļà¸Ļ":4573,"à¸¡à¸«à¸²à¸£à¸²à¸Ĭ":4574,"à¹Ĥà¸Ķà¸¢à¸ª":4575,"Ġà¸ªà¸Ľ":4576,"à¸ļà¸ģà¸²à¸£à¸ªà¸Ļ":4577,"à¸ģà¸£à¸°à¸ļà¸§à¸Ļ":4578,"à¸²à¸Ļà¸¨":4579,"act":4580,"Ġk":4581,"à¸«à¸¥à¸²à¸¢à¸Ńà¸¢":4582,"à¸Ķà¸²à¸Ļ":4583,"à¹Ģà¸«à¸ĩ":4584,"à¸ªà¸Ļà¹Ģà¸Ĺà¸¨":4585,"à¸ģà¹Ģà¸Ķ":4586,"ost":4587,"à¸ŀà¸£à¸°à¸£à¸²à¸Ĭà¹Ĥà¸Ńà¸£à¸ª":4588,"à¸ļà¸«à¸¡":4589,"à¸Ĥà¸Ńà¸ĩà¸Ĥ":4590,"à¸¥à¸¥à¸²":4591,"à¸ļà¸²à¸Ļ":4592,"à¸Ľà¸²à¸¥":4593,"à¸Ħà¸§à¸²à¸¡à¸Īà¸£":4594,"Ġà¹Ģà¸Ĥà¸²à¸Ī":4595,"à¹Ģà¸¡à¸Ĭ":4596,"az":4597,"à¸Ļà¸Ľà¸£":4598,"à¸«à¸ŀ":4599,"à¸ļà¸łà¸²à¸©":4600,"à¸įà¹Ģà¸ķ":4601,"Ġ1980":4602,"à¹ĥà¸ļà¹Ħà¸¡":4603,"à¸ķà¹Ģà¸ķà¸Ńà¸£":4604,"ite":4605,"à¸ŀà¸£à¸°à¸§":4606,"à¸Ļà¸ģà¸³à¸¥":4607,"à¸ļà¸³à¸£":4608,"à¸²à¸ģà¸£à¸°":4609,"à¸Ħà¸§à¸²à¸¡à¸ªà¸Ļà¹ĥà¸Ī":4610,"ox":4611,"ool":4612,"ood":4613,"à¸§à¸¢à¸Ĥ":4614,"Ġà¹ģà¸Ńà¸Ļ":4615,"à¸²à¹Ĥà¸¥":4616,"à¸²à¸Ľà¸Ļ":4617,"à¸¨à¸§à¸£à¸£à¸©à¸Ĺ":4618,"Ġ36":4619,"à¹Ģà¸¨à¸£à¸©à¸Ĳà¸¨à¸²à¸ªà¸ķà¸£":4620,"à¸Ĭà¹Ģà¸Ĭ":4621,"à¸²à¸ĩà¹Ģà¸ķ":4622,"à¸ªà¸³à¹Ģà¸Ļ":4623,"à¸²à¸Ħà¸§":4624,"à¸¡à¸²à¹Ħà¸Ķ":4625,"à¸Ķà¸ģà¸¥":4626,"à¸ķà¸Īà¸²à¸ģ":4627,"à¸ķà¸³à¸Ļà¸²à¸Ļ":4628,"Ġà¸ģà¸¥à¸²à¸¢à¹Ģà¸Ľ":4629,"Ġà¸ģà¸©":4630,"à¹į":4631,"à¸ĩà¸Ħà¸¡à¸Ļ":4632,"Ġà¹Ĵà¹ķà¹":4633,"à¸Ļà¹Ģà¸Ĥà¸ķ":4634,"à¸ķà¸£à¸Ĺ":4635,"cl":4636,"à¸ķà¹Ģà¸¡":4637,"à¸²à¸Ĺà¸³à¸ĩà¸²à¸Ļ":4638,"à¸ŀà¸£à¸°à¸Ĭà¸Ļà¸¡à¸²à¸¢":4639,"à¸²à¸Ļà¸«":4640,"à¸ģà¸ģà¸²à¸£à¹Ģà¸¡":4641,"à¹Ģà¸Īà¸¥":4642,"à¸Īà¸ķ":4643,"à¸ģà¸²à¸£à¸Ľà¸ģà¸Ħà¸£à¸Ńà¸ĩà¸ª":4644,"à¸²à¸£à¸Ńà¸ļ":4645,"à¸Ķà¸ģà¸²à¸£à¹Ģà¸£":4646,"à¹Ĥà¸§":4647,"Ġà¸Ľà¸£à¸°à¸Īà¸³à¸Ľ":4648,"à¹Ģà¸Ķà¸£":4649,"à¸©à¸Ĳà¸²à¸Ļà¸§":4650,"à¸Ńà¸Ńà¸ģà¸Ń":4651,"ĠBl":4652,"à¸ģà¸²à¸£à¹Ģà¸ŀ":4653,"ical":4654,"Ġà¸¢à¸ģà¹Ģà¸§":4655,"à¸Ķà¸²à¸ļ":4656,"à¸Ĭà¸Į":4657,"à¸Ńà¸ķà¸ķ":4658,"à¸²à¸ĩà¹ĥà¸Ķ":4659,"à¸Īà¸¡":4660,"à¸ªà¹Ģà¸Ľà¸Ļ":4661,"à¸Ńà¸ĩà¹Ħà¸Ĺà¸¢":4662,"à¸Ļà¹Ģà¸¡à¸£":4663,"Ġ2531":4664,"à¸Ļà¹ģà¸Ĺ":4665,"à¹ĥà¸Ļà¹Ģà¸Ħà¸£":4666,"à¸¥à¸³à¸ŀ":4667,"à¸²à¸ľà¸¥":4668,"In":4669,"à¸¡à¹Ħà¸Ľà¸Ķ":4670,"à¸²à¸ĩà¸ĭ":4671,"à¸²à¸§à¹Ģà¸Ľ":4672,"à¹ģà¸Ħà¸£":4673,"à¸ģà¸£à¸²à¸Ł":4674,"à¸Īà¸°à¸ªà¸£":4675,"à¸¢à¸ĩà¸§":4676,"à¸ģà¸©à¸ĵà¸°à¸Ĥà¸Ńà¸ĩ":4677,"à¸Ľà¸£à¸°à¸Īà¸³à¸§":4678,"à¸ķà¸£à¸°":4679,"à¸Ńà¸ªà¸ģà¸²à¸£":4680,"Ġà¸ģà¸²à¸£à¸£":4681,"à¸Ĭà¸²à¸§à¸¢":4682,"à¸¥à¸Ĭ":4683,"à¸²à¹Ĥà¸£à¸«":4684,"ey":4685,"ĠAc":4686,"à¸Ļà¹Ģà¸«à¸¡":4687,"à¸Ķà¸ŀà¸¥à¸²à¸Ķ":4688,"à¸³à¸£à¸§à¸Ī":4689,"Ġà¸ŀà¸ļà¸§":4690,"uk":4691,"à¸ļà¹Ħà¸§":4692,"à¸ģà¸²à¸£à¹Ħà¸Ķ":4693,"à¸°à¹Ģà¸£":4694,"à¸²à¸Ļà¸Ļà¸Ĺ":4695,"à¹Ĥà¸Ķà¸¢à¸Ļ":4696,"à¸ªà¸ļà¸Ķ":4697,"à¸§à¸¢à¸¡":4698,"à¸§à¸ĩà¸«à¸Ļ":4699,"à¸¥à¹Ģà¸ļ":4700,"à¸ģà¸©à¸²à¸Ĥà¸Ńà¸ĩ":4701,"St":4702,"à¹ĥà¸Ļà¸Ĥà¸ĵà¸°à¸Ĺ":4703,"à¸¡à¹ĥà¸Ĭ":4704,"à¸Ķà¸ªà¸¡":4705,"à¸Ľà¸Ńà¹Ģà¸¡à¸£":4706,"ons":4707,"à¸Ļà¸Ńà¸³à¹Ģà¸ł":4708,"ĠTh":4709,"à¸Ńà¸³à¹Ģà¸łà¸Ńà¹Ģà¸¡":4710,"Ġà¸Ĺà¸«à¸²à¸£":4711,"à¸Īà¸³à¸Ļà¸§à¸Ļà¸Ļ":4712,"Ķà¹":4713,"à¸£à¸°à¸ļà¸§à¸Ļ":4714,"âĢľ":4715,"à¸ķà¹Ģà¸ĭà¸Ńà¸£":4716,"ww":4717,"à¸ķà¹Ģà¸¥à¸Ńà¸£":4718,"à¸Ńà¸Ľà¸£":4719,"à¸Ļà¸ģà¸²à¸£à¸ķ":4720,"à¸¡à¹Ħà¸¡":4721,"à¸Ķà¸°":4722,"à¸²à¸ĩà¸Ńà¸¢":4723,"à¸łà¸²à¸Ħà¸Ĺ":4724,"à¸Īà¸ªà¸§à¸£à¸£à¸Ħà¸ķ":4725,"Ġà¸ķà¸³à¹ģà¸«à¸Ļ":4726,"à¸Ńà¸ĩà¹Ħà¸¡":4727,"à¸ģà¸¡à¸²à¸ģ":4728,"Ġà¸Ńà¸ĩà¸¨à¸²à¸ķà¸°à¸§":4729,"à¸¥à¸£":4730,"à¸Ľà¸£à¸°à¸«à¸²à¸£à¸Ĭ":4731,"à¸Ĭà¸Ļà¸ļà¸Ĺ":4732,"à¸Ńà¸ĩà¸ªà¸¡":4733,"à¸Ļà¸ªà¸Ļ":4734,"à¸ªà¸°à¸Ĺ":4735,"à¹ģà¸¥à¸Ļà¸ķ":4736,"à¸Ńà¸ĩà¹ĥà¸«à¸¡":4737,"à¸ĩà¸ªà¸³à¸Ħ":4738,"à¸²à¸ļà¸ªà¸¡":4739,"à¸ŀà¸¥à¸ķ":4740,"ĠSc":4741,"à¸Ļà¸ªà¸ģ":4742,"à¸£à¸²à¸Ĭà¸Ĺ":4743,"Ġà¹Ĥà¸¡":4744,"à¸Īà¸£à¸²à¸Ĭà¸ģà¸²à¸£":4745,"à¸Ļà¸Īà¸²à¸ģà¸ģà¸²à¸£":4746,"à¸İà¸£à¸²à¸Ĭà¸ģ":4747,"à¸ļà¹Ģà¸Ħà¸¥":4748,"à¸£à¸°à¸Ļ":4749,"Ġà¸Ħà¸§à¸²à¸¡à¸£":4750,"à¹Ĥà¸Ħà¸Īà¸£":4751,"à¸²à¸ĩà¹Ģà¸ģ":4752,"à¸¢à¸Ļà¹Ģà¸£":4753,"Ġà¹ģà¸Ħ":4754,"Ġ45":4755,"à¹ĥà¸Ļà¸ªà¸ģ":4756,"à¸³à¸Ĺà¸°à¹Ģà¸¥":4757,"à¸ľà¸ªà¸²à¸Ļ":4758,"à¸¡à¸łà¸²à¸©à¸ĵ":4759,"à¸Ľà¸Ĳà¸¡":4760,"à¸Ļà¸Ħà¸²à¸Ĺà¸Ńà¸¥":4761,"à¹Ħà¸®à¹Ĥà¸Ķà¸£":4762,"à¸²à¸ĩà¸«":4763,"à¸ļà¸ģà¸²à¸£à¸ª":4764,"à¸Ħà¸£à¹Ģà¸¥":4765,"tive":4766,"à¸Ħà¸Ńà¸¥":4767,"Ġà¹ģà¸ĸ":4768,"à¸Ńà¸Ńà¸ģà¸īà¸²à¸¢":4769,"à¹Ī\"":4770,"à¸²à¸£à¸¡à¸ĵ":4771,"à¸²à¸ģà¸Ĺ":4772,"à¸ĩà¹Ĥà¸£à¸ĩà¹Ģà¸£":4773,"à¹ģà¸ģà¸Ļ":4774,"à¸Ńà¸Ļà¸ĸ":4775,"à¸Ļà¸³à¸¡":4776,"à¸Ļà¸Ħà¸ĵà¸°":4777,"à¸Īà¸ŀà¸£à¸°à¸£à¸²à¸Ĭà¸Ķà¸³à¹Ģà¸Ļ":4778,"75":4779,"à¹Ģà¸Ĥà¸²à¸¡":4780,"à¸²à¸Ħà¸²":4781,"à¹Ģà¸ģà¸©à¸ķà¸£à¸ģà¸£à¸£à¸¡":4782,"à¹Ģà¸Ĺà¸¨à¸ļà¸²à¸¥à¹Ģà¸¡":4783,"à¸²à¸§à¸¡":4784,"à¸ªà¹ģà¸ķ":4785,"à¸ģà¸²à¸£à¹ģà¸ķ":4786,"ive":4787,"à¸Ļà¸Īà¸°à¸ķ":4788,"à¸²à¸Ńà¸Ļ":4789,"Ġà¸Ńà¸£":4790,"à¹ĥà¸Ļà¸ģà¸²à¸£à¸ªà¸£":4791,"à¸Ľà¸£à¸°à¹Ģà¸Ĺà¸¨à¸Ī":4792,"à¹Ĥà¸Ńà¸Ń":4793,"à¸¡à¹Ģà¸«à¸¥à¸§":4794,"à¸Ķà¸Īà¸³à¸«à¸Ļ":4795,"à¸Īà¸°à¸ªà¸²à¸¡à¸²à¸£à¸ĸ":4796,"à¸²à¸Ĺà¸£":4797,"à¹ĥà¸Ļà¸ģà¸²à¸£à¸ŀ":4798,"à¸¥à¹Ģà¸¡":4799,"à¹Ģà¸ĺà¸Ńà¹Ģà¸Ľ":4800,"à¹Ĥà¸Ķà¸¢à¸Ń":4801,"à¸ªà¸ķà¸Ī":4802,"à¹ģà¸£à¸ĩà¸ļ":4803,"ann":4804,"à¸Ĥà¸Ļà¸²à¸Ļ":4805,"à¹ĥà¸Ļà¸Ĥ":4806,"à¸¢à¸Ļà¸«à¸Ļ":4807,"ĠAward":4808,"à¸ĩà¹ĥà¸Ļà¸ª":4809,"à¸¡à¸Ħà¸£à¸Ńà¸ĩ":4810,"à¸§à¸ģà¸¥":4811,"à¸ģà¸²à¸£à¸Ķà¸³à¹Ģà¸Ļ":4812,"à¸Ĥà¸Ńà¸ĩà¸¡à¸Ļ":4813,"à¸Ńà¸Ļà¸ļ":4814,"à¸§à¸ĩà¸Ī":4815,"Ġ33":4816,"à¸Ļà¸ģà¸²à¸£à¸ª":4817,"à¸Ķà¸Ĥà¸§à¸²à¸ĩ":4818,"à¸°à¸ĭ":4819,"à¸Īà¹Ģà¸Ī":4820,"à¸²à¸Ļà¸¢":4821,"à¸ĩà¸ªà¸ĸ":4822,"à¸ģà¸Ľà¸£à¸°à¸§":4823,"à¹Ģà¸®à¸Ńà¸£":4824,"à¸ĩà¸łà¸²à¸¢à¹ĥà¸Ļ":4825,"à¸Ľà¸Ĺà¸£à¸ĩ":4826,"à¸Ĳà¸§":4827,"à¸Ļà¸Ńà¸²à¸Īà¸²à¸£à¸¢":4828,"à¸Ļà¸Ĺà¸£à¸¡":4829,"à¸Ńà¸«à¸¡":4830,"à¸ļà¸¥à¸£à¸²à¸Ĭà¸ĺà¸²à¸Ļ":4831,"à¸ĺà¸£à¸£à¸¡à¸Ķà¸²":4832,"Ġà¸ģà¸³à¸«à¸Ļ":4833,"à¸Īà¸£à¸²à¸Īà¸£":4834,"à¸¡à¸ªà¸¥à¸²à¸¢":4835,"à¸£à¸°à¸¢à¸°à¹Ģà¸§à¸¥à¸²":4836,"Ġà¹ĳà¹":4837,"à¸ļà¸¡à¸²à¸£":4838,"à¸Ńà¸Ļà¸Ń":4839,"Ġà¸Īà¸Ļà¹Ħà¸Ķ":4840,"à¸²à¸¢à¸Ĺà¸«à¸²à¸£":4841,"à¸ĩà¸Ĺà¸°à¹Ģà¸¥":4842,"à¸ķà¸ļà¸Ńà¸¥à¸Ĺ":4843,"à¸Ľà¸ĭ":4844,"à¸ĩà¸ªà¸§":4845,"à¸²à¹Ĥà¸ģ":4846,"à¸ĩà¸Ľà¸¥":4847,"à¸Ķà¸Ĺà¸²à¸ĩ":4848,"à¸£à¸°à¸§":4849,"à¸Ķà¸Ĺà¸°à¹Ģà¸ļ":4850,"à¸²à¹Ĥà¸Ńà¸¥":4851,"à¹ģà¸ļà¸Ħà¸Ĺ":4852,"à¸ļà¸²à¸ķ":4853,"à¸Ħà¸§à¸²à¸¡à¸¥":4854,"à¸ĩà¸Ŀà¸£":4855,"à¸ĺà¸²à¸£":4856,"à¸ĩà¸²à¸Ļà¸¨":4857,"à¸Ľà¸£à¸²à¸ļà¸Ľà¸£à¸²à¸¡":4858,"à¸Ńà¹Ģà¸Ń":4859,"à¸²à¸¢à¸Ī":4860,"à¸Ńà¸¡à¸²à¹Ģà¸Ľ":4861,"à¹Ģà¸Ńà¸ĩà¸Ĺ":4862,"à¸ŀà¸²à¸ĵ":4863,"à¸ªà¸°à¸ªà¸¡":4864,"à¸Ńà¸¨à¸²à¸ªà¸Ļ":4865,"à¸ģà¹Ģà¸ĭ":4866,"à¸ļà¸ı":4867,"à¹Ģà¸ļà¸¥à¹Ģà¸¢":4868,"à¸Ļà¸ķà¸Ńà¸Ļà¸§":4869,"à¸¢à¸ģà¸Ĭ":4870,"à¸«à¸¡à¸²à¸¢à¸Ħà¸§à¸²à¸¡à¸§":4871,"à¸Ńà¸²à¸ĵà¸²à¸Ļ":4872,"à¸ģà¸Īà¸°à¸¡":4873,"à¸³à¸Ń":4874,"à¸ģà¸²à¸£à¹ĥà¸«":4875,"à¸§à¸ĩà¸ª":4876,"Ġà¹Ĥà¸Ķà¸¢à¸Ń":4877,"à¸²à¸¡à¸²à¹ĥà¸Ļ":4878,"à¸įà¸Ħ":4879,"à¸Ļà¸ªà¸Ļà¸²à¸¡":4880,"à¸¢à¸ģà¹Ģà¸§":4881,"à¸ªà¸ķà¸ģà¸²à¸¥":4882,"à¹Ĥà¸Īà¸§":4883,"à¸°à¸Ķà¸§à¸ģ":4884,"à¸Ķà¹Ģà¸«":4885,"à¹ģà¸Ńà¸¡":4886,"à¸Ľà¸²à¸ĩ":4887,"à¹ĥà¸Ļà¸łà¸²à¸©":4888,"à¸Ńà¸Ļà¸Ī":4889,"à¸Ķà¸«à¸£":4890,"à¸ģà¸©à¸²à¸ŀ":4891,"à¸Ĺà¸³à¸Ľà¸£à¸°à¸ķ":4892,"à¸Ńà¹Ĥà¸£":4893,"à¸ļà¹Ĥà¸¥à¸ģ":4894,"à¸Ĺà¸ĺà¸¨à¸²à¸ªà¸Ļ":4895,"à¸¢à¸«":4896,"ork":4897,"à¸ģà¸£à¸°à¸Īà¸²à¸¢à¸ŀ":4898,"Ġ300":4899,"à¸Ļà¸ģà¸²à¸£à¸Ī":4900,"à¸ļà¸ľà¸¥":4901,"à¸ļà¸ļà¸²à¸Ķà¹Ģà¸Ī":4902,"à¸²à¹Ģà¸«à¸¥":4903,"à¹Ĥà¸Ńà¸Ķ":4904,"à¸ģà¸£à¸¢à¸²à¸Ļ":4905,"à¸Ńà¸ĩà¹ģà¸£à¸ģ":4906,"à¸ĩà¸Ĥà¸¥à¸²":4907,"à¸Ķà¸ĩà¸²à¸¡":4908,"à¸Īà¸ŀà¸£à¸°à¸ļà¸£à¸¡":4909,"à¹Ģà¸¥à¸Ļ":4910,"à¸¥à¹Ģà¸Ľ":4911,"à¸¢à¸ĩà¹ģà¸ķ":4912,"à¸§à¸ĩà¸§":4913,"à¸²à¹Ĥà¸Ī":4914,"à¸¡à¸Ł":4915,"à¸²à¸¢à¹ģà¸¥à¸°":4916,"à¸ĩà¹ģà¸¢à¸ģ":4917,"Ġà¸ªà¸²à¸¡":4918,"à¸²à¸Ŀà¸£":4919,"à¹ģà¸§à¸Ķà¸¥":4920,"Ġà¹ģà¸£à¸ĩ":4921,"à¸Ļà¸¡à¸«à¸²à¸§":4922,"à¸ªà¸¡à¸£à¸ªà¸ģ":4923,"à¸Ľà¹Ģà¸Ľà¸Ńà¸£":4924,"Ġà¹Ģà¸Ĥà¸²à¸¡":4925,"à¸¥à¸¢à¹Ģà¸Ķà¸Ĭ":4926,"Ġ2518":4927,"à¸¡à¸Ħà¸£":4928,"à¸§à¸ļà¸£à¸§à¸¡":4929,"à¸£à¸°à¸ļà¸²à¸Ķ":4930,"à¸²à¸ĩà¸Ħà¸£":4931,"Ġ2532":4932,"à¸ķà¸ªà¸¡à¸²à¸Ĭ":4933,"à¹Ģà¸ªà¸ĸ":4934,"à¸Ńà¸Ĺà¸²à¸ĩ":4935,"à¸§à¹Ģà¸ĭà¸Ńà¸£":4936,"à¸ŀà¸²à¸Ĺ":4937,"à¸Īà¸°à¸Ĥ":4938,"à¸Ļà¸¢à¸Ńà¸Ķ":4939,"à¸Ļà¹ģà¸ļ":4940,"à¹ģà¸ĸà¸ļ":4941,"à¸Ĥà¸Ńà¸ĩà¸Ł":4942,"à¸ģà¸£à¸°à¸Ĺà¸£à¸§à¸ĩà¸¨":4943,"à¸ĩà¸«à¸§à¸°":4944,"ĠMus":4945,"ll":4946,"à¸Ńà¸Ļà¸ģà¸¥":4947,"à¹ģà¸Ľà¸¥à¸§":4948,"à¸ģà¸²à¸£à¹Ģà¸Ħà¸¥":4949,"Ġà¹ģà¸¥à¸°à¸Ĺà¸£à¸ĩ":4950,"à¸Ĺà¸¢à¸²à¸ģà¸²à¸£":4951,"à¸¢à¸Ńà¸ĩ":4952,"à¹Ģà¸§à¸¥à¸²à¸ķ":4953,"ĠAn":4954,"Ġ2001":4955,"à¸Ļà¸Ľà¸¥à¸²à¸Ĺ":4956,"à¸Ķà¹ĥà¸«à¸į":4957,"à¹ĥà¸Ļà¸łà¸²à¸Ħ":4958,"à¸¡à¹Ģà¸¨à¸£":4959,"à¸ļà¸²à¸ĩà¸Ħà¸Ļ":4960,"à¸ļà¸£à¸£à¹Ģà¸¥":4961,"Ġ2529":4962,"à¸Ľà¸£à¸°à¸Ĺà¸²à¸Ļ":4963,"à¸Ńà¸ģà¸£à¸°":4964,"à¹Ģà¸ģà¸©à¸ķà¸£à¸¨à¸²à¸ªà¸ķà¸£":4965,"à¹Ģà¸ģà¸°":4966,"à¸ĩà¸Ħà¸ĩà¹Ģà¸Ľ":4967,"à¹Ģà¸ļà¸ķ":4968,"à¸¢à¸ĩà¹Ħà¸¡":4969,"à¹Ħà¸ĭà¸¡":4970,"à¸Ĥà¸Ńà¸ĩà¸ķà¸Ļà¹Ģà¸Ńà¸ĩ":4971,"à¹ģà¸ľà¸Ļà¸ģ":4972,"Ġà¹Ģà¸Ĺà¸ŀ":4973,"à¸§à¹Ģà¸Ķ":4974,"Ġà¸ģà¸³à¸¥":4975,"Ġà¸£à¸Ńà¸ĩ":4976,"Ġà¸ŀà¸£à¸°à¸£à¸²à¸Ĭà¸Ĺà¸²à¸Ļ":4977,"à¸Ńà¸°à¸ķà¸Ńà¸¡":4978,"Ġà¹Ģà¸ģà¸£":4979,"à¸¢à¹Ģà¸ŀ":4980,"à¸ģà¸²à¸£à¸Ľà¸£à¸°à¸Ĭ":4981,"à¹ī\"":4982,"à¸§à¸Ļà¸ł":4983,"à¹Ĥà¸ķà¹Ģà¸ģ":4984,"Ġà¸®à¸²à¸£":4985,"à¸Ńà¸ģà¸ª":4986,"à¸ĩà¹Ĥà¸£à¸¡":4987,"à¸²à¸ªà¸Ļà¹ĥà¸Ī":4988,"à¸ģà¸¥à¸²à¸ĩà¸Ĥà¸Ńà¸ĩ":4989,"à¸Ńà¸Ńà¸ªà¹Ģà¸ķà¸£à¹Ģà¸¥":4990,"à¸Ķà¸¨":4991,"ĠSch":4992,"à¸§à¸¢à¸ľ":4993,"à¸ļà¸£à¸Ńà¸ĩ":4994,"à¸ĩà¸Ľà¸²à¸£":4995,"Ġà¹Ģà¸«à¸£":4996,"Ġà¸ķà¸£à¸ĩà¸ģ":4997,"à¸Ńà¸Īà¸£":4998,"à¸²à¹Ĥà¸«à¸¡":4999,"à¸ģà¸²à¸£à¸Ħà¸§à¸ļà¸Ħ":5000,"à¸ļà¸Ĺà¸²à¸ĩ":5001,"à¸ģà¸ªà¸Ńà¸Ļ":5002,"à¸²à¹Ħà¸£":5003,"ĠCl":5004,"à¸Ĳà¸¨à¸²à¸ªà¸ķà¸£":5005,"85":5006,"à¸ĩà¸ĩ":5007,"à¹ģà¸ªà¸Ķà¸ĩà¸ª":5008,"ib":5009,"à¸Ĺà¸ĭ":5010,"à¹Ħà¸Ĺà¸¢à¸£":5011,"89":5012,"à¸Ķà¹Ħà¸¡":5013,"à¸ģà¸©à¸²à¸Ĭ":5014,"à¸ķà¸Ļà¹Ĥà¸ģà¸ª":5015,"à¸ļà¸£à¸£à¸ŀà¸ļ":5016,"II":5017,"à¸¥à¸³à¸ļà¸²à¸ģ":5018,"à¸Ļà¸Ľà¸£à¸°à¹Ģà¸Ĺà¸¨":5019,"à¸ģà¸£à¸£à¸¡à¸Ĺ":5020,"Ġâ":5021,"Ġà¹ĥà¸ģà¸¥":5022,"à¸¢à¸ĩà¸Ń":5023,"ism":5024,"à¸Ļà¸¥à¸°à¸Ħà¸£à¹Ĥà¸Ĺà¸£à¸Ĺ":5025,"à¸Ķà¸Ńà¸Ļ":5026,"à¸§à¸ĩà¹Ģà¸Ķ":5027,"à¸Ľà¸§":5028,"à¹ĥà¸ļà¸«à¸Ļ":5029,"à¹Ģà¸Ħà¸Ńà¸£":5030,"à¸Ļà¸Ħà¸§":5031,"à¸Īà¸Ńà¸¢":5032,"à¸Ĭà¸Ļà¸Ĭ":5033,"à¸Ńà¸ľà¸¥":5034,"à¸ĩà¸£à¸°à¸Ķ":5035,"à¸§à¸¢à¹Ģà¸Ĭ":5036,"à¸Ńà¸³à¸Ļà¸§à¸¢":5037,"Ġà¹ģà¸¥à¸°à¹Ģà¸Ī":5038,"à¸Ļà¸¥à¸°à¸Ħà¸£":5039,"à¸²à¸ĩà¸Ĺà¸²à¸ĩ":5040,"à¸§à¸¢à¹Ĥà¸£à¸Ħ":5041,"old":5042,"à¸Ńà¹Ģà¸ļ":5043,"à¸²à¸Ĥà¸²à¸¢":5044,"à¸ļà¸Ħà¸£":5045,"à¸³à¹Ģà¸Ľ":5046,"à¹ĥà¸Ļà¸£à¸²à¸¢à¸ģà¸²à¸£":5047,"à¸²à¸ĩà¸ľ":5048,"à¸ĵà¸«à¸į":5049,"à¸Īà¸²à¸ģà¸£":5050,"Ġà¸¢à¸Ńà¸Ķ":5051,"Ġà¹Ģà¸ĺà¸Ń":5052,"à¸Ńà¸ĩà¸Ķà¸Ļà¸ķà¸£":5053,"à¸ĩà¹Ģà¸ĩ":5054,"à¸ĩà¸¡à¸²à¸Īà¸²à¸ģ":5055,"Ġ186":5056,"rom":5057,"Ġà¸Ĺà¸²à¸ĩà¸Ĭ":5058,"à¹ģà¸¥à¸°à¹Ģà¸Ĺà¸Ħà¹Ĥà¸Ļà¹Ĥà¸¥à¸¢":5059,"à¸ªà¸²à¸£à¸ªà¸Ļà¹Ģà¸Ĺà¸¨":5060,"à¸ļà¸ģà¸²à¸£à¸¢à¸Ńà¸¡à¸£":5061,"à¸Ļà¸¢à¸Ļà¸ķ":5062,"à¸´,":5063,"à¸Ńà¸ĩà¸Ħà¸£":5064,"à¸§à¸¢à¸Ħ":5065,"à¸Ĺà¸²à¸ĩà¹ĥà¸ķ":5066,"à¸²à¸Ĥà¸Ńà¸ĩà¸Ĺ":5067,"à¸¥à¸Ľà¸²à¸ģà¸£":5068,"ĠWorld":5069,"à¸Ķà¸§à¸ĩà¸Ńà¸²à¸Ĺ":5070,"Ġà¹Ĥà¸Ķà¸¢à¸Ī":5071,"à¸Ńà¸²à¸Īà¸Īà¸°":5072,"à¸¥à¹Ģà¸¥à¸Ńà¸£":5073,"à¸²à¹Ĥà¸ķ":5074,"Ġà¹Ĥà¸Ķà¸¢à¸Ļ":5075,"Ġà¸Ķà¸²à¸£":5076,"Ġà¸ªà¸ĩà¸Ħà¸£à¸²à¸¡":5077,"à¸ªà¸²à¸¡à¸²à¸£à¸ĸà¸£":5078,"à¹ģà¸§":5079,"à¹ģà¸¥à¸°à¸Ľ":5080,"à¹Ģà¸Ĥà¸²à¸¢":5081,"à¸Ķà¸ªà¸£":5082,"à¸Ńà¸²à¸Īà¹Ģà¸Ľ":5083,"ĠQ":5084,"à¹Ħà¸ļ":5085,"à¹Ģà¸Ĥà¸²à¸Ĺ":5086,"à¸®à¸Ńà¸¥":5087,"Ġ2530":5088,"à¸Ľà¸£à¸°à¸ĸà¸¡à¸¨":5089,"à¸Ħà¸§à¸²à¸¡à¸ŀà¸¢à¸²à¸¢à¸²à¸¡":5090,"à¸¢à¸§à¸°":5091,"à¸Ħà¸¥à¸²à¸ģà¸£":5092,"à¸Ĺà¸²à¸ĩà¸«à¸¥à¸§à¸ĩà¹ģà¸ľ":5093,"Ġà¸Ħà¸§à¸²à¸¡à¸ª":5094,"à¸ģà¸²à¸£à¸Ľà¸£à¸°à¸ģà¸²à¸¨":5095,"à¸Ļà¸³à¹Ħà¸Ľà¹ĥà¸Ĭ":5096,"à¹ģà¸¥à¸°à¹Ģà¸£":5097,"à¸ķà¸£à¸ªà¸²à¸§":5098,"à¸²à¸ķà¸°":5099,"Ġà¸¥à¸³à¸ķ":5100,"à¸Ńà¸ģà¸ģ":5101,"à¸Ĳà¸²à¸Ļà¸Ĺ":5102,"ĠÂł":5103,"à¸Ĭà¸ģ":5104,"à¸Ĭà¸¥":5105,"à¸Ńà¸¡à¸£à¸²à¸Ĭà¸§à¸ĩà¸¨":5106,"à¸Ĭà¸²à¸¢à¹ģà¸Ķà¸Ļ":5107,"Ġ2522":5108,"à¸Ńà¸Ŀ":5109,"à¸³à¹Ħà¸Ķ":5110,"à¸²à¸Ļà¸²à¸¢":5111,"43":5112,"Ġà¹Ĥà¸¥":5113,"à¸ªà¸²à¸ĺà¸²à¸£à¸ĵà¸°":5114,"à¹Ģà¸¥à¸Ĥà¸Ĺ":5115,"à¸ģà¸ĺ":5116,"à¸Ĺà¸¡":5117,"à¸ģà¸²à¸£à¸Ľà¸¥":5118,"à¸²à¸ĩà¹Ģà¸ŀ":5119,"à¸¡à¸²à¸ģà¸Ļ":5120,"à¸ģà¹Ģà¸ī":5121,"à¹ģà¸Ńà¸Ļà¸ķ":5122,"Ġà¹ģà¸¥à¸°à¸ĭ":5123,"à¸Ħà¸³à¸ĸà¸²à¸¡":5124,"à¹ģà¸ªà¸Ķà¸ĩà¸Ĺ":5125,"Â°":5126,"à¸Ńà¸ĩà¹ģà¸ķ":5127,"à¸¥à¸°à¸Ĺ":5128,"à¸Ķà¹Ģà¸ľ":5129,"à¹Ħà¸¥à¸Ĺ":5130,"à¸ĩà¸Ńà¸³à¹Ģà¸ł":5131,"à¸¡à¸ŀà¸£à¸°à¹Ģà¸ģ":5132,"à¸§à¸Ľ":5133,"ish":5134,"att":5135,"à¸²à¸§à¸Ĥ":5136,"à¸¢à¸¡à¸ª":5137,"à¸Ľà¹ģà¸ļà¸ļà¸Ĥà¸Ńà¸ĩ":5138,"à¸ªà¸Ńà¸ĩà¸Ļ":5139,"olog":5140,"à¸§à¸¢à¸ŀ":5141,"à¸Ļà¹ģà¸Ļà¸¥":5142,"à¸Ħà¸³à¸Ļà¸§à¸ĵ":5143,"à¸¢à¸ł":5144,"à¸Ħà¸£à¸£":5145,"ach":5146,"Ġà¸Ĺà¸£à¸ĩà¹Ģà¸Ľ":5147,"à¸¢à¸Ļà¸ļ":5148,"à¸¢à¸£à¸²à¸Ĭà¸ł":5149,"à¸§à¹Ħà¸¡":5150,"à¹Ģà¸¡à¸Ķ":5151,"Ġ150":5152,"à¸Ļà¹Ģà¸Ĥà¸ķà¸£":5153,"ĠUnivers":5154,"à¹Ħà¸Ħ":5155,"à¸ģà¸²à¸£à¸ªà¸Ļ":5156,"à¸Īà¸²à¸ģà¸Ĥ":5157,"à¸Ļà¸²à¸ĩà¹Ģà¸Ī":5158,"ft":5159,"à¹Ĥà¸Ńà¸ĩà¸ģà¸²à¸£":5160,"à¸²à¸§à¸ķ":5161,"à¸ĩà¸Ńà¸ĩà¸Ħ":5162,"à¹Ħà¸Ľà¸ķà¸²à¸¡":5163,"Ġà¸Ńà¸ł":5164,"à¹ĥà¸Ļà¸ł":5165,"à¸ŀà¸£à¸°à¸Ļà¸Ħà¸£":5166,"à¸²à¸Īà¸°à¹Ħà¸Ķ":5167,"à¹ī)":5168,"à¸Ńà¸Ļà¸²à¸¡":5169,"à¸Ńà¸²à¸¥":5170,"à¸Ńà¸¢à¸Ļ":5171,"à¹Ĥà¸Ķà¸¢à¸ķà¸£à¸ĩ":5172,"à¸Ļà¸ŀà¸£à¸°à¸¡à¸«à¸²à¸ģà¸©":5173,"à¸Ńà¸ŀà¸£à¸°à¹Ģà¸Ī":5174,"à¸¢à¸Ľ":5175,"à¸¡à¸²à¹Ģà¸£":5176,"à¹ģà¸£à¸ĩà¸Ķ":5177,"à¸¢à¸Ļà¸łà¸²à¸ŀ":5178,"à¸ĩà¸ģà¸Ńà¸ĩà¸Ĺ":5179,"à¸³à¸£à¸°":5180,"à¹Ģà¸Ķà¸Ļà¸¡à¸²à¸£":5181,"à¹Ħà¸Ĺà¸¢à¹ģà¸¥à¸Ļà¸Ķ":5182,"à¸ĩà¹Ģà¸«":5183,"à¸Łà¸ķ":5184,"Ġ1970":5185,"à¸¢à¹Ģà¸Ĺà¸Ħà¹Ĥà¸Ļà¹Ĥà¸¥à¸¢":5186,"à¹Ĥà¸£à¸Īà¸Ļ":5187,"à¹ĥà¸Ļà¹Ģà¸§à¸¥à¸²à¸ķ":5188,"à¸ģà¸«à¸£":5189,"ĠHe":5190,"à¸ĩà¸ģà¸²à¸¢":5191,"à¸§à¸¥à¸Ĭà¸Ļ":5192,"à¸Ķà¸²à¸§à¹Ģà¸Ħà¸£à¸²à¸°à¸«":5193,"à¸ĩà¹Ģà¸«à¸ķ":5194,"à¸Ńà¸ĩà¹Ģà¸ŀ":5195,"à¸Ńà¸ĩà¸Ĺà¸²à¸ĩ":5196,"Ġà¸§à¸²à¸ĩ":5197,"Ġà¸«à¸į":5198,"à¸§à¹ģà¸Ĺà¸Ļ":5199,"à¹Ģà¸ªà¸²à¸£":5200,"row":5201,"à¸ģà¹ģà¸ļ":5202,"à¹ģà¸ªà¸Ļ":5203,"à¸Ļà¸£à¸Ńà¸ļ":5204,"à¸Ńà¸¡à¸ª":5205,"à¹ģà¸¡à¸ķà¸Ĭ":5206,"49":5207,"à¸ļà¸£à¸²à¸ĵ":5208,"ign":5209,"à¹Ĥà¸¢à¸ļà¸²à¸¢":5210,"à¸§à¸ĩà¸Ľà¸¥à¸²à¸¢":5211,"Ġ189":5212,"à¸¥à¸ļà¸Ńà¸£":5213,"à¸²à¸łà¸²à¸©":5214,"Ġà¸Ńà¸²à¸Īà¸²à¸£à¸¢":5215,"à¹Ĥà¸Ńà¸°":5216,"Ġ2519":5217,"à¸ªà¸³à¸£":5218,"à¹Ģà¸§à¸¥à¸ª":5219,"yn":5220,"à¹ģà¸ªà¸Ķà¸ĩà¸ĸ":5221,"à¸Ļà¸Ĺà¸²à¸ĩà¸Ĺ":5222,"à¹ģà¸Ļà¸§à¸£":5223,"à¸¢à¹Ģà¸¡":5224,"à¸ŀà¸Ĥà¸Ńà¸ĩ":5225,"à¸ĩà¹ĥà¸Ļà¸Ļ":5226,"à¸Ļà¸¥à¸³à¸Ķ":5227,"à¹Ģà¸Ńà¸Ńà¸£":5228,"ath":5229,"à¸Ļà¸«à¸¢":5230,"à¸Ĥà¸¢à¸²à¸¢à¸ķ":5231,"à¸¢à¸Ļà¹ģà¸ļà¸ļ":5232,"à¹ģà¸«à¸§à¸Ļ":5233,"à¹Ħà¸Ĺà¸¢à¹Ģà¸Ľ":5234,"à¸²à¸ŀà¸¥":5235,"se":5236,"à¹ģà¸ģà¸°":5237,"à¹ģà¸¡à¸£":5238,"à¸Ļà¹ĥà¸Ļà¸£":5239,"à¸Ńà¸Ńà¸ģà¸¡à¸²à¸Īà¸²à¸ģ":5240,"à¸£à¸Ķà¸ģ":5241,"à¸Ńà¸²à¸į":5242,"à¸ªà¸²à¸ĺà¸²à¸£à¸ĵà¸ª":5243,"à¸²à¸¢à¸ĭ":5244,"à¸Ĳà¸¯":5245,"à¸¢à¸ĩà¸Ńà¸¢":5246,"ich":5247,"à¸²à¸¢à¸ĵ":5248,"à¸²à¸Īà¸°à¹Ħà¸¡":5249,"46":5250,"à¹Ģà¸ĵ":5251,"à¸Ńà¸ªà¸ĭ":5252,"à¸¢à¸ĸ":5253,"à¸§à¸¡à¹ģà¸Ĥ":5254,"Ġà¹Ģà¸¥à¸Ĥ":5255,"Ġà¹Ĥà¸Ħà¸£à¸ĩà¸ģà¸²à¸£":5256,"à¸Ńà¸ļà¸ªà¸Ļ":5257,"à¸²à¸Ļà¸Ļà¸²":5258,"à¸Ħà¸£à¸Ńà¸ĩà¸£à¸²à¸Ĭà¸¢":5259,"à¸¡à¸Ļà¸ķ":5260,"à¸§à¸¢à¸Ķ":5261,"Ġà¸ķà¸¥à¸Ńà¸Ķà¸Ī":5262,"à¸Īà¸°à¸ģà¸¥":5263,"à¸§à¸¡à¸ĩà¸²à¸Ļà¸ģ":5264,"à¹Ĥà¸Łà¸£":5265,"à¹ģà¸¥à¸°à¸«":5266,"ĠMar":5267,"à¸ļà¸²à¸ĩà¸Ĭà¸Ļ":5268,"Ġ2528":5269,"Ġà¸ģà¸£à¸°à¸Ĺ":5270,"Ġà¹Ħà¸Ń":5271,"à¸§à¸¡à¸ªà¸¡":5272,"à¸§à¸Ļà¸«":5273,"à¸¢à¸¡à¹ĥà¸Ĭ":5274,"à¸Ľà¸£à¸°à¸Ĭà¸²à¸ª":5275,"à¹Ĥà¸Ĺà¸Ļ":5276,"55":5277,"à¸Ļà¸ŀà¸§à¸ģ":5278,"à¸Ńà¸ĩà¸£à¸²à¸Ĭà¸Ń":5279,"à¸§à¸¢à¸Ľ":5280,"à¹Ģà¸Ńà¸°":5281,"à¸Ļà¸Ĺà¸£à¸¡à¸«":5282,"à¸Ļà¹Ĥà¸£":5283,"à¹Ģà¸Ļà¸ķà¸£":5284,"oll":5285,"à¸ĩà¸¥à¸ĩ":5286,"à¸¢à¸ŀà¸£à¸°à¸ļà¸²à¸Ĺà¸ªà¸¡à¹Ģà¸Ķ":5287,"à¸Īà¸ŀà¸£à¸°à¸Ļà¸²à¸ĩà¹Ģà¸Ī":5288,"à¸§à¸²à¸Ĺ":5289,"à¸Ĳà¸ª":5290,"à¹Ģà¸Ĥà¸²à¹Ħà¸¡":5291,"Ġà¸£à¸²à¸Ĭ":5292,"à¸Ļà¸ªà¸¡à¹Ģà¸Ķ":5293,"à¸Ńà¸ĩà¸Īà¸²à¸ģà¹Ģà¸Ľ":5294,"out":5295,"Ġà¹ģà¸¥à¸°à¸Ľà¸£":5296,"à¸Ĥà¸ļà¸§à¸Ļ":5297,"Ġà¸ĩ":5298,"à¸Ļà¸Ĭà¸²à¸¢":5299,"à¸Ļà¹Ģà¸Īà¸Ńà¸£":5300,"à¸ªà¸ĩ":5301,"ular":5302,"eb":5303,"à¸ģà¸Ńà¸Ńà¸ģà¹ģà¸ļà¸ļ":5304,"Ġà¹Ħà¸®":5305,"à¸ģà¸£à¸°à¸Ķà¸²à¸©":5306,"à¸Ļà¸ģà¸²à¸£à¸£":5307,"à¸Ħà¸ĵà¸°à¸ģà¸£à¸£à¸¡":5308,"88":5309,"à¸²à¸Ļà¸Ĺà¸²à¸Ļ":5310,"à¹Ģà¸ĺà¸Ńà¸¡":5311,"à¸£à¸£à¸¢à¸²":5312,"31":5313,"Ġ.":5314,"à¸Ļà¸Ļà¸²à¸¢à¸ģà¸£":5315,"Ġà¹Ħà¸¡à¸¥":5316,"à¹Ĥà¸¡à¸£":5317,"eam":5318,"Ġà¹Ģà¸ĩ":5319,"à¸Ľà¸ªà¸¡":5320,"à¸ķà¸Ńà¸ļà¸ªà¸Ļ":5321,"à¸§à¸¨":5322,"à¸Ļà¸³à¹Ģà¸ªà¸Ļà¸Ń":5323,"à¸ĩà¸Ľà¸£à¸°à¸ķ":5324,"à¸¢à¹ĥà¸«":5325,"à¸¢à¹Ģà¸Ĭ":5326,"Ġà¹Ģà¸Ĺà¸¨":5327,"à¸ķà¸Ńà¸¥":5328,"à¸«à¸¥à¸ļà¸«à¸Ļ":5329,"à¸łà¸²à¸©à¸²à¸Ī":5330,"à¸£à¸¢":5331,"à¸ļà¸Ľà¸¥":5332,"Ġà¹Ģà¸ľ":5333,"à¸Īà¸²à¸ģà¸ķ":5334,"à¸Ľà¸£à¸²à¸ģà¸ıà¹ĥà¸Ļ":5335,"à¸²à¸¡à¸ķ":5336,"à¸ļà¸£à¸£à¸Ķà¸²à¸¨":5337,"à¸ģà¸ĭà¸²à¸Ļà¹Ģà¸Ķà¸Ńà¸£":5338,"à¸¬à¸²à¹Ĥà¸Ńà¸¥":5339,"à¸ģà¸¥à¸²à¹Ĥà¸«à¸¡":5340,"à¸§à¸Ļà¸ļ":5341,"à¸Ħà¸£à¸Ńà¸ļà¸Ħà¸£à¸Ńà¸ĩ":5342,"hip":5343,"à¹Ģà¸Ħà¸²à¸£à¸ŀ":5344,"Ġà¹ģà¸¥à¸°à¸Ĺà¸³à¹ĥà¸«":5345,"à¸§à¹ģà¸Ĺà¸Ļà¸Ĥà¸Ńà¸ĩ":5346,"à¸ģà¹ĥà¸Ļà¸Ĭ":5347,"à¸¡à¸²à¸Ĭ":5348,"à¸§à¸Ńà¸£":5349,"à¸Ĳà¸Ļ":5350,"à¸ģà¹Ĥà¸Ĺà¸©":5351,"à¸²à¸¥à¸ª":5352,"sh":5353,"à¸ģà¹Ģà¸ķà¸Ńà¸£":5354,"à¸ªà¸²à¸¡à¸²à¸£à¸ĸà¹Ģà¸Ĥ":5355,"à¹Ģà¸Ńà¸Łà¹Ģà¸Ń":5356,"à¸ªà¸°à¸Ķ":5357,"37":5358,"39":5359,"à¸Ħà¸¥à¸²à¸ªà¸ª":5360,"Ġà¹Ħà¸ĭ":5361,"à¸Ķà¸Ľà¸£à¸°à¸ªà¸ĩà¸Ħ":5362,"à¸§à¸ĩà¸Ħà¸£":5363,"à¸ŀà¸§à¸ģà¸¡":5364,"ax":5365,"à¸Ķà¹ĥà¸Ĭ":5366,"Ġà¸Īà¸²à¸ģà¸ģà¸²à¸£":5367,"Ġon":5368,"à¸²à¹ģà¸ļà¸ļ":5369,"ĠEn":5370,"à¹Ī)":5371,"à¸Ļà¸Ķà¸²à¸£":5372,"à¸¢à¸§à¸Ļ":5373,"à¹ģà¸Ŀ":5374,"à¸Ľà¸°à¸Ĺ":5375,"à¸§à¸ĩà¸ŀ":5376,"à¸ĩà¸Ĭà¸²à¸§":5377,"à¹Ħà¸ľ":5378,"à¸§à¸ĩà¸Ķà¸Ļà¸ķà¸£":5379,"ĠPl":5380,"à¸Ńà¸Ļà¸¥":5381,"à¸Ĭà¸²à¸Ĺ":5382,"à¸Ńà¸¡à¸£à¸Ńà¸ļ":5383,"à¸ªà¹Ħà¸ķà¸Ļ":5384,"pl":5385,"à¸Ńà¹Ģà¸Ħà¸£":5386,"à¸µà¹Ĭ":5387,"Ġ2525":5388,"à¸Īà¸ŀà¸£à¸°à¸¡à¸ĩà¸ģ":5389,"à¸²à¸ŀà¸£à¸°à¸¢à¸²":5390,"36":5391,"Ġà¸Ķà¸³à¸£à¸ĩà¸ķà¸³à¹ģà¸«à¸Ļ":5392,"à¹Ģà¸Ńà¸ģà¸¥":5393,"à¹Ģà¸©à¸ģà¸ªà¸¡à¸£à¸ª":5394,"ple":5395,"à¸²à¸Ļà¸Ńà¸¢":5396,"à¸¢à¸Ļà¹Ĥà¸Ķà¸¢":5397,"à¸Ļà¸Ńà¸Ńà¸ģà¸Ĥà¸Ńà¸ĩ":5398,"Ġà¸Ļà¸²à¸¢à¸ģà¸£":5399,"à¸ªà¸²à¸§à¸£":5400,"Ġà¹ĥà¸Ļà¹Ģà¸¡":5401,"à¸§à¸¡à¸£":5402,"à¸³à¸Ļà¸²à¸į":5403,"</":5404,"à¸ĩà¸Ľà¸£à¸°à¸ģà¸Ńà¸ļà¸Ķ":5405,"à¸¥à¹Ģà¸ģ":5406,"à¸¥à¸Ńà¸£":5407,"à¸«à¸¥à¸²à¸¢à¹ģà¸«":5408,"à¸Ĺà¸£à¸²à¸ļà¸§":5409,"à¸Ļà¸ŀà¸£à¸°à¸£à¸²à¸Ĭà¹Ĥà¸Ńà¸£à¸ª":5410,"à¸ģà¸²à¸£à¸Ĺà¸Ķà¸¥à¸Ńà¸ĩ":5411,"Ġà¸Ķà¸³à¹Ģà¸Ļ":5412,"Ġà¸ģà¸²à¸£à¸¨":5413,"à¸ģà¸¡à¸§à¸¢à¸Ľà¸¥":5414,"à¹ģà¸¥à¸°à¸ģà¸¥":5415,"à¸İà¹Ģà¸ģà¸¥":5416,"à¹Ĥà¸«à¸§":5417,"à¸§à¸ĩà¸ģ":5418,"à¸£à¸°à¸¡":5419,"Ġà¸¡à¸²à¹Ģà¸Ľ":5420,"à¸Ļà¸Ĺà¸²à¸ĩà¸ģà¸¥":5421,"Ġà¸ģà¸¡":5422,"86":5423,"Ġà¸ªà¸²à¸§":5424,"Ġà¹ĥà¸Ļà¸ŀ":5425,"à¸²à¸Ļà¸ļà¸Ļ":5426,"à¹Ģà¸Ĥà¸²à¸ķ":5427,"à¸²à¹Ĥà¸Ķà¸¢":5428,"à¸ģà¸©à¸²à¸Ń":5429,"à¸£à¸£à¸ĸ":5430,"à¸¹-":5431,"Ġ180":5432,"à¹Ģà¸Ħà¸¢à¹Ħà¸Ķ":5433,"à¸§à¹Ģà¸ªà¸£":5434,"à¸ļà¸£à¸°à¸ļà¸ļ":5435,"à¸Ĥà¸Ńà¸ĩà¹Ħà¸Ĺà¸¢":5436,"Ġà¸ªà¸²à¸ĺà¸²à¸£à¸ĵà¸£":5437,"à¸Ļà¸³à¸Ĺ":5438,"à¸ļà¸Ĺà¸ļà¸²à¸Ĺà¸ªà¸³à¸Ħ":5439,"à¸²à¹Ħà¸§":5440,"à¸ĩà¸ģà¸³à¸¥":5441,"à¸ĩà¸¥à¸Ńà¸Ļà¸Ķà¸Ńà¸Ļ":5442,"à¸ģà¸¤à¸©à¸İ":5443,"à¸ķà¸£à¸ģ":5444,"à¸Ļà¸¤à¸Ķ":5445,"à¸ĩà¸Ĥà¸Ńà¸ĩà¸Ī":5446,"à¸Ńà¸£à¸°à¸«à¸§":5447,"à¹Ĥà¸Ĭà¸ģ":5448,"à¸¡à¸²à¸ķà¸£à¸²":5449,"ternational":5450,"à¸¥à¹Ģà¸ĭ":5451,"à¸§à¸łà¸²à¸ŀ":5452,"à¸Ħà¸§à¸²à¸¡à¹Ħà¸¡":5453,"à¸ģà¸£à¸°à¹Ĥà¸Ķ":5454,"à¸Ļà¸Ńà¸²à¸¢":5455,"à¸¡à¹Ĥà¸Ķà¸¢":5456,"à¸²à¸Ķà¸£":5457,"à¸°à¹Ģà¸¥à¸ªà¸²à¸ļ":5458,"Ġà¸¡à¸²à¸ģà¸ģà¸§":5459,"à¸Ńà¹ģà¸ķ":5460,"à¸ĩà¸ł":5461,"Ġà¸Ľà¸²à¸ģ":5462,"à¸²à¹Ģà¸§":5463,"à¸ĩà¸Ĭà¸Ļ":5464,"à¸Ķà¹ĥà¸Ļà¸Ľ":5465,"yst":5466,"à¹Ģà¸ŀà¸Ńà¸£":5467,"à¸Ńà¸Ļà¹ĥà¸«":5468,"à¹Ģà¸£à¹Ģà¸Ļ":5469,"à¸ĩà¸¡à¸²à¸£":5470,"à¸ĩà¸ĺà¸Ļà¸ļ":5471,"Ġ2523":5472,"ress":5473,"à¸Ļà¸ŀà¸£à¸°à¹Ģà¸Ī":5474,"à¸įà¸Ĭà¸Ļà¸°":5475,"87":5476,"à¸Ńà¸Ļà¸Ľà¸¥à¸²à¸¢":5477,"Ġ1999":5478,"Ġà¹Ĥà¸£à¸Ħ":5479,"à¹Ĥà¸¢à¸°":5480,"à¸²à¸¡à¸ģà¸¥à¸²à¸ĩ":5481,"à¸Ļà¸ķà¸°à¸§":5482,"à¹Ģà¸ĭà¹Ĥà¸¥":5483,"à¸ľà¸¥à¸ĩà¸²à¸Ļà¹Ģà¸ŀà¸¥à¸ĩ":5484,"à¸²à¸ªà¸²à¸¡":5485,"à¸Ĺà¸ĺà¸¨à¸²à¸ªà¸ķà¸£":5486,"à¸Ľà¸ªà¸£à¸£à¸Ħ":5487,"à¸Ĺà¸²à¸ĩà¸Ī":5488,"à¸Ńà¸Ĭà¸²à¸ķ":5489,"à¸ģà¸Ńà¸ļ":5490,"à¸Ħà¹ģà¸«":5491,"à¸ģà¸²à¸£à¹ģà¸ŀà¸Ĺà¸¢":5492,"à¸²à¸ĩà¸£à¸°à¸«à¸§":5493,"à¸Ĥà¸Ńà¸ĩà¸į":5494,"Ġà¹Ĥà¸ķ":5495,"à¹ĥà¸Ļà¸ģà¸²à¸£à¸Ĺà¸³":5496,"à¸ģà¹Ħà¸Ĺà¸¢":5497,"à¸³à¸§":5498,"à¸¥à¸²à¸¢à¹Ģà¸Ľ":5499,"à¸²à¸¢à¸Ĭà¸Ļà¸°":5500,"à¸§à¸Ļà¸Ĭ":5501,"à¸²à¸Ĥà¸Ļà¸²à¸Ķ":5502,"à¸ļà¸ģà¸²à¸£à¹Ģà¸ªà¸Ļà¸Ńà¸Ĭ":5503,"à¸Ńà¸³à¹Ģà¸łà¸Ńà¸ļ":5504,"à¸Ļà¸£à¸°à¸Ķ":5505,"à¸«à¸¡à¸²à¸¢à¹Ģà¸«à¸ķ":5506,"à¸ķà¸Ļà¸£à¸²à¸Ĭà¸ª":5507,"Ġà¹Ĥà¸£à¸ĩà¸ŀà¸¢à¸²à¸ļà¸²à¸¥":5508,"à¸¥à¸²à¸¡":5509,"à¸Ńà¸ģà¸£":5510,"à¸ģà¸§à¸²à¸Ķ":5511,"Ġth":5512,"à¸ŀà¸£à¸°à¸Ħà¸£":5513,"à¸³à¸Ļà¸§à¸Ļà¸Ĺ":5514,"à¸Ĺà¸£à¹ģà¸Ľà¸ĭ":5515,"à¸²à¸ĩà¹ĥà¸«":5516,"à¸Ńà¸Ļà¸«à¸¥":5517,"à¸ģà¸ĩà¸²à¸Ļà¸Ħà¸ĵà¸°à¸ģà¸£à¸£à¸¡à¸ģà¸²à¸£":5518,"à¸²à¸ĩà¹ĥà¸Ļ":5519,"à¸įà¸ª":5520,"à¹Ģà¸Ńà¸Ļà¹Ħà¸ĭà¸¡":5521,"à¹Ħà¸Ľà¸Īà¸²à¸ģ":5522,"à¸²à¸ĩà¸ªà¸¡":5523,"à¹Ģà¸Ĥà¸ķà¸£":5524,"à¸Ĺà¸¥":5525,"à¹Ģà¸£à¸¢":5526,"à¸ĩà¸ªà¸ĩà¸Ħà¸£à¸²à¸¡":5527,"à¸®à¸Ńà¸£":5528,"Ġà¹ĵ":5529,"ee":5530,"à¸¢à¸ĩà¸Ļ":5531,"à¸²à¸«à¸¡à¸ĵ":5532,"à¸«à¸¥à¸²à¸¢à¸Ĭà¸Ļ":5533,"Ġ1998":5534,"à¸ŀà¸£à¸°à¸Ī":5535,"à¸ķà¹ĥà¸Ļ":5536,"à¸Ĭà¸ķ":5537,"à¸²à¸ĩà¸«à¸¥":5538,"à¸įà¸¨":5539,"à¸Ļà¸¡à¸²à¹Ģà¸Ľ":5540,"Ġà¸ªà¸Ļ":5541,"à¸ģà¸¡à¸§à¸¢à¸ªà¸²à¸ģà¸¥":5542,"Ġà¸Īà¸Ńà¸£":5543,"à¸¢à¸Ļà¸Ńà¸¢":5544,"à¸Īà¸³à¸ŀà¸§à¸ģ":5545,"à¸£à¸²à¸¢à¸ĩà¸²à¸Ļà¸§":5546,"à¸Ļà¹Ĥà¸¢à¸ļ":5547,"=\"":5548,"à¸Ĵà¸Ļà¸²à¸Ĥ":5549,"Ġà¸£à¸°à¸ļ":5550,"à¸ļà¸ªà¸²à¸¡":5551,"à¸Ľà¸£à¸°à¸Ĭà¸²à¸Ĭà¸Ļà¸Ĺ":5552,"Ġ+":5553,"à¸ķà¸Ńà¸Ļà¸Ļ":5554,"Ġà¸Ľà¸¥à¸²à¸¢":5555,"Ġà¸ĭà¸¡":5556,"Ġà¸Ńà¸²à¸«à¸²à¸£":5557,"à¸ģà¸¡à¸²à¸ģà¸¡à¸²à¸¢":5558,"à¸¢à¸Ļà¹ĥà¸Ļ":5559,"à¸ªà¸Ļà¸²à¸¡à¸ģ":5560,"à¸¹\"":5561,"à¸§à¸Ļà¸Ī":5562,"Ġà¸Ħà¸Ńà¸£":5563,"Ġà¸Ŀà¸£":5564,"à¹ģà¸ļà¸Ļ":5565,"à¸²à¸¡à¸Ļ":5566,"à¸Ĥà¸Ńà¸ĩà¸Ľà¸£à¸°à¹Ģà¸Ĺà¸¨à¹Ħà¸Ĺà¸¢":5567,"à¸¢à¸«à¸¥":5568,"à¸Ńà¸ĩà¹Ħà¸Ľ":5569,"à¸Ĥà¸Ńà¸ĩà¸Ļà¸²à¸¢":5570,"à¸ªà¸Ń":5571,"à¸²à¸¢à¸ĸ":5572,"à¸įà¸Ĭà¸²à¸ģà¸²à¸£à¸Ĺà¸«à¸²à¸£":5573,"à¸¢à¸¨à¸£":5574,"Ġà¸ŀà¸£à¸°à¸¢":5575,"à¸§à¸Ķà¸¥à¸²à¸¢":5576,"à¸Ńà¸Īà¸°":5577,"à¹Ģà¸Ķà¸Ń":5578,"à¸ģà¸²à¸£à¹Ģà¸Ĭ":5579,"à¸Łà¹Ģà¸§à¸Ńà¸£":5580,"à¹Ħà¸Łà¸Ĺ":5581,"à¸¢à¹Ģà¸ģà¸©à¸ķà¸£à¸¨à¸²à¸ªà¸ķà¸£":5582,"à¸Ļà¹ģà¸¥à¸°à¸ģ":5583,"à¸įà¸įà¸²à¹Ģà¸Ńà¸ģ":5584,"à¸°à¹Ģà¸¢":5585,"à¸Ļà¹Ĥà¸Ľ":5586,"à¸Ńà¸²à¸ĵà¸²à¹Ģà¸Ĥà¸ķà¸ķ":5587,"à¸ĩà¸Ħà¸£à¸£à¸ł":5588,"Ġe":5589,"à¸Ńà¹Ĥà¸ķ":5590,"à¹ģà¸¥à¸°à¸Ľà¸£":5591,"à¸§à¸Ļà¸ķà¸³à¸ļà¸¥":5592,"à¸¥à¸°à¸Ħà¸Ļ":5593,"à¸¡à¸ªà¸£":5594,"à¸įà¸£":5595,"à¸³à¸Ļà¸§à¸ĵ":5596,"à¹Ĥà¸ķà¸¡":5597,"Ġpro":5598,"Ġ1960":5599,"à¹Ģà¸Ĺà¸Ļà¹Ģà¸¡à¸Ļà¸ķ":5600,"à¸ªà¸¡à¸Ĺ":5601,"à¹Ģà¸Ļà¸£":5602,"à¸ļà¸ģà¸²à¸£à¸Ħ":5603,"à¸§à¹Ģà¸ģ":5604,"à¹ĥà¸Ļà¸ģà¸£à¸ĵ":5605,"Ġà¹ģà¸¥à¸°à¸«à¸Ļ":5606,"à¸²à¹ĥà¸«à¸¡":5607,"à¸Ķà¹ģà¸ªà¸Ķà¸ĩ":5608,"ame":5609,"ound":5610,"ans":5611,"à¸§à¸ģà¸§":5612,"à¹ĥà¸Ļà¸Ļà¸²à¸¡":5613,"à¸ľà¸Ļ":5614,"à¸Ļà¸Ļà¸²à¸¢":5615,"Ġà¸ªà¸¡à¸£à¸ªà¸ģ":5616,"à¸¡à¸ļà¸£":5617,"à¸Ĺà¸Ĭ":5618,"à¸Ļà¸ķà¸Ļ":5619,"à¸ĩà¸Ħà¸¡à¸Ĺ":5620,"Ġ2516":5621,"à¹Ĥà¸Ľà¹Ģà¸ģà¸¡":5622,"à¸ªà¸¡à¸Ħà¸§à¸£":5623,"à¸¥à¸²à¸Ńà¸Ńà¸ģà¸Īà¸²à¸ģ":5624,"à¸¡à¹Ģà¸¡à¸Ńà¸£":5625,"à¸Ńà¸ĩà¹Ģà¸ķ":5626,"à¸ķà¸²à¸¡à¸¥à¸³à¸Ķ":5627,"Ġ2527":5628,"à¸ģà¸²à¸£à¸Ĺà¸Ķà¸ªà¸Ńà¸ļ":5629,"à¸¨à¸§à¸ģà¸£à¸£à¸¡à¸¨à¸²à¸ªà¸ķà¸£":5630,"à¸¥à¸²à¸ģà¸²à¸£":5631,"à¸Ĭà¸¡à¸ŀ":5632,"à¸²à¸ģà¸°":5633,"à¸ģà¸£à¸Ń":5634,"à¸§à¸ĩà¹Ģà¸§à¸¥à¸²":5635,"Ġà¸Ńà¸ĺ":5636,"Ġ2526":5637,"à¸²à¹Ħà¸Ľà¹ĥà¸Ļ":5638,"Ġ2524":5639,"à¸§à¸Ńà¸¥à¹Ģà¸¥à¸¢":5640,"à¸Ĥà¸Ńà¸ĩà¹Ģà¸ª":5641,"à¸Ĺà¸Ńà¸Ķ":5642,"à¸²à¸Ńà¸²à¸§à¸²à¸ªà¸§":5643,"à¸ķà¸ļà¸Ńà¸¥à¸Ĭ":5644,"à¸Ļà¹ģà¸Ĥ":5645,"à¸ŀà¸£à¸£à¸Ħà¸Ħà¸Ńà¸¡à¸¡":5646,"à¸ģà¹ģà¸ģ":5647,"à¸ģà¹ĥà¸Ī":5648,"à¸°à¹ģà¸Ļ":5649,"33":5650,"à¹ĥà¸Ļà¸ģà¸²à¸£à¹Ģà¸Ĥ":5651,"à¸Ńà¸ĩà¸Ļà¸Ħà¸£":5652,"à¸¢à¸²à¸§à¸Ļà¸²à¸Ļ":5653,"à¸¡à¹ģà¸Ĥ":5654,"à¸²à¸Ļà¸Ńà¸²à¸«à¸²à¸£":5655,"à¸Ħà¸§à¸²à¸¡à¸ªà¸³à¹Ģà¸£":5656,"à¸§à¸¡à¸²à¸ģ":5657,"à¸ļà¸ģà¸²à¸£à¸¢à¸ģà¸¢":5658,"à¸§à¸£à¸§":5659,"44":5660,"à¸Īà¸ŀà¸£à¸°à¸£à¸²à¸Ĭà¸²à¸ĺ":5661,"ST":5662,"Ġà¸ģà¸£à¸£à¸¡à¸ģà¸²à¸£":5663,"à¸Ĥà¸Ńà¸ĩà¸«à¸Ļ":5664,"à¸Ľà¹ģà¸ļà¸ļà¸Ĺ":5665,"à¸Ńà¸ĩà¹ĥà¸«à¸į":5666,"à¸Ķà¸ģà¸£à¸°à¸Ĺà¸£à¸§à¸ĩ":5667,"à¸Ľà¸¥à¸ĩ":5668,"à¸įà¸Ń":5669,"à¸łà¸²à¸©à¸²à¸ª":5670,"à¸Ĺà¸£à¸£":5671,"à¸Ńà¸ĩà¹Ģà¸¡":5672,"à¸Ĺà¸²à¸ĩà¸ģà¸²à¸¢":5673,"à¸²à¸ĩà¸ĩ":5674,"à¸Ħà¸§à¸²à¸¡à¸«à¸¡à¸²à¸¢à¸§":5675,"à¸£à¸©à¸Ĳ":5676,"à¸Ĺà¸ĺà¸ģà¸²à¸£":5677,"à¸ľà¸¥à¸ĩà¸²à¸Ļà¸Ĺ":5678,"à¸Īà¸Ńà¸¡à¸ŀà¸¥":5679,"à¸Īà¸įà¸ł":5680,"à¸ģà¸¥à¸²à¸¢à¸¡à¸²à¹Ģà¸Ľ":5681,"Ġà¹ĥà¸Ļà¸ģà¸²à¸£à¹ģà¸Ĥ":5682,"à¸ŀà¸ļà¹ĥà¸Ļ":5683,"à¹Ģà¸Ĺà¸ŀà¹Ģà¸Ī":5684,"Ġ2517":5685,"à¸ģà¹Ģà¸ªà¸ļ":5686,"à¹Ĥà¸ŀà¸£":5687,"à¹Ħà¸£à¹Ģà¸Ķà¸Ńà¸£":5688,"Ġà¹ģà¸Ń":5689,"à¸Ńà¸ĩà¸Ĺà¸³":5690,"à¸Ħà¸§à¸²à¸¡à¹Ģà¸ģ":5691,"à¹Ĥà¸Ľà¸£à¹Ĥà¸¡":5692,"à¸²à¹Ģà¸ĺà¸Ń":5693,"à¸ªà¸§à¸¢à¸ĩà¸²à¸¡":5694,"à¸Ńà¸ĩà¸ķà¸²à¸¡":5695,"Ġch":5696,"à¸ľà¸¡":5697,"BC":5698,"à¸ģà¸Ħà¸¥":5699,"à¸§à¸ĩà¸¤à¸Ķ":5700,"à¸łà¸²à¸Ħà¸§":5701,"ãģ":5702,"à¸ģà¸²à¸¥à¸Ļ":5703,"yl":5704,"à¸Ļà¹Ĥà¸ĭ":5705,"à¸Īà¸²à¸ģà¸ľ":5706,"à¸Ļà¸£à¸²à¸¢":5707,"à¸Ńà¸¢à¸¡à¸²à¸ģ":5708,"Ġà¸ªà¸²à¸Ĥà¸²":5709,"à¹ģà¸ģà¸£à¸¡à¸¡":5710,"Ġà¸ĺà¸£à¸£à¸¡":5711,"à¸Ļà¹ģà¸¥à¸Ļà¸Ķ":5712,"à¸§à¹Ģà¸ŀ":5713,"à¸Ńà¸ļà¸Ń":5714,"à¹Ĥà¸¡à¸°":5715,"à¸¡à¸²à¸Ńà¸¢":5716,"à¸¹à¹ĭ":5717,"à¸§à¸¢à¸«":5718,"à¸«à¸¡à¸²à¸¢à¹ĥà¸«":5719,"à¸Ļà¹Ģà¸Ľà¸¥":5720,"à¸ķà¸ķà¸²à¸Ļ":5721,"au":5722,"ium":5723,"à¸§à¸¢à¹Ģà¸Ľ":5724,"à¹ģà¸ļà¸ļà¸Ń":5725,"ener":5726,"à¸ģà¹Ģà¸Ī":5727,"à¸ĩà¸«à¸¡à¸²à¸¢à¸ĸ":5728,"inal":5729,"à¸Ļà¹Ģà¸Ļà¸Ńà¸£":5730,"à¸Ļà¸¢à¸²à¸§":5731,"Ġà¸Ħà¸ĵà¸°à¸ģà¸£à¸£à¸¡à¸ģà¸²à¸£":5732,"à¸ķà¸Ĥ":5733,"à¸Ļà¸§à¸Ļ":5734,"ĠCon":5735,"à¸ģà¸²à¸£à¸Ńà¸Ńà¸ģà¹ģà¸ļà¸ļ":5736,"à¸Ķà¸ģà¸£":5737,"à¸ĺà¸£à¸ĵ":5738,"à¸Īà¸ŀà¸£à¸°à¸Ľà¸£à¸¡":5739,"à¸ĩà¹ģà¸®":5740,"100":5741,"77":5742,"à¸ªà¸§à¸¡":5743,"Ġà¹ĥà¸Ļà¹Ģà¸£":5744,"à¸ģà¸²à¸¡":5745,"à¸įà¹ĥà¸Ļ":5746,"à¸ªà¸²à¸¡à¹Ģà¸«à¸¥":5747,"à¸Ļà¹Ĥà¸Ħ":5748,"à¸¢à¸Ļà¸Ħ":5749,"à¸ĩà¸ģà¸²":5750,"à¹Ģà¸ļà¸¨à¸£":5751,"à¸Ľà¸ªà¸¡à¸ļà¸Ĺ":5752,"ron":5753,"à¸Ħà¸Ļà¹Ĥà¸ķ":5754,"à¸Ńà¸¡à¸²à¹ĥà¸Ļà¸§":5755,"ode":5756,"à¸Ļà¸²à¸£à¸²à¸¢à¸ĵ":5757,"à¸ģà¸®":5758,"à¸ļà¹Ģà¸Ĥà¸²":5759,"à¹ģà¸ľà¸¥":5760,"à¸Ĥà¸Ńà¸ĩà¸®":5761,"à¹Ģà¸¡à¸Ĺ":5762,"à¹Ĥà¸¡à¸ªà¸£à¸Ł":5763,"à¸¢à¸ĩà¹Ģà¸¥":5764,"à¸ĩà¹Ģà¸Ħ":5765,"à¸Ļà¹Ĥà¸Ķà¸§à¸ª":5766,"à¸ªà¸ªà¸²à¸§à¸°":5767,"à¸¢à¸ģà¸¥":5768,"ert":5769,"à¸įà¸«à¸²à¸Ĺ":5770,"à¹ģà¸Ńà¸ķà¹ģà¸¥à¸Ļà¸ķ":5771,"à¸²à¸«à¸Ļà¸°":5772,"ĠNew":5773,"Ġ2520":5774,"à¸¢à¸ĩà¸Ĭ":5775,"à¸ĩà¹ĥà¸Ļà¸§":5776,"Ġà¸ªà¸ĸà¸²à¸Ļà¸Ĺ":5777,"à¸¢à¹ĥà¸Ī":5778,"à¸Īà¸ģ":5779,"à¹Ĥà¸Ķà¸¢à¸ľ":5780,"ust":5781,"42":5782,"à¸ļà¸Ĭà¸²à¸§":5783,"à¸§à¹ģà¸ķ":5784,"à¸Ĥà¸Ńà¸ĩà¸ģà¸Ńà¸ĩà¸Ĺ":5785,"à¹Ĥà¸£à¸¡à¸²à¹Ģà¸Ļ":5786,"RI":5787,"à¸¥à¸Ī":5788,"à¸Ļà¸ķà¸²à¸ĭ":5789,"à¸Ĺà¸²à¸ĩà¸Ĺà¸«à¸²à¸£":5790,"à¸Ļà¸«à¸į":5791,"à¸Ħà¸§à¸²à¸¡à¸Ĺ":5792,"yp":5793,"à¸Ļà¸Ńà¸¥":5794,"à¸ĩà¹Ħà¸Ľà¸¢":5795,"à¸Ĥà¸Ļà¸¡":5796,"à¸²à¸Ķà¸§":5797,"à¸ģà¸ķà¸Ńà¹Ģà¸£":5798,"à¸ĩà¸Ńà¸²à¸¢":5799,"Ġà¹Ģà¸Ķà¸§":5800,"land":5801,"à¸ĵà¸ĺà¸£à¸£à¸¡":5802,"à¹Ģà¸Ĺà¸ŀà¸£":5803,"à¹ĥà¸Ļà¸Ľà¸£à¸°à¹Ģà¸Ĺà¸¨à¸Ń":5804,"à¸§à¸Īà¸£":5805,"à¸²à¸ĵà¸²à¸Ļ":5806,"Ġà¸Ķà¸Ńà¸¥à¸¥à¸²à¸£":5807,"à¸Ĺà¸£à¸ĩà¸Īà¸³":5808,"à¸Īà¸ŀà¸£à¸°à¸Īà¸Ńà¸¡à¹Ģà¸ģà¸¥":5809,"à¸ģà¸©à¸ĵà¸°à¹Ģà¸Ķ":5810,"à¸ŀà¸£à¸°à¸ªà¸ĩà¸Ĩ":5811,"à¸ģà¹ģà¸¥":5812,"à¸ªà¹Ģà¸Ĺ":5813,"à¸Īà¸°à¹Ģà¸¥":5814,"à¸ļà¹ģà¸£à¸ģ":5815,"à¸²à¸¡à¸°":5816,"à¹Ģà¸§à¸¥à¸²à¸Ļ":5817,"à¸ļà¸ģà¸Ńà¸ĩà¸Ĺ":5818,"à¸¥à¸Īà¸²à¸ģ":5819,"à¸¥à¸²à¸Ī":5820,"à¸ªà¸Ńà¸ĩà¸Ħ":5821,"à¹ģà¸Łà¸£":5822,"à¸ļà¸ªà¸¥à¸²à¸ģ":5823,"à¸Ĥà¸Ńà¸ĩà¹Ĥà¸£à¸ĩà¹Ģà¸£":5824,"à¸ŀà¸£à¸°à¸£à¸²à¸Ĭà¸Ķà¸³à¸£":5825,"à¸Ļà¹Ģà¸«à¸Ļ":5826,"à¹Ĥà¸ĺ":5827,"à¸¥à¸Ľà¸§":5828,"à¹ģà¸Ļà¸§à¸Ĺà¸²à¸ĩ":5829,"à¸ĩà¸£à¸°à¸ļà¸ļ":5830,"à¸ģà¸²à¸£à¸Ĺà¸Ķà¸¥":5831,"à¸łà¸²à¸ª":5832,"à¸²à¸ĩà¹Ģà¸ªà¸£":5833,"à¸ļà¸Ħà¸§à¸²à¸¡à¸ª":5834,"Ġ1997":5835,"à¸°à¸ļ":5836,"Ġà¸Ńà¸²à¸¨":5837,"à¸²à¸Ļà¹ĥà¸Ļ":5838,"à¸²à¸¡à¸Ĺ":5839,"à¸¥à¸°à¹Ģà¸¡":5840,"à¸Ļà¸ŀà¸£à¸°à¸ŀ":5841,"à¸Ķà¸£à¸ĺà¸²à¸Ļ":5842,"à¹ģà¸¡à¸Ļà¹Ģà¸Ĭà¸ªà¹Ģà¸ķà¸Ńà¸£":5843,"Ġà¹Ģà¸Ńà¸ģ":5844,"à¸²à¸¡à¸²à¹Ģà¸Ľ":5845,"à¸²à¸ªà¸ĸ":5846,"à¸ģà¸Ķà¸Ķ":5847,"à¸Ħà¸³à¹ģà¸«":5848,"à¸ľà¸ªà¸¡à¸ŀ":5849,"à¸Ľà¹Ģà¸Ńà¹Ģà¸Ĭ":5850,"à¸ļà¸Ļà¹Ģà¸ģà¸²à¸°":5851,"sc":5852,"à¸¥à¹ģà¸¥à¸°":5853,"Ġà¸Ńà¸Ńà¸£":5854,"à¸ļà¸ģà¸²à¸£à¹ģà¸ªà¸Ķà¸ĩà¹Ĥà¸Ķà¸¢":5855,"à¸Ķà¸Ĥà¸²à¸Ķ":5856,"à¸Ĥà¸Ńà¸ĩà¸£à¸°à¸ļà¸ļ":5857,"à¸Ħà¸§à¸²à¸¡à¸Ľà¸¥à¸Ńà¸Ķà¸ł":5858,"à¹Ģà¸§à¸ªà¸ķ":5859,"à¸Ĺà¸°à¹Ģà¸¥à¸ªà¸²à¸ļ":5860,"à¹ī,":5861,"à¸¡à¸«à¸£":5862,"à¸¢à¹Ģà¸ģ":5863,"à¹ģà¸Ĺà¸Ļà¸£à¸²à¸©à¸İà¸£à¸Ī":5864,"à¸³à¹Ģà¸Ī":5865,"Ġà¹Ĥà¸Ļà¸°":5866,"à¸Ļà¸¡à¸²à¸ģà¸ģà¸§":5867,"à¸²à¸ªà¸²à¸£à¸Ħà¸²à¸¡":5868,"à¸ļà¸³à¸ļ":5869,"uper":5870,"ma":5871,"à¸²à¸Īà¸°à¸ķ":5872,"Ġà¸Ľà¸£à¸°à¹Ģà¸Ĺà¸¨à¹Ħà¸Ĺà¸¢":5873,"à¸ģà¸©à¸²à¹Ĥà¸£à¸Ħ":5874,"Ġà¹Ģà¸ŀà¸£à¸²à¸°à¸¡":5875,"à¸²à¸§à¸Ķà¸²à¸£":5876,"à¸Ĳà¸ªà¸łà¸²":5877,"à¸įà¸«à¸²à¸ģà¸²à¸£":5878,"à¸Ńà¸Īà¸²à¸ģà¸Ļ":5879,"à¸Ĥà¸Ńà¸ĩà¹Ģà¸«à¸¥":5880,"à¸ĩà¹Ģà¸ĭ":5881,"à¸ģà¸¥à¸²à¸ĩà¸Ħ":5882,"ĠEx":5883,"à¹Ĥà¸ļà¸£à¸²à¸ĵà¸Ħà¸Ķ":5884,"32":5885,"Ġà¹Ħà¸Ł":5886,"à¸³à¸Ľ":5887,"à¸³à¹Ĥà¸Ĥ":5888,"à¸ĩà¸ªà¸ĸà¸²à¸Ļ":5889,"à¹Ĥà¸Ńà¸ĭ":5890,"à¸Ħà¸Ļà¸ª":5891,"à¸Ĥà¸Ńà¸ĩà¸Ńà¸ĩà¸Ħ":5892,"à¸ģà¸Ńà¸Ļ":5893,"à¸ģà¸²à¸£à¸ľ":5894,"à¸¥à¸Ńà¸Ńà¸ªà¸ģà¸²à¸£":5895,"tor":5896,"à¸ģà¸²à¸£à¸¡":5897,"à¸Ńà¸ģà¸³à¹Ģà¸Ļ":5898,"Ġà¹ģà¸¥à¸°à¸¨":5899,"à¸Ļà¹ģà¸Ħ":5900,"à¸Ļà¸Ĺà¸²à¸ĩà¹Ħà¸Ľà¸¢":5901,"à¸ļà¸§à¸ģ":5902,"à¸Ńà¸¡à¸²à¸Ī":5903,"Ġà¸Īà¸Ńà¸¡":5904,"à¸Ńà¸Ńà¸ģà¸Īà¸³à¸«à¸Ļ":5905,"à¹ĥà¸Ļà¸ģà¸²à¸£à¹ĥà¸Ĭ":5906,"à¸ļà¸ªà¸ĸà¸²à¸Ļ":5907,"à¸Ĥà¸Ńà¸ĩà¸¡à¸«à¸²à¸§":5908,"à¸ģà¸©à¸²à¸Ľà¸£à¸°":5909,"à¸Ĺà¸²à¸ĩà¸ªà¸ĸà¸²à¸Ļ":5910,"Ġà¸Ńà¸Ńà¸ģà¸Īà¸³à¸«à¸Ļ":5911,"Ġ1996":5912,"à¸ģà¹Ģà¸ĸ":5913,"ire":5914,"à¸Ńà¸ģà¸Īà¸²à¸ģ":5915,"ĠBe":5916,"à¸Ķà¸²à¸§à¹Ģà¸Ĺ":5917,"à¸Ĥà¸Ńà¸ĩà¸Ŀ":5918,"à¸¨à¸§à¸ģà¸£":5919,"à¸Ńà¹Ĥà¸£à¸Ħ":5920,"à¸ģà¸ļà¸§à¸Ĭ":5921,"à¸ĩà¸Ľà¸£à¸°à¸ĺà¸²à¸Ļà¸²à¸ĺ":5922,"à¹ī.":5923,"à¸ªà¸¥à¸°":5924,"à¸ģà¸²à¸£à¸ģà¸¥":5925,"à¸Ĺà¸ĺà¸ģà¸²à¸£à¸Ĺ":5926,"à¸²à¸ĩà¸Ħà¸¥":5927,"Ġ75":5928,"SA":5929,"Ġal":5930,"à¸¡à¹ĥà¸«à¸į":5931,"à¸«à¸²à¸£à¸Ī":5932,"ree":5933,"à¸²à¸Ĺà¸³à¹ĥà¸«":5934,"à¸ĩà¸Ħà¸§à¸²à¸¡à¸£":5935,"à¸Ļà¸Ĺà¸£à¸§":5936,"à¹Ģà¸Ĥà¸ķà¸ģà¸²à¸£à¸Ľà¸ģà¸Ħà¸£à¸Ńà¸ĩ":5937,"à¹Ģà¸©à¸ģ":5938,"à¸Ļà¸ļà¸Ĺ":5939,"à¸Ķà¹Ħà¸§":5940,"à¸Ńà¸¢à¹ĥà¸«":5941,"à¸ĵà¸§":5942,"à¹Ĥà¸£à¸ĩà¸łà¸²à¸ŀà¸¢à¸Ļà¸ķà¸£":5943,"Ġà¸Īà¸°à¸ĸ":5944,"à¸Ĥà¸Ńà¸ĩà¹ģà¸ķ":5945,"à¸Ńà¸ģà¸Ļ":5946,"à¹Ģà¸¡à¸Ļ":5947,"à¸ļà¸Ħà¸Ļ":5948,"à¹ĥà¸Ķà¸Ĺ":5949,"à¸łà¸²à¸Ħà¸ŀ":5950,"à¸Īà¸³à¸Ļà¸§à¸Ļà¸«à¸Ļ":5951,"ĠYou":5952,"à¸Ļà¹Ĥà¸Ħà¸£à¸ĩà¸ģà¸²à¸£":5953,"à¸§à¸ĩà¸Īà¸£":5954,"à¹Ģà¸Īà¸Ļà¸ķ":5955,"à¹Ģà¸Łà¸¥":5956,"now":5957,"à¸Ńà¹Ĥ":5958,"à¸ļà¸®":5959,"à¸¸à¹ĭ":5960,"à¸Ķà¸Ńà¸³à¸Ļà¸²à¸Ī":5961,"à¸§à¸Ńà¸¥":5962,"à¹Ĥà¸ģà¸£à¸ĺ":5963,"Ġà¸£à¸²à¸Ĭà¸§à¸ĩà¸¨":5964,"à¹ģà¸¥à¸°à¸ŀà¸£à¸°":5965,"Ġà¸ģà¸ģ":5966,"Ġà¸ªà¸¡à¸²à¸Ħà¸¡":5967,"Ġ2500":5968,"ise":5969,"à¸²à¸ªà¸³à¸«à¸£":5970,"à¹ģà¸Ńà¸Ľ":5971,"à¸²à¸ĩà¸łà¸²à¸ŀ":5972,"à¸¡à¸«à¸²":5973,"Ġà¹Ĵ":5974,"à¸³à¹ģà¸ŀ":5975,"Ġà¸¡à¸²":5976,"à¹ĳ":5977,"à¸Ļà¸Ľà¸ı":5978,"à¸īà¸¥à¸²à¸Ķ":5979,"duc":5980,"ition":5981,"à¸§à¸¡à¹Ģà¸Ľ":5982,"à¸Īà¸³à¸¥":5983,"ick":5984,"Ġ2515":5985,"!\"":5986,"à¸¢à¸Ħà¸£":5987,"à¸łà¸²à¸©à¸²à¸¥":5988,"à¸Ļà¸Ĺà¸£à¸¡à¸«à¸²à¸ł":5989,"à¸ļà¸²à¸ª":5990,"à¸Ĭà¸²à¸Ļ":5991,"à¸²à¸ĩà¸ģà¸¥":5992,"à¸ĩà¹ģà¸ªà¸Ķà¸ĩ":5993,"à¸Ķà¸®":5994,"à¹Ħà¸Ńà¸Ļ":5995,"à¹Ĥà¸Ńà¹Ģà¸ģà¸¡":5996,"à¸Ħà¸ĵà¸°à¸§":5997,"à¸ĩà¹Ĥ":5998,"à¸ĩà¹Ģà¸Ħà¸¢":5999,"Ġ240":6000,"Ġà¹ģà¸¥à¸°à¸ļà¸£":6001,"à¸Ļà¸ªà¸ķ":6002,"ĠUniversity":6003,"à¸§à¸ķà¸£":6004,"à¸Ĺà¸Ń":6005,"à¸ģà¸©à¸²à¸ģ":6006,"à¸ģà¸©à¸²à¹ĥà¸Ļ":6007,"à¸²à¸¡à¸²à¸ķ":6008,"à¸Īà¸°à¸Ħ":6009,"à¸§à¸¥à¸°à¸Ħà¸£à¸Ĺ":6010,"à¸Ķà¸Ńà¸ģà¹Ħà¸¡":6011,"à¸Ļà¸¥à¸°":6012,"à¸Ĺà¸²à¸ĩà¸ģà¸²à¸£à¹ģà¸ŀà¸Ĺà¸¢":6013,"79":6014,"à¸ģà¸Īà¸°à¹Ģà¸Ľ":6015,"à¸ģà¸²à¸£à¹ģà¸ģ":6016,"Ġà¸ļà¸¥":6017,"ater":6018,"à¹Ģà¸§à¸Ĺà¸¡à¸Ļà¸ķà¸£":6019,"co":6020,"form":6021,"à¸²à¸¢à¹ĥà¸«":6022,"à¸Ĥà¸Ńà¸ĩà¸ªà¸¡à¹Ģà¸Ķ":6023,"à¸Ħà¸§à¸²à¸¡à¸¢":6024,"à¸ĩà¸ªà¸³à¸«à¸£":6025,"à¸Ĵà¸Ļà¸²à¸¡":6026,"à¸Ńà¸Ĺà¸£à¸ĩ":6027,"à¸§à¹Ģà¸ķ":6028,"à¸Ĭà¸§":6029,"à¸ģà¸²à¸£à¸ļà¸Ķ":6030,"à¹Ĥà¸Īà¹Ĥà¸ī":6031,"ĠLove":6032,"à¸ŀà¸¥à¸Īà¸²à¸ģ":6033,"à¸Ļà¹ģà¸ŀ":6034,"à¸²à¸Ľà¸£à¸°à¸ª":6035,"Ġà¸ģà¸£à¸°à¸Ĺà¸£à¸§à¸ĩà¸¨":6036,"à¸Ļà¸Ľà¸£à¸°à¸¡à¸²à¸ĵ":6037,"à¸ļà¸£à¸Ń":6038,"à¸«à¸²à¸¢à¹ĥà¸Ī":6039,"à¸ļà¸£à¸²à¸Ĭà¸ļ":6040,"ton":6041,"à¸Īà¸Ńà¸Ķ":6042,"à¸Ńà¹Ģà¸ªà¸Ļà¸Ń":6043,"à¸Ħà¸³à¸ŀ":6044,"à¹Ģà¸ĭà¸Ļà¸Ńà¸¥":6045,"\".":6046,"à¸Ńà¸ĩà¸Ŀ":6047,"à¸Ńà¸Ļà¹ĥà¸Ļ":6048,"à¸ŀà¸ļà¹Ģà¸«":6049,"à¸²à¹Ģà¸®à¸Ļà¸£":6050,"à¸Ļà¹Ĥà¸Ĺ":6051,"à¸Ļà¸¡à¸«":6052,"à¸¢à¸¡à¸Ńà¸¢":6053,"ĠMan":6054,"Ġà¸Īà¸²à¸ģà¸¡à¸«à¸²à¸§":6055,"à¸ªà¸²à¸¢à¸ŀ":6056,"à¸Ńà¸ģà¹Ħà¸¡":6057,"Ġ2521":6058,"à¸¢à¸«à¸Ļ":6059,"à¸Ľà¸£à¸°à¸Ĭà¸²à¸ģà¸£à¸Ĺ":6060,"ook":6061,"à¸³à¸¢":6062,"à¸Ńà¸²à¸£à¸²à¸¡":6063,"Ġan":6064,"à¸²à¸Ĩ":6065,"à¸ļà¸Ĭà¸²à¸ķ":6066,"à¹ģà¸ģà¸¥":6067,"à¹Į:":6068,"à¸²à¸§à¸«":6069,"à¸Ĺà¸³à¸ģ":6070,"Ġà¹Ģà¸ģà¸¡":6071,"ĠOr":6072,"à¸ģà¸Ļà¸³à¸¡à¸²à¹ĥà¸Ĭ":6073,"à¸Ķà¸ªà¸³à¸Ļ":6074,"à¸ĩà¹ĥà¸Ļà¸£":6075,"à¹Ħà¸Ĺà¸¢à¸¥":6076,"à¸łà¸²à¸Ħà¸Ń":6077,"AN":6078,"à¸ĩà¸ģà¸¥à¸²à¸¢à¹Ģà¸Ľ":6079,"à¸Ķà¸²à¸§à¸¤à¸ģà¸©":6080,"à¸²à¹Ģà¸¢":6081,"à¸Ńà¸ĩà¸Ľà¸£":6082,"à¸²à¸¢à¹Ģà¸ŀà¸¥à¸ĩ":6083,"à¸ªà¸Ńà¸Ķà¸Ħà¸¥":6084,"à¸§à¸¢à¸Ī":6085,"à¸Ļà¹ĥà¸Ļà¸ª":6086,"à¸ķà¸ŀ":6087,"à¸Ļà¸ªà¸ĸà¸²à¸ļ":6088,"34":6089,"Ġà¹ĥà¸Ļà¸¤à¸Ķ":6090,"à¸Ļà¸³à¸¡à¸²à¹ĥà¸Ĭ":6091,"à¸ĭà¸Ńà¸Łà¸ķ":6092,"à¸²à¸¢à¸Ńà¸¢":6093,"à¸Ļà¸³à¹Ģà¸Ĥ":6094,"eng":6095,"à¹ĥà¸Ļà¸Ĺà¸°à¹Ģà¸¥":6096,"Ġà¹ģà¸¥à¸°à¹Ģà¸ģ":6097,"à¸§à¸¢à¹Ħà¸¡":6098,"Ġà¸ģà¸²à¸£à¹ģà¸Ĥ":6099,"à¸§à¸ĩà¹Ģà¸§à¸¥à¸²à¸Ĺ":6100,"section":6101,"à¸²à¹Ģà¸ĩ":6102,"à¸Ľà¸£à¸°à¹Ģà¸ªà¸£":6103,"à¸įà¸«à¸Ļ":6104,"mp":6105,"à¸²à¸Ļà¸ģà¸¥à¸²à¸ĩ":6106,"à¸ģà¸£à¸Ľà¸ģà¸Ħà¸£à¸Ńà¸ĩà¸ª":6107,"à¸¢à¸ĩà¸ŀà¸Ń":6108,"à¸²à¸ĩà¸ªà¸²à¸§":6109,"à¸Ĥà¸Ńà¸ĩà¸«":6110,"à¸Ńà¸Ļà¸ľ":6111,"à¸Ńà¸Ķà¹Ģà¸¢":6112,"à¸²à¸ļà¸£à¸£":6113,"à¸Ĳà¸ªà¸ł":6114,"Ġà¸ģà¸²à¸£à¸ŀ":6115,"Ġà¹Ģà¸¢à¸Ńà¸£":6116,"78":6117,"à¸ĩà¸Ńà¸Ļ":6118,"à¸¥à¹ģà¸ģ":6119,"à¸Ńà¸¢à¸Ľ":6120,"igh":6121,"à¸ķà¸Ħ":6122,"à¸Īà¸Ń":6123,"Ġà¹Ģà¸Ńà¸ª":6124,"Ġà¹Ģà¸§à¸¥":6125,"à¸Ńà¸ĩà¸ŀà¸£à¸°":6126,"Ġà¸Ĺà¸³à¸«à¸Ļ":6127,"à¹Ģà¸ĵà¸£":6128,"à¹ģà¸Ļà¸§à¹Ĥà¸Ļ":6129,"à¸«à¸¡à¸§à¸Ķà¸«à¸¡":6130,"à¸²à¸Ĳ":6131,"à¸ĩà¸£à¸ĸ":6132,"65":6133,"Ġà¹ģà¸¥à¸°à¹Ģà¸ŀà¸¥à¸ĩ":6134,"à¸§à¸ĩà¸£":6135,"Ġà¸ŀà¸£à¸°à¸ª":6136,"irl":6137,"à¸²à¸Ļà¹ģà¸¥à¸°":6138,"à¸Ħà¸§à¸²à¸¡à¸ªà¸°à¸Ķà¸§à¸ģ":6139,"à¸Ńà¸Ńà¸ģà¸¡à¸²à¹Ħà¸Ķ":6140,"à¸¥à¹ģà¸«":6141,"à¸ĭà¸²à¹Ģà¸ļà¸ĺ":6142,"à¸ģà¸Ĩ":6143,"Ġ1992":6144,"à¸Ļà¹Ģà¸ŀà¸¥à¸ĩà¸Ĺ":6145,"à¸£à¸£à¸ŀà¸ª":6146,"à¸¥à¸Ńà¸Ļà¸Ķà¸Ńà¸Ļ":6147,"à¸¡à¸Ĺà¸«à¸²à¸£":6148,"à¸Łà¸Ĺ":6149,"à¸¡à¸²à¸£à¸Ķà¸²à¸Ĥà¸Ńà¸ĩ":6150,"à¸Ļà¸²à¸¢à¸ģ":6151,"à¸Ńà¸Ľà¸¥":6152,"à¹Ĥà¸¢à¸Ļ":6153,"à¸¢à¸²à¸Ĺ":6154,"Ġà¸¡à¸Ļ":6155,"à¸Īà¸³à¸Ħ":6156,"Ġà¸ģà¸²à¸£à¸Ħ":6157,"à¸ŀà¸£à¸°à¸£à¸²à¸Ĭà¸§à¸ĩà¸¨":6158,"à¸ģà¸©à¸²à¸Īà¸²à¸ģà¹Ĥà¸£à¸ĩà¹Ģà¸£":6159,"à¹Ĥà¸¢à¸ļ":6160,"à¸įà¹Ģà¸Ľ":6161,"à¸µà¹ī:":6162,"à¸Ĳà¸ªà¸łà¸²à¸":6163,"95":6164,"Ġà¹ģà¸¥à¸°à¹Ģà¸ª":6165,"à¸ĩà¸Ĥà¸ĵà¸°":6166,"à¸ĩà¸«à¸¡à¸²à¸¢":6167,"à¸§à¸Ļà¹Ģà¸ģ":6168,"à¸Ĺà¸²à¸ĩà¸Ľà¸£à¸°à¸§":6169,"Ġà¸ĺà¸Ļ":6170,"38":6171,"à¸Ħà¸ģà¸¥à¸²à¸ĩ":6172,"à¸ľà¸¥à¹Ħà¸¡":6173,"Ġ120":6174,"à¸¡à¸²à¸Ń":6175,"Ġsp":6176,"Ġà¹Ħà¸Ľà¸¢":6177,"Ġà¹Ĥà¸Ħà¸¥":6178,"à¸Ńà¸²à¸Ķ":6179,"à¸ĩà¸£à¸²à¸Ĭà¸Ńà¸²à¸ĵà¸²à¸Ī":6180,"à¸²à¸¢à¹ĥà¸Ļà¸§":6181,"à¸Ńà¸ģà¸³à¸«à¸Ļ":6182,"à¸ĩà¸ªà¸Ńà¸ĩà¸Ħ":6183,"à¸ĺà¸£à¸£à¸¡à¹Ģà¸Ļ":6184,"à¸Ńà¸Ļà¸Ľ":6185,"à¸§à¸Ļà¸ľà¸ªà¸¡":6186,"Ġà¸Ľà¸£à¸°à¹Ģà¸Ĺà¸¨à¸į":6187,"à¸Ĥà¸Ńà¸ĩà¸ģà¸£":6188,"à¸Łà¸²à¸£":6189,"Ġà¹Ĥà¸Ķà¸¢à¸Ĭ":6190,"à¸§à¹ģà¸Ľà¸£":6191,"à¸²à¸¥à¸²":6192,"à¸ľà¸¥à¸ªà¸Ńà¸ĩà¸Ļ":6193,"à¸Ľà¸£à¸°à¸ģà¸²à¸¨à¸Ļ":6194,"à¸Ļà¹Ģà¸Ĺà¸Ħà¹Ĥà¸Ļà¹Ĥà¸¥à¸¢":6195,"à¸ķà¸ģà¹ģà¸ķ":6196,"Ġà¹ģà¸Ĺà¸Ļà¸Ĺ":6197,"à¸ģà¸ŀà¸£":6198,"à¸Ĭà¸Ķ":6199,"à¸Ńà¸¡à¸²à¸Īà¸²à¸ģ":6200,"à¹ģà¸¡à¸¥à¸ĩ":6201,"à¸ŀà¸£à¸£à¸Ħà¸Ľà¸£à¸°à¸Ĭà¸²à¸ĺ":6202,"Ġà¸ŀà¸£à¸°à¸Ń":6203,"à¸ļà¸Ļà¸²à¸Ļà¸²à¸Ĭà¸²à¸ķ":6204,"à¹ģà¸Ħà¸ļ":6205,"ung":6206,"à¸ŀà¸¢à¸²à¸ģà¸£à¸ĵ":6207,"à¸ĩà¸£à¸°à¹Ģà¸ļ":6208,"à¹ĥà¸Ļà¹Ĥà¸¥à¸ģ":6209,"à¸Ļà¸£à¸Ńà¸ĩ":6210,"à¸ĩà¹ĥà¸Ļà¸ľ":6211,"à¸ªà¸²à¸Ĥà¸²à¸§":6212,"AR":6213,"à¸¥à¸Ĥ":6214,"à¸§à¸Ļà¸ģà¸¥à¸²à¸ĩ":6215,"à¸ļà¸Ħà¸ĵà¸°":6216,"ions":6217,"à¸²à¸§à¹Ħà¸§":6218,"à¹Ģà¸Ĥà¸²à¹Ħà¸Ł":6219,"à¸²à¹Ĥà¸Ħ":6220,"ts":6221,"à¸Ķà¸¨à¸£":6222,"à¸²à¸¢à¸¥":6223,"Ġà¹ĥà¸Ļà¸Ħà¸£":6224,"à¹Ģà¸¨à¸©à¸Ĺ":6225,"ER":6226,"à¸²à¸Ļà¸²":6227,"à¹ģà¸¥à¸°à¹Ģà¸ŀ":6228,"à¹Ģà¸ľà¸Ķ":6229,"Ġ34":6230,"à¹Ģà¸ĺà¸Ńà¸¢":6231,"à¹ģà¸Ľà¸¥à¸ģ":6232,"à¸Ħà¸²à¸Ķà¸§":6233,"à¸°à¸Ĭ":6234,"à¸ĸà¸Ńà¸Ķ":6235,"Ġà¸Ħà¸£à¸Ńà¸ļà¸Ħà¸£":6236,"à¸£à¸£à¸¢à¸²à¸Ĥà¸Ńà¸ĩ":6237,"à¸ŀà¸£à¸£à¸ĵà¸ļ":6238,"à¸¡à¸Ļà¸²à¸ĸ":6239,"ĠMusic":6240,"à¸ĩà¸Ľà¸ı":6241,"à¸¡à¸ģà¸¥":6242,"à¸ķà¸Ńà¸Ļà¹Ģà¸«à¸Ļ":6243,"ual":6244,"à¸ĩà¸ģà¸¥à¸²à¸ĩ":6245,"à¸Ĭà¸ª":6246,"à¸²à¸¡à¸ª":6247,"à¹Ģà¸¥à¸ķ":6248,"à¸Ľà¸£à¸²à¸Ĭ":6249,"à¸²à¸Ľà¸£à¸°à¸ģà¸§":6250,"à¸ĩà¸ĩà¸²à¸Ļà¸Ĺ":6251,"à¸Ķà¸Ļà¸Ħà¸£à¸£à¸²à¸Ĭà¸ª":6252,"à¸¡à¹Ģà¸Ĭ":6253,"à¸Ĺà¸²à¸ĩà¹Ģà¸«à¸Ļ":6254,"à¸«à¸²à¸£à¸ĺ":6255,"à¸Ļà¸Īà¸°à¹Ģà¸Ľ":6256,"à¸ģà¸łà¸²à¸ŀ":6257,"à¸¢à¸¡à¸Ļ":6258,"à¸¹à¹Ĭ":6259,"à¸§à¸ĩà¸Ĭ":6260,"à¸§à¸£à¸£à¸ĵà¸ł":6261,"à¸Ĥà¸Ńà¸ĩà¸Ķ":6262,"à¸įà¸¢":6263,"à¸Ľà¸£à¸°à¸ģà¸Ńà¸ļà¸łà¸²à¸ŀà¸¢à¸Ļà¸ķà¸£":6264,"à¸łà¸²à¸Ļ":6265,"à¸²à¸ĭà¸²à¸£":6266,"ystem":6267,"tp":6268,"à¸ļà¹Ģà¸ŀà¸¥à¸ĩ":6269,"à¸Ľà¸£à¸°à¸ģà¸²à¸¨à¹ĥà¸«":6270,"à¹ģà¸ªà¸Ķà¸ĩà¸Ńà¸Ńà¸ģ":6271,"à¸Ĺà¸£à¸ĩà¸ķ":6272,"Ġà¸ķà¸¥à¸Ńà¸Ķà¸Īà¸Ļ":6273,"à¸¢à¸§à¸ĩà¸¨":6274,"Ġà¹ĥà¸Ļà¸ĩà¸²à¸Ļ":6275,"à¸ĩà¹Ĥà¸ģ":6276,"à¸Ļà¸ªà¸²à¹Ģà¸«à¸ķ":6277,"à¸Ķà¸ªà¸£à¸£":6278,"à¸ĩà¸ªà¸Ńà¸ĩà¸Ŀ":6279,"à¸¨à¸²à¸ªà¸Ļà¸²à¸Ħà¸£":6280,"ohn":6281,"à¸Ļà¹Ģà¸ģà¸²à¸°":6282,"à¸ģà¸«à¸¡":6283,"à¸§à¸Īà¸²à¸ģ":6284,"à¹Ħà¸Ľà¸Īà¸Ļà¸ĸ":6285,"Ġà¸¡à¸¡":6286,"Ġà¹ĥà¸Ļà¸Ľà¸£à¸°à¹Ģà¸Ĺà¸¨":6287,"à¸Ļà¸¡à¸Ļ":6288,"à¸Ļà¹Ħà¸Ľà¸Ĺ":6289,"à¸²à¸Ńà¸Ńà¸ģà¸Īà¸²à¸ģ":6290,"//":6291,"à¸Ĥà¸Ńà¸ĩà¸¨":6292,"à¸Ļà¸Ļà¸²à¸Ħ":6293,"à¹ĥà¸Ļà¸ļà¸²à¸ĩ":6294,"à¸ģà¸²à¸ķ":6295,"Ġà¸Ńà¸³à¹Ģà¸łà¸Ńà¸ļ":6296,"Ġy":6297,"à¸¢à¸ģà¸²à¸£":6298,"à¸ŀà¸Ńà¸¥":6299,"à¸ļà¸ģà¸²à¸£à¸Ĺ":6300,"à¸Ļà¸ŀà¸£à¸°à¸Ń":6301,"ash":6302,"à¸²à¸Ľà¸£à¸°à¸Ĭ":6303,"à¹Ģà¸§à¸¥à¸¥":6304,"fer":6305,"à¸Ķà¸ļà¸£":6306,"à¸Ńà¸ļà¸Ħà¸¥":6307,"à¸Ľà¸ģà¸Ħà¸£à¸Ńà¸ĩà¸Ĺ":6308,"à¸²à¸Ħà¸§à¸²à¸¡à¸£":6309,"Ġ2475":6310,"Ġ/>":6311,"à¹ĥà¸Ļà¹Ģà¸Ĭ":6312,"Ġà¸Ľà¸Ńà¸Ļà¸Ķ":6313,"à¸ķà¸£à¸ĩà¸ģà¸¥à¸²à¸ĩ":6314,"à¹ģà¸ļà¸¥":6315,"Ġà¸Ķà¸§à¸ĩ":6316,"áĥ":6317,"à¸«à¸²à¸£à¸ĩà¸²à¸Ļ":6318,"à¸²à¹Ĥà¸ĭ":6319,"à¸ģà¸Ľà¸ı":6320,"à¸ļà¹Ģà¸Ĺ":6321,"à¸Ńà¸¡à¸²à¸ĸ":6322,"Ġ<":6323,"à¸ĩà¸§à¸¥":6324,"à¸Ķà¸²à¸£à¸²à¸¨à¸²à¸ªà¸ķà¸£":6325,"res":6326,"Ġ37":6327,"à¸Ļà¸ģà¸£à¸£à¸¡à¸ģà¸²à¸£":6328,"à¸²à¸¢à¹ģà¸£à¸ĩ":6329,"à¸²à¸Īà¸³à¸Ļà¸§à¸Ļ":6330,"à¹Ģà¸§à¸¨":6331,"à¸Ķà¸ģà¸²à¸£à¸ģ":6332,"à¸¬à¸²à¸Ĺ":6333,"ene":6334,"à¸Ļà¹ģà¸Ķà¸Ļà¸Ĺ":6335,"à¸§à¸Ļà¸¥":6336,"Ġà¸Ĥà¸Ńà¸ĩà¸Ĺ":6337,"à¸²à¸ĩà¹Ħà¸ģà¸¥":6338,"ys":6339,"à¸Ķà¸²à¸Ĺ":6340,"à¸§à¸¡à¹ģà¸ªà¸Ķà¸ĩ":6341,"à¸ļà¸²à¸ĩà¸ģ":6342,"à¸ļà¸§à¸£":6343,"à¸Ńà¸ĩà¹ģà¸«":6344,"à¸³à¸Ĥ":6345,"Ġ39":6346,"oci":6347,"à¸ģà¸²à¸£à¸Ħà¸¥":6348,"à¸²à¸¢à¸ľ":6349,"à¸Ńà¸Ļà¸ªà¸Ļ":6350,"Ġà¹ģà¸¥à¸°à¸ŀà¸£à¸°":6351,"à¸§à¸¢à¹Ģà¸ª":6352,"à¸Ńà¸¡à¸²à¸£":6353,"à¸Ńà¸ļà¸ļ":6354,"à¹ģà¸¡à¸Ļà¸ķ":6355,"Ġ400":6356,"à¸²à¸£à¸°à¸ļà¸ļ":6357,"à¸¨à¸Īà¸£à¸£à¸¢":6358,"à¸Ļà¹Ģà¸Ńà¸ģà¸¥":6359,"à¸Ļà¸²à¸ĭ":6360,"à¸¥à¹Ģà¸§":6361,"à¸¢à¸ĵ":6362,"à¸°à¹Ħà¸£":6363,"à¸¢à¸Ļà¸Ļà¸²à¸¢":6364,"à¹Ħà¸¡à¹Ĥà¸Ħà¸£":6365,"à¸łà¸²à¸Ħà¸£":6366,"à¸Ļà¹ĥà¸Ļà¸ªà¸¡":6367,"à¸Īà¸²à¸ģà¸ģà¸²à¸£à¹Ģà¸Ľ":6368,"à¸²à¹Ĥà¸Ļ":6369,"à¸Ķà¹Ģà¸Ļ":6370,"Ġà¹ĥà¸Ļà¸Ħ":6371,"Ġà¸Ńà¸²à¸ĵà¸²à¸Ī":6372,"à¸§à¸¢à¸¥":6373,"Ġà¸Ńà¸²à¸ģà¸²à¸£":6374,"à¸Ĺà¸£à¸Ľà¸£à¸²à¸ģà¸²à¸£":6375,"à¸²à¸łà¸²à¸¢":6376,"à¸Ļà¸į":6377,"à¸Ĺà¸ĺà¸¨à¸ķà¸§à¸£à¸£à¸©à¸Ĺ":6378,"à¸Ĺà¸£à¸ĩà¹Ħà¸Ķ":6379,"Ġà¸ŀà¸¥à¹Ģà¸Ńà¸ģ":6380,"tit":6381,"ara":6382,"à¸Ļà¸²à¸¡à¸ªà¸ģ":6383,"à¹ĥà¸Ļà¸Ńà¸Ļà¸²à¸Ħà¸ķ":6384,"à¹ģà¸¥à¸°à¸¨":6385,"à¸Ķà¸ģà¸²à¸£à¸¨":6386,"à¹ģà¸Ńà¸Ļà¹Ģà¸Īà¸¥":6387,"à¸Ķà¹ģà¸¥":6388,"à¹Ģà¸£à¸Ļ":6389,"Ġà¹Ģà¸ļà¸Ńà¸£":6390,"à¸Ļà¹Ģà¸§à¸¥à¸²à¸Ļà¸²à¸Ļ":6391,"84":6392,"à¸Ńà¸²à¸«à¸£":6393,"à¸ĸà¸²à¸§à¸£":6394,"à¸ĩà¸ªà¸²à¸§":6395,"à¸ĩà¸ķà¸°":6396,"à¸²à¹Ģà¸Ľà¸¥":6397,"à¸ģà¸ķà¸£à¸Ńà¸Ļ":6398,"à¸Ļà¸Ľà¸£à¸°à¸¡":6399,"à¸ģà¸²à¸Ĺ":6400,"à¸Ĥà¸Ńà¸ĩà¹Ģà¸Ħà¸£":6401,"à¸£à¸§à¸¡à¸ľà¸¥à¸ªà¸Ńà¸ĩà¸Ļ":6402,"à¹Ģà¸Ńà¸Ļà¹Ģà¸ķà¸Ńà¸£":6403,"à¸ļà¸ŀà¸£à¸°à¹Ģà¸Ī":6404,"à¸Ńà¸ĩà¸«à¸£":6405,"Ġà¹Ģà¸ŀà¸£à¸²à¸°à¸§":6406,"à¸Ķà¹ģà¸ķ":6407,"à¸§à¸ĩà¸ªà¸ĩà¸Ħà¸£à¸²à¸¡à¹Ĥà¸¥à¸ģà¸Ħà¸£":6408,"ĠRe":6409,"à¸Īà¸ŀà¸£à¸°à¹Ģà¸Ĺà¸ŀà¸£":6410,"Ġ2513":6411,"à¸ĩà¸«à¸¡à¸Ķà¸Ĺ":6412,"à¸²à¹ģà¸ľ":6413,"à¸Ńà¸£à¸£à¸ĸ":6414,"à¸Ķà¹Ģà¸ļ":6415,"à¸¡à¸²à¸ģà¸£à¸£à¸¡":6416,"à¸¢à¸ĩà¹Ĥà¸Ķà¸¢":6417,"Ġà¹Ĥà¸Ķà¸¢à¸ĸ":6418,"ix":6419,"rap":6420,"Ġor":6421,"à¸Īà¸°à¹Ģà¸Ľà¸¥":6422,"à¸ģà¹ģà¸ļà¸ļ":6423,"à¸Ħà¹ģà¸£à¸ģ":6424,"Ġà¸ģà¸²à¸£à¸ģ":6425,"à¸ļà¸£à¸£à¸ĵà¸²à¸ĺ":6426,"à¸Ńà¸ĩà¸ģà¸²à¸£à¸Ĺ":6427,"à¸²à¸¡à¸Ħà¸³à¹ģà¸«":6428,"à¸įà¸§":6429,"à¸įà¹ģà¸«":6430,"à¸Ĳà¸ļ":6431,"Ġà¹ģà¸£":6432,"à¸Ńà¸Ļà¸«":6433,"à¸ķà¸Ńà¸Ļà¹ĥà¸ķ":6434,"à¸ªà¸°à¸Ķà¸§à¸ģ":6435,"à¸ĩà¸Ľà¸£à¸°à¸¡à¸²à¸ĵ":6436,"à¸¡à¸²à¸¨":6437,"à¸Ńà¸Ķà¸£":6438,"à¸¡à¹Ģà¸ģ":6439,"à¹ģà¸¥à¸°à¹Ģà¸¡":6440,"à¸§à¸¢à¸¢":6441,"à¸ĩà¸ªà¸«à¸£à¸²à¸Ĭà¸Ńà¸²à¸ĵà¸²à¸Ī":6442,"Ġà¹ģà¸ļà¸£":6443,"à¸ĩà¸ī":6444,"à¸ªà¸Ĭ":6445,"Ġà¸Ĭà¸Ńà¸ļ":6446,"à¸Ļà¹ĥà¸Ļà¹Ģà¸Ķ":6447,"à¸ļà¸£à¸¡à¸£à¸²à¸Ĭà¸ģ":6448,"à¸Ńà¹ĥà¸«à¸¡":6449,"à¸²à¸¢à¹Ĥà¸Ķà¸¢":6450,"à¹Ĥà¸Ķà¸Ļ":6451,"Ġà¸Ĥà¸Ńà¸ĩà¹Ĥà¸¥à¸ģ":6452,"à¸²à¸ĩà¹Ģà¸ľ":6453,"à¸Ńà¸Ļà¹Ħà¸Ľ":6454,"à¸¢à¸ĩà¹Ħà¸Ķ":6455,"à¸ģà¸²à¸£à¸ĭ":6456,"à¸Ńà¸ªà¹ģà¸Ńà¸Ļà¹Ģà¸Īà¸¥":6457,"à¸²à¸Ĥà¸Ńà¸ĩà¸Ħ":6458,"ĠSchool":6459,"à¸²à¹Ģà¸Ħà¸£":6460,"à¸¢à¹Ĥà¸ļà¸£à¸²à¸ĵ":6461,"à¹Ģà¸¥à¸Ń":6462,"à¸§à¸Ļà¸Ķ":6463,"à¹Ħà¸Ĺà¸¡":6464,"à¸Īà¸Ķà¸«à¸¡à¸²à¸¢":6465,"à¸Ķà¹Ģà¸«à¸¥":6466,"à¸Ńà¸ªà¸Ļ":6467,"anc":6468,"à¹ģà¸ļà¸ļà¸£":6469,"à¸Ħà¸Ļà¸Ļ":6470,"à¹ĥà¸Ļà¹ģà¸Ļà¸§":6471,"à¹Ģà¸Īà¸¡à¸ª":6472,"à¸łà¸²à¸ŀà¸ĸ":6473,"Ġ1991":6474,"An":6475,"à¸¡à¸ĵà¸ĳ":6476,"à¸Ħà¸§à¸²à¸¡à¸«à¸¥à¸²à¸ģà¸«à¸¥à¸²à¸¢":6477,"à¹Ĥà¸¡à¸ļ":6478,"à¸Ħà¸ªà¸¡":6479,"à¸Ńà¸ªà¸ĸ":6480,"à¸ªà¸²à¸¡à¸²à¸£à¸ĸà¸Ĺ":6481,"Ġà¹Ģà¸ŀà¸¥à¸ĩà¸Ļ":6482,"à¸²à¸Ńà¸²à¸ģà¸²à¸¨à¸¢à¸²à¸Ļà¸Ļà¸²à¸Ļà¸²à¸Ĭà¸²à¸ķ":6483,"à¸Ńà¸Ħà¸¥":6484,"à¸§à¸Ļà¸ŀà¸£à¸°à¸Ńà¸ĩà¸Ħ":6485,"à¸¡à¸«à¸²à¸Ń":6486,"à¸ĩà¹ĥà¸Ļà¸Ĺ":6487,"à¸²à¹Ĥà¸Ħà¸£":6488,"Ġà¹ģà¸Ĥà¸§à¸ĩ":6489,"83":6490,"à¸Ńà¸Ļà¹Ģà¸£":6491,"à¸£à¸£à¸¨à¸Ļ":6492,"Ġà¹Ĥà¸Ľ":6493,"à¸ļà¸Ħà¸§à¸²à¸¡à¹Ģà¸ª":6494,"à¹ģà¸Łà¸Ĭ":6495,"Ġà¹Ģà¸¨à¸£à¸©à¸Ĳ":6496,"à¸¡à¸Ĺà¸£":6497,"à¸²à¸ĩà¹ĥà¸«à¸į":6498,"à¸²à¸ģà¸£à¸£":6499,"à¸Ńà¸Ķà¸Ńà¸¥":6500,"Ġ1994":6501,"own":6502,"AT":6503,"à¸Ļà¹ĥà¸ķ":6504,"Ġ55":6505,"Ġà¸Ľà¸£à¸²à¸ģà¸ıà¸§":6506,"à¸¡à¹Ģà¸Ĺ":6507,"Ġà¹Ĥà¸Ķà¸¢à¸§":6508,"à¸ĩà¸¡à¸«":6509,"à¸Ħà¸³à¹ģà¸Ļà¸°à¸Ļà¸³":6510,"les":6511,"à¹ĥà¸Ļà¸ªà¸¡à¹Ģà¸Ķ":6512,"à¸Īà¸²à¸ģà¸ģ":6513,"ina":6514,"à¸Ĭà¸²à¸¢à¸Ĺ":6515,"à¸ªà¸ģà¸²à¸£":6516,"à¸²à¸Ķà¸²à¸§":6517,"à¸¡à¸²à¹Ģà¸ŀ":6518,"http":6519,"à¸¡à¸«à¸¥":6520,"Ġà¸¡à¸Ńà¸£":6521,"à¸Ńà¸ķà¸ª":6522,"ata":6523,"76":6524,"à¸ĩà¸ŀà¸£à¸°à¸Ńà¸ĩà¸Ħ":6525,"à¸ļà¸Ħà¸³à¸§":6526,"à¸Īà¸°à¸ģ":6527,"à¸Ĺà¸²à¸ĩà¸Ń":6528,"à¸Ĭà¸²à¸§à¸į":6529,"à¸ªà¸²à¸¡à¸²à¸£à¸ĸà¸ª":6530,"enter":6531,"à¸Ķà¸¡à¸ªà¸¡à¸ļ":6532,"à¸¡à¸ĩ":6533,"à¹ģà¸¥à¸°à¸ĭ":6534,"à¸Ļà¸Ĺà¸°à¹Ģà¸¥":6535,"à¸ĵà¸¢":6536,"à¸ģà¸©à¸²à¸¡":6537,"Ġà¸Īà¸£":6538,"à¸¥à¸¢à¹Ģà¸Ķ":6539,"à¸¡à¸²à¸Ī":6540,"à¸§à¸¡à¸ķ":6541,"à¸ĩà¸ªà¸«à¸£":6542,"à¸Ļà¸¡à¸²à¸ķ":6543,"à¸Ľà¸£à¸°à¸Īà¸³à¸ķ":6544,"à¸¢à¸Ńà¸Ķà¸Ļ":6545,"à¹ĥà¸Ļà¸ªà¸²à¸Ĥ":6546,"à¹Ģà¸©à¸ģà¸ªà¸¡à¸£à¸ªà¸ģ":6547,"Ġà¸łà¸²à¸©à¸²":6548,"à¸²à¹Ģà¸Ħ":6549,"Ġà¸ªà¹Ģà¸ķ":6550,"Ġà¹Ĥà¸¢":6551,"à¸Ļà¸Ńà¸²à¸§":6552,"ank":6553,"à¹Ģà¸ĺà¸Ńà¸ķ":6554,"Ġà¸ļà¸£à¸¡à¸Ļà¸²à¸ĸ":6555,"à¹ģà¸Łà¸Ļà¸ķà¸²à¸ĭ":6556,"://":6557,"à¹Ĥà¸Ļà¸§":6558,"à¸Ļà¸Ķà¸Ļà¸ķà¸£":6559,"à¸Ńà¸ªà¸ģ":6560,"à¸Ľà¸£à¸²à¸ģà¸ıà¸Ńà¸¢":6561,"Ġà¸ģà¸£à¸¡à¸«à¸¥à¸§à¸ĩ":6562,"71":6563,"Ġà¹ģà¸¥à¸°à¸Ńà¸Ķ":6564,"à¸ŀà¸¥à¸Ńà¸¢":6565,"à¸²à¹Ħà¸Ľà¸¢":6566,"à¹Ģà¸ŀà¸£à¸²à¸°à¸§":6567,"à¸§à¹Ģà¸Ļ":6568,"Ġà¹ģà¸¥à¸°à¹Ģà¸¥":6569,"à¸ĩà¸ķà¸³à¹ģà¸«à¸Ļ":6570,"à¹Į(":6571,"à¸ŀà¸£à¸¡":6572,"à¸²à¸ĩà¸ĩà¸²à¸Ļ":6573,"à¸§à¸¢à¸Ļà¸¡":6574,"à¸¡à¸²à¸ĭ":6575,"Ġà¹ĥà¸Ļà¸ģà¸£à¸ĵ":6576,"à¸Ĺà¸³à¸ĩà¸²à¸Ļà¹Ģà¸Ľ":6577,"Ġ2512":6578,"à¸ļà¸²à¸¢à¸§":6579,"à¸Ńà¹ĥà¸Ī":6580,"à¸Ńà¹Ģà¸«à¸¥":6581,"à¸Ļà¸£à¸²à¸ĺ":6582,"orn":6583,"à¸¥à¸³à¸Ľà¸²à¸ĩ":6584,"à¸ļà¸Ľà¸§à¸Ķ":6585,"à¸Ńà¸Ńà¸Ļà¹Ħà¸¥à¸Ļ":6586,"Ġà¸ļà¸£à¸¡à¸Ļà¸²à¸ĸà¸ļà¸ŀ":6587,"à¸Ľà¸£à¸°à¸ģà¸Ńà¸ļà¸ŀ":6588,"à¸Ħà¸§à¸²à¸¡à¸ªà¸²à¸¡à¸²à¸£à¸ĸà¹ĥà¸Ļà¸ģà¸²à¸£":6589,"à¸Ħà¸Ļà¸ķ":6590,"à¸²à¸¢à¸ļ":6591,"à¸Ńà¸Ļà¹Ģà¸Ĥ":6592,"à¹Ħà¸Ľà¹ĥà¸Ĭ":6593,"à¸§à¸Ļà¹ĥà¸«":6594,"à¸ĩà¸Ļà¸²à¸¢à¸ģà¸£":6595,"ĠCol":6596,"à¸Ħà¸ĵà¸°à¸Ļ":6597,"à¸ľà¸ªà¸¡à¸ľà¸ªà¸²à¸Ļ":6598,"ho":6599,"à¸¥à¸²à¸ª":6600,"à¹ĥà¸Ļà¹Ģà¸ģà¸¡":6601,"Ġà¸ģà¸²à¸£à¹Ģà¸¥":6602,"à¸Ĺà¸²à¸£":6603,"à¸įà¸ĺà¸£à¸£à¸¡":6604,"à¸ģà¸©à¸²à¸ķà¸Ńà¸Ļà¸Ľà¸¥à¸²à¸¢":6605,"à¸Ńà¹Ĥà¸Ķà¸¢":6606,"à¸Ńà¸¢à¸Ń":6607,"à¸²à¸¢à¹Ħà¸Ľà¸Ńà¸¢":6608,"à¸£à¸ĩà¸ģ":6609,"à¹Ģà¸ĭà¸¢":6610,"à¸Ĭà¸²à¸§à¸Ŀà¸£":6611,"à¸Ļà¸Ĥà¸Ńà¸ĩà¸ķ":6612,"à¸ģà¸ĩà¸²à¸Ļà¹ĥà¸«à¸į":6613,"à¸Ľà¸£à¸°à¸ªà¸²à¸Ĺà¸ª":6614,"à¸ĩà¹Ħà¸Ĺà¸¢":6615,"à¸ļà¸°":6616,"à¸²à¸ģà¸²à¸ģ":6617,"Ġà¹ģà¸¥à¸°à¸Ńà¸¢":6618,"à¸łà¸²à¸Ħà¸Ļ":6619,"Ġà¹Ģà¸ĺà¸Ńà¹Ģà¸Ľ":6620,"à¸īà¸²à¸¢à¸²à¸§":6621,"à¸Ĥà¸Ńà¸ļà¹Ģà¸Ĥà¸ķ":6622,"à¸Ĺà¸²à¸ĩà¸ķà¸Ńà¸Ļà¹Ģà¸«à¸Ļ":6623,"à¸Ńà¹ģà¸¥":6624,"à¸ĩà¸ļà¸Ļ":6625,"Ġà¸§à¸£":6626,"Ġà¸ģà¸²à¸£à¸§":6627,"à¸Ńà¸ļà¸£à¸Ńà¸ĩà¸Ĭà¸Ļà¸°à¹Ģà¸¥":6628,"à¸Ļà¸ī":6629,"à¸Ńà¸ĩà¹ģà¸ļà¸ļ":6630,"à¸Ńà¸ĩà¹Ĥà¸ģà¸¥":6631,"à¸Ńà¸ªà¸²à¸¡":6632,"Ġ1945":6633,"à¸²à¸ªà¸Ļà¸§":6634,"à¸ģà¸£à¸°à¸ļà¸Ńà¸ģ":6635,"à¸¥à¸¢à¹Ģà¸Ķà¸Ĭà¸¡":6636,"à¸¡à¸¡à¸²à¸ģà¸Ĥ":6637,"à¹ģà¸¥à¸°à¸«à¸Ļ":6638,"enc":6639,"66":6640,"à¸Ļà¹Ħà¸Łà¸Ł":6641,"à¸¨à¸²à¸ªà¸Ļà¸²à¸ŀ":6642,"à¸Ńà¸Łà¸ķ":6643,"à¸Īà¸Ĥà¸Ńà¸ĩ":6644,"à¸²à¸¢à¸Ľ":6645,"à¸Ńà¸¡à¹ĥà¸«":6646,"à¸²à¸Ħà¸³":6647,"à¸Ńà¸Ńà¸ģà¸¡à¸²à¹Ģà¸Ľ":6648,"à¸ŀà¸¢à¸²à¸¢à¸²à¸¡à¸Ĺ":6649,"à¹ĥà¸Ļà¸Ľà¸£à¸°à¹Ģà¸Ĺà¸¨à¸į":6650,"Ġà¸Į":6651,"à¸Ħà¸ŀ":6652,"int":6653,"à¸ģà¸²à¸£à¸ķà¸Ńà¸ļà¸£":6654,"à¸¨à¸²à¸ªà¸Ļà¸²à¸Ń":6655,"à¸Ļà¸£à¸°à¸¢à¸°":6656,"à¸§à¸¥à¸ĩ":6657,"à¸ģà¸©à¸²à¸Ńà¸¢":6658,"53":6659,"81":6660,"Ġà¸Ľà¸£à¸°à¸ģà¸Ńà¸ļà¸ģ":6661,"à¸Ńà¹Ģà¸Ľà¸¥":6662,"à¸Łà¸£à¸²à¸Ļà¸ĭ":6663,"à¹Ģà¸ģà¸ķ":6664,"à¸ģà¸§à¸ĩ":6665,"à¸Ĺà¸²à¸ĩà¸Ńà¸²à¸ģà¸²à¸¨":6666,"à¸£à¸¡à¸¢":6667,"ĠMe":6668,"à¸Ļà¸Ĺà¸£à¸²à¸¢":6669,"ane":6670,"Ġà¹Ģà¸Ńà¹Ģà¸Ĭ":6671,"à¸Ľà¸£à¸°à¸Ĭà¸²à¸Ĭà¸Ļà¸Ī":6672,"à¹Ģà¸Ķà¸¢":6673,"à¸Ńà¸Ńà¸ģà¹Ħà¸ĭà¸Ķ":6674,"à¸«à¸¥à¸²à¸¢à¸£":6675,"à¹Ĥà¸¢à¸ķ":6676,"à¹Ħà¸¥à¸Ł":6677,"Ġ2514":6678,"Ġx":6679,"Ġà¹ģà¸¥à¸°à¸Ħà¸§à¸²à¸¡":6680,"ins":6681,"Ġac":6682,"à¸§à¸ĩà¸ģà¸²à¸£à¸ļ":6683,"Ġà¹Ĥà¸Ķà¸¢à¹ģà¸ļ":6684,"à¸ķà¸²à¸¡à¸«à¸¥":6685,"à¸Ļà¹ĥà¸Ļà¸¢":6686,"ĠCO":6687,"Ġà¹Ħà¸Ĺ":6688,"à¸Ļà¹Ħà¸ŀà¸£":6689,"72":6690,"à¹Ħà¸Ńà¸Ń":6691,"Ġà¹ģà¸¥à¸°à¸Ļà¸²à¸¢":6692,"à¸¢à¸ĩà¹ĥà¸«":6693,"ors":6694,"ake":6695,"à¸ªà¸§à¸Ķ":6696,"Ġà¹ģà¸¥à¸°à¹Ģà¸Ľà¸¥":6697,"à¸¢à¸§à¹Ģà¸Ĺ":6698,"à¹ģà¸ªà¸ĩà¸Ń":6699,"à¹ģà¸Ĥà¸Ļ":6700,"à¸ĩà¸Ĥà¸Ńà¸ĩà¸Ĺ":6701,"à¸Ńà¹Ģà¸£à¸Ĭ":6702,"à¸²à¸ŀà¸£à¸°à¹Ģà¸Ī":6703,"à¸¡à¸«à¸²à¸¢":6704,"à¸¨à¸ķà¸§à¸£à¸£à¸©":6705,"à¸ŀà¸£à¸°à¸Ļà¸²à¸¡à¸§":6706,"à¸ĩà¸Īà¸°à¹Ģà¸Ľ":6707,"à¸¢à¸ģà¸¥à¸²à¸ĩ":6708,"à¸Ľà¸Ĥà¸Ńà¸ĩ":6709,"à¸²à¸£à¸«":6710,"à¸Ļà¸ķà¸¥à¸Ńà¸Ķ":6711,"Ġ42":6712,"à¸ģà¸Ħà¸²à¸¡":6713,"à¸ĩà¸Ĩà¸£à¸²à¸Ĭ":6714,"à¸ªà¹ģà¸¥à¸°":6715,"à¸²à¸Ļà¸ĸ":6716,"à¸¢à¸Ļà¸Ĥà¸Ńà¸ĩ":6717,"à¸¢à¸ĩà¸«à¸Ļ":6718,"ile":6719,"à¸§à¸Ļà¸Ħ":6720,"à¸ŀà¸£à¸£à¸©":6721,"à¸Ńà¸²à¸ģà¸²à¸¨à¸¢à¸²à¸Ļ":6722,"à¸Ńà¸¢à¸Ĥà¸Ńà¸ĩ":6723,"à¸§à¸Ļà¸ŀ":6724,"à¸ķà¹ĥà¸Ļà¸Ľ":6725,"à¸Ńà¸Ļà¹Ĩ":6726,"Ġà¹ģà¸«à¸¥":6727,"Ġà¹ģà¸¡à¸Ļ":6728,"à¸ľà¸¥à¸§":6729,"Ġà¸Ĺà¸£à¸ĩà¸ŀà¸£à¸°à¸ģà¸£":6730,"à¸Ļà¸©à¸²":6731,"à¸ģà¸©à¸²à¸Ļ":6732,"Ġà¹Ĥà¸Ķà¸¢à¸Īà¸°":6733,"à¸Īà¸ŀà¸£à¸°à¸¨à¸£":6734,"à¸ªà¸°à¹Ģà¸ģà¸©":6735,"à¹Ħà¸Ńà¸ĭ":6736,"à¸¢à¸ĩà¸Ħà¸Ļà¹Ģà¸Ķ":6737,"Ġ1993":6738,"à¹Ĥà¸ŀà¸£à¸ĩ":6739,"à¸Ĺà¸£à¸£à¸¨":6740,"ãĥ":6741,"Ġà¸«à¸§":6742,"à¸Ķà¸łà¸²à¸©":6743,"à¸²à¸ĭà¸²à¸ģ":6744,"tain":6745,"Ġà¹Ĥà¸Ķà¸¢à¹Ģà¸Ĥ":6746,"à¸Ħà¸Ļà¹Ħà¸Ĺà¸¢":6747,"à¸«à¸²à¸£à¸Ĺ":6748,"à¸ļà¸ģà¸²à¸£à¹ĥà¸Ĭ":6749,"à¸ģà¸£à¸°à¸Īà¸²à¸¢à¹Ģà¸ª":6750,"Ġà¸ªà¸¢à¸²à¸¡à¸ļà¸£à¸¡à¸£à¸²à¸Ĭà¸ģ":6751,"à¸Ķà¸«à¸¢":6752,"à¹ĥà¸Ļà¸¨":6753,"à¹Ĥà¸Ļà¸ļ":6754,"à¸ļà¸¡à¸Ńà¸ļ":6755,"Ġ1995":6756,"à¸Ĭà¸įà¸²":6757,"à¸¡à¸²à¸ŀ":6758,"à¸ĩà¸¡à¸«à¸²à¸§":6759,"à¸Ķà¹Ĥà¸£à¸Ħ":6760,"à¸Ķà¸£à¸°à¹Ģà¸ļ":6761,"à¸Ħà¸£à¸ļà¸£à¸Ńà¸ļ":6762,"à¸Īà¸²à¸ģà¸Ī":6763,"à¸ĸà¸§":6764,"Ġà¹Ĥà¸Ķà¸¢à¸¢":6765,"à¸ĩà¸ªà¸²à¸£":6766,"ĠInternational":6767,"à¤":6768,"à¸ģà¹Ĥà¸Ķà¸¢":6769,"à¸ļà¸¥à¸ĩ":6770,"à¸§à¸Ļà¹Ģà¸Ľ":6771,"à¸¢à¸¡à¸ķ":6772,"ade":6773,"à¸ģà¸²à¸£à¹Ģà¸ª":6774,"à¸¥à¸³à¹Ħà¸ª":6775,"à¸¥à¸¢à¹Ģà¸Ķà¸Ĭà¸¡à¸«à¸²à¸£à¸²à¸Ĭ":6776,"à¸¡à¸Ńà¸Ńà¸ģà¸Ńà¸²à¸ģà¸²à¸¨":6777,"à¸§à¸ĩà¸ģà¸¥à¸²à¸ĩ":6778,"à¹ĥà¸Ļà¸ģà¸²à¸£à¸ľà¸¥":6779,"à¸«à¸¥à¸²à¸¢à¸Ľ":6780,"41":6781,"à¸ŀà¸³à¸Ļ":6782,"à¸¡à¸²à¹ĥà¸«":6783,"à¸¡à¸ªà¸²à¸¡":6784,"à¸Ļà¸Ħà¸§à¸²à¸¡à¸£":6785,"à¸Ľà¸£à¸²à¸¨":6786,"Ġà¸«à¸¢":6787,"à¸Ļà¸ŀà¸£à¸°à¹Ĥà¸Ńà¸£à¸ª":6788,"à¹ģà¸Ĺà¸£":6789,"à¸Īà¸²à¸ģà¸§":6790,"à¸²à¸Ħà¸£à¸Ńà¸ļ":6791,"à¹Ģà¸ĭà¸ķ":6792,"à¸ĩà¸ģà¸¤à¸©à¸Ĺ":6793,"Ġcom":6794,"à¸Ńà¸°à¸¡":6795,"à¸ģà¸²à¸£à¸ķà¸¥à¸²à¸Ķ":6796,"à¹Ģà¸¥à¸¢à¸Ĺ":6797,"à¸Ķà¸ł":6798,"Ġ38":6799,"à¸Ļà¸Ńà¹Ģà¸¡à¸£":6800,"Ġà¸Ĥà¸§à¸ļ":6801,"à¸¢à¹ĥà¸Ļà¸Ľ":6802,"à¸²à¸ĩà¹Ģà¸¥":6803,"à¸²à¸ªà¹Ģà¸ķà¸Ńà¸£":6804,"à¹Ģà¸ĺà¸Ńà¸Ĺ":6805,"à¹Ģà¸Ķà¸§":6806,"Ġà¹ģà¸¥à¸°à¸ªà¸£":6807,"à¸£à¸ĵà¸£à¸ĩà¸Ħ":6808,"à¹Ģà¸ªà¸ģà¸ªà¸¡à¸£à¸ª":6809,"à¸²à¸Ħà¸ĵ":6810,"Ġà¸§à¸Ńà¸£":6811,"Ġà¹Ģà¸Īà¸¡à¸ª":6812,"à¸Ļà¹Ĥà¸Ļ":6813,"à¸¡à¸Ħà¸§à¸²à¸¡":6814,"à¸Ńà¸Ķà¸ª":6815,"à¸¡à¸²à¸ģà¹Ģà¸ģ":6816,"Ġà¹Ģà¸ĺà¸Ńà¸Ī":6817,"à¹Ģà¸ªà¸Ļà¸Ńà¸§":6818,"à¸Ļà¸łà¸²à¸¢à¹ĥà¸Ļ":6819,"à¸Ńà¸¢à¸ĭ":6820,"à¸įà¹ģà¸Ī":6821,"ĠAd":6822,"à¸Ļà¹ģà¸¥à¸°à¸¡":6823,"ĠBr":6824,"à¸ķà¸ļà¸Ńà¸¥à¸¥":6825,"à¸Ńà¸«à¸£":6826,"à¸ŀà¸£à¸°à¸Ĭ":6827,"à¸¥à¸ĩà¹Ĥà¸Ĺà¸©":6828,"à¸¬à¸²à¸ª":6829,"Ġà¸Ńà¸Ńà¸ģà¸īà¸²à¸¢":6830,"Ġà¸īà¸°à¸Ļ":6831,"à¹Ģà¸ĭà¹Ĥà¸¥à¸Ļà¸²":6832,"à¸§à¸Ĺà¸£à¸ĩ":6833,"Ġà¹ĥà¸Ļà¹Ģà¸Ĥà¸ķ":6834,"à¸Īà¸Īà¸²à¸Ļ":6835,"Ġà¸Ľà¸£à¸°à¸ŀ":6836,"à¸²à¹ģà¸Ĺ":6837,"à¸§à¸¢à¸ĭ":6838,"à¸ĩà¹ģà¸ļ":6839,"à¸ĩà¸ģà¸¤à¸©à¹ģà¸¥à¸°":6840,"ĠDe":6841,"Ġà¸Ĥà¸ĵà¸°à¸Ļ":6842,"à¸ĩà¹Ĥà¸¥à¸ģ":6843,"Ġà¹ģà¸Ńà¸¥":6844,"Ġ48":6845,"à¸²à¸Ľà¸£à¸°à¸Ĺ":6846,"à¸¤à¸«à¸²à¸ªà¸Ļ":6847,"à¸ªà¸«à¸ŀ":6848,"to":6849,"à¸ģà¸Ļà¸²à¸¢à¸ģà¸£":6850,"à¸³à¸ĭ":6851,"à¸Ńà¸¢à¹Ģà¸Ľ":6852,"à¹Ģà¸ªà¸Ļà¸²à¸ļà¸Ķ":6853,"à¸¢à¹Ĥà¸Ļ":6854,"à¸ĵà¸¥":6855,"à¸¢à¸ģà¸Ĥ":6856,"à¸Ħà¸³à¸£":6857,"ĠCar":6858,"à¸Ńà¸ĩà¸£à¸²à¸§à¸Ĥà¸Ńà¸ĩ":6859,"à¸ĩà¸£à¸§à¸¡à¸ĸ":6860,"à¹ģà¸Ńà¸ª":6861,"Ġà¹ģà¸¥à¸°à¹ĥà¸Ļà¸§":6862,"à¹ĥà¸Ļà¸ģà¸²à¸£à¸Ĺ":6863,"à¸ŀà¸¥à¹Ģà¸¡":6864,"à¸Ľà¸£à¸°à¸ģà¸Ńà¸ļà¸Ńà¸²à¸Ĭ":6865,".,":6866,"à¸ļà¹Ģà¸«à¸ķ":6867,"à¸įà¸įà¸²à¸§":6868,"à¸Ńà¸£à¸°à¸Ķ":6869,"à¸§à¹Ģà¸Ĺ":6870,"à¸ļà¸¡à¸«à¸²à¸§":6871,"à¸Ĭà¸²à¸Ķ":6872,"Ġ1950":6873,"à¸Ķà¸ªà¸ĩà¸Ħà¸£à¸²à¸¡":6874,"à¸Ļà¸Ĺà¸²à¸ĩà¸Ķ":6875,"69":6876,"à¸ĩà¸ŀà¸£":6877,"à¸Ĥà¸Ńà¸ĩà¸ªà¹Ĥà¸¡à¸ªà¸£":6878,"à¹Ĥà¸Ķà¸¢à¸ķà¸£":6879,"à¸Ľà¸£à¸²à¸Ħ":6880,"à¸Ħà¸Ļà¹ĥà¸«à¸¡":6881,"à¹ģà¸Ĺà¸Ļà¸ŀà¸£à¸°à¸Ńà¸ĩà¸Ħ":6882,"à¸ĩà¹Ģà¸ģà¸ķà¸ģà¸²à¸£à¸ĵ":6883,"à¸ķà¸£à¸§à¸Īà¸Ī":6884,"à¸Ļà¹Ģà¸Ł":6885,"à¸¢à¸Ļà¹ģà¸¥à¸°":6886,"à¸¬à¸²à¹ģà¸«":6887,"à¸Ļà¸Ľà¸£à¸°à¹Ĥà¸¢à¸Ĭà¸Ļ":6888,"à¸¡à¹Ģà¸ŀà¸¥à¸ĩ":6889,"à¸Ķà¹ģà¸ľ":6890,"Ġà¹ģà¸¥à¸°à¹Ģà¸Ļ":6891,"à¸Ńà¸«à¸²":6892,"à¸£à¸Ńà¸ļà¸Ħ":6893,"ior":6894,"ale":6895,"à¸ĺà¸ĩ":6896,"à¸²à¸Ĭà¸²à¸£":6897,"à¸ĩà¹Ģà¸Ķà¸Ļà¸¡à¸²à¸£":6898,"à¸Īà¸²à¸£à¸ĵà¸²":6899,"à¸ªà¹ģà¸ģà¸£à¸Ļà¸Ķ":6900,"à¸Ńà¸ĩà¹Ĥà¸ģ":6901,"à¸Ĺà¸¢à¸²à¸Ħà¸¡":6902,"à¸Ļà¸ģà¸£à¸°à¸Ĺ":6903,"à¸¡à¸²à¸¡":6904,"à¹Ģà¸ļà¸ª":6905,"à¹ĥà¸Ļà¸łà¸²à¸¢à¸«à¸¥":6906,"à¸łà¸²à¸Ħà¸ģà¸¥à¸²à¸ĩ":6907,"à¸°à¸ŀ":6908,"Ġà¹Ģà¸Īà¸£":6909,"à¸¥à¸²à¹Ģà¸§":6910,"à¸²à¹Ģà¸¥à¹Ģà¸ĭ":6911,"Ġà¹ģà¸Ĺà¸Ļ":6912,"à¸¡à¸«à¸¡":6913,"à¸¢à¸§à¸¢":6914,"à¹ģà¸ļà¸ļà¸ª":6915,"à¹Ĥà¸Ķà¸¢à¸£à¸§à¸¡":6916,"à¸Ħà¸§à¸²à¸¡à¸Ń":6917,"Ġà¹Ĥà¸Ķà¸¢à¸ŀ":6918,"ild":6919,"à¹Ģà¸ĸà¸£à¸°":6920,"Ġà¸Ľà¸£à¸°à¸ĺà¸²à¸Ļà¸²à¸ĺ":6921,"à¸Īà¸°à¸Ķ":6922,"à¸ªà¸¡à¸Ķ":6923,"à¸ķà¸³à¸£":6924,"à¸Ńà¹Ģà¸§à¸¥":6925,"à¹Ĥà¸ģà¸§":6926,"à¹ĥà¸Ļà¸ģà¸²à¸£à¸ģ":6927,"73":6928,"iti":6929,"à¸ĩà¸ĩà¸°":6930,"à¹ģà¸¥à¸°à¹Ģà¸Ī":6931,"Ġà¸ģà¸£à¸°à¸Ķ":6932,"à¸Ĵà¸Ļà¸²à¸Ĺ":6933,"à¸Ļà¹Ħà¸Ĺà¸Ļ":6934,"à¸ģà¹ģà¸ªà¸Ķà¸ĩà¸Ļà¸³":6935,"à¸Ĺà¹Ģà¸Ĺ":6936,"à¹Ĥà¸§à¸¥":6937,"à¸¢à¸Ļà¸ľ":6938,"à¸ªà¸ĩà¸Ħà¸£à¸²à¸¡à¸ģ":6939,"BA":6940,"à¹Ģà¸Īà¸ģà¸ķ":6941,"Ġ49":6942,"à¸ĩà¹Ģà¸ģà¸¥":6943,"à¸Ķà¸§à¸ĩà¸Ī":6944,"56":6945,"à¸ļà¸ŀà¸§à¸ģ":6946,"à¹ĥà¸Ļà¸Ľà¸£à¸°à¸§":6947,"à¸²à¸ĩà¸łà¸²à¸ŀà¸¢à¸Ļà¸ķà¸£":6948,"Ġà¸¡à¸ĵà¸ĳà¸¥":6949,"ãĤ":6950,"à¸Ńà¸ĩà¸®":6951,"à¸²à¸ĩà¸¨":6952,"à¹Ģà¸Ĥà¸²à¸ª":6953,"à¸«à¸¥à¸²à¸¢à¹Ĩ":6954,"à¸²à¸ĩà¸§à¸²":6955,"à¸¥à¸Ľà¸¨à¸²à¸ªà¸ķà¸£":6956,"à¸²à¸Ľà¸£à¸°à¸ģà¸Ńà¸ļ":6957,"Ġà¹Ģà¸ĭà¸Ńà¸£":6958,"à¹Ī.":6959,"à¹Ģà¸Ĥà¸²à¸Ħ":6960,"à¸ĩà¸²à¸Ļà¹Ģà¸Ĥ":6961,"à¸Ļà¹Ħà¸Ľà¸¢":6962,"à¹Ģà¸ŀà¸£à¸²à¸°à¸¡":6963,"59":6964,"à¸§à¸ĩà¸©":6965,"à¸¥à¸ĩà¸ªà¸¡":6966,"ĠUn":6967,"à¸Ľà¹ģà¸Ńà¸Łà¸£":6968,"à¸ģà¸²à¸£à¸Ŀ":6969,"à¸ľà¸Ļà¸§":6970,"ome":6971,"à¸Ľà¸£à¸°à¸ªà¸²à¸Ļà¸ĩà¸²à¸Ļ":6972,"à¸£à¸ļà¸ģ":6973,"à¸ĩà¸«à¸¥à¸§à¸ĩ":6974,"à¸Ĺà¸³à¹Ģà¸Ľ":6975,"à¸ŀà¸£à¸£à¸©à¸²":6976,"ĠSer":6977,"à¸²à¹Ĥà¸Īà¸¡à¸ķ":6978,"à¸Ħà¸§à¸²à¸¡à¸Ħà¸¥":6979,"à¸¢à¸ĩà¸ľ":6980,"ana":6981,"à¹Ĥà¸Ľà¸£à¸Ķà¹ĥà¸«":6982,"à¸ģà¹Ģà¸ķà¸°":6983,"Ġà¹ģà¸¥à¸°à¹ģà¸¡":6984,"à¹Ģà¸ªà¸ŀà¸ķ":6985,"à¸ģà¸Ńà¸²à¸¨":6986,"à¸Īà¹Ģà¸Ľ":6987,"à¸įà¸Ĭà¸²":6988,"enti":6989,"ÂłÂłÂłÂł":6990,"à¸¢à¸²à¸ĩà¸Ħ":6991,"à¹Ĥà¸Ķà¸¡":6992,"ĠLe":6993,"à¸Ńà¸²à¸ģ":6994,"à¸ģà¸²à¸ģ":6995,"à¸ļà¸Ńà¸ĩà¸Ħ":6996,"à¸ĭà¸Ńà¸£":6997,"à¸²à¸§à¸Ľ":6998,"à¸²à¸ģà¸²à¸£à¸Ĺ":6999,"à¸²à¹ģà¸Ĭà¸¡à¹Ģà¸Ľ":7000,"à¸Ļà¹Ģà¸ĭà¸Ńà¸£":7001,"à¹ĥà¸¢":7002,"à¸Ńà¸Ļà¸Ħ":7003,"à¸²à¸§à¹Ģà¸§à¸Ńà¸£":7004,"à¸Ļà¸ªà¸Ńà¸ĩ":7005,"à¸ģà¸Ķà¸³":7006,"Ġà¸ķà¸²à¸¡à¸Ĺ":7007,"à¸Īà¸ļà¸ģà¸²à¸£à¸¨":7008,"Ġà¸ªà¸«à¸£à¸²à¸Ĭà¸Ńà¸²à¸ĵà¸²à¸Ī":7009,"à¸¥à¸ĩà¸¡":7010,"à¹ģà¸ļà¸ļà¹Ģà¸Ķ":7011,"Ġà¸ŀà¸£à¸°à¹Ĥà¸Ńà¸£à¸ª":7012,"à¸Ĥà¸Ńà¸ĩà¸ªà¸³à¸Ļ":7013,"à¸Ĥà¸§à¸²":7014,"à¸Ķà¹Ģà¸Ń":7015,"Ġà¸Ļà¸²à¸¡":7016,"Ġà¹Ģà¸Ĥà¸²":7017,"à¸Ńà¸²à¸«à¸²à¸£à¸Ĺ":7018,"à¸ĩà¹Ģà¸Ĥà¸²":7019,"Ġ2511":7020,"à¸Ļà¹Ħà¸£":7021,"à¸Ńà¸Ńà¸ªà¹Ģà¸ķà¸£":7022,"à¸Ļà¸ªà¸ģà¸¤à¸ķ":7023,"ĠTha":7024,"Ġà¹Ħà¸¡à¹Ģà¸Ħ":7025,"à¸¡à¸²à¸Ĥà¸Ńà¸ĩà¸Ĭ":7026,"à¸Ĥà¸²à¸ł":7027,"Ġà¸Ńà¹Ģà¸¥":7028,"à¸Ļà¹Ħà¸Ľà¸Ńà¸¢":7029,"à¸Ļà¹ĥà¸Īà¸Ĺ":7030,"Ġà¹ĥà¸Ļà¸Ľà¸£à¸°à¹Ģà¸Ĺà¸¨à¹Ħà¸Ĺà¸¢":7031,"Ġà¹Ģà¸¡à¸¥":7032,"à¸²à¸Ĭà¸²à¸¢à¹ģà¸«":7033,"à¸ķà¸¥à¸Ńà¸Ķà¹Ģà¸§à¸¥à¸²":7034,"à¹Ĥà¸Ĩà¸©à¸ĵà¸²":7035,"Ġà¸Ľà¸£à¸°à¸ģà¸Ńà¸ļà¹Ħà¸Ľà¸Ķ":7036,"à¸Ńà¸Ńà¸¥":7037,"à¸²à¸ĩà¸ªà¸¡à¸ļ":7038,"Ġà¸ģà¸Ńà¸ĩ":7039,"à¹Ĥà¸Łà¸Ļ":7040,"à¸Ĺà¸³à¸ĩà¸²à¸Ļà¸Ĺ":7041,"à¸Ńà¸ªà¸²à¸¡à¸²à¸£à¸ĸ":7042,"à¸Ļà¹ģà¸Ł":7043,"à¸²à¸ģà¸£à¸ĵ":7044,"à¸²à¸ķà¸£à¸²":7045,"à¸Ķà¸²à¸¯":7046,"à¸ķà¹Ģà¸ŀ":7047,"à¸ļà¹Ģà¸«à¸¥":7048,"à¸£à¸°à¸ĩ":7049,"à¸ĩà¸Ńà¸²à¸ĵà¸²à¸Ī":7050,"82":7051,"à¸Ńà¸¡à¹ģà¸ĭ":7052,"à¸§à¸¡à¸Ķ":7053,"à¸łà¸²à¸ŀà¹ģà¸§à¸Ķà¸¥":7054,"Ġ2503":7055,"à¸ģà¸©à¸²à¸ķà¸Ńà¸Ļà¸ķ":7056,"à¸§à¸Ħà¸¥":7057,"à¹ģà¸¥à¸°à¹ĥà¸Ĭ":7058,"à¸ĩà¸Ħà¸³":7059,"à¸ķà¸¥à¸ĩ":7060,"à¸²à¸¢à¹Ģà¸Ĥ":7061,"à¹ģà¸¥à¸°à¹Ģà¸Ĥ":7062,"à¸įà¸Ńà¸¢":7063,"à¸ŀà¸£à¸°à¸£à¸²à¸¡":7064,"à¸ļà¸ģà¸²à¸£à¸ļ":7065,"à¸§à¸ĩà¸¢":7066,"à¹ĥà¸Ļà¸ªà¸«à¸£à¸²à¸Ĭà¸Ńà¸²à¸ĵà¸²à¸Ī":7067,"ower":7068,"à¹ĥà¸Ķà¸ģ":7069,"Ġà¸Ħà¸§à¸£":7070,"à¸²à¸ĩà¹ģà¸ŀà¸£":7071,"à¸Ńà¸¡à¸²à¸Ħ":7072,"à¸Ńà¸²à¸Īà¸Īà¸°à¹Ģà¸Ľ":7073,"ET":7074,"à¸¡à¹Ģà¸ļà¸Ńà¸£":7075,"à¸¢à¸§à¸¡":7076,"à¸ļà¸¡à¸²à¹Ģà¸Ľ":7077,"Ġà¹ģà¸¥à¸°à¹Ģà¸Ħà¸£":7078,"Ġà¸ķà¸Ńà¸Ļà¸Ĺ":7079,"à¹Ĥà¸Ħà¸ģ":7080,"Ġà¸Īà¸°à¹Ħà¸¡":7081,"à¹Ĥà¸¢à¸Ĭ":7082,"à¸Ļà¹Ĥà¸ļà¸£à¸²à¸ĵ":7083,"ĠÎ":7084,"Ġà¹Ĥà¸Ķà¸¢à¸ģ":7085,"à¸ĩà¸Ńà¸³à¸Ļà¸²à¸Ī":7086,"Ġ65":7087,"à¸ªà¸Ļà¸²à¸¡à¸ļ":7088,"Ġà¸¨à¸²à¸ªà¸ķà¸£à¸²à¸Īà¸²à¸£à¸¢":7089,"à¸¢à¸Ļà¹Ģà¸ķà¸£":7090,"à¸¢à¸§à¸Ķ":7091,"Ġà¹Ģà¸Ĥà¸²à¸ĸ":7092,"à¸¥à¸°à¸Ħà¸£à¹Ģà¸§à¸Ĺ":7093,"à¸ŀà¸§":7094,"à¸Ńà¸Ńà¸ģà¹Ģà¸Ķ":7095,"à¸Ńà¸Ħà¸Ńà¸¢":7096,"Ġà¸ķà¸²à¸£à¸²à¸ĩà¸§à¸²":7097,"à¸Ķà¸Ľà¸£":7098,"à¸ĵà¸ŀ":7099,"à¹Ģà¸¢à¸£":7100,"à¸§à¹Ħà¸Ľà¹ģà¸¥":7101,"ute":7102,"iki":7103,"à¸²à¹Ģà¸īà¸¥":7104,"à¸¥à¸®":7105,"à¸ªà¸²à¸«":7106,"à¸²à¸£à¸²":7107,"à¸²à¸Ńà¸²à¸«à¸²à¸£":7108,"à¸ģà¸©à¸²à¹Ħà¸Ķ":7109,"à¸¥à¸²à¸¢à¸ķ":7110,"à¸Ńà¸£à¸°à¸ļà¸ļ":7111,"à¸Ńà¸Ļà¹Ħà¸¡":7112,"à¸ŀà¸£à¸°à¹Ģà¸¢à¸ĭ":7113,"Ġà¹ģà¸Ńà¸£":7114,"à¹ĥà¸Īà¸ģ":7115,"à¸ĭà¸°":7116,"à¸°à¸Ńà¸²à¸Ķ":7117,"à¸Ńà¸ģà¸²à¸£à¸ª":7118,"à¸ģà¸²à¸£à¸Ĥà¸Ļà¸ª":7119,"à¸Ĺà¸³à¸£à¸²à¸¢à¹Ħà¸Ķ":7120,"à¸Ĺà¸²à¸ĩà¹Ĥà¸Ĺà¸£à¸Ĺ":7121,"à¸Ńà¹Ħà¸Ľà¸¢":7122,"à¸Ľà¸£à¸°à¸¡à¸§à¸¥à¸ľà¸¥":7123,"à¹Ħà¸Ľà¸Ĭ":7124,"à¸¢à¸ĩà¸ĭ":7125,"à¸²à¸Ľà¸£à¸°à¸Ķ":7126,"à¸ķà¸²à¸£à¸²à¸ĩ":7127,"Ġà¹ģà¸®à¸£":7128,"à¸Ĥà¸Ńà¸ĩà¹ģà¸¡":7129,"à¸Ĭà¸²à¸§à¹Ģà¸¢à¸Ńà¸£à¸¡":7130,"à¸«à¸¥à¸§à¸ĩà¸Ľ":7131,"62":7132,"à¸Ħà¸§à¸²à¸¡à¸Ī":7133,"à¸²à¸Ħà¸Ļ":7134,"à¸¢à¸ĩà¸Īà¸²à¸ģ":7135,"Ġà¸ķà¸£à¸°à¸ģ":7136,"à¸¡à¸«à¸²à¸ļ":7137,"à¹Ĥà¸Ĺà¸£à¸¡":7138,"à¸ĵà¸¨":7139,"Ġà¸Īà¸Ļà¸¡":7140,"à¸ļà¸ªà¸§à¸Ļ":7141,"à¸ªà¸²à¸¡à¸²à¸£à¸ĸà¸ķ":7142,"74":7143,"à¸¥à¸ķà¸£":7144,"à¸ģà¸¥à¸Ļà¸Ħà¸£":7145,"à¸Ľà¸¥à¸²à¸ģ":7146,"à¸ķà¸²à¸¡à¸«":7147,"Ġà¸Ĥà¸Ńà¸ļ":7148,"Ġ1989":7149,"à¹Ģà¸Ńà¸Łà¸ĭ":7150,"ĠChamp":7151,"à¸ĭà¸ĭ":7152,"à¸Ļà¸Ļà¸Ńà¸ģ":7153,"à¸¥à¸°à¸Ĭ":7154,"à¸§à¸£à¸§à¸ĩà¸¨":7155,"Ġà¹Ģà¸Ħà¸¢à¹Ģà¸Ľ":7156,"à¸Ĥà¸¢à¸²à¸¢à¸ŀ":7157,"à¸Ĺà¹Ħà¸Ķ":7158,"à¸Īà¸°à¸Ļà¸³":7159,"à¸Ļà¸ķà¸³à¸ļà¸¥":7160,"à¸²à¸ŀà¸¢":7161,"à¸ķà¹ģà¸«":7162,"à¸Ńà¸¢à¹Ģà¸Ń":7163,"à¸ŀà¸£à¸°à¸ĺà¸£à¸£à¸¡":7164,"à¸Ĺà¸£à¸Ń":7165,"à¸¢à¸Īà¸²à¸ģ":7166,"à¸²à¸¢à¸¢":7167,"à¸§à¹Ģà¸Ĥà¸²":7168,"à¸Ńà¸²à¸Ĭà¸į":7169,"à¸ģà¸¢à¸łà¸²à¸ŀ":7170,"ris":7171,"son":7172,"à¸²à¸¢à¹Ĩ":7173,"à¹Ģà¸§à¸¥à¸²à¹Ģà¸Ķ":7174,"à¸Ļà¹Ĥà¸Ķà¸Ī":7175,"à¸²à¹ĥà¸Īà¸ľ":7176,"à¸ģà¸Ħà¸Ļà¸«à¸Ļ":7177,"à¸Ńà¸Īà¸³à¸ģ":7178,"à¸ļà¸ģà¸£":7179,"à¸ļà¹Ħà¸Ľà¸¢":7180,"à¹Ħà¸ķà¸Ļ":7181,"à¸ĩà¹ģà¸Ļà¸§":7182,"à¸²à¹Ģà¸¥à¸ªà¹Ħà¸ķà¸Ļ":7183,"ĠSe":7184,"à¸Ļà¸Ńà¸Ńà¸ģà¹Ħà¸Ľ":7185,"à¸ĩà¹ģà¸¥à¸°à¸Ńà¸²à¸ĵà¸²à¹Ģà¸Ĥà¸ķ":7186,"à¸Ńà¹Ħà¸£":7187,"à¸²à¸Ļà¸Ļà¸Ńà¸ģ":7188,"Ġà¹ĥà¸Ļà¸Ńà¸Ķ":7189,"à¹Ĥà¸¡à¸ª":7190,"Ġà¹Ħà¸Ľà¸Īà¸Ļà¸ĸ":7191,"à¸ģà¸Ĳà¸²à¸Ļà¸Ĺ":7192,"à¹ģà¸ªà¸Ķà¸ĩà¸łà¸²à¸ŀà¸¢à¸Ļà¸ķà¸£":7193,"à¸¡à¸ĺà¸²à¸Ļ":7194,"à¸ļà¹Ģà¸ĭ":7195,"à¹Ĥà¸¡à¸ĩà¸Ħ":7196,"Ġ2505":7197,"à¸Ľà¸Ĳ":7198,"à¸²à¸ĩà¸«à¸²à¸ģ":7199,"à¸¢à¸Ļà¸Īà¸²à¸ģ":7200,"à¸ļà¸ªà¸²à¸£":7201,"à¸įà¸įà¸²à¸ļ":7202,"Ġà¹Ģà¸ªà¸£":7203,"Ã¡":7204,"à¸Ļà¸²à¸Ħ":7205,"à¸Īà¹Ħà¸Ľ":7206,"à¹ģà¸Ĺà¸Ļà¸£à¸²à¸©à¸İà¸£à¹Ħà¸Ĺà¸¢à¹Ģà¸Ľ":7207,"à¸ļà¸łà¸²à¸ŀ":7208,"à¸²à¸¢à¸²":7209,"Ġà¹Ĥà¸Ĺà¸£":7210,"à¸Ķà¹ĥà¸Ļà¸Ĭ":7211,"à¸²à¸Ļà¸²à¸¡":7212,"à¸Ļà¸ģà¸²à¸£à¹ĥà¸Ĭ":7213,"à¸Ļà¸Ĺà¸²à¸ĩà¸ģà¸²à¸£à¹Ģà¸¡":7214,"cess":7215,"Ġà¸łà¸²à¸©à¸²à¸Ń":7216,"à¸ģà¸Ļà¸³à¹Ħà¸Ľ":7217,"à¸¢à¸ªà¸³à¸Ħ":7218,"à¹Ģà¸Łà¸ĭ":7219,"61":7220,"SI":7221,"à¸¹,":7222,"à¸§à¸¡à¸ĸ":7223,"à¸ģà¸ªà¸²à¸¡":7224,"à¸ĩà¸ģà¸²à¸£à¸ª":7225,"à¸ģà¸²à¹Ģà¸£":7226,"ology":7227,"à¸ķà¸ģà¸£à¸£à¸¡":7228,"à¸ļà¸«à¸£":7229,"à¸²à¸ĩà¹Ģà¸Ħà¸£":7230,"à¸²à¸ĩà¸Īà¸£":7231,"à¸ģà¸£à¸Ļ":7232,"à¸Ĭà¸²à¸§à¸ķ":7233,"à¹ģà¸Ħà¸£à¸°":7234,"à¹Ģà¸¥à¸Ĥà¸²à¸Ļ":7235,"à¸Ļà¹Ģà¸ľ":7236,"à¸ģà¸Ľà¸£à¸°à¸¡à¸²à¸ĵ":7237,"à¸ĩà¹ģà¸ľ":7238,"à¸ķà¸ļà¸Ńà¸¥à¸Ńà¸²à¸Ĭ":7239,"Ġà¹Ģà¸§à¸Ńà¸£":7240,"Ġwith":7241,"à¸ģà¹Ģà¸ĺà¸Ń":7242,"à¸¢à¹ģà¸¥":7243,"à¸³à¹ģà¸¥à¸°":7244,"à¸ģà¸£à¸£":7245,"à¸Ĺà¸³à¸ŀ":7246,"à¸ĩà¸Ħà¸ĩà¸Ńà¸¢":7247,"à¸łà¸²à¸©à¸²à¸Ĺ":7248,"à¸ĩà¸Ħà¸¡à¸¨à¸²à¸ªà¸ķà¸£":7249,"Ġis":7250,"à¸²à¸ĩà¹ģà¸Ĺ":7251,"Ġ44":7252,"ĠCo":7253,"à¸ģà¸Ħà¸Ļà¸Ĺ":7254,"à¸Ļà¹Ĥà¸Ľà¹Ģà¸¥":7255,"à¸Ĥà¸Ńà¸ĩà¸ŀà¸§à¸ģà¹Ģà¸Ĥà¸²":7256,"à¸£à¸²à¸Ĭà¸²":7257,"à¸°à¸ŀà¸£":7258,"à¸²à¸£à¸²à¸ĩ":7259,"à¸łà¸²à¸§":7260,"à¸ŀà¸£à¸°à¸£à¸²à¸Ĭà¸ĺ":7261,"à¸ķà¸Ńà¸Ļà¹ģà¸£à¸ģ":7262,"à¸¥à¹ģà¸ģà¹Ģà¸£":7263,"à¸ģà¹Ģà¸Ń":7264,"à¹Ĥà¸Ńà¸Ĺ":7265,"à¸²à¸Ļà¹Ģà¸Ĭ":7266,"à¸Ļà¸Ĺà¸°à¹Ģà¸ļ":7267,"à¸Ļà¸łà¸²à¸©à¸²à¸Ń":7268,"à¸Ńà¹Ģà¸«à¸ķ":7269,"à¸§à¸«à¸¥":7270,"à¸¢à¹Ħà¸¡":7271,"à¸²à¸§à¸ªà¸²à¸£":7272,"Ġà¸Īà¸²à¸ģà¸Ĺ":7273,"à¸Ľà¸Ĭ":7274,"à¸Ļà¸Ĺà¸§":7275,"à¹Ĥà¸Ńà¹Ģà¸Ľ":7276,"à¸Ĳà¸ļà¸²à¸¥à¸Ĺ":7277,"Ġà¹Ĥà¸Ľà¸£à¸Ķ":7278,"Ġà¸Ľà¸£à¸²à¸ģà¸ı":7279,"à¸ļà¸ķà¸²à¸¡":7280,"à¸ģà¸²à¸£à¸Ľà¸£à¸°à¸ģà¸§":7281,"à¸²à¸ĩà¹Ģà¸ª":7282,"à¸²à¸ĩà¹ĥà¸«à¸¡":7283,"Ġà¹ģà¸¥à¸°à¸Ħà¸£":7284,"à¹Ĥà¸Ķà¸°":7285,"à¹Ģà¸Ħà¸Ļ":7286,"Ġà¸Ĺà¸²à¸ĩà¸Ķ":7287,"à¸Ľà¸£à¸°à¹Ģà¸łà¸Ĺà¸Ļ":7288,"à¸ķà¹Ģà¸§":7289,"à¹Ĥà¸Ļà¸Ļ":7290,"à¸²à¸ģà¸ª":7291,"à¸§à¸Ļà¹ĥà¸Ļ":7292,"à¸ģà¸©à¸²à¸£":7293,"à¸Ħà¸³à¸Ĺ":7294,"à¸Ķà¸¡à¸«":7295,"à¹Ĥà¸Ńà¸¡":7296,"à¸łà¸Ħ":7297,"à¸§à¸ĩà¸ªà¸ĩà¸Ħà¸£à¸²à¸¡":7298,"Ġà¹Ģà¸ģà¸¥":7299,"à¸¥à¸ĩà¸Ħà¸°à¹ģà¸Ļà¸Ļ":7300,"Ġà¹ģà¸ģà¸£à¸¡à¸¡":7301,"CD":7302,"à¸Ļà¹Ģà¸Ĥà¸²":7303,"à¸Ńà¸ĩà¹Ģà¸Ī":7304,"à¸²à¸ĩà¸ŀà¸£à¸°":7305,"Ġà¹ģà¸¥à¸°à¹Ģà¸Ĭ":7306,"Ġ2510":7307,"Ġ1940":7308,"à¸²à¸ªà¸ĭ":7309,"à¸§à¸Ļà¸¡":7310,"à¸ļà¸ģà¸²à¸£à¸Ŀ":7311,"à¹Ĥà¸Ļà¹Ģà¸ªà¸²à¸£":7312,"Ġà¹Ģà¸ªà¸Ļ":7313,"Ġ2498":7314,"Ġà¸īà¸²à¸¢":7315,"à¸Ķà¸Ħà¸¥":7316,"à¸Ńà¸Ļà¹ģà¸Ń":7317,"à¹Ģà¸£à¸²":7318,"à¸¢à¸Ļà¹Ģà¸ģà¸¡à¸ª":7319,"à¸Ńà¸¡à¸²à¸¡":7320,"à¹ģà¸¡à¸Ħ":7321,"Ġà¸ĸà¸Ļ":7322,"à¸¢à¸²à¸¢à¸²à¸¡":7323,"à¸Ľà¹Ĥà¸Ľ":7324,"à¸ģà¸£à¸¥":7325,"à¸¢à¸Ļà¹ĥà¸«":7326,"à¸ģà¸£à¸°à¸«à¸§":7327,"à¸Ļà¸Ĭà¸²à¸£":7328,"à¸ģà¸²à¹ģà¸Ł":7329,"ail":7330,"à¸ģà¸Ńà¸£":7331,"ĠPh":7332,"à¸ĩà¸¨à¸ŀ":7333,"à¸£à¸Ńà¸ĩà¸£":7334,"à¸°à¸Ħ":7335,"à¸ļà¸ŀà¸£à¸£à¸Ħ":7336,"à¸ļà¸ľà¸¥à¸ģà¸£à¸°à¸Ĺ":7337,"à¹ģà¸ķà¸£":7338,"à¸²à¸§à¸«à¸²à¸§":7339,"à¸ļà¸ģà¸²à¸£à¹Ģà¸Ľ":7340,"à¹Ģà¸§à¸¥à¸²à¸ģà¸¥":7341,"ult":7342,"Ġà¸Ĥà¸ĵà¸°à¹Ģà¸Ķ":7343,"à¸ĩà¸Ķà¸ĩà¸²à¸¡":7344,"à¸Īà¸Ĥ":7345,"à¹Ĥà¸Ķà¸¢à¸£":7346,"à¸ļà¸ģà¸²à¸£à¹ģà¸Ĥ":7347,"à¹Ģà¸Ĥà¸ķà¸ŀ":7348,"à¸Ńà¹ģà¸ļà¸ļ":7349,"à¸Ńà¸¡à¸§à¸¥à¸Ĭà¸Ļ":7350,"à¸Ĳà¹ģà¸Ħà¸¥":7351,"à¹Ģà¸Ĺà¸¨à¸Ļ":7352,"à¸Ĺà¸²à¸ĩà¸£à¸ĸà¹Ħà¸Ł":7353,"à¸¢à¸ģà¸Ń":7354,"à¸²à¹ĥà¸Īà¸§":7355,"ier":7356,"Ġ160":7357,"à¸ĭà¸Ńà¸Łà¸Ĺ":7358,"Ġà¸Ľà¸£à¸°à¸Īà¸³":7359,"à¸²à¸£à¸ªà¸²à¸£":7360,"à¸ŀà¸£à¸°à¸Ħ":7361,"à¸ªà¸²à¸Ĥà¸²":7362,"à¸§à¸¢à¸ķà¸Ļà¹Ģà¸Ńà¸ĩ":7363,"à¸ĩà¸Ħà¸Ļ":7364,"Ġà¸Ľà¸£à¸°à¸Ķ":7365,"Ar":7366,"à¸ĩà¸Ľà¸£à¸²à¸ģà¸ı":7367,"Ġà¹Ĥà¸ģ":7368,"Ġà¹Ģà¸Ĺà¸¨à¸ļà¸²à¸¥":7369,"AC":7370,"à¸ģà¹ĥà¸Ļà¸Ľ":7371,"à¸§à¹Ģà¸Ĭ":7372,"à¸Ķà¹ģà¸Ĥ":7373,"à¸ļà¸£à¸£à¹Ģà¸Ĺ":7374,"Ġà¸Īà¸°à¹ĥà¸Ĭ":7375,"à¸£à¸ĸà¸ĸ":7376,"à¸Ķà¸²à¸¡à¸²à¸£":7377,"Ġà¹ĥà¸Ļà¸§à¸ĩà¸¨":7378,"à¸ªà¸ģà¸Ńà¸ķà¹ģà¸¥à¸Ļà¸Ķ":7379,"à¸ģà¸Ńà¸ĩà¸Ħ":7380,"Ġà¹ĥà¸Ļà¸Ĺà¸²à¸ĩ":7381,"à¸ĩà¸¡à¸Ńà¸ļ":7382,"à¸¡à¸²à¹Ģà¸ģ":7383,"à¸Ļà¸Ńà¸ģà¹Ģà¸«à¸Ļ":7384,"ym":7385,"à¹Ģà¸Ļà¸ª":7386,"à¹ģà¸ªà¸Ķà¸ĩà¹Ģà¸Ľ":7387,"à¸²à¹Ģà¸ĭà¸¥à¹Ģà¸ĭ":7388,"à¸§à¸Ľà¸£à¸°à¸§":7389,"à¸Ĥà¸Ńà¸ĩà¹Ģà¸Ń":7390,"à¸§à¸¢à¸ļ":7391,"Ġà¹ģà¸Ĭà¸¡à¸Ľ":7392,"à¸Ńà¸ĩà¹Ģà¸«":7393,"à¸¹)":7394,"à¸§à¸ĩà¸«à¸¥":7395,"Ġà¹ĥà¸Ļà¸łà¸²à¸ŀà¸¢à¸Ļà¸ķà¸£":7396,"à¸ģà¸©à¸²à¹ģà¸¥à¸°":7397,"à¸Ĩà¸²à¸ķà¸ģà¸£à¸£à¸¡":7398,"à¸ģà¸Ķà¸³à¸ļà¸£à¸£à¸ŀ":7399,"à¸Ļà¸Ľà¸£à¸°à¸ªà¸²à¸Ĺ":7400,"Ġà¸Ħà¸Ļà¸ª":7401,"à¸ªà¸¡à¸£à¸£à¸ĸ":7402,"à¸Ļà¸ģà¸²à¸£à¸ªà¸£":7403,"à¹Ĥà¸¡à¹Ģà¸Ķ":7404,"Ġà¸Ĥà¸Ńà¸ĩà¸£":7405,"à¹Ģà¸ªà¸Ļà¸Ńà¹ĥà¸«":7406,"aceae":7407,"à¸ĩà¸ķà¸°à¹Ģà¸ł":7408,"à¸Ńà¹ģà¸«":7409,"à¸²à¸ĩà¸Ŀ":7410,"à¸Łà¸ģà¸²à¸Ļ":7411,"à¸Ńà¸ªà¹Ĥà¸ģ":7412,"ĠTr":7413,"Ġà¸ŀà¸£à¸°à¸£à¸²à¸Ĭà¸ļ":7414,"à¸ĭà¸²à¸¡":7415,"à¸Ļà¸Ħà¸ĩ":7416,"à¸ļà¸²à¸ĩà¸Ĺ":7417,"à¹ģà¸ªà¸Ķà¸ĩà¸Ħ":7418,"64":7419,"à¸¢à¸£à¸²à¸Ĭà¸§à¸ĩà¸¨":7420,"à¸°à¸§à¸°":7421,"ĠFor":7422,"à¸¡à¸¥à¸ĩ":7423,"à¸§à¸«à¸£":7424,"à¸Ķà¹ģà¸ļà¸ļ":7425,"à¸Ĥà¸Ńà¹ĥà¸«":7426,"à¸ĩà¹Ģà¸ģà¸ķà¸§":7427,"à¸§à¹Ģà¸Ńà¸ģ":7428,"à¸¸.":7429,"à¸Ńà¸ģà¸²à¸ª":7430,"à¸Īà¸Ļà¹Ģà¸ģ":7431,"we":7432,"à¹ħ":7433,"à¸ļà¸ģà¸£à¸°":7434,"à¹Ĥà¸ļà¸¥":7435,"à¸ŀà¸£à¸°à¸£à¸²à¸Ĭà¸ģà¸¤à¸©à¸İ":7436,"ari":7437,"à¸Ĺà¸£à¸ĩà¸ª":7438,"à¸²à¸ģà¸¥à¸²à¸ĩ":7439,"eth":7440,"à¸Ļà¸¡à¸²à¸ģà¸Ĥ":7441,"Ġà¹ģà¸Ħà¸¥":7442,"à¸Ĺà¸£à¸ĩà¸Ħ":7443,"à¸Ļà¸Īà¸°à¸ĸ":7444,"à¹ģà¸Ļà¸°à¸Ļà¸³à¹ĥà¸«":7445,"Ġà¹ĥà¸ª":7446,"à¸Ńà¸ĩà¹Ĥà¸Ĺà¸£à¸Ĺ":7447,"à¸Ńà¸¢à¸£":7448,"à¸§à¸¢à¹ĥà¸Ļà¸ģà¸²à¸£":7449,"Ġà¹Ģà¸Ľà¸Ńà¸£":7450,"Ġà¹ģà¸Ħà¸§":7451,"Al":7452,"à¸Ńà¹ģà¸ªà¸Ķà¸ĩ":7453,"à¸ĩà¸Ķà¸³à¹Ģà¸Ļ":7454,"à¹Ģà¸®à¸²à¸ª":7455,"à¹Ħà¸«à¸¥à¸ľ":7456,"à¹Ģà¸ģà¸¡à¸Ļ":7457,"Ġà¹ĥà¸Ļà¸¥":7458,"Ġà¹ĥà¸Ļà¸Ī":7459,"à¸®à¸Ńà¸¥à¸¥":7460,"Ġà¹Ĥà¸ģà¸¥":7461,"à¸Ļà¸Ľà¸ģà¸ķ":7462,"Ġà¸Łà¸Ńà¸£":7463,"à¸ªà¸²à¸¢à¸ģà¸²à¸£à¸ļ":7464,"à¸Ľà¸Ń":7465,"à¸Ľà¸¡":7466,"à¸¢à¸¡à¹Ģà¸£":7467,"Ġ2020":7468,"Ġà¸Ĥà¸Ńà¸ĩà¸Ľà¸£à¸°à¹Ģà¸Ĺà¸¨":7469,"à¸Ķà¸ģà¸²à¸£à¸ª":7470,"à¸Ńà¸ĩà¸Ńà¸²à¸¨":7471,"à¸Ŀà¸Ļ":7472,"à¸¡à¸²à¹ģà¸ķ":7473,"à¸Ńà¸Ľà¸ı":7474,"à¸°à¸«":7475,"à¸Ńà¸ķà¹Ģà¸ķà¸Ńà¸£":7476,"à¸Ļà¹Ģà¸¢":7477,"à¸Ļà¸ŀà¸¤à¸«":7478,"à¸£à¸°à¸ļà¸ļà¸ª":7479,"reat":7480,"Ġà¸ģà¸£à¸¡à¸«à¸¡":7481,"à¹ģà¸ªà¸§à¸ĩà¸«":7482,"à¸Ńà¸Ļà¹Ħà¸¥à¸Ļ":7483,"Ġà¹ģà¸¥à¸°à¸Ļà¸²à¸ĩ":7484,"à¹Ĥà¸Ķà¸¢à¸£à¸Ńà¸ļ":7485,"à¸Ķà¸Ńà¸²à¸ģà¸²à¸£":7486,"Ġà¹Ģà¸«à¸Ļ":7487,"Ġà¹Ģà¸ĭà¸¥à¸¥":7488,"Ġà¹Ģà¸ĺà¸Ńà¸¡":7489,"de":7490,"à¸Ķà¹ģà¸Ĺ":7491,"à¸ŀà¸£à¸°à¸Ļ":7492,"Ġà¹ģà¸¢à¸ģ":7493,"à¸Ļà¸§à¸¥":7494,"à¸ļà¸ĸà¸Ļà¸Ļ":7495,"ling":7496,"à¹Ĥà¸¨":7497,"Ġà¸Ļà¸Ńà¸£":7498,"à¸Ĺà¸³à¸ĩà¸²à¸Ļà¸£":7499,"à¹ĥà¸ļà¸Ńà¸Ļ":7500,"à¸ļà¸Ńà¸Ķ":7501,"à¹Ĥà¸Ľà¸¥":7502,"à¸ĵà¸£à¸ĩà¸Ħ":7503,"Ġà¹ģà¸Ńà¸Ļà¸Ķ":7504,"à¸Ħà¸ĵà¸°à¸ªà¸ĩà¸Ĩ":7505,"à¸Ľà¸£à¸°à¹Ģà¸łà¸Ĺà¸Ĺ":7506,"à¸²à¸įà¸Īà¸Ļà¸ļ":7507,"à¸Ńà¸į":7508,"à¸Ńà¹Ĥà¸£à¸ĩà¹Ģà¸£":7509,"à¸²à¸Ļà¸ģà¸²à¸£à¸Ħ":7510,"à¸Ĥà¸Ńà¸ĩà¹Ĥà¸£à¸Ħ":7511,"à¸ŀà¸£à¸°à¸ļà¸£":7512,"à¸ķà¸²à¸¡à¸ĺà¸£à¸£à¸¡à¸Ĭà¸²à¸ķ":7513,"Ġà¸Ĥà¸Ńà¸ĩà¸§":7514,"à¸«à¸łà¸²à¸ŀà¸¢":7515,"à¸Ķà¸ģà¸£à¸°":7516,"à¸ªà¸ŀ":7517,"à¹Ĥà¸Ńà¸ļ":7518,"à¸Ĥà¸Ńà¸ĩà¸Ħà¸£":7519,"à¸Ħà¸§à¸²à¸¡à¸Īà¸³":7520,"à¸Ĺà¸²à¸ĩà¹Ģà¸¥":7521,"à¸Ļà¸ģà¸²à¸£à¸ģ":7522,"à¹Ĥà¸¢à¸Ħ":7523,"à¸§à¸ķà¸²à¸¢":7524,"Ġ2506":7525,"à¸Ľà¸ģà¹Ģà¸ģà¸¥":7526,"à¹ĥà¸Ļà¸ģà¸Ńà¸ĩà¸Ĺ":7527,"à¸Ńà¸Ļà¹Ģà¸ģ":7528,"à¹Ģà¸ŀà¸£":7529,"Ġ2499":7530,"Ġà¸¡à¸²à¸ķ":7531,"Ġà¸Īà¸²à¸£":7532,"à¸Ļà¸Ľà¸£à¸°à¸ĸà¸¡à¸¨":7533,"à¹Ī,":7534,"à¸²à¸ªà¹Ģà¸ĭ":7535,"Ġà¸¡à¸²à¸¥":7536,"à¸¢à¸Ńà¸Ķà¸Ł":7537,"à¸Ĭà¸¡à¸£à¸¡":7538,"à¸ªà¹Ģà¸ķà¸Ĭ":7539,"meric":7540,"à¸ĸà¸¡à¸¨":7541,"à¹Ģà¸Ĥà¸²à¸ĸ":7542,"Ġà¸Ĺà¸¤à¸©à¸İ":7543,"à¸§à¸ĩà¸¨à¸²à¸Ļ":7544,"à¹Ĥà¸ģà¸¨":7545,"à¸Ķà¸Ĭà¸¥à¸ļ":7546,"Ġ2508":7547,"Ġà¸¡à¸«à¸²à¸ªà¸¡":7548,"à¹Ģà¸Ļà¸ķ":7549,"à¸¢à¸¡à¸§":7550,"Ġà¸Ĥà¸Ńà¸ĩà¸Ń":7551,"Ġà¸ŀà¸£à¸°à¸£à¸²à¸Ĭà¸§":7552,"à¸£à¸ķ":7553,"à¹Ģà¸Ńà¸Ĺ":7554,"à¸¢à¸ĩà¹ģà¸¥à¸°":7555,"à¸ŀà¸£à¸°à¸ļà¸£à¸¡à¸£à¸²à¸Ĭà¹Ĥà¸Ńà¸ĩà¸ģà¸²à¸£":7556,"à¸Ĭà¸Ńà¸Ľ":7557,"à¸Ńà¸¢à¸¥":7558,"à¹Ģà¸Ĥà¸ķà¹Ģà¸¥":7559,"à¸ģà¸©à¸ĵà¸°à¸Ļ":7560,"à¸ģà¸²à¸£à¸ªà¸Ńà¸ļ":7561,"à¸£à¸Ńà¸ļà¸Ĭ":7562,"à¸Ļà¸¡à¸²à¹ĥà¸«à¸¡":7563,"Ġ2489":7564,"Ġà¸¥à¸³à¸Ķ":7565,"à¸Ńà¸ī":7566,"à¸²à¸ĩà¸Ńà¸Ńà¸ģà¹Ħà¸Ľ":7567,"à¹Ĥà¸£à¹ģà¸¡à¸Ļà¸ķ":7568,"à¸Ĺà¸£à¸ĩà¸£":7569,"ĠII":7570,"à¸ģà¸ľà¸¥":7571,"à¸µà¹Ī.":7572,"à¸Ħà¸£à¸£à¸²à¸Ĭà¸Ĺ":7573,"à¸łà¸²à¸ŀà¸ª":7574,"à¸§à¸£à¸£à¸²à¸Ĭ":7575,"à¸Ńà¸²à¸ģà¸²à¸¨à¸Ĺ":7576,"à¸Īà¸īà¸£":7577,"à¸²à¸¤":7578,"à¸¡à¸²à¸ģà¸ĸ":7579,"à¸Ļà¹ĥà¸Ļà¸Ń":7580,"à¸Ļà¸Ĺà¸²à¸ĩà¸ª":7581,"à¸²à¸¢à¹ģà¸¥":7582,"à¸Ļà¸ŀà¸£à¸°à¸ª":7583,"à¸²à¹ģà¸¡à¸Ļ":7584,"à¸ĩà¸ªà¸³à¸Ļ":7585,"à¸ªà¸ĸà¸²à¸Ļà¸¨":7586,"formula":7587,"Ġà¹Ħà¸Ĥ":7588,"à¸¢à¸¡à¸²à¸ģ":7589,"à¸ŀà¸£à¸²à¸«à¸¡à¸ĵ":7590,"à¸Īà¸²à¸£à¸ĵà¸²à¸§":7591,"à¸§à¸ĩà¹Ģà¸§à¸¥à¸²à¸Ļ":7592,"à¸Ĺà¸²à¸ĩà¸ķà¸Ńà¸Ļà¹ĥà¸ķ":7593,"con":7594,"à¸ªà¸¡à¸²à¸ŀ":7595,"à¸ªà¸¡à¸łà¸ŀ":7596,"à¸ģà¸²à¹ģà¸¥à¸°":7597,"à¹Ħà¸ķà¸£à¸Ľ":7598,"à¸¢à¹Ħà¸Ľ":7599,"à¸ĩà¸ªà¸Ļ":7600,"à¸ľà¸¥à¸ĩà¸²à¸Ļà¸Ń":7601,"à¸²à¸¢à¸Īà¸²à¸ģ":7602,"à¸Ńà¸Ļà¹Ĥà¸ĭ":7603,"à¸įà¹ĥà¸«":7604,"ern":7605,"à¹Ģà¸®à¸Łà¸§":7606,"à¸Ĳà¸Ľà¸£à¸°à¸Ĭà¸²à¸Ĭà¸Ļà¸Ī":7607,"à¸Ńà¸Ńà¸ģà¸ģà¸³à¸¥":7608,"à¸ļà¸ģà¸²à¸£à¸¢":7609,"à¸Ńà¹Ģà¸£à¸Ļà¸ĭ":7610,"à¹Ĥà¸Ńà¸ģà¸²à¸ªà¹ĥà¸«":7611,"à¸ģà¸³à¸«à¸Ļà¸Ķà¹Ħà¸§":7612,"à¸¢à¸ľ":7613,"à¸Ħà¸³à¸ķà¸Ńà¸ļ":7614,"Sh":7615,"à¸¥à¹Ĥà¸¥":7616,"à¸°à¹Ħà¸Ķ":7617,"à¸³à¸Ńà¸²à¸Ĭ":7618,"à¸Ļà¸³à¹Ĥà¸Ķà¸¢":7619,"à¸Ļà¸Ħà¸Ļà¹ģà¸£à¸ģ":7620,"à¸§à¸Īà¸°":7621,"Ġà¹Ĥà¸Ķà¸¢à¸ģà¸¥":7622,"à¸Ńà¸ªà¸³à¸«à¸£":7623,"à¸Ńà¸Ĺà¸³à¹ĥà¸«":7624,"à¸ĩà¸¥à¸°":7625,"à¸Ĥà¸Ńà¸ĩà¸£à¸²à¸Ĭà¸§à¸ĩà¸¨":7626,"à¸²à¸Ħà¸Ķ":7627,"à¸ķà¸²à¸¡à¸£":7628,"Ġ46":7629,"à¸Ļà¸Ĥà¸Ńà¸ĩà¸£":7630,"54":7631,"Ġà¸Ľà¸£à¸°à¸§":7632,"à¸Ńà¸ĩà¸Ħà¸²à¸¢":7633,"Ġà¸Ĭà¸²à¸§à¸ļ":7634,"Ġà¸Ńà¸Ńà¸ģà¸Ńà¸²à¸ģà¸²à¸¨à¸Ĺ":7635,"à¸ģà¸©à¸²à¸Ħà¸§à¸²à¸¡à¸ªà¸ĩà¸ļ":7636,"BS":7637,"à¸²à¹Ģà¸ĺà¸Ńà¸£":7638,"à¸Ķà¸¡à¸²à¸Īà¸²à¸ģ":7639,"à¸Ļà¸Ħà¸³à¸Ĺ":7640,"Ġà¸§à¸Ńà¸¥":7641,"à¸Ńà¸²à¸Īà¹Ģà¸ģ":7642,"à¹ģà¸ĸà¸ļà¸ª":7643,"Ġ2501":7644,"à¸Ķà¸Ł":7645,"à¹Ħà¸ķà¸¥":7646,"à¸²à¸Ļà¹Ģà¸Ķ":7647,"à¹ģà¸¥à¸°à¹Ģà¸ª":7648,"à¸¢à¸ģà¸Ĳà¸²à¸Ļà¸°":7649,"à¸²à¸ŀà¹Ģà¸Ī":7650,"à¸łà¸²à¸©à¸²à¸¡":7651,"à¸Ńà¸ģà¸²à¸£à¸Ħ":7652,"à¸ģà¸£à¸¡à¸¨":7653,"Ġà¸Ńà¸ĩà¸¨à¸²à¹Ģà¸ĭà¸¥à¹Ģà¸ĭ":7654,"à¸Ńà¸Ļà¹ģà¸¥":7655,"à¹Ģà¸ģà¸¡à¸Ĺ":7656,"à¹Ģà¸Ńà¸²à¸ķ":7657,"à¸²à¸Ľà¸ģà¸ķ":7658,"à¸ĩà¸ªà¸Ńà¸ĩà¸ŀà¸£à¸°à¸Ńà¸ĩà¸Ħ":7659,"à¸Ħà¸Ńà¸Ľ":7660,"à¹ĥà¸Ļà¹Ģà¸Ńà¹Ģà¸Ĭ":7661,"à¹ģà¸¥à¸°à¹ĥà¸«":7662,"à¸ģà¸£à¸ģ":7663,"à¸¢à¸ģà¸ª":7664,"ated":7665,"à¹Ħà¸Ĥà¸Ľ":7666,"à¸Ľà¸£à¸°à¹Ĥà¸¢à¸Ħ":7667,"Ġà¹Ĵà¹Ķà¹":7668,"Ġà¸¥à¸ĩà¸§":7669,"à¹Ħà¸Ħà¸£":7670,"à¸§à¸¢à¸ģà¸¥":7671,"à¸Ĺà¸³à¸Īà¸²à¸ģ":7672,"à¹Ĥà¸Ľà¹Ģà¸ģà¸¡à¸Ńà¸Ļ":7673,"à¸Īà¸ĩ":7674,"à¸³à¸Ļà¸§à¸¢":7675,"à¸²à¸ļà¸Ļ":7676,"à¸ģà¸ķà¸°à¸§":7677,"à¸²à¸Īà¸°à¸ĸ":7678,"Ġà¸Ħà¸§à¸²à¸¡à¸¢à¸²à¸§":7679,"à¸Īà¹ģà¸¥":7680,"à¹Ĥà¸Ńà¸§":7681,"à¸Ĥà¸Ńà¸ĩà¸Ħà¸Ļ":7682,"Ġà¹Ģà¸Ľà¸£":7683,"à¸Ļà¸²à¸ģ":7684,"à¸ģà¸¢à¸ģà¹Ģà¸¥":7685,"à¸Ķà¸ķà¸£":7686,"à¸ŀà¸£à¸°à¸ł":7687,"à¸§à¸ĩà¸¥":7688,"à¸łà¸²à¸©à¸²à¸ģà¸£":7689,"Ġà¸ŀà¸£à¸°à¸£à¸²à¸Ĭà¹Ĥà¸Ńà¸£à¸ª":7690,"98":7691,"Th":7692,"à¸Łà¸²à¹Ĥà¸£à¸«":7693,"Ġà¹Ģà¸ĺà¸Ńà¸ģ":7694,"à¸Ńà¹Ģà¸§à¸¥à¸²":7695,"à¸¢à¸§à¸Ħ":7696,"à¸ŀà¸£à¸°à¸£à¸²à¸Ĭà¸Ļ":7697,"à¸¢à¸£à¸²à¸¡à¸Ħà¸³à¹ģà¸«":7698,"à¸Ļà¸ĩà¸²à¸Ļà¸Ĺ":7699,"à¸§à¸¢à¹Ģà¸£":7700,"à¸²à¸«à¸²à¸į":7701,"à¸¢à¸¡à¹Ģà¸¥":7702,"à¹Ģà¸ģà¸©à¸¡":7703,"à¸ĩà¸Ħà¸§à¸²à¸¡à¹Ģà¸Ľ":7704,"à¸£à¸Ķà¸ģà¹Ĥà¸¥à¸ģ":7705,"à¸įà¹Ħà¸Ķ":7706,"Ġà¸ŀà¸²à¸£":7707,"à¸ĩà¸ļà¸Ńà¸ģ":7708,"Ġ1986":7709,"ĠMy":7710,"à¸Īà¸³à¸Ļà¸§à¸Ļà¸ľ":7711,"MA":7712,"à¸Ļà¹Ģà¸Ĺà¸ŀ":7713,"à¸Ļà¸£à¸°à¸¢à¸°à¹Ģà¸§à¸¥":7714,"à¸Ľà¸ģà¸Ħà¸£à¸Ńà¸ĩà¸ķà¸Ļà¹Ģà¸Ńà¸ĩ":7715,"à¸²à¸ŀà¸£à¸°à¸£à¸²à¸Ĭ":7716,"Ġcl":7717,"à¸²à¹ĥà¸Ļà¸Ľ":7718,"à¸Ļà¸Ľà¸£à¸°à¸ĺà¸²à¸Ļà¸²à¸ĺ":7719,"à¸Ĭà¸Ļà¸Ĺ":7720,"à¸²à¸¡à¸²à¸Īà¸²à¸ģ":7721,"à¸ĩà¸ªà¸Ńà¸ĩà¸Ĥ":7722,"ON":7723,"Ġi":7724,"ĠAs":7725,"à¸ŀà¸£à¸°à¸ªà¸§à¸²à¸¡":7726,"58":7727,"à¸Īà¸¯":7728,"à¹Ĥà¸«à¸¡à¸Ķ":7729,"à¸Ńà¸£à¸²à¸Ĭ":7730,"ĠâĢĶ":7731,"à¹ģà¸Ļà¸§à¸Ļ":7732,"à¹ģà¸Ħà¸Ļà¸²à¸Ķ":7733,"à¸ķà¹ĥà¸«":7734,"à¸§à¸¢à¹Ģà¸Ħà¸£":7735,"tiv":7736,"à¸Ļà¸ĸà¸Ļà¸Ļ":7737,"à¹ģà¸¡à¸Ļà¸Ī":7738,"à¸Ļà¸ľà¸¥à¸¡à¸²à¸Īà¸²à¸ģ":7739,"ude":7740,"à¸Ħà¸Ĩ":7741,"à¸Ńà¸¢à¸Ĭ":7742,"Ġ2490":7743,"à¸Ļà¹Ģà¸«":7744,"à¸¥à¸ªà¸ĩà¸Ħà¸£à¸²à¸¡":7745,"à¸Ħà¸²à¸¥":7746,"à¹ģà¸¥à¸£":7747,"Ġà¸Ĺà¸Ńà¸ĩ":7748,"Ġà¸Ńà¸Ńà¸ģà¹ģà¸ļà¸ļ":7749,"Ġ1988":7750,"68":7751,"iel":7752,"à¹ĥà¸Ļà¸ŀà¸£à¸°à¹Ģà¸Ī":7753,"à¸²à¸¢à¹ģà¸ļà¸ļ":7754,"à¸²à¸Ĭà¸¡":7755,"à¸Ľà¸£à¸°à¹Ģà¸Ĺà¸¨à¸ķ":7756,"à¸Ķà¸ķà¸¥à¸Ńà¸Ķ":7757,"à¸²à¸ĺà¸²à¸£à¸ĵà¸Ĭà¸Ļ":7758,"à¸Ļà¹Ĥà¸¥à¸«":7759,"à¸Ħà¸²à¸ļ":7760,"à¸²à¸ķà¸Ļà¹Ģà¸Ńà¸ĩ":7761,"Ġà¹ĥà¸Ļà¸ªà¸«à¸£":7762,"à¸ĩà¸²à¸Ļà¹Ħà¸Ķ":7763,"roup":7764,"à¸ģà¸©à¸£à¸¢":7765,"Ġà¸£à¸°à¸¢à¸°":7766,"à¸²à¸ĩà¹ģà¸ļà¸ļ":7767,"à¸Ħà¸§à¸²à¸¡à¸ĭ":7768,"à¹ĥà¸Ļà¸ģà¸²à¸£à¹Ģà¸Ľ":7769,"Ġà¸Ĭà¸²à¸¢":7770,"à¸Ķà¸Ĥà¸Ńà¸Ļà¹ģà¸ģ":7771,"Ġà¹Ģà¸Ńà¸Ĭ":7772,"92":7773,"à¸²à¹Ģà¸Ŀ":7774,"à¸Ļà¸ŀà¸£à¸°à¸Ńà¸ĩà¸Ħ":7775,"à¸ĩà¸Ħà¸§à¸²à¸¡à¸ª":7776,"à¸¡à¹ĥà¸«à¸¡":7777,"à¸įà¸¡":7778,"à¹Ĥà¸Ķà¸¢à¹Ģà¸Ľ":7779,"à¹Ħà¸Ľà¹Ģà¸£":7780,"à¹Ĥà¸Ĭà¸Ħ":7781,"à¹Ħà¸Ľà¸£à¸©à¸ĵ":7782,"à¸¥à¹Ģà¸¡à¹Ģà¸Ļ":7783,"à¸ŀà¸£à¸°à¸Ľà¸£à¸°à¸§":7784,"à¹Ģà¸¥à¸ª":7785,"à¸ģà¸³à¹Ħà¸£":7786,"ĠGirl":7787,"à¸Ľà¸£à¸°à¸ŀà¸¤à¸ķ":7788,"à¸Ķà¸£à¸²à¸¢à¸ģà¸²à¸£":7789,"à¹Ģà¸Ļà¸°":7790,"à¸£à¸Ńà¸Ķà¸Ĭ":7791,"à¸ĩà¹Ģà¸ªà¸Ķ":7792,"à¸Ľà¸Ļà¸²à¸§":7793,"à¸Ńà¸ģà¸«":7794,"à¹Ģà¸ļà¸ģà¸©à¸²":7795,"à¸Ļà¸ŀà¸²à¸¢":7796,"à¸³à¸¡à¸²à¸ķ":7797,"ime":7798,"à¸Ħà¸°à¹ģà¸Ļ":7799,"à¸£à¸°à¸Ĩ":7800,"Ġà¸Ĥà¸Ńà¸ĩà¸Ī":7801,"à¹ģà¸Ńà¸Ļà¸Ļ":7802,"à¸ĩà¸Ĥà¸ĵà¸°à¸Ļ":7803,"à¸Ńà¹Ģà¸ķà¸Ńà¸£":7804,"à¸¢à¸¡à¹Ģà¸Ľ":7805,"à¸ķà¸²à¸¡à¹ģà¸Ļà¸§":7806,"à¸²à¸ĺà¸²à¸ķ":7807,"à¸Ļà¸Ħà¸Ķ":7808,"ĠIs":7809,"Ġà¹Ģà¸ĺà¸Ńà¸¢":7810,"Ġà¸§à¸²à¸ĩà¸Īà¸³à¸«à¸Ļ":7811,"ars":7812,"à¸Ľà¸ģà¸Ħà¸¥":7813,"à¸Ńà¸¡à¹Ĥà¸¢à¸ĩ":7814,"TV":7815,"à¸°à¹Ģà¸Ĺ":7816,"à¸ļà¹ģà¸¥":7817,"à¸£à¸°à¸«à¸Ļ":7818,"à¸łà¸£":7819,"à¸Ńà¸¡à¹Ģà¸Ľ":7820,"Ġà¹ĥà¸Ļà¸Ĥà¸ĵà¸°à¹Ģà¸Ķ":7821,"à¸Īà¸ļà¸¥à¸ĩ":7822,"à¸ĩà¸Ľà¸£à¸°à¸§":7823,"à¸Īà¸§":7824,"à¸ģà¸£à¸²à¸ļ":7825,"à¸Ľà¸£à¸°à¸Ĭà¸§à¸£":7826,"à¸ģà¸©à¸ĵà¸°à¹Ģà¸īà¸ŀà¸²à¸°":7827,"aster":7828,"à¸ļà¸¤à¸Ķ":7829,"à¸ŀà¸£à¸°à¸ķà¸³à¸«à¸Ļ":7830,"à¸ģà¸¥à¸ĩ":7831,"à¸§à¸¢à¸Ńà¸ĩà¸Ħ":7832,"à¸Ŀà¸²à¸ģ":7833,"Ġ2488":7834,"à¸Ħà¸§à¸²à¸¡à¸ģ":7835,"à¸Ńà¸¡à¸²à¸Ĺ":7836,"à¸ķà¸²à¸¡à¸ķ":7837,"ĠâĢĿ":7838,"à¸ĩà¸ľà¸¥à¸ģà¸£à¸°à¸Ĺ":7839,"ĵà¹":7840,"à¸Ķà¸Īà¸°":7841,"à¸Ĥà¸ļà¸§à¸Ļà¸ģà¸²à¸£":7842,"à¹Ĥà¸ĸ":7843,"Ġà¹ĥà¸Ļà¸Ĥà¸ĵà¸°à¸Ļ":7844,"à¸¢à¸Ļà¸ŀ":7845,"à¸¡à¸«à¸²à¸¨à¸²à¸¥":7846,"à¸ªà¸²à¸¡à¸²à¸£à¸ĸà¸Ī":7847,"Âł\"":7848,"à¸§à¸²à¸ĩà¹ĥà¸Ī":7849,"à¸³à¹Ģà¸ªà¸¡à¸Ń":7850,"à¸ķà¸£à¸łà¸²à¸ŀ":7851,"à¸ªà¸¡à¸¡à¸ķ":7852,"à¸Ńà¸Ķà¹ģà¸Ķà¸ĩ":7853,"à¸ªà¸²à¸¡à¸²à¸£à¸ĸà¸Ĺà¸³":7854,"à¹Ĥà¸£à¸ĩà¸¥à¸°à¸Ħà¸£":7855,"à¸ĩà¸Īà¸²à¸ģà¹Ħà¸Ķ":7856,"à¹Ĥà¸Ńà¸ģà¸²à¸ªà¸Ĺ":7857,"aj":7858,"à¸Ķà¸«à¸§":7859,"à¸³à¸ķà¸ģ":7860,"à¸Ĥà¸Ńà¸ĩà¸Ŀà¸£":7861,"à¸ģà¸£à¹Ħà¸Ĺà¸¢":7862,"Ġ43":7863,"51":7864,"à¸²à¹Ĥà¸Ń":7865,"à¸ļà¹Ģà¸§":7866,"Ġà¸Ļà¸ģ":7867,"Ġà¹Ĥà¸Ńà¸¥":7868,"à¸ĩà¸Ńà¸²à¸«à¸²à¸£":7869,"à¸Īà¸²à¸ģà¸ģà¸²à¸£à¹ģà¸Ĥ":7870,"Ġà¹Ģà¸Ńà¸Łà¸ĭ":7871,"à¹ģà¸¥à¸°à¹Ģà¸Ħà¸£":7872,"à¸²à¸ªà¸§à¸¢à¸ĩà¸²à¸¡":7873,"à¸Ńà¸ĩà¸Ĺà¸Ńà¸ĩ":7874,"à¹Ħà¸Ńà¸Ĺ":7875,"à¹Ģà¸Ħà¸Ĭ":7876,"à¸Ĺà¸²à¸ĩà¹Ģà¸Ĥ":7877,"à¹ĥà¸Ļà¸ģà¸²à¸£à¸¨":7878,"à¸ªà¸²à¸¡à¸²à¸£à¸ĸà¸¢":7879,"à¸Ļà¹Ĥà¸Ķà¸¢à¸Ĺ":7880,"à¸Ńà¸Ļà¸«à¸£":7881,"à¹Ģà¸Ļà¸ĭ":7882,"à¸ıà¸Ĳ":7883,"à¸ķà¸ķà¸²":7884,"à¸²à¸¬à¸ª":7885,"Sp":7886,"Åį":7887,"à¸Ķà¸Ĭà¸Ļ":7888,"à¹ĥà¸Ļà¹Ģà¸¥":7889,"à¸¢à¸įà¸Ĺ":7890,"Ġ41":7891,"able":7892,"à¸²à¸Īà¸Ńà¸¡à¸¡à¸²à¸£à¸Ķ":7893,"Ġà¸Ĳà¸²à¸Ļ":7894,"à¸ŀà¸ŀ":7895,"à¸²à¸ģà¸³à¸¥":7896,"Ġà¸ŀà¸Ńà¸¥":7897,"Ġà¸ģà¸£à¸°à¸ļà¸§à¸Ļ":7898,"à¸Ļà¸Ĥà¸Ńà¸ĩà¸Ĺ":7899,"ited":7900,"Ġà¹Ķ":7901,"à¸ģà¸£à¸°à¸Ĺà¸£à¸§à¸ĩà¸¡à¸«à¸²à¸Ķà¹Ħà¸Ĺà¸¢":7902,"à¸¥à¸²à¸£":7903,"à¸Ħà¹Ģà¸ĭ":7904,"Ġà¸ģà¸²à¸£à¸ļ":7905,"Ġ2502":7906,"à¸²à¹Ħà¸«à¸¡":7907,"Ġle":7908,"à¸²à¹ĥà¸Ħà¸£":7909,"à¸¥à¹Ģà¸Ń":7910,"à¸Ķà¸²à¹Ģà¸Ľ":7911,"à¸°à¸£à¸°":7912,"à¸²à¸ģà¸Ńà¸Ļ":7913,"à¸Ĥà¸Ńà¸ĩà¹Ģà¸¥":7914,"à¸«à¸²à¸£à¸²à¸Ĭà¸§":7915,"à¹ģà¸Ĺà¸£à¸ģà¸ĭ":7916,"ĠÃ":7917,"à¸²à¸§à¸£à¸§à¸ĩà¸¨":7918,"67":7919,"Äģ":7920,"Ġà¹ģà¸¥à¸°à¸Īà¸²à¸ģ":7921,"à¸łà¸²à¸©à¸²à¸ķ":7922,"à¸ªà¸²à¸¡à¸²à¸£à¸ĸà¸ªà¸£":7923,"ĠâĢĺ":7924,"à¸ĩà¸Ľà¸§à¸ĩ":7925,"ĠGu":7926,"oo":7927,"à¸¡à¹Ģà¸ª":7928,"à¸¡à¸Ľà¸£à¸°à¸ª":7929,"à¸®à¸²à¸§":7930,"à¸Ĥà¸Ńà¸ĩà¸ªà¸²à¸ĺà¸²à¸£à¸ĵà¸£":7931,"63":7932,"à¸ģà¹ĥà¸«à¸¡":7933,"à¸§à¸Ļà¸ªà¸³à¸Ħ":7934,"à¸Ĺà¸²à¸ĩà¸Ļ":7935,"à¸ķà¸²à¸¡à¸ģà¸İà¸«à¸¡à¸²à¸¢":7936,"à¸Ķà¸£à¸²à¸¡":7937,"Ġ2493":7938,"à¸ļà¹Ģà¸ŀà¸¥":7939,"à¸Ħà¹Ģà¸ģà¸Ńà¸£":7940,"à¸Ļà¸ķà¸£à¸°à¸ģ":7941,"Ġà¸Īà¸Ļà¸Ĺà¸³à¹ĥà¸«":7942,"à¸łà¸²à¸ŀà¹Ģà¸Ĥ":7943,"à¸įà¸ģà¸£à¸£à¸¡":7944,"à¸ŀà¸¥à¸Ĺ":7945,"ink":7946,"à¸ķà¸£à¸Ĥà¸Ńà¸ĩà¸Ļà¸²à¸¢":7947,"à¹Ģà¸Ļà¸£à¹Ģà¸Ĺà¸¨":7948,"à¸²à¹ĥà¸ģà¸¥":7949,"à¸Ńà¸ķà¹Ĥà¸ķà¸¡":7950,"à¸²à¸¡à¸²à¸ģà¸ģà¸§":7951,"Ġà¹ĥ":7952,"à¸¡à¸īà¸¥à¸Ńà¸ĩ":7953,"à¸ľà¸Īà¸įà¸ł":7954,"Ġà¸ŀà¸ĩà¸©":7955,"à¸ŀà¸ļà¸ģà¸Ĭ":7956,"93":7957,"à¸¡à¸²à¸Ĥ":7958,"à¸²à¸¡à¸²à¸ª":7959,"à¸²à¸Ħà¸Ļà¸Ĺ":7960,"à¸«à¸¡à¸Ķà¸ª":7961,"à¸ĩà¸ªà¸ĩà¸Ħà¸£à¸²à¸¡à¹Ĥà¸¥à¸ģà¸Ħà¸£":7962,"ital":7963,"EC":7964,"à¸Ķà¸ģà¸İà¸«à¸¡à¸²à¸¢":7965,"à¸Ķà¹Ģà¸ŀà¸Ĭà¸£à¸ļ":7966,"à¸Ńà¸¢à¹Ħà¸Ķ":7967,"à¸ģà¸£à¸ķ":7968,"à¸²à¸Ńà¸²à¸¨":7969,"à¸Ĺà¸ĺà¸¢à¸Ńà¸Ķà¸Ł":7970,"à¸ļà¸ģà¸²à¸£à¸§":7971,"Ġà¸ģà¸²à¸£à¸Ĺà¸³":7972,"oly":7973,"à¸ģà¹ģà¸Ĥ":7974,"à¸ŀà¸£à¸°à¸ĺà¸²à¸ķ":7975,"à¸Īà¸°à¹Ģà¸ŀ":7976,"à¹Ħà¸¡à¹Ģà¸Ħ":7977,"à¸ªà¸£à¸łà¸²à¸ŀ":7978,"Ġ64":7979,"Ġà¸ģà¸£à¸°à¸Ī":7980,"à¸Ńà¸²à¸ªà¸Ļà¸§":7981,"à¸ģà¹Ģà¸«à¸¥":7982,"à¹ģà¸¥à¸°à¸ļà¸£":7983,"à¸²à¸§à¸²à¹Ģà¸£":7984,"à¸²à¸Ħà¸¡à¸Ļ":7985,"ose":7986,"à¸Ĺà¸²à¸ĩà¸Ĺà¸°à¹Ģà¸¥":7987,"300":7988,"à¸Ńà¸¡à¸ļ":7989,"à¸Ńà¸¡à¸Ľ":7990,"à¸ļà¸Ĺà¸Ľà¸£à¸°à¸ŀ":7991,"à¸«à¸¥à¸²à¸¢à¹Ģà¸£":7992,"à¸Īà¸£à¸§à¸Ķ":7993,"à¹Ĥà¸Ľà¸£à¹ģà¸ģà¸£":7994,"à¸¥à¸ĩà¸ª":7995,"à¸ļà¸ªà¸Ńà¸ĩ":7996,"à¸ĩà¸«à¸į":7997,"Ġ2509":7998,"Ġhe":7999,"à¸Ļà¸£à¸°à¹Ģà¸ļ":8000,"à¸¡à¸®":8001,"à¸Ķà¸ľà¸¥":8002,"à¸Ħà¸¥à¸Ńà¸Ķ":8003,"à¸ķà¸²à¸¡à¸¥":8004,"à¸łà¸²à¸©à¸²à¸į":8005,"à¸¡à¸¡à¸«à¸²à¸£à¸²à¸Ĭà¸§":8006,"à¸ģà¹ģà¸ªà¸Ķà¸ĩà¸«à¸į":8007,"à¸ĸà¸Ļà¸Ļà¸ª":8008,"52":8009,"à¸ªà¸ļ":8010,"à¸Ĥà¸¢":8011,"à¸Īà¸°à¸«":8012,"à¹ģà¸ļà¸ļà¸Ķ":8013,"Ġ47":8014,"à¸ĩà¹Ģà¸¨à¸ªà¸Ĺ":8015,"Ġ2504":8016,"Ġà¸Ħà¸ĵà¸°à¸£":8017,"à¸Ķà¹Ģà¸ľà¸¢à¸§":8018,"à¸ļà¸¡à¸²à¸¢":8019,"Ġà¸Ļà¸Ńà¸ģà¹Ģà¸«à¸Ļ":8020,"à¸ģà¸¤à¸ķà¸ģà¸²à¸£à¸ĵ":8021,"Ġà¸ªà¹Ĥà¸¡à¸ªà¸£à¸Ł":8022,"à¸²à¸£à¸²à¸¨à¸²à¸ªà¸ķà¸£":8023,"à¸ģà¸²à¸£à¹Ģà¸ķ":8024,"à¸ģà¸²à¸£à¹Ĥà¸Īà¸¡à¸ķ":8025,"Ġà¸ĭà¸²à¸£":8026,"Ġ52":8027,"Ġno":8028,"à¸Ĭà¸Įà¸²à¸¢":8029,"ject":8030,"à¸²à¹Ģà¸«à¸¡":8031,"à¸Ļà¹Ģà¸ģà¸¥":8032,"à¸¥à¹Ģà¸ŀ":8033,"à¸Īà¸°à¹Ģà¸«":8034,"à¸²à¹Ģà¸Ĥà¸²":8035,"à¸Ļà¸ģà¸²à¸£à¹Ģà¸£":8036,"à¸ªà¸²à¸¡à¸²à¸£à¸ĸà¸ŀ":8037,"à¸Ļà¸Ĳà¸²à¸Ļà¸Ĥà¸Ńà¸ĩ":8038,"à¸ģà¸Īà¸°à¸ĸ":8039,"ky":8040,"Ġà¸£à¸°à¸¢à¸°à¸Ĺà¸²à¸ĩ":8041,"à¸ģà¹ĥà¸Ļà¸ģà¸²à¸£":8042,"à¸£à¸°à¸Ĺ":8043,"à¹ĥà¸Ļà¸§à¸ĩà¸ģà¸²à¸£":8044,"à¸²à¸ĩà¹ģà¸ľ":8045,"à¸ĵà¸²à¸ĺ":8046,"à¹Ģà¸§à¸ĵà¸Ķ":8047,"à¸Ĵà¸Ļà¸²à¹Ĥà¸Ķà¸¢":8048,"ĠComp":8049,"à¸Ļà¹Ģà¸Ħà¸¢":8050,"à¸Ńà¸ģà¸ļ":8051,"à¸Ńà¸ģà¹Ĥà¸ģ":8052,"à¸§à¸ĩà¸£à¸°à¸«à¸§":8053,"Ġà¹Ĥà¸Ķà¸¢à¸Ħ":8054,"à¹ģà¸ªà¸ķ":8055,"orp":8056,"à¸ļà¸Ļà¸²à¸ĩ":8057,"à¸Ľà¸£à¸°à¸ģà¸²à¸¨à¸ľà¸¥":8058,"à¸ªà¸²à¸¡à¸ģ":8059,"Ġcon":8060,"Ġà¸łà¸²à¸§à¸°":8061,"94":8062,"à¸ģà¸«à¸į":8063,"à¸ĩà¸Īà¸³à¹Ģà¸Ľ":8064,"à¸¥à¹Ĥà¸Ļ":8065,"à¸Ĭà¸²à¸ģ":8066,"à¸Ļà¸ŀà¸£à¸°à¸£à¸²à¸Ĭà¸ĺ":8067,"ĠÂłĠÂł":8068,"Ġà¹ģà¸¥à¸°à¸£à¸°à¸Ķ":8069,"à¸§à¸¡à¸Ĭ":8070,"à¸²à¸Ķà¸³à¸£à¸ĩà¸ķà¸³à¹ģà¸«à¸Ļ":8071,"à¸Ļà¸ģà¸²à¸£à¸ŀ":8072,"à¸Īà¸Ļà¸ģà¸§":8073,"ator":8074,"à¹ģà¸ļà¸Ļà¸Ķ":8075,"à¸Ńà¸ģà¸²à¸£à¸ŀ":8076,"à¸Ķà¸²à¸£à¸²à¸Ī":8077,"rans":8078,"à¸Īà¸²à¸ģà¸ļ":8079,"à¸Ĳà¸Ī":8080,"à¸¢à¸¡à¸Ī":8081,"à¸ĩà¸Ĥà¸£à¸ĵ":8082,"57":8083,"à¸Ĥà¸Ńà¸ĩà¸ŀà¸£à¸°à¸Ļà¸²à¸ĩ":8084,"à¸łà¸²à¸ŀà¸£":8085,"à¸¡à¸£à¸Ķà¸ģ":8086,"Ġro":8087,"à¸¡à¸Ľà¸£":8088,"à¸Ńà¸ĩà¸ģà¸¥à¸²à¸ĩ":8089,"à¸łà¸²à¸ŀà¸Ļ":8090,"à¸¢à¸¡à¹ģà¸«":8091,"à¸ļà¸ģà¸²à¸£à¸Ĭ":8092,"à¸Ĥà¸Ńà¸ĩà¸ªà¸ĩà¸Ħà¸£à¸²à¸¡":8093,"Ġà¸ŀà¸£à¸«à¸¡":8094,"à¸Ńà¹Ħà¸§":8095,"à¸ģà¹Ħà¸Łà¸Ł":8096,"à¸²à¸¡à¸²à¸¢":8097,"Ġà¸ģà¸²à¸£à¹Ģà¸Ľà¸¥":8098,"à¸²à¸ŀà¸Ļ":8099,"à¸Ļà¸¢à¸Ńà¸¡":8100,"à¸Ńà¸²à¸Īà¸Īà¸°à¸¡":8101,"Ġ2507":8102,"à¹Ģà¸£à¸²à¸°":8103,"Ġà¹ģà¸¥à¸°à¸ģà¸¥à¸²à¸¢à¹Ģà¸Ľ":8104,"à¸²à¸Ńà¸²à¸¢":8105,"à¸įà¸įà¸²à¸ª":8106,"Ġà¸Īà¸°à¸Ĺà¸³à¹ĥà¸«":8107,"à¹Ĥà¸Ĭà¸ķ":8108,"oph":8109,"Ġà¸¥à¸°à¸Ħà¸£":8110,"à¸ĩà¸ķà¸£":8111,"à¸ŀà¸ŀà¸²à¸Ļ":8112,"à¸ģà¸²à¸£à¸Ľà¸£à¸°à¸ģà¸§à¸Ķ":8113,"à¹Ģà¸Ħà¸¢à¸£":8114,"Ġà¹Ĥà¸Ķà¸¢à¸Īà¸°à¸¡":8115,"à¹Ĥà¸£à¸Ĵ":8116,"à¸¥à¸²à¸¢à¹Ģà¸§à¸Ĺ":8117,"à¸Ļà¸ķà¸Ļà¸²à¸ģà¸²à¸£":8118,"à¸¡à¸ľà¸¥":8119,"à¸Ħà¸£à¸Ńà¸ĩà¸Ļà¸Ħà¸£":8120,"à¸Ļà¸Ĳà¸²à¸Ļà¸Ĺ":8121,"à¸¢à¸Ķà¸ª":8122,"à¹Ĥà¸Ļà¸Ĺ":8123,"à¸³à¹ĥà¸Ļ":8124,"Ġà¸Ńà¸Ńà¸ªà¹Ģà¸ķà¸£à¹Ģà¸¥":8125,"à¸įà¸įà¸²à¸Ĺ":8126,"à¸£à¸°à¸ļà¸ļà¸£":8127,"Ġà¸ķà¸²à¸¡à¸Ķ":8128,"à¹ģà¸ĸà¸§":8129,"à¸ŀà¸Ńà¸£":8130,"à¸§à¸ĩà¸Ńà¸²à¸Ĺ":8131,"à¸£à¸£à¹Ģà¸ªà¸£":8132,"à¸ģà¸£à¸°à¹ģà¸ªà¹Ħà¸Łà¸Ł":8133,"Ġà¹ģà¸ŀà¸Ĺà¸¢":8134,"à¸Ļà¸Ľà¸¥à¸²à¸¢":8135,"à¸Ĳà¸ķ":8136,"à¸ĩà¹Ģà¸ŀà¸Ĭà¸£":8137,"à¹Ĥà¸ģà¸¥à¸Ķ":8138,"Ġà¸Ľà¸£à¸°à¸Ĭà¸²à¸ģà¸£":8139,"à¸Ńà¹ĥà¸Ļà¸ģà¸²à¸£":8140,"à¸¢à¸Ķà¸Ĥà¸Ńà¸ĩ":8141,"à¸²à¸¢à¸«":8142,"Ġà¸ģà¸İà¸«à¸¡à¸²à¸¢":8143,"à¸łà¸²à¸ŀà¸¥":8144,"à¸¥à¸°à¸Ľ":8145,"à¹Ĥà¸£à¹Ģà¸ļ":8146,"Ġà¸Ĺà¸³à¸ĩà¸²à¸Ļ":8147,"ĠGo":8148,"à¸Ļà¸¡à¸²à¸ģà¸Ĺ":8149,"oid":8150,"à¸ģà¸²à¸ĭ":8151,"à¸Ĺà¸ķ":8152,"à¸Ĺà¸Ńà¸ĩà¸Ħà¸³":8153,"à¸²à¸¢à¸ļà¸£":8154,"à¸²à¸Ļà¸³":8155,"à¸²à¸ªà¸²à¸§":8156,"à¸Ļà¸Ļà¸²à¸¡":8157,"à¹ģà¸ļà¸ļà¹Ħà¸¡":8158,"à¸¡à¸Ńà¹Ģà¸ķà¸Ńà¸£":8159,"à¸ģà¸¡à¸§à¸¢à¹Ħà¸Ĺà¸¢":8160,"Ġà¸¡à¸«à¸²à¸ł":8161,"à¸¢à¸Ļà¹Ģà¸ģ":8162,"à¸¢à¸¡à¹ģà¸¥à¸°":8163,"à¸Ļà¸ģà¸Ńà¸ĩà¸Ĺ":8164,"à¸Ļà¸³à¸ª":8165,"Ġ2492":8166,"Ġend":8167,"à¸Ńà¸Ľà¸£à¸°à¸Ĭ":8168,"à¸Ħà¸§à¸²à¸¡à¸«à¸Ļà¸²à¹ģà¸Ļ":8169,"à¸Ľà¸£à¸°à¸ģà¸Ńà¸ļà¸Ĺ":8170,"Ġ2491":8171,"à¹ģà¸Ĺà¸£à¸ģà¹ģà¸ĭ":8172,"96":8173,"à¸¢à¸Ł":8174,"à¸ģà¸²à¸£à¸Ńà¸Ńà¸ģà¸Ńà¸²à¸ģà¸²à¸¨":8175,"illi":8176,"à¸ŀà¸Ńà¸Ķ":8177,"à¸²à¸¡à¸²à¸¡":8178,"à¸¤à¹ħ":8179,"à¸īà¸°":8180,"à¸ĩà¸Ĥà¸Ńà¸ĩà¸£":8181,"à¸²à¸ľà¸Ļ":8182,"iland":8183,"ner":8184,"à¸ĩà¹ĥà¸ª":8185,"à¸Ķà¸ªà¸³à¸«à¸£":8186,"à¸ķà¸£à¸Ļ":8187,"à¸Īà¸Īà¸£":8188,"lex":8189,"Ġà¸Ľà¸£à¸°à¹Ģà¸Ĺà¸¨à¸Ŀà¸£":8190,"Ġ2484":8191,"à¸ģà¸ŀà¸£à¸£à¸Ħ":8192,"à¹ģà¸Ħà¸§à¸£":8193,"à¸ĩà¸ªà¸²à¸ĺà¸²à¸£à¸ĵà¸£":8194,"à¸Ĵà¸Ļà¸²à¸ª":8195,"à¹Ħà¸Ĥà¸ª":8196,"à¸ģà¹Ģà¸ģà¸ĵà¸ĳ":8197,"Ġ2497":8198,"à¹Ģà¸ªà¸ģà¸ªà¸¡à¸£à¸ªà¸ģ":8199,"air":8200,"bo":8201,"à¸ªà¹ģà¸¥":8202,"à¸ļà¹ģà¸ģ":8203,"à¸Īà¸ģà¸¥":8204,"à¸¹.":8205,"à¹Ĥà¸į":8206,"à¸ģà¸²à¸£à¸Ł":8207,"à¸ģà¸²à¸£à¸ķà¸£à¸§à¸Ī":8208,"à¸ĭà¸Ńà¸Ļ":8209,"à¹Ĥà¸Ķà¸¢à¸ķà¸¥à¸Ńà¸Ķ":8210,"Ġà¹Ģà¸ģà¸©":8211,"à¸Ńà¹Ħ":8212,"à¸Ľà¹Ħà¸Ķ":8213,"Ġà¹ģà¸¥à¸°à¸«à¸¡":8214,"Ġà¹ģà¸¥à¸°à¸ªà¸¡à¹Ģà¸Ķ":8215,"à¸Ńà¸ģà¹Ģà¸Ĥà¸²":8216,"à¸¢à¸¡à¸Ķ":8217,"à¸Ļà¸Ħà¸ķ":8218,"à¸Ĳà¸ļà¸²à¸¥à¸ģà¸¥à¸²à¸ĩ":8219,"à¸¡à¸²à¸ªà¸£":8220,"Ġà¹Ģà¸¢à¸Ńà¸£à¸¡à¸Ļ":8221,"à¸ĩà¸§à¸Ļ":8222,"à¸Ħà¸Ľ":8223,"à¸²à¸¢à¸ķà¸£à¸ĩà¸Ĥ":8224,"à¸Ńà¸¢à¸Ħà¸¥":8225,"à¹Ģà¸Ĥà¸²à¸£":8226,"à¸Ńà¸ªà¸ĸà¸²à¸Ļ":8227,"org":8228,"à¸ģà¸²à¹ģà¸¥":8229,"à¸Ķà¸¡à¸ģà¸²à¸£à¸ĵ":8230,"Ġà¸Ļà¸³à¹Ĥà¸Ķà¸¢":8231,"à¹Ĥà¸ģà¸ªà¸¥à¸²à¹Ģà¸§":8232,"à¸ĩà¸ŀà¸£à¸°à¹Ģà¸Ī":8233,"à¸µà¹Ī\"":8234,"à¸²à¸¢à¸ģà¸¥":8235,"à¸ŀà¸£à¸°à¸Ľà¸£":8236,"Ġà¹ĥà¸Ļà¸ģà¸²à¸£à¹Ģà¸¥":8237,"à¸¢à¸§à¸Ĥà¸Ńà¸ĩ":8238,"Ġ1930":8239,"atch":8240,"ubl":8241,"à¸Ļà¸Ĥà¸Ļà¸²à¸Ķ":8242,"à¸¥à¸¨":8243,"à¸Łà¸²à¸Ļ":8244,"à¸Ńà¸Ķà¸Ħà¸¥":8245,"Ġà¸ģà¸²à¸£à¸ªà¸£":8246,"à¸ĩà¸ģà¸²à¸£à¸ķ":8247,"à¸²à¸Łà¸£":8248,"Ġ2476":8249,"Ġj":8250,"à¸Ńà¸Ńà¸ĩà¸Ħ":8251,"à¸ĩà¹Ģà¸®":8252,"à¸¢à¹ģà¸Ĭà¸¡à¸Ľ":8253,"à¸Ķà¹Ħà¸Ł":8254,"à¸ľà¸¥à¸¥":8255,"à¸Ķà¹ĥà¸Ļà¸Ľà¸£à¸°à¸§":8256,"à¸ªà¹Ģà¸ĭà¸Ńà¸£":8257,"à¸°à¹Ģà¸¢à¸²":8258,"à¸¥à¹ģà¸£à¸ģ":8259,"à¸°à¸Ī":8260,"à¸Ħà¸Ļà¸ªà¸³à¸Ħ":8261,"Ġà¸ŀà¸²à¸¢":8262,"Ġà¹ĥà¸Ļà¸ģà¸£":8263,"ĠChampions":8264,"à¸°à¸¢":8265,"à¸Ńà¸ĩà¹ģà¸Ħ":8266,"à¸³à¹ĥà¸«":8267,"à¹Ĥà¸Ķà¸¢à¸¡à¸²à¸ģ":8268,"à¸¢à¸ĩà¸¡":8269,"à¸Ļà¹ģà¸Ļ":8270,"Ġà¸Ĺà¸²à¸ĩà¸ªà¸ĸà¸²à¸Ļ":8271,"à¸ģà¸ļà¸£":8272,"à¸Ńà¸ģà¸¡":8273,"Ġà¸Ľà¸ģà¸ķ":8274,"à¸²à¸Ĺà¸²à¸ĩà¸Ķ":8275,"à¸¡à¹Ħà¸Ľ":8276,"à¸³à¸ŀà¸£":8277,"à¸ģà¸²à¸£à¸«":8278,"à¸µà¹ī\"":8279,"à¸Ľà¸®":8280,"Ġà¹ģà¸¥à¸°à¹Ģà¸Ķ":8281,"Ġà¸Ľà¸²à¸£":8282,"à¸Ļà¸Ńà¸²à¸Ĭ":8283,"Ġà¸ģà¸²à¸£à¹Ģà¸Ĥ":8284,"à¸§à¹Ħà¸Ľà¸Ĺ":8285,"à¸Ķà¸Ńà¸²à¸§":8286,"à¸ĩà¸¢à¸Ńà¸Ķà¹Ģà¸¢":8287,"Ġà¸Ńà¸ĩà¸¨à¸²":8288,"à¸Ĭà¸Ļà¸ģà¸²à¸ĺ":8289,"Ġar":8290,"à¸²à¹Ħà¸Ĺ":8291,"à¸ķà¹Ģà¸Ī":8292,"Ġà¸ªà¸ķà¸£":8293,"à¸¢à¸ĩà¸Ħà¸£":8294,"à¹Ģà¸ļà¸įà¸Ī":8295,"Ġ1985":8296,"à¸Ńà¸Ĭà¸²à¸§":8297,"à¸ĩà¹Ģà¸Ńà¹Ģà¸Ĭ":8298,"à¸ļà¹ģà¸Ĥ":8299,"Ġà¹ĥà¸Ļà¸Ķ":8300,"à¸ģà¸Ħà¸£à¸Ńà¸ĩ":8301,"à¸Ļà¸Ĺà¸²à¸ĩà¹Ģà¸Ĥ":8302,"à¸Ńà¸Ļà¸ªà¹ģà¸ķ":8303,"tex":8304,"à¸£à¸Ķ":8305,"à¸Ńà¸¥à¸Ĺ":8306,"à¸¥à¸°à¸ª":8307,"à¸Ľà¸£à¸°à¸Īà¸³à¸Ī":8308,"à¹Ģà¸Ńà¸Ļà¹Ģà¸Ń":8309,"à¸Ļà¹Ĥà¸¥à¸ģ":8310,"à¸Ļà¸Ľà¸£à¸°à¸ģà¸Ńà¸ļà¸Ķ":8311,"à¸³à¹Ģà¸ª":8312,"à¸²à¸Ļà¹Ħà¸¡":8313,"à¸Ĥà¸Ńà¸ĩà¹Ģà¸Ķ":8314,"à¸²à¸ķà¸²à¸¢":8315,"à¹Ģà¸§à¸£":8316,"à¸ĩà¸²à¸Ļà¸ģà¸²à¸£à¹Ģà¸¡":8317,"itt":8318,"rest":8319,"à¸²à¸Ļà¸ģà¸²à¸£à¸¨":8320,"à¹Ĥà¸¥à¸ģà¸ª":8321,"à¸īà¸°à¸Ļ":8322,"à¸¢à¸ļà¸ĩ":8323,"à¸¥à¸Ľà¸ģà¸£à¸£à¸¡":8324,"à¸¡à¸Ńà¸į":8325,"à¸ªà¸²à¸¢à¸ķ":8326,"Ġ1984":8327,"à¸Īà¸ŀà¸£à¸°à¸ļà¸£à¸¡à¸Ĭà¸Ļà¸ģà¸²à¸ĺ":8328,"IN":8329,"à¸¡à¸Ķà¸²à¸§":8330,"à¸¥à¸ĩà¹ģà¸Ĥ":8331,"à¸Ĺà¸£à¹ģà¸Ńà¸ķà¹ģà¸¥à¸Ļà¸ķ":8332,"à¹ģà¸Ħà¸Ĺ":8333,"à¸ªà¸°à¹Ģà¸Ĺ":8334,"à¸ªà¸Ľà¸Ńà¸£":8335,"à¸²à¹Ĥà¸Ķ":8336,"à¸§à¸²à¸£à¸°":8337,"Ġà¹ĥà¸Ļà¸Ļà¸²à¸¡":8338,"à¸¡à¸«à¸²à¸ª":8339,"à¸ĩà¹ĥà¸Ļà¸Ń":8340,"ĠMed":8341,"à¸ĩà¸ģà¸¤à¸©à¹Ħà¸Ķ":8342,"Ġpl":8343,"Ġ1987":8344,"à¸ªà¸²à¸«à¸ģ":8345,"à¸¢à¸¡à¸£":8346,"à¸ĩà¹Ģà¸ģà¸²à¸°":8347,"à¸ģà¸©à¸²à¸ŀà¸£à¸°à¸Ńà¸ĩà¸Ħ":8348,"à¸ģà¸£à¸°à¹Ģà¸ļ":8349,"à¸Ńà¸«à¸²à¸Ĥà¸Ńà¸ĩ":8350,"à¹Ĥà¸Ħà¸¡":8351,"à¹ģà¸ªà¸ĩà¸Ńà¸²à¸Ĺ":8352,"à¸²à¹ģà¸ŀ":8353,"à¸Ĭà¸°":8354,"à¹Ģà¸£à¸ĭ":8355,"à¸Ĳà¹ģà¸¥à¸°":8356,"à¸Ĺà¸³à¹Ģà¸Ļ":8357,"à¸Ĭà¸Ļà¹Ģà¸ľ":8358,"à¸İà¸ģ":8359,"à¸Ļà¸¢à¸³":8360,"à¸ģà¹Ĥà¸Īà¸¡à¸ķ":8361,"à¸ļà¸ªà¸¡à¹Ģà¸Ķ":8362,"à¸ģà¸ªà¸Ļà¸²à¸Ļ":8363,"à¸Ļà¹ĥà¸Ļà¸¥":8364,"Ġà¸Ħà¸ĵà¸°à¸§":8365,"à¸Ńà¸Ľà¸£à¸°à¹Ģà¸Ĺà¸¨":8366,"à¸ģà¹Ĥà¸¥à¸ģ":8367,"à¸Ńà¸¡à¸²à¸§":8368,"à¹Ĥà¸Ńà¸ģà¸²à¸ªà¹Ħà¸Ķ":8369,"Ġà¹Ĥà¸£à¹Ģà¸ļ":8370,"pro":8371,"à¸ģà¹ģà¸Ĺà¸Ļà¸Ĺ":8372,"à¸Ńà¸Ļà¸Īà¸²à¸ģ":8373,"à¸Ńà¸¢à¸¡à¸²":8374,"à¸Ńà¸ģà¹ĥà¸Ĭ":8375,"à¸Ĺà¸³à¸ª":8376,"à¸ģà¸£à¸°à¹Ģà¸Ľ":8377,"à¸ĩà¸Ĥà¸¥":8378,"à¸ĩà¸Ńà¸Ńà¸ªà¹Ģà¸ķà¸£":8379,"à¸ļà¸Ńà¸¥à¸«à¸į":8380,"à¹Ħà¸ĭà¸Ļ":8381,"à¹Ĥà¸£à¸Ľà¸ķà¸°à¸§":8382,"à¸ļà¸ªà¹Ĥà¸¡à¸ªà¸£à¸Ł":8383,"à¸Ķà¸Ŀ":8384,"à¸ĵà¸ĵ":8385,"Ġà¹ĥà¸Ļà¸«à¸Ļ":8386,"à¸Ĺà¸ĺà¸Ńà¸ĩà¸Ħ":8387,"à¸«à¸¥à¸²à¸¢à¸Ĭ":8388,"à¸ĩà¸ģà¸²à¸£à¸£":8389,"à¸¡à¸²à¸ĵà¸Ļ":8390,"à¸Ńà¸¡à¸²à¹ĥà¸Ļ":8391,"ĠAss":8392,"ĠEnter":8393,"ele":8394,"à¸§à¸Ļà¸ľ":8395,"à¸ļà¸Ĺà¹Ģà¸ŀà¸¥à¸ĩ":8396,"à¹Ĥà¸£à¸§":8397,"ĠFl":8398,"à¸§à¸¢à¸Ħà¸§à¸²à¸¡à¸Ĺ":8399,"www":8400,"rec":8401,"à¸¢à¹Ģà¸Ĥ":8402,"à¸£à¸°à¹Ģà¸Ĥ":8403,"à¸ĭà¸²à¹Ģà¸¥":8404,"à¸§à¸¢à¸«à¸Ļ":8405,"à¸Ļà¸Īà¸°à¹Ħà¸Ķ":8406,"à¸¤à¸ģà¸©à¸¨à¸²à¸ªà¸ķà¸£":8407,"97":8408,"à¸£à¸¨":8409,"à¸Ńà¸Ńà¸ª":8410,"à¹Ħà¸ĺ":8411,"à¹ĥà¸Ļà¸ľ":8412,"à¸Ļà¸Ĺà¸Ńà¸ĩ":8413,"à¹Ħà¸Ľà¸Ĥ":8414,"à¸Ħà¸Ļà¹ģà¸£à¸ģà¸Ĺ":8415,"Ġà¸Ķà¸Ļà¸ķà¸£":8416,"ream":8417,"ĠRo":8418,"à¸¬à¸²à¹Ĥà¸¥à¸ģ":8419,"à¹Ģà¸«à¸¡à¸²à¸°à¸ªà¸¡à¸ģ":8420,"ĠComm":8421,"à¸ģà¸ģà¸£":8422,"à¸ģà¹Ĥà¸ĭ":8423,"à¸ķà¸Ľà¸£à¸°à¸Īà¸³à¸§":8424,"Ġà¸§à¸£à¸£à¸ĵ":8425,"à¸ĩà¸£à¸Ńà¸ļ":8426,"Ġà¹Ģà¸Ĺà¸Ħà¹Ĥà¸Ļà¹Ĥà¸¥à¸¢":8427,"à¸§à¹Ĥà¸¥à¸ģà¹Ģà¸«à¸Ļ":8428,"à¹Ģà¸Ĺà¸¨à¸ļà¸²à¸¥à¸Ļà¸Ħà¸£":8429,"ĠInd":8430,"à¹Ĥà¸Ĩà¸©":8431,"à¸Ńà¸ŀà¸£à¸°à¸Ńà¸ĩà¸Ħ":8432,"à¸§à¸ĩà¸Ķ":8433,"à¸Ļà¹ĥà¸Ļà¸£à¸°à¸Ķ":8434,"Ġà¸ģà¸£à¸ĵ":8435,"à¸ģà¸²à¸£à¸Ħà¸¡à¸Ļà¸²à¸Ħà¸¡":8436,"à¸ªà¹ģà¸ķà¸Ļà¸ķ":8437,"à¸ŀà¹Ģà¸ŀ":8438,"à¸³à¸Ĭ":8439,"à¸¨à¸Ļà¸²":8440,"Ġà¸Ĭà¸²à¸ķ":8441,"Ġà¸Ĥà¸Ńà¸ĩà¸Ļ":8442,"Ġà¸Īà¸²à¸ģà¸Ń":8443,"à¸ģà¸£à¸£à¸¡à¸ģà¸²à¸£à¸ļà¸£":8444,"à¹Ħà¸Ĺà¸¢à¸Ļ":8445,"ĠAwards":8446,"à¸Ħà¸Ńà¸Ľà¹Ģà¸ķà¸Ńà¸£":8447,"à¸Ļà¸ŀà¸ļà¸§":8448,"Ġ2495":8449,"the":8450,"Ġà¸Ńà¸¡":8451,"à¸Ļà¸łà¸²à¸©à¸²":8452,"à¸Ľà¸£à¸°à¸ĵ":8453,"à¸Ļà¹ĥà¸Ļà¸Ħà¸£":8454,"à¸ĩà¸Īà¸°à¹Ħà¸Ķ":8455,"à¸¢à¸£à¸²à¸¡à¸Ħà¸³à¹ģà¸«à¸ĩ":8456,"à¸£à¸²à¸ĩ":8457,"à¸ģà¸Ĺà¸³à¹ĥà¸«":8458,"à¸§à¸ķà¸Ļ":8459,"à¸¤à¸Ĺ":8460,"à¸Ľà¸£à¸°à¸Īà¸³à¸ģà¸²à¸£":8461,"à¸£à¸ĵà¸łà¸²à¸ŀ":8462,"Ġà¹Ģà¸ŀà¸£à¸²à¸°à¹Ģà¸Ľ":8463,"oth":8464,"à¸§à¸¥à¸°à¸Ħà¸£à¸«à¸¥":8465,"à¸Ĥà¸²à¸Ķà¹ģà¸Ħà¸¥":8466,"à¸ĩà¹Ģà¸ļà¸Ńà¸£":8467,"à¸ģà¸²à¹Ħà¸Ķ":8468,"Âł(":8469,"à¸¢à¸²à¸¢à¹Ģà¸£":8470,"à¸Ńà¸Ńà¸ģà¸Īà¸²à¸ģà¸ģ":8471,"ral":8472,"à¸Ńà¹Ģà¸«":8473,"à¸¢à¸¥à¸¥":8474,"à¸Ļà¸Īà¸°à¹Ħà¸¡":8475,"à¸²à¸Ńà¸Ńà¸ģà¸Ńà¸²à¸ģà¸²à¸¨":8476,"à¸ģà¸©à¸²à¸Ħà¸§à¸²à¸¡à¸Ľà¸¥à¸Ńà¸Ķà¸ł":8477,"Cl":8478,"à¸ĩà¸ŀà¸ļ":8479,"à¸ĩà¹Ģà¸Ĥà¸²à¹Ħà¸Ķ":8480,"à¸µâĢĿ":8481,"à¸³à¸¥à¸ĩ":8482,"à¸Īà¸°à¸¥":8483,"à¸ĩà¸Ħà¸ĩà¹ĥà¸Ĭ":8484,"ret":8485,"à¹Ħà¸¥à¸ķ":8486,"à¸¥à¸¢à¸²à¸ĵ":8487,"à¸Ĺà¸£à¸¡":8488,"à¸ŀà¸Ī":8489,"à¹ĥà¸Ļà¸łà¸²à¸©à¸²à¸Ń":8490,"à¸²à¸¡à¹ģà¸¡":8491,"à¸¹à¹Ī:":8492,"à¸łà¸²à¸ĵ":8493,"à¸²à¸Īà¸Ńà¸£":8494,"à¸Ĺà¸³à¸Ļà¸²à¸¢":8495,"à¸¢à¸²à¹Ģà¸ĺà¸Ń":8496,"à¸Ľà¸£à¸°à¸ģà¸²à¸¨à¹ĥà¸Ĭ":8497,"à¸£à¸²à¸¢à¸ģà¸²à¸£à¹Ĥà¸Ĺà¸£à¸Ĺ":8498,"à¸²à¸īà¸²à¸¢":8499,"à¸¡à¸²à¸Ħ":8500,"à¸ļà¸Ĺà¸£":8501,"à¸Īà¹ģà¸¥à¸°":8502,"à¸Ĥà¸Ńà¸ĩà¸Ķà¸²à¸§":8503,"à¸łà¸²à¸£":8504,"à¸Ĺà¸ĺà¸§":8505,"ere":8506,"Ġà¸ļà¸²à¸ĩà¸ª":8507,"à¸ĩà¹ĥà¸Ļà¸¢":8508,"Ġà¸Ħà¸£à¸Ńà¸ļà¸Ħà¸¥":8509,"Ġà¹ĥà¸Ī":8510,"à¸Ħà¸§à¸²à¸¡à¸Ĺà¸£à¸ĩà¸Īà¸³":8511,"nowiki":8512,"à¸Ńà¹Ģà¸ĭ":8513,"à¸ĵà¸ª":8514,"à¹Ģà¸§à¸ķ":8515,"à¸¢à¸²à¹Ģà¸ªà¸ŀà¸ķ":8516,"à¸ĩà¸ŀà¸²à¸ĵ":8517,"à¸ªà¹Ħà¸ķà¸¥":8518,"à¸¡à¹Ģà¸Ļ":8519,"à¸Ħà¸§à¸²à¸¡à¸Īà¸³à¹Ģà¸Ľ":8520,"à¹Ģà¸Ńà¸ĭ":8521,"à¸Īà¸³à¸Ľ":8522,"à¹Ĥà¸Ľà¸£à¹Ģà¸ķ":8523,"à¸Ńà¸¡à¸²à¸ģà¸ģà¸§":8524,"à¸łà¸²à¸©à¸²à¸¥à¸°à¸ķ":8525,"IS":8526,"ave":8527,"à¸ģà¸Ĺà¸²à¸ĩ":8528,"à¸«à¸ģà¸£à¸ĵ":8529,"à¸Īà¸²à¸ģà¹Ģà¸¡":8530,"à¸Ļà¹Ħà¸®":8531,"IT":8532,"ution":8533,"à¸¡à¸²à¸Īà¸Ļà¸ĸ":8534,"à¸ķà¸ģà¹Ģà¸Ľ":8535,"à¸²à¸ĩà¹Ħà¸§":8536,"à¸ķà¸£à¸ļ":8537,"à¸ĩà¸ªà¸«à¸Ľà¸£à¸°à¸Ĭà¸²à¸Ĭà¸²à¸ķ":8538,"à¸Ļà¸Ļà¸²à¸£":8539,"à¸¥à¸°à¸Ń":8540,"Ġà¸ŀà¸£à¸°à¸Ĺ":8541,"à¸łà¸²à¸¢à¹ĥà¸Ļà¸§":8542,"Ġà¸«à¸¥à¸§à¸ĩà¸ŀ":8543,"à¸ļà¹ģà¸ļà¸ļ":8544,"à¸Ńà¸ģà¸ľ":8545,"à¸Ńà¸ģà¹Ģà¸¥":8546,"à¸²à¸§à¸Ńà¸¢":8547,"à¸ŀà¸£à¸°à¸¨à¸ŀ":8548,"à¹Ģà¸§à¸Ļà¸ķ":8549,"ames":8550,"à¸ģà¸Ńà¸ļà¸£à¸¡":8551,"pt":8552,"à¸Ļà¹ĥà¸Ķ":8553,"à¸ĩà¹ģà¸Ĺ":8554,"à¸²à¸¡à¸²à¸Ńà¸¢":8555,"à¸Ĥà¸Ńà¸ĩà¸Ĭà¸²à¸ķ":8556,"à¸§à¸¢à¸ŀà¸£à¸°à¸£à¸²à¸Ĭà¸Ĺà¸²à¸Ļ":8557,"à¸Ĭà¸²à¸§à¹Ģà¸¡":8558,"ros":8559,"à¸Łà¸ª":8560,"Ġà¸ŀà¸¢":8561,"Ġà¸Ńà¹Ģà¸¡à¸£":8562,"à¸Ķà¸ªà¸Ļà¸²à¸¡":8563,"à¸Ķà¹ĥà¸Ļà¸ģà¸²à¸£":8564,"à¹Ĥà¸Ńà¸ķ":8565,"à¹Ģà¸Ļà¸ģ":8566,"Ġà¸Īà¸³":8567,"à¹ĥà¸Īà¸Ĺ":8568,"à¸Ļà¹ĥà¸Ļà¸ķà¸³à¹ģà¸«à¸Ļ":8569,"à¹Ĥà¸ķà¸Ļ":8570,"à¸Ļà¸ŀà¸£à¸°à¸ĺ":8571,"Ġ2496":8572,"à¸ģà¹Ģà¸¥à¸¢":8573,"à¸¡à¹Ģà¸Ħà¸£":8574,"à¸ļà¸ªà¸¡à¸²à¸Ĭ":8575,"à¸ŀà¸«à¸¥":8576,"à¸Ĥà¸Ńà¸ĩà¸«à¸¡":8577,"Ġà¸ªà¸łà¸²à¸ŀ":8578,"à¸Ļà¸ªà¸²à¸§":8579,"à¸ļà¸²à¸ĩà¹ģà¸«":8580,"unc":8581,"ext":8582,"à¸ŀà¸ĩà¸¨à¸²à¸§à¸Ķà¸²à¸£":8583,"à¸¢à¸ŀà¸£à¸°à¹Ģà¸Ī":8584,"à¸Ħà¸Ļà¸Ķ":8585,"à¸Ħà¸§à¸²à¸¡à¹Ģà¸Īà¸£":8586,"à¸§à¸Ļà¸£à¸²à¸Ĭà¸ģà¸²à¸£":8587,"Ġà¹ĥà¸Ļà¸£à¸°à¸Ķ":8588,"erm":8589,"à¹Ĥà¸£à¸Ļ":8590,"à¸ĩà¸Ĥà¸Ńà¸ĩà¸Ń":8591,"à¸Ńà¹ģà¸£à¸ģ":8592,"à¸ªà¹Ģà¸ļ":8593,"à¸ĩà¸ģà¸³à¸«à¸Ļ":8594,"à¸ģà¸£à¸°à¹Ģà¸ŀà¸²à¸°":8595,"à¸ªà¸²à¸¡à¸²à¸£à¸ĸà¹Ģà¸¥":8596,"à¹Ģà¸Ħà¸¢à¸ĸ":8597,"à¸²à¸ļà¸£à¸¡à¸£à¸²à¸Ĭ":8598,"à¸ĩà¹Ģà¸«à¸Ļ":8599,"à¸ªà¸Ńà¸¢":8600,"à¹ĥà¸Ļà¹ģà¸ĩ":8601,"à¹Ģà¸Ĺà¸Ļ":8602,"Ġà¸ŀà¸Ńà¸ķà¹Ģà¸ķà¸Ńà¸£":8603,"Ġà¹Ģà¸Ńà¸²à¸Ĭà¸Ļà¸°":8604,"à¸§à¸Ĥà¸²à¸§":8605,"à¸ļà¸«à¸į":8606,"Ġ72":8607,"à¸ļà¸Īà¸³à¸Ļà¸§à¸Ļ":8608,"à¸«à¸¥à¸²à¸¢à¸ª":8609,"à¸Ńà¸ĩà¸Īà¸²à¸ģà¹Ħà¸¡":8610,"à¸¢à¸Ļà¸Ļà¸²à¸¢à¸£":8611,"AD":8612,"à¸Ľà¸§à¸Ķ":8613,"Ġ51":8614,"à¹ģà¸Ľà¸£à¸£":8615,"ication":8616,"à¸Ńà¸³à¹Ģà¸łà¸Ńà¸ª":8617,"ĠOn":8618,"à¸Ńà¸ĩà¸Ľà¸£à¸°à¸Ķ":8619,"à¸§à¸¢à¸Ħà¸§à¸²à¸¡à¸£":8620,"Ġà¸Ħà¸Ļà¸ķ":8621,"à¹ģà¸ļà¸£à¸Ļà¸Ķ":8622,"ative":8623,"à¸£à¸°à¸ļà¸Ńà¸ļà¸Ľà¸£à¸°à¸Ĭà¸²à¸ĺ":8624,"à¸¢à¸Ĥà¸Ńà¸Ļà¹ģà¸ģ":8625,"à¸ļà¸¡à¸Ļ":8626,"à¸ļà¸Ħà¸³à¸ª":8627,"à¸²à¸ĩà¸Ķà¸²à¸§":8628,"à¸«à¸Ļà¸Ńà¸ĩ":8629,"à¸¢à¸ĩà¸¢":8630,"à¹ģà¸ªà¸ĩà¸Ĺ":8631,"à¸Ľà¸£à¸°à¸Ĭà¸²à¸ģà¸£à¸¡":8632,"Ġ600":8633,"à¸Ľà¸£à¸°à¸ģà¸²à¸¨à¸Ĥ":8634,"à¸ķà¸¥à¸Ńà¸Ķà¸Ĺ":8635,"à¸ĩà¸¤à¸Ķ":8636,"à¸Ĭà¸Ń":8637,"à¸²à¸¢à¸ĩà¸²à¸Ļ":8638,"à¸²à¸§à¸¢":8639,"à¸Ļà¹ģà¸ļà¸£":8640,"ean":8641,"à¸ĸà¸Ńà¸Ļ":8642,"à¹Ģà¸Ļà¸¥":8643,"à¸Ńà¹Ģà¸Ńà¸ģ":8644,"à¸¸\"":8645,"à¸²à¸ĩà¹Ħà¸Ľ":8646,"Ġà¹ģà¸ļà¸¥":8647,"à¸Ńà¸Ńà¸ģà¸¤à¸Ĺà¸ĺ":8648,"à¸ķà¸Ńà¸Ļà¸ķ":8649,"ĠIt":8650,"à¸§à¸£à¸£à¸ĵà¸Ħà¸Ķ":8651,"à¸ĩà¸Ľà¸£à¸°à¸ĺà¸²à¸Ļ":8652,"à¸ĩà¹Ģà¸Ħà¸¢à¹Ģà¸Ľ":8653,"à¸©à¸Ĺ":8654,"à¸įà¸ļ":8655,"à¸Ĳà¸ģ":8656,"à¸²à¸ĩà¸ªà¸ĩà¸Ħà¸£à¸²à¸¡":8657,"à¸²à¹ģà¸Ł":8658,"à¸§à¹Ĥà¸¥à¸ģà¹ĥà¸ķ":8659,"à¸Ńà¸ªà¸¡à¹Ģà¸Ķ":8660,"à¸Ħà¸Ļà¸¡":8661,"à¸Ńà¸ĩà¹Ħà¸§":8662,"à¸¢à¸ĩà¹Ħà¸®":8663,"hed":8664,"à¸ªà¸°à¸Ńà¸²à¸Ķ":8665,"à¸ģà¸Ńà¸®à¸Ńà¸¥":8666,"Ġà¹ĥà¸Ļà¸Ĭà¸²à¸£":8667,"à¹Ģà¸ªà¸¡à¸Ńà¸ģ":8668,"Ġà¹Ĥà¸Ķà¸¢à¸Ľà¸ģà¸ķ":8669,"à¸Ļà¸ģà¸²à¸£à¸Ĭ":8670,"à¸łà¸²à¸©à¸²à¸Ŀà¸£":8671,"à¸įà¸«à¸²à¸ª":8672,"à¸Ńà¸ĩà¹Ģà¸Ń":8673,"à¸Ńà¸£à¸²à¸§":8674,"à¸Ńà¸¡à¸²à¸Ń":8675,"à¸ķà¸²à¸¡à¸Ĥ":8676,"à¸ģà¸£à¸¡à¸§":8677,"à¸ģà¸©à¸²à¸Ľà¸£à¸°à¸ķ":8678,"ĠChampionship":8679,"à¸§à¹Ĥ":8680,"à¸Ńà¸ļà¹ĥà¸«":8681,"Ġà¹ĥà¸Ļà¹Ģà¸Ħà¸£":8682,"à¸Ńà¸ķà¸Ńà¸Ļ":8683,"à¸¢à¸Ńà¸¡à¹ĥà¸«":8684,"à¸ªà¸Ńà¸ĩà¸Ĺ":8685,"à¸Ħà¸§à¸²à¸¡à¸«à¸§":8686,"à¸¢à¸§à¹Ĥà¸ķ":8687,"à¸ªà¸²à¸£à¸Ĺ":8688,"à¸Ĳà¸ļà¸²à¸¥à¸Ń":8689,"Ġà¸Ĺà¸²à¸ĩà¸ķà¸°à¸§":8690,"à¸ªà¸Ļà¸²à¸¡à¹ģà¸¡":8691,"à¸ľà¸ªà¸¡à¸ģ":8692,"à¸¥à¹Ģà¸Ĭ":8693,"à¸Ķà¹ĥà¸Ļà¸§":8694,"à¸ģà¸£à¸ļ":8695,"Ġà¹Ĥà¸Ķà¸¢à¸Ĥ":8696,"à¸Ļà¸¡à¸²à¸ķà¸£à¸Ĳà¸²à¸Ļ":8697,"à¸ģà¸©à¸²à¹ĥà¸Ļà¸£à¸°à¸Ķ":8698,"à¸ªà¸²à¸£à¸Ħà¸Ķ":8699,"à¸²à¸£à¸²à¸Ĭà¸ģà¸²à¸£à¸Ī":8700,"way":8701,"à¸Ħà¸²à¸Ĺà¸Ńà¸¥":8702,"Ġà¸Ľà¸£à¸°à¹Ģà¸Ĺà¸¨à¸ªà¸«à¸£":8703,"à¸ĩà¹Ĥà¸ķà¹Ģà¸ģ":8704,"fl":8705,"à¸Īà¸Ļà¸ª":8706,"à¸³à¸ľ":8707,"à¸ģà¸£à¸ª":8708,"à¹Ĥà¸£à¸ĩà¹Ħà¸Łà¸Ł":8709,"à¸Ńà¸Ĥà¸Ńà¸ĩà¸Ī":8710,"05":8711,"à¸Ķà¸ŀà¸¥":8712,"Ġà¹ģà¸¥à¸°à¸Ļà¸³":8713,"Ġà¸ªà¸²à¹Ģà¸«à¸ķ":8714,"à¸Ļà¸Ļà¸ģ":8715,"Ġà¹Ģà¸ŀà¸Ĭà¸£":8716,"ĠGr":8717,"ĠKing":8718,"à¸ļà¸Ħà¸£à¸Ńà¸ļà¸Ħà¸£":8719,"à¹ĥà¸Ļà¸ŀà¸£à¸°à¸ļà¸²à¸Ĺà¸ªà¸¡à¹Ģà¸Ķ":8720,"enn":8721,"que":8722,"Ġà¹Ģà¸Ńà¸¡":8723,"à¸ĩà¹Ģà¸«à¸¡":8724,"à¸ļà¸Ħà¸¥":8725,"à¸Ħà¸§à¸Ńà¸Ļà¸ķ":8726,"à¹Ģà¸ĭà¸²à¸Ĺ":8727,"à¸ľà¸¥à¸Ķ":8728,"Ġà¹Ĥà¸£à¸¡":8729,"à¸²à¸Ĥà¸Ńà¸ĩà¸£":8730,"ĠRec":8731,"à¸Ĥà¸Ńà¸ĩà¸ķà¸£à¸°à¸ģ":8732,"à¸Ńà¹ģà¸ľ":8733,"à¹ĥà¸Ŀ":8734,"à¹Ĥà¸Ļà¸£":8735,"à¸ŀà¸£à¸°à¸ĺ":8736,"à¸§à¸¢à¸Ľà¸¥":8737,"Ġà¹Ĥà¸Ķà¸¢à¹ĥà¸Ļà¸Ľ":8738,"à¹Ģà¸Ĺà¸ŀà¸¨":8739,"à¸²à¹ģà¸Ŀ":8740,"Ġà¸Ľà¸£à¸°à¸ģà¸²à¸£":8741,"ull":8742,"à¹ģà¸Łà¸£à¸ĩà¸ģ":8743,"Ġà¸Ħà¸§à¸ļà¸Ħ":8744,"à¸Ĭà¸¨à¸²à¸ªà¸ķà¸£":8745,"à¸łà¸£à¸£à¸¢":8746,"à¹Ģà¸Ĥà¸²à¸Īà¸°":8747,"à¸Ĺà¸²à¸ĩà¸¨à¸²à¸ªà¸Ļà¸²":8748,"à¹Ĥà¸¡à¹Ĥà¸ķà¸°":8749,"red":8750,"à¹Ĥà¸Ńà¸ª":8751,"à¸§à¸²à¸ĩà¹Ħà¸Ĥ":8752,"à¹ģà¸Ńà¸Ļà¸Ķà¸£":8753,"Ġà¸Ĺà¸³à¸Ļ":8754,"à¹Ĥà¸£à¸ª":8755,"à¸Ļà¸Ĺà¸£à¸²à¸ļà¸£à¸¡à¸£à¸²à¸Ĭ":8756,"à¹Ħà¸®à¹Ĥà¸Ķà¸£à¹Ģà¸Ī":8757,"Ġ;":8758,"à¸ļà¸¡à¸²à¸Īà¸²à¸ģ":8759,"à¸ģà¸©à¸²à¸Ħ":8760,"à¸Ĺà¸³à¸Ķ":8761,"à¸ĩà¸ģà¸³à¹Ģà¸Ļ":8762,"Ġteam":8763,"à¸²à¸Ľà¸£à¸²à¸ģà¸ı":8764,"ES":8765,"à¸ļà¹Ģà¸«à¸£":8766,"à¸«à¸¡à¸²à¸ģ":8767,"à¸ļà¸ģà¸²à¸£à¸ģ":8768,"Ġà¹Ģà¸ªà¸¡à¸Ń":8769,"Ġà¸Ļà¸²à¸¢à¸ª":8770,"91":8771,"à¸Ħà¸ļ":8772,"à¸ģà¸©à¸²à¸Ī":8773,"à¸²à¸¢à¸Ļà¸²à¸¡":8774,"Ġà¸£à¸Ńà¸ļà¸Ħ":8775,"à¸²à¹Ģà¸«à¸£":8776,"à¸°à¹Ģà¸Ľ":8777,"à¸ģà¸²à¸£à¹Ģà¸ĩ":8778,"Ġà¹ģà¸¥à¸°à¸Īà¸°":8779,"Ġà¹ĥà¸Ļà¸£à¸²à¸¢à¸ģà¸²à¸£":8780,"à¸Ľà¸£à¸²à¸£":8781,"à¸Ļà¸Ļà¸²":8782,"à¸Ńà¸Ńà¸ģà¸ª":8783,"ĠCoun":8784,"à¸Ńà¸«à¸²à¸Ĺ":8785,"Ġ1982":8786,"Ġ1941":8787,"à¸Ńà¸¥à¸ĩ":8788,"à¸ģà¸²à¸£à¹Ģà¸ģà¸©à¸ķà¸£":8789,"à¸²à¸§à¸Ļà¸²à¸Ļ":8790,"à¸Ńà¸¡à¸«à¸¥à¸§à¸ĩ":8791,"Ġà¹ĥà¸Ļà¸ķ":8792,"Ġà¹ĥà¸Ļà¸ĭ":8793,"Ġà¸£à¸Ńà¸¢":8794,"à¸£à¸²à¸¢à¸ģà¸²à¸£à¸Ĺ":8795,"à¸Ńà¸²à¸Īà¸Ĺà¸³à¹ĥà¸«":8796,"ley":8797,"âĢĭâĢĭ":8798,"à¸įà¸įà¸²à¸ĵà¸Ĺ":8799,"à¹Ģà¸ĸà¸£":8800,"à¸Ļà¸ľà¸¥à¹ĥà¸«":8801,"à¸²à¸Ħà¸§à¸ļà¸Ħ":8802,"à¸ģà¹Ģà¸ĭà¸¡à¹Ģà¸ļ":8803,"à¸Ļà¹ĥà¸ļ":8804,"à¸ĩà¸Īà¸°à¸ķ":8805,"à¸ķà¸¨":8806,"à¹ĥà¸Ļà¹Ģà¸§":8807,"à¸«à¸¥à¸²à¸Ļ":8808,"à¸Ľà¸£à¸²à¸¢":8809,"à¸Ļà¸ªà¸ĩà¸Ħà¸£à¸²à¸¡":8810,"à¸ĩà¹ĥà¸Ļà¸ªà¸²à¸¡":8811,"à¸ĩà¸Ńà¸²à¸¨":8812,"à¸²à¸Łà¸Ĺ":8813,"à¸ªà¸ĸà¸²à¸Ľà¸Ļà¸²":8814,"Ġ2494":8815,"à¹Ģà¸ªà¸ĺà¸Ĺ":8816,"Ġà¹Ĥà¸ĭà¸Ļ":8817,"à¸Ĥà¸Ńà¸ĩà¸ŀà¸§à¸ģ":8818,"à¸ªà¸¡à¸ģ":8819,"à¸Ńà¸§à¸Ńà¸£":8820,"à¸Ļà¸Ĥà¸Ńà¸ĩà¸Ń":8821,"à¸Ĺà¸³à¸ĩà¸²à¸Ļà¹Ħà¸Ķ":8822,"Ġà¸Ľà¸£à¸°à¹Ģà¸Ĺà¸¨à¸Ī":8823,"Ġby":8824,"à¸§à¹Ģà¸Ī":8825,"à¹ģà¸Ńà¸Ħ":8826,"à¸ģà¸¥à¸Ńà¸ļ":8827,"à¸¢à¸Ļà¸Ļà¸²":8828,"à¹Ģà¸Ļà¸¢":8829,"à¸«à¸¡à¸§à¸ģ":8830,"à¸Ĳà¸²à¸Ļà¸Ĥ":8831,"à¸Ľà¸£à¸°à¸ªà¸ļà¸Ľ":8832,"oon":8833,"à¸ŀà¸Ńà¸Ĺ":8834,"à¸²à¸ĩà¹Ĩà¸Ĺ":8835,"à¸łà¸²à¸¢à¹ĥà¸Ļà¸Ľà¸£à¸°à¹Ģà¸Ĺà¸¨":8836,"oss":8837,"à¸¢à¸²à¸ģà¸Īà¸Ļ":8838,"Ġ1979":8839,"Ġ1939":8840,"à¸Ńà¹Ĥà¸Ħà¸£":8841,"à¸Ħà¹ĥà¸«à¸¡":8842,"à¸¨à¸Ļà¸Ħà¸ķ":8843,"à¹ģà¸¥à¸°à¹Ģà¸ģ":8844,"à¸¢à¸Ļà¹Ģà¸ŀ":8845,"Ġà¸¡à¸²à¹Ģà¸¥à¹Ģà¸ĭ":8846,"à¸²à¸Ĥà¸Ńà¸ĩà¸ŀà¸£à¸°à¸Ńà¸ĩà¸Ħ":8847,"à¸Ńà¸Ľà¸Ľ":8848,"à¸¢à¸Ļà¸ªà¸²à¸ĺ":8849,"à¸Ĭà¹Ģà¸Ĭà¸ªà¹ģà¸«":8850,"AM":8851,"à¸Ļà¸¥à¸²à¸¢":8852,"à¸ªà¸²à¸Ħà¸£":8853,"à¹Ģà¸¡à¸Ĩ":8854,"à¹ĥà¸Ļà¸ģà¸²à¸£à¹Ģà¸Ķ":8855,"à¸Ńà¸²à¸£à¸¢à¸ĺà¸£à¸£à¸¡":8856,"à¸Ńà¸Ļà¸ªà¹ģà¸ķà¸Ļà¸ķ":8857,"CO":8858,"à¸ªà¸«à¸łà¸²à¸ŀà¹Ĥà¸ĭà¹Ģà¸§":8859,"à¸²à¸ĩà¸«à¸£":8860,"à¸Ńà¸ĩà¸ªà¸²à¸¡":8861,"oul":8862,"à¸ķà¸°à¸ģ":8863,"à¸ªà¸§à¸²à¸¡":8864,"à¸Īà¸Ķà¸Ĺà¸°à¹Ģà¸ļ":8865,"à¸¢à¸Ļà¸¢":8866,"à¸łà¸²à¸Ħà¹Ģà¸Ńà¹Ģà¸Ĭ":8867,"à¸Ķà¸³à¸£à¸ĩà¸Ĭ":8868,"Ġà¸Ńà¸²à¸Īà¸¡":8869,"à¸ŀà¸¤à¸«":8870,"à¸²à¹ģà¸ĭ":8871,"Ġà¹Ģà¸Łà¸£":8872,"Ġà¹ĥà¸Ļà¸ļà¸£":8873,"Ġà¸Ļà¸²à¸¬":8874,"à¸ļà¸Ħà¸§à¸²à¸¡à¸Ĭ":8875,"à¹Ĥà¸ªà¸ĺà¸£":8876,"à¸¢à¹ĥà¸ķ":8877,"à¸Ķà¸²à¸Ķ":8878,"à¸Ńà¸ĩà¹ģà¸¥":8879,"à¹Ħà¸Ļà¸ķ":8880,"à¹ĥà¸Ļà¸į":8881,"à¹Ħà¸Ľà¸Ń":8882,"à¸Ļà¸¢à¸²":8883,"à¹Ģà¸ŀà¸¥à¸ĩà¸Ķ":8884,"ĠAp":8885,"à¸ļà¸Ħà¸§à¸²à¸¡à¸ªà¸Ļà¹ĥà¸Ī":8886,"à¸³à¸¡à¸²à¸ķà¸¢":8887,"à¸ļà¹Ģà¸ĺà¸Ń":8888,"à¸Īà¹Ħà¸Ķ":8889,"à¸Ńà¸Ļà¹Ģà¸ŀ":8890,"à¸Īà¸²à¸ģà¸ŀ":8891,"Ġà¸ªà¸¥":8892,"à¸Ńà¸Ķà¸²à¸§":8893,"à¸ĩà¸¡à¸²":8894,"Ġà¹Ģà¸ģà¸²à¸«à¸¥":8895,"à¹Ģà¸§à¸ĵà¹ĥà¸ģà¸¥":8896,"à¸ļà¸²à¸ĩà¸ģà¸Ńà¸ģ":8897,"à¸¡à¸Ķà¸§à¸ĩ":8898,"à¸ªà¸Ī":8899,"à¸§à¸¢à¹Ģà¸ŀ":8900,"à¸Ļà¸¡à¸²à¸Ń":8901,"à¸ļà¹Ĥà¸ķà¸Ĥ":8902,"400":8903,"yle":8904,"à¸Ńà¸§à¸ĩ":8905,"à¸Ķà¹ĥà¸Ī":8906,"à¸Ħà¸§à¸²à¸¡à¸ŀ":8907,"à¸ģà¸©à¸ĵà¸°à¸ł":8908,"à¸Ļà¸Ńà¸Ńà¸ģà¸ģà¸¥à¸²à¸ĩ":8909,"à¸¢à¸¨à¹Ģà¸Ľ":8910,"à¸ļà¸³à¹Ģà¸ŀ":8911,"à¸Ľà¹Ħà¸Ĥ":8912,"à¸Ńà¸Ļà¹Ģà¸ķ":8913,"à¸ĵà¸Ĺ":8914,"Ġà¸¡à¸²à¸ª":8915,"à¹Ģà¸Ļà¸Ľà¸²à¸¥":8916,"Ġà¹ĥà¸Ļà¸ķà¸³à¹ģà¸«à¸Ļ":8917,"à¸ĩà¸Ńà¸ĺ":8918,"à¹ģà¸£à¸ģà¸§":8919,"à¸²à¸łà¸²à¸ŀà¸¢à¸Ļà¸ķà¸£":8920,"à¸Ļà¸Ĭà¸²à¸ķ":8921,"à¸ģà¸Ľà¸£à¸°à¸ģà¸²à¸£":8922,"à¸ĩà¹Ĥà¸Ħ":8923,"à¸ķà¸«":8924,"à¸ļà¹Ĥà¸£à¸ĩà¹Ģà¸£":8925,"Ġà¸Ńà¸²à¸¥":8926,"à¸¢à¸ĩà¹Ģà¸ŀ":8927,"à¸§à¸¡à¹Ģà¸Ĥ":8928,"à¸ķà¸¥à¸ģ":8929,"à¸ĩà¸Ńà¸Ńà¸ģà¹Ħà¸Ķ":8930,"à¸²à¸«à¸¡à¸²à¸¢à¸Ĺ":8931,"à¸²à¸ĩà¸Ńà¸²à¸Ħà¸²à¸£à¹Ģà¸£":8932,"à¸Ńà¸²à¹Ģà¸ĭ":8933,"à¸ĩà¸¡à¸²à¸ģà¸ģà¸§":8934,"à¸¡à¸¡à¸²":8935,"à¸¢à¸Ńà¸Ļ":8936,"à¸Ħà¸²à¸Ļ":8937,"à¸įà¸Ļ":8938,"à¸Ļà¹ģà¸ĸ":8939,"à¸²à¸ĭà¸²":8940,"its":8941,"à¸ģà¸Ńà¸ĩà¹Ģà¸£":8942,"à¸£à¸²à¸ļà¸¥":8943,"à¸£à¸²à¸ļà¸ª":8944,"Ġà¹Ģà¸®à¸Ļà¸£":8945,"à¸Ķà¸Ħà¸§à¸²à¸¡à¸£":8946,"à¹ģà¸Ńà¸Ķ":8947,"à¹Ĥà¸¥à¸Ļ":8948,"à¸ģà¸£à¸£à¸¡à¸§":8949,"à¹Ģà¸Ħà¸£à¸Ļ":8950,"à¸Ĺà¸£à¸ĩà¸ĸ":8951,"à¸ĩà¸ļà¸§à¸ģ":8952,"ĠEd":8953,"à¸¢à¸²à¸ģà¸¥à¸³à¸ļà¸²à¸ģ":8954,"à¸Ĭà¸ŀ":8955,"à¸Ľà¸£à¸°à¸«à¸¢":8956,"à¸Ńà¸ģà¸Ńà¸ĩà¸Ĺ":8957,"à¸¢à¸Ļà¸«à¸¥":8958,"à¹Ģà¸Ħà¹Ģà¸ļ":8959,"à¸ĩà¸ªà¸ģ":8960,"à¹Ģà¸Ńà¸ģà¸Ń":8961,"à¸²à¸¢à¹Ħà¸Ľà¸Ĺ":8962,"Ġ1944":8963,"ty":8964,"Ġà¸ģà¸Ńà¸ĩà¸ģà¸³à¸¥":8965,"à¸Ĺà¸²à¸ĩà¹Ģà¸Ħà¸¡":8966,"à¸Ĺà¸³à¸ĩà¸²à¸Ļà¸Ĥà¸Ńà¸ĩ":8967,"bl":8968,"à¸ĩà¸Ĺà¸³à¸«à¸Ļ":8969,"à¸Ľà¸¥à¸²à¸Ĺ":8970,"à¸ĩà¹ĥà¸Ļà¸Ĥà¸ĵà¸°à¸Ļ":8971,"à¸ķà¹ģà¸ŀà¸Ĺà¸¢":8972,"à¹ģà¸¥à¸°à¸ªà¸£":8973,"à¹ĥà¸Ļà¸ģà¸²à¸£à¸Ħ":8974,"ates":8975,"à¸Ĺà¸³à¸ĩà¸²à¸Ļà¸Ńà¸¢":8976,"Ġà¹Ģà¸ļà¸£":8977,"Ġà¹Ĥà¸Ħà¸£à¸ĩà¸ªà¸£":8978,"à¸ĩà¹ģà¸®à¸¡":8979,"à¸ļà¸²":8980,"à¸ŀà¸£à¸°à¸£":8981,"à¸Ļà¸ªà¸ķà¸£":8982,"à¹Ģà¸Ĺà¸¨à¸¡à¸Ļà¸ķà¸£":8983,"ines":8984,"à¸Ĵà¸Ļà¸²à¸ķ":8985,"à¸²à¸ŀà¸£à¸°à¸ŀ":8986,"Ġå":8987,"à¸²à¸Ļà¸Ł":8988,"Ġà¹ģà¸¥à¸°à¸Ł":8989,"Ġà¹Ĥà¸Ķà¸¢à¹ģà¸ķ":8990,"à¸ģà¸²à¸£à¸Ħà¸³à¸Ļà¸§à¸ĵ":8991,"à¸²à¸ĩà¸Īà¸²à¸ģà¸ķ":8992,"!!":8993,"à¸Ķà¸Ħà¸§à¸²à¸¡à¸ª":8994,"à¸ļà¸ģà¸²à¸£à¸Ķ":8995,"à¸ĩà¸ģà¸¤à¸©à¸§":8996,"à¸£à¸Ńà¸ļà¸Ĺ":8997,"Ġà¸Ľà¸£à¸²à¸ªà¸²à¸Ĺ":8998,"à¸ªà¸ĸà¸²à¸Ļà¸°à¹Ģà¸Ľ":8999,"à¸Ļà¸ģà¸¥à¸²à¸¢à¹Ģà¸Ľ":9000,"à¸ĩà¹ģà¸Ĥ":9001,"à¸Ķà¹Ĥà¸Ńà¸ģà¸²à¸ªà¹ĥà¸«":9002,"à¸ķà¸ģà¸ģ":9003,"à¹ģà¸¥à¸°à¸ģà¸²à¸£à¸ª":9004,"Ġà¹ĥà¸Ļà¸ļà¸²à¸ĩ":9005,"à¸Ļà¸Ķà¸³à¸£à¸ĩà¸ķà¸³à¹ģà¸«à¸Ļ":9006,"à¸ľà¸¥à¸ľà¸¥":9007,"ics":9008,"à¸Ńà¸Ĥà¸Ńà¸ĩà¸Ń":9009,"af":9010,"pen":9011,"à¸Ļà¹Ģà¸¥à¸¢":9012,"à¸¥à¹ģà¸ģà¸£à¸¡à¸¡":9013,"à¸²à¸¢à¹Ģà¸Ķ":9014,"à¸¢à¸Ļà¸ĸ":9015,"à¸ĩà¸Ńà¸²à¸£":9016,"à¹Ħà¸Łà¸£":9017,"à¸£à¸ªà¸Ĭà¸²à¸ķ":9018,"à¹Ĥà¸Ľà¸£à¹Ģà¸ķà¸ªà¹ģà¸ķà¸Ļà¸ķ":9019,"ãĢ":9020,"à¸Ļà¸ļà¸²à¸ĩ":9021,"à¹Ĥà¸Ķà¸¢à¸¢":9022,"Ġà¹ģà¸ªà¸Ķ":9023,"à¸Ľà¸£à¸°à¹Ģà¸Ĺà¸¨à¸Ŀà¸£":9024,"à¸ĩà¹ģà¸£à¸ģà¸Ĥà¸Ńà¸ĩ":9025,"à¸ŀà¸Ńà¸ªà¸¡à¸Ħà¸§à¸£":9026,"à¸Ħà¸Ńà¸Ļà¸ģà¸£":9027,"à¸¡à¸²à¹Ģà¸¢":9028,"à¸¡à¸Ńà¸²à¸ģà¸²à¸£":9029,"à¸Ńà¸Ħà¸§à¸²à¸¡à¸Ĭ":9030,"à¹Ģà¸Ńà¸¥à¸Ł":9031,"à¸ģà¸ĺà¸£à¸£à¸¡":9032,"à¸§à¸Ľà¸£à¸°à¸ģ":9033,"à¸Ķà¸²à¸¡":9034,"à¸Ļà¸Ľà¸£à¸°à¹Ģà¸łà¸Ĺ":9035,"à¸Ńà¸Ħà¸§à¸²à¸¡à¸£":9036,"à¹Ĥà¸«à¸£":9037,"à¸Ŀà¸²à¸ľà¸Ļ":9038,"à¸«à¸¥à¸²à¸¢à¸ķ":9039,"à¹Ĥà¸Ńà¹Ģà¸ŀ":9040,"à¸Ńà¸ĩà¸Īà¸²à¸ģà¸ķ":9041,"à¸Ļà¹Ħà¸Ľà¸Ķ":9042,"à¸©à¸¢à¸Ĭà¸Ļ":9043,"à¸Ķà¸Ľà¸Ĺ":9044,"à¸¡à¸Īà¸³à¸Ļà¸§à¸Ļ":9045,"à¸«à¸Ńà¸¡":9046,"à¸Ľà¸ģà¸²à¸£":9047,"à¸ªà¸³à¸£à¸Ńà¸ĩ":9048,"à¸Ļà¹ĥà¸Ļà¹Ģà¸¡":9049,"à¸Ĭà¸²à¸§à¸ŀ":9050,"ĠEng":9051,"à¹ģà¸ªà¸Ķà¸ĩà¸Ļ":9052,"à¸Ńà¸Ľà¸£à¸°à¹Ĥà¸¢à¸Ĭà¸Ļ":9053,"à¸«à¸ĩà¸ª":9054,"à¸Ńà¸¢à¹ģà¸¥":9055,"à¸Ĺà¸²à¸ĩà¸ģà¸²à¸£à¸¨":9056,"à¸ķà¸²à¸¡à¹ģà¸ļà¸ļ":9057,"à¹Ħà¸§à¸ķ":9058,"Ġà¹Ģà¸Ĥà¸²à¹Ģà¸£":9059,"à¸Ļà¸Ĥà¸Ńà¸ĩà¸ķà¸Ļà¹Ģà¸Ńà¸ĩ":9060,"à¹ģà¸Ľà¸Ķ":9061,"Ġà¹Ģà¸īà¸¥":9062,"Ġ...":9063,"à¸¡à¸ģà¸³à¸¥":9064,"à¹ĥà¸Ļà¸ļà¸Ĺ":9065,"à¸Ńà¸£à¸ĸ":9066,"à¹Ģà¸Ĺà¸§à¸Ķ":9067,"à¸²à¸ªà¹Ģà¸ģ":9068,"à¸§à¸Ļà¸°":9069,"à¹Ģà¸ļà¸¥à¸¥":9070,"Ġ800":9071,"Ġà¸¡à¸²à¸ģà¸¡à¸²à¸¢":9072,"egin":9073,"cle":9074,"à¸Ļà¸Ńà¸¡":9075,"à¸ķà¸§à¸£à¸£à¸©à¸Ĺ":9076,"à¹ģà¸Ļà¸¥":9077,"à¸²à¸Ļà¹Ģà¸ŀ":9078,"à¹Ģà¸«à¸¥à¸§":9079,"Ġà¸ŀà¸£à¸°à¸¡à¸«à¸²à¸ģà¸©":9080,"à¹Ģà¸Ĥà¸²à¹Ģà¸£":9081,"Ġà¹Ģà¸£à¸¢":9082,"à¸ĩà¸ŀà¸£à¸°à¸¨à¸ŀ":9083,"à¹Ĥà¸¥à¸§à¸²à¹Ģà¸ģ":9084,"AS":9085,"ï¼":9086,"à¸Ńà¸Ħà¸Ļ":9087,"à¸ķà¹Ħà¸Ľ":9088,"à¸ŀà¸ª":9089,"à¸ŀà¸£à¸°à¸¢à¸²":9090,"à¹Ģà¸Īà¸ķà¸Ļ":9091,"Ġ57":9092,"à¸ļà¸£à¸£à¸Ķà¸²":9093,"à¸Ļà¸²à¸¡à¹Ģà¸Ķ":9094,"à¹Ĥà¸Ľà¸£à¹Ģà¸Īà¸ģà¸ķ":9095,"à¹ģà¸Ļà¸§à¸Ħà¸§à¸²à¸¡à¸Ħ":9096,"à¸Ļà¸²à¸Ļà¸ģ":9097,"à¸ģà¸Ĳà¸²à¸Ļà¸§":9098,"my":9099,"à¸ĩà¹Ĥà¸Ľà¸£à¸ķ":9100,"à¸ŀà¸ģ":9101,"à¸ķà¸²à¸¡à¸Ľà¸ģà¸ķ":9102,"ĠBest":9103,"à¸Ħà¸Ħà¸¥à¸ªà¸³à¸Ħ":9104,"à¹Ģà¸ľà¸¢à¹ģà¸ľ":9105,"à¹ĥà¸Ļà¸ķà¸£à¸°à¸ģ":9106,"earch":9107,"à¸Ķà¹Ģà¸ģà¸²à¸°":9108,"à¸ļà¹Ĥà¸£à¸Ħ":9109,"à¸Īà¹ĥà¸Ļà¸Ľ":9110,"Ġà¸ģà¸Ńà¸£":9111,"Ġà¹ģà¸ªà¸Ļ":9112,"à¸ļà¸Ħà¸°à¹ģà¸Ļà¸Ļ":9113,"à¸Ľà¸£à¸°à¸Īà¸³à¹Ĥà¸£à¸ĩà¹Ģà¸£":9114,"ilm":9115,"à¹ģà¸¢à¸ģà¸ģ":9116,"à¸ģà¸Īà¸°à¹ĥà¸Ĭ":9117,"à¸¥à¸Ńà¸ļ":9118,"à¸ŀà¹Ģà¸Ľ":9119,"à¹Ĥà¸ķà¹Ģà¸ķ":9120,"Ġà¸Ĥà¸Ńà¸ĩà¸ľ":9121,"à¹Ĥà¸Ńà¹Ģà¸§à¸Ńà¸£":9122,"à¸ļà¸Ķà¸²à¸§":9123,"à¸©à¸¢à¸¨à¸²à¸ªà¸ķà¸£":9124,"à¸ĩà¹Ħà¸Ľà¸Ĺ":9125,"01":9126,"Best":9127,"à¸²à¸¡à¸²à¸Ĭ":9128,"à¸Ľà¸£à¸°à¸¨à¸²à¸ªà¸Ļ":9129,"à¸²à¸§à¸ĩà¸ģà¸²à¸£":9130,"à¸§à¸¢à¸Ħà¸°à¹ģà¸Ļà¸Ļ":9131,"à¸¢à¸§à¸Ń":9132,"à¸¢à¸¡à¸ľ":9133,"à¸£à¸°à¸ļà¸ļà¸Ļ":9134,"à¸ĩà¹ģà¸¥à¸°à¸¡":9135,"à¸ķà¸³à¸ļà¸¥à¸ļ":9136,"à¸łà¸²à¸©à¸²à¸Ńà¸²à¸«à¸£":9137,"Ġdis":9138,"Ġà¸Ľà¸£à¸°à¸Ĭà¸²à¸Ĭ":9139,"à¸²à¸ĩà¹ģà¸¡":9140,"à¸²à¸ĩà¹ĥà¸ģà¸¥":9141,"à¹Ģà¸Ħà¸²à¸Ļ":9142,"Ġà¹Ĥà¸Ķà¸¢à¹Ģà¸¡":9143,"à¸¢à¸§à¸ŀ":9144,"à¸Ļà¹ĥà¸Ļà¸Ļà¸²à¸¡":9145,"à¹Ģà¸īà¸ŀà¸²à¸°à¸ģ":9146,"à¸²à¸Ĭà¸²à¸¢à¸Ń":9147,"à¸ĩà¸«à¸¡à¸Ķà¸Ļ":9148,"à¸²à¸Ľà¸£à¸²à¸ªà¸²à¸Ĺ":9149,"à¹Ģà¸ŀà¸²à¸°à¸Ľà¸¥":9150,"ĠEntertain":9151,"à¹Ħà¸£à¸ģ":9152,"Ġà¸ŀà¸¡":9153,"à¸¢à¸§à¸ª":9154,"à¸Ĭà¸²à¸§à¸¡":9155,"à¸ļà¸Ńà¸³à¹Ģà¸ł":9156,"à¹ģà¸Ľà¸¥à¸ĩà¸£":9157,"Ġ1983":9158,"Ġà¸łà¸²à¸Ħà¸§":9159,"à¸ĩà¹ģà¸ª":9160,"à¹ģà¸ļà¸Ĺ":9161,"à¸ŀà¸£à¸°à¸Ńà¸Ļ":9162,"à¹Ģà¸Ńà¸ķ":9163,"à¸Ľà¸¥à¸²à¸¢à¸Ĺ":9164,"à¸ķà¸²à¸¡à¸ª":9165,"à¸Ĥà¸Ļà¸²à¸¢à¸ģ":9166,"ĠRes":9167,"à¸Ħà¸£à¸Ńà¸ĩà¹ģà¸Ĭà¸¡à¸Ľ":9168,"à¸§à¸¢à¸Ħà¸§à¸²à¸¡à¸Īà¸³":9169,"à¸Ńà¸ĩà¸£à¸²à¸§à¸Ĺ":9170,"600":9171,"à¸²à¸Ļà¸ģà¸¥":9172,"Ġà¸ķà¸°à¸§":9173,"à¸Ħà¸Ļà¹ģà¸£à¸ģà¸Ĥà¸Ńà¸ĩ":9174,"à¸łà¸²à¸¢à¹ĥà¸Ļà¸ª":9175,"Ġ95":9176,"à¸ļà¸¡à¸²à¸Ĺ":9177,"à¸Ńà¸ĩà¸£à¸²à¸§à¹Ģà¸ģ":9178,"à¸Ķà¸Ķà¸²":9179,"à¸°à¸ĩ":9180,"à¸ŀà¹Ģà¸Ĥ":9181,"à¸³à¸Ńà¸¢":9182,"à¹ģà¸¥à¸°à¹Ģà¸¥":9183,"à¸łà¸£à¸£à¸¢à¸²":9184,"à¸Ńà¸¡à¸Ń":9185,"Ġà¸¡à¸²à¹Ģà¸£":9186,"à¸ļà¸ģà¸²à¸£à¸Ńà¸Ļ":9187,"à¸Ļà¸ģà¸²à¸£à¸Ħ":9188,"ref":9189,"à¹ĥà¸Ļà¸Ĳà¸²à¸Ļà¸°à¸ľ":9190,"à¹Ģà¸Ńà¸¢":9191,"à¸¥à¹ĥà¸Ļ":9192,"à¸°à¸Ħà¸£":9193,"à¹Į/":9194,"à¸ĩà¸Īà¸°à¸ĸ":9195,"Ġà¸Īà¸Ńà¸¡à¸ŀà¸¥":9196,"IC":9197,"à¸Ńà¸ĩà¹Ģà¸§":9198,"à¸Ńà¸ĩà¹ģà¸ģ":9199,"à¸ķà¸£à¸ĺ":9200,"à¸Ħà¸§à¸²à¸¡à¸Ŀ":9201,"à¸§à¸Ļà¸ĭ":9202,"Ġà¹ģà¸Ľà¸¥":9203,"à¸Ńà¸Ńà¸²à¸Ĭ":9204,"à¹Ĥà¸ĭà¸¡":9205,"à¸Ńà¸Ĥà¸¢à¸²à¸¢":9206,"à¸ģà¸³à¸«à¸Ļà¸Ķà¸ģà¸²à¸£":9207,"Ġ1981":9208,"à¸ŀà¸¢à¸²à¸ģà¸£à¸ĺà¸£à¸£à¸¡à¸Ĭà¸²à¸ķ":9209,"work":9210,"à¸Ļà¸Łà¸£":9211,"à¸Ńà¸ĩà¹Ģà¸ľà¸Ĭ":9212,"à¸Ļà¸ķà¸³à¸£à¸§à¸Ī":9213,"à¸Ĺà¸³à¸Ĥ":9214,"à¹Ģà¸Ĺà¸¨à¸¨à¸²à¸ªà¸ķà¸£":9215,"Ġà¹Ģà¸Ĥà¸²à¸ķ":9216,"Ġ53":9217,"à¸¢à¸Ļà¸ªà¸ķà¸£":9218,"Ġ2482":9219,"à¸ĩà¸Ľà¸£à¸°à¸Ķ":9220,"à¹Ħà¸ĸ":9221,"à¹Ħà¸§à¸Ļ":9222,"à¸¨à¸Ĺ":9223,"à¸²à¸ĩà¹Ģà¸«":9224,"à¸²à¸Ļà¸°":9225,"à¸¢à¸ĩà¹Ģà¸Ķ":9226,"Ġà¹Ĥà¸Ķà¸¢à¸Ńà¸²à¸¨":9227,"à¹Ĩà¸ģ":9228,"à¸Ļà¸§à¸²à¸¢":9229,"à¸ļà¸ģà¸²à¸£à¸Ńà¸Ńà¸ģà¹ģà¸ļà¸ļ":9230,"Ġà¸¥à¸²à¸§":9231,"à¸Ľà¸¥à¸²à¸¢à¸Ħà¸£":9232,"EE":9233,"ience":9234,"à¸Ļà¸łà¸²à¸ŀà¸Ĺ":9235,"à¸²à¸Ĥà¸²":9236,"à¸Ļà¸ģà¸²à¸£à¹Ģà¸¥":9237,"à¸ļà¸Ļà¸²à¸¢":9238,"à¸ŀà¸£à¸£à¸Ħà¸£":9239,"à¸ķà¸¥à¸Ńà¸Ķà¸Ĭ":9240,"à¹ĥà¸Ļà¸ķà¸Ńà¸Ļà¸Ĺ":9241,"à¸ŀà¸£à¸°à¸¡à¸«à¸²à¸ģà¸£":9242,"à¸Ķà¸Ļà¸Ħà¸£à¸¨à¸£":9243,"à¸¥à¸ľ":9244,"à¸§à¹Ģà¸«à¸¥":9245,"Ġà¹ģà¸¥à¸°à¸ľà¸¥":9246,"à¸Ħà¸£à¸£à¸ł":9247,"à¸Īà¸°à¹Ħà¸Ľ":9248,"ĠEl":9249,"Ø§":9250,"à¸²à¹Ħà¸Ĺà¸¢":9251,"Ġà¸ĭà¸²à¸ģ":9252,"à¸ĩà¸²à¸Ļà¸Ķ":9253,"à¸²à¸«à¸¢":9254,"à¸Ļà¸Ľà¸£à¸°à¸Īà¸³à¸Ĺ":9255,"à¸ķà¹Ģà¸Ĺ":9256,"à¹ĥà¸Ļà¸Ł":9257,"à¸Īà¸²à¸ģà¸Ħ":9258,"Ġà¸Ĺà¸²à¸ĩà¸Ĺ":9259,"ĠTV":9260,"à¸Ļà¸ŀà¸£à¸°à¸Ĺ":9261,"à¸ļà¸ģà¸ŀà¸£":9262,"à¸§à¸¢à¸ģà¸²à¸£à¹Ģà¸Ľ":9263,"à¹Ģà¸Ńà¸ªà¹Ģà¸Ń":9264,"à¸Ńà¸³à¸Ļà¸§à¸¢à¸ģà¸²à¸£à¹Ĥà¸£à¸ĩà¹Ģà¸£":9265,"à¸Ķà¸ŀà¸£à¸°à¸Ļà¸Ħà¸£à¸¨à¸£":9266,"à¸Ńà¸Ħà¸§à¸²à¸¡à¸ª":9267,"à¸¢à¸²à¸ª":9268,"à¸Ĺà¸²à¸ª":9269,"Ġà¸¡à¸²à¸ķà¸£à¸²":9270,"à¹Ħà¸¡à¸ķà¸£":9271,"à¸Ľà¸¥à¸²à¸¢à¸Ĺà¸²à¸ĩ":9272,"à¸ļà¸Ľà¸£à¸°à¸ĸà¸¡à¸¨":9273,"any":9274,"Ġà¸ĸà¸§à¸²à¸¢":9275,"à¹ģà¸ļà¸ķà¹Ģà¸ķà¸Ńà¸£":9276,"à¸Ĺà¸²à¸ĩà¸ģà¸²à¸£à¹Ģà¸ĩ":9277,"à¸Łà¸¥à¸Ńà¸£":9278,"à¸§à¸¢à¸ªà¸²à¸ģà¸¥":9279,"à¸Ľà¸°à¸ģà¸²à¸£":9280,"oh":9281,"à¸ģà¹Ģà¸Ļ":9282,"à¸ķà¹Ģà¸ķ":9283,"à¹ĥà¸Ļà¹Ĥà¸Ńà¸¥":9284,"à¹ģà¸¥à¸°à¸Ħà¸£":9285,"à¸Ľà¸£à¸²à¸£à¸ĸ":9286,"à¸²à¸Ĥà¸Ńà¸ĩà¸Ń":9287,"à¸Īà¸ŀà¸£à¸°à¸¡à¸«":9288,"à¸ĩà¹ģà¸Ľà¸¥à¸§":9289,"à¸ŀà¸£à¸°à¸£à¸²à¸Ĭà¸Ĺà¸²à¸Ļà¹Ģà¸ŀà¸¥":9290,"à¸ļà¸Ńà¸ģà¸ĭ":9291,"à¸Ļà¸Ľà¸£à¸°à¹Ģà¸Ĺà¸¨à¸Ĺ":9292,"à¸Ńà¸¢à¸Ĥ":9293,"à¸ŀà¸£à¸°à¸¡à¹Ģà¸«à¸ª":9294,"ony":9295,"à¸²à¸ķà¸²à¸¥":9296,"Ġà¹Ģà¸Ķà¸¥":9297,"à¸¢à¸įà¹Ģà¸ĩ":9298,"à¸ŀà¸£à¸°à¸Ļà¸²à¸¡à¹Ģà¸Ķ":9299,"Ġà¸ĺà¸Ļà¸²à¸Ħà¸²à¸£":9300,"à¸Ķà¸²à¸ª":9301,"à¸°à¸ģà¸Ķ":9302,"à¸¢à¸ļà¹Ħà¸Ķ":9303,"à¹Ħà¸£à¸ķ":9304,"à¹Ĵ":9305,"Ġà¸Ħà¸Ńà¸Ļ":9306,"à¸ĩà¹ĥà¸Ļà¸Ī":9307,"Ġ58":9308,"à¸Ļà¸Ĺà¸²à¸ĩà¸«à¸¥à¸§à¸ĩ":9309,"à¹ĥà¸Ļà¸ªà¸łà¸²à¸ŀ":9310,"à¸Ļà¸²à¸¢à¸ŀà¸¥":9311,"à¸¥à¸Ķà¸²":9312,"à¸įà¸«à¸²à¸Ķ":9313,"à¸Ķà¸Ńà¸£":9314,"à¹Ħà¸Ļà¸Ĺ":9315,"Ġà¹ģà¸¥à¸°à¸Ĺà¸³":9316,"à¸ŀà¸£à¸°à¹Ģà¸Ĭà¸©à¸Ĳ":9317,"Ġà¸Ļà¸ŀ":9318,"à¸Ļà¸¡à¸²à¹Ħà¸Ķ":9319,"à¸Ńà¸²à¸£à¸°à¹Ģà¸ļ":9320,"à¹ģà¸Ńà¸Ľà¹Ģà¸Ľ":9321,"à¸¢à¸Ķà¸Ĺ":9322,"à¸ģà¸²à¸£à¸Ĥà¸Ńà¸ĩ":9323,"à¹Ģà¸Ĺà¸²":9324,"à¸ĩà¸²à¸¡à¸Ī":9325,"à¸¡à¸¤à¸Ĺà¸ĺ":9326,"à¸ļà¸ĩ":9327,"à¸Īà¸²à¸ģà¸Ĭ":9328,"à¸Īà¸²à¸ģà¸¡à¸«à¸²à¸§":9329,"à¸§à¸ĩà¹Ħà¸Ķ":9330,"à¸ŀà¸¢à¸²à¸ĺ":9331,"à¸Ļà¸ļà¸²à¸Ĺ":9332,"à¹Ĥà¸ŀà¸ªà¸ķ":9333,"à¸ªà¸łà¸²à¸§à¸°":9334,"à¸ĩà¸ķà¸£à¸ĩà¸ģ":9335,"à¸¥à¸ĺà¸£à¸£à¸¡":9336,"à¸¢à¹Ģà¸ª":9337,"à¹ģà¸¥à¸Ĥà¸Ńà¸ĩ":9338,"à¸Ħà¸£à¸Ĺ":9339,"à¸Ńà¸£à¸Ńà¸ĩà¸£":9340,"Ġà¸Ńà¸²à¸ģ":9341,"Ġà¹ģà¸Ħà¸Ļ":9342,"Ġà¸£à¸²à¸§":9343,"à¸²à¸Ńà¸²à¸£":9344,"à¸Ļà¸Ńà¸²à¸¨":9345,"Ġà¸Īà¸°à¹Ģà¸£":9346,"Ġà¹ģà¸Ļà¸§à¸Ħ":9347,"OR":9348,"à¹ģà¸Ńà¸Ļà¸ķà¸²à¸£":9349,"à¸Ńà¸ĩà¹Ĥà¸Ĺà¸£à¸Ĺà¸£à¸£à¸¨à¸Ļ":9350,"à¸²à¸ģà¸Ńà¸ĩà¸Ĺ":9351,"à¸ŀà¸£à¸°à¹Ģà¸Ļà¸ķà¸£":9352,"à¸įà¸įà¸²à¸Ļ":9353,"Ġà¹Ģà¸Ńà¸¥":9354,"à¸Ļà¹Ĥà¸£à¸Ķà¸¡":9355,"à¸§à¸ģà¸¥à¸²à¸ĩ":9356,"à¸ļà¸²à¸Ķ":9357,"à¸²à¸¡à¸¡":9358,"à¸¢à¸Ļà¸ģà¸²à¸£à¸ª":9359,"à¸¢à¸§à¸ĭ":9360,"Ġà¸ģà¸²à¸£à¸ĸ":9361,"Ġ99":9362,"à¸²à¹ģà¸£à¸ĩ":9363,"ope":9364,"Ġrec":9365,"à¸ģà¸²à¸ª":9366,"à¸¡à¸ªà¸¡":9367,"à¸¥à¹Ģà¸Łà¸£":9368,"à¸Ķà¸²à¸ŀà¸£à¸°à¸Ńà¸ĩà¸Ħ":9369,"à¸Ĭà¸³à¸£à¸°":9370,"à¸²à¸§à¸Ī":9371,"à¸ĩà¸ªà¸Ļà¸²à¸¡":9372,"à¹ĥà¸Ļà¸ģà¸²à¸£à¸ĸ":9373,"à¹Ĥà¸«à¸¥à¸Ķ":9374,"Pro":9375,"à¸Ļà¸«à¸¡à¸Ķ":9376,"à¸¢à¹ģà¸£à¸ģ":9377,"à¸ķà¹Ģà¸Ĭ":9378,"à¸Ħà¸²à¸ĭ":9379,"à¸²à¸¢à¹Ģà¸ĩ":9380,"à¸ĵà¸²":9381,"ero":9382,"à¸ªà¸Ńà¸ļà¸ªà¸§à¸Ļ":9383,"Ġà¸Ĩ":9384,"à¸Ķà¸£à¸²à¸Ĭà¸ļ":9385,"à¸ģà¸²à¸£à¸ģà¸£à¸°à¸Ĺà¸³":9386,"à¸Ńà¸£à¸«":9387,"à¸ªà¸ķà¸²":9388,"à¸Ķà¸ªà¸ĩà¸Ĥà¸¥à¸²":9389,"à¸Ľà¸£à¸°à¸Ĭà¸²à¸¡à¸ķ":9390,"lege":9391,"à¸Ļà¸Ĥà¸ļà¸§à¸Ļ":9392,"à¸²à¸Ľà¸£à¸°à¸ģà¸²à¸¨":9393,"à¸ľà¸¥à¸ĩà¸²à¸Ļà¸Ĭ":9394,"ĠWh":9395,"à¸Ńà¸ŀà¸£à¸°à¸ŀ":9396,"à¸¡à¸Ħà¸Ļ":9397,"à¸Ľà¸ªà¸²à¸¡à¹Ģà¸«à¸¥":9398,"à¸²à¸¢à¹Ģà¸ŀ":9399,"à¸ĺà¸¡":9400,"à¹Ģà¸Ĥà¸²à¸Ļ":9401,"Ġà¸Ħà¸²à¸Ķà¸§":9402,"à¸Ļà¸ªà¸³à¸Ļ":9403,"à¹Ħà¸Ĺà¸¢à¹Ħà¸Ķ":9404,"ement":9405,"à¸²à¸īà¸¥à¸²à¸¡":9406,"à¹ĥà¸Ļà¹Ģà¸§à¸¥à¸²à¸Ļ":9407,"à¸Ľà¸Ńà¸£":9408,"à¹ĥà¸Ļà¹Ĥà¸£à¸ĩà¹Ģà¸£":9409,"Ġà¹ĥà¸Ļà¸ļà¸Ĺ":9410,"à¸Ļà¸§à¸Ńà¸¥à¹Ģà¸¥à¸¢":9411,"à¸¨à¸²à¸ªà¸Ļà¸ªà¸ĸà¸²à¸Ļ":9412,"Ġ54":9413,"à¸²à¸łà¸²à¸Ħ":9414,"à¸§à¹Ħà¸Ľà¸§":9415,"à¸Ļà¹Ĥà¸ķà¸£":9416,"ization":9417,"à¸ĩà¸Ħà¸§":9418,"à¸Ľà¸Ńà¸Ķ":9419,"à¸Ĥà¹ģà¸«":9420,"à¹Ĥà¸ĩ":9421,"à¸²à¸¢à¹Ģà¸ª":9422,"à¸ģà¸£à¸²à¸ģ":9423,"à¸¢à¸Ļà¹Ħà¸§":9424,"à¸ľà¸¥à¸Ľà¸£à¸°à¹Ĥà¸¢à¸Ĭà¸Ļ":9425,"à¸«à¸¥à¸²à¸¢à¸Ĺ":9426,"hel":9427,"à¸Ħà¸§à¸²à¸¡à¸ªà¸°à¸Ńà¸²à¸Ķ":9428,"à¸²à¸ªà¸¡à¹Ģà¸Ķ":9429,"app":9430,"à¹ģà¸Ķà¸Ļà¸ĭ":9431,"à¹ģà¸Ķà¸Ķ":9432,"à¸²à¸ĩà¸¥à¸ĩ":9433,"Ġà¸Ńà¸³à¸Ļà¸²à¸Ī":9434,"à¸Ńà¸¥à¸ķ":9435,"à¸ĩà¸Ĥà¸Ńà¸ĩà¸§":9436,"à¸Ļà¸ļà¸§à¸£":9437,"à¸§à¸¢à¸Ħà¸§à¸²à¸¡à¹Ģà¸£":9438,"à¸³à¹Ĥà¸Ĥà¸ĩ":9439,"à¸Ļà¹Ĥà¸¡":9440,"à¸Ńà¹Ģà¸ĺà¸Ń":9441,"à¸¡à¸ĩà¸Ħ":9442,"à¸´-":9443,"à¸Ĭà¸§à¸Ļ":9444,"à¹Ģà¸£à¸Ķ":9445,"à¸ªà¸²à¸¡à¸²à¸£à¸ĸà¹Ģà¸Ľ":9446,"à¸Ļà¸Ħà¸£à¸£à¸²à¸Ĭà¸ª":9447,"ision":9448,"Ġà¹Ħà¸ķ":9449,"à¸Ńà¸²à¸¡":9450,"à¸Ķà¸Ľà¸ı":9451,"à¸ķà¸£à¸Ĭ":9452,"à¸ĩà¸ģà¸²à¸£à¸Ĺ":9453,"à¸Ĥà¸Ńà¸ĩà¸ªà¸«à¸łà¸²à¸ŀà¹Ĥà¸ĭà¹Ģà¸§":9454,"à¸Ľà¹ģà¸ļà¸ļà¸ķ":9455,"à¸ģà¹ģà¸ľ":9456,"à¸§à¸Ķà¸Ĺ":9457,"à¸ŀà¸£à¸°à¹ģà¸¡":9458,"à¸§à¸Ļà¹Ħà¸Ķ":9459,"à¸Ńà¸ĩà¸Ħà¸Ļ":9460,"âĢ¢":9461,"à¸Īà¸ŀà¸£à¸°à¸Ľà¸ģà¹Ģà¸ģà¸¥":9462,"à¸ĺà¸¢à¸¡à¸Ľà¸¥à¸²à¸¢":9463,"à¸Ļà¸łà¸²à¸©à¸²à¸Ĺ":9464,"à¹ģà¸ģà¸°à¸ªà¸¥":9465,"Bl":9466,"à¹Ģà¸Ĵ":9467,"à¸¢à¸«à¸£":9468,"à¸ģà¸²à¸£à¸ªà¸³à¸£à¸§à¸Ī":9469,"à¸Īà¸³à¹Ģà¸ŀà¸²à¸°":9470,"à¸ļà¸ªà¸²à¸¢":9471,"à¸ļà¸Ļà¹Ĥà¸¥à¸ģ":9472,"ĠWar":9473,"à¹Ĳà¹Ĳ":9474,"à¸ģà¸Ľà¸£à¸°à¸ŀ":9475,"à¹ģà¸Ĭà¸£":9476,"à¸·à¹Ĭ":9477,"à¸¢à¸ĩà¹Ģà¸£":9478,"à¸Ńà¸°à¸Ļ":9479,"à¸ļà¸¡à¸²à¸Ń":9480,"Ġà¹ķ":9481,"à¸°à¸ģà¸°":9482,"à¸ļà¸²à¸£à¸¡":9483,"à¸Ļà¸ļà¸£à¸£à¸¢à¸²à¸ģà¸²à¸¨":9484,"à¸¡à¹ģà¸ķ":9485,"Ġà¸ģà¸İ":9486,"à¸Ĺà¸£à¸ĩà¸ŀà¸£à¸°à¸ģà¸£":9487,"à¸§à¸²à¸ĩà¸ķ":9488,"à¹ģà¸ªà¸ķà¸¡à¸Ľ":9489,"à¸Ļà¸Ļà¸Ĺ":9490,"à¸Ķà¸īà¸²à¸ģ":9491,"à¸Ĭà¸Ĭà¸²":9492,"Ġà¸ģà¸²à¸£à¸Ľà¸ı":9493,"à¹Ĥà¸ļà¸£à¸²à¸ĵà¸ªà¸ĸà¸²à¸Ļ":9494,"ĪĴ":9495,"à¸Ńà¹ĥà¸Ļà¸Ľ":9496,"à¸Īà¸°à¸Ļ":9497,"à¸¢à¸Ļà¸ĭ":9498,"à¹ģà¸ļà¸ļà¸ļ":9499,"à¸¢à¸ģà¹Ħà¸Ķ":9500,"à¸Ļà¹ĥà¸Ļà¹Ģà¸£":9501,"à¸ĩà¸Ĥà¸Ńà¸ĩà¸ķ":9502,"à¸Ĭà¸²à¸¢à¸«à¸²à¸Ķ":9503,"à¸ģà¸©à¸ĵà¸°à¸ŀ":9504,"à¸ģà¸£à¸°à¸Īà¸ģ":9505,"str":9506,"à¸£à¸²à¸ģà¸Ĳà¸²à¸Ļ":9507,"à¸¤à¹ħà¸©":9508,"à¸Ĺà¸²à¸ĩà¸ļ":9509,"à¸Ńà¸¡à¸²à¹ĥà¸Ļà¹Ģà¸Ķ":9510,"à¹ģà¸Ļà¸§à¹Ģà¸ŀà¸¥à¸ĩ":9511,"ouse":9512,"attle":9513,"CW":9514,"à¸Ķà¹Ģà¸ĭ":9515,"à¸°à¸Ĥ":9516,"à¹ĥà¸Ļà¸«à¸¥":9517,"à¸ģà¸¥à¸Ńà¸ĩ":9518,"à¸§à¸ĩà¸Ń":9519,"à¸¢à¸¡à¸Ĥà¸Ńà¸ĩ":9520,"ĠAg":9521,"à¸ģà¸³à¸«à¸Ļà¸Ķà¸§":9522,"à¸ļà¸£à¸²à¸Ĭà¸ģà¸²à¸£à¹Ģà¸Ľ":9523,"ĠEntertainment":9524,"Ph":9525,"à¸Ļà¸łà¸²à¸Ħ":9526,"à¹Ĥà¸Łà¸¥":9527,"à¸¢à¸§à¸ķ":9528,"à¹Ĥà¸£à¸Ħà¸Ļ":9529,"à¹Ģà¸īà¸ŀà¸²à¸°à¸Ĺ":9530,"à¸£à¸§à¸²à¸Ĺ":9531,"à¸²à¸ĩà¹ģà¸Ļ":9532,"à¸Ńà¸¢à¸¢":9533,"à¸ģà¸¥à¸¢":9534,"à¸Ľà¸£à¸°à¸Ĭà¸²à¸Ļ":9535,"Ġà¹Ħà¸¡à¹Ĥà¸Ħà¸£":9536,"à¸Ļà¸²à¸¢à¸ª":9537,"à¹Ĥà¸Ĺà¸£à¸Ħà¸¡à¸Ļà¸²à¸Ħà¸¡":9538,"à¸²à¹ģà¸Ķà¸ĩ":9539,"à¸ģà¸¡à¸Ńà¸ĩà¸§":9540,"à¸Ħà¸Ħà¸Ńà¸£":9541,"Ġà¹Ģà¸Łà¸Ńà¸£":9542,"à¸Ľà¸£à¸°à¸¡à¸§à¸¥à¸ģà¸İà¸«à¸¡à¸²à¸¢":9543,"à¸¡à¸«à¸²à¸Ńà¸³à¸Ļà¸²à¸Ī":9544,"à¸ģà¹Ĥà¸Ĭà¸§":9545,"à¸Ķà¹ģà¸¡":9546,"à¸¡à¸«à¸²à¸Ļ":9547,"à¸Ńà¸°à¸¥":9548,"à¸Ĵà¸Ļà¸²à¸§":9549,"rol":9550,"à¸Ĳà¸ļà¸²à¸¥à¹Ħà¸Ķ":9551,"à¸§à¸¢à¸ĩà¸²à¸Ļà¸Ĺ":9552,"à¸²à¹Ģà¸«à¸¢":9553,"à¸Ĺà¸¢à¸²à¹ģà¸¥à¸°":9554,"à¸ĩà¹ĥà¸Ļà¹Ģà¸Ķ":9555,"à¸Ńà¸Ľà¸ģà¸Ľ":9556,"à¸ĩà¹ģà¸£":9557,"Ġà¸ªà¸¡à¸ļ":9558,"à¸Ĥà¸Ńà¸ĩà¸ªà¸«à¸£à¸²à¸Ĭà¸Ńà¸²à¸ĵà¸²à¸Ī":9559,"à¸²à¸Ĭà¸įà¸²à¸ģà¸£à¸£à¸¡":9560,"à¸ŀà¸£à¸°à¸ļà¸£à¸¡à¸¡à¸«à¸²à¸£à¸²à¸Ĭà¸§":9561,"Ġà¹ĥà¸ķ":9562,"à¸Ńà¹Ģà¸Ħ":9563,"à¸ģà¸¢à¸²à¸§":9564,"à¸ĩà¹Ģà¸ĺà¸Ń":9565,"à¸Ĥà¸Ĺ":9566,"à¸Īà¸²à¸ģà¸ģà¸²à¸£à¸Ĺ":9567,"à¸¢à¸ģà¹ĥà¸«":9568,"Ġ1920":9569,"Ġsc":9570,"urg":9571,"à¸Ķà¸Ħà¸§à¸²à¸¡à¹Ģà¸ª":9572,"Mar":9573,"à¸£à¸²à¸Ł":9574,"à¸Ķà¸Ķà¸²à¹ĥà¸Ļ":9575,"à¸ĭà¸²à¸¥":9576,"à¸§à¸ĩà¹Ĥà¸Ħà¸Īà¸£":9577,"à¹Ģà¸ĺà¸Ļà¸ª":9578,"à¹Ĥà¸ĭà¹Ĥà¸Ĺ":9579,"à¹Ģà¸Łà¸Ļ":9580,"Ġcell":9581,"à¸²à¸Ħà¸§à¸²à¸¡à¸ª":9582,"à¸Ńà¸Ńà¸Łà¹Ģà¸Ķà¸Ńà¸°":9583,"ĠThailand":9584,"à¸²à¸¢à¹Ģà¸«à¸Ļ":9585,"à¸²à¸Ļà¹Ģà¸¥":9586,"à¸¢à¸ĩà¸¥à¸³à¸Ķ":9587,"à¸Ķà¸Ļà¸Ļà¸Ĺà¸ļ":9588,"à¸ģà¸Ķà¸²à¸£à¸²à¸¨à¸²à¸ªà¸ķà¸£":9589,"à¸¢à¸Ļà¹ģà¸Ľà¸¥à¸ĩà¸ģà¸²à¸£à¸Ľà¸ģà¸Ħà¸£à¸Ńà¸ĩ":9590,"à¹ĥà¸Ļà¸Ľà¸£à¸°à¹Ģà¸Ĺà¸¨à¸Ī":9591,"Ġ1972":9592,"à¸Ķà¹ĥà¸Ļà¸ª":9593,"à¹Ĥà¸Ķà¸¢à¸§":9594,"ĠAm":9595,"reen":9596,"Ġà¸Ĺà¸£à¸ĩà¸¡":9597,"à¸¥à¸ģà¸£":9598,"à¹ģà¸¥à¸°à¸«à¸¥":9599,"à¹Ģà¸Ĺà¸ģà¸ĭ":9600,"à¸§à¸¡à¹ĥà¸Ļà¸ģà¸²à¸£":9601,"à¸Ĭà¸²à¸§à¹Ģà¸ģà¸²à¸«à¸¥":9602,"Ġbegin":9603,"Ġne":9604,"Ġà¸¡à¸ģ":9605,"Ġà¸ģà¸£à¸°à¸ļ":9606,"à¸¢à¸ĩà¹ģà¸«":9607,"à¹ģà¸ģà¸Ļà¸Ķ":9608,"ren":9609,"à¸ĩà¸ŀà¸¢à¸²à¸¢à¸²à¸¡":9610,"à¸Ľà¸Ī":9611,"à¸Ńà¸¢à¸Ħ":9612,"à¸Ļà¸¡à¸²à¸ģà¸¡à¸²à¸¢":9613,"Ġ1975":9614,"ta":9615,"à¸Ķà¸Ĺà¸³à¸ģà¸²à¸£":9616,"Ġà¹ģà¸¥à¸°à¸Ŀ":9617,"Ġà¸ªà¸ķà¸²à¸£":9618,"à¸²à¸Ĺà¸Ńà¸ĩ":9619,"Ġà¹ģà¸ŀà¸£":9620,"à¸ķà¸Ńà¸Ļà¸ģà¸¥à¸²à¸ĩ":9621,"à¸ĩà¹Ģà¸¨à¸ªà¹Ħà¸Ķ":9622,"à¸¡à¸Ĭà¸Ļà¸Ĺ":9623,"Ġ2481":9624,"à¸ļà¸£à¸£à¸ŀà¸Ĭ":9625,"Ġex":9626,"Ġà¹ģà¸¥à¸°à¹Ģà¸Ń":9627,"à¹Ģà¸§à¸ģ":9628,"Ġà¹Ĥà¸Ķà¸¢à¹Ģà¸Ļ":9629,"Ġà¹Ģà¸¡à¸Ńà¸£":9630,"erv":9631,"Ġà¸ŀà¸£à¸°à¸Ħà¸£":9632,"à¸ģà¸©à¸²à¹Ģà¸ģ":9633,"à¸¢à¸°à¸Ĭ":9634,"à¸Īà¸ŀà¸£à¸°à¸Ļà¹Ģà¸£":9635,"à¸£à¸ªà¸Ĭ":9636,"à¸ģà¸ģà¸²à¸£à¸°":9637,"à¸ķà¸¢à¸ģà¸£à¸£à¸¡à¸¨à¸²à¸ªà¸ķà¸£":9638,"à¸²à¸¢à¸¡à¸²à¸Ńà¸¢":9639,"SP":9640,"à¸Ķà¸²à¸Ĭ":9641,"à¸®à¸°":9642,"à¸ĩà¸Ļà¸Ńà¸£":9643,"à¸Ļà¸Ĭà¸¡":9644,"Ġ2563":9645,"à¹Ĵà¹":9646,"à¸Ńà¸ĩà¸ªà¸³à¸Ħ":9647,"Ġà¸Ńà¸¥":9648,"à¸§à¸¡à¸ŀ":9649,"Ġbe":9650,"Ġ2485":9651,"à¸Ńà¸ĩà¸¨à¸£":9652,"à¸Ĺà¸²à¸ĩà¸Ŀ":9653,"à¸ļà¸Ļà¹Ģà¸§à¸Ĺ":9654,"à¸«à¸¥à¸²à¸ļà¸§":9655,"à¸§à¸¢à¸ŀà¸£à¸°":9656,"à¸¢à¸ģà¸Ĳà¸²à¸Ļà¸°à¹Ģà¸Ľ":9657,"à¸ļà¸ģà¸²à¸£à¸ģà¸¥":9658,"à¸Īà¸ŀà¸£à¸°à¸Ļ":9659,"ica":9660,"à¸Ńà¸ģà¸²à¸£à¸ķ":9661,"à¹Ģà¸ģà¸©à¸ķà¸£à¸ģà¸£":9662,"ĠIns":9663,"à¸£à¸²à¸£":9664,"à¸¡à¸£à¸§à¸¡":9665,"à¸ģà¸²à¸£à¸Īà¸³à¹ģà¸Ļà¸ģ":9666,"Ġà¹Ĥà¸Ķà¸¢à¸Ļà¸³":9667,"à¸ľà¸¥à¸ļ":9668,"Ġ2478":9669,"à¸¢à¹Ģà¸Ĺà¸Ħà¸Ļ":9670,"à¸Ĺà¸ļ":9671,"à¸ļà¹ģà¸ľ":9672,"à¸Ļà¸ģà¸²à¸£à¹Ģà¸Ľ":9673,"à¸ĩà¸«à¸¡à¸Ķà¹Ģà¸Ľ":9674,"Ġà¸Ħà¸§à¸²à¸¡à¹Ģà¸Ľ":9675,"sy":9676,"à¸Ńà¹ģà¸Ĥ":9677,"à¸§à¹ĥà¸Ļà¸Ľ":9678,"à¸²à¸Ļà¹ĥà¸«":9679,"à¸²à¸Ħà¸§à¸£":9680,"à¹Ģà¸Ĭà¸¥":9681,"Ġà¸Īà¸Ļà¹Ģà¸Ľ":9682,"Ġà¹Ĥà¸ŀ":9683,"à¸Ļà¸Ńà¸²à¸ĵà¸²à¸Ļ":9684,"Ġà¸¥à¸Ńà¸£":9685,"à¸Ĵà¸Ļà¸²à¹Ģà¸Ľ":9686,"à¸ģà¸Ńà¸ĩà¸Ĺà¸«à¸²à¸£":9687,"à¸īà¸²à¸¢à¸²":9688,"Ġà¹Ģà¸ļà¸¥":9689,"Ġà¸ªà¸ĸà¸²à¸Ľà¸Ļ":9690,"Com":9691,"VD":9692,"à¸ĩà¸ŀà¸£à¸£à¸Ħ":9693,"à¸Ķà¸£à¸²à¸Ĭ":9694,"à¸ļà¸Ńà¸²à¸ģà¸²à¸¨":9695,"à¹ģà¸§à¸Ļ":9696,"à¸Ħà¹Ħà¸Ķ":9697,"à¸²à¸ĩà¹ģà¸¥":9698,"Ġà¹ģà¸¥à¸°à¸ķà¸³à¸ļà¸¥":9699,"à¸ļà¸ģà¸²à¸£à¸ªà¸ĸà¸²à¸Ľà¸Ļ":9700,"ĠSm":9701,"irst":9702,"rim":9703,"à¸²à¸Ļà¸Ľà¸Ńà¸Ļà¸Ķ":9704,"à¸ŀà¸£à¸°à¸ļà¸£à¸¡à¸£à¸²à¸Ĭà¸²à¸Ļ":9705,"à¹ģà¸¡à¸Ħà¸Ķà¸²à¸§à¸Ļ":9706,"Ġà¸Ľà¸£à¸°à¸ģà¸Ńà¸ļ":9707,"à¸ģà¸ĩ":9708,"à¸ļà¹ģà¸£à¸ĩà¸ļ":9709,"à¸Īà¸Ļà¹Ħà¸Ķ":9710,"à¸£à¸°à¸¢à¸Ńà¸ĩ":9711,"à¹ģà¸¥à¸°à¸Ŀ":9712,"à¸§à¸¢à¹Ģà¸ŀà¸¥à¸ĩ":9713,"à¸¢à¸§à¹Ģà¸Ľ":9714,"à¸ŀà¸¥à¸²à¸ªà¸ķ":9715,"à¸Ķà¹Ģà¸Īà¸Ļà¸§":9716,"à¸Ļà¸Ńà¸³à¹Ģà¸łà¸Ńà¸«à¸Ļ":9717,"à¸ªà¸łà¸²à¸ľ":9718,"Ġà¹ģà¸¥à¸°à¸Ńà¸²à¸Ī":9719,"à¸ģà¸£à¸£à¸¡à¸ª":9720,"alk":9721,"Ġà¸Ńà¸³à¹Ģà¸łà¸Ńà¸ª":9722,"à¸Ħà¸ĵà¸°à¸ģà¸£à¸£à¸¡à¸²à¸ĺ":9723,"à¸ģà¹ģà¸¡":9724,"à¸¡à¹ģà¸ŀ":9725,"à¸²à¸ģà¹Ģà¸Ľ":9726,"à¸Īà¸²à¸ģà¹Ĥà¸£à¸ĩà¹Ģà¸£":9727,"Ġà¸ŀà¸Ļà¸¡":9728,"à¸£à¸²à¸Ĭà¸¡à¸ĩà¸Ħà¸¥":9729,"à¸Ķà¸ģà¸²à¸£à¸ķ":9730,"à¸įà¸«à¸²à¸Ĺà¸²à¸ĩ":9731,"ows":9732,"Ġà¹Ĥà¸Ľà¸£à¸Ķà¹Ģà¸ģà¸¥":9733,"à¸¢à¸¢à¸¨à¹Ģà¸Ľ":9734,"OS":9735,"à¸Ļà¸«à¸§":9736,"à¸Ķà¹Ģà¸Ľà¸¥":9737,"à¸Ķà¹ĥà¸ª":9738,"à¸²à¸ĩà¸ŀà¸£à¸°à¸£à¸²à¸Ĭà¸ļ":9739,"à¸łà¸²à¸¥":9740,"à¸Īà¸°à¸ģà¸¥à¸²à¸¢à¹Ģà¸Ľ":9741,"à¸¥à¸ĩà¸ªà¸Ļà¸²à¸¡":9742,"à¸ľà¸¥à¸ģà¸²à¸£à¹ģà¸Ĥ":9743,"à¸²à¸Ĥà¸Ńà¸ĩà¸ľ":9744,"à¸Ńà¸³à¸Ļà¸§à¸¢à¸ģà¸²à¸£à¸ªà¸£":9745,"à¸ļà¸Ĺà¸Ħà¸§à¸²à¸¡à¸«à¸¥":9746,"à¸ģà¸Ĭà¸²à¸ķ":9747,"à¸¥à¹Ģà¸§à¸Ńà¸£":9748,"à¸Ķà¸¡à¸²à¸ģ":9749,"à¹Ģà¸¡à¸ĺ":9750,"à¹Ģà¸Īà¹Ħà¸Ķ":9751,"Ġà¹Ĥà¸Ķà¸¢à¸«à¸¥":9752,"à¸Ńà¸Ńà¸ģà¸Ĺ":9753,"à¸ļà¸Ĺà¸Ĺ":9754,"à¸łà¸²à¸©à¸²à¸®":9755,"à¸«à¸¥à¸²à¸¢à¸ŀ":9756,"à¸²à¸Ĥà¸Ńà¸ĩà¸ķ":9757,"à¸ĩà¹ģà¸£à¸ģà¹ĥà¸Ļà¸§":9758,"à¸ļà¸Ńà¸²à¸£":9759,"Ġ1974":9760,"och":9761,"à¸Ļà¸Ľà¸£à¸°à¸ķ":9762,"à¸ģà¹Ģà¸¢à¸²à¸§à¸Ĭà¸Ļ":9763,"à¸ªà¹Ģà¸£":9764,"à¸ļà¹Ģà¸Ħ":9765,"à¸§à¸Ļà¸¢":9766,"Ġà¹Ĥà¸Ķà¸¢à¹ĥà¸Ļ":9767,"à¸Ħà¸¥à¸²à¸¢":9768,"à¸ªà¸Ńà¸ĩà¸Ĭ":9769,"à¸£à¸°à¸¢à¸°à¸ª":9770,"à¸ģà¸²à¸£à¸Ľà¸ģà¸Ħà¸£à¸Ńà¸ĩà¸Ĥà¸Ńà¸ĩ":9771,"ucle":9772,"à¸ģà¸Ńà¸¥":9773,"à¸¥à¸Ĭà¸Ļà¸°à¹Ģà¸¥":9774,"à¸ŀà¸£à¸°à¹Ģà¸¢à¸²à¸§":9775,"Ġà¸Ħà¸ĵ":9776,"à¸Ńà¸¡à¸Ľà¸£à¸²à¸ģà¸²à¸£":9777,"Ġà¸Ĺà¸°à¹Ģà¸¥":9778,"à¸Ńà¸Ķà¸³à¸Ļ":9779,"à¸Ļà¸Ńà¸²à¸£":9780,"à¸ªà¸²à¸¡à¸²à¸£à¸ĸà¸Ĥ":9781,"à¸Ĥà¸²à¸¢à¸Ķ":9782,"à¹Ģà¸Ĺà¸Ļà¹Ģà¸¡à¸Ļà¸Ĺ":9783,"à¸ģà¹Ĥà¸ļà¸£à¸²à¸ĵ":9784,"à¸¡à¸Ĺà¸³":9785,"à¸§à¹ĥà¸«à¸į":9786,"à¸¢à¸ªà¸¡à¹Ģà¸Ķ":9787,"à¸Ĺà¸ģà¸ł":9788,"à¸Ħà¸°":9789,"à¹Ħà¸ļà¹Ģà¸ļ":9790,"Ġà¸£à¸Ńà¸ĩà¸Īà¸²à¸ģ":9791,"à¸Ļà¹ģà¸£":9792,"Ġ56":9793,"à¸Īà¸ŀà¸£à¸°à¸Ļà¸²à¸£à¸²à¸¢à¸ĵ":9794,"Ġ85":9795,"à¸Īà¸³à¸Ļà¸§à¸Ļà¸Ľà¸£à¸°à¸Ĭà¸²à¸ģà¸£":9796,"à¸ķà¸¥à¸²à¸Ķà¸«à¸¥":9797,"à¹ģà¸Ńà¸¥à¸ģà¸Ńà¸®à¸Ńà¸¥":9798,"à¸Ĺà¸£à¸£à¸¨à¸ģà¸²à¸£":9799,"800":9800,"à¸¡à¸²à¸¢à¸Ĺ":9801,"à¹Ĥà¸£à¸ģ":9802,"à¸Ĥà¸Ńà¸ĩà¸Ħà¸¥":9803,"à¸§à¸Ļà¸Ĥ":9804,"à¸ģà¸§à¸²à¸ĩ":9805,"à¸ģà¸£à¸£à¸¡à¸²à¸ĺ":9806,"à¸«à¸¥à¸²à¸¢à¸Ľà¸£à¸°à¹Ģà¸Ĺà¸¨":9807,"à¸ģà¸©à¸£à¸¨à¸²à¸ªà¸ķà¸£":9808,"à¸Ļà¸Ĺà¸²à¸ĩà¸ģà¸²à¸£à¸§":9809,"BF":9810,"à¸ŀà¸²à¸ģà¸¢":9811,"à¹Ĥà¸Ķà¸¢à¹Ģà¸£":9812,"Ġà¹ĥà¸Ļà¸ļ":9813,"Ġà¸ģà¸²à¸£à¹Ģà¸£":9814,"à¸ªà¸²à¸£à¸°":9815,"Ġà¹Ģà¸Īà¸Ńà¸£":9816,"à¸Ļà¸«à¸Ńà¸¡":9817,"à¸Ľà¹ģà¸ļà¸ļà¸«à¸Ļ":9818,"à¸ģà¹ģà¸ªà¸Ķà¸ĩà¸Ĭà¸²à¸§à¹Ħà¸Ĺà¸¢":9819,"Ġà¸ŀà¸§à¸ģà¹Ģà¸Ĥà¸²à¹Ħà¸Ķ":9820,"à¸Ħà¹Ģà¸ķà¸Ńà¸£":9821,"à¸Īà¹Ģà¸¡":9822,"à¸Ńà¸ģà¸ļà¸ı":9823,"à¹Ĥà¸¡à¸¢":9824,"à¹Ĥà¸Ńà¹Ģà¸ŀà¸¥à¸ĩ":9825,"à¸£à¸Ńà¸ļà¸ª":9826,"à¸Ķà¸Ľà¸²à¸ģ":9827,"Ġ1978":9828,"eph":9829,"Ġ00":9830,"à¸Ńà¹ĥà¸Ļà¸Ĭ":9831,"à¸¥à¸§à¸Ķà¸¥à¸²à¸¢":9832,"à¸ģà¸¥à¹Ħ":9833,"à¸Ħà¸§à¸²à¸¡à¹ģà¸Ĥ":9834,"à¸¢à¸£à¸łà¸²à¸ŀ":9835,"à¹Ģà¸ªà¸Ļà¸²à¸ĺ":9836,"à¸Ķà¸ķà¸¥à¸Ńà¸Ķà¸ģà¸²à¸¥":9837,"à¸ķà¸Ħà¸£":9838,"à¸²à¸Ļà¹Ģà¸Ī":9839,"à¸Ħà¸§à¸²à¸¡à¸ģà¸§":9840,"à¸§à¸¢à¸ªà¸¡à¸²à¸Ĭ":9841,"à¸Ńà¸Ķà¹Ģà¸¥":9842,"à¸Ľà¸£à¸°à¹Ģà¸Ĺà¸¨à¹Ģà¸ģà¸²à¸«à¸¥":9843,"à¸Ļà¸¡à¸ģ":9844,"à¹Ħà¸Łà¸Ļà¸Ńà¸¥":9845,"à¹Ħà¸£à¸Ļ":9846,"à¸ģà¸©à¸£à¸Ī":9847,"à¹Ģà¸ĸà¸£à¸§à¸²à¸Ĺ":9848,"à¸Ľà¸«":9849,"à¸ŀà¸²à¸«à¸Ļà¸°":9850,"à¸Īà¸°à¸Ĺ":9851,"à¸²à¸ķà¸¥à¸Ńà¸Ķ":9852,"Ġà¹ģà¸Ĭ":9853,"à¹ģà¸ļà¸ļà¸ķ":9854,"Ġà¸ģà¸²à¸£à¸¡":9855,"Ġà¸ģà¸²à¸£à¹Ģà¸Ķ":9856,"à¸Ħà¸³à¸Ńà¸ĺ":9857,"à¸ŀà¸§à¸ģà¹Ģà¸Ĥà¸²à¹Ħà¸Ķ":9858,"na":9859,"ole":9860,"à¸²à¹Ĩ":9861,"à¸£à¸Ł":9862,"à¸¡à¸²à¸Ĺà¸³":9863,"à¸Ńà¸Ļà¸Īà¸³":9864,"à¸ģà¸£à¸ŀ":9865,"à¸ķà¸£à¸Ńà¸ĩ":9866,"Ġà¹ģà¸Ħà¸£":9867,"à¸ģà¸Ńà¸ĺ":9868,"ĠÂ":9869,"à¸Ńà¸«à¸¥à¸§à¸ĩ":9870,"à¹Ģà¸Į":9871,"à¸§à¸Ńà¸Ńà¸ģà¸Īà¸²à¸ģ":9872,"à¸Ńà¸ĩà¹Ģà¸ĭ":9873,"à¸įà¸ŀà¸£à¸°":9874,"à¸Ńà¸ģà¸Ń":9875,"à¹Ģà¸Ĥà¸²à¸§":9876,"à¸²à¸ķà¸²à¸£":9877,"à¸§à¸¡à¹ĥà¸Ļ":9878,"à¸ĩà¸ªà¸²à¸¢":9879,"Ġà¸£à¸²à¸¡":9880,"ĠDay":9881,"à¸Ľà¸¥à¸ĩà¸ŀà¸£à¸°à¸Ĭà¸Ļà¸¡":9882,"ki":9883,"à¸Īà¹ĥà¸Ļà¸ģà¸²à¸£":9884,"à¸Ńà¸Ļà¸Īà¸°à¸¡":9885,"à¹Ĥà¸Ķà¹Ģà¸Ļ":9886,"à¹Ģà¸Ĺà¸Ľ":9887,"à¸Īà¸°à¹Ģà¸Ķ":9888,"à¸ªà¸²à¸£à¹Ģà¸Ħà¸¡":9889,"Ġ700":9890,"à¸Ńà¸«à¸²à¹Ģà¸ģ":9891,"Ġà¸Ľà¸£à¸°à¹Ģà¸Ĺà¸¨à¸ªà¸§":9892,"Ġà¹ĸ":9893,"mon":9894,"à¸Ķà¹Ģà¸¢":9895,"à¸Īà¹Ĥà¸Ī":9896,"à¹Ģà¸§à¸¨à¸§":9897,"à¹ģà¸ļà¸ļà¸¡":9898,"à¸Ħà¸Ļà¸¥à¸°":9899,"à¸Ļà¹ĥà¸Ļà¸ŀ":9900,"à¸Ľà¸£à¸°à¸ªà¸ļà¸ģ":9901,"à¸ļà¸²à¸Ĺà¸«à¸¥à¸§à¸ĩ":9902,"à¸Ńà¸Ĥà¸²à¸¢":9903,"eter":9904,"ĠNet":9905,"à¸Ļà¹ĥà¸Īà¸§":9906,"à¸Ļà¹Ģà¸§à¸¥à¸²à¸«à¸¥à¸²à¸¢":9907,"ke":9908,"Ġat":9909,"à¸²à¹Ģà¸Ł":9910,"à¸µà¹Ī,":9911,"à¸ģà¸²à¸£à¸Ńà¸Ńà¸ģ":9912,"à¸Ńà¸ģà¹Ħà¸Ķ":9913,"Ġà¸ªà¸Ļà¸ĺ":9914,"Ġà¸Īà¸Ļà¹ĥà¸Ļà¸Ĺ":9915,"à¸Ļà¹ĥà¸¢":9916,"à¸²à¹Ĥà¸£à¸ĩà¹Ģà¸£":9917,"à¸¢à¹Ģà¸¢à¸²à¸§":9918,"à¹ĥà¸Ļà¹Ģà¸§à¸¥à¸²":9919,"à¹Ģà¸¡à¸ķ":9920,"à¸Łà¹Ģà¸Ł":9921,"à¸ģà¸©à¸²à¸ŀà¸£à¸°":9922,"à¸²à¸«à¸§à¸²à¸Ļ":9923,"à¸ĩà¸Ĺà¸£":9924,"à¸²à¹Ĥà¸ģà¸°":9925,"à¸ĩà¹ģà¸£à¸ģà¸ģ":9926,"250":9927,"Ġ1942":9928,"à¸ģà¹Ħà¸¥":9929,"à¸¥à¸³à¸Ļ":9930,"à¸¥à¸ĩà¸¡à¸ķ":9931,"à¸£à¸²à¸Ĭà¸Ķà¸³à¹Ģà¸Ļ":9932,"à¸ĩà¸ģà¸Ńà¸¥":9933,"à¸Ļà¸ģà¸²à¸£à¸§":9934,"à¸¥à¸¥à¸Ńà¸®":9935,"à¸ªà¸²à¸£à¸ŀ":9936,"Ġà¸Łà¸Ńà¸Ļ":9937,"à¸¢à¸²à¸§à¸Ĺ":9938,"à¸Ńà¸³à¹Ģà¸łà¸Ńà¸Ĺ":9939,"Ġ2480":9940,"order":9941,"à¸¢à¸Ļà¹Ģà¸£à¸¨à¸§à¸£":9942,"à¸ªà¸«à¸łà¸²à¸ŀ":9943,"à¸ļà¹Ģà¸ģà¸¡":9944,"à¸«à¸ģ":9945,"à¸Ńà¸ĩà¹Ħà¸«":9946,"à¸Ĥà¸²à¸Ħà¸ĵ":9947,"Ġà¸Ńà¸²à¸§":9948,"à¸ļà¸ģà¸²à¸£à¹Ģà¸£":9949,"à¸Ļà¸Īà¸Ļà¸ĸ":9950,"ĠSuper":9951,"à¸¥à¸Ľà¸°à¸Ĺ":9952,"à¸Ļà¸Ľà¸¥à¸²à¸ªà¸§à¸¢à¸ĩà¸²à¸¡":9953,"à¸Ļà¸§à¸ĩà¸Ķà¸Ļà¸ķà¸£":9954,"gram":9955,"à¸ªà¹Ģà¸Ń":9956,"à¸ļà¸ŀà¸£à¸°à¸£à¸²à¸Ĭ":9957,"à¸ļà¹Ģà¸Ńà¸ģà¸£à¸²à¸Ĭ":9958,"à¸Ĥà¸Ńà¸ĩà¸Ħà¸ĵà¸°":9959,"à¸Ńà¸¢à¸«à¸Ļ":9960,"à¸ªà¸¡à¸¡":9961,"à¸Ļà¸Ĺà¸²à¸ĩà¸ķ":9962,"à¹Ģà¸īà¸ŀà¸²à¸°à¸ķ":9963,"à¸²à¸ĩà¸ªà¸£à¸£à¸ŀà¸ª":9964,"à¸Ĺà¸«à¸²à¸£à¹Ģà¸£":9965,"Ġà¸ķà¸³à¸ļà¸¥à¸ļ":9966,"Ġà¸«à¸²à¸ģà¹ģà¸ķ":9967,"à¸Ńà¸Ĺà¸³à¸ģà¸²à¸£":9968,"à¸ļà¸²à¸Ľ":9969,"à¹ģà¸¥à¸°à¸ľà¸¥":9970,"Ġà¸Īà¸Ļà¸ª":9971,"à¸ŀà¸¥à¸Ĥà¸Ńà¸ĩ":9972,"Ġà¸ģà¸²à¸£à¹ĥà¸«":9973,"à¸ªà¸²à¸£à¸Ľà¸£à¸°à¸ģà¸Ńà¸ļ":9974,"à¸Ńà¹Ģà¸§":9975,"à¸ķà¹ĥà¸Ļà¸§":9976,"à¸ļà¸Ŀà¸£":9977,"à¸ŀà¸Ĭ":9978,"à¹Ĥà¸Ķà¸¢à¹Ģà¸īà¸¥":9979,"à¸§à¸¢à¹Ħà¸Ĺà¸¢":9980,"Ġà¸ªà¹Ģà¸Ľ":9981,"à¸ĩà¹ĥà¸Ļà¸Ķ":9982,"à¸ĩà¸Īà¸²à¸ģà¸¡":9983,"à¸ģà¸²à¸£à¸ķà¸Ńà¸ļà¸ªà¸Ļ":9984,"à¸Ńà¹ģà¸ļà¸Ħà¸Ĺ":9985,"à¸Ĥà¸Īà¸£":9986,"à¸¢à¸§à¹Ħà¸Ķ":9987,"à¸Ļà¸ģà¸²à¸£à¹ģà¸ªà¸Ķà¸ĩ":9988,"à¸«à¸¢à¸²à¸ĩ":9989,"à¸¡à¸£à¸ĵà¸°":9990,"à¸²à¸Ļà¹Ģà¸«à¸£":9991,"à¸ķà¸£à¸ª":9992,"à¸§à¸Ļà¸ģà¸¥":9993,"ĠAmeric":9994,"à¸ªà¸Ńà¸ĩà¸Ĥà¸Ńà¸ĩ":9995,"à¸Ķà¸£à¸²à¸ģ":9996,"Ġà¹Ģà¸Ħà¸¥":9997,"à¸Ļà¸ªà¸ĸà¸²à¸Ľ":9998,"à¸¡à¸Ńà¸ļà¹ĥà¸«":9999,"à¸¥à¸Łà¸Ńà¸Ļà¹Ĥà¸ĭ":10000,"à¸Ĺà¸²à¸ĩà¸ģà¸²à¸¢à¸łà¸²à¸ŀ":10001,"à¸Ńà¸Ńà¸Ķ":10002,"à¸¡à¹ģà¸¥":10003,"à¸Ńà¸ĩà¸ĩ":10004,"à¸²à¸ĩà¸ªà¸Ńà¸ĩ":10005,"à¸²à¸Ĺà¸«à¸²à¸£":10006,"à¸Ļà¸Ĥà¸Ńà¸ĩà¸Ļ":10007,"à¸ģà¸Ħà¸ĵ":10008,"à¹Ģà¸«à¸¡à¸²à¸°à¸ģ":10009,"à¸Ļà¸§à¸ĩà¸¨":10010,"à¸Ľà¹Ĥà¸łà¸Ħ":10011,"à¸µà¹Ī)":10012,"à¸Ĥà¸Ńà¸£":10013,"à¸¢à¸¡à¸¡":10014,"à¸¢à¸¡à¹Ħà¸Ķ":10015,"à¸¨à¸²à¸ªà¸Ļà¸Ī":10016,"à¸Ĭà¸²à¸¢à¸²":10017,"ĠMag":10018,"Ġcor":10019,"à¸¡à¸²à¸ªà¹Ģà¸ķà¸Ńà¸£":10020,"ĠCollege":10021,"à¸Ļà¹ģà¸Ĺà¸Ļ":10022,"à¸¡à¹Ģà¸§à¸Ĺ":10023,"à¸§à¹Ģà¸ģà¸¡":10024,"à¸§à¸ĩà¸Ħ":10025,"tis":10026,"à¸ļà¸ģà¸²à¸£à¹Ģà¸Ľà¸¥":10027,"à¸Ĵà¸Ļà¸²à¸Ń":10028,"Ġà¹Ģà¸Ĺà¸£":10029,"2012":10030,"à¸Ļà¸Īà¸²à¸ģà¸ķà¸³à¹ģà¸«à¸Ļ":10031,"à¸Ńà¸³à¸Ļà¸²à¸Īà¸Ĥà¸Ńà¸ĩ":10032,"à¸ļà¹Ħà¸Ľà¸Ĺ":10033,"Ġà¹ģà¸ģà¸£à¸Ļà¸Ķ":10034,"à¸Ļà¸Ŀà¸£":10035,"à¸Ńà¸ķà¸£":10036,"à¸¡à¸²à¸§":10037,"à¸¡à¹ĥà¸Ļà¸Ľ":10038,"à¸²à¸¢à¸Ħà¸£":10039,"à¸§à¸¢à¸²à¸ģà¸£à¸ĵ":10040,"à¸Ļà¸£à¸§à¸¡":10041,"à¸Ļà¸ģà¸²à¸£à¸ļ":10042,"à¸ªà¸²à¸¡à¸²à¸£à¸ĸà¹Ģà¸Ńà¸²à¸Ĭà¸Ļà¸°":10043,"à¸²à¸Ĥà¸Ńà¸ĩà¸§":10044,"à¸Ļà¸Ĥà¸Ńà¸ĩà¸§":10045,"à¹Ĥà¸Ħà¸£à¹Ĥà¸¡":10046,"à¸Ļà¹ģà¸¥à¸°à¸ª":10047,"à¹Ĥà¸Ħà¸Ī":10048,"à¹Ģà¸ŀà¸¨à¸ľ":10049,"à¸ģà¸°à¹Ģà¸«à¸£":10050,"à¸Īà¸Ķà¸Īà¸³":10051,"à¸£à¸ŀà¸²":10052,"à¸¢à¸įà¸Ĺà¸Ńà¸ĩà¹ģà¸Ķà¸ĩ":10053,"à¸ģà¹Ģà¸Ħà¸£":10054,"à¸¥à¹ĥà¸«":10055,"à¸ļà¸Ľà¸£à¸°à¹Ģà¸Ĺà¸¨à¹Ħà¸Ĺà¸¢":10056,"à¸Ńà¸£à¸ª":10057,"à¸ķà¸²à¸¡à¸Ķ":10058,"à¸Ńà¸«à¸¢":10059,"à¸Ļà¹Ģà¸ªà¸¡":10060,"à¸¡à¸²à¸Ļà¸²à¸Ļ":10061,"ble":10062,"à¸ĩà¸į":10063,"à¸ĩà¸¡à¸Ļ":10064,"à¸§à¸Ł":10065,"à¸£à¸°à¸¢":10066,"à¸£à¸£à¸²à¸Ĭ":10067,"Ġà¹ĥà¸Ļà¸łà¸²à¸©à¸²à¸Ń":10068,"à¸¢à¸ĩà¸Ľ":10069,"Ġà¸Īà¸Ļà¸ķ":10070,"à¸Ńà¸ªà¸ª":10071,"à¸Ĺà¸ĺà¸£à¸ĵ":10072,"à¸ķà¸²à¸¡à¸¡à¸²":10073,"à¹ĥà¸Ļà¸ģà¸²à¸£à¸Ķ":10074,"Ġà¹Ģà¸ŀà¸£":10075,"ini":10076,"à¸ģà¸ģà¸İà¸«à¸¡à¸²à¸¢":10077,"Ġà¸Łà¸¥":10078,"tical":10079,"Ġà¹Ģà¸Ńà¸Łà¹Ģà¸Ń":10080,"à¸²à¸ıà¸¨":10081,"Ġà¸ģà¸¥à¸²à¸ĩ":10082,"à¸Ļà¹Ĥà¸Ħà¸£à¸ĩà¸ªà¸£":10083,"à¸¡à¹ģà¸«":10084,"à¸ľà¸¥à¹Ģà¸Ľ":10085,"Ġà¹Ĥà¸Ħà¸Ļ":10086,"urn":10087,"Ġà¹Ĥà¸£à¸ĩà¹ģà¸£à¸¡":10088,"Ġ1967":10089,"à¸ĩà¹Ģà¸§à¸¥à¸ª":10090,"à¸¡à¹ģà¸£à¸ģà¸Ĥà¸Ńà¸ĩ":10091,"à¸ļà¸Ĭà¸²à¸¢":10092,"à¸Ħà¸«à¸¥":10093,"à¹Ĥà¸ļà¸Ļ":10094,"à¸Ĥà¸Ńà¸ĩà¹Ģà¸ĭà¸¥à¸¥":10095,"à¸¥à¸°à¸ģà¸¥":10096,"à¸Ļà¸³à¹Ģà¸Ń":10097,"à¸Ńà¸ĩà¸Ĺà¸£à¸ĩ":10098,"à¸²à¸Ĥà¸Ńà¸ĩà¸ª":10099,"ĠSing":10100,"à¸ģà¸©à¸²à¹Ħà¸§":10101,"Ġà¹Ģà¸Ħà¸²à¸Ļà¸ķ":10102,"à¸²à¹ģà¸¥à¸°à¸¡":10103,"à¸įà¸«à¸²à¸Ļ":10104,"Ġà¹Ģà¸¥à¸¢":10105,"ĠNe":10106,"ĠJohn":10107,"ĠAll":10108,"AP":10109,"à¸Ļà¸łà¸²à¸©à¸²à¹Ħà¸Ĺà¸¢":10110,"à¸ķà¸²à¹Ģà¸¥":10111,"à¹ģà¸¢à¸£":10112,"Ġà¹ĥà¸Ļà¹Ģà¸§à¸¥à¸²à¸ķ":10113,"Ġà¹Ĥà¸ŀà¸ĺ":10114,"Ġà¸ģà¸²à¸£à¹ģà¸ªà¸Ķà¸ĩ":10115,"à¸Ĭà¸²à¸§à¸®":10116,"ĠPar":10117,"à¸ģà¸Ĭà¸§à¸Ļ":10118,"à¸ļà¸Ńà¸ģà¹Ģà¸¥":10119,"à¸£à¸²à¸ļà¸Ĺ":10120,"à¸²à¸¢à¸Ĺà¸Ńà¸Ķà¸ªà¸Ķ":10121,"à¸²à¹ĥ":10122,"à¸§à¸¥à¸³":10123,"à¹Ħà¸Ļ":10124,"à¸Ńà¸ģà¸Ħ":10125,"à¸Īà¸²à¸ģà¸«à¸Ļ":10126,"à¸§à¸Ļà¸«à¸¥":10127,"à¸¢à¸§à¸Ķà¸¢":10128,"Ġà¸ªà¸²à¸¡à¸²à¸£à¸ĸà¹ĥà¸Ĭ":10129,"à¸§à¸Ħà¸²à¸ªà¹Ģà¸ĭ":10130,"rac":10131,"à¸Ńà¸Ńà¸Ńà¸ģ":10132,"à¸Ķà¸²à¸ģ":10133,"à¹Ĥà¸«à¸¡":10134,"à¸ĸà¸¥":10135,"à¸²à¸Ĭà¸²à¸Ķ":10136,"à¸²à¸ªà¸ģ":10137,"Ġà¸ªà¸°à¸ŀà¸²à¸Ļ":10138,"à¸²à¸¨à¸ģ":10139,"ĠTo":10140,"à¸¢à¸ªà¸ĩà¸Ħà¸£à¸²à¸¡":10141,"agon":10142,"à¸Ńà¸ªà¸²à¸¢à¸Ī":10143,"à¸ģà¸²à¸£à¸Ńà¸Ļ":10144,"à¸įà¸Ķ":10145,"à¹Ĥà¸Ķà¸¢à¹Ħà¸Ķ":10146,"à¸£à¸²à¸Ĭà¸²à¸Ļ":10147,"à¸§à¸¡à¹Ģà¸ŀà¸¨":10148,"Ġà¹Ĥà¸Ķà¸¢à¸ļà¸£":10149,"à¸Ńà¸Ķà¸³à¹Ģà¸Ļ":10150,"à¸łà¸²à¸ŀà¹Ģà¸Ľ":10151,"hem":10152,"à¸Ķà¹ĥà¸Ļà¸¢":10153,"à¸«à¸²à¸¢à¸²à¸ģ":10154,"à¸Ľà¸²à¸ģà¹ģà¸¡":10155,"à¸Ķà¸Ļà¸Ħà¸£à¸Ľà¸Ĳà¸¡":10156,"à¸Ńà¸Ńà¸ķà¹Ĥà¸ķà¸¡":10157,"à¸§à¹Ģà¸ª":10158,"à¸«à¸ĩ":10159,"à¸įà¸¡à¸²à¸ģ":10160,"Ġà¸ªà¸ł":10161,"à¸ļà¸ģà¸²à¸£à¹ģà¸ªà¸Ķà¸ĩ":10162,"à¸ªà¸Ńà¸ĩà¸ķ":10163,"à¸Ļà¸°à¸Ļà¸³":10164,"à¹ģà¸ĭà¸Ļà¹Ħà¸Ĺà¸Ļ":10165,"à¸Ńà¸²à¸Ĭà¸įà¸²à¸ģà¸£à¸£à¸¡":10166,"à¸ģà¸²à¸Ī":10167,"à¸ģà¸²à¸£à¸Ĥà¸¢à¸²à¸¢":10168,"à¹Ĥà¸Ķà¸¢à¸Ľà¸ģà¸ķ":10169,"à¸ģà¸¥à¸ĩà¸Ĺ":10170,"à¸Ńà¸¥à¸³":10171,"à¸ģà¸©à¸²à¹ĥà¸«":10172,"à¸Ļà¸Ĥà¸Ńà¸ĩà¸ľ":10173,"à¸Ĭà¸Ļà¸°à¸ģà¸²à¸£à¹ģà¸Ĥ":10174,"à¸ªà¸«à¸Ľà¸£à¸°à¸Ĭà¸²à¸Ĭà¸²à¸ķ":10175,"ords":10176,"à¹ĥà¸Ļà¹ģà¸ĸ":10177,"à¸²à¸ªà¸ĸà¸²à¸Ļ":10178,"à¸¢à¸§à¹ģà¸¥à¸°":10179,"à¸Ļà¸Ļà¸²à¸Ļ":10180,"à¹Ģà¸ļà¸Ļ":10181,"à¸²à¸Ľà¸²à¸£":10182,"ĠNational":10183,"à¸¡à¸Ńà¸ĩà¹Ĥà¸ģà¸¥":10184,"à¸ļà¸ģà¸²à¸£à¸ķà¸Ńà¸ļà¸£":10185,"Ġà¹ģà¸Ńà¸Łà¸£":10186,"à¸ļà¹Ģà¸Ĥà¸ķà¸ģà¸²à¸£à¸Ľà¸ģà¸Ħà¸£à¸Ńà¸ĩ":10187,"à¸²à¸§à¸²":10188,"à¸Ńà¸ªà¹Ģà¸Ļ":10189,"à¸Ĺà¸ĺà¸ª":10190,"à¹Ĥà¸£à¸Ĭ":10191,"Ġà¸Īà¸²à¸ģà¹Ĥà¸£à¸ĩà¹Ģà¸£":10192,"olar":10193,"à¸¨à¸²à¸¥à¹Ģà¸Ī":10194,"à¸¡à¸ĩà¸§à¸Ķ":10195,"à¸Ļà¸łà¸²à¸¢à¹ĥà¸ķ":10196,"à¸¢à¸²à¸ķ":10197,"à¸ļà¸Ļà¸ģ":10198,"à¹Ĥà¸Ĥà¸Ļ":10199,"à¸ģà¸²à¸£à¸£à¸§à¸¡":10200,"à¸ĺà¸Ľ":10201,"à¸Ĳà¹Ħà¸Ķ":10202,"Ġà¹Ĥà¸Ķà¸¢à¸Ľ":10203,"à¸¥à¸°à¸¡":10204,"à¸ĺà¸£à¸£à¸¡à¸Ĺ":10205,"à¸¡à¸Ńà¸ļà¸£à¸²à¸ĩà¸§":10206,"à¸Ķà¸³à¸£à¸ĩà¸Ńà¸¢":10207,"à¸Ĵà¸Ļà¸ĺà¸£à¸£à¸¡à¸Ĺ":10208,"à¸ļà¸Ńà¸Ļà¹Ħà¸Ķ":10209,"à¸ĩà¸ŀà¸ļà¸§":10210,"à¹ĥà¸Ļà¸ĸ":10211,"Ġà¹ģà¸¥à¸°à¸£à¸²à¸ĩà¸§":10212,"à¸²à¸§à¹Ħà¸Ĺà¸¢":10213,"à¹Ģà¸Ļà¸ªà¹Ĥà¸ģ":10214,"à¸Ļà¸ªà¸²à¸Ĥ":10215,"tics":10216,"AL":10217,"à¸²à¸Ļà¸²à¸ĩ":10218,"à¸Īà¸°à¸ļ":10219,"Ġà¹ĥà¸Ļà¹ģà¸ķ":10220,"à¸Ļà¸ŀà¸²à¸£":10221,"à¸Ńà¸ĩà¸Īà¸²à¸ģà¸Ĺ":10222,"à¸Ĺà¸³à¸¥à¸²à¸¢à¸¥":10223,"à¸ķà¸£à¸ģà¸£à¸£à¸¡à¸Ŀà¸²à¸ľà¸Ļ":10224,"ven":10225,"à¸Ħà¸§à¸²à¸¡à¸Ĭà¸Ńà¸ļ":10226,"à¸ļà¸ģà¸²à¸£à¸Ľà¸£":10227,"à¹ĥà¸Ļà¸ģà¸²à¸£à¸Ľà¸ģà¸Ħà¸£à¸Ńà¸ĩ":10228,"à¹Ĥà¸ģà¸Ħ":10229,"ĠPer":10230,"amb":10231,"à¹Ģà¸Ħà¸¡à¸ļà¸£":10232,"à¸ĭà¸²à¸ģà¸°":10233,"à¸ĩà¸Ļà¸ģ":10234,"à¸¡à¸ĺ":10235,"à¸ķà¸£à¸ĸ":10236,"à¸§à¸¢à¹Ģà¸Ī":10237,"à¸ĩà¹ĥà¸Ļà¸ªà¸¡à¸²à¸Ĭ":10238,"à¸£à¸°à¸ļà¸ļà¸Ĺ":10239,"ĠMod":10240,"à¸£à¸§à¸¡à¹Ħà¸Ľà¸ĸ":10241,"ety":10242,"à¸Īà¸²à¸£à¸ĵà¸²à¸Ħà¸Ķ":10243,"à¸ªà¸Ļà¸²à¸¡à¸«à¸¥à¸§à¸ĩ":10244,"à¸§à¹ģà¸¡":10245,"à¸Ķà¸Ĥà¸Ńà¸ĩà¸ª":10246,"à¸Īà¸²à¸ĩ":10247,"à¸²à¸Ļà¹Ģà¸ª":10248,"à¸Ńà¸¡à¹Ģà¸ļ":10249,"à¸łà¸²à¸ŀà¸£à¸§à¸¡":10250,"à¸ĩà¸Ļà¸Ħà¸£":10251,"à¸ļà¸ģà¸²à¸£à¸Ľà¸¥":10252,"à¹Ģà¸ŀà¸¥à¸ĩà¸Ľà¸£à¸°à¸ģà¸Ńà¸ļ":10253,"Ġ140":10254,"ations":10255,"à¸ĩà¸ľà¸¥à¸ķ":10256,"ĠStar":10257,"Ġ1969":10258,"à¸Ńà¹Ģà¸ķà¸£":10259,"à¸ļà¸ĺ":10260,"à¸«à¸¢à¸ģ":10261,"à¸²à¸ĩà¸ªà¸³à¸Ħ":10262,"à¸²à¸ĩà¸ĸà¸Ļà¸Ļ":10263,"à¹Ģà¸Ĺà¸¥":10264,"à¸§à¸Ļà¹Ģà¸ª":10265,"Ġà¸Ļà¸²à¸Ħ":10266,"à¸ĩà¸Ļà¸²à¸¢":10267,"à¸Ńà¸ģà¸²à¸£à¸¨":10268,"à¸Ļà¹Ĥà¸Ńà¸¥":10269,"à¸¡à¸²à¸ķà¸¥à¸Ńà¸Ķ":10270,"à¸Ħà¸²à¸ĸ":10271,"à¸Ńà¸¡à¸¥":10272,"à¹ģà¸Ĺà¸ļ":10273,"à¸Ńà¸ģà¸²à¸£à¹ĥà¸Ĭ":10274,"à¸Ļà¸¡à¸²à¹Ģà¸ŀ":10275,"à¸Ńà¸Łà¸£":10276,"à¸Ńà¸łà¸²à¸©à¸²à¸Ń":10277,"à¸ķà¸Ľ":10278,"à¸ªà¸£à¸£à¸ŀ":10279,"à¸Ħà¸²à¸ļà¸ªà¸¡":10280,"à¸Ĥà¸Ńà¸ĩà¸ł":10281,"Ġà¸Ħà¸¥à¸Ńà¸ĩ":10282,"à¸Ļà¸Ķà¸²à¸¡":10283,"à¸ĩà¸Ħà¸²":10284,"Ġà¸ģà¸²à¸£à¸ļà¸£":10285,"à¸Ħà¸³à¸¨":10286,"à¸ģà¸©à¸²à¹ģà¸«":10287,"ĠGl":10288,"Ġà¹Ģà¸®à¸Ńà¸£":10289,"à¸Ļà¹ģà¸ª":10290,"à¹Ĥà¸Ķà¸¢à¸ķ":10291,"à¸Ĺà¸³à¸Ĺ":10292,"Ġà¹ģà¸Ķ":10293,"Ġà¹Ĥà¸Ĩ":10294,"à¸ģà¸©à¸²à¹Ģà¸ŀ":10295,"à¸¢à¸°à¸®":10296,"ĠDis":10297,"à¸łà¸²à¸§à¸°à¸Ĺ":10298,"à¸¥à¸²à¸Ļà¸Ļà¸Ĺ":10299,"à¹Ĥà¸ķà¸£à¹Ģà¸¥":10300,"à¸¡à¸§à¸¢à¸Ľà¸¥":10301,"à¸£à¸Ń":10302,"à¸Ķà¸«à¸¡":10303,"à¸ķà¹ģà¸¥":10304,"à¸Īà¹ģà¸¥à¸°à¸ª":10305,"Ġà¸¡à¸²à¸¢":10306,"ectr":10307,"Ġ\"(":10308,"Ġà¹Ĥà¸Ķà¸¢à¸¡à¸²à¸ģ":10309,"à¹ĥà¸Ļà¸ģà¸²à¸£à¸ļà¸£":10310,"à¸ŀà¸£à¸£à¸Ħà¸Ļ":10311,"à¸ļà¸ģà¸§à¸Ļ":10312,"à¹Ĥà¸Īà¸Ĺà¸¢":10313,"à¸ķà¸³à¸£à¸§à¸Īà¹ģà¸«":10314,"à¸ĩà¸Ĺà¸²à¸ĩà¸ģà¸²à¸£à¹Ģà¸¡":10315,"à¸Ńà¸²à¸Ħà¸²à¸£à¹Ģà¸£":10316,"à¸Ĭà¸Ĭà¸²à¸Ĭ":10317,"CT":10318,"à¸§à¸ģà¸£à¸°à¸ķ":10319,"à¸Ńà¸¡à¹Ģà¸¡":10320,"à¸²à¸ļà¸²à¸ĩ":10321,"à¸Ĳà¸ļà¸²à¸¥à¸Ĥà¸Ńà¸ĩ":10322,"à¸²à¹ģà¸¥à¸°à¸ª":10323,"à¸ĩà¸ĩà¸²à¸Ļà¸Ļ":10324,"à¸ļà¸¡à¸²à¹ĥà¸Ĭ":10325,"à¸Ĭà¹Ħà¸Ķ":10326,"Ġà¹ģà¸¥à¸°à¹ĥà¸Ļà¸Ĺ":10327,"à¸Īà¸²à¸ģà¹Ģà¸£":10328,"Ġà¸Ħà¸Ļà¸Ħ":10329,"Ġà¹ĥà¸Ļà¸¨":10330,"à¸£à¸²à¸Ĭà¸ªà¸ģ":10331,"à¸Ļà¸Ńà¸²à¸ĵà¸²à¸Ī":10332,"Ġ63":10333,"à¸ľà¸¥à¸ĩà¸²à¸Ļà¸Ķ":10334,"Ġà¸Ľà¸£à¸°à¹Ģà¸Ĺà¸¨à¹Ģà¸¢à¸Ńà¸£à¸¡à¸Ļ":10335,"ura":10336,"à¹ģà¸¢à¸ģà¹Ģà¸Ľ":10337,"à¸¢à¸Ļà¸ªà¸§à¸Ļà¸ģ":10338,"à¹Ĥà¸®à¸¥":10339,"à¸ĩà¸ªà¸²à¸¡à¸²à¸£à¸ĸà¹ĥà¸Ĭ":10340,"ĠStud":10341,"der":10342,"à¸Ļà¸²à¸¨":10343,"à¸Ķà¸£à¸°à¸«à¸§":10344,"à¹ĥà¸Ļà¸£à¸²à¸Ĭà¸ģ":10345,"à¸ķà¸£à¸Ħà¸Ļà¸Ĺ":10346,"à¸Īà¸°à¹ģà¸ªà¸Ķà¸ĩ":10347,"à¸ĩà¸ģà¸£à¸°à¸Ķ":10348,"Ġà¸£à¸²à¸Ħ":10349,"à¸ļà¸ģà¸²à¸£à¸ĸ":10350,"à¹ĥà¸Ļà¸ģà¸²à¸£à¸Ķà¸³à¹Ģà¸Ļ":10351,"à¸¡à¸¡à¸²à¸ª":10352,"à¸²à¹ģà¸£":10353,"2010":10354,"à¸Ļà¹Ĥà¸Ķà¸¢à¸¡":10355,"ange":10356,"à¸ĩà¸ļà¸²à¸ĩ":10357,"à¸¥à¸«à¸Ļ":10358,"à¹ģà¸¢à¸°":10359,"à¹Ħà¸Ńà¸ŀ":10360,"à¸²à¸¢à¹Ģà¸£":10361,"à¹Ģà¸£à¸Ļà¸ĭ":10362,"à¸ĵà¸Ĳà¸²à¸Ļ":10363,"à¹Ģà¸ļà¸ģ":10364,"à¸ļà¸ģà¸²à¸£à¸Ń":10365,"à¹ĥà¸Īà¸§":10366,"à¸Ļà¹ĥà¸Ļà¸Ľà¸£à¸°à¹Ģà¸Ĺà¸¨":10367,"à¸ªà¸²à¸£à¸Ļ":10368,"à¸²à¸ĩà¸ģà¸²à¸¢à¸Ĥà¸Ńà¸ĩ":10369,"Ġà¸ķà¸³à¸£à¸§à¸Ī":10370,"ife":10371,"Ġà¸£à¸²à¸Ĭà¸Ńà¸²à¸ĵà¸²à¸Ī":10372,"à¸Ļà¸Ħà¸§à¸£":10373,"à¸ķà¸£à¸ĩà¸Ĺ":10374,"à¹Ģà¸¥à¹Ĥà¸Ń":10375,"à¸ªà¸¡à¸²à¸£":10376,"à¹Ģà¸ĭà¸¡":10377,"à¸Ħà¸Ļà¹Ģà¸¥":10378,"à¸ıà¸Ī":10379,"à¸ªà¸²à¸¡à¸²à¸£à¸ĸà¸Ħà¸§":10380,"à¹Ĥà¸¡à¹Ģà¸Ķà¸¥":10381,"à¸ĩà¹ĥà¸Ļà¹Ģà¸£":10382,"à¸ĩà¹ģà¸ķà¸ģà¸ķ":10383,"à¸Ļà¸Ĥà¸Ńà¸ĩà¸ª":10384,"Ġà¸ļà¸Ĺà¹Ĥà¸Ĺà¸£à¸Ĺ":10385,"Ġà¸ģà¸³à¸«à¸Ļà¸Ķà¹ĥà¸«":10386,"à¸Ļà¸ģà¸£à¸ĵ":10387,"à¸Ļà¹ģà¸£à¸ģà¸Ĺ":10388,"à¸ªà¸ĩà¸ª":10389,"à¸ļà¸£à¸°à¸Ķ":10390,"Ġà¸ªà¸§à¸Ļ":10391,"à¸ĩà¸ģà¸²à¸£à¹ģà¸Ĥ":10392,"à¸ĩà¸ªà¸ĸà¸²à¸ļ":10393,"à¸ģà¸£à¸§à¸¢":10394,"à¸²à¸Ĥà¸²à¸Ķ":10395,"à¹ĥà¸Ļà¸ģà¸²à¸£à¸§":10396,"à¸Ļà¹ĥà¸Ļà¸ļà¸£":10397,"ict":10398,"ings":10399,"à¸ģà¸ŀà¸²à¸ķ":10400,"à¸ĩà¸¨à¸²à¸¥":10401,"à¹Ĥà¸Ńà¸£à¸ªà¸²à¸ĺ":10402,"à¸ªà¸łà¸ĵ":10403,"à¸Ľà¸°à¸Ĺà¸°à¸ģ":10404,"à¸Ļà¹Ħà¸ĭ":10405,"à¸ģà¸Ĥà¸Ńà¸ĩà¸ª":10406,"à¸¡à¸²à¸ģà¸£":10407,"à¸«à¸²à¸£à¸ŀà¸£à¸£à¸Ħ":10408,"à¹Ģà¸Ĥà¸²à¹Ģà¸Ĥ":10409,"à¸²à¸łà¸²":10410,"Ġà¸ªà¸ĸà¸²à¸Ľ":10411,"à¸ªà¸§à¸Ļà¸ª":10412,"à¸Ħà¸²à¹Ĥà¸ģ":10413,"à¹Ĥà¸«à¸Ļ":10414,"à¸²à¸ªà¸Ĺ":10415,"Ġà¹ĥà¸Ļà¸£à¸°à¸¢à¸°":10416,"à¸Ńà¸Ķà¸Ķà¸³":10417,"à¸Ļà¸¡à¸£à¸Ķà¸ģà¹Ĥà¸¥à¸ģ":10418,"à¸Ļà¸ĺà¸ª":10419,"à¹Ģà¸ļà¹Ģà¸Ļ":10420,"à¸Ńà¸ĩà¸ªà¸ĩà¸ª":10421,"à¹Ģà¸§à¸ĵà¸«à¸Ļ":10422,"Ġsh":10423,"à¸ªà¸łà¸²à¸ŀà¸ł":10424,"à¹Ģà¸§à¸Ĭà¸¨à¸²à¸ªà¸ķà¸£":10425,"MS":10426,"à¸²à¹ĥà¸«à¸į":10427,"à¸Īà¹ĥà¸Ļ":10428,"à¸²à¸¢à¸ģà¸§":10429,"à¸ĺà¸§":10430,"à¸įà¸¡à¸ĵ":10431,"à¸Ħà¸§à¸²à¸¡à¸ŀà¸£":10432,"à¹ĥà¸Ļà¸ģà¸²à¸£à¸Ĭ":10433,"Ġà¹Ģà¸Ĥà¸²à¸ģà¸¥":10434,"à¸ªà¸¡à¸²à¸Ħà¸¡à¸Ł":10435,"à¸ļà¹Ģà¸Ĥà¸ķà¸ģà¸²à¸£à¸Ľà¸ģà¸Ħà¸£à¸Ńà¸ĩà¸Ĥ":10436,"uch":10437,"Ã¼":10438,"Ġà¹Ĥà¸¥à¸ģ":10439,"à¸ģà¸ŀà¸£à¸°à¸Ńà¸ĩà¸Ħ":10440,"à¸ĩà¸Ľà¸£à¸°à¸ģà¸²à¸¨":10441,"à¸ŀà¸ģà¸¥":10442,"à¸²à¸¢à¹ĥà¸Ļà¸Ľ":10443,"à¸Ńà¸Ļà¸Ľà¸£à¸°à¸§":10444,"à¸²à¸§à¸ģà¸£":10445,"à¸Ľà¸£à¸²à¸ģà¸£":10446,"à¸Ļà¸ĺà¸°":10447,"à¸Ľà¸¥à¸Ńà¸¡":10448,"à¹ģà¸£à¸ģà¹Ģà¸£":10449,"à¸Īà¸³à¸Ļà¸Ļ":10450,"à¸ĩà¹ĥà¸Ļà¸«":10451,"Ġà¹Ħà¸Ĭ":10452,"Ġà¸ªà¸Ļà¸²à¸¡à¸ģ":10453,"à¸Ļà¸£à¸°à¸¢à¸°à¸Ĺà¸²à¸ĩ":10454,"à¸Ķà¸²à¸Ħ":10455,"à¸Ķà¹Ģà¸¥à¸¢":10456,"à¸ŀà¸Ķ":10457,"à¸Ĭà¸²à¸ª":10458,"à¸Ĭà¸ģà¸£à¸£à¸¡":10459,"à¸ĩà¸Ħà¸ĩà¸£":10460,"à¸£à¸²à¸¢à¸§":10461,"à¸Ńà¸ĩà¸ªà¸§":10462,"à¸Ľà¸£à¸°à¸Īà¸³à¸ªà¸³à¸Ļ":10463,"ĠPart":10464,"à¸ĩà¸¢à¸²à¸ģ":10465,"à¸Ĺà¸³à¸ĩà¸²à¸Ļà¸ģ":10466,"Ġà¸¢à¸ģà¸ķ":10467,"à¸Ļà¹ģà¸Ļà¸§à¸Ħ":10468,"ÂŃ":10469,"á»":10470,"à¹ĵ":10471,"à¸ģà¸ŀà¸ļ":10472,"à¸ģà¹Ĥà¸¢à¸ĺ":10473,"à¸¡à¹Ģà¸Ī":10474,"à¸§à¹Ĩ":10475,"à¸ķà¸ģà¸Ńà¸¢":10476,"à¸Īà¸ªà¸¡à¸ļ":10477,"à¸Ķà¸ªà¸£à¸°":10478,
[...]
